{
    "<pad>": 0,
    "<unk>": 1,
    "<mask>": 2,
    "ll": 3,
    "dll": 4,
    "32": 5,
    "32dll": 6,
    "er": 7,
    "et": 8,
    "in": 9,
    "el": 10,
    "ea": 11,
    "ern": 12,
    "ol": 13,
    "kern": 14,
    "kernel": 15,
    "\u2581kernel": 16,
    "\u2581kernel32dll": 17,
    "va": 18,
    "re": 19,
    "co": 20,
    "get": 21,
    "ro": 22,
    "st": 23,
    "pi": 24,
    "\u2581ol": 25,
    "en": 26,
    "ut": 27,
    "cr": 28,
    "ct": 29,
    "ex": 30,
    "ad": 31,
    "es": 32,
    "sp": 33,
    "eaut": 34,
    "it": 35,
    "\u2581w": 36,
    "\u2581oleaut": 37,
    "\u2581oleaut32dll": 38,
    "at": 39,
    "or": 40,
    "pi32dll": 41,
    "nt": 42,
    "pro": 43,
    "\u2581ad": 44,
    "\u2581adva": 45,
    "\u2581advapi32dll": 46,
    "dr": 47,
    "em": 48,
    "on": 49,
    "al": 50,
    "us": 51,
    "an": 52,
    "set": 53,
    "pt": 54,
    "\u2581win": 55,
    "int": 56,
    "var": 57,
    "ool": 58,
    "le": 59,
    "com": 60,
    "user": 61,
    "lo": 62,
    "ion": 63,
    "sh": 64,
    "spool": 65,
    "spooldr": 66,
    "\u2581winspooldr": 67,
    "\u2581kernel32dllget": 68,
    "fi": 69,
    "\u2581oleaut32dllvar": 70,
    "\u2581user": 71,
    "di": 72,
    "\u2581user32dll": 73,
    "\u2581ole": 74,
    "\u2581ole32dll": 75,
    "str": 76,
    "ypt": 77,
    "crypt": 78,
    "se": 79,
    "eat": 80,
    "ac": 81,
    "\u2581winspooldrv": 82,
    "id": 83,
    "ess": 84,
    "inter": 85,
    "ent": 86,
    "ar": 87,
    "ctl": 88,
    "de": 89,
    "creat": 90,
    "\u2581com": 91,
    "\u2581comctl": 92,
    "\u2581comctl32dll": 93,
    "pr": 94,
    "reg": 95,
    "im": 96,
    "api": 97,
    "proc": 98,
    "vi": 99,
    "inf": 100,
    "\u2581ole32dllco": 101,
    "ur": 102,
    "um": 103,
    "am": 104,
    "ce": 105,
    "iz": 106,
    "oc": 107,
    "init": 108,
    "un": 109,
    "ext": 110,
    "rom": 111,
    "from": 112,
    "ind": 113,
    "and": 114,
    "ow": 115,
    "ui": 116,
    "cl": 117,
    "ect": 118,
    "th": 119,
    "ke": 120,
    "create": 121,
    "process": 122,
    "as": 123,
    "prop": 124,
    "printer": 125,
    "ing": 126,
    "apidll": 127,
    "rea": 128,
    "\u2581advapi32dllreg": 129,
    "ist": 130,
    "\u2581m": 131,
    "up": 132,
    "exw": 133,
    "enum": 134,
    "ew": 135,
    "all": 136,
    "ch": 137,
    "read": 138,
    "sy": 139,
    "ial": 140,
    "key": 141,
    "info": 142,
    "cur": 143,
    "qu": 144,
    "hand": 145,
    "res": 146,
    "ializ": 147,
    "initializ": 148,
    "fil": 149,
    "\u2581nt": 150,
    "op": 151,
    "con": 152,
    "orm": 153,
    "dat": 154,
    "ag": 155,
    "\u2581crypt": 156,
    "rect": 157,
    "fre": 158,
    "ver": 159,
    "string": 160,
    "imm": 161,
    "file": 162,
    "\u2581d": 163,
    "dlln": 164,
    "val": 165,
    "mo": 166,
    "\u2581sh": 167,
    "\u2581ms": 168,
    "cm": 169,
    "alloc": 170,
    "open": 171,
    "\u2581g": 172,
    "to": 173,
    "ib": 174,
    "del": 175,
    "direct": 176,
    "ery": 177,
    "query": 178,
    "indow": 179,
    "eme": 180,
    "clo": 181,
    "valu": 182,
    "handle": 183,
    "crt": 184,
    "spdll": 185,
    "\u2581cryptspdll": 186,
    "ormat": 187,
    "ert": 188,
    "\u2581cryptspdllcrypt": 189,
    "cont": 190,
    "sa": 191,
    "ul": 192,
    "\u2581kernel32dllset": 193,
    "dllget": 194,
    "theme": 195,
    "\u2581ws": 196,
    "ic": 197,
    "sid": 198,
    "\u2581ws2": 199,
    "\u2581ws232dll": 200,
    "\u2581comctl32dll3": 201,
    "delet": 202,
    "ap": 203,
    "ame": 204,
    "window": 205,
    "ob": 206,
    "free": 207,
    "ay": 208,
    "vice": 209,
    "ort": 210,
    "\u2581kernel32dllf": 211,
    "dllnp": 212,
    "\u2581kernel32dlll": 213,
    "rt": 214,
    "context": 215,
    "close": 216,
    "loc": 217,
    "\u2581msv": 218,
    "lw": 219,
    "dlldll": 220,
    "sdll": 221,
    "ity": 222,
    "\u2581comctl32dll32": 223,
    "\u2581ntdlldll": 224,
    "ult": 225,
    "fac": 226,
    "stem": 227,
    "initialize": 228,
    "\u2581user32dllget": 229,
    "interfac": 230,
    "ory": 231,
    "py": 232,
    "\u2581kernel32dlllstr": 233,
    "\u2581msvcrt": 234,
    "\u2581msvcrtdll": 235,
    "\u2581gdi": 236,
    "po": 237,
    "mem": 238,
    "delete": 239,
    "ab": 240,
    "system": 241,
    "value": 242,
    "art": 243,
    "0dll": 244,
    "add": 245,
    "ok": 246,
    "yp": 247,
    "cat": 248,
    "regist": 249,
    "conn": 250,
    "connect": 251,
    "curity": 252,
    "load": 253,
    "ls": 254,
    "exa": 255,
    "ject": 256,
    "object": 257,
    "sw": 258,
    "\u2581gdi32dll": 259,
    "unt": 260,
    "count": 261,
    "rent": 262,
    "ui7": 263,
    "\u2581dui7": 264,
    "\u2581prop": 265,
    "sysdll": 266,
    "\u2581propsysdll": 267,
    "gu": 268,
    "ction": 269,
    "net": 270,
    "ve": 271,
    "ell": 272,
    "rtu": 273,
    "virtu": 274,
    "\u2581shlw": 275,
    "\u2581shlwapidll": 276,
    "ot": 277,
    "setup": 278,
    "virtual": 279,
    "\u2581kernel32dlls": 280,
    "\u2581u": 281,
    "pat": 282,
    "\u2581dui70dll": 283,
    "name": 284,
    "thread": 285,
    "dri": 286,
    "\u2581ux": 287,
    "\u2581uxtheme": 288,
    "ear": 289,
    "\u2581imm": 290,
    "32dllimm": 291,
    "\u2581imm32dllimm": 292,
    "dec": 293,
    "vari": 294,
    "path": 295,
    "ipt": 296,
    "cript": 297,
    "des": 298,
    "data": 299,
    "sion": 300,
    "propert": 301,
    "\u2581kernel32dllvirtual": 302,
    "mon": 303,
    "bu": 304,
    "hread": 305,
    "mod": 306,
    "saf": 307,
    "tr": 308,
    "dllw": 309,
    "lan": 310,
    "initializes": 311,
    "descript": 312,
    "inet": 313,
    "current": 314,
    "essag": 315,
    "\u2581r": 316,
    "itor": 317,
    "utex": 318,
    "directui": 319,
    "connection": 320,
    "ev": 321,
    "dd": 322,
    "ass": 323,
    "cmp": 324,
    "device": 325,
    "wa": 326,
    "earr": 327,
    "safearr": 328,
    "\u2581oleaut32dllsafearr": 329,
    "eap": 330,
    "local": 331,
    "\u2581oleaut32dllsafearray": 332,
    "informat": 333,
    "driver": 334,
    "\u2581oleaut32dllvardec": 335,
    "\u2581ole32dllcoget": 336,
    "ement": 337,
    "\u2581kernel32dllcreate": 338,
    "par": 339,
    "\u2581kernel32dllgetcurrent": 340,
    "\u2581winspooldrva": 341,
    "messag": 342,
    "elea": 343,
    "\u2581setup": 344,
    "\u2581setupapidll": 345,
    "relea": 346,
    "monitor": 347,
    "ff": 348,
    "event": 349,
    "is": 350,
    "ime": 351,
    "ps": 352,
    "\u2581advapi32dllcrypt": 353,
    "\u2581kernel32dllcreat": 354,
    "descriptor": 355,
    "curitydescriptor": 356,
    "\u2581shell": 357,
    "\u2581shell32dll": 358,
    "ba": 359,
    "\u2581advapi32dllget": 360,
    "date": 361,
    "\u2581advapi32dllset": 362,
    "our": 363,
    "ule": 364,
    "\u2581wininet": 365,
    "information": 366,
    "\u2581wininetdll": 367,
    "format": 368,
    "property": 369,
    "ant": 370,
    "printerdriver": 371,
    "ash": 372,
    "resour": 373,
    "inst": 374,
    "ost": 375,
    "module": 376,
    "ment": 377,
    "dllnpget": 378,
    "ate": 379,
    "ies": 380,
    "elist": 381,
    "cor": 382,
    "directory": 383,
    "ementdirectui": 384,
    "\u2581kernel32dllsort": 385,
    "hash": 386,
    "\u2581winspooldrvadd": 387,
    "\u2581winspooldrvdelete": 388,
    "buff": 389,
    "eaa": 390,
    "class": 391,
    "per": 392,
    "lob": 393,
    "guid": 394,
    "\u2581kernel32dllfls": 395,
    "closehandle": 396,
    "able": 397,
    "interface": 398,
    "section": 399,
    "register": 400,
    "typ": 401,
    "stro": 402,
    "api32dll": 403,
    "variant": 404,
    "\u2581uxthemedll": 405,
    "port": 406,
    "\u2581se": 407,
    "ize": 408,
    "pos": 409,
    "propvariant": 410,
    "amew": 411,
    "lobal": 412,
    "ip": 413,
    "chost": 414,
    "ary": 415,
    "\u2581comctl32dll33": 416,
    "ical": 417,
    "\u2581winspooldrvget": 418,
    "\u2581ntdlldllnt": 419,
    "\u2581winspooldrvenum": 420,
    "\u2581comctl32dll38": 421,
    "pip": 422,
    "ance": 423,
    "\u2581sechost": 424,
    "stroy": 425,
    "chan": 426,
    "ser": 427,
    "elib": 428,
    "ror": 429,
    "ht": 430,
    "okup": 431,
    "lookup": 432,
    "resource": 433,
    "ition": 434,
    "clsid": 435,
    "ace": 436,
    "rary": 437,
    "man": 438,
    "htt": 439,
    "destroy": 440,
    "sc": 441,
    "buffer": 442,
    "ask": 443,
    "getdevice": 444,
    "comp": 445,
    "ack": 446,
    "\u2581oleaut32dllvarformat": 447,
    "\u2581oleaut32dllvardecfrom": 448,
    "prov": 449,
    "rit": 450,
    "ec": 451,
    "\u2581winspooldrv2": 452,
    "task": 453,
    "taskmem": 454,
    "\u2581ole32dllcotaskmem": 455,
    "print": 456,
    "ore": 457,
    "ole": 458,
    "\u2581kernel32dllh": 459,
    "intern": 460,
    "36": 461,
    "fa": 462,
    "lanman": 463,
    "\u2581ntlanman": 464,
    "\u2581advapi32dllregquery": 465,
    "\u2581setupapidllcm": 466,
    "handl": 467,
    "\u2581setupapidllcmgetdevice": 468,
    "interfacelist": 469,
    "\u2581setupapidllcmgetdeviceinterfacelist": 470,
    "hel": 471,
    "mart": 472,
    "marta": 473,
    "00": 474,
    "keyw": 475,
    "\u2581kernel32dllfind": 476,
    "\u2581sechostdll": 477,
    "spro": 478,
    "cess": 479,
    "roll": 480,
    "form": 481,
    "writ": 482,
    "oti": 483,
    "la": 484,
    "position": 485,
    "ethread": 486,
    "crit": 487,
    "critical": 488,
    "criticalsection": 489,
    "\u2581global": 490,
    "\u2581ws232dll1": 491,
    "vault": 492,
    "wait": 493,
    "composition": 494,
    "tok": 495,
    "token": 496,
    "next": 497,
    "securitydescriptor": 498,
    "filea": 499,
    "entr": 500,
    "version": 501,
    "base": 502,
    "http": 503,
    "release": 504,
    "\u2581kernel32dllprocess": 505,
    "\u2581shell32dllsh": 506,
    "\u2581kernel32dllgetcurrentprocess": 507,
    "internet": 508,
    "end": 509,
    "\u2581kernel32dllheap": 510,
    "cord": 511,
    "record": 512,
    "arsh": 513,
    "arshal": 514,
    "fun": 515,
    "64": 516,
    "\u2581kernel32dllgetfil": 517,
    "lay": 518,
    "vcl": 519,
    "\u2581wininetdllinternet": 520,
    "filew": 521,
    "bo": 522,
    "chang": 523,
    "instance": 524,
    "ispro": 525,
    "isprocess": 526,
    "bind": 527,
    "recordinfo": 528,
    "core": 529,
    "\u2581ras": 530,
    "error": 531,
    "\u2581shlwapidllpath": 532,
    "ension": 533,
    "\u2581ole32dllcocreate": 534,
    "printerw": 535,
    "printerdata": 536,
    "extension": 537,
    "ed": 538,
    "of": 539,
    "releasecontext": 540,
    "\u2581da": 541,
    "vclnt": 542,
    "\u2581davclnt": 543,
    "param": 544,
    "qui": 545,
    "fir": 546,
    "first": 547,
    "acqui": 548,
    "ock": 549,
    "trib": 550,
    "tribut": 551,
    "\u2581oleaut32dll2": 552,
    "basedll": 553,
    "initializespy": 554,
    "ved": 555,
    "scroll": 556,
    "unregist": 557,
    "iid": 558,
    "\u2581advapi32dllregenum": 559,
    "filen": 560,
    "guids": 561,
    "unregistert": 562,
    "pc": 563,
    "write": 564,
    "cy": 565,
    "resol": 566,
    "\u2581mutex": 567,
    "\u2581wsh": 568,
    "cli": 569,
    "apis": 570,
    "\u2581resol": 571,
    "vedapis": 572,
    "\u2581mutexes": 573,
    "\u2581resolvedapis": 574,
    "ter": 575,
    "fl": 576,
    "\u2581ole32dllcocreateinstance": 577,
    "\u2581ole32dllcoun": 578,
    "addres": 579,
    "service": 580,
    "disp": 581,
    "cpy": 582,
    "\u2581advapi32dllregopen": 583,
    "valueexw": 584,
    "ure": 585,
    "tributes": 586,
    "size": 587,
    "dllwsh": 588,
    "tc": 589,
    "elementdirectui": 590,
    "amea": 591,
    "tcpip": 592,
    "\u2581wshtcpip": 593,
    "\u2581wshtcpipdllwsh": 594,
    "account": 595,
    "lookupaccount": 596,
    "\u2581kernel32dllgetproc": 597,
    "char": 598,
    "\u2581rasapi32dll": 599,
    "ras": 600,
    "stat": 601,
    "\u2581propsysdllpropvariant": 602,
    "ctx": 603,
    "\u2581propsysdllpropvariantto": 604,
    "ron": 605,
    "len": 606,
    "eav": 607,
    "ption": 608,
    "\u2581net": 609,
    "\u2581kernel32dllprocess32": 610,
    "\u2581kernel32dllgetmodule": 611,
    "envi": 612,
    "environ": 613,
    "environment": 614,
    "cons": 615,
    "\u2581winspooldrvset": 616,
    "\u2581kernel32dllload": 617,
    "wn": 618,
    "acquire": 619,
    "acquirecontext": 620,
    "race": 621,
    "eattributes": 622,
    "\u2581rp": 623,
    "\u2581rpcrt": 624,
    "\u2581kernel32dllopen": 625,
    "lib": 626,
    "directoryw": 627,
    "\u2581rasapi32dllras": 628,
    "last": 629,
    "code": 630,
    "\u2581oleaut32dllvarn": 631,
    "type": 632,
    "\u2581dr": 633,
    "\u2581drprov": 634,
    "can": 635,
    "dc": 636,
    "pia": 637,
    "\u2581ole32dllcoinitialize": 638,
    "apidllget": 639,
    "out": 640,
    "keyexw": 641,
    "handler": 642,
    "wm": 643,
    "address": 644,
    "met": 645,
    "etime": 646,
    "og": 647,
    "\u2581kernel32dllsetthread": 648,
    "\u2581kernel32dllvirtualalloc": 649,
    "map": 650,
    "status": 651,
    "uni": 652,
    "function": 653,
    "\u2581gdi32dllget": 654,
    "fy": 655,
    "call": 656,
    "monitorfrom": 657,
    "\u2581user32dllmonitorfrom": 658,
    "\u2581rpcrt4": 659,
    "\u2581kernel32dllgett": 660,
    "qeaa": 661,
    "start": 662,
    "\u2581oleaut32dllget": 663,
    "hwn": 664,
    "lasterror": 665,
    "text": 666,
    "infow": 667,
    "pri": 668,
    "acl": 669,
    "gethandle": 670,
    "02": 671,
    "\u2581kernel32dllsortgethandle": 672,
    "\u2581kernel32dllsortclosehandle": 673,
    "\u2581winspooldrv21": 674,
    "gdi": 675,
    "fault": 676,
    "default": 677,
    "der": 678,
    "lp": 679,
    "box": 680,
    "\u2581propsysdllps": 681,
    "\u2581kernel32dllgetsystem": 682,
    "rtl": 683,
    "rpc": 684,
    "exit": 685,
    "\u2581ole32dllcogetm": 686,
    "\u2581shlwapidllstr": 687,
    "move": 688,
    "initializese": 689,
    "copy": 690,
    "su": 691,
    "systemfunction": 692,
    "exce": 693,
    "stringw": 694,
    "library": 695,
    "ho": 696,
    "valuew": 697,
    "xz": 698,
    "und": 699,
    "\u2581cryptbasedll": 700,
    "\u2581cryptbasedllsystemfunction": 701,
    "processor": 702,
    "sock": 703,
    "comput": 704,
    "for": 705,
    "stringfrom": 706,
    "spr": 707,
    "message": 708,
    "alog": 709,
    "raceguids": 710,
    "unregistertraceguids": 711,
    "\u2581ole32dllstringfrom": 712,
    "\u2581kernel32dlllstrlen": 713,
    "prot": 714,
    "\u2581uxthemedllget": 715,
    "\u2581kernel32dllloadlibrary": 716,
    "infoa": 717,
    "\u2581ole32dllcoinitializeex": 718,
    "\u2581cryptbasedllsystemfunction0": 719,
    "protect": 720,
    "named": 721,
    "hook": 722,
    "\u2581ntlanmandllnpget": 723,
    "enable": 724,
    "\u2581cryptbasedllsystemfunction036": 725,
    "ficat": 726,
    "\u2581ole32dllcouninitialize": 727,
    "tim": 728,
    "\u2581shell32dllshget": 729,
    "\u2581oleaut32dllvarb": 730,
    "\u2581kernel32dlllstrcpy": 731,
    "c3": 732,
    "releas": 733,
    "24": 734,
    "\u2581kernel32dllvirtualprotect": 735,
    "pa": 736,
    "ueaa": 737,
    "vert": 738,
    "ont": 739,
    "ware": 740,
    "dpia": 741,
    "dpiaware": 742,
    "\u2581cryptspdllcryptacquirecontext": 743,
    "apihook": 744,
    "themeinit": 745,
    "themeinitapihook": 746,
    "\u2581uxthemedllthemeinitapihook": 747,
    "isprocessdpiaware": 748,
    "\u2581user32dllisprocessdpiaware": 749,
    "memory": 750,
    "job": 751,
    "\u2581rpcrt4dll": 752,
    "perdll": 753,
    "ee": 754,
    "fication": 755,
    "otification": 756,
    "age": 757,
    "\u2581p": 758,
    "round": 759,
    "computern": 760,
    "\u2581kernel32dllgetcomputern": 761,
    "messagea": 762,
    "\u2581user32dllgetwindow": 763,
    "entries": 764,
    "\u2581oleaut32dllvarbstr": 765,
    "\u2581advapi32dllsetsecuritydescriptor": 766,
    "div": 767,
    "printprocessor": 768,
    "a8": 769,
    "pool": 770,
    "senum": 771,
    "atch": 772,
    "xm": 773,
    "\u2581ole32dllcotaskmemfree": 774,
    "est": 775,
    "view": 776,
    "classobject": 777,
    "helperdll": 778,
    "coree": 779,
    "\u2581mscoree": 780,
    "\u2581cryptspdllcryptreleasecontext": 781,
    "convert": 782,
    "lookupaccountsid": 783,
    "sn": 784,
    "\u2581kernel32dllgetfileattributes": 785,
    "dacl": 786,
    "exception": 787,
    "sizeexw": 788,
    "500": 789,
    "\u2581setupapidllcmgetdeviceinterfacelistsizeexw": 790,
    "sx": 791,
    "\u2581ntdlldllrtl": 792,
    "lus": 793,
    "\u2581advapi32dllunregistertraceguids": 794,
    "\u2581setupapidllcmgetdeviceinterfacelistexw": 795,
    "ked": 796,
    "\u2581advapi32dllinitializese": 797,
    "\u2581advapi32dllinitializesecuritydescriptor": 798,
    "\u2581advapi32dllsetsecuritydescriptordacl": 799,
    "\u2581oleaut32dll500": 800,
    "gen": 801,
    "\u2581ntmarta": 802,
    "console": 803,
    "\u2581ole32dllcotaskmemalloc": 804,
    "abl": 805,
    "dllgetmarta": 806,
    "extensioninterface": 807,
    "\u2581ntmartadllgetmarta": 808,
    "\u2581ntmartadllgetmartaextensioninterface": 809,
    "\u2581kernel32dllwrite": 810,
    "qeaaj": 811,
    "delementdirectui": 812,
    "closekey": 813,
    "\u2581comctl32dll321": 814,
    "aw": 815,
    "viewof": 816,
    "inac": 817,
    "pres": 818,
    "\u2581advapi32dllsetentries": 819,
    "\u2581advapi32dllsetentriesinac": 820,
    "setvalue": 821,
    "elibrary": 822,
    "inithelperdll": 823,
    "present": 824,
    "help": 825,
    "mapviewof": 826,
    "ach": 827,
    "sprint": 828,
    "older": 829,
    "\u2581oleaut32dll6": 830,
    "folder": 831,
    "mont": 832,
    "opent": 833,
    "\u2581advapi32dllregclosekey": 834,
    "mul": 835,
    "\u2581kernel32dllclosehandle": 836,
    "hlp": 837,
    "\u2581rpcrt4dllrpc": 838,
    "\u2581imm32dllimmget": 839,
    "te": 840,
    "i4": 841,
    "find": 842,
    "initializecriticalsection": 843,
    "emem": 844,
    "usern": 845,
    "\u2581pem": 846,
    "ust": 847,
    "eg": 848,
    "unicode": 849,
    "langu": 850,
    "etyp": 851,
    "bar": 852,
    "r4": 853,
    "datefrom": 854,
    "\u2581oleaut32dllva": 855,
    "directorya": 856,
    "\u2581kernel32dllgetprocaddress": 857,
    "ation": 858,
    "clsidfrom": 859,
    "\u2581ole32dllclsidfrom": 860,
    "binding": 861,
    "\u2581msvcrtdllstr": 862,
    "\u2581imm32dllimmset": 863,
    "portkey": 864,
    "store": 865,
    "\u2581kernel32dlllocal": 866,
    "\u2581kernel32dlllstrcmp": 867,
    "\u2581ps": 868,
    "\u2581netapi32dll": 869,
    "\u2581netapi32dllnet": 870,
    "\u2581ntlanmandllnp": 871,
    "\u2581davclntdllnp": 872,
    "ep": 873,
    "\u2581cryptspdllcryptacquirecontextw": 874,
    "dllnet": 875,
    "244": 876,
    "\u2581ole32dllcoregister": 877,
    "are": 878,
    "5c3": 879,
    "\u2581ip": 880,
    "\u2581iphlp": 881,
    "5c3a8": 882,
    "5c3a8244": 883,
    "addconnection": 884,
    "quest": 885,
    "request": 886,
    "\u2581oleaut32dllsafearrayget": 887,
    "doc": 888,
    "waitfor": 889,
    "uilangu": 890,
    "sb": 891,
    "12": 892,
    "ument": 893,
    "\u2581advapi32dllregqueryvalueexw": 894,
    "wor": 895,
    "arshalinterface": 896,
    "\u2581setupapidllsetup": 897,
    "rev": 898,
    "dllinithelperdll": 899,
    "pathw": 900,
    "\u2581setupapidllsetupdi": 901,
    "environmentvari": 902,
    "pack": 903,
    "time": 904,
    "month": 905,
    "parsenum": 906,
    "recordinfofrom": 907,
    "\u2581oleaut32dllsafearrayset": 908,
    "\u2581oleaut32dllgetrecordinfofrom": 909,
    "lock": 910,
    "\u2581comctl32dll386": 911,
    "flat": 912,
    "flatsb": 913,
    "oke": 914,
    "\u2581advapi32dllregopenkeyexw": 915,
    "unload": 916,
    "idor": 917,
    "min": 918,
    "om": 919,
    "ememory": 920,
    "lin": 921,
    "back": 922,
    "\u2581kernel32dlldelete": 923,
    "formw": 924,
    "portw": 925,
    "printerdataw": 926,
    "printerdataexw": 927,
    "\u2581user32dllset": 928,
    "leep": 929,
    "layout": 930,
    "enabled": 931,
    "lic": 932,
    "dllwin": 933,
    "ewindow": 934,
    "\u2581ole32dllcreate": 935,
    "releasem": 936,
    "otify": 937,
    "ow64": 938,
    "\u2581ole32dllcoregisterinitializespy": 939,
    "ric": 940,
    "openthread": 941,
    "ax": 942,
    "pe": 943,
    "\u2581comctl32dll320": 944,
    "\u2581comctl32dll324": 945,
    "dup": 946,
    "\u2581kernel32dllsleep": 947,
    "propertystore": 948,
    "revoke": 949,
    "security": 950,
    "ean": 951,
    "addr": 952,
    "list": 953,
    "dexception": 954,
    "metric": 955,
    "\u2581ole32dllcorevoke": 956,
    "\u2581ole32dllcorevokeinitializespy": 957,
    "duplic": 958,
    "nam": 959,
    "imag": 960,
    "wt": 961,
    "\u2581kernel32dllread": 962,
    "hwndelementdirectui": 963,
    "leobject": 964,
    "\u2581comctl32dll332": 965,
    "\u2581ole32dllcogetmalloc": 966,
    "point": 967,
    "\u2581ntdlldllntquery": 968,
    "\u2581kernel32dllloadlibrarya": 969,
    "fromstr": 970,
    "\u2581kernel32dllre": 971,
    "\u2581kernel32dllvirtualfree": 972,
    "stringa": 973,
    "termin": 974,
    "\u2581cryptspdllcryptgen": 975,
    "\u2581advapi32dllsetentriesinaclw": 976,
    "ority": 977,
    "uti": 978,
    "filter": 979,
    "draw": 980,
    "\u2581comctl32dll388": 981,
    "artment": 982,
    "apartment": 983,
    "apartmenttype": 984,
    "102": 985,
    "bindctx": 986,
    "236": 987,
    "filetime": 988,
    "cap": 989,
    "\u2581kernel32dllgetcurrentprocessid": 990,
    "\u2581ole32dllcogetapartmenttype": 991,
    "\u2581ole32dllcreatebindctx": 992,
    "\u2581cl": 993,
    "\u2581drprovdllnp": 994,
    "\u2581comctl32dll236": 995,
    "ber": 996,
    "\u2581davclntdllnpget": 997,
    "\u2581comctl32dll323": 998,
    "mutex": 999,
    "uth": 1000,
    "exec": 1001,
    "\u2581kernel32dllopenprocess": 1002,
    "\u2581shell32dll102": 1003,
    "istext": 1004,
    "istextunicode": 1005,
    "\u2581advapi32dllistextunicode": 1006,
    "\u2581comctl32dll338": 1007,
    "wk": 1008,
    "vile": 1009,
    "privile": 1010,
    "privileg": 1011,
    "\u2581comctl32dll339": 1012,
    "metrics": 1013,
    "mult": 1014,
    "ide": 1015,
    "clidll": 1016,
    "valid": 1017,
    "iby": 1018,
    "\u2581vault": 1019,
    "clidllvault": 1020,
    "\u2581vaultclidllvault": 1021,
    "\u2581user32dllgetsystem": 1022,
    "multiby": 1023,
    "idechar": 1024,
    "entry": 1025,
    "\u2581iphlpapidllget": 1026,
    "\u2581ole32dllstringfromiid": 1027,
    "\u2581kernel32dllprocess32first": 1028,
    "keyexa": 1029,
    "\u2581kernel32dllprocess32next": 1030,
    "\u2581version": 1031,
    "font": 1032,
    "execut": 1033,
    "\u2581advapi32dllgetusern": 1034,
    "ctctx": 1035,
    "ename": 1036,
    "properties": 1037,
    "\u2581user32dllgetsystemmetrics": 1038,
    "\u2581mpr": 1039,
    "dllwnet": 1040,
    "\u2581mprdllwnet": 1041,
    "\u2581kernel32dllcopy": 1042,
    "\u2581ws232dllw": 1043,
    "servicestatus": 1044,
    "\u2581comctl32dll328": 1045,
    "\u2581comctl32dll334": 1046,
    "41": 1047,
    "\u2581comctl32dllflatsb": 1048,
    "duplicate": 1049,
    "catalog": 1050,
    "bcat": 1051,
    "bcatq": 1052,
    "\u2581clbcatq": 1053,
    "catalogobject": 1054,
    "\u2581clbcatqdllget": 1055,
    "\u2581clbcatqdllgetcatalogobject": 1056,
    "work": 1057,
    "getvalue": 1058,
    "\u2581kernel32dllgetmodulefilen": 1059,
    "scrollbar": 1060,
    "ache": 1061,
    "\u2581dui70dllset": 1062,
    "mode": 1063,
    "rand": 1064,
    "ick": 1065,
    "\u2581kernel32dllquery": 1066,
    "ueaax": 1067,
    "peav": 1068,
    "apidlld": 1069,
    "\u2581kernel32dllcreateevent": 1070,
    "proces": 1071,
    "ickcount": 1072,
    "\u2581kernel32dllgettickcount": 1073,
    "random": 1074,
    "\u2581kernel32dllcreatet": 1075,
    "hc": 1076,
    "cc": 1077,
    "21": 1078,
    "\u2581kernel32dllcreatethread": 1079,
    "\u2581kernel32dllflsfree": 1080,
    "\u2581kernel32dllgetlasterror": 1081,
    "dev": 1082,
    "\u2581msvcrtdllmem": 1083,
    "help32": 1084,
    "oolhelp32": 1085,
    "2w": 1086,
    "\u2581uxthemedllgettheme": 1087,
    "num": 1088,
    "apsh": 1089,
    "apshot": 1090,
    "snapshot": 1091,
    "oolhelp32snapshot": 1092,
    "\u2581kernel32dllcreatetoolhelp32snapshot": 1093,
    "app": 1094,
    "\u2581user32dllenum": 1095,
    "oken": 1096,
    "\u2581dwm": 1097,
    "apidlldwm": 1098,
    "\u2581dwmapidlldwm": 1099,
    "deletet": 1100,
    "siz": 1101,
    "number": 1102,
    "deletetre": 1103,
    "\u2581advapi32dllregdeletetre": 1104,
    "si": 1105,
    "iscomposition": 1106,
    "\u2581psapidllget": 1107,
    "locked": 1108,
    "iscompositionenabled": 1109,
    "\u2581dwmapidlldwmiscompositionenabled": 1110,
    "\u2581kernel32dlllstrcat": 1111,
    "\u2581psapidllgetmodule": 1112,
    "\u2581shlwapidllstrstr": 1113,
    "spec": 1114,
    "interlocked": 1115,
    "\u2581kernel32dllinterlocked": 1116,
    "isw": 1117,
    "sidto": 1118,
    "\u2581advapi32dllregqueryinfo": 1119,
    "\u2581drprovdllnpget": 1120,
    "\u2581winhttp": 1121,
    "\u2581winhttpdllwin": 1122,
    "\u2581kernel32dlltermin": 1123,
    "\u2581kernel32dllis": 1124,
    "\u2581user32dllchar": 1125,
    "\u2581oleaut32dllvari": 1126,
    "umentproperties": 1127,
    "ong": 1128,
    "io": 1129,
    "\u2581winspooldrvopen": 1130,
    "packag": 1131,
    "\u2581winspooldrvgetprinterdriver": 1132,
    "packagew": 1133,
    "\u2581winspooldrvdeleteprinterdriver": 1134,
    "def": 1135,
    "jobw": 1136,
    "printeric": 1137,
    "printerconnection": 1138,
    "\u2581kernel32dllheapalloc": 1139,
    "namew": 1140,
    "unmapviewof": 1141,
    "sl": 1142,
    "\u2581advapi32dllevent": 1143,
    "processmemory": 1144,
    "\u2581user32dllload": 1145,
    "\u2581kernel32dllisprocess": 1146,
    "\u2581kernel32dllw": 1147,
    "08": 1148,
    "\u2581kernel32dllheapfree": 1149,
    "sprintfa": 1150,
    "item": 1151,
    "convertsidto": 1152,
    "messagebox": 1153,
    "windows": 1154,
    "pea": 1155,
    "destroyhash": 1156,
    "url": 1157,
    "stringsid": 1158,
    "convertsidtostringsid": 1159,
    "\u2581kernel32dllcreateprocess": 1160,
    "namedsecurity": 1161,
    "createhash": 1162,
    "cel": 1163,
    "ession": 1164,
    "iv": 1165,
    "ard": 1166,
    "cache": 1167,
    "\u2581imm32dllimmsetcomposition": 1168,
    "eser": 1169,
    "vect": 1170,
    "now": 1171,
    "\u2581kernel32dlllstrcm": 1172,
    "feat": 1173,
    "2z": 1174,
    "feature": 1175,
    "uilanguage": 1176,
    "\u2581gdi32dllgdi": 1177,
    "\u2581kernel32dllfree": 1178,
    "socket": 1179,
    "\u2581imm32dllimmgetcomposition": 1180,
    "sub": 1181,
    "\u2581kernel32dllflsgetvalue": 1182,
    "\u2581kernel32dllgetproces": 1183,
    "\u2581kernel32dllflsalloc": 1184,
    "\u2581kernel32dllflssetvalue": 1185,
    "\u2581advapi32dllopen": 1186,
    "openthreadtoken": 1187,
    "\u2581advapi32dllopenthreadtoken": 1188,
    "elementdirectuiqeaaj": 1189,
    "\u2581kernel32dllwaitfor": 1190,
    "51": 1191,
    "orfeature": 1192,
    "orfeaturepresent": 1193,
    "\u2581kernel32dllisprocessorfeaturepresent": 1194,
    "\u2581kernel32dlllstrcmpa": 1195,
    "valuea": 1196,
    "\u2581shell32dllshell": 1197,
    "\u2581kernel32dllinitializecriticalsection": 1198,
    "environmentstring": 1199,
    "comm": 1200,
    "\u2581kernel32dllfindfirst": 1201,
    "vol": 1202,
    "\u2581cryptspdllcryptgenrandom": 1203,
    "volum": 1204,
    "\u2581shell32dllshellexecut": 1205,
    "\u2581kernel32dllgetlocal": 1206,
    "tsa": 1207,
    "\u2581wtsa": 1208,
    "pi32dllwt": 1209,
    "\u2581wtsapi32dllwt": 1210,
    "\u2581kernel32dllgetfileattributesa": 1211,
    "timer": 1212,
    "display": 1213,
    "eek": 1214,
    "notification": 1215,
    "\u2581kernel32dllfre": 1216,
    "eservice": 1217,
    "change": 1218,
    "esp": 1219,
    "cancel": 1220,
    "rw": 1221,
    "bool": 1222,
    "einformation": 1223,
    "prog": 1224,
    "assoc": 1225,
    "datewindow": 1226,
    "\u2581kernel32dllsetfile": 1227,
    "esy": 1228,
    "unregister": 1229,
    "\u2581ntdlldllz": 1230,
    "seth": 1231,
    "command": 1232,
    "exp": 1233,
    "importkey": 1234,
    "vectore": 1235,
    "\u2581user32dllenumdisplay": 1236,
    "\u2581ntdlldllzw": 1237,
    "\u2581ws232dll11": 1238,
    "\u2581kernel32dllgetexit": 1239,
    "\u2581kernel32dllsetlasterror": 1240,
    "convertsidtostringsidw": 1241,
    "lush": 1242,
    "utils": 1243,
    "inp": 1244,
    "\u2581kernel32dllflush": 1245,
    "\u2581winhttpdllwinhttp": 1246,
    "\u2581mscor": 1247,
    "\u2581kernel32dllfreeconsole": 1248,
    "namedpip": 1249,
    "\u2581mscoreedllget": 1250,
    "dispatch": 1251,
    "filename": 1252,
    "\u2581kernel32dlllstrlenw": 1253,
    "bauth": 1254,
    "\u2581advapi32dllgetsid": 1255,
    "bauthority": 1256,
    "subauthority": 1257,
    "\u2581advapi32dllgetsidsubauthority": 1258,
    "il": 1259,
    "parent": 1260,
    "\u2581advapi32dlllookupaccountsid": 1261,
    "pooltimer": 1262,
    "\u2581kernel32dllgetversion": 1263,
    "\u2581rpcrt4dllrpcbinding": 1264,
    "keya": 1265,
    "dllgetclassobject": 1266,
    "\u2581kernel32dllexit": 1267,
    "long": 1268,
    "\u2581rasapi32dllrasget": 1269,
    "\u2581kernel32dllfindnext": 1270,
    "\u2581oleaut32dll9": 1271,
    "\u2581kernel32dllfreelibrary": 1272,
    "\u2581user32dllgetmonitor": 1273,
    "\u2581psapidllgetmodulefilename": 1274,
    "\u2581kernel32dlllstrlena": 1275,
    "\u2581kernel32dllgetprocessh": 1276,
    "hashparam": 1277,
    "\u2581kernel32dllgetprocessheap": 1278,
    "pointer": 1279,
    "openenum": 1280,
    "\u2581user32dllenumdisplaymonitor": 1281,
    "closeenum": 1282,
    "\u2581user32dllenumdisplaymonitors": 1283,
    "gethashparam": 1284,
    "\u2581user32dllgetmonitorinfoa": 1285,
    "\u2581kernel32dllwritefile": 1286,
    "ocal": 1287,
    "formance": 1288,
    "performance": 1289,
    "ger": 1290,
    "\u2581advapi32dllgetusernamea": 1291,
    "\u2581user32dllregister": 1292,
    "imagelist": 1293,
    "\u2581advapi32dllregist": 1294,
    "sing": 1295,
    "enamew": 1296,
    "messagew": 1297,
    "enumresource": 1298,
    "\u2581wshtcpipdllwshget": 1299,
    "compare": 1300,
    "\u2581kernel32dllsetfilepointer": 1301,
    "bug": 1302,
    "debug": 1303,
    "\u2581kernel32dllgetvolum": 1304,
    "singleobject": 1305,
    "\u2581kernel32dllgetcomputernamea": 1306,
    "initializeextension": 1307,
    "enu": 1308,
    "confi": 1309,
    "windowproc": 1310,
    "b0": 1311,
    "xml": 1312,
    "global": 1313,
    "spin": 1314,
    "wv": 1315,
    "spincount": 1316,
    "\u2581ws232dll2": 1317,
    "dllcreat": 1318,
    "cancelconnection": 1319,
    "notify": 1320,
    "r8": 1321,
    "\u2581oleaut32dllvarcy": 1322,
    "\u2581oleaut32dllvarr4": 1323,
    "\u2581oleaut32dllvardatefrom": 1324,
    "buffers": 1325,
    "peap": 1326,
    "expand": 1327,
    "startup": 1328,
    "peapeav": 1329,
    "xor": 1330,
    "\u2581oleaut32dllvaradd": 1331,
    "\u2581oleaut32dllvaror": 1332,
    "\u2581oleaut32dllvarand": 1333,
    "\u2581oleaut32dllvarcmp": 1334,
    "\u2581oleaut32dllvardiv": 1335,
    "\u2581oleaut32dllvarmod": 1336,
    "\u2581oleaut32dllvarmul": 1337,
    "\u2581oleaut32dllvarneg": 1338,
    "\u2581oleaut32dllvarnot": 1339,
    "\u2581oleaut32dllvarsub": 1340,
    "\u2581oleaut32dllvarxor": 1341,
    "\u2581oleaut32dllvaridiv": 1342,
    "hwnd": 1343,
    "\u2581kernel32dllcreatefilew": 1344,
    "valueexa": 1345,
    "\u2581advapi32dllregqueryvalueexa": 1346,
    "expandenvironmentstring": 1347,
    "\u2581kernel32dllexpandenvironmentstring": 1348,
    "rl": 1349,
    "clos": 1350,
    "ft": 1351,
    "caps": 1352,
    "34": 1353,
    "\u2581ws232dllwsa": 1354,
    "\u2581c": 1355,
    "\u2581kernel32dllgetthread": 1356,
    "andspincount": 1357,
    "lookupaccountsidlocal": 1358,
    "\u2581sechostdlllookupaccountsidlocal": 1359,
    "enotification": 1360,
    "\u2581shlwapidllstrstri": 1361,
    "lg": 1362,
    "\u2581kernel32dllreadfile": 1363,
    "ify": 1364,
    "adj": 1365,
    "handlea": 1366,
    "post": 1367,
    "esize": 1368,
    "\u2581advapi32dllregdelete": 1369,
    "processt": 1370,
    "vm": 1371,
    "apibuffer": 1372,
    "esw": 1373,
    "namedpipe": 1374,
    "consol": 1375,
    "dllgetfile": 1376,
    "\u2581kernel32dllgetmodulehandlea": 1377,
    "processtoken": 1378,
    "417": 1379,
    "tran": 1380,
    "wvn": 1381,
    "\u2581shlwapidllwvn": 1382,
    "paint": 1383,
    "result": 1384,
    "\u2581netutils": 1385,
    "\u2581netutilsdllnet": 1386,
    "wc": 1387,
    "dllgetfileversion": 1388,
    "\u2581versiondllgetfileversion": 1389,
    "dialog": 1390,
    "clear": 1391,
    "\u2581kernel32dllreg": 1392,
    "cture": 1393,
    "option": 1394,
    "\u2581user32dllpost": 1395,
    "fileexw": 1396,
    "\u2581kernel32dllgetfilesize": 1397,
    "utexa": 1398,
    "resourc": 1399,
    "\u2581globali": 1400,
    "ren": 1401,
    "sol": 1402,
    "\u2581sx": 1403,
    "sdllsx": 1404,
    "\u2581sxsdllsx": 1405,
    "\u2581kernel32dllgetenvironmentvari": 1406,
    "eaut32": 1407,
    "datetime": 1408,
    "soleaut32": 1409,
    "\u2581sxsdllsxsoleaut32": 1410,
    "bvm": 1411,
    "bvm6": 1412,
    "\u2581msvbvm6": 1413,
    "\u2581kernel32dllgetvolumeinformation": 1414,
    "\u2581kernel32dllcreatem": 1415,
    "\u2581ws232dllget": 1416,
    "plus": 1417,
    "picture": 1418,
    "yb": 1419,
    "gn": 1420,
    "\u2581msvbvm60dll": 1421,
    "pow": 1422,
    "\u2581propsysdllpscreat": 1423,
    "\u2581s": 1424,
    "qv": 1425,
    "ememorypropertystore": 1426,
    "\u2581propsysdllpscreatememorypropertystore": 1427,
    "\u2581ole32dllcocreateinstanceex": 1428,
    "folderpathw": 1429,
    "ablew": 1430,
    "progid": 1431,
    "\u2581kernel32dllwaitforsingleobject": 1432,
    "enabl": 1433,
    "\u2581comctl32dll329": 1434,
    "show": 1435,
    "rwlock": 1436,
    "unhandle": 1437,
    "dexceptionfilter": 1438,
    "unhandledexceptionfilter": 1439,
    "ush": 1440,
    "\u2581mscorwk": 1441,
    "nel": 1442,
    "oad": 1443,
    "clsidto": 1444,
    "channel": 1445,
    "eload": 1446,
    "oleload": 1447,
    "names": 1448,
    "ite": 1449,
    "iswow64": 1450,
    "iswow64process": 1451,
    "\u2581kernel32dlliswow64process": 1452,
    "dllgdi": 1453,
    "\u2581gdiplus": 1454,
    "\u2581gdiplusdllgdi": 1455,
    "\u2581globalm": 1456,
    "oleloadpicture": 1457,
    "typelibrary": 1458,
    "\u2581advapi32dllregenumkeyw": 1459,
    "\u2581ole32dllpropvariant": 1460,
    "red": 1461,
    "\u2581ole32dllclsidfromprogid": 1462,
    "\u2581globali5c3a8244": 1463,
    "\u2581globalm5c3a8244": 1464,
    "\u2581advapi32dllopenprocesstoken": 1465,
    "\u2581ole32dllpropvariantclear": 1466,
    "bin": 1467,
    "\u2581advapi32dllregqueryinfokeyw": 1468,
    "profile": 1469,
    "\u2581oleaut32dllsafearraycreate": 1470,
    "adjust": 1471,
    "typeinfo": 1472,
    "\u2581kernelbasedll": 1473,
    "fix": 1474,
    "\u2581ole32dllcogetclassobject": 1475,
    "\u2581user32dllcreate": 1476,
    "exm": 1477,
    "\u2581xm": 1478,
    "llite": 1479,
    "\u2581xmllite": 1480,
    "dllcreatexm": 1481,
    "\u2581xmllitedllcreatexm": 1482,
    "isvalid": 1483,
    "tokeninformation": 1484,
    "\u2581user32dllmonitorfrompoint": 1485,
    "\u2581user32dllmonitorfromwindow": 1486,
    "\u2581kernel32dllmove": 1487,
    "\u2581user32dllmonitorfromrect": 1488,
    "ain": 1489,
    "\u2581ole32dllcom": 1490,
    "apt": 1491,
    "\u2581user32dllgetwindowtext": 1492,
    "dlg": 1493,
    "\u2581ole32dllclsidfromprogidex": 1494,
    "\u2581oleaut32dlloleloadpicture": 1495,
    "abs": 1496,
    "\u2581ole32dllcomarshalinterface": 1497,
    "\u2581ole32dllcounm": 1498,
    "\u2581ole32dllcounmarshalinterface": 1499,
    "func": 1500,
    "\u2581ole32dlld": 1501,
    "emax": 1502,
    "sizemax": 1503,
    "arshaldata": 1504,
    "arshalsizemax": 1505,
    "releasemarshaldata": 1506,
    "\u2581ole32dllcogetmarshalsizemax": 1507,
    "\u2581ole32dllcoreleasemarshaldata": 1508,
    "psclsid": 1509,
    "\u2581ole32dllcogetpsclsid": 1510,
    "comchannel": 1511,
    "sethresult": 1512,
    "comchannelsethresult": 1513,
    "\u2581ole32dlldcomchannelsethresult": 1514,
    "\u2581advapi32dllgettokeninformation": 1515,
    "\u2581kernel32dllexitprocess": 1516,
    "menu": 1517,
    "alt": 1518,
    "mapi": 1519,
    "\u2581advapi32dllcreate": 1520,
    "cent": 1521,
    "resum": 1522,
    "\u2581sxsdllsxsoleaut32mapi": 1523,
    "imp": 1524,
    "\u2581kernel32dllgetcurrentthread": 1525,
    "percent": 1526,
    "orex": 1527,
    "\u2581n": 1528,
    "rency": 1529,
    "currency": 1530,
    "day": 1531,
    "ypelib": 1532,
    "typelib": 1533,
    "\u2581oleaut32dllload": 1534,
    "week": 1535,
    "copydata": 1536,
    "\u2581oleaut32dllloadtypelib": 1537,
    "ddoc": 1538,
    "reqv": 1539,
    "elib2": 1540,
    "muli4": 1541,
    "udate": 1542,
    "umfrom": 1543,
    "dayname": 1544,
    "fromdec": 1545,
    "altmonth": 1546,
    "callfunc": 1547,
    "createtyp": 1548,
    "monthname": 1549,
    "udatefrom": 1550,
    "idorclsidto": 1551,
    "weekdayname": 1552,
    "descriptorex": 1553,
    "dispcallfunc": 1554,
    "altmonthnames": 1555,
    "udatefromdate": 1556,
    "createtypelib2": 1557,
    "umfromparsenum": 1558,
    "parsenumfromstr": 1559,
    "allocdescriptorex": 1560,
    "unregistertypelib": 1561,
    "\u2581oleaut32dllvarabs": 1562,
    "\u2581oleaut32dllvarcat": 1563,
    "\u2581oleaut32dllvareqv": 1564,
    "\u2581oleaut32dllvarfix": 1565,
    "\u2581oleaut32dllvarimp": 1566,
    "\u2581oleaut32dllvarint": 1567,
    "\u2581oleaut32dllvarpow": 1568,
    "\u2581oleaut32dllvarround": 1569,
    "\u2581oleaut32dllvardecadd": 1570,
    "\u2581oleaut32dllvardeccmp": 1571,
    "idorclsidtotypelibrary": 1572,
    "\u2581oleaut32dllvarbstrcat": 1573,
    "\u2581oleaut32dllvarbstrcmp": 1574,
    "\u2581oleaut32dllvarcymuli4": 1575,
    "\u2581oleaut32dlldispcallfunc": 1576,
    "\u2581oleaut32dllvardecfromcy": 1577,
    "\u2581oleaut32dllvardecfromi4": 1578,
    "\u2581oleaut32dllvardecfromr4": 1579,
    "\u2581oleaut32dllvardecfromr8": 1580,
    "\u2581oleaut32dllvarmonthname": 1581,
    "\u2581oleaut32dllvarr4fromdec": 1582,
    "\u2581oleaut32dllloadtypelibex": 1583,
    "\u2581oleaut32dllcreatetypelib2": 1584,
    "\u2581oleaut32dllvardecfromdate": 1585,
    "\u2581oleaut32dllvarweekdayname": 1586,
    "\u2581oleaut32dllsafearraygetiid": 1587,
    "\u2581oleaut32dllsafearraysetiid": 1588,
    "\u2581oleaut32dllvarformatnumber": 1589,
    "\u2581oleaut32dllgetaltmonthnames": 1590,
    "\u2581oleaut32dlloleloadpictureex": 1591,
    "\u2581oleaut32dllvardatefromudate": 1592,
    "\u2581oleaut32dllvarformatpercent": 1593,
    "\u2581oleaut32dllvarudatefromdate": 1594,
    "\u2581oleaut32dllsafearraycopydata": 1595,
    "\u2581oleaut32dllsafearraycreateex": 1596,
    "\u2581oleaut32dllunregistertypelib": 1597,
    "\u2581oleaut32dllvarformatcurrency": 1598,
    "\u2581oleaut32dllvarformatdatetime": 1599,
    "\u2581oleaut32dllvarnumfromparsenum": 1600,
    "\u2581oleaut32dllvarparsenumfromstr": 1601,
    "\u2581oleaut32dllgetrecordinfofromguids": 1602,
    "\u2581oleaut32dllsafearraygetrecordinfo": 1603,
    "\u2581oleaut32dllsafearraysetrecordinfo": 1604,
    "\u2581oleaut32dllgetrecordinfofromtypeinfo": 1605,
    "\u2581oleaut32dllsafearrayallocdescriptorex": 1606,
    "\u2581sxsdllsxsoleaut32mapiidorclsidtotypelibrary": 1607,
    "install": 1608,
    "ive": 1609,
    "lloc": 1610,
    "module32": 1611,
    "startdoc": 1612,
    "\u2581kernel32dllmodule32": 1613,
    "eet": 1614,
    "\u2581winspooldrv20": 1615,
    "sheet": 1616,
    "\u2581winspooldrvdoc": 1617,
    "propertysheet": 1618,
    "send": 1619,
    "\u2581kernel32dllfindclose": 1620,
    "info2": 1621,
    "fileattributes": 1622,
    "trace": 1623,
    "upper": 1624,
    "\u2581kernel32dlllocalfree": 1625,
    "\u2581sechostdlllookupaccountsidlocalw": 1626,
    "dva": 1627,
    "propertysheets": 1628,
    "namedsecurityinfow": 1629,
    "\u2581winspooldrvstartdoc": 1630,
    "\u2581winspooldrvenumprinter": 1631,
    "isvaliddev": 1632,
    "umentpropertiesw": 1633,
    "\u2581winspooldrvisvaliddev": 1634,
    "guid2": 1635,
    "\u2581ole32dllstringfromguid2": 1636,
    "\u2581winspooldrvopenprinter": 1637,
    "providor": 1638,
    "\u2581user32dllw": 1639,
    "printprovidor": 1640,
    "\u2581sechostdllopen": 1641,
    "\u2581winspooldrvdevice": 1642,
    "\u2581winspooldrvaddprinterdriver": 1643,
    "\u2581winspooldrvenumprintprocessor": 1644,
    "nce": 1645,
    "dvance": 1646,
    "dvanceddoc": 1647,
    "printprovidorw": 1648,
    "defaultprinterw": 1649,
    "printerdriversw": 1650,
    "printprocessorw": 1651,
    "printerconnectionw": 1652,
    "\u2581winspooldrvadvanceddoc": 1653,
    "\u2581user32dlldef": 1654,
    "buproperty": 1655,
    "\u2581kernel32dlllstrcpyn": 1656,
    "driv": 1657,
    "trust": 1658,
    "\u2581user32dllcharupper": 1659,
    "scrollinfo": 1660,
    "\u2581wininetdllhttp": 1661,
    "getinfo": 1662,
    "did": 1663,
    "\u2581advapi32dllregcreate": 1664,
    "\u2581advapi32dllregenumvaluew": 1665,
    "threa": 1666,
    "commandlin": 1667,
    "threadid": 1668,
    "\u2581kernel32dllgetcommandlin": 1669,
    "erelementdirectui": 1670,
    "\u2581kernel32dllgetcurrentthreadid": 1671,
    "\u2581propsysdllinit": 1672,
    "\u2581dui70dllon": 1673,
    "ablea": 1674,
    "\u2581cryptspdllcryptdestroyhash": 1675,
    "ctrl": 1676,
    "\u2581cryptspdllcryptcreatehash": 1677,
    "\u2581kernel32dllremove": 1678,
    "board": 1679,
    "ith": 1680,
    "flag": 1681,
    "ers": 1682,
    "verify": 1683,
    "dui": 1684,
    "\u2581comctl32dll385": 1685,
    "flags": 1686,
    "\u2581user32dllmessagebox": 1687,
    "canunload": 1688,
    "canunloadnow": 1689,
    "servicectrl": 1690,
    "hashdata": 1691,
    "poolwait": 1692,
    "\u2581kernel32dllsetfileattributes": 1693,
    "peb": 1694,
    "\u2581propsysdllinitpropvariant": 1695,
    "connectnamedpipe": 1696,
    "\u2581propsysdllinitpropvariantfrom": 1697,
    "pebuproperty": 1698,
    "parser": 1699,
    "duixml": 1700,
    "duixmlparser": 1701,
    "duixmlparserdirectui": 1702,
    "resumethread": 1703,
    "eand": 1704,
    "83": 1705,
    "releasemutex": 1706,
    "\u2581kernel32dllreleasemutex": 1707,
    "\u2581kernel32dllsetenvironmentvari": 1708,
    "eto": 1709,
    "\u2581kernel32dllglobal": 1710,
    "\u2581propsysdllpropvarianttostring": 1711,
    "\u2581setupapidllsetupdiget": 1712,
    "\u2581kernel32dllcreatefilea": 1713,
    "\u2581propsysdllpropvarianttostringalloc": 1714,
    "emp": 1715,
    "jpeapeav": 1716,
    "nls": 1717,
    "transl": 1718,
    "update": 1719,
    "tls": 1720,
    "sal": 1721,
    "\u2581local": 1722,
    "\u2581kernel32dllgettemp": 1723,
    "cod": 1724,
    "allocat": 1725,
    "\u2581kernel32dllgetcomputernamew": 1726,
    "\u2581wtsapi32dllwts": 1727,
    "\u2581user32dllcreatewindow": 1728,
    "cdll": 1729,
    "allocateand": 1730,
    "essionid": 1731,
    "idecharto": 1732,
    "idechartomultiby": 1733,
    "\u2581kernel32dllregquery": 1734,
    "\u2581kernel32dllwidechartomultiby": 1735,
    "\u2581kernel32dllqueryperformance": 1736,
    "chr": 1737,
    "\u2581kernel32dllwidechartomultibyte": 1738,
    "\u2581kernel32dllsetthreaduilanguage": 1739,
    "ible": 1740,
    "\u2581comctl32dllimagelist": 1741,
    "\u2581oleaut32dll8": 1742,
    "\u2581gdiplusdllgdip": 1743,
    "qm": 1744,
    "\u2581kernel32dllvirtualallocex": 1745,
    "boolean": 1746,
    "privileges": 1747,
    "adjusttoken": 1748,
    "adjusttokenprivileges": 1749,
    "\u2581advapi32dlladjusttokenprivileges": 1750,
    "meta": 1751,
    "\u2581propsysdllpropvarianttoboolean": 1752,
    "them": 1753,
    "nlsget": 1754,
    "cacheupdate": 1755,
    "cacheupdatecount": 1756,
    "\u2581gdi32dllcreate": 1757,
    "\u2581kernel32dllnlsget": 1758,
    "\u2581kernel32dllnlsgetcacheupdatecount": 1759,
    "univer": 1760,
    "universal": 1761,
    "addconnection3": 1762,
    "resourceparent": 1763,
    "universalname": 1764,
    "resourceinformation": 1765,
    "\u2581ntlanmandllnpgetconnection": 1766,
    "\u2581kernel32dlltls": 1767,
    "codeprocess": 1768,
    "\u2581kernel32dllgetexitcodeprocess": 1769,
    "sockaddr": 1770,
    "\u2581propsysdll417": 1771,
    "with": 1772,
    "\u2581kernel32dllsetevent": 1773,
    "debugger": 1774,
    "debuggerpresent": 1775,
    "\u2581kernel32dllisdebuggerpresent": 1776,
    "\u2581user32dlldefwindowproc": 1777,
    "\u2581advapi32dllgetnamedsecurityinfow": 1778,
    "heme": 1779,
    "\u2581kernel32dllreset": 1780,
    "counter": 1781,
    "\u2581kernel32dlllstrcata": 1782,
    "stringbinding": 1783,
    "buffered": 1784,
    "\u2581cryptspdllcryptgethashparam": 1785,
    "ioctl": 1786,
    "consoleinp": 1787,
    "table": 1788,
    "esc": 1789,
    "apibufferfree": 1790,
    "\u2581comctl32dllcc": 1791,
    "\u2581comctl32dlldraw": 1792,
    "\u2581kernel32dllregqueryvalueexw": 1793,
    "\u2581cryptspdllcryptimportkey": 1794,
    "\u2581dhc": 1795,
    "eactctx": 1796,
    "59": 1797,
    "1class": 1798,
    "prox": 1799,
    "10": 1800,
    "destroykey": 1801,
    "translat": 1802,
    "\u2581user32dlltranslat": 1803,
    "\u2581user32dllshow": 1804,
    "privilege": 1805,
    "\u2581kernel32dllgetmodulefilenamea": 1806,
    "state": 1807,
    "\u2581shell32dllshgetfolderpathw": 1808,
    "unmapviewoffile": 1809,
    "enter": 1810,
    "notificationw": 1811,
    "connectionnotificationw": 1812,
    "\u2581rasapi32dllrasconnectionnotificationw": 1813,
    "systeminformation": 1814,
    "\u2581user32dllwsprintfa": 1815,
    "\u2581user32dlltranslatem": 1816,
    "\u2581kernel32dllcopyfileexw": 1817,
    "\u2581advapi32dllcryptacquirecontext": 1818,
    "\u2581ntdlldllntquerysysteminformation": 1819,
    "\u2581advapi32dllregopenkeyw": 1820,
    "\u2581oleaut32dll200": 1821,
    "uint": 1822,
    "icon": 1823,
    "\u2581kernel32dllunmapviewoffile": 1824,
    "tet": 1825,
    "ndr": 1826,
    "ndrole": 1827,
    "\u2581ole32dllndrole": 1828,
    "\u2581ole32dllndroleinitializeextension": 1829,
    "fromobject": 1830,
    "\u2581propsysdllpscreate": 1831,
    "tetow": 1832,
    "multibytetow": 1833,
    "multibytetowidechar": 1834,
    "\u2581kernel32dllmultibytetowidechar": 1835,
    "ateprocess": 1836,
    "ole1class": 1837,
    "handlerclsid": 1838,
    "lookupproperty": 1839,
    "lookuppropertyhandlerclsid": 1840,
    "\u2581propsysdllpslookuppropertyhandlerclsid": 1841,
    "propertystorefromobject": 1842,
    "\u2581propsysdllpscreatepropertystorefromobject": 1843,
    "\u2581ole32dllclsidfromole1class": 1844,
    "\u2581clbcatqdllgetcatalogobject2": 1845,
    "uint64": 1846,
    "clas": 1847,
    "\u2581kernel32dlllocalalloc": 1848,
    "\u2581kernel32dllcreateprocessw": 1849,
    "\u2581psapidllgetmodulefilenameexa": 1850,
    "dexceptionhandler": 1851,
    "vectoredexceptionhandler": 1852,
    "\u2581propsysdllpropvarianttouint64": 1853,
    "ead": 1854,
    "erw": 1855,
    "sprintf": 1856,
    "lu": 1857,
    "dis": 1858,
    "\u2581kernel32dllterminateprocess": 1859,
    "\u2581propsysdllpropvarianttobuffer": 1860,
    "\u2581imm32dllimmgetcontext": 1861,
    "\u2581imm32dllimmreleasecontext": 1862,
    "errormode": 1863,
    "\u2581propsysdllinitpropvariantfrombuffer": 1864,
    "rol": 1865,
    "\u2581gdi32dllgettext": 1866,
    "control": 1867,
    "iate": 1868,
    "associate": 1869,
    "initializesid": 1870,
    "associatecontext": 1871,
    "\u2581imm32dllimmassociatecontext": 1872,
    "utexenamew": 1873,
    "consoleinputexenamew": 1874,
    "\u2581kernel32dllsetconsoleinputexenamew": 1875,
    "allocateandinitializesid": 1876,
    "\u2581advapi32dllallocateandinitializesid": 1877,
    "exportkey": 1878,
    "adapt": 1879,
    "oreg": 1880,
    "client": 1881,
    "frees": 1882,
    "freesid": 1883,
    "ref": 1884,
    "\u2581advapi32dllfreesid": 1885,
    "idlist": 1886,
    "\u2581kernel32dlllstrcpyw": 1887,
    "essage": 1888,
    "\u2581kernel32dllgetuser": 1889,
    "\u2581kernel32dllgetmodulefilenamew": 1890,
    "env": 1891,
    "localename": 1892,
    "\u2581kernel32dlladd": 1893,
    "\u2581kernel32dllgetuserdefault": 1894,
    "\u2581advapi32dlllookupaccountsidw": 1895,
    "\u2581user32dllsend": 1896,
    "vic": 1897,
    "\u2581user32dlltranslatemessage": 1898,
    "\u2581user32dlldispatch": 1899,
    "endof": 1900,
    "\u2581kernel32dllsetendof": 1901,
    "bit": 1902,
    "\u2581kernel32dllsetendoffile": 1903,
    "entercriticalsection": 1904,
    "foreg": 1905,
    "foreground": 1906,
    "\u2581kernel32dllwriteprocessmemory": 1907,
    "foregroundwindow": 1908,
    "\u2581iphlpapidllgetadapt": 1909,
    "clidllnet": 1910,
    "olor": 1911,
    "66": 1912,
    "printf": 1913,
    "servicew": 1914,
    "eave": 1915,
    "\u2581userenv": 1916,
    "\u2581advapi32dlllookup": 1917,
    "0208": 1918,
    "\u2581advapi32dlllookupprivilege": 1919,
    "\u2581ies": 1920,
    "\u2581iesqm": 1921,
    "mutex0208": 1922,
    "\u2581iesqmmutex0208": 1923,
    "anag": 1924,
    "ultip": 1925,
    "\u2581kernel32dllopenm": 1926,
    "log": 1927,
    "\u2581iphlpapidllgetadapters": 1928,
    "\u2581kernel32dllcreateeventw": 1929,
    "\u2581advapi32dllregdeletetreea": 1930,
    "\u2581advapi32dllregdeletetreew": 1931,
    "listen": 1932,
    "sta": 1933,
    "ms": 1934,
    "let": 1935,
    "ftp": 1936,
    "changea": 1937,
    "complet": 1938,
    "formultip": 1939,
    "waitformultip": 1940,
    "initializecriticalsectionandspincount": 1941,
    "\u2581wininetdllftp": 1942,
    "\u2581kernelbasedllinitializecriticalsectionandspincount": 1943,
    "special": 1944,
    "\u2581shell32dllshgetspecial": 1945,
    "dllnotify": 1946,
    "\u2581sechostdllnotify": 1947,
    "\u2581sechostdllnotifyservicestatus": 1948,
    "drivetyp": 1949,
    "\u2581kernel32dllgetdrivetyp": 1950,
    "escroll": 1951,
    "\u2581user32dllcharupperbuff": 1952,
    "\u2581sechostdllnotifyservicestatuschangea": 1953,
    "\u2581kernel32dlldeletefilew": 1954,
    "\u2581advapi32dllstart": 1955,
    "\u2581kernel32dlllstrcpya": 1956,
    "11": 1957,
    "sv": 1958,
    "sor": 1959,
    "requesta": 1960,
    "era": 1961,
    "bf": 1962,
    "tos": 1963,
    "exchange": 1964,
    "scm": 1965,
    "scmanag": 1966,
    "\u2581mscoreedll": 1967,
    "addresses": 1968,
    "\u2581iphlpapidllgetadaptersaddresses": 1969,
    "handlew": 1970,
    "bufferedpaint": 1971,
    "dial": 1972,
    "callback": 1973,
    "share": 1974,
    "params": 1975,
    "fromidlist": 1976,
    "\u2581kernel32dllvirtualprotectex": 1977,
    "cursor": 1978,
    "espac": 1979,
    "atethread": 1980,
    "closeservice": 1981,
    "closeservicehandle": 1982,
    "encrypt": 1983,
    "\u2581user32dllshowwindow": 1984,
    "e0": 1985,
    "pathfromidlist": 1986,
    "\u2581shell32dllshgetpathfromidlist": 1987,
    "eavecriticalsection": 1988,
    "\u2581advapi32dllcryptget": 1989,
    "dllcanunloadnow": 1990,
    "element": 1991,
    "optiona": 1992,
    "\u2581oleaut32dlldllcanunloadnow": 1993,
    "\u2581oleaut32dlldllgetclassobject": 1994,
    "\u2581shell32dllshgetspecialfolder": 1995,
    "73": 1996,
    "\u2581kernel32dllgetsystemtime": 1997,
    "dhc": 1998,
    "pcsv": 1999,
    "\u2581dhcpcsv": 2000,
    "dhcp": 2001,
    "\u2581dhcpcsvcdll": 2002,
    "dhcprequest": 2003,
    "dhcprequestparams": 2004,
    "\u2581dhcpcsvcdlldhcprequestparams": 2005,
    "listenerelementdirectui": 2006,
    "convertstring": 2007,
    "\u2581gdi32dllset": 2008,
    "enumer": 2009,
    "gz": 2010,
    "handleui": 2011,
    "\u2581dui70dllhandleui": 2012,
    "flush": 2013,
    "processid": 2014,
    "\u2581advapi32dllregset": 2015,
    "utexw": 2016,
    "\u2581kernel32dllresumethread": 2017,
    "scmanagerw": 2018,
    "\u2581kernel32dllleavecriticalsection": 2019,
    "stringex": 2020,
    "\u2581user32dllsetwindow": 2021,
    "location": 2022,
    "b9": 2023,
    "ealloc": 2024,
    "piw": 2025,
    "eapr": 2026,
    "eaprealloc": 2027,
    "\u2581kernel32dllheaprealloc": 2028,
    "\u2581kernel32dllentercriticalsection": 2029,
    "\u2581kernel32dllgetfileattributesw": 2030,
    "emot": 2031,
    "wksta": 2032,
    "eremot": 2033,
    "eremotethread": 2034,
    "\u2581kernel32dllcreateremotethread": 2035,
    "bc": 2036,
    "p6": 2037,
    "\u2581kernel32dlllstrcmpw": 2038,
    "\u2581wininetdllinternetopen": 2039,
    "\u2581shell32dllshgetpathfromidlista": 2040,
    "sethread": 2041,
    "\u2581kernel32dlllstrcmpia": 2042,
    "tosessionid": 2043,
    "rement": 2044,
    "idtosessionid": 2045,
    "\u2581kernel32dllprocessidtosessionid": 2046,
    "info2h": 2047,
    "21z": 2048,
    "\u2581advapi32dllregsetvalueexw": 2049,
    "\u2581shell32dllshgetspecialfolderlocation": 2050,
    "value21z": 2051,
    "propertychang": 2052,
    "closethread": 2053,
    "\u2581kernel32dllclosethread": 2054,
    "\u2581sechostdllconvertsidtostringsidw": 2055,
    "nz": 2056,
    "\u2581dui70dllcreate": 2057,
    "refer": 2058,
    "dialogbox": 2059,
    "\u2581user32dlldialogbox": 2060,
    "elocal": 2061,
    "\u2581ntdlldllzwquery": 2062,
    "namelocal": 2063,
    "lookupaccountnamelocal": 2064,
    "\u2581sechostdlllookupaccountnamelocal": 2065,
    "sign": 2066,
    "\u2581kernel32dlllstrcmpiw": 2067,
    "\u2581kernel32dllheapcreate": 2068,
    "notifyime": 2069,
    "\u2581imm32dllimmnotifyime": 2070,
    "\u2581advapi32dllconvertstring": 2071,
    "eaap": 2072,
    "\u2581kernel32dllloadresource": 2073,
    "\u2581advapi32dllregenumkeyexw": 2074,
    "pebupropertyinfo2h": 2075,
    "ue": 2076,
    "pebupropertyinfo2hpeav": 2077,
    "pebupropertyinfo2hpeavvalue21z": 2078,
    "\u2581user32dllregisterclass": 2079,
    "peau": 2080,
    "listenerelementdirectuiueaax": 2081,
    "\u2581user32dllgetkey": 2082,
    "\u2581imm32dllimmgetcompositionstringw": 2083,
    "\u2581sechostdlllookupaccountnamelocalw": 2084,
    "combin": 2085,
    "createcontext": 2086,
    "\u2581kernel32dllgetsysteminfo": 2087,
    "ca": 2088,
    "candi": 2089,
    "destroycontext": 2090,
    "\u2581imm32dllimmgetcompositionstringa": 2091,
    "esystem": 2092,
    "candidatewindow": 2093,
    "\u2581kernel32dllgetlocaltime": 2094,
    "\u2581imm32dllimmsetcandidatewindow": 2095,
    "\u2581imm32dllimmcreatecontext": 2096,
    "\u2581imm32dllimmdestroycontext": 2097,
    "\u2581imm32dllimmsetcompositionstringa": 2098,
    "\u2581imm32dllimmsetcompositionstringw": 2099,
    "hwndelementdirectuiueaax": 2100,
    "jpeapeav12": 2101,
    "actctx": 2102,
    "duplicatehandle": 2103,
    "internal": 2104,
    "ge": 2105,
    "\u2581netapi32dllnetuser": 2106,
    "backg": 2107,
    "background": 2108,
    "\u2581user32dlldialogboxparam": 2109,
    "https": 2110,
    "\u2581uxthemedllgetthem": 2111,
    "\u2581shlwapidllpathfind": 2112,
    "httpsend": 2113,
    "\u2581kernel32dllgetwindows": 2114,
    "a0": 2115,
    "match": 2116,
    "\u2581advapi32dllcryptreleasecontext": 2117,
    "apphelp": 2118,
    "\u2581kernel32dllduplicatehandle": 2119,
    "49": 2120,
    "fg": 2121,
    "qual": 2122,
    "urla": 2123,
    "sprintfw": 2124,
    "\u2581kernel32dllterminatethread": 2125,
    "host": 2126,
    "\u2581kernel32dllgetlocale": 2127,
    "securitydescriptorto": 2128,
    "waitformultipleobject": 2129,
    "securitydescriptortosecuritydescriptor": 2130,
    "waitformultipleobjects": 2131,
    "\u2581comctl32dllflatsbset": 2132,
    "\u2581shlwapidllstrcmp": 2133,
    "\u2581comctl32dllflatsbget": 2134,
    "\u2581b": 2135,
    "\u2581advapi32dllconvertstringsecuritydescriptortosecuritydescriptor": 2136,
    "put": 2137,
    "etofiletime": 2138,
    "\u2581kernel32dllfindfirstfilew": 2139,
    "\u2581user32dllcreatewindowexa": 2140,
    "cond": 2141,
    "eas": 2142,
    "\u2581shlwapidllstrcmpn": 2143,
    "matchspec": 2144,
    "\u2581shlwapidllpathmatchspec": 2145,
    "\u2581kernel32dllgetsystemtim": 2146,
    "\u2581advapi32dllregopenkeyexa": 2147,
    "etim": 2148,
    "\u2581kernel32dllgetversionexa": 2149,
    "ages": 2150,
    "gin": 2151,
    "\u2581kernel32dllgetcommandlinew": 2152,
    "safer": 2153,
    "\u2581advapi32dllsafer": 2154,
    "\u2581kernel32dllgetsystemtimeas": 2155,
    "working": 2156,
    "\u2581kernel32dllreadprocessmemory": 2157,
    "\u2581kernel32dllgetsystemtimeasfiletime": 2158,
    "filenamew": 2159,
    "findwindow": 2160,
    "\u2581kernel32dlllstrcatw": 2161,
    "\u2581user32dllfindwindow": 2162,
    "\u2581kernel32dllflushfile": 2163,
    "\u2581kernel32dllflushfilebuffers": 2164,
    "\u2581mscorwksdll": 2165,
    "\u2581shlwapidllpathcombin": 2166,
    "\u2581kernel32dllcreatedirectoryw": 2167,
    "condition": 2168,
    "ertrace": 2169,
    "ertraceguid": 2170,
    "\u2581advapi32dllregistertraceguid": 2171,
    "\u2581wm": 2172,
    "etw": 2173,
    "prefer": 2174,
    "\u2581user32dlldefwindowproca": 2175,
    "uninit": 2176,
    "config": 2177,
    "\u2581wminet": 2178,
    "\u2581user32dllup": 2179,
    "uilanguages": 2180,
    "\u2581kernel32dllresetevent": 2181,
    "urlmon": 2182,
    "reduilanguages": 2183,
    "\u2581user32dlldestroy": 2184,
    "\u2581comctl32dll327": 2185,
    "preferreduilanguages": 2186,
    "\u2581advapi32dllcryptacquirecontexta": 2187,
    "\u2581advapi32dllregistertraceguidsw": 2188,
    "\u2581user32dllgetmessagea": 2189,
    "\u2581ws232dllgetaddr": 2190,
    "\u2581advapi32dllgetsidsubauthoritycount": 2191,
    "changenotification": 2192,
    "52": 2193,
    "\u2581user32dllupdatewindow": 2194,
    "aut": 2195,
    "\u2581comctl32dll387": 2196,
    "quot": 2197,
    "dllver": 2198,
    "\u2581versiondllver": 2199,
    "quotespac": 2200,
    "act": 2201,
    "\u2581advapi32dllgettrace": 2202,
    "ctf": 2203,
    "ismeta": 2204,
    "printdc": 2205,
    "\u2581urlmon": 2206,
    "ismetaprintdc": 2207,
    "\u2581gdi32dllgdiismetaprintdc": 2208,
    "\u2581kernel32dllcopyfilew": 2209,
    "\u2581kernel32dllgetenvironmentvariablew": 2210,
    "snprintf": 2211,
    "kz": 2212,
    "conditionvari": 2213,
    "network": 2214,
    "onitor": 2215,
    "unmapviewofsection": 2216,
    "\u2581user32dllgetwindowlong": 2217,
    "ofresource": 2218,
    "izeofresource": 2219,
    "\u2581kernel32dllsizeofresource": 2220,
    "setvalueexa": 2221,
    "\u2581advapi32dllregsetvalueexa": 2222,
    "\u2581shlwapidllstrstriw": 2223,
    "vate": 2224,
    "\u2581urlmondll": 2225,
    "\u2581kernel32dllreleas": 2226,
    "\u2581user32dlldispatchmessagea": 2227,
    "\u2581kernel32dllvirtualfreeex": 2228,
    "\u2581ntdlldllntunmapviewofsection": 2229,
    "systemtim": 2230,
    "logical": 2231,
    "\u2581kernel32dllfindfirstfilea": 2232,
    "\u2581kernel32dllopenevent": 2233,
    "\u2581kernel32dllsystemtim": 2234,
    "\u2581kernel32dllgetlogical": 2235,
    "freead": 2236,
    "freeaddr": 2237,
    "\u2581ws232dllfreeaddr": 2238,
    "\u2581kernel32dllsleepex": 2239,
    "\u2581kernel32dlldeletefilea": 2240,
    "\u2581user32dllregisterclassexa": 2241,
    "15": 2242,
    "\u2581kernel32dllcreateprocessa": 2243,
    "auto": 2244,
    "\u2581kernel32dllexpandenvironmentstringsw": 2245,
    "irpc": 2246,
    "\u2581kernel32dllgetthreadcontext": 2247,
    "enumerate": 2248,
    "\u2581kernel32dllsystemtimetofiletime": 2249,
    "emo": 2250,
    "own": 2251,
    "\u2581user32dllunregister": 2252,
    "private": 2253,
    "\u2581kernel32dlldeletecriticalsection": 2254,
    "\u2581user32dllgetforegroundwindow": 2255,
    "networkname": 2256,
    "formatnetworkname": 2257,
    "opensocket": 2258,
    "socketinformation": 2259,
    "\u2581wshtcpipdllwshopensocket": 2260,
    "reader": 2261,
    "\u2581kernel32dllfindnextfilea": 2262,
    "real": 2263,
    "\u2581kernel32dllgetmodulehandlew": 2264,
    "\u2581msvcrtdllwc": 2265,
    "chec": 2266,
    "entstring": 2267,
    "\u2581advapi32dllconvertsidtostringsidw": 2268,
    "\u2581kernel32dllsetfileattributesw": 2269,
    "check": 2270,
    "ativ": 2271,
    "\u2581kernel32dllgetvolumeinformationw": 2272,
    "nativ": 2273,
    "\u2581vaultclidllvaultenumerate": 2274,
    "nativesystem": 2275,
    "nativesysteminfo": 2276,
    "\u2581kernel32dllgetnativesysteminfo": 2277,
    "\u2581wininetdllhttpsend": 2278,
    "output": 2279,
    "\u2581advapi32dllconvertstringsecuritydescriptortosecuritydescriptorw": 2280,
    "\u2581advapi32dllcreateprocess": 2281,
    "zon": 2282,
    "sizebox": 2283,
    "scrollbars": 2284,
    "achscrollbars": 2285,
    "\u2581comctl32dllscrollbar": 2286,
    "color": 2287,
    "bd": 2288,
    "li": 2289,
    "\u2581kernel32dllgetdrivetypew": 2290,
    "\u2581kernel32dllcreatedirectorya": 2291,
    "\u2581kernel32dllfindnextfilew": 2292,
    "\u2581kernel32dllseterrormode": 2293,
    "filem": 2294,
    "spl": 2295,
    "\u2581shlwapidllwvnsprintfa": 2296,
    "apping": 2297,
    "filemapping": 2298,
    "excl": 2299,
    "\u2581psapidll": 2300,
    "complete": 2301,
    "\u2581kernel32dllcreatemutexa": 2302,
    "\u2581user32dllunregisterclas": 2303,
    "\u2581user32dllis": 2304,
    "\u2581advapi32dllregenumkeyexa": 2305,
    "\u2581cryptspdllcryptencrypt": 2306,
    "\u2581msvbvm60dllv": 2307,
    "\u2581user32dlldestroywindow": 2308,
    "93": 2309,
    "13": 2310,
    "ull": 2311,
    "devic": 2312,
    "\u2581advapi32dllregister": 2313,
    "asuser": 2314,
    "\u2581msvcrtdllstrn": 2315,
    "\u2581advapi32dllcreateprocessasuser": 2316,
    "play": 2317,
    "priority": 2318,
    "\u2581versiondllgetfileversioninfo": 2319,
    "\u2581kernel32dllcreateeventa": 2320,
    "sacl": 2321,
    "0dllget": 2322,
    "\u2581sechostdllquery": 2323,
    "wkstagetinfo": 2324,
    "files": 2325,
    "\u2581dui70dllget": 2326,
    "full": 2327,
    "wow64": 2328,
    "resourcea": 2329,
    "cid": 2330,
    "conditionvariable": 2331,
    "\u2581kernel32dllcompare": 2332,
    "ereg": 2333,
    "53": 2334,
    "\u2581kernel32dllexpandenvironmentstringsa": 2335,
    "patha": 2336,
    "cmap": 2337,
    "deletem": 2338,
    "\u2581versiondllverquery": 2339,
    "\u2581user32dllfindwindowa": 2340,
    "lank": 2341,
    "down": 2342,
    "equal": 2343,
    "16": 2344,
    "ks": 2345,
    "\u2581versiondllgetfileversioninfosiz": 2346,
    "\u2581wks": 2347,
    "\u2581wksclidllnet": 2348,
    "\u2581msvcrtdllset": 2349,
    "\u2581cryptspdllcryptexportkey": 2350,
    "\u2581user32dllmessageboxa": 2351,
    "sprop": 2352,
    "\u2581shlwapidllpathun": 2353,
    "spropert": 2354,
    "\u2581gdi32dllgettextfac": 2355,
    "\u2581wininetdllinternetquery": 2356,
    "util": 2357,
    "be": 2358,
    "aph": 2359,
    "\u2581kernel32dllvirtualquery": 2360,
    "configu": 2361,
    "\u2581shlwapidllwvnsprintfw": 2362,
    "utdown": 2363,
    "shutdown": 2364,
    "autodial": 2365,
    "ybag": 2366,
    "getdc": 2367,
    "pspropert": 2368,
    "pspropertybag": 2369,
    "\u2581propsysdllpspropertybag": 2370,
    "iont": 2371,
    "\u2581wininetdllinternetread": 2372,
    "lanket": 2373,
    "proxyb": 2374,
    "proxyblanket": 2375,
    "infoex": 2376,
    "informationt": 2377,
    "\u2581kernel32dllgetlocaleinfoex": 2378,
    "\u2581ole32dllcoset": 2379,
    "\u2581ole32dllcosetproxyblanket": 2380,
    "itch": 2381,
    "switch": 2382,
    "\u2581shlwapidllpathre": 2383,
    "istr": 2384,
    "6e": 2385,
    "\u2581kernel32dlllcmap": 2386,
    "reset": 2387,
    "\u2581kernel32dllsetunhandledexceptionfilter": 2388,
    "\u2581shlwapidllpathunquotespac": 2389,
    "\u2581kernel32dllsetcurrent": 2390,
    "\u2581user32dllgetkeyboard": 2391,
    "\u2581iphlpapidllgetip": 2392,
    "clip": 2393,
    "usive": 2394,
    "exclusive": 2395,
    "ornumber": 2396,
    "\u2581kernel32dllgetcurrentprocessornumber": 2397,
    "access": 2398,
    "\u2581shell32dllshellexecutew": 2399,
    "\u2581kernel32dllwaitformultipleobjects": 2400,
    "pathnamew": 2401,
    "\u2581kernel32dllfindresourcea": 2402,
    "rwlockexclusive": 2403,
    "\u2581kernel32dllopenmutexa": 2404,
    "lreader": 2405,
    "\u2581user32dllloadstringw": 2406,
    "\u2581xmllitedllcreatexmlreader": 2407,
    "crement": 2408,
    "\u2581rasapi32dllrasset": 2409,
    "eali": 2410,
    "42": 2411,
    "\u2581kernel32dllqueryperformancecounter": 2412,
    "workingset": 2413,
    "privateprofile": 2414,
    "wind": 2415,
    "unwind": 2416,
    "\u2581ntdlldllzwqueryinformationt": 2417,
    "\u2581wintrust": 2418,
    "inue": 2419,
    "continue": 2420,
    "\u2581kernel32dllopenthread": 2421,
    "\u2581advapi32dllregdeletevaluew": 2422,
    "\u2581kernel32dllopeneventa": 2423,
    "\u2581shlwapidllstrstria": 2424,
    "ealias": 2425,
    "\u2581advapi32dllgetusernamew": 2426,
    "encod": 2427,
    "ization": 2428,
    "\u2581cryptspdllcrypthashdata": 2429,
    "shmem": 2430,
    "creates": 2431,
    "auth": 2432,
    "\u2581gdi32dllgetfont": 2433,
    "izationinfo": 2434,
    "realizationinfo": 2435,
    "\u2581gdi32dllgetlayout": 2436,
    "\u2581gdi32dllgdirealizationinfo": 2437,
    "encoding": 2438,
    "encodingname": 2439,
    "withencodingname": 2440,
    "\u2581dui70dlluninit": 2441,
    "ealiasw": 2442,
    "islin": 2443,
    "islinked": 2444,
    "fontislinked": 2445,
    "\u2581gdi32dllfontislinked": 2446,
    "\u2581gdi32dllgettextfacealiasw": 2447,
    "dllndr": 2448,
    "assocstatus": 2449,
    "\u2581gdi32dllgetfontassocstatus": 2450,
    "ran": 2451,
    "utilsdll": 2452,
    "sch": 2453,
    "keyparam": 2454,
    "\u2581advapi32dllregcreatekeyexa": 2455,
    "processwrite": 2456,
    "processwritebuffers": 2457,
    "\u2581kernel32dllflushprocesswritebuffers": 2458,
    "\u2581versiondllverqueryvaluew": 2459,
    "increment": 2460,
    "switchto": 2461,
    "\u2581user32dllpostmessagea": 2462,
    "\u2581kernel32dllinterlockedincrement": 2463,
    "\u2581kernel32dllswitchto": 2464,
    "\u2581user32dllsendmessagea": 2465,
    "\u2581kernel32dllsetenvironmentvariablea": 2466,
    "\u2581ole32dllole": 2467,
    "lwrit": 2468,
    "\u2581kernel32dllswitchtothread": 2469,
    "abil": 2470,
    "lwriter": 2471,
    "findnext": 2472,
    "\u2581kernel32dllgettime": 2473,
    "\u2581xmllitedllcreatexmlwriter": 2474,
    "ities": 2475,
    "capabil": 2476,
    "\u2581advapi32dllcryptgen": 2477,
    "capabilities": 2478,
    "\u2581versiondllgetfileversioninfow": 2479,
    "\u2581kernel32dlllstrcpyna": 2480,
    "\u2581versiondllgetfileversioninfosizew": 2481,
    "\u2581kernel32dllmodule32first": 2482,
    "\u2581advapi32dllequal": 2483,
    "fgdllinithelperdll": 2484,
    "\u2581comctl32dllflatsbsetscroll": 2485,
    "\u2581advapi32dllequalsid": 2486,
    "\u2581winspooldrvdocument": 2487,
    "\u2581comctl32dllflatsbgetscroll": 2488,
    "axxz": 2489,
    "\u2581kernel32dllmodule32next": 2490,
    "package": 2491,
    "installed": 2492,
    "\u2581crypt32dll": 2493,
    "dlgw": 2494,
    "erat": 2495,
    "a7": 2496,
    "remo": 2497,
    "processpr": 2498,
    "script": 2499,
    "\u2581wininetdllinternetreadfile": 2500,
    "processpriv": 2501,
    "4c": 2502,
    "umentpropertiesa": 2503,
    "\u2581shell32dllshellexecutea": 2504,
    "closeprinter": 2505,
    "\u2581winspooldrvcloseprinter": 2506,
    "\u2581winspooldrvopenprinterw": 2507,
    "datat": 2508,
    "\u2581winspooldrvgetprinterw": 2509,
    "modew": 2510,
    "spldriver": 2511,
    "resetprinterw": 2512,
    "unloadcomplete": 2513,
    "\u2581winspooldrvspldriver": 2514,
    "\u2581winspooldrvstartdocdlgw": 2515,
    "\u2581winspooldrvresetprinterw": 2516,
    "\u2581winspooldrvisvaliddevmodew": 2517,
    "\u2581winspooldrvstartdocprinterw": 2518,
    "\u2581winspooldrvgetprinterdriverw": 2519,
    "\u2581winspooldrvdocumentpropertiesw": 2520,
    "\u2581winspooldrvspldriverunloadcomplete": 2521,
    "4e": 2522,
    "writew": 2523,
    "formatex": 2524,
    "erprinter": 2525,
    "upload": 2526,
    "\u2581winspooldrvopenprintera": 2527,
    "sched": 2528,
    "printerchangenotification": 2529,
    "\u2581winspooldrvdevicecapabilities": 2530,
    "enumdevice": 2531,
    "\u2581winspooldrvaddport": 2532,
    "\u2581winspooldrvdocumentpropertysheets": 2533,
    "clr": 2534,
    "ypesw": 2535,
    "configure": 2536,
    "\u2581winspooldrvenumprintersw": 2537,
    "\u2581winspooldrvgetprintprocessor": 2538,
    "\u2581winspooldrvenumprintprocessordatat": 2539,
    "jobsw": 2540,
    "modea": 2541,
    "enamed": 2542,
    "formsw": 2543,
    "portsw": 2544,
    "ulejob": 2545,
    "onitorw": 2546,
    "playgdi": 2547,
    "monitorw": 2548,
    "scripton": 2549,
    "monitorsw": 2550,
    "installedw": 2551,
    "messageboxw": 2552,
    "printerkeyw": 2553,
    "schedulejob": 2554,
    "flushprinter": 2555,
    "frompackagew": 2556,
    "packagepathw": 2557,
    "printerchange": 2558,
    "configureportw": 2559,
    "deletemonitorw": 2560,
    "erprinterevent": 2561,
    "createprinteric": 2562,
    "playgdiscripton": 2563,
    "\u2581winspooldrv207": 2564,
    "\u2581winspooldrv209": 2565,
    "\u2581winspooldrv211": 2566,
    "\u2581winspooldrv212": 2567,
    "\u2581winspooldrv213": 2568,
    "\u2581winspooldrv214": 2569,
    "\u2581winspooldrv217": 2570,
    "\u2581winspooldrv218": 2571,
    "\u2581winspooldrv234": 2572,
    "\u2581winspooldrv251": 2573,
    "\u2581winspooldrvcore": 2574,
    "\u2581winspooldrvspool": 2575,
    "printermessageboxw": 2576,
    "\u2581winspooldrvupload": 2577,
    "coreprinterdriversw": 2578,
    "printerconnection2w": 2579,
    "\u2581winspooldrvaddjobw": 2580,
    "\u2581winspooldrvgetjobw": 2581,
    "\u2581winspooldrvinstall": 2582,
    "\u2581winspooldrvsetjobw": 2583,
    "\u2581winspooldrvwaitfor": 2584,
    "\u2581winspooldrvaddformw": 2585,
    "\u2581winspooldrvaddportw": 2586,
    "\u2581winspooldrvfindnext": 2587,
    "\u2581winspooldrvgetformw": 2588,
    "\u2581winspooldrvsetformw": 2589,
    "\u2581winspooldrvsetportw": 2590,
    "printerdriverpackagew": 2591,
    "\u2581winspooldrvenumjobsw": 2592,
    "\u2581winspooldrvaddportexw": 2593,
    "\u2581winspooldrvenumformsw": 2594,
    "\u2581winspooldrvenumportsw": 2595,
    "printerdriverinstalledw": 2596,
    "\u2581winspooldrvaddmonitorw": 2597,
    "\u2581winspooldrvaddprinterw": 2598,
    "\u2581winspooldrvdeleteformw": 2599,
    "\u2581winspooldrvdeleteportw": 2600,
    "\u2581winspooldrvschedulejob": 2601,
    "\u2581winspooldrvsetprinterw": 2602,
    "playgdiscriptonprinteric": 2603,
    "\u2581winspooldrvflushprinter": 2604,
    "printerdriverfrompackagew": 2605,
    "\u2581winspooldrvenummonitorsw": 2606,
    "\u2581winspooldrvopenprinter2w": 2607,
    "\u2581winspooldrvconfigureportw": 2608,
    "\u2581winspooldrvdeletemonitorw": 2609,
    "\u2581winspooldrvcreateprinteric": 2610,
    "\u2581winspooldrvdeleteprinteric": 2611,
    "\u2581winspooldrvenumprinterkeyw": 2612,
    "\u2581winspooldrvgetprinterdataw": 2613,
    "\u2581winspooldrvisvaliddevmodea": 2614,
    "\u2581winspooldrvsetprinterdataw": 2615,
    "\u2581winspooldrvenumprinterdataw": 2616,
    "\u2581winspooldrvaddprintprovidorw": 2617,
    "\u2581winspooldrvdeleteprinterkeyw": 2618,
    "\u2581winspooldrvgetprinterdataexw": 2619,
    "\u2581winspooldrvsetprinterdataexw": 2620,
    "\u2581winspooldrvaddprintprocessorw": 2621,
    "\u2581winspooldrvdeleteprinterdataw": 2622,
    "\u2581winspooldrvenumprinterdataexw": 2623,
    "\u2581winspooldrvgetdefaultprinterw": 2624,
    "\u2581winspooldrvprintermessageboxw": 2625,
    "\u2581winspooldrvsetdefaultprinterw": 2626,
    "\u2581winspooldrvaddprinterdriverexa": 2627,
    "\u2581winspooldrvaddprinterdriverexw": 2628,
    "\u2581winspooldrvdevicecapabilitiesw": 2629,
    "\u2581winspooldrvenumprinterdriversw": 2630,
    "\u2581winspooldrvspoolerprinterevent": 2631,
    "\u2581winspooldrvdeleteprinterdataexw": 2632,
    "\u2581winspooldrvdeleteprinterdriverw": 2633,
    "\u2581winspooldrvdeleteprintprovidorw": 2634,
    "\u2581winspooldrvdevicepropertysheets": 2635,
    "\u2581winspooldrvenumprintprocessorsw": 2636,
    "\u2581winspooldrvwaitforprinterchange": 2637,
    "\u2581kernel32dllgetvolumeinformationa": 2638,
    "\u2581winspooldrvaddprinterconnectionw": 2639,
    "\u2581winspooldrvdeleteprintprocessorw": 2640,
    "\u2581winspooldrvaddprinterconnection2w": 2641,
    "\u2581winspooldrvdeleteprinterdriverexw": 2642,
    "\u2581winspooldrvgetcoreprinterdriversw": 2643,
    "\u2581winspooldrvdeleteprinterconnectionw": 2644,
    "\u2581winspooldrvplaygdiscriptonprinteric": 2645,
    "\u2581winspooldrvgetprinterdriverdirectoryw": 2646,
    "\u2581winspooldrvadvanceddocumentpropertiesa": 2647,
    "\u2581winspooldrvadvanceddocumentpropertiesw": 2648,
    "\u2581winspooldrvcoreprinterdriverinstalledw": 2649,
    "\u2581winspooldrvdeleteprinterdriverpackagew": 2650,
    "\u2581winspooldrvgetprintprocessordirectoryw": 2651,
    "\u2581winspooldrvuploadprinterdriverpackagew": 2652,
    "\u2581winspooldrvenumprintprocessordatatypesw": 2653,
    "\u2581winspooldrvgetprinterdriverpackagepathw": 2654,
    "\u2581winspooldrvinstallprinterdriverfrompackagew": 2655,
    "\u2581winspooldrvfindnextprinterchangenotification": 2656,
    "ink": 2657,
    "enamedpip": 2658,
    "\u2581setupapidllsetupdienumdevice": 2659,
    "quit": 2660,
    "\u2581user32dllpostquit": 2661,
    "\u2581kernel32dllcreatenamedpip": 2662,
    "\u2581user32dllpostquitmessage": 2663,
    "elev": 2664,
    "elevel": 2665,
    "\u2581ws232dllws": 2666,
    "crack": 2667,
    "\u2581advapi32dllregdeletevaluea": 2668,
    "\u2581cryptspdllcryptacquirecontexta": 2669,
    "duplicatehash": 2670,
    "\u2581ws232dllgetaddrinfo": 2671,
    "olist": 2672,
    "istry": 2673,
    "infolist": 2674,
    "\u2581rpcrt4dllndr": 2675,
    "\u2581ws232dllfreeaddrinfo": 2676,
    "informationprocess": 2677,
    "clientcall": 2678,
    "deviceinfolist": 2679,
    "userprofile": 2680,
    "ameexw": 2681,
    "freememory": 2682,
    "hz": 2683,
    "\u2581oleaut32dllvarbstrfrom": 2684,
    "usernameexw": 2685,
    "\u2581dui70dllinit": 2686,
    "vectored": 2687,
    "continuehandler": 2688,
    "vectoredcontinuehandler": 2689,
    "\u2581user32dllunregisterclassa": 2690,
    "iee": 2691,
    "writewatch": 2692,
    "\u2581kernel32dllconnectnamedpipe": 2693,
    "resourcenotification": 2694,
    "initializesecurity": 2695,
    "jit": 2696,
    "\u2581wininetdllinternetset": 2697,
    "\u2581kernel32dlllstrcpynw": 2698,
    "ection": 2699,
    "\u2581ole32dllcoinitializesecurity": 2700,
    "\u2581setupapidllsetupdigetclass": 2701,
    "servicectrlhandler": 2702,
    "\u2581advapi32dllregisterservicectrlhandler": 2703,
    "\u2581setupapidllsetupdigetclassdev": 2704,
    "eau": 2705,
    "\u2581advapi32dllsetservicestatus": 2706,
    "malloc": 2707,
    "\u2581dui70dllonpropertychang": 2708,
    "ecurity": 2709,
    "elect": 2710,
    "escrollbar": 2711,
    "enablescrollbar": 2712,
    "servicectrldispatch": 2713,
    "\u2581advapi32dllstartservicectrldispatch": 2714,
    "\u2581dui70dllhandleuia": 2715,
    "select": 2716,
    "\u2581kernel32dllinterlockedcompare": 2717,
    "\u2581kernel32dllgetcurrentdirectorya": 2718,
    "\u2581kernel32dllinterlockedcompareexchange": 2719,
    "\u2581advapi32dllregenumvaluea": 2720,
    "\u2581setupapidllsetupdienumdeviceinfo": 2721,
    "\u2581advapi32dllregqueryinfokeya": 2722,
    "\u2581advapi32dlllookupaccountsida": 2723,
    "elementdirectuiqeaajhz": 2724,
    "\u2581userenvdllget": 2725,
    "\u2581uxthemedlldraw": 2726,
    "nown": 2727,
    "known": 2728,
    "hwndelementdirectuiu": 2729,
    "\u2581lib": 2730,
    "7d": 2731,
    "\u2581ws232dllwsas": 2732,
    "\u2581setupapidllsetupdidestroy": 2733,
    "qeaax": 2734,
    "\u2581setupapidllsetupdidestroydeviceinfolist": 2735,
    "12z": 2736,
    "\u2581userenvdllgetuserprofile": 2737,
    "\u2581dui70dllad": 2738,
    "\u2581dui70dlladdelementdirectui": 2739,
    "layout2z": 2740,
    "\u2581dui70dllsetlayout": 2741,
    "pebg": 2742,
    "elementdirectuiqeaajnz": 2743,
    "duixmlparserdirectuiqeaaj": 2744,
    "peav12z": 2745,
    "\u2581kernel32dlldis": 2746,
    "ibleelementdirectuiqeaajnz": 2747,
    "\u2581kernel32dlldisconnectnamedpipe": 2748,
    "hwndelementdirectuiueaap": 2749,
    "6f": 2750,
    "ueaajpeapeav12": 2751,
    "edhwndelementdirectuiueaax": 2752,
    "\u2581netapi32dllnetapibufferfree": 2753,
    "\u2581kernel32dllsetcurrentdirectorya": 2754,
    "\u2581kernel32dllcreatemutexw": 2755,
    "\u2581kernel32dllmovefilea": 2756,
    "emaph": 2757,
    "\u2581cryptspdllcryptgenkey": 2758,
    "84": 2759,
    "verifytrust": 2760,
    "\u2581wintrustdllwin": 2761,
    "\u2581wintrustdllwinverifytrust": 2762,
    "\u2581kernel32dllrtl": 2763,
    "ns": 2764,
    "esemaph": 2765,
    "gp": 2766,
    "\u2581kernel32dllgetenvironmentvariablea": 2767,
    "\u2581advapi32dllsetentriesinacla": 2768,
    "x00": 2769,
    "istryproperty": 2770,
    "\u2581advapi32dllcryptdestroyhash": 2771,
    "virtualmemory": 2772,
    "dm": 2773,
    "messagefilter": 2774,
    "\u2581user32dllgetwindowtexta": 2775,
    "\u2581wtsapi32dllwtsfreememory": 2776,
    "\u2581cryptspdllcryptduplicatehash": 2777,
    "\u2581netapi32dllnetuserenum": 2778,
    "\u2581advapi32dllcryptcreatehash": 2779,
    "thread32": 2780,
    "\u2581kernel32dllthread32": 2781,
    "devicereg": 2782,
    "deviceregistryproperty": 2783,
    "\u2581advapi32dlllookupaccount": 2784,
    "\u2581wtsapi32dllwtsquery": 2785,
    "det": 2786,
    "\u2581setupapidllsetupdigetdeviceregistryproperty": 2787,
    "\u2581duser": 2788,
    "\u2581advapi32dllgetsecuritydescriptor": 2789,
    "ellknown": 2790,
    "ellknownsid": 2791,
    "\u2581setupapidllsetupdigetclassdevsa": 2792,
    "\u2581msvbvm60dllvba": 2793,
    "\u2581kernel32dllgetversionexw": 2794,
    "signat": 2795,
    "provid": 2796,
    "\u2581setupapidllsetupdigetdeviceregistrypropertya": 2797,
    "stack": 2798,
    "usertoken": 2799,
    "\u2581kernel32dllprocess32firstw": 2800,
    "\u2581wtsapi32dllwtsqueryusertoken": 2801,
    "\u2581msvcrtdllmemset": 2802,
    "\u2581wtsapi32dllwtsenum": 2803,
    "\u2581wtsapi32dllwtsenumerat": 2804,
    "esession": 2805,
    "\u2581wtsapi32dllwtsenumeratesession": 2806,
    "\u2581kernel32dllprocess32nextw": 2807,
    "acquires": 2808,
    "\u2581wminetutilsdll": 2809,
    "filesecurity": 2810,
    "\u2581advapi32dlllookupaccountnamew": 2811,
    "provider": 2812,
    "by": 2813,
    "\u2581msvcrtdllstrto": 2814,
    "\u2581user32dllcharupperbuffa": 2815,
    "\u2581advapi32dllsetfilesecurity": 2816,
    "verifysignat": 2817,
    "duplicateobject": 2818,
    "namedsecurityinfoa": 2819,
    "\u2581ntdlldllntqueryobject": 2820,
    "\u2581advapi32dllsetnamedsecurityinfoa": 2821,
    "\u2581advapi32dllregload": 2822,
    "fill": 2823,
    "\u2581advapi32dllregunload": 2824,
    "shareenum": 2825,
    "\u2581ntdlldllzwqueryinformationthread": 2826,
    "\u2581advapi32dllregisterservicectrlhandlera": 2827,
    "\u2581advapi32dllstartservicectrldispatchera": 2828,
    "getdcname": 2829,
    "\u2581netapi32dllnetgetdcname": 2830,
    "\u2581ntdlldllntduplicateobject": 2831,
    "except": 2832,
    "excepthandler": 2833,
    "fromstringbinding": 2834,
    "\u2581rpcrt4dllrpcbindingfromstringbinding": 2835,
    "\u2581rpcrt4dllrpcbindingfromstringbindingw": 2836,
    "decrypt": 2837,
    "\u2581sechostdllcloseservicehandle": 2838,
    "00f": 2839,
    "\u2581kernel32dllgetuserdefaultuilanguage": 2840,
    "\u2581sechostdllopenscmanagerw": 2841,
    "\u2581sechostdllopenservicew": 2842,
    "\u2581cryptspdllcryptdestroykey": 2843,
    "\u2581gdi32dlldelete": 2844,
    "gpnotification": 2845,
    "guar": 2846,
    "antee": 2847,
    "guarantee": 2848,
    "stackguarantee": 2849,
    "stringfre": 2850,
    "\u2581rpcrt4dllrpcstringfre": 2851,
    "\u2581advapi32dlllookupprivilegevaluew": 2852,
    "\u2581rpcrt4dllrpcstringbinding": 2853,
    "sew": 2854,
    "\u2581wininetdllhttpquery": 2855,
    "\u2581rpcrt4dllndrclientcall": 2856,
    "\u2581kernel32dllsetthreadstackguarantee": 2857,
    "\u2581rpcrt4dllrpcstringbindingcom": 2858,
    "\u2581rpcrt4dllrpcstringfreew": 2859,
    "posew": 2860,
    "\u2581rpcrt4dllrpcstringbindingcomposew": 2861,
    "lc": 2862,
    "mb": 2863,
    "iva": 2864,
    "\u2581msvcrtdllexcepthandler": 2865,
    "\u2581pem9": 2866,
    "\u2581ws232dll115": 2867,
    "\u2581shlwapidllpathfindfilenamew": 2868,
    "\u2581kernel32dllcreatefilemapping": 2869,
    "\u2581kernel32dllcreatesemaph": 2870,
    "\u2581wininetdllhttpopen": 2871,
    "wellknownsid": 2872,
    "\u2581advapi32dllcreatewellknownsid": 2873,
    "\u2581kernel32dllsetenvironmentvariablew": 2874,
    "\u2581msvcrtdllmemcpy": 2875,
    "etext": 2876,
    "vlc": 2877,
    "ivat": 2878,
    "\u2581advapi32dllcrypthashdata": 2879,
    "vw": 2880,
    "\u2581sechostdllqueryservicestatus": 2881,
    "300f": 2882,
    "lugin": 2883,
    "lugindll": 2884,
    "\u2581ws232dll3": 2885,
    "vlcentry": 2886,
    "vlcentry300f": 2887,
    "lugindllvlcentry300f": 2888,
    "\u2581advapi32dllcreateprocessasuserw": 2889,
    "\u2581wininetdllinternetclosehandle": 2890,
    "ivateactctx": 2891,
    "\u2581msvcrtdllexcepthandler3": 2892,
    "anim": 2893,
    "79": 2894,
    "\u2581shlwapidllurl": 2895,
    "bitmap": 2896,
    "\u2581advapi32dllgetsecuritydescriptorsacl": 2897,
    "onical": 2898,
    "link": 2899,
    "\u2581kernel32dllgetconsol": 2900,
    "ameexa": 2901,
    "\u2581kernel32dllgetcomputernameexa": 2902,
    "\u2581user32dllmessageboxw": 2903,
    "input": 2904,
    "\u2581ws232dll23": 2905,
    "5d": 2906,
    "\u2581user32dllgetwindowlonga": 2907,
    "\u2581psapidllgetmodulefilenameexw": 2908,
    "\u2581kernel32dllsetthreadpriority": 2909,
    "remote": 2910,
    "\u2581kernel32dllgetprivateprofile": 2911,
    "corex": 2912,
    "sdllget": 2913,
    "mapviewofsection": 2914,
    "\u2581ntdlldllntmapviewofsection": 2915,
    "\u2581netutilsdllnetapibufferfree": 2916,
    "exem": 2917,
    "\u2581user32dllgetwindowtextw": 2918,
    "\u2581kernel32dllenum": 2919,
    "codethread": 2920,
    "\u2581kernel32dllgetexitcodethread": 2921,
    "ra": 2922,
    "linet": 2923,
    "\u2581rpcrt4dllrpcbindingfree": 2924,
    "createsection": 2925,
    "\u2581ws232dllwsaioctl": 2926,
    "\u2581wininetdllinternetopena": 2927,
    "lineto": 2928,
    "\u2581duserdll": 2929,
    "\u2581f": 2930,
    "mapviewoffile": 2931,
    "bb": 2932,
    "\u2581mscorwksdllget": 2933,
    "\u2581advapi32dllcryptdestroykey": 2934,
    "\u2581kernel32dlllcmapstringex": 2935,
    "allocate": 2936,
    "\u2581shlwapidllpathremove": 2937,
    "tol": 2938,
    "part": 2939,
    "\u2581apphelp": 2940,
    "\u2581apphelpdll": 2941,
    "\u2581kernel32dllgetwindowsdirectoryw": 2942,
    "\u2581msvcrtdllmalloc": 2943,
    "\u2581shlwapidllpathunquotespacesw": 2944,
    "allow": 2945,
    "\u2581kernel32dlladdvectoredexceptionhandler": 2946,
    "\u2581kernel32dllcreatesemaphore": 2947,
    "ency": 2948,
    "\u2581ntdlldllntcreatesection": 2949,
    "pw": 2950,
    "\u2581msvcrtdllfree": 2951,
    "frequ": 2952,
    "frequency": 2953,
    "\u2581ntdlldllntclose": 2954,
    "\u2581kernel32dllqueryperformancefrequency": 2955,
    "\u2581csc": 2956,
    "\u2581cscapidll": 2957,
    "\u2581kernel32dllgetprocessid": 2958,
    "ress": 2959,
    "asy": 2960,
    "\u2581wininetdllinternetcrack": 2961,
    "csc": 2962,
    "apiget": 2963,
    "cscnet": 2964,
    "cscnetapiget": 2965,
    "cscnetapigetinterface": 2966,
    "\u2581cscapidllcscnetapigetinterface": 2967,
    "fc": 2968,
    "range": 2969,
    "cert": 2970,
    "\u2581advapi32dllcryptimportkey": 2971,
    "\u2581netutilsdllnetpw": 2972,
    "\u2581netutilsdllnetpwname": 2973,
    "\u2581nsh": 2974,
    "\u2581propsysdllpspropertybagread": 2975,
    "\u2581wininetdllinternetconnect": 2976,
    "redirect": 2977,
    "\u2581ntdlldlletw": 2978,
    "infoexw": 2979,
    "\u2581uxthemedllbufferedpaint": 2980,
    "\u2581ntdlldlletwunregistertraceguids": 2981,
    "uration": 2982,
    "ins": 2983,
    "etype": 2984,
    "2b": 2985,
    "\u2581advapi32dlleventregister": 2986,
    "image": 2987,
    "\u2581wininetdllinternetconnecta": 2988,
    "58": 2989,
    "\u2581kernel32dllcreatenamedpipea": 2990,
    "\u2581wininetdllhttpopenrequesta": 2991,
    "\u2581wininetdllhttpsendrequesta": 2992,
    "\u2581wininetdllinternetqueryoptiona": 2993,
    "beg": 2994,
    "etoken": 2995,
    "\u2581ws232dll21": 2996,
    "\u2581user32dlldialogboxparamw": 2997,
    "\u2581kernel32dllisvalid": 2998,
    "\u2581wininetdllhttpqueryinfoa": 2999,
    "\u2581kernel32dllmapviewoffile": 3000,
    "bl": 3001,
    "uninitialize": 3002,
    "etol": 3003,
    "\u2581gdiplusdllgdipget": 3004,
    "roup": 3005,
    "\u2581rpcrt4dllrpcbindingset": 3006,
    "\u2581wininetdllinternetcrackurla": 3007,
    "\u2581kernel32dllremovevectoredexceptionhandler": 3008,
    "\u2581rpcrt4dllrpcbindingsetauth": 3009,
    "\u2581rpcrt4dllrpcbindingsetauthinfoexw": 3010,
    "begin": 3011,
    "arg": 3012,
    "typew": 3013,
    "\u2581kernel32dllinitializecriticalsectionex": 3014,
    "drag": 3015,
    "\u2581ntdlldllmem": 3016,
    "\u2581kernel32dllacquires": 3017,
    "\u2581kernel32dllreleases": 3018,
    "dlldirect": 3019,
    "\u2581shlwapidllstrstrw": 3020,
    "\u2581kernel32dllinitializecriticalsectionandspincount": 3021,
    "clipboard": 3022,
    "19": 3023,
    "bk": 3024,
    "stringto": 3025,
    "shell": 3026,
    "\u2581advapi32dlleventunregister": 3027,
    "std": 3028,
    "\u2581ws232dll9": 3029,
    "cp": 3030,
    "\u2581advapi32dlleventwrite": 3031,
    "sicmp": 3032,
    "compat": 3033,
    "\u2581msvcrtdllstrchr": 3034,
    "linkinfo": 3035,
    "\u2581ws232dll18": 3036,
    "fs": 3037,
    "filetim": 3038,
    "\u2581wininetdllinternetsetoptiona": 3039,
    "\u2581uxthemedllist": 3040,
    "vel": 3041,
    "locale": 3042,
    "server": 3043,
    "userag": 3044,
    "\u2581ws232dll111": 3045,
    "obt": 3046,
    "obtain": 3047,
    "obtainuserag": 3048,
    "obtainuseragentstring": 3049,
    "\u2581urlmondllobtainuseragentstring": 3050,
    "\u2581shlwapidllpathcombinea": 3051,
    "\u2581kernel32dllsetfileattributesa": 3052,
    "\u2581uxthemedlldrawtheme": 3053,
    "elog": 3054,
    "4b": 3055,
    "securityinfo": 3056,
    "onse": 3057,
    "\u2581bcrypt": 3058,
    "\u2581msvcrtdllwcsicmp": 3059,
    "classnamew": 3060,
    "\u2581shell32dllshellexecute": 3061,
    "\u2581advapi32dllcryptverifysignat": 3062,
    "redirection": 3063,
    "fsredirection": 3064,
    "wow64fsredirection": 3065,
    "\u2581kernel32dllgetfiletype": 3066,
    "\u2581kernel32dllwow64": 3067,
    "low": 3068,
    "\u2581kernel32dllloadlibraryw": 3069,
    "\u2581localzon": 3070,
    "countermutex": 3071,
    "level": 3072,
    "\u2581advapi32dllregcreatekeyexw": 3073,
    "\u2581ws232dll4": 3074,
    "\u2581ws232dll19": 3075,
    "\u2581ws232dll16": 3076,
    "\u2581advapi32dlllookupprivilegevaluea": 3077,
    "\u2581cm": 3078,
    "lua": 3079,
    "\u2581cmlua": 3080,
    "\u2581user32dllsetwindowlong": 3081,
    "\u2581advapi32dllcryptgethashparam": 3082,
    "\u2581mscoreedlln": 3083,
    "\u25811": 3084,
    "39": 3085,
    "db0": 3086,
    "\u2581ws232dll6": 3087,
    "40": 3088,
    "trac": 3089,
    "vis": 3090,
    "peek": 3091,
    "\u2581rpcrt4dllndrclientcall2": 3092,
    "\u2581ws232dll20": 3093,
    "\u2581kernel32dllgetstartup": 3094,
    "\u2581kernel32dllgettemppatha": 3095,
    "\u2581kernel32dllgetfull": 3096,
    "\u2581kernel32dllgetdate": 3097,
    "shdllinithelperdll": 3098,
    "dllirpc": 3099,
    "dllirpcext": 3100,
    "\u2581rpcrtremote": 3101,
    "\u2581rpcrtremotedllirpcext": 3102,
    "initializeextensionpoint": 3103,
    "\u2581rpcrtremotedllirpcextinitializeextensionpoint": 3104,
    "yap": 3105,
    "\u2581shlwapidllpathmatchspeca": 3106,
    "word": 3107,
    "stdhandle": 3108,
    "dk": 3109,
    "extent": 3110,
    "loader": 3111,
    "sto": 3112,
    "gth": 3113,
    "enumprovider": 3114,
    "\u2581userenvdllgetuserprofiledirectoryw": 3115,
    "argvw": 3116,
    "linetoargvw": 3117,
    "commandlinetoargvw": 3118,
    "\u2581wininetdllinternetget": 3119,
    "\u2581shell32dllcommandlinetoargvw": 3120,
    "\u2581advapi32dllsetsecurityinfo": 3121,
    "length": 3122,
    "\u2581ws232dll52": 3123,
    "\u2581oleaut32dllvariant": 3124,
    "hemedata": 3125,
    "openthemedata": 3126,
    "\u2581uxthemedllopenthemedata": 3127,
    "2s": 3128,
    "\u2581ws232dll13": 3129,
    "threadprocessid": 3130,
    "\u2581user32dllgetwindowthreadprocessid": 3131,
    "yu": 3132,
    "stock": 3133,
    "\u2581kernel32dlllock": 3134,
    "binary": 3135,
    "\u2581iphlpapidll": 3136,
    "54": 3137,
    "compatible": 3138,
    "\u2581gdi32dllcreatecompatible": 3139,
    "\u2581msvcrtdllv": 3140,
    "\u2581advapi32dlleventenabled": 3141,
    "callout": 3142,
    "\u2581ntdlldllrtlunhandledexceptionfilter": 3143,
    "isthread": 3144,
    "within": 3145,
    "stockobject": 3146,
    "withinloader": 3147,
    "withinloadercallout": 3148,
    "\u2581ntdlldllrtlisthread": 3149,
    "\u2581gdi32dllgetstockobject": 3150,
    "\u2581ntdlldllrtlisthreadwithinloadercallout": 3151,
    "\u2581ws232dll10": 3152,
    "\u2581ws232dll15": 3153,
    "hea": 3154,
    "\u2581kernel32dllgettemppathw": 3155,
    "\u2581localms": 3156,
    "addressto": 3157,
    "urea": 3158,
    "spi": 3159,
    "disk": 3160,
    "oq": 3161,
    "jx": 3162,
    "dlldllgetclassobject": 3163,
    "proxy": 3164,
    "\u2581kernel32dllloadlibraryexa": 3165,
    "3c": 3166,
    "\u2581user32dllpeek": 3167,
    "ata": 3168,
    "jxoq": 3169,
    "jxoqwn": 3170,
    "diskfre": 3171,
    "\u2581mprdllwnetopenenum": 3172,
    "\u2581kernel32dllgetuserdefaultlocalename": 3173,
    "att": 3174,
    "\u2581mprdllwnetcloseenum": 3175,
    "\u2581kernel32dllgetdiskfre": 3176,
    "extensionw": 3177,
    "ories": 3178,
    "dlldirectories": 3179,
    "defaultdlldirectories": 3180,
    "\u2581kernel32dllsetdefaultdlldirectories": 3181,
    "mous": 3182,
    "ret": 3183,
    "configuration": 3184,
    "\u2581wtsapi32dllwtsenumeratesessionsw": 3185,
    "bro": 3186,
    "\u2581shlwapidllstrcmpna": 3187,
    "f0": 3188,
    "wh": 3189,
    "elogger": 3190,
    "br": 3191,
    "adata": 3192,
    "metadata": 3193,
    "mbol": 3194,
    "metadatainternal": 3195,
    "\u2581kernel32dllfiletim": 3196,
    "metadatainternalinterface": 3197,
    "bf7": 3198,
    "blt": 3199,
    "tip": 3200,
    "\u2581sspi": 3201,
    "clink": 3202,
    "mboli": 3203,
    "mboliclink": 3204,
    "\u2581kernel32dllgetthreadpreferreduilanguages": 3205,
    "\u2581userenvdll": 3206,
    "\u2581kernel32dllgetsystemdefault": 3207,
    "\u2581mscoreedllndri": 3208,
    "\u2581kernel32dllgetcommandlinea": 3209,
    "\u2581user32dllcharupperbuffw": 3210,
    "callbacks": 3211,
    "threadpooltimer": 3212,
    "threadpooltimercallbacks": 3213,
    "\u2581kernel32dllsetthreadpooltimer": 3214,
    "\u2581kernel32dllclosethreadpooltimer": 3215,
    "\u2581kernel32dllcreatethreadpooltimer": 3216,
    "\u2581kernel32dllwaitforthreadpooltimercallbacks": 3217,
    "mboliclinkw": 3218,
    "esymboliclinkw": 3219,
    "\u2581kernel32dllcreatesymboliclinkw": 3220,
    "retur": 3221,
    "processorinformation": 3222,
    "callbackretur": 3223,
    "\u2581kernel32dllgetlogicalprocessorinformation": 3224,
    "when": 3225,
    "\u2581sspicli": 3226,
    "\u2581sspiclidllget": 3227,
    "callbackreturns": 3228,
    "whencallbackreturns": 3229,
    "\u2581sspiclidllgetusernameexw": 3230,
    "\u2581kernel32dllcomparestringex": 3231,
    "\u2581kernel32dllsetthreadpoolwait": 3232,
    "\u2581kernel32dllcreatesemaphoreexw": 3233,
    "\u2581kernel32dllclosethreadpoolwait": 3234,
    "\u2581kernel32dllcreatethreadpoolwait": 3235,
    "\u2581kernel32dllfreelibrarywhencallbackreturns": 3236,
    "2sse": 3237,
    "header": 3238,
    "\u2581kernel32dllsetthreadpreferreduilanguages": 3239,
    "\u2581shlwapidllpathmatchspecw": 3240,
    "enableflags": 3241,
    "enablelevel": 3242,
    "\u2581advapi32dllgettraceenableflags": 3243,
    "\u2581advapi32dllgettraceenablelevel": 3244,
    "tracelogger": 3245,
    "traceloggerhandle": 3246,
    "\u2581advapi32dllgettraceloggerhandle": 3247,
    "\u2581localmsctf": 3248,
    "\u2581msvcrtdllstrncpy": 3249,
    "9373": 3250,
    "\u2581msvcrtdllft": 3251,
    "do": 3252,
    "\u2581kernel32dllsetthreadcontext": 3253,
    "30": 3254,
    "\u2581msvcrtdllftol": 3255,
    "\u2581advapi32dllregloadkeyw": 3256,
    "\u2581advapi32dllregunloadkeyw": 3257,
    "\u2581user32dlldialogboxparama": 3258,
    "traceevent": 3259,
    "\u2581advapi32dllsetfilesecurityw": 3260,
    "ctfmonitor": 3261,
    "ctfmonitorinst": 3262,
    "\u2581localmsctfctfmonitorinst": 3263,
    "pol": 3264,
    "\u2581advapi32dlltraceevent": 3265,
    "wtol": 3266,
    "\u2581msvcrtdllftol2sse": 3267,
    "dkyu": 3268,
    "\u2581udkyu": 3269,
    "\u2581msvcrtdllwtol": 3270,
    "\u2581user32dllgetcursor": 3271,
    "lea": 3272,
    "\u2581ci": 3273,
    "\u2581kernel32dllheapdestroy": 3274,
    "default1": 3275,
    "mutexdefault1": 3276,
    "adw": 3277,
    "awinst": 3278,
    "cloadw": 3279,
    "awinsta0": 3280,
    "\u2581cicloadw": 3281,
    "instawinsta0": 3282,
    "\u2581cicloadwinstawinsta0": 3283,
    "\u2581localmsctfctfmonitorinstmutexdefault1": 3284,
    "\u2581uxthemedllgetthemesy": 3285,
    "\u2581globale": 3286,
    "\u2581rasapi32dllrasgetautodial": 3287,
    "spstartup": 3288,
    "cmd": 3289,
    "trim": 3290,
    "classinfow": 3291,
    "lpk": 3292,
    "\u2581lpk": 3293,
    "dlllp": 3294,
    "kedit": 3295,
    "\u2581lpkdlllp": 3296,
    "keditcontrol": 3297,
    "\u2581lpkdlllpkeditcontrol": 3298,
    "\u2581ws232dllgetname": 3299,
    "\u2581shlwapidllstrtrim": 3300,
    "\u2581ws232dllgetnameinfo": 3301,
    "\u2581psapidllquery": 3302,
    "\u2581user32dllchang": 3303,
    "\u2581psapidllqueryworkingset": 3304,
    "sys": 3305,
    "ewindowmessagefilter": 3306,
    "\u2581user32dllchangewindowmessagefilter": 3307,
    "\u2581ws232dll12": 3308,
    "50": 3309,
    "nc": 3310,
    "ecall": 3311,
    "jo": 3312,
    "\u2581ws232dll151": 3313,
    "\u2581advapi32dllcloseservicehandle": 3314,
    "shared": 3315,
    "off": 3316,
    "71": 3317,
    "join": 3318,
    "ute": 3319,
    "addrtable": 3320,
    "\u2581iphlpapidllgetipaddrtable": 3321,
    "que": 3322,
    "bestro": 3323,
    "bestroute": 3324,
    "\u2581iphlpapidllgetbestroute": 3325,
    "\u2581ws232dll51": 3326,
    "a2": 3327,
    "\u2581user32dllcall": 3328,
    "\u2581wksclidllnetwkstagetinfo": 3329,
    "cast": 3330,
    "unlock": 3331,
    "\u2581kernel32dllgettickcount64": 3332,
    "98": 3333,
    "\u2581msw": 3334,
    "closeth": 3335,
    "emedata": 3336,
    "\u2581mswsock": 3337,
    "closethemedata": 3338,
    "\u2581uxthemedllclosethemedata": 3339,
    "ae": 3340,
    "c30": 3341,
    "canonical": 3342,
    "\u2581ntdlldllntset": 3343,
    "leaf": 3344,
    "broad": 3345,
    "joinleaf": 3346,
    "broadcast": 3347,
    "\u2581mswsockdllw": 3348,
    "\u2581mswsockdllwspstartup": 3349,
    "\u2581drprovdllnpgetcaps": 3350,
    "\u2581drprovdllnpopenenum": 3351,
    "\u2581drprovdllnpcloseenum": 3352,
    "\u2581drprovdllnpenumresource": 3353,
    "\u2581drprovdllnpaddconnection": 3354,
    "\u2581drprovdllnpgetconnection": 3355,
    "\u2581drprovdllnpaddconnection3": 3356,
    "\u2581drprovdllnpcancelconnection": 3357,
    "\u2581drprovdllnpgetuniversalname": 3358,
    "\u2581drprovdllnpgetresourceparent": 3359,
    "\u2581drprovdllnpgetresourceinformation": 3360,
    "reconnect": 3361,
    "reconnectflags": 3362,
    "\u2581ntlanmandllnpgetcaps": 3363,
    "\u2581ntlanmandllnpgetuser": 3364,
    "\u2581ntlanmandllnpopenenum": 3365,
    "\u2581ntlanmandllnpcloseenum": 3366,
    "\u2581ntlanmandllnpenumresource": 3367,
    "\u2581ntlanmandllnpaddconnection": 3368,
    "\u2581ntlanmandllnpaddconnection3": 3369,
    "\u2581ntlanmandllnpgetconnection3": 3370,
    "\u2581ntlanmandllnpcancelconnection": 3371,
    "\u2581ntlanmandllnpgetuniversalname": 3372,
    "\u2581ntlanmandllnpformatnetworkname": 3373,
    "\u2581ntlanmandllnpgetreconnectflags": 3374,
    "\u2581ntlanmandllnpgetresourceparent": 3375,
    "\u2581ntlanmandllnpgetresourceinformation": 3376,
    "\u2581ntlanmandllnpgetconnectionperformance": 3377,
    "\u2581davclntdllnpgetcaps": 3378,
    "\u2581davclntdllnpgetuser": 3379,
    "\u2581davclntdllnpopenenum": 3380,
    "\u2581davclntdllnpcloseenum": 3381,
    "\u2581davclntdllnpenumresource": 3382,
    "\u2581davclntdllnpaddconnection": 3383,
    "\u2581davclntdllnpgetconnection": 3384,
    "\u2581davclntdllnpaddconnection3": 3385,
    "\u2581davclntdllnpcancelconnection": 3386,
    "\u2581davclntdllnpgetuniversalname": 3387,
    "\u2581davclntdllnpformatnetworkname": 3388,
    "\u2581davclntdllnpgetresourceparent": 3389,
    "\u2581davclntdllnpgetresourceinformation": 3390,
    "wil": 3391,
    "dcard": 3392,
    "wildcard": 3393,
    "sockaddrtype": 3394,
    "addresstostring": 3395,
    "stringtoaddress": 3396,
    "wildcardsockaddr": 3397,
    "setsocketinformation": 3398,
    "dlgitem": 3399,
    "\u2581kernel32dllsetconsol": 3400,
    "queryinterface": 3401,
    "\u2581mprdllwnetopenenumw": 3402,
    "broadcastsockaddr": 3403,
    "\u2581wshtcpipdllwshioctl": 3404,
    "\u2581wshtcpipdllwshnotify": 3405,
    "\u2581wshtcpipdllwshjoinleaf": 3406,
    "\u2581wshtcpipdllwshopensocket2": 3407,
    "\u2581wshtcpipdllwshaddresstostring": 3408,
    "\u2581wshtcpipdllwshgetsockaddrtype": 3409,
    "\u2581wshtcpipdllwshstringtoaddress": 3410,
    "\u2581wshtcpipdllwshgetwildcardsockaddr": 3411,
    "\u2581wshtcpipdllwshgetbroadcastsockaddr": 3412,
    "\u2581wshtcpipdllwshgetsocketinformation": 3413,
    "\u2581wshtcpipdllwshsetsocketinformation": 3414,
    "enumresourcew": 3415,
    "\u2581mprdllwnetenumresourcew": 3416,
    "\u2581pemb": 3417,
    "cred": 3418,
    "plugindllvlcentry300f": 3419,
    "\u2581shlwapidllsh": 3420,
    "async": 3421,
    "\u2581wininetdllinternetopenurla": 3422,
    "rwlockshared": 3423,
    "bd10": 3424,
    "83bc": 3425,
    "11e0": 3426,
    "gest": 3427,
    "\u258114e": 3428,
    "11e0bf7": 3429,
    "83bcdb0": 3430,
    "bd10c30": 3431,
    "\u258114e11e0bf7": 3432,
    "83bcdb0bd10c30": 3433,
    "\u258114e11e0bf783bcdb0bd10c30": 3434,
    "qs": 3435,
    "tdm": 3436,
    "\u2581gcc": 3437,
    "gesture": 3438,
    "shmemtdm": 3439,
    "\u2581gccshmemtdm": 3440,
    "\u2581kernel32dllcreateeventexw": 3441,
    "brush": 3442,
    "qsort": 3443,
    "\u2581msvcrtdllqsort": 3444,
    "gl": 3445,
    "\u2581kernel32dllcreatefilemappingw": 3446,
    "32dllget": 3447,
    "62": 3448,
    "68": 3449,
    "\u2581ntdlldllrtlunwind": 3450,
    "getitem": 3451,
    "items": 3452,
    "openvault": 3453,
    "closevault": 3454,
    "\u2581vaultclidllvaultfree": 3455,
    "\u2581vaultclidllvaultgetitem": 3456,
    "\u2581vaultclidllvaultopenvault": 3457,
    "\u2581vaultclidllvaultclosevault": 3458,
    "\u2581vaultclidllvaultenumerateitems": 3459,
    "vaults": 3460,
    "\u2581vaultclidllvaultenumeratevaults": 3461,
    "\u2581advapi32dllopenscmanagerw": 3462,
    "\u2581cryptspdllcryptdecrypt": 3463,
    "himagelist": 3464,
    "\u2581comctl32dllhimagelist": 3465,
    "\u2581comctl32dllhimagelistqueryinterface": 3466,
    "\u2581advapi32dllcreat": 3467,
    "ptr": 3468,
    "\u2581kernel32dllgetfullpathnamew": 3469,
    "insert": 3470,
    "shad": 3471,
    "\u2581i": 3472,
    "emove": 3473,
    "owtext": 3474,
    "mousemove": 3475,
    "escrollcmd": 3476,
    "shadowtext": 3477,
    "querysystem": 3478,
    "sizeboxhwnd": 3479,
    "gesturestatus": 3480,
    "getscrollinfo": 3481,
    "setscrollinfo": 3482,
    "handlescrollcmd": 3483,
    "\u2581comctl32dllatt": 3484,
    "\u2581comctl32dlldet": 3485,
    "\u2581comctl32dlldrawsizebox": 3486,
    "\u2581comctl32dllquerysystem": 3487,
    "\u2581comctl32dllsizeboxhwnd": 3488,
    "\u2581comctl32dlldrawscrollbar": 3489,
    "\u2581comctl32dllscrollbarmenu": 3490,
    "\u2581comctl32dlldrawshadowtext": 3491,
    "\u2581comctl32dllccgetscrollinfo": 3492,
    "\u2581comctl32dllccsetscrollinfo": 3493,
    "\u2581comctl32dllhandlescrollcmd": 3494,
    "\u2581comctl32dllattachscrollbars": 3495,
    "\u2581comctl32dlldetachscrollbars": 3496,
    "\u2581comctl32dllccenablescrollbar": 3497,
    "\u2581comctl32dllscrollbarmousemove": 3498,
    "\u2581comctl32dllquerysystemgesturestatus": 3499,
    "\u2581advapi32dlldelet": 3500,
    "ade": 3501,
    "70": 3502,
    "\u2581user32dllloadimag": 3503,
    "prof": 3504,
    "\u2581shlwapidllpathcombinew": 3505,
    "\u2581uxthemedllistheme": 3506,
    "\u2581advapi32dlldeleteservice": 3507,
    "\u2581kernel32dllgetwindowsdirectorya": 3508,
    "mandll": 3509,
    "\u2581rasmandll": 3510,
    "heap": 3511,
    "\u2581kernel32dllgetfileattributesexw": 3512,
    "f9": 3513,
    "mov": 3514,
    "dp": 3515,
    "\u2581uxthemedll49": 3516,
    "\u2581kernel32dllinterlockedexchange": 3517,
    "b99": 3518,
    "ource": 3519,
    "60": 3520,
    "\u2581apphelpdllapphelp": 3521,
    "eservicew": 3522,
    "\u2581advapi32dllcreateservicew": 3523,
    "eact": 3524,
    "\u2581advapi32dllstartservicew": 3525,
    "alet": 3526,
    "6d": 3527,
    "566": 3528,
    "\u2581user32dllmap": 3529,
    "\u2581advapi32dlladd": 3530,
    "\u2581gccshmemtdm2": 3531,
    "alette": 3532,
    "err": 3533,
    "\u2581user32dllcallwindowproc": 3534,
    "\u2581ole32dllclsidfromstring": 3535,
    "enam": 3536,
    "\u2581kernel32dllenumsystem": 3537,
    "\u2581user32dlldraw": 3538,
    "b15": 3539,
    "\u2581ole32dlloleinitialize": 3540,
    "e1": 3541,
    "\u2581user32dllgetcursorpos": 3542,
    "\u2581gdi32dllselect": 3543,
    "realloc": 3544,
    "\u2581ntdlldllntqueryinformationprocess": 3545,
    "\u2581advapi32dllcryptexportkey": 3546,
    "089": 3547,
    "\u2581kernel32dllgetbinary": 3548,
    "oem": 3549,
    "\u2581kernel32dllenumsystemlocal": 3550,
    "\u2581advapi32dllcryptgenkey": 3551,
    "gex": 3552,
    "\u2581uxthemedllgetthemebackground": 3553,
    "\u2581shlwapidllurlisw": 3554,
    "toa": 3555,
    "row": 3556,
    "\u2581kernel32dllgetfiletime": 3557,
    "validate": 3558,
    "\u2581kernel32dllgetbinarytypew": 3559,
    "indirect": 3560,
    "no": 3561,
    "\u2581apphelpdllapphelpcheck": 3562,
    "acp": 3563,
    "a7f": 3564,
    "ble": 3565,
    "inprog": 3566,
    "inprogress": 3567,
    "dllshutdown": 3568,
    "dllshutdowninprogress": 3569,
    "\u2581ntdlldllrtldllshutdowninprogress": 3570,
    "statusex": 3571,
    "\u2581kernel32dllgetacp": 3572,
    "\u2581mprdllwnetaddconnection": 3573,
    "\u2581mprdllwnetaddconnection2w": 3574,
    "\u2581mprdllwnetcancelconnection": 3575,
    "\u2581mprdllwnetcancelconnection2w": 3576,
    "4d": 3577,
    "\u2581msvcrtdlll": 3578,
    "\u2581oleaut32dllsys": 3579,
    "writefile": 3580,
    "shellobject": 3581,
    "\u2581apphelpdllapphelpcheckshellobject": 3582,
    "\u2581dui70dll1": 3583,
    "\u2581kernel32dllformat": 3584,
    "ba4c": 3585,
    "322b": 3586,
    "\u2581shell32dllshellexecuteexw": 3587,
    "\u2581uxthemedllgetthemebool": 3588,
    "5913": 3589,
    "\u2581msvcrtdllltoa": 3590,
    "53566": 3591,
    "b15bb": 3592,
    "089a7f": 3593,
    "b995913": 3594,
    "322bba4c": 3595,
    "b995913b15bb": 3596,
    "53566322bba4c": 3597,
    "089a7fb995913b15bb": 3598,
    "\u2581globale53566322bba4c": 3599,
    "\u2581globale53566322bba4c089a7fb995913b15bb": 3600,
    "registerclassnamew": 3601,
    "\u2581comctl32dllregisterclassnamew": 3602,
    "\u2581kernel32dllmovefilew": 3603,
    "\u2581kernel32dllopenmutexw": 3604,
    "\u2581msvcrtdllvsnprintf": 3605,
    "\u2581rpcrt4dllirpc": 3606,
    "hdc": 3607,
    "elementdirectuiq": 3608,
    "top": 3609,
    "b06e": 3610,
    "gr": 3611,
    "peaxz": 3612,
    "actctxsection": 3613,
    "\u2581user32dllpeekmessagew": 3614,
    "\u2581kernel32dllfindactctxsection": 3615,
    "\u2581kernel32dllfindactctxsectionstringw": 3616,
    "\u2581wininetdllinternetwritefile": 3617,
    "ma": 3618,
    "slash": 3619,
    "menuitem": 3620,
    "backslash": 3621,
    "actctxw": 3622,
    "\u2581kernel32dllqueryactctxw": 3623,
    "wcfgdllinithelperdll": 3624,
    "mondllinithelperdll": 3625,
    "adestroy": 3626,
    "montr": 3627,
    "montrdllinithelperdll": 3628,
    "48": 3629,
    "ecallback": 3630,
    "terminate": 3631,
    "inputwithencodingname": 3632,
    "\u2581xmllitedllcreatexmlreaderinputwithencodingname": 3633,
    "7c": 3634,
    "info2xz": 3635,
    "messagecallback": 3636,
    "fromresource": 3637,
    "agg": 3638,
    "msgz": 3639,
    "aggmsgz": 3640,
    "\u2581dui70dllmessagecallback": 3641,
    "espec": 3642,
    "filespec": 3643,
    "initializea": 3644,
    "\u2581dui70dllondestroy": 3645,
    "\u2581dui70dllhandleuiadestroy": 3646,
    "exceptionfilter": 3647,
    "\u2581shlwapidllpathremovefilespec": 3648,
    "\u2581shlwapidllpathis": 3649,
    "\u2581rpcrt4dllirpcexceptionfilter": 3650,
    "\u2581ncrypt": 3651,
    "provparam": 3652,
    "executable": 3653,
    "initializeacl": 3654,
    "\u2581advapi32dllinitializeacl": 3655,
    "\u2581wininetdllftpopen": 3656,
    "\u2581crypt32dllcrypt": 3657,
    "\u2581wininetdllftpopenfilea": 3658,
    "\u2581dui70dlluninitthread": 3659,
    "\u2581dui70dlluninitprocesspriv": 3660,
    "\u2581kernel32dlltlsgetvalue": 3661,
    "104": 3662,
    "\u2581wininetdllftpget": 3663,
    "78": 3664,
    "ocketw": 3665,
    "resp": 3666,
    "\u2581kernel32dlltlssetvalue": 3667,
    "lastresp": 3668,
    "\u2581dui70dll0": 3669,
    "lastresponse": 3670,
    "\u2581wininetdllinternetgetlastresponse": 3671,
    "\u2581wininetdllinternetgetlastresponseinfoa": 3672,
    "\u2581comctl32dll41": 3673,
    "deletefilea": 3674,
    "\u2581wininetdllftpgetfilea": 3675,
    "\u2581wininetdllftpdeletefilea": 3676,
    "\u2581kernel32dllenumsystemlocales": 3677,
    "uiclass": 3678,
    "ives": 3679,
    "outputwithencodingname": 3680,
    "\u2581xmllitedllcreatexmlwriteroutputwithencodingname": 3681,
    "\u2581kernel32dllsu": 3682,
    "apibufferallocate": 3683,
    "\u2581netutilsdllnetapibufferallocate": 3684,
    "serverenum": 3685,
    "\u2581kernel32dlllockresource": 3686,
    "textw": 3687,
    "time64": 3688,
    "\u2581shlwapidllstrcmpni": 3689,
    "\u2581netapi32dllnetwkstagetinfo": 3690,
    "\u2581advapi32dllcryptgetkeyparam": 3691,
    "disa": 3692,
    "hinstance": 3693,
    "\u2581linkinfo": 3694,
    "ueaaxz": 3695,
    "strto": 3696,
    "\u2581brow": 3697,
    "\u2581browclidllnet": 3698,
    "\u2581browclidllnetserverenum": 3699,
    "\u2581advapi32dllcryptgetprovparam": 3700,
    "animation": 3701,
    "\u2581prof": 3702,
    "apidll104": 3703,
    "\u2581profapidll104": 3704,
    "prim": 3705,
    "\u2581winhttpdllwinhttpget": 3706,
    "opt": 3707,
    "\u2581netapi32dllnetshareenum": 3708,
    "edel": 3709,
    "enddef": 3710,
    "\u2581advapi32dllcryptverifysignaturea": 3711,
    "\u2581kernel32dllgetstartupinfow": 3712,
    "\u2581kernel32dllisvalidlocalename": 3713,
    "\u2581kernel32dllenumsystemlocalesex": 3714,
    "\u2581kernel32dllgetdateformatex": 3715,
    "\u2581kernel32dllgettimeformatex": 3716,
    "contextthread": 3717,
    "\u2581user32dllgetkeyboardstate": 3718,
    "setkeyparam": 3719,
    "\u2581kernel32dllgetstdhandle": 3720,
    "emain": 3721,
    "spend": 3722,
    "stru": 3723,
    "\u2581kernel32dllinitializes": 3724,
    "\u2581dui70dllinitialize": 3725,
    "\u2581ws232dllwsasocketw": 3726,
    "edace": 3727,
    "userkey": 3728,
    "\u2581psapidllenum": 3729,
    "uiclassinfo2xz": 3730,
    "informationby": 3731,
    "\u2581kernel32dllsetfiletime": 3732,
    "accessallow": 3733,
    "corexemain": 3734,
    "systemdirectory": 3735,
    "\u2581user32dllloadicon": 3736,
    "\u2581kernel32dllgetsystemwindows": 3737,
    "cas": 3738,
    "foc": 3739,
    "focus": 3740,
    "accessallowedace": 3741,
    "itives": 3742,
    "primitives": 3743,
    "primitivesdllget": 3744,
    "\u2581bcryptprimitivesdllget": 3745,
    "informationbyhandle": 3746,
    "\u2581advapi32dlladdaccessallowedace": 3747,
    "5c": 3748,
    "\u2581msvcrtdllmemcmp": 3749,
    "casoff": 3750,
    "clrcasoff": 3751,
    "clrcasoffmutex": 3752,
    "\u2581globalclrcasoffmutex": 3753,
    "tableentry": 3754,
    "forv": 3755,
    "forvtableentry": 3756,
    "\u2581user32dlldefwindowprocw": 3757,
    "\u2581kernel32dllgetsystemwindowsdirectoryw": 3758,
    "\u2581shlwapidllstrtrimw": 3759,
    "backslashw": 3760,
    "\u2581kernel32dlladdvectoredcontinuehandler": 3761,
    "6c": 3762,
    "signhash": 3763,
    "\u2581mscoreedllgetcor": 3764,
    "\u2581mscoreedllgetcorsystemdirectory": 3765,
    "\u2581msvcrtdllat": 3766,
    "\u2581dui70dllinitthread": 3767,
    "\u2581dui70dllinitprocesspriv": 3768,
    "yap6": 3769,
    "axxzz": 3770,
    "axxzp6": 3771,
    "\u2581wsock": 3772,
    "yap6axxzp6": 3773,
    "yap6axxzp6axxzz": 3774,
    "\u2581msvcrtdllseterrormode": 3775,
    "\u2581msvcrtdllsetterminate": 3776,
    "\u2581msvcrtdllsetterminateyap6axxzp6axxzz": 3777,
    "qeaaxz": 3778,
    "\u2581advapi32dllcryptenumprovider": 3779,
    "clrfunction": 3780,
    "startupflags": 3781,
    "executableheap": 3782,
    "\u2581mscoreedlliee": 3783,
    "\u2581mscorwksdlliee": 3784,
    "elementdirectuiu": 3785,
    "configurationfile": 3786,
    "\u2581mscoreedllgethost": 3787,
    "processexecutableheap": 3788,
    "\u2581mscoreedllgetstartupflags": 3789,
    "\u2581mscorwksdllgetclrfunction": 3790,
    "\u2581mscoreedllgethostconfigurationfile": 3791,
    "\u2581mscoreedllgetprocessexecutableheap": 3792,
    "\u2581kernel32dllresetwritewatch": 3793,
    "\u2581advapi32dllcryptenumprovidersa": 3794,
    "metafile": 3795,
    "\u2581advapi32dllcryptsignhash": 3796,
    "\u2581advapi32dllcryptgetuserkey": 3797,
    "\u2581kernel32dllgetwritewatch": 3798,
    "\u2581kernel32dllremovevectoredcontinuehandler": 3799,
    "\u2581kernel32dllcreatememory": 3800,
    "\u2581kernel32dllcreatememoryresourcenotification": 3801,
    "element2": 3802,
    "contexttoken": 3803,
    "\u2581kernel32dllquerymemory": 3804,
    "\u2581kernel32dllquerymemoryresourcenotification": 3805,
    "\u2581ole32dllcogetcontexttoken": 3806,
    "\u2581advapi32dllcryptsignhasha": 3807,
    "orgex": 3808,
    "enametol": 3809,
    "dllgetjit": 3810,
    "\u2581mscorjit": 3811,
    "\u2581mscorjitdllgetjit": 3812,
    "cidtol": 3813,
    "ocalename": 3814,
    "enametolcid": 3815,
    "cidtolocalename": 3816,
    "\u2581localzones": 3817,
    "\u2581kernel32dlllocalenametolcid": 3818,
    "\u2581kernel32dlllcidtolocalename": 3819,
    "nch": 3820,
    "info2z": 3821,
    "cs": 3822,
    "\u2581user32dllgetkeyboardlayout": 3823,
    "tar": 3824,
    "bits": 3825,
    "hwndxz": 3826,
    "\u2581dui70dllgethwnd": 3827,
    "hnz": 3828,
    "\u2581user32dllregisterclas": 3829,
    "\u2581user32dllcreatewindowexw": 3830,
    "3d": 3831,
    "gls": 3832,
    "ongroup": 3833,
    "\u2581dui70dlldestroy": 3834,
    "\u2581dui70dllongroup": 3835,
    "0z": 3836,
    "ingelementdirectuiu": 3837,
    "propertychanging": 3838,
    "\u2581dui70dllhandleuiaproperty": 3839,
    "\u2581dui70dllhandleuiapropertychanging": 3840,
    "\u2581dui70dllonpropertychangingelementdirectuiu": 3841,
    "\u2581dui70dllenddef": 3842,
    "\u2581dui70dllenddeferelementdirectui": 3843,
    "\u2581netapi32dllnetusergetinfo": 3844,
    "qeaajpeau": 3845,
    "ipeau": 3846,
    "\u2581shlwapidllpathremovefilespecw": 3847,
    "uim": 3848,
    "ype": 3849,
    "layoutdirectui": 3850,
    "desc": 3851,
    "value2": 3852,
    "\u2581kernel32dllglobalmemory": 3853,
    "\u2581dui70dlldestroyduixmlparserdirectui": 3854,
    "\u2581psapidllenumprocess": 3855,
    "e8": 3856,
    "\u2581user32dllto": 3857,
    "\u2581shell32dll66": 3858,
    "eaan": 3859,
    "directuim": 3860,
    "\u2581dui70dllsetac": 3861,
    "\u2581kernel32dllexitthread": 3862,
    "11h": 3863,
    "2p6": 3864,
    "32z": 3865,
    "2z2z": 3866,
    "ipeav": 3867,
    "peakz": 3868,
    "11h2z2z": 3869,
    "element21": 3870,
    "\u2581dui70dllsetxml": 3871,
    "\u2581dui70dllsetaccess": 3872,
    "\u2581dui70dllcreateelement": 3873,
    "\u2581dui70dllcreateduixmlparserdirectui": 3874,
    "pebgz": 3875,
    "element2peakz": 3876,
    "ipeavelement2peakz": 3877,
    "eauhwndxz": 3878,
    "pebupropertyinfo2z": 3879,
    "\u2581gdi32dllgetdevice": 3880,
    "\u2581gdi32dlldeleteobject": 3881,
    "\u2581kernel32dlltlsalloc": 3882,
    "eaanpebupropertyinfo2hpeavvalue21z": 3883,
    "listenerelementdirectuiueaaxpebupropertyinfo2z": 3884,
    "\u2581dui70dllhandleuiapropertylistenerelementdirectuiueaax": 3885,
    "ooltip": 3886,
    "qeaaxkz": 3887,
    "hinstance0z": 3888,
    "\u2581dui70dllsetxmlfromresource": 3889,
    "\u2581dui70dllenddeferelementdirectuiqeaaxkz": 3890,
    "synch": 3891,
    "active": 3892,
    "descend": 3893,
    "abletim": 3894,
    "waitabletim": 3895,
    "ipeaut": 3896,
    "ueaaipeaut": 3897,
    "ueaaipeautaggmsgz": 3898,
    "iiz": 3899,
    "qeaaxxz": 3900,
    "\u2581dui70dllinsert": 3901,
    "\u2581msvcrtdllmemchr": 3902,
    "listenerelementdirectuiueaaxxz": 3903,
    "\u2581dui70dllhandleuiadestroylistenerelementdirectuiueaaxxz": 3904,
    "disable": 3905,
    "\u2581dui70dllsetcont": 3906,
    "utag": 3907,
    "edelement": 3908,
    "\u2581gdi32dllgetdevicecaps": 3909,
    "\u2581dui70dlldestroyduixmlparserdirectuiqeaaxxz": 3910,
    "hwndn": 3911,
    "hostedelement": 3912,
    "\u2581dui70dllsetvis": 3913,
    "hostedelementdirectuim": 3914,
    "\u2581dui70dll0hwndelementdirectui": 3915,
    "\u2581dui70dllinitializehwndelementdirectui": 3916,
    "12gz": 3917,
    "descendent": 3918,
    "\u2581dui70dllfind": 3919,
    "\u2581dui70dllsetlayoutpos": 3920,
    "\u2581dui70dllfinddescendent": 3921,
    "\u2581dui70dllsetcontentstring": 3922,
    "\u2581dui70dllfinddescendentelementdirectuiq": 3923,
    "strtoid": 3924,
    "utagrect": 3925,
    "\u2581gdi32dllgdiadd": 3926,
    "\u2581dui70dllstrtoid": 3927,
    "\u2581dui70dllongroupchang": 3928,
    "ential": 3929,
    "\u2581gdi32dllgdiaddgls": 3930,
    "eaapeav": 3931,
    "icy": 3932,
    "crole": 3933,
    "\u2581dui70dllonun": 3934,
    "\u2581dui70dllsetaccrole": 3935,
    "\u2581dui70dllonunhostedelementdirectuim": 3936,
    "eaax": 3937,
    "p6ap": 3938,
    "espace": 3939,
    "elementdirectuiqeaajpebgz": 3940,
    "duixmlparserdirectuiqeaajpebg": 3941,
    "poolwork": 3942,
    "sajpeapeav": 3943,
    "eaaxpeav12z": 3944,
    "sajpeapeavlayout2z": 3945,
    "elementdirectuiqeaajpeav": 3946,
    "layoutdirectuisajpeapeavlayout2z": 3947,
    "peak": 3948,
    "2p6ax": 3949,
    "p6apeav": 3950,
    "pebgpeaxz": 3951,
    "peapeav32z": 3952,
    "2p6ax11h2z2z": 3953,
    "sajpeapeav12": 3954,
    "element21peak": 3955,
    "p6apeavvalue2": 3956,
    "qeaajpeauhwndn": 3957,
    "peavelement21peak": 3958,
    "pebgpeaxz2p6ax11h2z2z": 3959,
    "sajpeapeav12p6apeavvalue2": 3960,
    "\u2581advapi32dllcryptgenrandom": 3961,
    "peavelement21peakpeapeav32z": 3962,
    "elementdirectuiqeaajpeavlayout2z": 3963,
    "qeaajpeauhwndnipeavelement2peakz": 3964,
    "hwndelementdirectuiueaapeauhwndxz": 3965,
    "\u2581dui70dll0hwndelementdirectuiqeaaxz": 3966,
    "\u2581dui70dllsetaccroleelementdirectuiqeaajhz": 3967,
    "\u2581dui70dllsetvisibleelementdirectuiqeaajnz": 3968,
    "\u2581dui70dllsetaccessibleelementdirectuiqeaajnz": 3969,
    "sajpeapeav12p6apeavvalue2pebgpeaxz2p6ax11h2z2z": 3970,
    "\u2581dui70dllgethwndhwndelementdirectuiueaapeauhwndxz": 3971,
    "\u2581dui70dllonpropertychangedhwndelementdirectuiueaax": 3972,
    "\u2581dui70dllsetlayoutelementdirectuiqeaajpeavlayout2z": 3973,
    "\u2581dui70dllcreateelementduixmlparserdirectuiqeaajpebg": 3974,
    "eaapeav12gz": 3975,
    "qeaajpeav12z": 3976,
    "eauiclassinfo2xz": 3977,
    "ipeauhinstance0z": 3978,
    "ueaajpeapeav12iz": 3979,
    "ueaajpeapeav12iiz": 3980,
    "\u2581dui70dllcreatefill": 3981,
    "\u2581dui70dllgetclassinfow": 3982,
    "hwndelementdirectuiueaaxz": 3983,
    "hwndelementdirectuiueaaxxz": 3984,
    "\u2581dui70dllinsertelementdirectui": 3985,
    "\u2581dui70dll1hwndelementdirectuiueaaxz": 3986,
    "\u2581dui70dlladdelementdirectuiqeaajpeav12z": 3987,
    "hwndelementdirectuiueaapeauiclassinfo2xz": 3988,
    "duixmlparserdirectuiqeaajipeauhinstance0z": 3989,
    "\u2581dui70dlladdelementdirectuiueaajpeapeav12iz": 3990,
    "\u2581dui70dllsetlayoutposelementdirectuiqeaajhz": 3991,
    "\u2581dui70dllondestroyhwndelementdirectuiueaaxxz": 3992,
    "\u2581dui70dllonunhostedelementdirectuimeaaxpeav12z": 3993,
    "\u2581dui70dllinsertelementdirectuiueaajpeapeav12iiz": 3994,
    "\u2581dui70dllfinddescendentelementdirectuiqeaapeav12gz": 3995,
    "\u2581dui70dllsetcontentstringelementdirectuiqeaajpebgz": 3996,
    "\u2581dui70dllcreatefilllayoutdirectuisajpeapeavlayout2z": 3997,
    "\u2581dui70dllgetclassinfowhwndelementdirectuiueaapeauiclassinfo2xz": 3998,
    "uia": 3999,
    "uiaont": 4000,
    "uiaontooltip": 4001,
    "\u2581dui70dlluiaontooltip": 4002,
    "edhwndelementdirectuiueaaxhnz": 4003,
    "elementdirectuiueaaipeautaggmsgz": 4004,
    "\u2581dui70dllongroupchangedhwndelementdirectuiueaaxhnz": 4005,
    "\u2581dui70dllmessagecallbackelementdirectuiueaaipeautaggmsgz": 4006,
    "\u2581ntdlldllwc": 4007,
    "\u2581kernel32dllsetfilepointerex": 4008,
    "\u2581kernel32dllgetsystemdefaultlocalename": 4009,
    "42z": 4010,
    "utagrect1": 4011,
    "\u2581dui70dllpaint": 4012,
    "\u2581kernel32dllremovedirectoryw": 4013,
    "servic": 4014,
    "\u2581kernel32dllgetdiskfreespace": 4015,
    "bad": 4016,
    "credential": 4017,
    "station": 4018,
    "\u2581msvcrtdllmemmove": 4019,
    "ueaaxpeau": 4020,
    "hdcpeb": 4021,
    "palette": 4022,
    "peau42z": 4023,
    "hdcpebutagrect1": 4024,
    "hdcpebutagrect1peau42z": 4025,
    "elementdirectuiueaaxpeau": 4026,
    "\u2581oleaut32dll283": 4027,
    "\u2581oleaut32dll284": 4028,
    "\u2581dui70dllpaintelementdirectuiueaaxpeau": 4029,
    "\u2581dui70dllpaintelementdirectuiueaaxpeauhdcpebutagrect1peau42z": 4030,
    "enh": 4031,
    "\u2581cryptspdllcryptsetkeyparam": 4032,
    "\u2581msvcrtdlltime64": 4033,
    "achecountermutex": 4034,
    "registergpnotification": 4035,
    "\u2581msvcrtdllstrcmp": 4036,
    "20": 4037,
    "erect": 4038,
    "\u2581kernel32dllglobalmemorystatusex": 4039,
    "\u2581kernel32dllthread32first": 4040,
    "\u2581kernel32dllthread32next": 4041,
    "e9": 4042,
    "db": 4043,
    "69": 4044,
    "\u2581kernel32dllcreateactctx": 4045,
    "18": 4046,
    "\u2581user32dllgetwindowrect": 4047,
    "\u2581globala": 4048,
    "\u2581msvcrtdllstrlen": 4049,
    "\u2581mscoreedllndri2": 4050,
    "esa": 4051,
    "\u2581rasapi32dllrasenum": 4052,
    "member": 4053,
    "ship": 4054,
    "membership": 4055,
    "ifi": 4056,
    "\u2581msvcrtdllatol": 4057,
    "\u2581wsock32dll": 4058,
    "entry2": 4059,
    "policy": 4060,
    "\u2581msvcrtdllstrncmp": 4061,
    "errno": 4062,
    "\u2581kernel32dllgetstring": 4063,
    "\u2581msvcrtdllerrno": 4064,
    "\u2581kernel32dllacquiresrwlockexclusive": 4065,
    "\u2581kernel32dllreleasesrwlockexclusive": 4066,
    "events": 4067,
    "\u2581kernel32dllinitializesrwlock": 4068,
    "\u2581ws232dllwsasend": 4069,
    "\u2581msvcrtdllsnprintf": 4070,
    "1c": 4071,
    "papidll": 4072,
    "checktoken": 4073,
    "checktokenmembership": 4074,
    "\u2581advapi32dllchecktokenmembership": 4075,
    "\u2581uxthemedllgetthemecolor": 4076,
    "\u2581gpapidll": 4077,
    "\u2581uxthemedllgetthemefont": 4078,
    "dllsh": 4079,
    "dllshget": 4080,
    "\u2581shfolder": 4081,
    "\u2581shfolderdllshget": 4082,
    "main": 4083,
    "credentialsw": 4084,
    "\u2581kernel32dllreleaseactctx": 4085,
    "b8": 4086,
    "\u2581msvcrtdllstrstr": 4087,
    "dword": 4088,
    "layer": 4089,
    "\u2581imm32dllimmis": 4090,
    "conv": 4091,
    "ise": 4092,
    "\u2581secur": 4093,
    "hu": 4094,
    "texture": 4095,
    "ulture": 4096,
    "erset": 4097,
    "paramw": 4098,
    "a9": 4099,
    "\u2581imm32dllimmisime": 4100,
    "i64": 4101,
    "ixz": 4102,
    "\u2581kernel32dllisbad": 4103,
    "localeconv": 4104,
    "enablet": 4105,
    "dialogtexture": 4106,
    "\u2581uxthemedllenablet": 4107,
    "\u2581msvcrtdlllocaleconv": 4108,
    "huge": 4109,
    "\u2581msvcrtdllhuge": 4110,
    "\u2581msvcrtdllstrtod": 4111,
    "\u2581msvcrtdllstrtoi64": 4112,
    "\u2581ole32dllcocreateguid": 4113,
    "\u2581winhttpdllwinhttpopen": 4114,
    "\u2581kernel32dllfindresource": 4115,
    "\u2581kernel32dllcopyfilea": 4116,
    "activateactctx": 4117,
    "\u2581kernel32dllactivateactctx": 4118,
    "strea": 4119,
    "desk": 4120,
    "themem": 4121,
    "desktop": 4122,
    "\u2581uxthemedllgetthemem": 4123,
    "dllb": 4124,
    "dlldllcanunloadnow": 4125,
    "windowstation": 4126,
    "\u2581winhttpdllwinhttpquery": 4127,
    "f8": 4128,
    "drives": 4129,
    "\u2581kernel32dllgetlogicaldrives": 4130,
    "zoneinformation": 4131,
    "\u2581ws232dllwsastartup": 4132,
    "\u2581rasapi32dllrasgetentry": 4133,
    "dllbcrypt": 4134,
    "\u2581kernel32dllgettimezoneinformation": 4135,
    "63": 4136,
    "unicodestring": 4137,
    "once": 4138,
    "\u2581winhttpdllwinhttpset": 4139,
    "deact": 4140,
    "getype": 4141,
    "\u2581kernel32dllloadlibraryexw": 4142,
    "\u2581rasapi32dllrassetautodial": 4143,
    "enablew": 4144,
    "raise": 4145,
    "deactivateactctx": 4146,
    "\u2581kernel32dlldeactivateactctx": 4147,
    "\u2581user32dlliswindow": 4148,
    "unregistergpnotification": 4149,
    "raiseexception": 4150,
    "\u2581http": 4151,
    "\u2581httpapidll": 4152,
    "\u2581kernelbase": 4153,
    "ldr": 4154,
    "924": 4155,
    "594": 4156,
    "\u2581user32dllrelease": 4157,
    "closes": 4158,
    "sidlln": 4159,
    "\u2581user32dllregisterwindow": 4160,
    "b417": 4161,
    "attributes": 4162,
    "\u2581rasmandllras": 4163,
    "sidllnsi": 4164,
    "\u2581nsidllnsi": 4165,
    "\u2581ntdlldllldr": 4166,
    "\u2581user32dllgetdlgitem": 4167,
    "\u2581wininetdllhttpsendrequest": 4168,
    "\u2581advapi32dllcryptacquirecontextw": 4169,
    "\u2581ole32dlloleuninitialize": 4170,
    "\u2581user32dllloadcursor": 4171,
    "apture": 4172,
    "\u2581crypt32dllcert": 4173,
    "\u2581kernel32dllmovefileexw": 4174,
    "bn": 4175,
    "gad": 4176,
    "gadget": 4177,
    "atetoken": 4178,
    "duplicatetoken": 4179,
    "dg": 4180,
    "clientrect": 4181,
    "\u2581user32dllgetclientrect": 4182,
    "\u2581advapi32dllduplicatetoken": 4183,
    "72": 4184,
    "edwindow": 4185,
    "fileex": 4186,
    "\u2581user32dllmapvirtual": 4187,
    "\u2581kernel32dllcreateactctxw": 4188,
    "a4": 4189,
    "\u2581jxoqwn": 4190,
    "ocket": 4191,
    "common": 4192,
    "environmentstringsw": 4193,
    "fullprocess": 4194,
    "fullprocessimag": 4195,
    "\u2581kernel32dllqueryfullprocessimag": 4196,
    "movememory": 4197,
    "\u2581uxthemedllgetthemetext": 4198,
    "\u2581api": 4199,
    "allock": 4200,
    "swin": 4201,
    "mswin": 4202,
    "\u2581apimswin": 4203,
    "closesocket": 4204,
    "5da": 4205,
    "\u2581user32dllcharlow": 4206,
    "outputdebug": 4207,
    "\u2581kernel32dlloutputdebug": 4208,
    "ident": 4209,
    "\u2581kernel32dllunhandledexceptionfilter": 4210,
    "\u2581user32dllenumwindows": 4211,
    "changetype": 4212,
    "\u2581oleaut32dllvariantchangetype": 4213,
    "vcli": 4214,
    "\u2581kernel32dllgetlong": 4215,
    "\u2581sr": 4216,
    "\u2581srvcli": 4217,
    "\u2581srvclidllnet": 4218,
    "\u2581srvclidllnetshareenum": 4219,
    "\u2581user32dllsetwindowlongw": 4220,
    "decrement": 4221,
    "bfb": 4222,
    "42ba": 4223,
    "\u2581kernel32dllraiseexception": 4224,
    "rec": 4225,
    "consolew": 4226,
    "l12": 4227,
    "l120dll": 4228,
    "coresynch": 4229,
    "coresynchl120dll": 4230,
    "\u2581apimswincoresynchl120dll": 4231,
    "bound": 4232,
    "sget": 4233,
    "workingsetsize": 4234,
    "processworkingsetsize": 4235,
    "chra": 4236,
    "\u2581kernelbasedllget": 4237,
    "emode": 4238,
    "\u2581wminetutils": 4239,
    "d8": 4240,
    "scolor": 4241,
    "layeredwindow": 4242,
    "layeredwindowattributes": 4243,
    "\u2581user32dllsetlayeredwindowattributes": 4244,
    "\u2581kernel32dllqueryfullprocessimagenamew": 4245,
    "block": 4246,
    "\u2581kernel32dllrtlmovememory": 4247,
    "346f": 4248,
    "594b0": 4249,
    "4b83": 4250,
    "uxm": 4251,
    "346f16": 4252,
    "4b83ad": 4253,
    "42ba924": 4254,
    "594b05da": 4255,
    "b4174b83ad": 4256,
    "346f16594b05da": 4257,
    "\u2581globala42ba924": 4258,
    "b4174b83ad346f16594b05da": 4259,
    "\u2581globala42ba924b4174b83ad346f16594b05da": 4260,
    "ules": 4261,
    "ph": 4262,
    "vail": 4263,
    "ej": 4264,
    "pk": 4265,
    "vailable": 4266,
    "available": 4267,
    "modules": 4268,
    "\u2581wu": 4269,
    "zej": 4270,
    "nbn": 4271,
    "sen": 4272,
    "sxt": 4273,
    "bfbpk": 4274,
    "erixz": 4275,
    "mazej": 4276,
    "uxmsxt": 4277,
    "erixznbn": 4278,
    "mazejuxmsxt": 4279,
    "\u2581wuerixznbn": 4280,
    "mazejuxmsxtbfbpk": 4281,
    "\u2581wuerixznbnmazejuxmsxtbfbpk": 4282,
    "controls": 4283,
    "f2": 4284,
    "initcommon": 4285,
    "initcommoncontrols": 4286,
    "\u2581comctl32dllinitcommoncontrols": 4287,
    "\u2581user32dllcallwindowprocw": 4288,
    "\u2581psapidllenumprocessmodules": 4289,
    "\u2581kernel32dllgetdrivetypea": 4290,
    "pl": 4291,
    "pix": 4292,
    "sof": 4293,
    "\u2581shlwapidllpathadd": 4294,
    "pixel": 4295,
    "\u2581gdi32dllselectobject": 4296,
    "capture": 4297,
    "\u2581kernel32dllinterlockeddecrement": 4298,
    "windowtheme": 4299,
    "aff": 4300,
    "7d7": 4301,
    "47": 4302,
    "\u2581kernel32dllgetdiskfreespaceexa": 4303,
    "wtsget": 4304,
    "consoles": 4305,
    "wtsgetactive": 4306,
    "consolesessionid": 4307,
    "\u2581kernel32dllwtsgetactive": 4308,
    "\u2581kernel32dllwtsgetactiveconsolesessionid": 4309,
    "\u2581ws232dll116": 4310,
    "\u2581kernel32dllfiletimeto": 4311,
    "\u2581kernel32dllfindresourcew": 4312,
    "\u2581user32dlldispatchmessagew": 4313,
    "\u2581user32dllgetparent": 4314,
    "\u2581user32dllgetwindowlongw": 4315,
    "\u2581shfolderdllshgetfolderpathw": 4316,
    "\u2581user32dllcharupperw": 4317,
    "soft": 4318,
    "pop": 4319,
    "toc": 4320,
    "\u2581uxthemedllgetthemeint": 4321,
    "\u2581kernel32dllgetprivateprofilestringw": 4322,
    "\u2581kernel32dllgetlongpathnamew": 4323,
    "enhmetafile": 4324,
    "\u2581psapidllgetmoduleinformation": 4325,
    "\u2581user32dllgetdc": 4326,
    "\u2581user32dllregisterclassw": 4327,
    "5e": 4328,
    "recv": 4329,
    "ang": 4330,
    "\u2581shell32dllshgetfolder": 4331,
    "basedirectui": 4332,
    "\u2581user32dllend": 4333,
    "ki": 4334,
    "ectrl": 4335,
    "ectrlhandler": 4336,
    "\u2581kernel32dllsetconsolectrlhandler": 4337,
    "uid": 4338,
    "\u2581uxthemedllset": 4339,
    "etokenfrom": 4340,
    "\u2581kernel32dllformatmessagew": 4341,
    "empt": 4342,
    "8c": 4343,
    "ai": 4344,
    "mgr": 4345,
    "identify": 4346,
    "closelevel": 4347,
    "identifylevel": 4348,
    "\u2581advapi32dllsafercloselevel": 4349,
    "\u2581advapi32dllsaferidentifylevel": 4350,
    "imes": 4351,
    "stimes": 4352,
    "\u2581kernel32dllgetprocesstimes": 4353,
    "etokenfromlevel": 4354,
    "computetokenfromlevel": 4355,
    "\u2581advapi32dllsafercomputetokenfromlevel": 4356,
    "\u2581cmluadlldllcanunloadnow": 4357,
    "\u2581cmluadlldllgetclassobject": 4358,
    "\u2581kernel32dllwa": 4359,
    "90": 4360,
    "\u2581user32dllloadcursora": 4361,
    "spendthread": 4362,
    "\u2581gdi32dllgettextextent": 4363,
    "\u2581kernel32dllsuspendthread": 4364,
    "\u2581advapi32dllduplicatetokenex": 4365,
    "f3": 4366,
    "\u2581ntdlldllmemcpy": 4367,
    "filenamea": 4368,
    "glob": 4369,
    "outa": 4370,
    "globallock": 4371,
    "\u2581uxthemedllgetthemesys": 4372,
    "au": 4373,
    "\u2581cfg": 4374,
    "\u2581cfgmgr": 4375,
    "\u2581cfgmgr32dll": 4376,
    "\u2581globalc": 4377,
    "\u2581gdi32dllsetbk": 4378,
    "\u2581gdi32dlldeletedc": 4379,
    "\u2581kernel32dllgetconsolemode": 4380,
    "win": 4381,
    "57": 4382,
    "dataavailable": 4383,
    "\u2581gdi32dllcreatecompatibledc": 4384,
    "fp": 4385,
    "hemedialogtexture": 4386,
    "\u2581kernel32dllgloballock": 4387,
    "\u2581uxthemedllenablethemedialogtexture": 4388,
    "\u2581msvcrtdllisw": 4389,
    "\u2581comctl32dllimagelistdrag": 4390,
    "region": 4391,
    "\u2581kernel32dllglobalunlock": 4392,
    "\u2581ws232dllclosesocket": 4393,
    "ioctlsocket": 4394,
    "\u2581kernel32dllgetcurrentactctx": 4395,
    "b4": 4396,
    "queue": 4397,
    "\u2581user32dllloadicona": 4398,
    "animat": 4399,
    "animatewindow": 4400,
    "\u2581user32dllanimatewindow": 4401,
    "ipse": 4402,
    "usergetinfo": 4403,
    "\u2581uxthemedllbegin": 4404,
    "pointw": 4405,
    "serviceconfig": 4406,
    "\u2581kernel32dllcancel": 4407,
    "inity": 4408,
    "affinity": 4409,
    "lengthsid": 4410,
    "\u2581advapi32dllgetlengthsid": 4411,
    "aget": 4412,
    "f7": 4413,
    "\u2581comctl32dllflatsbgetscrollinfo": 4414,
    "\u2581uxthemedllend": 4415,
    "\u2581comctl32dllflatsbsetscrollpos": 4416,
    "\u2581comctl32dllflatsbsetscrollinfo": 4417,
    "alph": 4418,
    "initializeflatsb": 4419,
    "\u2581comctl32dllinitializeflatsb": 4420,
    "\u2581comctl32dllflatsbgetscrollpos": 4421,
    "\u2581comctl32dllflatsbsetscrollprop": 4422,
    "uninitializeflatsb": 4423,
    "\u2581comctl32dlluninitializeflatsb": 4424,
    "canonicalize": 4425,
    "\u2581secur32dllget": 4426,
    "showscrollbar": 4427,
    "\u2581comctl32dllflatsbgetscrollprop": 4428,
    "\u2581comctl32dllflatsbshowscrollbar": 4429,
    "\u2581oleaut32dllvariantchangetypeex": 4430,
    "\u2581comctl32dllflatsbgetscrollrange": 4431,
    "\u2581comctl32dllflatsbsetscrollrange": 4432,
    "\u2581comctl32dllflatsbenablescrollbar": 4433,
    "sockopt": 4434,
    "\u2581oleaut32dll7": 4435,
    "\u2581wminetutilsdllget": 4436,
    "\u2581secur32dllgetusernameexw": 4437,
    "vchost": 4438,
    "\u2581svchost": 4439,
    "\u2581svchostexem": 4440,
    "92": 4441,
    "\u2581ntdlldllstr": 4442,
    "urlcache": 4443,
    "ie": 4444,
    "wkstausergetinfo": 4445,
    "revert": 4446,
    "\u2581user32dllregisterwindowmessagew": 4447,
    "\u2581netutilsdllnetpwnamecanonicalize": 4448,
    "rame": 4449,
    "corexit": 4450,
    "corexitprocess": 4451,
    "stringlen": 4452,
    "\u2581mscoreedllcor": 4453,
    "\u2581wksclidllnetwkstausergetinfo": 4454,
    "page": 4455,
    "\u2581netutilsdllnetpwnamecompare": 4456,
    "target": 4457,
    "\u2581pem6": 4458,
    "eventsource": 4459,
    "\u2581kernel32dllrtlunwind": 4460,
    "\u2581shlwapidllpathfindextensionw": 4461,
    "\u2581ntdlldllzwopen": 4462,
    "targetforvtableentry": 4463,
    "i4fromstr": 4464,
    "r8fromstr": 4465,
    "oolfromstr": 4466,
    "\u2581oleaut32dllvarcyfromstr": 4467,
    "\u2581oleaut32dllvari4fromstr": 4468,
    "\u2581oleaut32dllvarr4fromstr": 4469,
    "\u2581oleaut32dllvarr8fromstr": 4470,
    "\u2581oleaut32dllvarbstrfromcy": 4471,
    "\u2581oleaut32dllvarboolfromstr": 4472,
    "\u2581oleaut32dllvardatefromstr": 4473,
    "\u2581oleaut32dllvarbstrfrombool": 4474,
    "\u2581oleaut32dllvarbstrfromdate": 4475,
    "\u2581comctl32dllinitcommoncontrolsex": 4476,
    "empty": 4477,
    "clipboarddata": 4478,
    "pen": 4479,
    "getvaluew": 4480,
    "\u2581mscorwksdllcorexemain": 4481,
    "mess": 4482,
    "popup": 4483,
    "agetime": 4484,
    "messagetime": 4485,
    "\u2581kernel32dllgetprivateprofileint": 4486,
    "refa": 4487,
    "refactctx": 4488,
    "\u2581kernel32dlladdrefactctx": 4489,
    "\u2581mscoreedllgetmetadatainternalinterface": 4490,
    "\u2581mscorwksdllgetmetadatainternalinterface": 4491,
    "\u2581gdi32dllcreatecompatiblebitmap": 4492,
    "\u2581advapi32dllcryptencrypt": 4493,
    "readptr": 4494,
    "\u2581kernel32dllisbadreadptr": 4495,
    "\u2581pem8": 4496,
    "hglobal": 4497,
    "entryw": 4498,
    "\u2581user32dllgetwindowtextlength": 4499,
    "\u2581kernel32dllwriteconsolew": 4500,
    "\u2581ws232dllset": 4501,
    "7b": 4502,
    "\u2581ws232dllsetsockopt": 4503,
    "msg": 4504,
    "argin": 4505,
    "\u2581ws232dllioctlsocket": 4506,
    "argins": 4507,
    "\u2581uxthemedllgetthememargins": 4508,
    "\u2581h": 4509,
    "eall": 4510,
    "\u2581kernel32dllgetfilesizeex": 4511,
    "completion": 4512,
    "processwindowstation": 4513,
    "\u2581user32dllischar": 4514,
    "conditionvariablecs": 4515,
    "keall": 4516,
    "keallconditionvariable": 4517,
    "eventselect": 4518,
    "\u2581ws232dllwsaeventselect": 4519,
    "cc1": 4520,
    "6a": 4521,
    "\u2581user32dllgetkeystate": 4522,
    "partsize": 4523,
    "\u2581uxthemedllgetthemepartsize": 4524,
    "\u2581msvcrtdllwcs": 4525,
    "\u2581psapidllqueryworkingsetex": 4526,
    "dlls": 4527,
    "\u2581user32dllsendmessagetime": 4528,
    "dw": 4529,
    "icro": 4530,
    "userobject": 4531,
    "fd": 4532,
    "\u2581kernel32dlltlsfree": 4533,
    "55": 4534,
    "34ca": 4535,
    "icrosoft": 4536,
    "dc59": 4537,
    "\u2581kernel32dllgettempfilenamew": 4538,
    "ails": 4539,
    "cc17d7": 4540,
    "dc5934ca": 4541,
    "cc17d7dc5934ca": 4542,
    "31": 4543,
    "queueuser": 4544,
    "74": 4545,
    "users": 4546,
    "\u2581kernel32dllqueueuser": 4547,
    "\u2581user32dllreleasedc": 4548,
    "\u2581user32dllgetuserobject": 4549,
    "\u2581uxthemedllgetbufferedpaint": 4550,
    "f4": 4551,
    "\u2581shlwapidllshdelete": 4552,
    "acm": 4553,
    "initializeconditionvariable": 4554,
    "\u2581user32dllmsg": 4555,
    "\u2581user32dllmsgwaitformultipleobjects": 4556,
    "\u2581kernel32dllgetcp": 4557,
    "\u2581user32dllgetuserobjectinformation": 4558,
    "38": 4559,
    "\u2581user32dllischaralph": 4560,
    "compapp": 4561,
    "userscompapp": 4562,
    "\u2581user32dllmapvirtualkeya": 4563,
    "\u2581user32dlltounicode": 4564,
    "\u2581ws232dllgetaddrinfow": 4565,
    "22": 4566,
    "microsoft": 4567,
    "\u2581kernel32dllgetprivateprofileintw": 4568,
    "\u2581kernel32dllacquiresrwlockshared": 4569,
    "\u2581kernel32dllreleasesrwlockshared": 4570,
    "disablewow64fsredirection": 4571,
    "\u2581kernel32dllwow64disablewow64fsredirection": 4572,
    "lower": 4573,
    "\u2581ws232dllsend": 4574,
    "\u2581kernel32dllgetcpinfo": 4575,
    "her": 4576,
    "\u2581user32dllloadimagew": 4577,
    "\u2581oleaut32dll1": 4578,
    "\u2581sechostdlllookupaccountsidlocala": 4579,
    "ci": 4580,
    "ificat": 4581,
    "writevirtualmemory": 4582,
    "unregisterwait": 4583,
    "\u2581kernel32dllunregisterwait": 4584,
    "61": 4585,
    "\u2581user32dllloadimagea": 4586,
    "\u2581comdlg": 4587,
    "streamon": 4588,
    "\u2581advapi32dllreggetvaluew": 4589,
    "pcm": 4590,
    "5b": 4591,
    "certificat": 4592,
    "\u2581ntdlldllntwritevirtualmemory": 4593,
    "derive": 4594,
    "derivekey": 4595,
    "streamonhglobal": 4596,
    "\u2581ole32dllcreatestreamonhglobal": 4597,
    "ined": 4598,
    "defined": 4599,
    "\u2581shlwapidllstrcmpnia": 4600,
    "waitabletimera": 4601,
    "asynckey": 4602,
    "\u2581user32dllgetasynckey": 4603,
    "\u2581open": 4604,
    "gl32dll": 4605,
    "\u2581opengl32dll": 4606,
    "\u2581advapi32dllregopenkeya": 4607,
    "\u2581msvcrtdllw": 4608,
    "\u2581kernel32dllglobalalloc": 4609,
    "partdefined": 4610,
    "\u2581user32dllgetasynckeystate": 4611,
    "\u2581uxthemedllisthemepartdefined": 4612,
    "\u2581uxthemedllgetthemetextextent": 4613,
    "\u2581ole32dllcotaskmemrealloc": 4614,
    "\u2581kernel32dllgetcurrentdirectoryw": 4615,
    "\u2581kernel32dllgetfile": 4616,
    "\u2581uxthemedlldrawthemebackground": 4617,
    "\u2581uxthemedllgetthemebackgroundregion": 4618,
    "\u2581user32dllgetmenuitem": 4619,
    "aex": 4620,
    "\u2581kernel32dllgetfileinformationbyhandle": 4621,
    "try": 4622,
    "\u2581ws232dllwsaconnect": 4623,
    "\u2581gdiplusdllgdipcreate": 4624,
    "\u2581kernel32dlltry": 4625,
    "group": 4626,
    "anc": 4627,
    "\u2581user32dllischaralphaw": 4628,
    "bitblt": 4629,
    "\u2581gdi32dllbitblt": 4630,
    "e2": 4631,
    "\u2581advapi32dllcreateprocessasusera": 4632,
    "eafile": 4633,
    "inkinfow": 4634,
    "99": 4635,
    "yy": 4636,
    "\u2581msvcrtdlliswlower": 4637,
    "convertsidtostringsida": 4638,
    "\u2581advapi32dllconvertsidtostringsida": 4639,
    "datal": 4640,
    "etolocal": 4641,
    "\u2581kernel32dllfiletimetolocal": 4642,
    "shr": 4643,
    "urlw": 4644,
    "\u2581user32dllcharp": 4645,
    "\u2581clr": 4646,
    "freet": 4647,
    "shrui": 4648,
    "\u2581ntshrui": 4649,
    "\u2581globalnet": 4650,
    "\u2581networking": 4651,
    "namea": 4652,
    "datalocal": 4653,
    "userscompappdatalocal": 4654,
    "\u2581kernel32dllfiletimetolocalfiletime": 4655,
    "\u2581kernel32dllcreatefilemappinga": 4656,
    "infobasedirectui": 4657,
    "userscompappdatalocalmicrosoft": 4658,
    "\u2581auth": 4659,
    "canonicaliz": 4660,
    "\u2581cfgmgr32dllcm": 4661,
    "\u2581user32dllsendmessagetimeouta": 4662,
    "serviceconfigw": 4663,
    "\u2581ole32dllcoregistermessagefilter": 4664,
    "\u2581user32dllgetprocesswindowstation": 4665,
    "namedpipehandle": 4666,
    "\u2581gdi32dllgetobject": 4667,
    "yyh": 4668,
    "dgyyh": 4669,
    "\u2581ntdlldllzwwow64": 4670,
    "\u2581user32dllcharlowera": 4671,
    "\u2581user32dlldrawicon": 4672,
    "\u2581uxthemedllsetwindowtheme": 4673,
    "ipsec": 4674,
    "spa": 4675,
    "queu": 4676,
    "namedpipea": 4677,
    "\u2581user32dllcharprev": 4678,
    "\u2581user32dllcharprevw": 4679,
    "\u2581shell32dllshgetfolderpatha": 4680,
    "\u2581wer": 4681,
    "stor": 4682,
    "instanc": 4683,
    "netresource": 4684,
    "\u2581ntshruidllget": 4685,
    "\u2581ws232dllwsarecv": 4686,
    "parentbackground": 4687,
    "\u2581advapi32dllsetfilesecuritya": 4688,
    "\u2581uxthemedlldrawthemeparentbackground": 4689,
    "fromlocal": 4690,
    "fromlocalpathw": 4691,
    "netresourcefromlocalpathw": 4692,
    "\u2581sechostdllqueryserviceconfigw": 4693,
    "\u2581ntshruidllgetnetresourcefromlocalpathw": 4694,
    "dllcreatel": 4695,
    "dllcreatelinkinfow": 4696,
    "\u2581linkinfodllcreatelinkinfow": 4697,
    "reen": 4698,
    "wfp": 4699,
    "texta": 4700,
    "report": 4701,
    "\u2581wh": 4702,
    "\u2581uxthemedllbufferedpaintuninit": 4703,
    "pcn": 4704,
    "\u2581wshel": 4705,
    "\u2581dhcpcm": 4706,
    "\u2581nshwfp": 4707,
    "servicea": 4708,
    "\u2581nshhttp": 4709,
    "\u2581wshelperdll": 4710,
    "\u2581dhcpcmonitor": 4711,
    "\u2581fwcfgdllinithelperdll": 4712,
    "\u2581nshwfpdllinithelperdll": 4713,
    "\u2581nshhttpdllinithelperdll": 4714,
    "\u2581rasmontrdllinithelperdll": 4715,
    "\u2581wshelperdllinithelperdll": 4716,
    "\u2581dhcpcmonitordllinithelperdll": 4717,
    "\u2581if": 4718,
    "iohlp": 4719,
    "\u2581hnet": 4720,
    "\u2581rpcn": 4721,
    "\u2581authf": 4722,
    "\u2581netiohlp": 4723,
    "\u2581whhelperdll": 4724,
    "\u2581ifmondllinithelperdll": 4725,
    "\u2581rpcnshdllinithelperdll": 4726,
    "\u2581hnetmondllinithelperdll": 4727,
    "\u2581netiohlpdllinithelperdll": 4728,
    "\u2581whhelperdllinithelperdll": 4729,
    "\u2581authfwcfgdllinithelperdll": 4730,
    "esh": 4731,
    "kkz": 4732,
    "owx": 4733,
    "ot3c": 4734,
    "\u2581dot3c": 4735,
    "\u2581dot3cfgdllinithelperdll": 4736,
    "\u2581uxthemedllbufferedpaintinit": 4737,
    "kkzowx": 4738,
    "\u25812": 4739,
    "\u2581nap": 4740,
    "\u2581napmontrdllinithelperdll": 4741,
    "\u2581kernel32dllgetsystemdirectoryw": 4742,
    "\u2581nshipsec": 4743,
    "\u2581comctl32dll336": 4744,
    "\u2581nshipsecdllinithelperdll": 4745,
    "dllwer": 4746,
    "dgyyhis": 4747,
    "ermin": 4748,
    "setforegroundwindow": 4749,
    "allowsetforegroundwindow": 4750,
    "\u2581comctl32dll333": 4751,
    "waitforsingleobject": 4752,
    "\u2581glob": 4753,
    "\u2581globall": 4754,
    "fileexa": 4755,
    "\u2581advapi32dllregunloadkeya": 4756,
    "\u2581shlwapidllpathunquotespacesa": 4757,
    "\u2581userenvdllgetuserprofiledirectorya": 4758,
    "ipher": 4759,
    "\u2581advapi32dllregloadkeya": 4760,
    "\u2581ntdlldllntresumethread": 4761,
    "erminate": 4762,
    "qul": 4763,
    "qualifi": 4764,
    "\u2581io": 4765,
    "\u2581ioqul": 4766,
    "qualifierset": 4767,
    "\u2581globalldgyyhis": 4768,
    "\u2581wtsapi32dllwtsenumeratesessionsa": 4769,
    "56": 4770,
    "\u2581gdi32dllext": 4771,
    "cipher": 4772,
    "emutex": 4773,
    "\u2581kernel32dllregister": 4774,
    "eres": 4775,
    "\u2581ws232dllshutdown": 4776,
    "\u2581ole32dllcoallowsetforegroundwindow": 4777,
    "\u2581oleaut32dll149": 4778,
    "\u2581ntdlldllmemset": 4779,
    "9c": 4780,
    "\u2581kernel32dllregisterwaitforsingleobject": 4781,
    "mm": 4782,
    "\u2581shlwapidllpathrename": 4783,
    "\u2581kernel32dllcancelio": 4784,
    "duser": 4785,
    "\u2581user32dllsendmessagew": 4786,
    "content": 4787,
    "loaddll": 4788,
    "ub": 4789,
    "consoleoutput": 4790,
    "canonicalizew": 4791,
    "\u2581comctl32dllimagelistre": 4792,
    "\u2581ntdlldllldrloaddll": 4793,
    "serror": 4794,
    "\u2581user32dllsetwindowlonga": 4795,
    "\u2581user32dllsetfocus": 4796,
    "\u2581ntdlldllntsetcontextthread": 4797,
    "rz": 4798,
    "groupaffinity": 4799,
    "\u2581ntdlldllntget": 4800,
    "ord": 4801,
    "instru": 4802,
    "instruction": 4803,
    "writed": 4804,
    "\u2581shlwapidllpathaddbackslashw": 4805,
    "\u2581kernel32dllflushinstruction": 4806,
    "\u2581globaljxoqwn": 4807,
    "\u2581propsysdll4": 4808,
    "andbox": 4809,
    "\u2581user32dllgetclipboarddata": 4810,
    "\u2581kernel32dllflushinstructioncache": 4811,
    "allocatevirtualmemory": 4812,
    "b2": 4813,
    "\u25810": 4814,
    "\u2581ntdlldllntallocatevirtualmemory": 4815,
    "instancemutex": 4816,
    "aud": 4817,
    "\u2581propsysdllpspropertybagreaddword": 4818,
    "\u2581kernel32dllopenfilemapping": 4819,
    "\u2581comctl32dllimagelistget": 4820,
    "wprintf": 4821,
    "\u2581user32dlltounicodeex": 4822,
    "\u2581frz": 4823,
    "\u2581frzstate": 4824,
    "escap": 4825,
    "snwprintf": 4826,
    "\u2581ws232dllfreeaddrinfow": 4827,
    "\u2581ntdlldllntgetcontextthread": 4828,
    "thum": 4829,
    "bufferedanimation": 4830,
    "lang": 4831,
    "ingle": 4832,
    "iesingle": 4833,
    "\u2581sandbox": 4834,
    "\u2581sandboxiesingle": 4835,
    "instancemutexcontrol": 4836,
    "\u2581comctl32dllimagelistset": 4837,
    "\u2581sandboxiesingleinstancemutexcontrol": 4838,
    "forw": 4839,
    "94": 4840,
    "iconinfo": 4841,
    "bstr": 4842,
    "ild": 4843,
    "child": 4844,
    "mit": 4845,
    "eresource": 4846,
    "writedword": 4847,
    "\u2581propsysdllpspropertybagwritedword": 4848,
    "forward": 4849,
    "\u2581ws232dll5": 4850,
    "icmp": 4851,
    "\u2581wdm": 4852,
    "auddr": 4853,
    "\u2581wdmauddr": 4854,
    "\u2581linkinfodll": 4855,
    "\u2581ntdlldllrtlnt": 4856,
    "\u2581user32dllgetwindowtextlengtha": 4857,
    "odo": 4858,
    "ustodo": 4859,
    "statustodo": 4860,
    "statustodoserror": 4861,
    "\u2581ntdlldllrtlntstatustodoserror": 4862,
    "1d": 4863,
    "bounds": 4864,
    "hashinterface": 4865,
    "\u2581bcryptprimitivesdllgethashinterface": 4866,
    "eapp": 4867,
    "\u2581advapi32dllcryptdecrypt": 4868,
    "\u2581kernel32dllfreeresource": 4869,
    "\u2581propsysdll430": 4870,
    "\u2581user32dllgeticoninfo": 4871,
    "\u2581shlwapidllpathrenameextensionw": 4872,
    "classobjects": 4873,
    "addressw": 4874,
    "viewport": 4875,
    "\u2581shlwapidllpathcanonicalizew": 4876,
    "optionw": 4877,
    "pathname": 4878,
    "\u2581kernel32dllremovedirectorya": 4879,
    "\u2581gdi32dllgettextextentpoint": 4880,
    "\u2581shlwapidllpathremovebackslashw": 4881,
    "\u2581kernel32dlloutputdebugstringa": 4882,
    "\u2581duserdllduser": 4883,
    "\u2581gdi32dllgdiaddglsbounds": 4884,
    "\u2581gdi32dllgdiaddglsrecord": 4885,
    "orer": 4886,
    "namedpipehandlestate": 4887,
    "expl": 4888,
    "explorer": 4889,
    "\u2581kernel32dllsetnamedpipehandlestate": 4890,
    "rgn": 4891,
    "tooem": 4892,
    "\u2581user32dllchartooem": 4893,
    "\u2581kernel32dllglobalfree": 4894,
    "\u2581rasapi32dllrasenumentries": 4895,
    "hem": 4896,
    "attribut": 4897,
    "fe": 4898,
    "registergpnotificationinternal": 4899,
    "\u2581gpapidllregistergpnotificationinternal": 4900,
    "eattribut": 4901,
    "if": 4902,
    "\u2581a": 4903,
    "dpas": 4904,
    "d4": 4905,
    "languag": 4906,
    "\u2581rasapi32dllrasenumentriesw": 4907,
    "kedc": 4908,
    "lockedc": 4909,
    "netentry2": 4910,
    "eattributec": 4911,
    "cipherinterface": 4912,
    "\u2581localzonescache": 4913,
    "\u2581localzoneslockedc": 4914,
    "\u2581localzoneattributec": 4915,
    "\u2581localzonescachecountermutex": 4916,
    "\u2581localzoneslockedcachecountermutex": 4917,
    "\u2581localzoneattributecachecountermutex": 4918,
    "\u2581bcryptprimitivesdllgetcipherinterface": 4919,
    "\u2581propsysdllpspropertybagreadstr": 4920,
    "isa": 4921,
    "\u2581advapi32dllsetsecuritydescriptorsacl": 4922,
    "userdata": 4923,
    "\u2581userenvdllregistergpnotification": 4924,
    "\u2581propsysdllpspropertybagreadstralloc": 4925,
    "\u2581bcryptdllbcrypt": 4926,
    "emount": 4927,
    "volumemount": 4928,
    "ign": 4929,
    "eappproperties": 4930,
    "\u2581ntdlldllntcreate": 4931,
    "bas": 4932,
    "etch": 4933,
    "langid": 4934,
    "vector": 4935,
    "cet": 4936,
    "coer": 4937,
    "ocan": 4938,
    "cetocan": 4939,
    "coercetocan": 4940,
    "onicalvalue": 4941,
    "\u2581gdi32dllgetdi": 4942,
    "coercetocanonicalvalue": 4943,
    "\u2581propsysdllpscoercetocanonicalvalue": 4944,
    "asvector": 4945,
    "certificate": 4946,
    "stringasvector": 4947,
    "\u2581kernel32dllcreatenamedpipew": 4948,
    "\u2581propsysdllinitpropvariantfromstringasvector": 4949,
    "35": 4950,
    "visible": 4951,
    "contentrect": 4952,
    "\u2581uxthemedllgetthemebackgroundcontentrect": 4953,
    "deviceio": 4954,
    "deviceiocontrol": 4955,
    "\u2581gdi32dllcreatefont": 4956,
    "frame": 4957,
    "volumemountpointw": 4958,
    "urew": 4959,
    "compress": 4960,
    "themetext": 4961,
    "\u2581gdi32dllcreatedc": 4962,
    "\u2581uxthemedlldrawthemetext": 4963,
    "revertwow64fsredirection": 4964,
    "compressbuffer": 4965,
    "\u2581kernel32dllwow64revertwow64fsredirection": 4966,
    "ook": 4967,
    "shook": 4968,
    "rece": 4969,
    "77": 4970,
    "isap": 4971,
    "\u2581user32dllwsprintfw": 4972,
    "ister": 4973,
    "enamefor": 4974,
    "\u2581kernel32dllgetvolumenamefor": 4975,
    "ry": 4976,
    "\u2581kernel32dllheapsize": 4977,
    "\u2581kernel32dllgetvolumenameforvolumemountpointw": 4978,
    "sword": 4979,
    "dos": 4980,
    "iat": 4981,
    "explorerthum": 4982,
    "windowsexplorerthum": 4983,
    "\u2581globalcuserscompappdatalocalmicrosoft": 4984,
    "\u2581globalcuserscompappdatalocalmicrosoftwindowsexplorerthum": 4985,
    "attribute": 4986,
    "netshdllinithelperdll": 4987,
    "initiat": 4988,
    "frompoint": 4989,
    "initiatesystem": 4990,
    "initiatesystemshutdown": 4991,
    "\u2581advapi32dllinitiatesystemshutdown": 4992,
    "escapea": 4993,
    "\u2581shlwapidllurlun": 4994,
    "\u2581kernel32dllwriteprivateprofile": 4995,
    "uaex": 4996,
    "\u2581shlwapidllurlunescapea": 4997,
    "\u2581advapi32dllcryptverifysignaturew": 4998,
    "\u2581winhttpdllwinhttpclosehandle": 4999,
    "ainer": 5000,
    "\u2581shlwapidllstrcmpniw": 5001,
    "\u2581rasapi32dllrasenumconnection": 5002,
    "\u2581advapi32dllinitiatesystemshutdownexw": 5003,
    "9d": 5004,
    "stretch": 5005,
    "olecreate": 5006,
    "\u2581shlwapidllshdeletevaluew": 5007,
    "emenu": 5008,
    "\u2581kernel32dllgetmodulehandle": 5009,
    "ulturename": 5010,
    "toculturename": 5011,
    "\u2581iphlpapidllconvert": 5012,
    "systemtime": 5013,
    "\u2581iphlpapidllgetif": 5014,
    "\u2581rasapi32dllrasenumconnectionsw": 5015,
    "details": 5016,
    "\u2581culture": 5017,
    "dllconvert": 5018,
    "dllconvertlangid": 5019,
    "\u2581culturedllconvertlangid": 5020,
    "\u2581culturedllconvertlangidtoculturename": 5021,
    "table2": 5022,
    "classinfobasedirectui": 5023,
    "inv": 5024,
    "emib": 5025,
    "toluid": 5026,
    "freemib": 5027,
    "guidtoluid": 5028,
    "freemibtable": 5029,
    "forwardtable2": 5030,
    "interfaceguidtoluid": 5031,
    "\u2581iphlpapidllgetifentry2": 5032,
    "\u2581iphlpapidllfreemibtable": 5033,
    "\u2581iphlpapidllgetipnetentry2": 5034,
    "\u2581iphlpapidllgetipforwardtable2": 5035,
    "\u2581iphlpapidllconvertinterfaceguidtoluid": 5036,
    "\u2581advapi32dllsaferget": 5037,
    "invoke": 5038,
    "\u2581uxthemedllbeginbufferedpaint": 5039,
    "sparent": 5040,
    "statuscallback": 5041,
    "transparent": 5042,
    "\u2581uxthemedllendbufferedpaint": 5043,
    "policyinformation": 5044,
    "\u2581advapi32dllsafergetpolicyinformation": 5045,
    "\u2581user32dllre": 5046,
    "hport": 5047,
    "country": 5048,
    "ally": 5049,
    "options": 5050,
    "project": 5051,
    "\u2581shlwapidllpathquotespac": 5052,
    "ics": 5053,
    "eshare": 5054,
    "writeshare": 5055,
    "\u2581advapi32dllsetnamedsecurityinfow": 5056,
    "dialparam": 5057,
    "\u2581ntdlldllsnprintf": 5058,
    "hod": 5059,
    "connectionw": 5060,
    "5f": 5061,
    "angup": 5062,
    "\u2581kernel32dllfiletimetosystemtime": 5063,
    "rash": 5064,
    "timeout": 5065,
    "rashangup": 5066,
    "\u2581rasapi32dllrashangup": 5067,
    "cii": 5068,
    "erdi": 5069,
    "ascii": 5070,
    "\u2581user32dllsetwindowpos": 5071,
    "\u2581sechostdllopenservicea": 5072,
    "\u2581winhttpdllwinhttpopenrequest": 5073,
    "\u2581wlan": 5074,
    "escreen": 5075,
    "httpsendrequest": 5076,
    "\u2581winhttpdllwinhttpsendrequest": 5077,
    "\u2581rasapi32dllrasgetentrydialparam": 5078,
    "statusw": 5079,
    "\u2581winhttpdllwinhttpconnect": 5080,
    "\u2581shlwapidllpathquotespacesw": 5081,
    "\u2581rasapi32dllrasgetentryproperties": 5082,
    "\u2581rasapi32dllrasgetconnect": 5083,
    "\u2581winhttpdllwinhttpsetoption": 5084,
    "ially": 5085,
    "partially": 5086,
    "\u2581cfgmgr32dllcmopen": 5087,
    "backgroundpartially": 5088,
    "backgroundpartiallytransparent": 5089,
    "\u2581uxthemedllisthemebackgroundpartiallytransparent": 5090,
    "asp": 5091,
    "addrequest": 5092,
    "stretchblt": 5093,
    "addrequestheader": 5094,
    "\u2581rasapi32dllrasdial": 5095,
    "\u2581rasapi32dllrasgeterror": 5096,
    "otw": 5097,
    "validateentry": 5098,
    "\u2581rasapi32dllrasvalidateentry": 5099,
    "\u2581pe": 5100,
    "aspb": 5101,
    "dpbk": 5102,
    "iver": 5103,
    "eapui": 5104,
    "dwenum": 5105,
    "oldpas": 5106,
    "\u2581raspb": 5107,
    "ioninfow": 5108,
    "subentry": 5109,
    "userdataw": 5110,
    "\u2581raspbfile": 5111,
    "dpbkoptions": 5112,
    "dwenumentry": 5113,
    "invokeeapui": 5114,
    "oldpassword": 5115,
    "countryinfow": 5116,
    "deleteentryw": 5117,
    "eapuserdataw": 5118,
    "projectioninfow": 5119,
    "subentryhandlew": 5120,
    "dwenumentrydetails": 5121,
    "\u2581rasapi32dllrasdialw": 5122,
    "writesharedpbkoptions": 5123,
    "\u2581rasapi32dllrashangupw": 5124,
    "\u2581rasapi32dllrasgethport": 5125,
    "\u2581rasapi32dllrasinvokeeapui": 5126,
    "\u2581rasapi32dllrasdeleteentryw": 5127,
    "\u2581rasapi32dllrassetoldpassword": 5128,
    "\u2581rasapi32dlldwenumentrydetails": 5129,
    "\u2581rasapi32dllrasgetcountryinfow": 5130,
    "\u2581rasapi32dllrasgetcredentialsw": 5131,
    "\u2581rasapi32dllrasgeterrorstringw": 5132,
    "\u2581rasapi32dllrassetcredentialsw": 5133,
    "\u2581rasapi32dllrasseteapuserdataw": 5134,
    "\u2581rasapi32dllrasgetautodialparamw": 5135,
    "\u2581rasapi32dllrasgetconnectstatusw": 5136,
    "\u2581rasapi32dllrassetautodialparamw": 5137,
    "\u2581rasapi32dllrasgetautodialenablew": 5138,
    "\u2581rasapi32dllrasgetprojectioninfow": 5139,
    "\u2581rasapi32dllrasgetsubentryhandlew": 5140,
    "\u2581rasapi32dllrassetautodialenablew": 5141,
    "\u2581rasapi32dllrasvalidateentrynamew": 5142,
    "\u2581rasapi32dllrasgetautodialaddressw": 5143,
    "\u2581rasapi32dllrasgetentrydialparamsw": 5144,
    "\u2581rasapi32dllrasgetentrypropertiesw": 5145,
    "\u2581rasapi32dllraswritesharedpbkoptions": 5146,
    "escreenbuffer": 5147,
    "2p": 5148,
    "\u2581p2p": 5149,
    "erdist": 5150,
    "\u2581wlanc": 5151,
    "esponse": 5152,
    "receiver": 5153,
    "\u2581peerdist": 5154,
    "receiveresponse": 5155,
    "\u2581wlancfgdllinithelperdll": 5156,
    "\u2581p2pnetshdllinithelperdll": 5157,
    "\u2581peerdistshdllinithelperdll": 5158,
    "\u2581winhttpdllwinhttpreceiveresponse": 5159,
    "b06": 5160,
    "httpt": 5161,
    "timeouts": 5162,
    "\u2581ws232dll8": 5163,
    "unregistergpnotificationinternal": 5164,
    "\u2581gpapidllunregistergpnotificationinternal": 5165,
    "userthread": 5166,
    "\u2581shlwapidllpathisurlw": 5167,
    "\u2581wininetdllhttpaddrequestheader": 5168,
    "\u2581userenvdllunregistergpnotification": 5169,
    "httpterminate": 5170,
    "httpinitialize": 5171,
    "\u2581psapidllgetmodulebas": 5172,
    "\u2581httpapidllhttpterminate": 5173,
    "\u2581httpapidllhttpinitialize": 5174,
    "setgadget": 5175,
    "scan": 5176,
    "cal": 5177,
    "\u2581user32dllgetmessagew": 5178,
    "80": 5179,
    "7e": 5180,
    "\u2581shlwapidllstrchra": 5181,
    "\u2581shlwapidllpaths": 5182,
    "\u2581psapidllgetmodulebasenamew": 5183,
    "\u2581shlwapidllstrr": 5184,
    "messages": 5185,
    "kipro": 5186,
    "kiprootw": 5187,
    "\u2581shlwapidllpathskiprootw": 5188,
    "gettable": 5189,
    "freetable": 5190,
    "classkeyexw": 5191,
    "allocateandgettable": 5192,
    "\u2581nsidllnsifreetable": 5193,
    "\u2581cfgmgr32dllcmopenclasskeyexw": 5194,
    "\u2581nsidllnsiallocateandgettable": 5195,
    "handles": 5196,
    "\u2581winhttpdllwinhttpsettimeouts": 5197,
    "mask": 5198,
    "popupmenu": 5199,
    "\u2581duserdllduserflush": 5200,
    "\u2581rpcrt4dllrpcasync": 5201,
    "\u2581advapi32dllregcreatekeya": 5202,
    "oemcp": 5203,
    "\u2581comdlg32dllget": 5204,
    "\u2581user32dllsen": 5205,
    "\u2581kernel32dllgetoemcp": 5206,
    "escreenbufferinfo": 5207,
    "\u2581gdi32dllcreatedcw": 5208,
    "\u2581kernel32dllgetstringtype": 5209,
    "\u2581kernel32dllgetconsolescreenbufferinfo": 5210,
    "toint": 5211,
    "\u2581msvbvm60dlladj": 5212,
    "\u2581kernel32dllgetstringtypew": 5213,
    "codepage": 5214,
    "od": 5215,
    "decode": 5216,
    "pread": 5217,
    "headers": 5218,
    "\u2581winhttpdllwinhttpqueryheaders": 5219,
    "3e": 5220,
    "httpread": 5221,
    "httpreaddata": 5222,
    "\u2581gdi32dllsettext": 5223,
    "\u2581winhttpdllwinhttpreaddata": 5224,
    "ecp": 5225,
    "ddlg": 5226,
    "ddlgitem": 5227,
    "paletteentries": 5228,
    "\u2581user32dllsenddlgitem": 5229,
    "\u2581winhttpdllwinhttpquerydataavailable": 5230,
    "\u2581gdi32dllcreatedi": 5231,
    "\u2581kernel32dllgetconsolecp": 5232,
    "\u2581user32dllsetwindowtextw": 5233,
    "\u2581kernel32dllfreeenvironmentstringsw": 5234,
    "\u2581kernel32dllgetenvironmentstringsw": 5235,
    "\u2581ws232dllconnect": 5236,
    "\u2581kernel32dlllcmapstringw": 5237,
    "\u2581ntdlldllrtlde": 5238,
    "\u2581duserdllsetgadget": 5239,
    "\u2581gdi32dllrect": 5240,
    "pub": 5241,
    "propa": 5242,
    "\u2581user32dllopen": 5243,
    "\u2581kernel32dllgettempfilenamea": 5244,
    "\u2581ntdlldllrtldecompressbuffer": 5245,
    "bcache": 5246,
    "\u2581kernel32dllgetlocaleinfoa": 5247,
    "\u2581globalcuserscompappdatalocalmicrosoftwindowsexplorerthumbcache": 5248,
    "ath": 5249,
    "waitformultiple": 5250,
    "tab": 5251,
    "\u2581shlwapidllstrtoint": 5252,
    "\u2581user32dllloadbitmap": 5253,
    "urlcacheentry": 5254,
    "so": 5255,
    "paramet": 5256,
    "fb": 5257,
    "waitformultiplehandles": 5258,
    "\u2581kernel32dllgetstartupinfoa": 5259,
    "\u2581ole32dllcowaitformultiplehandles": 5260,
    "5a": 5261,
    "enumprovidersw": 5262,
    "\u2581cryptspdllcryptenumprovidersw": 5263,
    "\u2581kernel32dllgetdateformat": 5264,
    "syscolor": 5265,
    "\u2581user32dllgetsyscolor": 5266,
    "\u2581kernel32dllopeneventw": 5267,
    "\u2581kernel32dllwow64enable": 5268,
    "\u2581kernel32dllgetprocessworkingsetsize": 5269,
    "\u2581kernel32dllwow64enablewow64fsredirection": 5270,
    "\u2581user32dllenddialog": 5271,
    "\u2581gdi32dllgettextextentpoint32": 5272,
    "\u2581user32dllsetdlgitem": 5273,
    "lsa": 5274,
    "2c": 5275,
    "\u2581kernel32dllsetprocessworkingsetsize": 5276,
    "\u2581kernel32dllisvalidcodepage": 5277,
    "use": 5278,
    "\u2581gccshmemtdm2pt": 5279,
    "forurl": 5280,
    "\u2581advapi32dlllsa": 5281,
    "\u2581oleaut32dllsysalloc": 5282,
    "2e": 5283,
    "plac": 5284,
    "xc": 5285,
    "\u2581kernel32dllwait": 5286,
    "\u2581ncryptdllbcrypt": 5287,
    "\u2581uxthemedllgetthemesyscolor": 5288,
    "slget": 5289,
    "track": 5290,
    "enablewindow": 5291,
    "\u2581user32dllenablewindow": 5292,
    "\u2581kernel32dllsetstdhandle": 5293,
    "crackurl": 5294,
    "\u2581winhttpdllwinhttpcrackurl": 5295,
    "\u2581msvbvm60dllvb": 5296,
    "e1cc17d7dc5934ca": 5297,
    "\u2581sl": 5298,
    "\u2581olepro": 5299,
    "\u2581olepro32dll": 5300,
    "viewportorgex": 5301,
    "\u2581user32dllregisterclassexw": 5302,
    "placement": 5303,
    "33": 5304,
    "extensiona": 5305,
    "\u2581kernel32dllmovefileexa": 5306,
    "freestring": 5307,
    "\u2581ntdlldllntopen": 5308,
    "endar": 5309,
    "\u2581slcdll": 5310,
    "calendar": 5311,
    "slgetwindows": 5312,
    "informationdword": 5313,
    "\u2581slcdllslgetwindows": 5314,
    "\u2581slcdllslgetwindowsinformationdword": 5315,
    "\u2581user32dllchartooemw": 5316,
    "cook": 5317,
    "\u2581advapi32dllregqueryvaluew": 5318,
    "setlasterror": 5319,
    "\u2581user32dllgetclassnamew": 5320,
    "\u2581kernel32dllsetfileinformationbyhandle": 5321,
    "\u2581kernel32dllgetdiskfreespac": 5322,
    "sdb": 5323,
    "\u2581apphelpdllsdb": 5324,
    "method": 5325,
    "olid": 5326,
    "createsolid": 5327,
    "\u2581urlmondllcreate": 5328,
    "\u2581kernel32dllopenfilemappinga": 5329,
    "aa": 5330,
    "currentuser": 5331,
    "languagenamew": 5332,
    "\u2581system": 5333,
    "ri": 5334,
    "\u2581msacm": 5335,
    "04": 5336,
    "88": 5337,
    "outw": 5338,
    "specifi": 5339,
    "\u2581gdi32dllexttext": 5340,
    "parameters": 5341,
    "byname": 5342,
    "\u2581jxoqwna": 5343,
    "\u2581versiondllverlanguagenamew": 5344,
    "\u2581shlwapidllstrrchra": 5345,
    "\u2581wminetutilsdllqualifierset": 5346,
    "oma": 5347,
    "queued": 5348,
    "queuedcompletion": 5349,
    "1e": 5350,
    "\u2581advapi32dllgetace": 5351,
    "\u2581user32dllcallwindowproca": 5352,
    "\u2581kernel32dllgetstringtypeexa": 5353,
    "cliprect": 5354,
    "\u2581kernel32dllcomparefiletime": 5355,
    "import": 5356,
    "\u2581mscoreedllndri4": 5357,
    "destroylinkinfo": 5358,
    "\u2581ntdlldllrtlfree": 5359,
    "\u2581linkinfodlldestroylinkinfo": 5360,
    "373": 5361,
    "\u2581gdi32dllsettextcolor": 5362,
    "\u2581gdiplusdllgdipgetfont": 5363,
    "\u2581kernel32dllsleepconditionvariablecs": 5364,
    "\u2581kernel32dllwakeallconditionvariable": 5365,
    "\u2581kernel32dllinitializeconditionvariable": 5366,
    "ancestor": 5367,
    "\u2581user32dllgetancestor": 5368,
    "76": 5369,
    "\u2581kernel32dllformatmessagea": 5370,
    "informationfile": 5371,
    "\u2581shlwapidllstrcmpnw": 5372,
    "\u2581rpcrt4dllndrclientcall3": 5373,
    "fileexist": 5374,
    "dereg": 5375,
    "services": 5376,
    "\u2581shlwapidllpathfileexist": 5377,
    "f5": 5378,
    "14": 5379,
    "\u2581shlwapidllpathfileexistsw": 5380,
    "\u2581gdi32dllgetenhmetafile": 5381,
    "\u2581kernel32dllgetmodulehandleexw": 5382,
    "flushkey": 5383,
    "hostbyname": 5384,
    "\u2581user32dllgetmenu": 5385,
    "systemparameters": 5386,
    "\u2581user32dllsystemparameters": 5387,
    "d0": 5388,
    "\u2581kernel32dllsetdll": 5389,
    "\u2581mprdllwnetget": 5390,
    "hemed": 5391,
    "isappt": 5392,
    "isappthemed": 5393,
    "\u2581uxthemedllisappthemed": 5394,
    "mbst": 5395,
    "\u2581kernel32dllinit": 5396,
    "\u2581kernel32dllwake": 5397,
    "\u2581kernel32dllvirtualqueryex": 5398,
    "\u2581kernel32dllwakeconditionvariable": 5399,
    "memoryblock": 5400,
    "\u2581kernel32dllwer": 5401,
    "pis": 5402,
    "consoleoutputcp": 5403,
    "\u2581comctl32dll413": 5404,
    "\u2581gdi32dllsetbkmode": 5405,
    "proxyconfig": 5406,
    "\u2581kernel32dllgetconsoleoutputcp": 5407,
    "\u2581wininetdllinternetreadfileexa": 5408,
    "\u2581sam": 5409,
    "\u2581comctl32dll410": 5410,
    "registermemoryblock": 5411,
    "\u2581wininetdllhttpsendrequestw": 5412,
    "\u2581kernel32dllwerregistermemoryblock": 5413,
    "\u2581gdi32dllsetbkcolor": 5414,
    "\u2581user32dllunregisterclassw": 5415,
    "\u2581wininetdllinternetqueryoptionw": 5416,
    "\u2581wininetdllinternetsetstatuscallback": 5417,
    "dllmain": 5418,
    "shellwindow": 5419,
    "ieproxyconfig": 5420,
    "forcurrentuser": 5421,
    "ieproxyconfigforcurrentuser": 5422,
    "\u2581winhttpdllwinhttpgetieproxyconfigforcurrentuser": 5423,
    "\u2581default": 5424,
    "mainui": 5425,
    "tabtip": 5426,
    "tabtipmainui": 5427,
    "\u2581user32dllclose": 5428,
    "\u2581msvbvm60dlladjf": 5429,
    "\u2581defaulttabtipmainui": 5430,
    "\u2581shell32dllshellexecuteex": 5431,
    "412": 5432,
    "2yap": 5433,
    "\u2581msvcrtdll2yap": 5434,
    "pathnamea": 5435,
    "\u2581user32dlltoascii": 5436,
    "proca": 5437,
    "\u2581user32dllgetshellwindow": 5438,
    "axiz": 5439,
    "deregister": 5440,
    "setlasterrorw": 5441,
    "\u2581mprdllwnetsetlasterrorw": 5442,
    "etran": 5443,
    "etextattribute": 5444,
    "\u2581kernel32dllsetconsoletextattribute": 5445,
    "andl": 5446,
    "bs": 5447,
    "\u2581user32dllgetkeyboardlayoutlist": 5448,
    "\u2581mprdllwnetgetconnectionw": 5449,
    "windowfrompoint": 5450,
    "\u2581kernel32dllsetdlldirectoryw": 5451,
    "drive": 5452,
    "\u2581winmm": 5453,
    "\u2581kernel32dllinitonce": 5454,
    "reportevent": 5455,
    "\u2581user32dllgetclass": 5456,
    "\u2581advapi32dllreportevent": 5457,
    "\u2581advapi32dllconvertstringsecuritydescriptortosecuritydescriptora": 5458,
    "\u2581pema": 5459,
    "\u2581advapi32dllregflushkey": 5460,
    "\u2581mscoreedllcorexemain": 5461,
    "\u2581mscoreedllcorexitprocess": 5462,
    "activ": 5463,
    "createsolidbrush": 5464,
    "\u2581advapi32dllderegister": 5465,
    "\u2581user32dllgetwindowinfo": 5466,
    "\u2581gdi32dllcreatesolidbrush": 5467,
    "\u2581gccshmemtdm2pthread": 5468,
    "hton": 5469,
    "changekey": 5470,
    "decodeobject": 5471,
    "\u2581crypt32dllcryptdecodeobject": 5472,
    "drivestring": 5473,
    "proxyforurl": 5474,
    "\u2581shlwapidllpathisdirectoryw": 5475,
    "\u2581winhttpdllwinhttpgetproxyforurl": 5476,
    "\u2581kernel32dllgetlogicaldrivestring": 5477,
    "lwr": 5478,
    "b9373": 5479,
    "andler": 5480,
    "waitabletimer": 5481,
    "\u2581advapi32dllderegistereventsource": 5482,
    "aterect": 5483,
    "execute": 5484,
    "chandler": 5485,
    "cspecifi": 5486,
    "cspecifichandler": 5487,
    "\u2581user32dllsetcursor": 5488,
    "dllgetclassobjectinternal": 5489,
    "\u2581mscorwksdlldllgetclassobjectinternal": 5490,
    "c0": 5491,
    "clipboardformat": 5492,
    "29": 5493,
    "over": 5494,
    "\u2581comctl32dll411": 5495,
    "\u2581ikkzowx": 5496,
    "\u2581crypt32dllcryptdecodeobjectex": 5497,
    "\u2581ntdlldllzwresumethread": 5498,
    "7a": 5499,
    "edin": 5500,
    "qmis": 5501,
    "place": 5502,
    "optedin": 5503,
    "unloading": 5504,
    "validateimage": 5505,
    "imageunloading": 5506,
    "\u2581mscoreedllcorvalidateimage": 5507,
    "\u2581mscoreedllcorimageunloading": 5508,
    "executeonce": 5509,
    "\u2581advapi32dllreporteventw": 5510,
    "\u2581ntdlldllzwqueryinformationprocess": 5511,
    "\u2581mscoreedllset": 5512,
    "tokenforvtableentry": 5513,
    "\u2581mscoreedllgettokenforvtableentry": 5514,
    "\u2581mscoreedllgettargetforvtableentry": 5515,
    "\u2581mscoreedllsettargetforvtableentry": 5516,
    "dllsam": 5517,
    "\u2581samlib": 5518,
    "\u2581samlibdllsam": 5519,
    "\u2581kernel32dllinitonceexecuteonce": 5520,
    "\u2581ntdlldllw": 5521,
    "\u2581ntdlldllwins": 5522,
    "\u2581ws232dllhton": 5523,
    "f1": 5524,
    "aba": 5525,
    "poly": 5526,
    "workitem": 5527,
    "\u2581kernel32dllcreatesemaphorew": 5528,
    "\u2581kernel32dllqueueuserworkitem": 5529,
    "qmisoptedin": 5530,
    "eventsourcew": 5531,
    "\u2581ntdlldllwinsqmisoptedin": 5532,
    "\u2581kernel32dllsetwaitabletimer": 5533,
    "\u2581advapi32dllregistereventsourcew": 5534,
    "defaultproxy": 5535,
    "defaultproxyconfiguration": 5536,
    "\u2581mscorwksdllcorexitprocess": 5537,
    "muldiv": 5538,
    "points": 5539,
    "\u2581kernel32dllmuldiv": 5540,
    "ght": 5541,
    "bee": 5542,
    "sect": 5543,
    "intersect": 5544,
    "notifychangekey": 5545,
    "\u2581winhttpdllwinhttpgetdefaultproxyconfiguration": 5546,
    "\u2581comctl32dll412": 5547,
    "\u2581wininetdllinternetgetcook": 5548,
    "notifychangekeyvalue": 5549,
    "\u2581advapi32dllregnotifychangekeyvalue": 5550,
    "\u2581msvcrtdllis": 5551,
    "\u2581mscorwksdllcor": 5552,
    "\u2581user32dllsetscroll": 5553,
    "600": 5554,
    "lapp": 5555,
    "lapped": 5556,
    "ersetflags": 5557,
    "overlapped": 5558,
    "\u2581ntdlldllzwclose": 5559,
    "\u2581mscorwksdllcordllmain": 5560,
    "\u2581kernel32dllwersetflags": 5561,
    "sfc": 5562,
    "\u2581sf": 5563,
    "sfcis": 5564,
    "\u2581sfcdll": 5565,
    "protected": 5566,
    "sfcisfile": 5567,
    "overlappedresult": 5568,
    "\u2581sfcdllsfcisfile": 5569,
    "\u2581sfcdllsfcisfileprotected": 5570,
    "wmi": 5571,
    "\u2581mfc": 5572,
    "addref": 5573,
    "\u2581gdi32dllgetdibits": 5574,
    "\u2581kernel32dllgetfileinformationbyhandleex": 5575,
    "edge": 5576,
    "driverproc": 5577,
    "\u2581kernel32dllcall": 5578,
    "\u2581kernel32dlltryacquires": 5579,
    "\u2581kernel32dllcreatewaitabletimera": 5580,
    "\u2581kernel32dlloutputdebugstringw": 5581,
    "owcs": 5582,
    "\u2581dns": 5583,
    "42dll": 5584,
    "mbstowcs": 5585,
    "\u2581mfc42dll": 5586,
    "ables": 5587,
    "\u2581msvcrtdllsw": 5588,
    "readvirtualmemory": 5589,
    "\u2581user32dllgetclassinfow": 5590,
    "\u2581gdi32dllcreatefontindirect": 5591,
    "\u2581kernel32dlltryacquiresrwlockexclusive": 5592,
    "\u2581ntdlldllmbstowcs": 5593,
    "\u2581user32dllenumdisplaydevic": 5594,
    "\u2581opengl32dllgl": 5595,
    "ablesrw": 5596,
    "conditionvariablesrw": 5597,
    "\u2581user32dllgetuserobjectinformationa": 5598,
    "\u2581msvcrtdllsprintf": 5599,
    "\u2581ntdlldllntqueryvirtualmemory": 5600,
    "\u2581kernel32dllsleepconditionvariablesrw": 5601,
    "579": 5602,
    "addat": 5603,
    "bmit": 5604,
    "elet": 5605,
    "bmitthread": 5606,
    "dosdatetime": 5607,
    "bmitthreadpoolwork": 5608,
    "\u2581kernel32dllclosethreadpoolwork": 5609,
    "\u2581kernel32dllcreatethreadpoolwork": 5610,
    "\u2581kernel32dllsubmitthreadpoolwork": 5611,
    "\u2581kernel32dllgetlogicaldrivestringsw": 5612,
    "\u2581kernel32dllfiletimetodosdatetime": 5613,
    "\u2581ntdlldllrtlget": 5614,
    "\u2581shell32dllshgetmalloc": 5615,
    "enumeration": 5616,
    "elete": 5617,
    "\u2581propsysdllpspropertybagreadguid": 5618,
    "sound": 5619,
    "\u2581oleaut32dll4": 5620,
    "asym": 5621,
    "windowpoints": 5622,
    "\u2581user32dllmapwindowpoints": 5623,
    "3b": 5624,
    "\u2581pem7": 5625,
    "activewindow": 5626,
    "\u2581user32dlltrack": 5627,
    "supr": 5628,
    "profiles": 5629,
    "\u2581comctl32dllimagelistreplace": 5630,
    "render": 5631,
    "\u2581kernel32dllcomparestringw": 5632,
    "\u2581ntdlldllnttermin": 5633,
    "windoworgex": 5634,
    "7c3": 5635,
    "\u25818": 5636,
    "\u2581ntdlldllrtlfreeunicodestring": 5637,
    "ortable": 5638,
    "\u2581user32dllloadiconw": 5639,
    "targetdc": 5640,
    "\u2581user32dllbegin": 5641,
    "\u2581uxthemedllgetbufferedpaintdc": 5642,
    "\u2581kernel32dllgetsystemdirectorya": 5643,
    "\u2581uxthemedllgetbufferedpainttargetdc": 5644,
    "\u2581gdi32dllre": 5645,
    "\u2581msvcrtdllwcslwr": 5646,
    "\u2581ntdlldllzwopenprocess": 5647,
    "\u2581ntdlldllzwopenprocesstoken": 5648,
    "\u2581user32dllsenddlgitemmessagew": 5649,
    "\u2581ntdlldllzwqueryinformationtoken": 5650,
    "e7": 5651,
    "etrans": 5652,
    "uri": 5653,
    "scanf": 5654,
    "\u2581urlmondllcreateuri": 5655,
    "\u2581ntdlldllntcreatefile": 5656,
    "\u2581uxthemedll47": 5657,
    "\u2581user32dllenumdisplaydevicesa": 5658,
    "\u2581propsysdllpspropertybagreadbstr": 5659,
    "\u2581pem4": 5660,
    "profilesection": 5661,
    "\u2581kernelbasedllgetmodule": 5662,
    "0d": 5663,
    "trans": 5664,
    "1a": 5665,
    "scpy": 5666,
    "drv": 5667,
    "\u2581rasmandllra": 5668,
    "setinfo": 5669,
    "privateprofilesection": 5670,
    "\u2581cryptspdllcryptderivekey": 5671,
    "realize": 5672,
    "rix": 5673,
    "\u2581ncryptdlls": 5674,
    "\u2581user32dlltrackpopupmenu": 5675,
    "\u2581user32dllgetdlgitemtextw": 5676,
    "\u2581shlwapidllpathfindextensiona": 5677,
    "1b": 5678,
    "eactive": 5679,
    "hemeactive": 5680,
    "\u2581ntdlldllstrcpy": 5681,
    "\u2581uxthemedllisthemeactive": 5682,
    "angle": 5683,
    "\u2581user32dllfindwindowexw": 5684,
    "28": 5685,
    "602": 5686,
    "ori": 5687,
    "origin": 5688,
    "\u2581ntdlldllsprintf": 5689,
    "save": 5690,
    "\u2581wininetdllinternetquerydataavailable": 5691,
    "case": 5692,
    "\u2581ntdlldllv": 5693,
    "\u2581werdllwer": 5694,
    "\u2581user32dllgetuserobjectinformationw": 5695,
    "spath": 5696,
    "imagent": 5697,
    "imagentheader": 5698,
    "\u2581ws232dllgethostbyname": 5699,
    "\u2581ntdlldllrtlimagentheader": 5700,
    "\u2581wininetdllhttpaddrequestheadersa": 5701,
    "ombs": 5702,
    "aphics": 5703,
    "stombs": 5704,
    "\u2581setupapidllsetupdigetdevice": 5705,
    "d3": 5706,
    "suspend": 5707,
    "atrix": 5708,
    "\u2581ntdlldllwcstombs": 5709,
    "bcol": 5710,
    "slist": 5711,
    "bcolortable": 5712,
    "\u2581gdi32dllgetobjectw": 5713,
    "pathnameu": 5714,
    "brushorgex": 5715,
    "openkeyexw": 5716,
    "\u2581ntdlldllrtldo": 5717,
    "\u2581ntdlldllrtlup": 5718,
    "\u2581kernel32dllregopenkeyexw": 5719,
    "\u2581ntdlldllntterminatethread": 5720,
    "\u2581wininetdllhttpsendrequestexw": 5721,
    "\u2581kernel32dllgetoverlappedresult": 5722,
    "apc": 5723,
    "\u2581pem3": 5724,
    "spathnam": 5725,
    "\u2581gdi32dllgetpixel": 5726,
    "\u2581ntdlldllrtlupcase": 5727,
    "ld": 5728,
    "rop": 5729,
    "strupr": 5730,
    "\u2581kernel32dllqueueuserapc": 5731,
    "abase": 5732,
    "database": 5733,
    "spathnamet": 5734,
    "\u2581ntdlldllstrupr": 5735,
    "\u2581ntdlldllrtldospathnamet": 5736,
    "\u2581ntdlldllrtlupcaseunicodestring": 5737,
    "\u2581ntdlldllzwquerykey": 5738,
    "lickey": 5739,
    "publickey": 5740,
    "ontpathnameu": 5741,
    "\u2581ntdlldllwcsupr": 5742,
    "\u2581ntdlldllrtldospathnametontpathnameu": 5743,
    "6b": 5744,
    "\u2581msvcrtdll2yapaxiz": 5745,
    "\u2581ntdlldllntopenevent": 5746,
    "2a": 5747,
    "ys": 5748,
    "\u2581msvbvm60dlladjfdiv": 5749,
    "\u2581olepro32dllolecreate": 5750,
    "9e": 5751,
    "resume": 5752,
    "oper": 5753,
    "operation": 5754,
    "translate": 5755,
    "\u2581advapi32dllcryptderivekey": 5756,
    "\u2581kernel32dllfindfirstchangenotification": 5757,
    "split": 5758,
    "splitpath": 5759,
    "\u2581msvcrtdllswscanf": 5760,
    "\u2581uxthemedllgetthemeappproperties": 5761,
    "\u2581kernel32dllfindnextchangenotification": 5762,
    "67": 5763,
    "\u2581ws232dllhtonl": 5764,
    "adjustprivilege": 5765,
    "\u2581msvcrtdllwsplitpath": 5766,
    "\u2581oleaut32dllsysfreestring": 5767,
    "\u2581ntdlldllrtladjustprivilege": 5768,
    "bkcolor": 5769,
    "autocomplete": 5770,
    "fileoperation": 5771,
    "\u2581kernel32dllregclosekey": 5772,
    "\u2581shlwapidllshautocomplete": 5773,
    "\u2581shell32dllshfileoperation": 5774,
    "\u2581kernel32dlldeviceiocontrol": 5775,
    "44": 5776,
    "stop": 5777,
    "\u2581kernel32dllsetprocess": 5778,
    "\u2581advapi32dllregdeletekeya": 5779,
    "\u2581ntdlldllntqueryeafile": 5780,
    "\u2581ntdlldllntseteafile": 5781,
    "publickeyinfo": 5782,
    "\u2581shlwapidllstrtointexa": 5783,
    "\u2581gdi32dllsetviewportorgex": 5784,
    "\u2581comctl32dllimagelistcreate": 5785,
    "\u2581kernel32dllfindfirstchangenotificationw": 5786,
    "\u2581user32dllloadbitmapw": 5787,
    "\u2581user32dllcharnext": 5788,
    "charsetinfo": 5789,
    "\u2581oleaut32dllsysallocstringlen": 5790,
    "pn": 5791,
    "\u2581di": 5792,
    "\u2581advapi32dllcred": 5793,
    "\u2581ntdlldllrtlexit": 5794,
    "\u2581shlwapidllstrtrima": 5795,
    "\u2581diasym": 5796,
    "keyboard": 5797,
    "\u2581diasymreader": 5798,
    "dlldllgetclassobjectinternal": 5799,
    "\u2581mscoreedlldllgetclassobject": 5800,
    "\u2581diasymreaderdlldllgetclassobjectinternal": 5801,
    "importpublickeyinfo": 5802,
    "\u2581ntdlldllrtlexituserthread": 5803,
    "\u2581crypt32dllcryptimportpublickeyinfo": 5804,
    "ignal": 5805,
    "procw": 5806,
    "\u2581gdiplusdllgdipset": 5807,
    "\u2581ntdlldllcspecifichandler": 5808,
    "codec": 5809,
    "readvirtualmemory64": 5810,
    "informationprocess64": 5811,
    "queryinformationprocess64": 5812,
    "\u2581kernel32dllwaitnamedpipea": 5813,
    "fin": 5814,
    "injob": 5815,
    "sleep": 5816,
    "\u2581user32dllsetdlgitemtextw": 5817,
    "lcid": 5818,
    "\u2581gdi32dllsetpixel": 5819,
    "\u2581gdi32dllcreatepen": 5820,
    "\u2581ntdlldllzwwow64readvirtualmemory64": 5821,
    "\u2581ntdlldllzwwow64queryinformationprocess64": 5822,
    "\u2581oleaut32dll16": 5823,
    "sleepconditionvariablecs": 5824,
    "wakeallconditionvariable": 5825,
    "\u2581apimswincoresynchl120dllsleepconditionvariablecs": 5826,
    "\u2581apimswincoresynchl120dllwakeallconditionvariable": 5827,
    "\u2581pem998": 5828,
    "\u2581ntdlldllwcscpy": 5829,
    "\u2581kernel32dllisprocessinjob": 5830,
    "logon": 5831,
    "\u2581pemb40": 5832,
    "emptyw": 5833,
    "directoryemptyw": 5834,
    "\u2581shlwapidllpathisdirectoryemptyw": 5835,
    "\u2581kernel32dllcallnamedpipea": 5836,
    "0c": 5837,
    "devrtl": 5838,
    "\u2581gdi32dlltranslate": 5839,
    "\u2581gdi32dlltranslatecharsetinfo": 5840,
    "\u2581kernel32dllgetthreadpriority": 5841,
    "\u2581kernel32dllgetprivateprofilestringa": 5842,
    "b7": 5843,
    "accel": 5844,
    "vedc": 5845,
    "savedc": 5846,
    "\u2581gdi32dllsavedc": 5847,
    "\u2581wininetdlldelete": 5848,
    "obj": 5849,
    "environmentblock": 5850,
    "\u2581user32dllwindowfrompoint": 5851,
    "fillrect": 5852,
    "loadlibrary": 5853,
    "winevent": 5854,
    "\u2581oleaut32dll20": 5855,
    "short": 5856,
    "\u2581gdi32dllexttextoutw": 5857,
    "\u2581kernel32dllgetshort": 5858,
    "\u2581gdiplusdllgdipdelete": 5859,
    "ence": 5860,
    "priorityclass": 5861,
    "verifysignaturea": 5862,
    "\u2581kernel32dllcomparestringa": 5863,
    "\u2581cryptspdllcryptverifysignaturea": 5864,
    "3f": 5865,
    "150": 5866,
    "\u2581global9": 5867,
    "\u2581msvbvm60dllvbastr": 5868,
    "\u2581msvbvm60dllvbavar": 5869,
    "stopall": 5870,
    "animations": 5871,
    "stopallanimations": 5872,
    "\u2581uxthemedllbufferedpaintstopallanimations": 5873,
    "etoex": 5874,
    "movetoex": 5875,
    "\u2581gdi32dllmovetoex": 5876,
    "itiond": 5877,
    "\u2581jxoqwnc": 5878,
    "reference": 5879,
    "etransitiond": 5880,
    "etransitionduration": 5881,
    "\u2581gdi32dllgettextmetric": 5882,
    "\u2581uxthemedllgetthemetransitionduration": 5883,
    "a5": 5884,
    "\u2581user32dllpostmessagew": 5885,
    "\u2581user32dlliswindowvisible": 5886,
    "\u2581netutilsdllnetpwnamevalidate": 5887,
    "storedc": 5888,
    "\u2581gdi32dllrestoredc": 5889,
    "\u2581wininetdllget": 5890,
    "\u2581wininetdllgeturlcacheentry": 5891,
    "defer": 5892,
    "\u2581gdi32dlllineto": 5893,
    "\u2581user32dllin": 5894,
    "\u2581propsysdllvariant": 5895,
    "mt": 5896,
    "\u2581comctl32dllimagelistdraw": 5897,
    "\u2581user32dllsetforegroundwindow": 5898,
    "\u2581kernel32dllopenwaitabletimera": 5899,
    "eregion": 5900,
    "remov": 5901,
    "bdf": 5902,
    "\u2581ntdlldllmemmove": 5903,
    "17": 5904,
    "\u2581user32dllsetwindowshook": 5905,
    "apidlldns": 5906,
    "\u2581dnsapidlldns": 5907,
    "\u2581kernel32dllsetcurrentdirectoryw": 5908,
    "0b": 5909,
    "onexit": 5910,
    "\u2581winmmdll": 5911,
    "cointernet": 5912,
    "\u2581gdi32dllcreatedib": 5913,
    "\u2581urlmondllcointernet": 5914,
    "\u2581kernel32dllgetthreadgroupaffinity": 5915,
    "\u2581kernel32dllsetthreadgroupaffinity": 5916,
    "\u2581kernel32dllgetcurrentprocessornumberex": 5917,
    "\u2581kernel32dllgetlogicalprocessorinformationex": 5918,
    "ex00": 5919,
    "ptrw": 5920,
    "\u2581user32dllpeekmessagea": 5921,
    "he": 5922,
    "hwndhost": 5923,
    "objectand": 5924,
    "notifywinevent": 5925,
    "\u2581gdi32dllstretchblt": 5926,
    "\u2581user32dllnotifywinevent": 5927,
    "kill": 5928,
    "dow": 5929,
    "kst": 5930,
    "kstk": 5931,
    "objectandwait": 5932,
    "ignalobjectandwait": 5933,
    "\u2581user32dllendpaint": 5934,
    "\u2581user32dllbeginpaint": 5935,
    "\u2581kernel32dllsetpriorityclass": 5936,
    "\u2581kernel32dllsignalobjectandwait": 5937,
    "b3": 5938,
    "\u2581pemd": 5939,
    "\u2581ntdlldllntsetinformationprocess": 5940,
    "dows": 5941,
    "offset": 5942,
    "\u2581windows": 5943,
    "\u2581ntdlldllstrchr": 5944,
    "\u2581gdi32dllcreatedibsection": 5945,
    "\u25817": 5946,
    "\u2581kernel32dllgetthreadlocale": 5947,
    "\u2581kernel32dllwriteprivateprofilestringa": 5948,
    "orith": 5949,
    "drawwindow": 5950,
    "sidtosid": 5951,
    "orithm": 5952,
    "ight": 5953,
    "session": 5954,
    "renderanimation": 5955,
    "\u2581ntdlldllldrget": 5956,
    "\u2581uxthemedllbeginbufferedanimation": 5957,
    "\u2581uxthemedllbufferedpaintrenderanimation": 5958,
    "dllncrypt": 5959,
    "hwndhostdirectui": 5960,
    "\u2581ncryptdllncrypt": 5961,
    "\u2581apimswincoresynchl120dllinitializeconditionvariable": 5962,
    "eserver": 5963,
    "codecsdll": 5964,
    "\u2581windowscodecsdll": 5965,
    "\u2581kernel32dllgetdiskfreespacea": 5966,
    "virtualunwind": 5967,
    "\u2581user32dllgetlast": 5968,
    "2d": 5969,
    "\u2581propsysdllvariantto": 5970,
    "fontw": 5971,
    "\u25819": 5972,
    "\u2581kernel32dllgetqueuedcompletion": 5973,
    "\u2581uxthemedllendbufferedanimation": 5974,
    "fam": 5975,
    "famil": 5976,
    "etwork": 5977,
    "\u2581gdi32dllpoly": 5978,
    "parsen": 5979,
    "\u2581localc": 5980,
    "etworkstring": 5981,
    "parsenetworkstring": 5982,
    "\u2581kernel32dllunlock": 5983,
    "\u2581iphlpapidllparsenetworkstring": 5984,
    "\u2581kernel32dlltryentercriticalsection": 5985,
    "602f0": 5986,
    "57915": 5987,
    "a0602f0": 5988,
    "7c357915": 5989,
    "a0602f07c357915": 5990,
    "sidtosidw": 5991,
    "37": 5992,
    "idmessage": 5993,
    "sexem": 5994,
    "addrefserver": 5995,
    "addrefserverprocess": 5996,
    "\u2581ole32dllcoaddrefserverprocess": 5997,
    "graphics": 5998,
    "\u2581msacm32": 5999,
    "iconsize": 6000,
    "ab8": 6001,
    "releaseserver": 6002,
    "\u2581ole32dllcosuspend": 6003,
    "releaseserverprocess": 6004,
    "\u2581ole32dllcosuspendclassobjects": 6005,
    "\u2581ole32dllcoreleaseserverprocess": 6006,
    "\u2581global8": 6007,
    "createinstance": 6008,
    "\u2581comctl32dllimagelistreplaceicon": 6009,
    "a07": 6010,
    "validaterect": 6011,
    "sr": 6012,
    "\u2581wsock32dllw": 6013,
    "\u2581user32dllgetmessage": 6014,
    "\u2581ole32dllcoresume": 6015,
    "\u2581ole32dllcoresumeclassobjects": 6016,
    "propertyorigin": 6017,
    "\u2581user32dllredrawwindow": 6018,
    "deff": 6019,
    "\u2581shlwapidllwn": 6020,
    "\u2581kernel32dllgetsystemwow64": 6021,
    "\u2581comctl32dllimagelistdestroy": 6022,
    "\u2581werui": 6023,
    "\u2581weruidllwer": 6024,
    "\u2581user32dllregisterclassa": 6025,
    "c8": 6026,
    "eay": 6027,
    "\u2581gdi32dllrectangle": 6028,
    "\u2581user32dllfillrect": 6029,
    "\u2581uxthemedllgetthemetextmetrics": 6030,
    "e9373": 6031,
    "height": 6032,
    "\u2581e": 6033,
    "bdfma": 6034,
    "bdfmaint": 6035,
    "eay32dll": 6036,
    "bdfmaintainer": 6037,
    "\u2581user32dllun": 6038,
    "document": 6039,
    "themename": 6040,
    "currentthemename": 6041,
    "\u2581uxthemedllgetcurrentthemename": 6042,
    "qn": 6043,
    "odbc": 6044,
    "consoleinput": 6045,
    "prgn": 6046,
    "cliprgn": 6047,
    "requestw": 6048,
    "\u2581ntdlldllrtlinitializecriticalsection": 6049,
    "km": 6050,
    "\u2581kernel32dllenumresourc": 6051,
    "append": 6052,
    "metafilebits": 6053,
    "\u2581gdi32dllgettextextentex": 6054,
    "f6": 6055,
    "\u2581msvcrtdllc": 6056,
    "1cc17d7dc5934ca": 6057,
    "winmetafilebits": 6058,
    "ports": 6059,
    "hp": 6060,
    "\u2581wininetdllhttpqueryinfow": 6061,
    "\u2581ntdlldllrtladd": 6062,
    "\u2581user32dllsetcapture": 6063,
    "739": 6064,
    "setinformation": 6065,
    "ump": 6066,
    "sg": 6067,
    "omw": 6068,
    "d9": 6069,
    "a8c": 6070,
    "qvn": 6071,
    "pyy": 6072,
    "sau": 6073,
    "uep": 6074,
    "wqn": 6075,
    "wvx": 6076,
    "\u2581rt": 6077,
    "\u2581ys": 6078,
    "dgkm": 6079,
    "ilqvn": 6080,
    "pyyxc": 6081,
    "xmuep": 6082,
    "sauwvx": 6083,
    "pyyxcwqn": 6084,
    "xmuepdgkm": 6085,
    "\u2581yssauwvx": 6086,
    "ilqvnxmuepdgkm": 6087,
    "ilqvnxmuepdgkmpyyxcwqn": 6088,
    "\u2581yssauwvxilqvnxmuepdgkmpyyxcwqn": 6089,
    "\u2581user32dllsetwindowtexta": 6090,
    "\u2581pem5": 6091,
    "\u2581gdi32dllgettextextentexpointw": 6092,
    "\u2581kernel32dllgetsystemdefaultuilanguage": 6093,
    "5t": 6094,
    "hp5t": 6095,
    "etric": 6096,
    "\u2581php5t": 6097,
    "\u2581user32dllsetmenu": 6098,
    "\u2581uxthemedllgetthememetric": 6099,
    "\u2581rtutilsdll": 6100,
    "ocli": 6101,
    "oclient": 6102,
    "\u2581gdi32dllgettextextentexpointwpri": 6103,
    "\u2581comctl32dlldp": 6104,
    "sport": 6105,
    "\u2581kernel32dlllockfileex": 6106,
    "ookup": 6107,
    "uaexz": 6108,
    "\u2581php5tsdll": 6109,
    "urlcacheentryw": 6110,
    "\u2581user32dllreleasecapture": 6111,
    "updat": 6112,
    "\u2581rasmandllrasport": 6113,
    "\u2581kernel32dllgetdateformata": 6114,
    "dep": 6115,
    "\u2581gdi32dllgetcurrent": 6116,
    "chkstk": 6117,
    "\u2581ntdlldllchkstk": 6118,
    "\u2581ntdlldllrtlgetversion": 6119,
    "\u2581gdiplusdllgdipcreatefont": 6120,
    "\u2581wininetdllgeturlcacheentryinfow": 6121,
    "ersup": 6122,
    "stadllw": 6123,
    "useenum": 6124,
    "ersupports": 6125,
    "stadllwinst": 6126,
    "remotecomput": 6127,
    "\u2581winstadllwinst": 6128,
    "\u2581wksclidllnetuseenum": 6129,
    "remotecomputersupports": 6130,
    "\u2581netutilsdllnetremotecomputersupports": 6131,
    "2f": 6132,
    "buffa": 6133,
    "loadicon": 6134,
    "deppolicy": 6135,
    "\u2581comctl32dllloadicon": 6136,
    "\u2581winstadllwinstation": 6137,
    "\u2581kernel32dllsetprocessdeppolicy": 6138,
    "imagecount": 6139,
    "\u2581user32dlloem": 6140,
    "\u2581kernel32dllgetfullpathnamea": 6141,
    "har": 6142,
    "classinfobasedirectuiu": 6143,
    "d7": 6144,
    "waitmessage": 6145,
    "a6": 6146,
    "index": 6147,
    "tochar": 6148,
    "initializehandle": 6149,
    "\u2581user32dlloemtochar": 6150,
    "\u2581user32dllwaitmessage": 6151,
    "\u2581rpcrt4dllrpcasyncinitializehandle": 6152,
    "\u2581ntdlldllrtladdvectoredexceptionhandler": 6153,
    "\u2581oleaut32dllsysrealloc": 6154,
    "power": 6155,
    "e6": 6156,
    "idx": 6157,
    "asyncclientcall": 6158,
    "\u2581advapi32dllquery": 6159,
    "\u2581kernel32dllunregisterwaitex": 6160,
    "\u2581kernel32dllglobaladdat": 6161,
    "idxdb": 6162,
    "defframe": 6163,
    "\u2581user32dlldefframe": 6164,
    "\u2581globald": 6165,
    "\u2581user32dllinvalidaterect": 6166,
    "\u2581user32dllgetfocus": 6167,
    "exem4": 6168,
    "\u2581user32dllloadstringa": 6169,
    "av": 6170,
    "consolecursor": 6171,
    "5ee": 6172,
    "\u2581gdi32dllselectpalette": 6173,
    "\u2581uxthemedllgetwindowtheme": 6174,
    "adelete": 6175,
    "adeleteptr": 6176,
    "\u2581comctl32dlldpadeleteptr": 6177,
    "mdi": 6178,
    "\u2581msvcrtdllexit": 6179,
    "\u2581user32dllsetmenuitem": 6180,
    "mdichild": 6181,
    "\u2581user32dlldefmdichild": 6182,
    "\u2581pembf": 6183,
    "pf": 6184,
    "\u2581wminetutilsdllput": 6185,
    "\u2581duserdllget": 6186,
    "container": 6187,
    "\u2581odbc": 6188,
    "\u2581oleaut32dll150": 6189,
    "\u2581user32dllsettimer": 6190,
    "chrw": 6191,
    "\u2581advapi32dllls": 6192,
    "deferred": 6193,
    "containerhwnd": 6194,
    "deferredmessages": 6195,
    "\u2581duserdlldisable": 6196,
    "\u2581duserdllduserflushmessages": 6197,
    "\u2581duserdlldisablecontainerhwnd": 6198,
    "\u2581duserdllduserflushdeferredmessages": 6199,
    "propertykey": 6200,
    "imer": 6201,
    "\u2581oleaut32dll19": 6202,
    "750": 6203,
    "extex": 6204,
    "d2": 6205,
    "\u2581pem9b4": 6206,
    "stream": 6207,
    "\u2581kernel32dllgetprivateprofilesection": 6208,
    "\u2581pemda4": 6209,
    "\u2581comctl32dllimagelistremove": 6210,
    "\u2581user32dllsetrect": 6211,
    "b7d": 6212,
    "\u2581secur32dll": 6213,
    "onep": 6214,
    "\u2581kernel32dllenumcalendar": 6215,
    "\u2581user32dllgetwindowplacement": 6216,
    "8a": 6217,
    "final": 6218,
    "directoryfile": 6219,
    "39e": 6220,
    "\u2581user32dllunhook": 6221,
    "\u2581user32dllmapvirtualkeyw": 6222,
    "\u2581kernel32dllgettimeformat": 6223,
    "uaexxz": 6224,
    "\u2581comdlg32dllgetopen": 6225,
    "65": 6226,
    "e5": 6227,
    "enumerat": 6228,
    "\u2581kernel32dllglobalhandle": 6229,
    "\u2581kernel32dlldebug": 6230,
    "\u2581gdi32dllgettextextentpoint32w": 6231,
    "75": 6232,
    "yax": 6233,
    "\u2581user32dllisdialog": 6234,
    "\u2581kernel32dllgetshortpathnamew": 6235,
    "hal": 6236,
    "\u2581gccshmemtdm2idlist": 6237,
    "kkzowxr": 6238,
    "\u2581globalikkzowxr": 6239,
    "\u2581kernel32dllsethandle": 6240,
    "\u2581rpcrt4dllndrasyncclientcall": 6241,
    "rop2": 6242,
    "windowshook": 6243,
    "\u2581oleaut32dll25": 6244,
    "\u2581user32dllunhookwindowshook": 6245,
    "\u2581user32dllcharnexta": 6246,
    "\u2581pem654": 6247,
    "\u2581oleaut32dllsysstringlen": 6248,
    "\u2581wininetdllhttpopenrequestw": 6249,
    "halft": 6250,
    "leave": 6251,
    "halftonep": 6252,
    "halftonepalette": 6253,
    "\u2581ie": 6254,
    "a8e9": 6255,
    "earch": 6256,
    "submenu": 6257,
    "\u2581user32dllgetsubmenu": 6258,
    "\u2581psapidllenumprocesses": 6259,
    "\u2581kernel32dllglobaladdatoma": 6260,
    "eatom": 6261,
    "\u2581gdi32dllcreat": 6262,
    "\u2581gccshmemtdm2pthreadkey": 6263,
    "\u2581oleaut32dllvariantclear": 6264,
    "\u2581user32dllunhookwindowshookex": 6265,
    "6c8": 6266,
    "emenuitem": 6267,
    "deleteatom": 6268,
    "enablemenuitem": 6269,
    "systemfunction0": 6270,
    "\u2581user32dllenablemenuitem": 6271,
    "\u2581kernel32dllenumcalendarinfoa": 6272,
    "40c": 6273,
    "begindrag": 6274,
    "threaddesktop": 6275,
    "\u2581shlwapidllpathappend": 6276,
    "\u2581comctl32dllimagelistdragmove": 6277,
    "\u2581comctl32dllimagelistbegindrag": 6278,
    "\u2581comctl32dllimagelistdragenter": 6279,
    "\u2581comctl32dllimagelistdragleave": 6280,
    "lose": 6281,
    "family": 6282,
    "\u2581oleaut32dllsysreallocstringlen": 6283,
    "elf": 6284,
    "fillmemory": 6285,
    "enddrag": 6286,
    "\u2581kernel32dllglobalrealloc": 6287,
    "\u2581comctl32dllimagelistenddrag": 6288,
    "enumvalue": 6289,
    "certificatecontext": 6290,
    "\u2581uxthemedllgetthemeenumvalue": 6291,
    "\u2581kernel32dllgetdiskfreespaceexw": 6292,
    "\u2581propsysdllvarianttopropvariant": 6293,
    "\u2581user32dllsystemparametersinfoa": 6294,
    "\u2581kernel32dllrtlfillmemory": 6295,
    "\u2581gdi32dllgettextextentpoint32a": 6296,
    "\u2581kernelbasedllgetfileattributes": 6297,
    "46": 6298,
    "ernotification": 6299,
    "\u2581oleaut32dll293": 6300,
    "unit": 6301,
    "\u2581msvcrtdllf": 6302,
    "aclose": 6303,
    "\u2581iphlpapidllicmp": 6304,
    "3a": 6305,
    "91": 6306,
    "completecall": 6307,
    "volumeinformation": 6308,
    "\u2581gdi32dllgetobjecta": 6309,
    "\u2581wininetdllhttpsendrequestexa": 6310,
    "\u2581rpcrt4dllrpcasynccompletecall": 6311,
    "volumeinformationfile": 6312,
    "desktopwindow": 6313,
    "\u2581user32dllgetdesktopwindow": 6314,
    "3a2": 6315,
    "dllhandle": 6316,
    "pathnameby": 6317,
    "getproperty": 6318,
    "finalpathnameby": 6319,
    "\u2581user32dllremove": 6320,
    "\u2581ntdlldllldrgetdllhandle": 6321,
    "\u2581kernel32dllver": 6322,
    "\u2581user32dllgetsystemmenu": 6323,
    "\u2581wintrustdll": 6324,
    "\u2581kernel32dllgetfinalpathnameby": 6325,
    "0a": 6326,
    "e4": 6327,
    "u1": 6328,
    "alg": 6329,
    "classlong": 6330,
    "\u2581user32dllsetclasslong": 6331,
    "\u2581kernel32dllwriteprivateprofilestringw": 6332,
    "99373": 6333,
    "\u2581user32dllgetmenuitemcount": 6334,
    "mapmode": 6335,
    "algorithm": 6336,
    "\u2581libeay32dll": 6337,
    "27": 6338,
    "aej": 6339,
    "ad0": 6340,
    "\u2581jxoqwnw": 6341,
    "ationproperty": 6342,
    "documentationproperty": 6343,
    "\u2581uxthemedllgetthemerect": 6344,
    "\u2581uxthemedllgetthemestring": 6345,
    "\u2581uxthemedllgetthemeintlist": 6346,
    "\u2581uxthemedllgetthemefilename": 6347,
    "\u2581uxthemedllgetthemeposition": 6348,
    "\u2581uxthemedllgetthemedocumentationproperty": 6349,
    "\u2581uxthemedllgetthemepropertyorigin": 6350,
    "\u2581msvbvm60dllvbafree": 6351,
    "\u2581user32dllinsert": 6352,
    "07": 6353,
    "89": 6354,
    "\u2581user32dllsetwindowshookexa": 6355,
    "pers": 6356,
    "userm": 6357,
    "adjustwindow": 6358,
    "\u2581werdllwerreport": 6359,
    "\u2581kernel32dllregqueryinfo": 6360,
    "\u2581ntdlldllrtlvirtualunwind": 6361,
    "\u2581kernel32dllunlockfileex": 6362,
    "\u2581gdi32dllcreatefontindirecta": 6363,
    "bb06e": 6364,
    "beep": 6365,
    "\u2581comdlg32dllgetsave": 6366,
    "lot": 6367,
    "adjustwindowrect": 6368,
    "\u2581advapi32dllregdeletekeyw": 6369,
    "\u2581user32dlladjustwindowrect": 6370,
    "mde": 6371,
    "audi": 6372,
    "vapi": 6373,
    "\u2581mmde": 6374,
    "toself": 6375,
    "\u2581mmdevapi": 6376,
    "reverttoself": 6377,
    "25": 6378,
    "\u2581pem958": 6379,
    "\u2581opengl32dllw": 6380,
    "\u2581versiondllgetfileversioninfoa": 6381,
    "test": 6382,
    "\u2581ws232dllinet": 6383,
    "3a0602f07c357915": 6384,
    "\u2581kernel32dllgetprocess": 6385,
    "themeappproperties": 6386,
    "\u2581user32dlladjustwindowrectex": 6387,
    "\u2581uxthemedllsetthemeappproperties": 6388,
    "ccbasedirectui": 6389,
    "\u2581wininetdlldeleteurlcacheentryw": 6390,
    "findat": 6391,
    "\u2581pem6c8": 6392,
    "\u2581rasmandllrasget": 6393,
    "\u2581rasmandllrasrpc": 6394,
    "\u2581kernel32dllgetlocaleinfow": 6395,
    "logfontw": 6396,
    "keyboardlayout": 6397,
    "\u2581kernel32dllglobalfindat": 6398,
    "\u2581uxthemedlldrawthemeedge": 6399,
    "\u2581user32dllsetwindowplacement": 6400,
    "ailslot": 6401,
    "\u2581gdi32dllstro": 6402,
    "\u2581uxthemedllgetthemesyssize": 6403,
    "pump": 6404,
    "\u2581pem2": 6405,
    "pumphook": 6406,
    "messagepumphook": 6407,
    "\u2581kernel32dllglobaldeleteatom": 6408,
    "byt": 6409,
    "hit": 6410,
    "\u2581gdi32dllcreatebitmap": 6411,
    "ir": 6412,
    "cho": 6413,
    "sbool": 6414,
    "heming": 6415,
    "hittest": 6416,
    "hittesttheme": 6417,
    "dialogtextureenabled": 6418,
    "hittestthemebackground": 6419,
    "\u2581uxthemedlldrawthemeicon": 6420,
    "\u2581uxthemedllenabletheming": 6421,
    "\u2581uxthemedllgetthemesysint": 6422,
    "\u2581kernel32dllcreatemailslot": 6423,
    "\u2581uxthemedllgetthemesysbool": 6424,
    "\u2581uxthemedllgetthemesysfont": 6425,
    "\u2581shell32dllshfileoperationw": 6426,
    "\u2581uxthemedllgetthemesysstring": 6427,
    "\u2581uxthemedllgetthemesyscolorbrush": 6428,
    "\u2581uxthemedllhittestthemebackground": 6429,
    "\u2581uxthemedllisthemedialogtextureenabled": 6430,
    "313": 6431,
    "90f0": 6432,
    "d1": 6433,
    "4b5ee": 6434,
    "debugevent": 6435,
    "deviceiocontrolfile": 6436,
    "\u2581oleaut32dllvariantcopy": 6437,
    "\u2581kernel32dllcreatemailslota": 6438,
    "9a": 6439,
    "a8e9b7d": 6440,
    "ab8e1cc17d7dc5934ca": 6441,
    "\u2581user32dllsetparent": 6442,
    "4b5ee1cc17d7dc5934ca": 6443,
    "\u2581advapi32dllreverttoself": 6444,
    "f21": 6445,
    "intersectrect": 6446,
    "\u2581user32dllintersectrect": 6447,
    "\u2581pem40c": 6448,
    "createthread": 6449,
    "\u2581kernel32dllgetfinalpathnamebyhandlew": 6450,
    "\u2581comdlg32dll": 6451,
    "\u2581ws232dll17": 6452,
    "affinitymask": 6453,
    "\u2581kernel32dllgetdateformatw": 6454,
    "ptin": 6455,
    "\u2581msvbvm60dllvbal": 6456,
    "716": 6457,
    "\u2581duserdllgetgadget": 6458,
    "\u2581kernel32dllgetcalendar": 6459,
    "scre": 6460,
    "screent": 6461,
    "rectempty": 6462,
    "\u2581shlwapidll15": 6463,
    "screentoclient": 6464,
    "\u2581user32dllisrectempty": 6465,
    "\u2581user32dllscreentoclient": 6466,
    "\u2581user32dllgetcapture": 6467,
    "ergn": 6468,
    "entryslist": 6469,
    "\u2581advapi32dlllsaopen": 6470,
    "line": 6471,
    "ower": 6472,
    "\u2581user32dllgetscroll": 6473,
    "\u2581kernel32dllgettimeformatw": 6474,
    "\u2581cryptbasedllsystemfunction00": 6475,
    "\u2581ntdlldllntquerydirectoryfile": 6476,
    "\u2581ntdlldllntqueryinformationfile": 6477,
    "3d4d": 6478,
    "clipbox": 6479,
    "pixelformat": 6480,
    "\u2581gdi32dllgetclipbox": 6481,
    "5e4": 6482,
    "charact": 6483,
    "\u2581user32dllgetwindowdc": 6484,
    "propertyframe": 6485,
    "\u2581kernelbasedllloadlibrary": 6486,
    "\u2581kernel32dllgetcalendarinfow": 6487,
    "eam": 6488,
    "erectrgn": 6489,
    "\u2581gdi32dllcreaterectrgn": 6490,
    "\u2581kernel32dllsetthreadlocale": 6491,
    "c2": 6492,
    "tolower": 6493,
    "inputinfo": 6494,
    "\u2581user32dllsetpropa": 6495,
    "\u2581advapi32dlllsaclose": 6496,
    "\u2581gdiplusdllgdipcreat": 6497,
    "\u2581user32dllgetmenuitemid": 6498,
    "\u2581advapi32dlllsaopenpolicy": 6499,
    "\u2581user32dllgetlastinputinfo": 6500,
    "iea": 6501,
    "idle": 6502,
    "inputidle": 6503,
    "namedpipew": 6504,
    "waitforinputidle": 6505,
    "\u2581user32dllwaitforinputidle": 6506,
    "632": 6507,
    "omain": 6508,
    "d5": 6509,
    "stretchbltmode": 6510,
    "\u2581wsock32dllsend": 6511,
    "\u2581user32dllgetupdat": 6512,
    "\u2581comctl32dllloadiconmetric": 6513,
    "dragcursor": 6514,
    "dragcursorimage": 6515,
    "\u2581comctl32dllimagelistsetdragcursorimage": 6516,
    "etimer": 6517,
    "patblt": 6518,
    "\u2581gdi32dllpatblt": 6519,
    "\u2581msvcrtdllvsnwprintf": 6520,
    "achwnd": 6521,
    "person": 6522,
    "configured": 6523,
    "\u2581sxsdllsxsoleaut32map": 6524,
    "\u2581kernel32dllcancelioex": 6525,
    "\u2581user32dllsetscrollpos": 6526,
    "\u2581kernel32dllgetqueuedcompletionstatusex": 6527,
    "idi": 6528,
    "ude": 6529,
    "exclude": 6530,
    "\u2581user32dllsetactivewindow": 6531,
    "men": 6532,
    "modes": 6533,
    "notificationmodes": 6534,
    "\u2581ntdlldllsnwprintf": 6535,
    "completionnotificationmodes": 6536,
    "\u2581kernel32dllsetfilecompletionnotificationmodes": 6537,
    "owr": 6538,
    "\u2581powr": 6539,
    "\u2581powrprof": 6540,
    "excludecliprect": 6541,
    "\u2581gdi32dllexcludecliprect": 6542,
    "\u2581user32dllgetkeyboardtype": 6543,
    "disys": 6544,
    "disysaccel": 6545,
    "queryinformation": 6546,
    "\u2581wininetdllinternetgetcookiea": 6547,
    "\u2581user32dlltranslatemdisysaccel": 6548,
    "synchron": 6549,
    "\u2581gdi32dllrectvisible": 6550,
    "\u2581user32dllsetscrollinfo": 6551,
    "\u2581windowscodecsdlldllgetclassobject": 6552,
    "certstore": 6553,
    "topwindow": 6554,
    "\u2581dnsapidlldnsquery": 6555,
    "\u2581user32dllgettopwindow": 6556,
    "\u2581user32dllregisterwindowmessagea": 6557,
    "62c": 6558,
    "pfx": 6559,
    "90dll": 6560,
    "stringtobinary": 6561,
    "\u2581crypt32dllpfx": 6562,
    "\u2581user32dllshowscrollbar": 6563,
    "\u2581crypt32dllcryptstringtobinary": 6564,
    "lopen": 6565,
    "ptinrect": 6566,
    "\u2581wdmauddrv": 6567,
    "\u2581wdmauddrvm": 6568,
    "\u2581wdmauddrvw": 6569,
    "certificatech": 6570,
    "\u2581opengl32dllwgl": 6571,
    "\u2581user32dllptinrect": 6572,
    "\u2581crypt32dllcertduplicate": 6573,
    "\u2581ntdlldllntsetinformationfile": 6574,
    "\u2581user32dllsystemparametersinfow": 6575,
    "exe": 6576,
    "eb06e": 6577,
    "idimap": 6578,
    "imperson": 6579,
    "odmessage": 6580,
    "\u2581wininetdllinternetgetcookie": 6581,
    "\u2581ntdlldllntdeviceiocontrolfile": 6582,
    "23": 6583,
    "srs": 6584,
    "drvw": 6585,
    "\u2581csrs": 6586,
    "modmessage": 6587,
    "\u2581csrssexem": 6588,
    "\u2581msacm32drvw": 6589,
    "referenceclsid": 6590,
    "configuredclsidto": 6591,
    "configuredclsidtoreferenceclsid": 6592,
    "\u2581ntdlldllntqueryvolumeinformationfile": 6593,
    "\u2581sxsdllsxsoleaut32mapconfiguredclsidtoreferenceclsid": 6594,
    "wb": 6595,
    "ous": 6596,
    "ousio": 6597,
    "queuetimer": 6598,
    "description": 6599,
    "synchronousio": 6600,
    "menua": 6601,
    "writeptr": 6602,
    "\u2581midimap": 6603,
    "\u2581midimapdll": 6604,
    "imerqueuetimer": 6605,
    "\u2581advapi32dllenum": 6606,
    "\u2581kernel32dllisbadwriteptr": 6607,
    "\u2581gdi32dllsetstretchbltmode": 6608,
    "\u2581wininetdllinternetgetcookieexa": 6609,
    "dim": 6610,
    "\u2581ntdlldllntcreatethread": 6611,
    "\u2581kernel32dllglobalfindatoma": 6612,
    "\u2581kernel32dllcancelsynchronousio": 6613,
    "c9": 6614,
    "19b": 6615,
    "\u2581advapi32dllopenservicew": 6616,
    "\u2581comctl32dllimagelistadd": 6617,
    "\u2581gdi32dllgettextmetricsa": 6618,
    "43": 6619,
    "c7": 6620,
    "d6e": 6621,
    "\u2581ls": 6622,
    "\u2581ncryptdllss": 6623,
    "\u2581cfgmgr32dllcmp": 6624,
    "\u2581advapi32dllenumservices": 6625,
    "\u2581user32dllgetsyscolorbrush": 6626,
    "\u2581user32dllgetwindowtextlengthw": 6627,
    "audio": 6628,
    "owned": 6629,
    "popups": 6630,
    "transmit": 6631,
    "ownedpopups": 6632,
[...]
