{
    "<pad>": 0,
    "<unk>": 1,
    "<mask>": 2,
    "<0x01>": 3,
    "<0x02>": 4,
    "<0x03>": 5,
    "<0x04>": 6,
    "<0x05>": 7,
    "<0x06>": 8,
    "<0x07>": 9,
    "<0x08>": 10,
    "<0x09>": 11,
    "<0x0A>": 12,
    "<0x0B>": 13,
    "<0x0C>": 14,
    "<0x0D>": 15,
    "<0x0E>": 16,
    "<0x0F>": 17,
    "<0x10>": 18,
    "<0x11>": 19,
    "<0x12>": 20,
    "<0x13>": 21,
    "<0x14>": 22,
    "<0x15>": 23,
    "<0x16>": 24,
    "<0x17>": 25,
    "<0x18>": 26,
    "<0x19>": 27,
    "<0x1A>": 28,
    "<0x1B>": 29,
    "<0x1C>": 30,
    "<0x1D>": 31,
    "<0x1E>": 32,
    "<0x1F>": 33,
    "<0x20>": 34,
    "<0x21>": 35,
    "<0x22>": 36,
    "<0x23>": 37,
    "<0x24>": 38,
    "<0x25>": 39,
    "<0x26>": 40,
    "<0x27>": 41,
    "<0x28>": 42,
    "<0x29>": 43,
    "<0x2A>": 44,
    "<0x2B>": 45,
    "<0x2C>": 46,
    "<0x2D>": 47,
    "<0x2E>": 48,
    "<0x2F>": 49,
    "<0x30>": 50,
    "<0x31>": 51,
    "<0x32>": 52,
    "<0x33>": 53,
    "<0x34>": 54,
    "<0x35>": 55,
    "<0x36>": 56,
    "<0x37>": 57,
    "<0x38>": 58,
    "<0x39>": 59,
    "<0x3A>": 60,
    "<0x3B>": 61,
    "<0x3C>": 62,
    "<0x3D>": 63,
    "<0x3E>": 64,
    "<0x3F>": 65,
    "<0x40>": 66,
    "<0x41>": 67,
    "<0x42>": 68,
    "<0x43>": 69,
    "<0x44>": 70,
    "<0x45>": 71,
    "<0x46>": 72,
    "<0x47>": 73,
    "<0x48>": 74,
    "<0x49>": 75,
    "<0x4A>": 76,
    "<0x4B>": 77,
    "<0x4C>": 78,
    "<0x4D>": 79,
    "<0x4E>": 80,
    "<0x4F>": 81,
    "<0x50>": 82,
    "<0x51>": 83,
    "<0x52>": 84,
    "<0x53>": 85,
    "<0x54>": 86,
    "<0x55>": 87,
    "<0x56>": 88,
    "<0x57>": 89,
    "<0x58>": 90,
    "<0x59>": 91,
    "<0x5A>": 92,
    "<0x5B>": 93,
    "<0x5C>": 94,
    "<0x5D>": 95,
    "<0x5E>": 96,
    "<0x5F>": 97,
    "<0x60>": 98,
    "<0x61>": 99,
    "<0x62>": 100,
    "<0x63>": 101,
    "<0x64>": 102,
    "<0x65>": 103,
    "<0x66>": 104,
    "<0x67>": 105,
    "<0x68>": 106,
    "<0x69>": 107,
    "<0x6A>": 108,
    "<0x6B>": 109,
    "<0x6C>": 110,
    "<0x6D>": 111,
    "<0x6E>": 112,
    "<0x6F>": 113,
    "<0x70>": 114,
    "<0x71>": 115,
    "<0x72>": 116,
    "<0x73>": 117,
    "<0x74>": 118,
    "<0x75>": 119,
    "<0x76>": 120,
    "<0x77>": 121,
    "<0x78>": 122,
    "<0x79>": 123,
    "<0x7A>": 124,
    "<0x7B>": 125,
    "<0x7C>": 126,
    "<0x7D>": 127,
    "<0x7E>": 128,
    "<0x7F>": 129,
    "<0x80>": 130,
    "<0x81>": 131,
    "<0x82>": 132,
    "<0x83>": 133,
    "<0x84>": 134,
    "<0x85>": 135,
    "<0x86>": 136,
    "<0x87>": 137,
    "<0x88>": 138,
    "<0x89>": 139,
    "<0x8A>": 140,
    "<0x8B>": 141,
    "<0x8C>": 142,
    "<0x8D>": 143,
    "<0x8E>": 144,
    "<0x8F>": 145,
    "<0x90>": 146,
    "<0x91>": 147,
    "<0x92>": 148,
    "<0x93>": 149,
    "<0x94>": 150,
    "<0x95>": 151,
    "<0x96>": 152,
    "<0x97>": 153,
    "<0x98>": 154,
    "<0x99>": 155,
    "<0x9A>": 156,
    "<0x9B>": 157,
    "<0x9C>": 158,
    "<0x9D>": 159,
    "<0x9E>": 160,
    "<0x9F>": 161,
    "<0xA0>": 162,
    "<0xA1>": 163,
    "<0xA2>": 164,
    "<0xA3>": 165,
    "<0xA4>": 166,
    "<0xA5>": 167,
    "<0xA6>": 168,
    "<0xA7>": 169,
    "<0xA8>": 170,
    "<0xA9>": 171,
    "<0xAA>": 172,
    "<0xAB>": 173,
    "<0xAC>": 174,
    "<0xAD>": 175,
    "<0xAE>": 176,
    "<0xAF>": 177,
    "<0xB0>": 178,
    "<0xB1>": 179,
    "<0xB2>": 180,
    "<0xB3>": 181,
    "<0xB4>": 182,
    "<0xB5>": 183,
    "<0xB6>": 184,
    "<0xB7>": 185,
    "<0xB8>": 186,
    "<0xB9>": 187,
    "<0xBA>": 188,
    "<0xBB>": 189,
    "<0xBC>": 190,
    "<0xBD>": 191,
    "<0xBE>": 192,
    "<0xBF>": 193,
    "<0xC0>": 194,
    "<0xC1>": 195,
    "<0xC2>": 196,
    "<0xC3>": 197,
    "<0xC4>": 198,
    "<0xC5>": 199,
    "<0xC6>": 200,
    "<0xC7>": 201,
    "<0xC8>": 202,
    "<0xC9>": 203,
    "<0xCA>": 204,
    "<0xCB>": 205,
    "<0xCC>": 206,
    "<0xCD>": 207,
    "<0xCE>": 208,
    "<0xCF>": 209,
    "<0xD0>": 210,
    "<0xD1>": 211,
    "<0xD2>": 212,
    "<0xD3>": 213,
    "<0xD4>": 214,
    "<0xD5>": 215,
    "<0xD6>": 216,
    "<0xD7>": 217,
    "<0xD8>": 218,
    "<0xD9>": 219,
    "<0xDA>": 220,
    "<0xDB>": 221,
    "<0xDC>": 222,
    "<0xDD>": 223,
    "<0xDE>": 224,
    "<0xDF>": 225,
    "<0xE0>": 226,
    "<0xE1>": 227,
    "<0xE2>": 228,
    "<0xE3>": 229,
    "<0xE4>": 230,
    "<0xE5>": 231,
    "<0xE6>": 232,
    "<0xE7>": 233,
    "<0xE8>": 234,
    "<0xE9>": 235,
    "<0xEA>": 236,
    "<0xEB>": 237,
    "<0xEC>": 238,
    "<0xED>": 239,
    "<0xEE>": 240,
    "<0xEF>": 241,
    "<0xF0>": 242,
    "<0xF1>": 243,
    "<0xF2>": 244,
    "<0xF3>": 245,
    "<0xF4>": 246,
    "<0xF5>": 247,
    "<0xF6>": 248,
    "<0xF7>": 249,
    "<0xF8>": 250,
    "<0xF9>": 251,
    "<0xFA>": 252,
    "<0xFB>": 253,
    "<0xFC>": 254,
    "<0xFD>": 255,
    "<0xFE>": 256,
    "<0xFF>": 257,
    "er": 258,
    "ne": 259,
    "\u2581k": 260,
    "erne": 261,
    "ernel": 262,
    "\u2581kernel": 263,
    "et": 264,
    "ee": 265,
    "al": 266,
    "ti": 267,
    "get": 268,
    "ad": 269,
    "ec": 270,
    "re": 271,
    "xf": 272,
    "\u2581get": 273,
    "in": 274,
    "oc": 275,
    "iti": 276,
    "eee": 277,
    "xfeee": 278,
    "ss": 279,
    "pr": 280,
    "one": 281,
    "proc": 282,
    "st": 283,
    "\u2581getproc": 284,
    "sec": 285,
    "cal": 286,
    "dre": 287,
    "on": 288,
    "secti": 289,
    "addre": 290,
    "address": 291,
    "\u2581getprocaddress": 292,
    "riti": 293,
    "ritical": 294,
    "riticalsecti": 295,
    "le": 296,
    "ue": 297,
    "read": 298,
    "en": 299,
    "is": 300,
    "\u2581n": 301,
    "ecriticalsecti": 302,
    "val": 303,
    "\u2581none": 304,
    "tr": 305,
    "ls": 306,
    "value": 307,
    "\u2581is": 308,
    "\u2581in": 309,
    "ter": 310,
    "getvalue": 311,
    "lsgetvalue": 312,
    "readp": 313,
    "bad": 314,
    "\u2581isbad": 315,
    "readptr": 316,
    "\u2581isbadreadptr": 317,
    "ap": 318,
    "loc": 319,
    "or": 320,
    "de": 321,
    "iz": 322,
    "aliz": 323,
    "itializ": 324,
    "\u2581s": 325,
    "\u2581initializ": 326,
    "co": 327,
    "\u2581initializecriticalsecti": 328,
    "ff": 329,
    "\u2581t": 330,
    "\u2581f": 331,
    "ar": 332,
    "an": 333,
    "xfa": 334,
    "he": 335,
    "\u2581en": 336,
    "us": 337,
    "la": 338,
    "heap": 339,
    "\u2581heap": 340,
    "onex": 341,
    "err": 342,
    "error": 343,
    "\u2581tlsgetvalue": 344,
    "alloc": 345,
    "last": 346,
    "lasterror": 347,
    "\u2581initializecriticalsectionex": 348,
    "\u2581l": 349,
    "\u2581c": 350,
    "te": 351,
    "and": 352,
    "user": 353,
    "po": 354,
    "\u2581user": 355,
    "poin": 356,
    "dec": 357,
    "pointer": 358,
    "depointer": 359,
    "lea": 360,
    "str": 361,
    "ow": 362,
    "\u2581set": 363,
    "\u2581flsgetvalue": 364,
    "\u2581m": 365,
    "\u2581heapalloc": 366,
    "fi": 367,
    "\u2581w": 368,
    "nt": 369,
    "ex": 370,
    "ing": 371,
    "inf": 372,
    "string": 373,
    "em": 374,
    "ecriticalsection": 375,
    "leav": 376,
    "\u2581leav": 377,
    "\u2581leavecriticalsection": 378,
    "oad": 379,
    "\u2581enter": 380,
    "criticalsecti": 381,
    "criticalsection": 382,
    "\u2581entercriticalsection": 383,
    "\u2581load": 384,
    "har": 385,
    "\u2581d": 386,
    "li": 387,
    "\u2581enco": 388,
    "\u2581encodepointer": 389,
    "hand": 390,
    "ac": 391,
    "\u2581getlasterror": 392,
    "at": 393,
    "ent": 394,
    "\u2581setlasterror": 395,
    "xc": 396,
    "ab": 397,
    "by": 398,
    "unt": 399,
    "ess": 400,
    "\u2581getc": 401,
    "count": 402,
    "ul": 403,
    "rt": 404,
    "info": 405,
    "ffff": 406,
    "ind": 407,
    "\u2581initializecriticalsection": 408,
    "ur": 409,
    "ll": 410,
    "let": 411,
    "ate": 412,
    "handle": 413,
    "vi": 414,
    "mp": 415,
    "local": 416,
    "mo": 417,
    "it": 418,
    "ulti": 419,
    "idec": 420,
    "ultiby": 421,
    "idechar": 422,
    "file": 423,
    "du": 424,
    "tion": 425,
    "indow": 426,
    "yst": 427,
    "ed": 428,
    "dule": 429,
    "om": 430,
    "module": 431,
    "\u2581getmodule": 432,
    "ystem": 433,
    "\u2581cre": 434,
    "me": 435,
    "op": 436,
    "sp": 437,
    "\u2581dec": 438,
    "\u2581deco": 439,
    "\u2581decodepointer": 440,
    "spin": 441,
    "spincount": 442,
    "andspincount": 443,
    "\u2581initializecriticalsectionandspincount": 444,
    "\u2581dll": 445,
    "ment": 446,
    "\u2581ms": 447,
    "xt": 448,
    "process": 449,
    "yp": 450,
    "br": 451,
    "ri": 452,
    "locale": 453,
    "pinfo": 454,
    "exw": 455,
    "cc": 456,
    "\u2581g": 457,
    "\u2581create": 458,
    "ag": 459,
    "ary": 460,
    "fr": 461,
    "stringw": 462,
    "indows": 463,
    "brary": 464,
    "\u2581windows": 465,
    "next": 466,
    "id": 467,
    "lo": 468,
    "bc": 469,
    "tet": 470,
    "\u2581multiby": 471,
    "tetow": 472,
    "tetowidechar": 473,
    "\u2581multibytetowidechar": 474,
    "\u2581getcpinfo": 475,
    "age": 476,
    "lock": 477,
    "\u2581getst": 478,
    "leti": 479,
    "rent": 480,
    "urrent": 481,
    "\u2581char": 482,
    "ce": 483,
    "free": 484,
    "\u2581charnext": 485,
    "map": 486,
    "ect": 487,
    "xfffff": 488,
    "th": 489,
    "xff": 490,
    "xfffffff": 491,
    "\u2581getlocale": 492,
    "vc": 493,
    "\u2581system": 494,
    "di": 495,
    "ype": 496,
    "\u2581msvc": 497,
    "library": 498,
    "able": 499,
    "un": 500,
    "\u2581msvcrt": 501,
    "xa": 502,
    "\u2581lc": 503,
    "\u2581lcmap": 504,
    "\u2581inter": 505,
    "def": 506,
    "infow": 507,
    "ual": 508,
    "virt": 509,
    "virtual": 510,
    "\u2581ex": 511,
    "\u2581interlock": 512,
    "dc": 513,
    "hi": 514,
    "comp": 515,
    "\u2581interlocked": 516,
    "api": 517,
    "rement": 518,
    "\u2581getcurrent": 519,
    "\u2581re": 520,
    "\u2581p": 521,
    "ey": 522,
    "\u2581loadlibrary": 523,
    "\u2581init": 524,
    "ol": 525,
    "\u2581virtual": 526,
    "thread": 527,
    "ame": 528,
    "ans": 529,
    "rite": 530,
    "ers": 531,
    "open": 532,
    "trans": 533,
    "fc": 534,
    "rst": 535,
    "stat": 536,
    "status": 537,
    "atom": 538,
    "que": 539,
    "\u2581loadstringw": 540,
    "dd": 541,
    "lient": 542,
    "\u2581getcpinfoexw": 543,
    "table": 544,
    "action": 545,
    "queue": 546,
    "letion": 547,
    "dcomp": 548,
    "queuedcomp": 549,
    "letionstatus": 550,
    "queuedcompletionstatus": 551,
    "transaction": 552,
    "\u2581ddec": 553,
    "\u2581getqueuedcompletionstatus": 554,
    "\u2581ddeclient": 555,
    "\u2581ddeclienttransaction": 556,
    "atomtable": 557,
    "\u2581initatomtable": 558,
    "\u2581heapfree": 559,
    "handlew": 560,
    "so": 561,
    "\u2581getmodulehandlew": 562,
    "\u2581getti": 563,
    "name": 564,
    "\u2581getfi": 565,
    "var": 566,
    "emp": 567,
    "be": 568,
    "\u2581gets": 569,
    "key": 570,
    "abc": 571,
    "fe": 572,
    "\u2581temp": 573,
    "vw": 574,
    "\u2581read": 575,
    "opq": 576,
    "lm": 577,
    "ghi": 578,
    "xy": 579,
    "\u2581abc": 580,
    "xyz": 581,
    "klm": 582,
    "uvw": 583,
    "opqrst": 584,
    "uvwxyz": 585,
    "nopqrst": 586,
    "defghi": 587,
    "nopqrstuvwxyz": 588,
    "\u2581abcdefghi": 589,
    "klmnopqrstuvwxyz": 590,
    "da": 591,
    "ck": 592,
    "tom": 593,
    "ultibyte": 594,
    "\u2581widechar": 595,
    "tomultibyte": 596,
    "\u2581widechartomultibyte": 597,
    "ckcount": 598,
    "\u2581gettickcount": 599,
    "mm": 600,
    "ic": 601,
    "art": 602,
    "orm": 603,
    "los": 604,
    "cmp": 605,
    "\u2581reg": 606,
    "qu": 607,
    "db": 608,
    "\u2581getfilet": 609,
    "\u2581getfiletype": 610,
    "ch": 611,
    "up": 612,
    "\u2581co": 613,
    "rect": 614,
    "dhandle": 615,
    "sset": 616,
    "sw": 617,
    "\u2581charnextw": 618,
    "ute": 619,
    "lsset": 620,
    "lssetvalue": 621,
    "\u2581getstdhandle": 622,
    "inc": 623,
    "stringa": 624,
    "ron": 625,
    "\u2581getlocaleinfow": 626,
    "increment": 627,
    "\u2581interlockedincrement": 628,
    "viron": 629,
    "\u2581getsystem": 630,
    "lsalloc": 631,
    "vironment": 632,
    "vers": 633,
    "ba": 634,
    "xcd": 635,
    "lose": 636,
    "direct": 637,
    "\u2581getmodulehand": 638,
    "af": 639,
    "\u2581getmodulehandlea": 640,
    "filename": 641,
    "wa": 642,
    "\u2581loadstringa": 643,
    "\u2581open": 644,
    "director": 645,
    "quer": 646,
    "stringex": 647,
    "xffffffff": 648,
    "\u2581ap": 649,
    "bd": 650,
    "\u2581mem": 651,
    "\u2581getstart": 652,
    "window": 653,
    "dbc": 654,
    "\u2581charnexta": 655,
    "aa": 656,
    "fd": 657,
    "\u2581getlocaleinfo": 658,
    "versi": 659,
    "ool": 660,
    "\u2581local": 661,
    "\u2581lcmapstringw": 662,
    "\u2581memcmp": 663,
    "sle": 664,
    "\u2581se": 665,
    "\u2581flssetvalue": 666,
    "cf": 667,
    "\u2581lcmapstringex": 668,
    "stringsw": 669,
    "\u2581getmodulefilename": 670,
    "eco": 671,
    "ve": 672,
    "filew": 673,
    "byte": 674,
    "slead": 675,
    "\u2581isdbc": 676,
    "\u2581isdbcslead": 677,
    "\u2581loadlibrarya": 678,
    "\u2581isdbcsleadbyte": 679,
    "\u2581virtualalloc": 680,
    "\u2581flsalloc": 681,
    "comm": 682,
    "\u2581ad": 683,
    "\u2581getlocaleinfoa": 684,
    "line": 685,
    "\u2581getcurrentthread": 686,
    "vironmentstringsw": 687,
    "andline": 688,
    "\u2581getcomm": 689,
    "\u2581getcommandline": 690,
    "\u2581a": 691,
    "\u2581close": 692,
    "\u2581win": 693,
    "\u2581write": 694,
    "write": 695,
    "res": 696,
    "\u2581h": 697,
    "bf": 698,
    "of": 699,
    "\u2581de": 700,
    "\u2581apis": 701,
    "as": 702,
    "\u2581getcurrentthreadid": 703,
    "ut": 704,
    "form": 705,
    "\u2581var": 706,
    "\u2581adv": 707,
    "\u2581advapi": 708,
    "directory": 709,
    "sour": 710,
    "eex": 711,
    "valid": 712,
    "\u2581fr": 713,
    "readpool": 714,
    "arch": 715,
    "df": 716,
    "dll": 717,
    "time": 718,
    "ation": 719,
    "essage": 720,
    "\u2581api": 721,
    "processor": 722,
    "\u2581page": 723,
    "eth": 724,
    "um": 725,
    "\u2581loadlibraryexw": 726,
    "es": 727,
    "\u2581readwrite": 728,
    "\u2581closehandle": 729,
    "\u2581search": 730,
    "int": 731,
    "\u2581lstr": 732,
    "\u2581getversi": 733,
    "\u2581li": 734,
    "\u2581fi": 735,
    "fileti": 736,
    "ae": 737,
    "\u2581core": 738,
    "ption": 739,
    "source": 740,
    "eep": 741,
    "\u2581getprocess": 742,
    "\u2581sl": 743,
    "vari": 744,
    "ef": 745,
    "\u2581sleep": 746,
    "type": 747,
    "pres": 748,
    "present": 749,
    "filetime": 750,
    "og": 751,
    "message": 752,
    "\u2581creat": 753,
    "bb": 754,
    "\u2581geten": 755,
    "upinfow": 756,
    "\u2581getstartupinfow": 757,
    "urs": 758,
    "\u2581getprocessheap": 759,
    "list": 760,
    "\u2581library": 761,
    "decrement": 762,
    "\u2581interlockeddecrement": 763,
    "ecute": 764,
    "\u2581getstring": 765,
    "con": 766,
    "xce": 767,
    "\u2581getstringtype": 768,
    "lob": 769,
    "\u2581glob": 770,
    "ure": 771,
    "xception": 772,
    "tin": 773,
    "ai": 774,
    "\u2581getcurrentprocess": 775,
    "ursor": 776,
    "bo": 777,
    "\u2581x": 778,
    "icon": 779,
    "\u2581localalloc": 780,
    "ys": 781,
    "\u2581getstringtypew": 782,
    "ature": 783,
    "feature": 784,
    "\u2581isprocessor": 785,
    "featurepresent": 786,
    "\u2581isprocessorfeaturepresent": 787,
    "\u2581sh": 788,
    "\u2581b": 789,
    "xb": 790,
    "ction": 791,
    "\u2581quer": 792,
    "filea": 793,
    "ot": 794,
    "ware": 795,
    "cursor": 796,
    "erform": 797,
    "erforman": 798,
    "\u2581queryp": 799,
    "\u2581queryperforman": 800,
    "gin": 801,
    "\u2581hkey": 802,
    "directoryw": 803,
    "oft": 804,
    "ble": 805,
    "oftware": 806,
    "\u2581be": 807,
    "unter": 808,
    "fa": 809,
    "\u2581software": 810,
    "\u2581getsystemtime": 811,
    "\u2581getac": 812,
    "fil": 813,
    "\u2581loadcursor": 814,
    "eexw": 815,
    "ceco": 816,
    "cecounter": 817,
    "\u2581queryperformancecounter": 818,
    "rive": 819,
    "\u2581ws": 820,
    "\u2581nt": 821,
    "xd": 822,
    "ob": 823,
    "\u2581begin": 824,
    "filter": 825,
    "dexception": 826,
    "unhandle": 827,
    "dexceptionfilter": 828,
    "unhandledexceptionfilter": 829,
    "eric": 830,
    "asfiletime": 831,
    "\u2581delet": 832,
    "\u2581gdi": 833,
    "\u2581getacp": 834,
    "ting": 835,
    "tim": 836,
    "\u2581gen": 837,
    "\u2581execute": 838,
    "\u2581find": 839,
    "ra": 840,
    "temp": 841,
    "\u2581generic": 842,
    "\u2581getsystemtimeasfiletime": 843,
    "\u2581pf": 844,
    "ervi": 845,
    "\u2581gettemp": 846,
    "ca": 847,
    "cb": 848,
    "ition": 849,
    "inform": 850,
    "dition": 851,
    "\u2581getmodulefilenamew": 852,
    "\u2581regi": 853,
    "information": 854,
    "code": 855,
    "\u2581global": 856,
    "\u2581current": 857,
    "\u2581go": 858,
    "\u2581goog": 859,
    "\u2581google": 860,
    "xfff": 861,
    "ethreadpool": 862,
    "onso": 863,
    "print": 864,
    "\u2581createfilew": 865,
    "xe": 866,
    "\u2581writefile": 867,
    "cd": 868,
    "timer": 869,
    "\u2581ac": 870,
    "\u2581setunhandledexceptionfilter": 871,
    "eeen": 872,
    "\u2581freeen": 873,
    "stru": 874,
    "\u2581getcurrentprocessid": 875,
    "struction": 876,
    "\u2581getmodulefilenamea": 877,
    "\u2581getcommandlinea": 878,
    "eb": 879,
    "ack": 880,
    "onsole": 881,
    "\u2581getenvironmentstringsw": 882,
    "\u2581freeenvironmentstringsw": 883,
    "fb": 884,
    "\u2581getversionex": 885,
    "\u2581isvalid": 886,
    "\u2581o": 887,
    "query": 888,
    "exa": 889,
    "\u2581regopen": 890,
    "aila": 891,
    "vaila": 892,
    "vailable": 893,
    "\u2581regopenkey": 894,
    "tri": 895,
    "\u2581she": 896,
    "\u2581getcommandlinew": 897,
    "\u2581available": 898,
    "\u2581exe": 899,
    "lass": 900,
    "yn": 901,
    "locales": 902,
    "ock": 903,
    "\u2581instruction": 904,
    "\u2581i": 905,
    "\u2581instructions": 906,
    "mmi": 907,
    "\u2581xmmi": 908,
    "ity": 909,
    "\u2581loadicon": 910,
    "cre": 911,
    "to": 912,
    "ea": 913,
    "sc": 914,
    "from": 915,
    "servi": 916,
    "ult": 917,
    "lor": 918,
    "defa": 919,
    "\u2581regist": 920,
    "\u2581setfile": 921,
    "\u2581drive": 922,
    "handl": 923,
    "default": 924,
    "variable": 925,
    "end": 926,
    "condition": 927,
    "color": 928,
    "upinfo": 929,
    "\u2581getstartupinfo": 930,
    "\u2581getstartupinfoa": 931,
    "lus": 932,
    "\u2581exit": 933,
    "cess": 934,
    "\u2581wa": 935,
    "create": 936,
    "\u2581crt": 937,
    "ddd": 938,
    "resource": 939,
    "len": 940,
    "codep": 941,
    "xffa": 942,
    "\u2581virtualquery": 943,
    "met": 944,
    "\u2581getconsole": 945,
    "threadex": 946,
    "\u2581beginthreadex": 947,
    "xffb": 948,
    "bu": 949,
    "codepage": 950,
    "urity": 951,
    "\u2581locales": 952,
    "security": 953,
    "\u2581isvalidcodepage": 954,
    "\u2581access": 955,
    "\u2581free": 956,
    "messagea": 957,
    "\u2581register": 958,
    "\u2581loadcursorw": 959,
    "printf": 960,
    "threadpool": 961,
    "\u2581invalid": 962,
    "boar": 963,
    "\u2581setfilepointer": 964,
    "class": 965,
    "\u2581delete": 966,
    "olf": 967,
    "tor": 968,
    "set": 969,
    "ber": 970,
    "\u2581getuser": 971,
    "cec": 972,
    "\u2581process": 973,
    "mage": 974,
    "bute": 975,
    "tribute": 976,
    "section": 977,
    "lp": 978,
    "wait": 979,
    "dac": 980,
    "service": 981,
    "ro": 982,
    "\u2581lstrlen": 983,
    "ttribute": 984,
    "\u2581tmp": 985,
    "\u2581heapcreate": 986,
    "gu": 987,
    "\u2581ini": 988,
    "num": 989,
    "\u2581syn": 990,
    "\u2581tlssetvalue": 991,
    "\u2581golf": 992,
    "bers": 993,
    "\u2581synch": 994,
    "py": 995,
    "version": 996,
    "\u2581gettempw": 997,
    "men": 998,
    "lsfree": 999,
    "\u2581tlsalloc": 1000,
    "\u2581exitprocess": 1001,
    "ge": 1002,
    "lip": 1003,
    "\u2581shell": 1004,
    "date": 1005,
    "\u2581al": 1006,
    "\u2581regopenkeyexw": 1007,
    "rw": 1008,
    "board": 1009,
    "net": 1010,
    "mode": 1011,
    "\u2581getversion": 1012,
    "realloc": 1013,
    "\u2581r": 1014,
    "ethread": 1015,
    "xffe": 1016,
    "cs": 1017,
    "ew": 1018,
    "menu": 1019,
    "close": 1020,
    "achi": 1021,
    "achine": 1022,
    "\u2581machine": 1023,
    "ies": 1024,
    "sa": 1025,
    "gi": 1026,
    "first": 1027,
    "term": 1028,
    "processlist": 1029,
    "\u2581getconsoleprocesslist": 1030,
    "\u2581crtdll": 1031,
    "ecount": 1032,
    "\u2581readfile": 1033,
    "handlecount": 1034,
    "\u2581sethandlecount": 1035,
    "erw": 1036,
    "\u2581key": 1037,
    "raw": 1038,
    "\u2581rt": 1039,
    "lic": 1040,
    "\u2581rtl": 1041,
    "directories": 1042,
    "\u2581setdefault": 1043,
    "dlldirectories": 1044,
    "\u2581setdefaultdlldirectories": 1045,
    "\u2581map": 1046,
    "day": 1047,
    "\u2581getthread": 1048,
    "isting": 1049,
    "scri": 1050,
    "\u2581loadicona": 1051,
    "ating": 1052,
    "\u2581creates": 1053,
    "scrip": 1054,
    "edc": 1055,
    "aps": 1056,
    "\u2581existing": 1057,
    "\u2581freelibrary": 1058,
    "scriptor": 1059,
    "descriptor": 1060,
    "securitydescriptor": 1061,
    "\u2581lstrcmp": 1062,
    "pri": 1063,
    "\u2581fibers": 1064,
    "ant": 1065,
    "rwlock": 1066,
    "\u2581virtualfree": 1067,
    "directorya": 1068,
    "for": 1069,
    "\u2581clos": 1070,
    "\u2581closethreadpool": 1071,
    "\u2581createthreadpool": 1072,
    "\u2581createdirectoryw": 1073,
    "leas": 1074,
    "yscolor": 1075,
    "\u2581getsyscolor": 1076,
    "view": 1077,
    "ork": 1078,
    "\u2581ntdll": 1079,
    "call": 1080,
    "\u2581heaprealloc": 1081,
    "\u2581flsfree": 1082,
    "ory": 1083,
    "ttributesw": 1084,
    "ffi": 1085,
    "dfc": 1086,
    "\u2581fin": 1087,
    "\u2581registerclass": 1088,
    "offi": 1089,
    "\u2581findre": 1090,
    "\u2581file": 1091,
    "\u2581image": 1092,
    "point": 1093,
    "\u2581wait": 1094,
    "\u2581getfile": 1095,
    "offile": 1096,
    "text": 1097,
    "\u2581imagelist": 1098,
    "pa": 1099,
    "esource": 1100,
    "\u2581loadcursora": 1101,
    "prot": 1102,
    "start": 1103,
    "\u2581bor": 1104,
    "loating": 1105,
    "\u2581releas": 1106,
    "\u2581getenvironment": 1107,
    "protect": 1108,
    "\u2581getversionexw": 1109,
    "all": 1110,
    "\u2581virtualprotect": 1111,
    "back": 1112,
    "dr": 1113,
    "\u2581createfilea": 1114,
    "ink": 1115,
    "number": 1116,
    "\u2581borl": 1117,
    "mem": 1118,
    "fromstr": 1119,
    "\u2581golfinfo": 1120,
    "xffc": 1121,
    "initializ": 1122,
    "\u2581borland": 1123,
    "keyw": 1124,
    "callback": 1125,
    "dater": 1126,
    "\u2581waitfor": 1127,
    "metri": 1128,
    "\u2581setthreadpool": 1129,
    "\u2581app": 1130,
    "metrics": 1131,
    "\u2581wnet": 1132,
    "ho": 1133,
    "\u2581getsystemmetrics": 1134,
    "ask": 1135,
    "ive": 1136,
    "dateresource": 1137,
    "ata": 1138,
    "lipboard": 1139,
    "clus": 1140,
    "ver": 1141,
    "clusive": 1142,
    "rwlockex": 1143,
    "rwlockexclusive": 1144,
    "qui": 1145,
    "\u2581getthreadlocale": 1146,
    "ft": 1147,
    "work": 1148,
    "ub": 1149,
    "cp": 1150,
    "und": 1151,
    "\u2581mic": 1152,
    "ename": 1153,
    "paint": 1154,
    "put": 1155,
    "ke": 1156,
    "soft": 1157,
    "mask": 1158,
    "not": 1159,
    "\u2581str": 1160,
    "oy": 1161,
    "\u2581lstrcmpi": 1162,
    "variab": 1163,
    "ion": 1164,
    "\u2581mapvirtual": 1165,
    "\u2581floating": 1166,
    "\u2581getversionexa": 1167,
    "logi": 1168,
    "logical": 1169,
    "\u2581getlogical": 1170,
    "rosoft": 1171,
    "are": 1172,
    "lush": 1173,
    "\u2581mapvirtualkeyw": 1174,
    "buff": 1175,
    "\u2581tr": 1176,
    "\u2581ole": 1177,
    "\u2581microsoft": 1178,
    "\u2581deletefilew": 1179,
    "\u2581lstrlenw": 1180,
    "\u2581createprocess": 1181,
    "ways": 1182,
    "\u2581comp": 1183,
    "\u2581lstrcmpiw": 1184,
    "\u2581createwindow": 1185,
    "\u2581always": 1186,
    "bit": 1187,
    "\u2581initializes": 1188,
    "lw": 1189,
    "\u2581flush": 1190,
    "\u2581pr": 1191,
    "led": 1192,
    "\u2581globalalloc": 1193,
    "\u2581compare": 1194,
    "econ": 1195,
    "\u2581sprintf": 1196,
    "\u2581getsystemdirectoryw": 1197,
    "buffers": 1198,
    "\u2581sha": 1199,
    "valu": 1200,
    "pro": 1201,
    "\u2581con": 1202,
    "\u2581loadiconw": 1203,
    "drl": 1204,
    "trac": 1205,
    "link": 1206,
    "\u2581vers": 1207,
    "\u2581ch": 1208,
    "\u2581getdc": 1209,
    "\u2581verset": 1210,
    "conditionmask": 1211,
    "\u2581versetconditionmask": 1212,
    "low": 1213,
    "bug": 1214,
    "ken": 1215,
    "atex": 1216,
    "token": 1217,
    "\u2581getusername": 1218,
    "ailed": 1219,
    "quires": 1220,
    "lan": 1221,
    "stroy": 1222,
    "servicew": 1223,
    "quiresrwlockexclusive": 1224,
    "\u2581currentversion": 1225,
    "\u2581copy": 1226,
    "lect": 1227,
    "debug": 1228,
    "een": 1229,
    "\u2581up": 1230,
    "devi": 1231,
    "allock": 1232,
    "\u2581getfilea": 1233,
    "ockob": 1234,
    "\u2581getstockob": 1235,
    "printfw": 1236,
    "ocket": 1237,
    "\u2581wsprintfw": 1238,
    "drive": 1239,
    "messagew": 1240,
    "emap": 1241,
    "xcc": 1242,
    "\u2581select": 1243,
    "localename": 1244,
    "\u2581setfilea": 1245,
    "fac": 1246,
    "\u2581extrac": 1247,
    "xec": 1248,
    "guage": 1249,
    "\u2581globallock": 1250,
    "language": 1251,
    "\u2581findfirst": 1252,
    "lwapi": 1253,
    "\u2581shlwapi": 1254,
    "trl": 1255,
    "lle": 1256,
    "termin": 1257,
    "dis": 1258,
    "dateresourcea": 1259,
    "ilanguage": 1260,
    "\u2581draw": 1261,
    "fcc": 1262,
    "\u2581vari": 1263,
    "\u2581termin": 1264,
    "mute": 1265,
    "formatex": 1266,
    "\u2581shelle": 1267,
    "\u2581createsemap": 1268,
    "dcc": 1269,
    "ision": 1270,
    "system": 1271,
    "variablew": 1272,
    "rag": 1273,
    "ith": 1274,
    "\u2581gut": 1275,
    "\u2581gum": 1276,
    "\u2581findclose": 1277,
    "ero": 1278,
    "valueexw": 1279,
    "conditionvariable": 1280,
    "mutexa": 1281,
    "\u2581getm": 1282,
    "\u2581or": 1283,
    "flow": 1284,
    "\u2581e": 1285,
    "ct": 1286,
    "atch": 1287,
    "fo": 1288,
    "\u2581varb": 1289,
    "eck": 1290,
    "xffd": 1291,
    "clipboard": 1292,
    "\u2581king": 1293,
    "\u2581setmenu": 1294,
    "profile": 1295,
    "mapview": 1296,
    "help": 1297,
    "\u2581getfileattributesw": 1298,
    "\u2581getdevi": 1299,
    "cecaps": 1300,
    "\u2581getdevicecaps": 1301,
    "patch": 1302,
    "\u2581regopenkeyexa": 1303,
    "\u2581lstrlena": 1304,
    "filenamew": 1305,
    "div": 1306,
    "sub": 1307,
    "se": 1308,
    "informationby": 1309,
    "\u2581lock": 1310,
    "\u2581initialize": 1311,
    "\u2581deletecriticalsection": 1312,
    "dacl": 1313,
    "securitydescriptordacl": 1314,
    "kart": 1315,
    "karton": 1316,
    "\u2581kingkarton": 1317,
    "old": 1318,
    "eek": 1319,
    "\u2581out": 1320,
    "ush": 1321,
    "head": 1322,
    "ati": 1323,
    "brush": 1324,
    "memory": 1325,
    "listhead": 1326,
    "\u2581initializeslisthead": 1327,
    "\u2581th": 1328,
    "\u2581un": 1329,
    "\u2581send": 1330,
    "linkw": 1331,
    "\u2581createthread": 1332,
    "\u2581start": 1333,
    "\u2581failed": 1334,
    "ass": 1335,
    "\u2581gettime": 1336,
    "\u2581ntopen": 1337,
    "\u2581ntopensection": 1338,
    "\u2581createwindowexa": 1339,
    "oct": 1340,
    "sourc": 1341,
    "\u2581getenvironmentvariablew": 1342,
    "printfa": 1343,
    "hor": 1344,
    "ms": 1345,
    "sn": 1346,
    "\u2581loc": 1347,
    "\u2581wsprintfa": 1348,
    "\u2581localiz": 1349,
    "\u2581localization": 1350,
    "fold": 1351,
    "am": 1352,
    "\u2581dis": 1353,
    "\u2581findresource": 1354,
    "\u2581destroy": 1355,
    "sing": 1356,
    "\u2581end": 1357,
    "\u2581setmenuinfo": 1358,
    "\u2581initterm": 1359,
    "\u2581code": 1360,
    "\u2581gettempfilenamew": 1361,
    "\u2581getuserdefault": 1362,
    "\u2581com": 1363,
    "\u2581findfirstfilew": 1364,
    "\u2581initializesecuritydescriptor": 1365,
    "hot": 1366,
    "\u2581createw": 1367,
    "ton": 1368,
    "\u2581createt": 1369,
    "\u2581try": 1370,
    "\u2581setsecuritydescriptordacl": 1371,
    "pal": 1372,
    "palet": 1373,
    "gear": 1374,
    "\u2581codegear": 1375,
    "cel": 1376,
    "\u2581createa": 1377,
    "oper": 1378,
    "tries": 1379,
    "\u2581tryac": 1380,
    "\u2581tryacquiresrwlockexclusive": 1381,
    "ryp": 1382,
    "cectrl": 1383,
    "ym": 1384,
    "apshot": 1385,
    "oolhelp": 1386,
    "snapshot": 1387,
    "\u2581createtoolhelp": 1388,
    "pack": 1389,
    "pos": 1390,
    "stry": 1391,
    "tem": 1392,
    "closekey": 1393,
    "\u2581regclosekey": 1394,
    "\u2581enum": 1395,
    "ecomp": 1396,
    "\u2581po": 1397,
    "\u2581releasedc": 1398,
    "ain": 1399,
    "atible": 1400,
    "leob": 1401,
    "ecompatible": 1402,
    "\u2581createcompatible": 1403,
    "ont": 1404,
    "vol": 1405,
    "package": 1406,
    "\u2581findwindow": 1407,
    "inal": 1408,
    "\u2581peek": 1409,
    "packageid": 1410,
    "\u2581getcurrentpackageid": 1411,
    "wh": 1412,
    "dinal": 1413,
    "draw": 1414,
    "\u2581getlogicaldrive": 1415,
    "\u2581wake": 1416,
    "\u2581wakeall": 1417,
    "\u2581wakeallconditionvariable": 1418,
    "\u2581drag": 1419,
    "\u2581regset": 1420,
    "\u2581ordinal": 1421,
    "\u2581loadresource": 1422,
    "\u2581comparestringex": 1423,
    "xfde": 1424,
    "\u2581getlocaleinfoex": 1425,
    "efc": 1426,
    "ume": 1427,
    "\u2581append": 1428,
    "fec": 1429,
    "volume": 1430,
    "urn": 1431,
    "\u2581shget": 1432,
    "operation": 1433,
    "ymbo": 1434,
    "ymbolic": 1435,
    "\u2581wsock": 1436,
    "ymboliclinkw": 1437,
    "\u2581createsymboliclinkw": 1438,
    "\u2581of": 1439,
    "stack": 1440,
    "verflow": 1441,
    "iate": 1442,
    "vate": 1443,
    "\u2581lockresource": 1444,
    "\u2581error": 1445,
    "econdition": 1446,
    "econditionvariable": 1447,
    "\u2581cryp": 1448,
    "\u2581strn": 1449,
    "\u2581lread": 1450,
    "strfrom": 1451,
    "\u2581varbstrfrom": 1452,
    "ret": 1453,
    "\u2581createdirectorya": 1454,
    "\u2581appendw": 1455,
    "\u2581findresourc": 1456,
    "cdc": 1457,
    "\u2581ofresource": 1458,
    "\u2581findresourceexw": 1459,
    "nection": 1460,
    "\u2581message": 1461,
    "ace": 1462,
    "when": 1463,
    "return": 1464,
    "processornumber": 1465,
    "\u2581getcurrentprocessornumber": 1466,
    "processwrite": 1467,
    "\u2581flushprocesswrite": 1468,
    "\u2581closethreadpoolwait": 1469,
    "\u2581flushprocesswritebuffers": 1470,
    "returns": 1471,
    "callbacks": 1472,
    "whencallback": 1473,
    "timercallbacks": 1474,
    "\u2581setthreadpoolwait": 1475,
    "\u2581waitforthreadpool": 1476,
    "whencallbackreturns": 1477,
    "\u2581closethreadpooltimer": 1478,
    "\u2581createthreadpoolwait": 1479,
    "\u2581freelibrarywhencallbackreturns": 1480,
    "\u2581waitforthreadpooltimercallbacks": 1481,
    "horeexw": 1482,
    "\u2581createsemaphoreexw": 1483,
    "\u2581setthreadpooltimer": 1484,
    "\u2581createthreadpooltimer": 1485,
    "singleob": 1486,
    "init": 1487,
    "\u2581hton": 1488,
    "assoc": 1489,
    "\u2581the": 1490,
    "variablea": 1491,
    "\u2581extract": 1492,
    "\u2581waitforsingleob": 1493,
    "windowproc": 1494,
    "\u2581no": 1495,
    "utes": 1496,
    "\u2581strncmp": 1497,
    "\u2581getsysteminfo": 1498,
    "cy": 1499,
    "enum": 1500,
    "\u2581findresourcew": 1501,
    "associate": 1502,
    "dicon": 1503,
    "associatedicon": 1504,
    "\u2581extractassociatedicon": 1505,
    "ok": 1506,
    "\u2581peekmessagea": 1507,
    "\u2581messagebo": 1508,
    "sti": 1509,
    "\u2581beginup": 1510,
    "nal": 1511,
    "host": 1512,
    "\u2581createmutexa": 1513,
    "\u2581font": 1514,
    "\u2581hg": 1515,
    "ong": 1516,
    "stit": 1517,
    "\u2581hgdraw": 1518,
    "meto": 1519,
    "\u2581findnext": 1520,
    "\u2581mon": 1521,
    "trol": 1522,
    "substit": 1523,
    "substitutes": 1524,
    "\u2581fontsubstitutes": 1525,
    "private": 1526,
    "state": 1527,
    "windows": 1528,
    "privateprofile": 1529,
    "\u2581update": 1530,
    "\u2581def": 1531,
    "errormode": 1532,
    "\u2581seterrormode": 1533,
    "\u2581setthread": 1534,
    "\u2581getdate": 1535,
    "ddc": 1536,
    "sup": 1537,
    "\u2581seten": 1538,
    "xecute": 1539,
    "\u2581shellexecute": 1540,
    "\u2581show": 1541,
    "\u2581setwindow": 1542,
    "feba": 1543,
    "own": 1544,
    "cpyn": 1545,
    "\u2581lstrcpyn": 1546,
    "\u2581globalfree": 1547,
    "\u2581regsetvalueexw": 1548,
    "\u2581getcurrentdirectoryw": 1549,
    "spac": 1550,
    "\u2581post": 1551,
    "\u2581crypt": 1552,
    "\u2581with": 1553,
    "yo": 1554,
    "bfc": 1555,
    "\u2581loadlibraryw": 1556,
    "image": 1557,
    "\u2581setup": 1558,
    "\u2581beginpaint": 1559,
    "\u2581getusernamea": 1560,
    "\u2581endpaint": 1561,
    "tered": 1562,
    "\u2581altered": 1563,
    "ust": 1564,
    "ternal": 1565,
    "\u2581setc": 1566,
    "\u2581trans": 1567,
    "lec": 1568,
    "\u2581defwindowproc": 1569,
    "endoffile": 1570,
    "nextw": 1571,
    "\u2581getmessagea": 1572,
    "\u2581getmain": 1573,
    "\u2581golfset": 1574,
    "dl": 1575,
    "bitmap": 1576,
    "\u2581gettempa": 1577,
    "\u2581windowsnt": 1578,
    "volumeinformation": 1579,
    "\u2581getvolumeinformation": 1580,
    "\u2581transla": 1581,
    "cpy": 1582,
    "long": 1583,
    "\u2581setfileattributesw": 1584,
    "\u2581devi": 1585,
    "cfc": 1586,
    "\u2581deletefilea": 1587,
    "\u2581registry": 1588,
    "\u2581coinitializ": 1589,
    "lphi": 1590,
    "\u2581delphi": 1591,
    "quit": 1592,
    "cad": 1593,
    "ccc": 1594,
    "ator": 1595,
    "fer": 1596,
    "\u2581createprocessw": 1597,
    "\u2581wc": 1598,
    "unlock": 1599,
    "\u2581device": 1600,
    "\u2581ra": 1601,
    "\u2581getkey": 1602,
    "eexception": 1603,
    "\u2581rais": 1604,
    "\u2581raiseexception": 1605,
    "uni": 1606,
    "\u2581remo": 1607,
    "\u2581openprocess": 1608,
    "\u2581globalunlock": 1609,
    "untime": 1610,
    "out": 1611,
    "\u2581check": 1612,
    "\u2581showwindow": 1613,
    "\u2581registerclassexa": 1614,
    "refer": 1615,
    "ray": 1616,
    "erator": 1617,
    "ange": 1618,
    "\u2581rec": 1619,
    "\u2581getwindow": 1620,
    "\u2581translate": 1621,
    "ger": 1622,
    "privi": 1623,
    "localtime": 1624,
    "privile": 1625,
    "input": 1626,
    "\u2581getkeyboard": 1627,
    "mapviewof": 1628,
    "mapviewofsection": 1629,
    "unicode": 1630,
    "anag": 1631,
    "bce": 1632,
    "securityinfo": 1633,
    "\u2581messageboxa": 1634,
    "unicodestring": 1635,
    "\u2581rtlinit": 1636,
    "lecs": 1637,
    "variablecs": 1638,
    "\u2581sleepcondition": 1639,
    "\u2581sleepconditionvariablecs": 1640,
    "\u2581updatewindow": 1641,
    "\u2581rtlinitunicodestring": 1642,
    "stringsa": 1643,
    "os": 1644,
    "fdc": 1645,
    "disk": 1646,
    "\u2581getlocaltime": 1647,
    "diskfree": 1648,
    "diskfreespac": 1649,
    "\u2581getdiskfreespac": 1650,
    "allocate": 1651,
    "\u2581txt": 1652,
    "uter": 1653,
    "gro": 1654,
    "ysi": 1655,
    "iv": 1656,
    "sid": 1657,
    "ows": 1658,
    "computer": 1659,
    "redu": 1660,
    "referredu": 1661,
    "referreduilanguage": 1662,
    "threadp": 1663,
    "threadpreferreduilanguage": 1664,
    "\u2581postquit": 1665,
    "\u2581postquitmessage": 1666,
    "threadpreferreduilanguages": 1667,
    "hysi": 1668,
    "\u2581dispatch": 1669,
    "\u2581wi": 1670,
    "bits": 1671,
    "\u2581physi": 1672,
    "\u2581physical": 1673,
    "\u2581malloc": 1674,
    "arg": 1675,
    "zero": 1676,
    "\u2581registerclassexw": 1677,
    "new": 1678,
    "\u2581err": 1679,
    "\u2581recv": 1680,
    "\u2581unhandledexceptionfilter": 1681,
    "\u2581enumsystem": 1682,
    "fore": 1683,
    "ateprocess": 1684,
    "hlp": 1685,
    "manag": 1686,
    "\u2581variant": 1687,
    "debugger": 1688,
    "debuggerpresent": 1689,
    "\u2581ma": 1690,
    "lete": 1691,
    "\u2581isdebuggerpresent": 1692,
    "\u2581op": 1693,
    "\u2581terminateprocess": 1694,
    "if": 1695,
    "servicehandle": 1696,
    "\u2581closeservicehandle": 1697,
    "hlpapi": 1698,
    "ception": 1699,
    "folderw": 1700,
    "\u2581sat": 1701,
    "ttributesa": 1702,
    "array": 1703,
    "\u2581res": 1704,
    "pe": 1705,
    "rit": 1706,
    "base": 1707,
    "ddf": 1708,
    "\u2581au": 1709,
    "\u2581enumsystemlocales": 1710,
    "\u2581resum": 1711,
    "\u2581resumethread": 1712,
    "deb": 1713,
    "\u2581translatemessage": 1714,
    "\u2581point": 1715,
    "\u2581writ": 1716,
    "\u2581prec": 1717,
    "\u2581errata": 1718,
    "\u2581precision": 1719,
    "\u2581writec": 1720,
    "variant": 1721,
    "typ": 1722,
    "\u2581getuserdefaultlocalename": 1723,
    "\u2581getdateformatex": 1724,
    "\u2581isvalidlocalename": 1725,
    "\u2581gettimeformatex": 1726,
    "\u2581enumsystemlocalesex": 1727,
    "ogra": 1728,
    "hange": 1729,
    "\u2581registerwindow": 1730,
    "\u2581mo": 1731,
    "xchange": 1732,
    "\u2581nov": 1733,
    "\u2581sep": 1734,
    "dad": 1735,
    "\u2581q": 1736,
    "ede": 1737,
    "ull": 1738,
    "ecc": 1739,
    "\u2581exitthread": 1740,
    "ground": 1741,
    "\u2581oct": 1742,
    "alog": 1743,
    "ember": 1744,
    "\u2581getsystemdirectorya": 1745,
    "nect": 1746,
    "\u2581sun": 1747,
    "teen": 1748,
    "wind": 1749,
    "paletteen": 1750,
    "paletteentries": 1751,
    "\u2581wine": 1752,
    "\u2581msvcr": 1753,
    "xffff": 1754,
    "scmanag": 1755,
    "\u2581openscmanag": 1756,
    "ogram": 1757,
    "uary": 1758,
    "msg": 1759,
    "\u2581may": 1760,
    "\u2581copyfilew": 1761,
    "sday": 1762,
    "\u2581tue": 1763,
    "\u2581wed": 1764,
    "\u2581findnextfilew": 1765,
    "unwind": 1766,
    "\u2581rtlunwind": 1767,
    "texta": 1768,
    "\u2581fri": 1769,
    "\u2581olea": 1770,
    "\u2581createprocessa": 1771,
    "namew": 1772,
    "atethread": 1773,
    "foreground": 1774,
    "foregroundwindow": 1775,
    "\u2581initializeconditionvariable": 1776,
    "\u2581terminatethread": 1777,
    "\u2581output": 1778,
    "hread": 1779,
    "\u2581outputdebug": 1780,
    "suped": 1781,
    "\u2581getsystempaletteentries": 1782,
    "\u2581getenvironmentvariablea": 1783,
    "\u2581floatingpoint": 1784,
    "\u2581invalidvariant": 1785,
    "byzero": 1786,
    "isionbyzero": 1787,
    "\u2581getlogicalprocessor": 1788,
    "\u2581getlogicalprocessorinformation": 1789,
    "delete": 1790,
    "mapp": 1791,
    "\u2581winexec": 1792,
    "ffc": 1793,
    "guar": 1794,
    "mapping": 1795,
    "filemapping": 1796,
    "down": 1797,
    "antee": 1798,
    "guarantee": 1799,
    "stackguarantee": 1800,
    "\u2581setthreadstackguarantee": 1801,
    "\u2581varr": 1802,
    "add": 1803,
    "fearray": 1804,
    "\u2581getfileinformationby": 1805,
    "uilanguage": 1806,
    "ater": 1807,
    "dbd": 1808,
    "ty": 1809,
    "enthread": 1810,
    "\u2581openscmanagerw": 1811,
    "\u2581openthread": 1812,
    "antor": 1813,
    "antorsa": 1814,
    "antorsafearray": 1815,
    "\u2581getsyscolorbrush": 1816,
    "full": 1817,
    "oem": 1818,
    "\u2581createfilemapping": 1819,
    "spec": 1820,
    "\u2581getusernamew": 1821,
    "load": 1822,
    "\u2581dispatchmessagea": 1823,
    "log": 1824,
    "\u2581getoem": 1825,
    "\u2581getoemcp": 1826,
    "\u2581getfileinformationbyhandl": 1827,
    "\u2581regquery": 1828,
    "bk": 1829,
    "edi": 1830,
    "\u2581bat": 1831,
    "\u2581getcomputer": 1832,
    "\u2581msc": 1833,
    "bl": 1834,
    "\u2581san": 1835,
    "cep": 1836,
    "\u2581deleteob": 1837,
    "\u2581flushfile": 1838,
    "\u2581flushfilebuffers": 1839,
    "aac": 1840,
    "afc": 1841,
    "\u2581setfileinformationby": 1842,
    "\u2581createfilemappinga": 1843,
    "\u2581createexw": 1844,
    "bcb": 1845,
    "\u2581exed": 1846,
    "\u2581exedows": 1847,
    "dda": 1848,
    "fdr": 1849,
    "\u2581sanfdr": 1850,
    "\u2581registerwindowmessagew": 1851,
    "\u2581program": 1852,
    "namea": 1853,
    "\u2581setfileattributesa": 1854,
    "blt": 1855,
    "ystate": 1856,
    "\u2581setbk": 1857,
    "lid": 1858,
    "eto": 1859,
    "\u2581mul": 1860,
    "\u2581muldiv": 1861,
    "aterect": 1862,
    "\u2581setst": 1863,
    "\u2581setstdhandle": 1864,
    "\u2581copyfilea": 1865,
    "\u2581getforegroundwindow": 1866,
    "\u2581mapview": 1867,
    "\u2581form": 1868,
    "ioc": 1869,
    "\u2581defwindowproca": 1870,
    "cept": 1871,
    "\u2581mapviewoffile": 1872,
    "eca": 1873,
    "\u2581allocate": 1874,
    "uld": 1875,
    "\u2581selectob": 1876,
    "tout": 1877,
    "\u2581ver": 1878,
    "ded": 1879,
    "\u2581tex": 1880,
    "\u2581textout": 1881,
    "ated": 1882,
    "\u2581getprivateprofile": 1883,
    "\u2581getwindows": 1884,
    "\u2581comm": 1885,
    "\u2581setwindowpos": 1886,
    "\u2581setbkcolor": 1887,
    "\u2581settext": 1888,
    "tex": 1889,
    "\u2581oleaut": 1890,
    "fff": 1891,
    "ist": 1892,
    "privileg": 1893,
    "\u2581deletedc": 1894,
    "numberis": 1895,
    "ebc": 1896,
    "\u2581getke": 1897,
    "\u2581getkeystate": 1898,
    "\u2581registers": 1899,
    "versioninfow": 1900,
    "speci": 1901,
    "setinformation": 1902,
    "ify": 1903,
    "uldnot": 1904,
    "\u2581verify": 1905,
    "\u2581registerservi": 1906,
    "\u2581settextcolor": 1907,
    "cectrlhandl": 1908,
    "\u2581registerservicectrlhandl": 1909,
    "\u2581tlsfree": 1910,
    "ontin": 1911,
    "valuew": 1912,
    "internal": 1913,
    "\u2581fileti": 1914,
    "\u2581filetimeto": 1915,
    "errornumberis": 1916,
    "\u2581programinternal": 1917,
    "\u2581programinternalerrornumberis": 1918,
    "eab": 1919,
    "\u2581getmenu": 1920,
    "\u2581heapsetinformation": 1921,
    "\u2581geticon": 1922,
    "item": 1923,
    "\u2581accept": 1924,
    "\u2581wsa": 1925,
    "startup": 1926,
    "\u2581verifyversioninfow": 1927,
    "ctl": 1928,
    "\u2581comctl": 1929,
    "\u2581coinitializeex": 1930,
    "\u2581setendoffile": 1931,
    "\u2581sendmessagea": 1932,
    "files": 1933,
    "atw": 1934,
    "\u2581createdi": 1935,
    "\u2581getdi": 1936,
    "accel": 1937,
    "\u2581wsastartup": 1938,
    "utex": 1939,
    "\u2581bit": 1940,
    "\u2581interlockede": 1941,
    "\u2581interlockedexchange": 1942,
    "inthe": 1943,
    "dispatch": 1944,
    "servicectrl": 1945,
    "\u2581startservicectrl": 1946,
    "\u2581startservicectrldispatch": 1947,
    "\u2581createcompatibledc": 1948,
    "beloc": 1949,
    "\u2581bitblt": 1950,
    "belocated": 1951,
    "\u2581setservice": 1952,
    "\u2581setservicestatus": 1953,
    "dcon": 1954,
    "imagebase": 1955,
    "\u2581drawtexta": 1956,
    "\u2581getlogicaldrivestringsa": 1957,
    "\u2581shellexecutew": 1958,
    "lation": 1959,
    "longa": 1960,
    "emutex": 1961,
    "\u2581releasemutex": 1962,
    "\u2581unmapview": 1963,
    "\u2581unmapviewoffile": 1964,
    "uldnotbelocated": 1965,
    "uldnotbelocatedinthe": 1966,
    "firstw": 1967,
    "\u2581createcompatiblebitmap": 1968,
    "\u2581getob": 1969,
    "socket": 1970,
    "\u2581closesocket": 1971,
    "can": 1972,
    "\u2581setenvironment": 1973,
    "\u2581createf": 1974,
    "\u2581fill": 1975,
    "dup": 1976,
    "\u2581settimer": 1977,
    "\u2581invalidaterect": 1978,
    "usp": 1979,
    "esid": 1980,
    "andinitializ": 1981,
    "andinitializesid": 1982,
    "\u2581allocateandinitializesid": 1983,
    "\u2581u": 1984,
    "acb": 1985,
    "\u2581move": 1986,
    "\u2581mpr": 1987,
    "\u2581destroyicon": 1988,
    "\u2581textouta": 1989,
    "ene": 1990,
    "ontindirect": 1991,
    "\u2581createfontindirect": 1992,
    "lipboar": 1993,
    "\u2581isw": 1994,
    "accelerator": 1995,
    "\u2581openservicew": 1996,
    "\u2581theproc": 1997,
    "ffd": 1998,
    "ecd": 1999,
    "\u2581getdibits": 2000,
    "solid": 2001,
    "ons": 2002,
    "\u2581fillrect": 2003,
    "bar": 2004,
    "\u2581startservicew": 2005,
    "\u2581startservicectrldispatcherw": 2006,
    "\u2581susp": 2007,
    "ddata": 2008,
    "lipboarddata": 2009,
    "solidbrush": 2010,
    "\u2581createservicew": 2011,
    "\u2581createsolidbrush": 2012,
    "\u2581suspend": 2013,
    "\u2581suspendthread": 2014,
    "\u2581freesid": 2015,
    "rand": 2016,
    "\u2581getclass": 2017,
    "\u2581getkeyboardstate": 2018,
    "cef": 2019,
    "\u2581geticoninfo": 2020,
    "\u2581findwindowa": 2021,
    "\u2581setclass": 2022,
    "losec": 2023,
    "olec": 2024,
    "\u2581cb": 2025,
    "opene": 2026,
    "\u2581drawicon": 2027,
    "\u2581emp": 2028,
    "\u2581openclipboard": 2029,
    "\u2581closec": 2030,
    "\u2581closeclipboard": 2031,
    "yarg": 2032,
    "utdown": 2033,
    "ced": 2034,
    "\u2581setclipboarddata": 2035,
    "\u2581empty": 2036,
    "\u2581emptyclipboard": 2037,
    "\u2581registerclassa": 2038,
    "dab": 2039,
    "ecta": 2040,
    "\u2581htons": 2041,
    "hore": 2042,
    "\u2581socket": 2043,
    "\u2581createdib": 2044,
    "phlpapi": 2045,
    "hip": 2046,
    "\u2581createfontindirecta": 2047,
    "members": 2048,
    "\u2581connect": 2049,
    "bcf": 2050,
    "membership": 2051,
    "\u2581checktoken": 2052,
    "\u2581checktokenmembership": 2053,
    "\u2581net": 2054,
    "leex": 2055,
    "your": 2056,
    "\u2581getlogicaldrivestringsw": 2057,
    "\u2581createdibsection": 2058,
    "xecut": 2059,
    "\u2581gethost": 2060,
    "openenum": 2061,
    "\u2581wnetopenenum": 2062,
    "\u2581bind": 2063,
    "\u2581wnetopenenumw": 2064,
    "\u2581createwindowexw": 2065,
    "byname": 2066,
    "\u2581gethostbyname": 2067,
    "connection": 2068,
    "addcon": 2069,
    "\u2581wnetaddcon": 2070,
    "\u2581wnetaddconnection": 2071,
    "resourcew": 2072,
    "\u2581runtime": 2073,
    "\u2581wnetenum": 2074,
    "\u2581wnetenumresourcew": 2075,
    "cancel": 2076,
    "\u2581wnetcancel": 2077,
    "\u2581wnetcancelconnection": 2078,
    "\u2581shellexecut": 2079,
    "emory": 2080,
    "\u2581iswow": 2081,
    "tic": 2082,
    "\u2581setclasslonga": 2083,
    "xca": 2084,
    "zer": 2085,
    "\u2581z": 2086,
    "\u2581shellexecuteexw": 2087,
    "\u2581list": 2088,
    "xac": 2089,
    "\u2581type": 2090,
    "\u2581extractassociatedicona": 2091,
    "\u2581extractassociatediconw": 2092,
    "geo": 2093,
    "\u2581shutdown": 2094,
    "zerom": 2095,
    "\u2581rtlzerom": 2096,
    "\u2581rtlzeromemory": 2097,
    "\u2581comparestringw": 2098,
    "dateresourcew": 2099,
    "\u2581findwindowexa": 2100,
    "\u2581endup": 2101,
    "\u2581writeconsole": 2102,
    "\u2581registerservicectrlhandlerw": 2103,
    "aff": 2104,
    "\u2581updateresourcea": 2105,
    "\u2581endupdateresourcea": 2106,
    "\u2581beginupdateresourcea": 2107,
    "geoid": 2108,
    "\u2581getusergeoid": 2109,
    "\u2581beginupdateresourcew": 2110,
    "\u2581htonl": 2111,
    "ticonex": 2112,
    "\u2581extracticonex": 2113,
    "\u2581writeconsolew": 2114,
    "\u2581extracticonexw": 2115,
    "octls": 2116,
    "\u2581ioctls": 2117,
    "\u2581ioctlsocket": 2118,
    "edd": 2119,
    "\u2581listen": 2120,
    "onsolec": 2121,
    "\u2581getconsolec": 2122,
    "\u2581getconsolemode": 2123,
    "\u2581shgetfolderw": 2124,
    "\u2581getpe": 2125,
    "ername": 2126,
    "\u2581getpeername": 2127,
    "rectory": 2128,
    "eac": 2129,
    "\u2581iphlpapi": 2130,
    "\u2581getconsolecp": 2131,
    "\u2581ls": 2132,
    "once": 2133,
    "edu": 2134,
    "edure": 2135,
    "\u2581lstrcpy": 2136,
    "\u2581regdelete": 2137,
    "\u2581outputdebugstringa": 2138,
    "eec": 2139,
    "bcc": 2140,
    "\u2581regqueryvalueexw": 2141,
    "par": 2142,
    "\u2581control": 2143,
    "\u2581dup": 2144,
    "dos": 2145,
    "ang": 2146,
    "\u2581getthreadpreferreduilanguages": 2147,
    "\u2581to": 2148,
    "\u2581duplic": 2149,
    "ontrol": 2150,
    "vchost": 2151,
    "ebf": 2152,
    "\u2581svchost": 2153,
    "ofc": 2154,
    "formatw": 2155,
    "vio": 2156,
    "febf": 2157,
    "\u2581getcomputernamea": 2158,
    "\u2581getmess": 2159,
    "\u2581initializesrwlock": 2160,
    "fbc": 2161,
    "\u2581fmode": 2162,
    "\u2581acquiresrwlockexclusive": 2163,
    "\u2581format": 2164,
    "iocontrol": 2165,
    "\u2581he": 2166,
    "\u2581deviceiocontrol": 2167,
    "processmemory": 2168,
    "adm": 2169,
    "pla": 2170,
    "xab": 2171,
    "keyexw": 2172,
    "\u2581failedto": 2173,
    "\u2581srand": 2174,
    "app": 2175,
    "violation": 2176,
    "dff": 2177,
    "\u2581getdiskfreespaceexw": 2178,
    "ols": 2179,
    "\u2581work": 2180,
    "\u2581createsemaphore": 2181,
    "querys": 2182,
    "inki": 2183,
    "\u2581hels": 2184,
    "\u2581helsinki": 2185,
    "aaaa": 2186,
    "xad": 2187,
    "xcf": 2188,
    "\u2581st": 2189,
    "\u2581releases": 2190,
    "izn": 2191,
    "iznadm": 2192,
    "\u2581triznadm": 2193,
    "\u2581remov": 2194,
    "heck": 2195,
    "lication": 2196,
    "querysystem": 2197,
    "querysysteminformation": 2198,
    "ernet": 2199,
    "folder": 2200,
    "\u2581regenum": 2201,
    "eexa": 2202,
    "xaa": 2203,
    "\u2581mscms": 2204,
    "\u2581openmutexa": 2205,
    "\u2581di": 2206,
    "palette": 2207,
    "\u2581v": 2208,
    "slen": 2209,
    "hook": 2210,
    "\u2581getnumber": 2211,
    "ofconsole": 2212,
    "\u2581getnumberofconsole": 2213,
    "nex": 2214,
    "cac": 2215,
    "\u2581systemtim": 2216,
    "\u2581ntquerysysteminformation": 2217,
    "trols": 2218,
    "dbg": 2219,
    "\u2581wcslen": 2220,
    "\u2581pec": 2221,
    "dbgmsg": 2222,
    "any": 2223,
    "bdc": 2224,
    "edirectory": 2225,
    "unmapviewofsection": 2226,
    "\u2581ntunmapviewofsection": 2227,
    "inac": 2228,
    "triesinac": 2229,
    "\u2581setentriesinac": 2230,
    "initialize": 2231,
    "\u2581getsecurityinfo": 2232,
    "\u2581ntmapviewofsection": 2233,
    "\u2581gb": 2234,
    "metofiletime": 2235,
    "pi": 2236,
    "\u2581accessviolation": 2237,
    "\u2581setentriesinacla": 2238,
    "\u2581shellexecutea": 2239,
    "controls": 2240,
    "statust": 2241,
    "odos": 2242,
    "\u2581rtlnt": 2243,
    "odoserror": 2244,
    "\u2581rtlntstatust": 2245,
    "\u2581rtlntstatustodoserror": 2246,
    "\u2581fe": 2247,
    "inputs": 2248,
    "\u2581getnumberofconsoleinputs": 2249,
    "\u2581setsecurityinfo": 2250,
    "\u2581physicalmemory": 2251,
    "mod": 2252,
    "etofiletime": 2253,
    "\u2581systemtimetofiletime": 2254,
    "\u2581getthreaduilanguage": 2255,
    "\u2581inst": 2256,
    "gen": 2257,
    "\u2581remove": 2258,
    "destroy": 2259,
    "dlg": 2260,
    "\u2581mar": 2261,
    "ebe": 2262,
    "\u2581new": 2263,
    "\u2581lcmapstringa": 2264,
    "\u2581sn": 2265,
    "\u2581removedirectory": 2266,
    "instruction": 2267,
    "\u2581localfree": 2268,
    "under": 2269,
    "\u2581lstrcmpa": 2270,
    "\u2581exception": 2271,
    "\u2581lstrcpynw": 2272,
    "\u2581localfileti": 2273,
    "\u2581localfiletimetofiletime": 2274,
    "fbf": 2275,
    "\u2581getstringtypea": 2276,
    "tra": 2277,
    "\u2581physicaldrive": 2278,
    "\u2581ass": 2279,
    "\u2581writeprivateprofile": 2280,
    "cbc": 2281,
    "\u2581wcsc": 2282,
    "ecall": 2283,
    "faa": 2284,
    "echeck": 2285,
    "inst": 2286,
    "une": 2287,
    "no": 2288,
    "xae": 2289,
    "ceex": 2290,
    "\u2581wcscpy": 2291,
    "dex": 2292,
    "feb": 2293,
    "bec": 2294,
    "failed": 2295,
    "\u2581releasesrwlockexclusive": 2296,
    "exception": 2297,
    "\u2581theprocedure": 2298,
    "ins": 2299,
    "\u2581setcurrent": 2300,
    "xfffe": 2301,
    "gument": 2302,
    "ority": 2303,
    "\u2581snap": 2304,
    "argument": 2305,
    "\u2581septem": 2306,
    "eextra": 2307,
    "ied": 2308,
    "\u2581feb": 2309,
    "ccess": 2310,
    "creating": 2311,
    "infoa": 2312,
    "\u2581loadaccelerator": 2313,
    "ise": 2314,
    "\u2581febr": 2315,
    "xffba": 2316,
    "ssp": 2317,
    "xffbb": 2318,
    "ceffc": 2319,
    "ober": 2320,
    "gust": 2321,
    "pril": 2322,
    "\u2581apr": 2323,
    "\u2581aug": 2324,
    "\u2581april": 2325,
    "\u2581august": 2326,
    "\u2581november": 2327,
    "\u2581september": 2328,
    "\u2581div": 2329,
    "bound": 2330,
    "xffbe": 2331,
    "xffbd": 2332,
    "xfffd": 2333,
    "\u2581interfac": 2334,
    "xffbc": 2335,
    "anget": 2336,
    "xfffc": 2337,
    "xffbf": 2338,
    "\u2581outof": 2339,
    "\u2581outofmemory": 2340,
    "ash": 2341,
    "anuary": 2342,
    "\u2581march": 2343,
    "\u2581february": 2344,
    "uly": 2345,
    "index": 2346,
    "\u2581december": 2347,
    "\u2581october": 2348,
    "\u2581createsemaphorew": 2349,
    "\u2581thu": 2350,
    "nesday": 2351,
    "\u2581monday": 2352,
    "\u2581sunday": 2353,
    "\u2581tuesday": 2354,
    "\u2581wednesday": 2355,
    "ursday": 2356,
    "\u2581thursday": 2357,
    "\u2581createpalette": 2358,
    "urday": 2359,
    "\u2581friday": 2360,
    "\u2581saturday": 2361,
    "found": 2362,
    "adwork": 2363,
    "den": 2364,
    "textw": 2365,
    "afecall": 2366,
    "ffcb": 2367,
    "bbd": 2368,
    "ond": 2369,
    "\u2581sub": 2370,
    "xfffb": 2371,
    "\u2581interfacen": 2372,
    "\u2581inte": 2373,
    "\u2581asser": 2374,
    "changet": 2375,
    "\u2581variantchanget": 2376,
    "\u2581stack": 2377,
    "ageextra": 2378,
    "ageextrainfo": 2379,
    "\u2581getmessageextrainfo": 2380,
    "vis": 2381,
    "\u2581external": 2382,
    "xffcd": 2383,
    "\u2581assertion": 2384,
    "mit": 2385,
    "\u2581initon": 2386,
    "prec": 2387,
    "ceexecute": 2388,
    "ceexecuteonce": 2389,
    "\u2581initonceexecuteonce": 2390,
    "privileged": 2391,
    "insafecall": 2392,
    "\u2581exceptioninsafecall": 2393,
    "xffaa": 2394,
    "\u2581disk": 2395,
    "calls": 2396,
    "ecast": 2397,
    "underflow": 2398,
    "denied": 2399,
    "efd": 2400,
    "bool": 2401,
    "\u2581privileged": 2402,
    "\u2581chit": 2403,
    "bounds": 2404,
    "classtyp": 2405,
    "notsuped": 2406,
    "classtypecast": 2407,
    "leaccess": 2408,
    "overflow": 2409,
    "callsnotsuped": 2410,
    "\u2581errorcreating": 2411,
    "\u2581assertionfailed": 2412,
    "\u2581invalidclasstypecast": 2413,
    "\u2581variantcallsnotsuped": 2414,
    "\u2581floatingpointunderflow": 2415,
    "\u2581rang": 2416,
    "typecon": 2417,
    "\u2581rangecheck": 2418,
    "typeconversion": 2419,
    "\u2581stackoverflow": 2420,
    "pointeroperation": 2421,
    "\u2581privilegedinstruction": 2422,
    "\u2581invalidvariantoperation": 2423,
    "\u2581invalidvarianttypeconversion": 2424,
    "pointo": 2425,
    "\u2581integ": 2426,
    "otsuped": 2427,
    "indexout": 2428,
    "pointoverflow": 2429,
    "divisionbyzero": 2430,
    "\u2581externalexception": 2431,
    "\u2581interfacenotsuped": 2432,
    "\u2581floatingpointoverflow": 2433,
    "\u2581floatingpointdivisionbyzero": 2434,
    "floating": 2435,
    "ofbounds": 2436,
    "\u2581integero": 2437,
    "floatingpoint": 2438,
    "\u2581divisionbyzero": 2439,
    "indexoutofbounds": 2440,
    "\u2581integeroverflow": 2441,
    "\u2581rangecheckerror": 2442,
    "\u2581invalidfloatingpoint": 2443,
    "\u2581invalidpointeroperation": 2444,
    "\u2581invalidfloatingpointoperation": 2445,
    "bey": 2446,
    "omany": 2447,
    "xfffa": 2448,
    "beyond": 2449,
    "numeric": 2450,
    "\u2581toomany": 2451,
    "openfiles": 2452,
    "\u2581diskfull": 2453,
    "\u2581readbeyond": 2454,
    "numericinput": 2455,
    "\u2581invalidfilename": 2456,
    "\u2581toomanyopenfiles": 2457,
    "\u2581invalidnumericinput": 2458,
    "\u2581readbeyondendoffile": 2459,
    "\u2581fileaccess": 2460,
    "\u2581fileaccessdenied": 2461,
    "\u2581varbstrfrombool": 2462,
    "precise": 2463,
    "preciseasfiletime": 2464,
    "\u2581getsystemtimepreciseasfiletime": 2465,
    "ypeex": 2466,
    "\u2581variantchangetypeex": 2467,
    "special": 2468,
    "\u2581shgetspecial": 2469,
    "xffce": 2470,
    "\u2581getfileinformationbyhandleex": 2471,
    "neg": 2472,
    "xffcf": 2473,
    "\u2581varadd": 2474,
    "\u2581varneg": 2475,
    "\u2581varnot": 2476,
    "\u2581varsub": 2477,
    "mul": 2478,
    "xor": 2479,
    "idiv": 2480,
    "\u2581varcy": 2481,
    "\u2581varor": 2482,
    "\u2581varand": 2483,
    "\u2581varcmp": 2484,
    "\u2581vardiv": 2485,
    "\u2581varmod": 2486,
    "\u2581varmul": 2487,
    "\u2581varxor": 2488,
    "\u2581varbool": 2489,
    "\u2581vardate": 2490,
    "\u2581varidiv": 2491,
    "\u2581varcyfromstr": 2492,
    "\u2581varbstrfromcy": 2493,
    "\u2581varboolfromstr": 2494,
    "\u2581vardatefromstr": 2495,
    "\u2581varbstrfromdate": 2496,
    "srw": 2497,
    "cadwork": 2498,
    "\u2581gdip": 2499,
    "\u2581snapprocess": 2500,
    "aab": 2501,
    "conditionvariablesrw": 2502,
    "\u2581sleepconditionvariablesrw": 2503,
    "bbe": 2504,
    "dri": 2505,
    "tokeninformation": 2506,
    "variantorsafearray": 2507,
    "\u2581errorcreatingvariantorsafearray": 2508,
    "\u2581wak": 2509,
    "\u2581invalidargument": 2510,
    "\u2581variantorsafearray": 2511,
    "\u2581wakeconditionvariable": 2512,
    "\u2581variantorsafearrayindexoutofbounds": 2513,
    "reque": 2514,
    "\u2581regcreate": 2515,
    "\u2581gettokeninformation": 2516,
    "itor": 2517,
    "\u2581submit": 2518,
    "\u2581setfileinformationbyhandle": 2519,
    "threadpoolwork": 2520,
    "\u2581closethreadpoolwork": 2521,
    "\u2581createthreadpoolwork": 2522,
    "\u2581submitthreadpoolwork": 2523,
    "lasses": 2524,
    "\u2581loadacceleratorsw": 2525,
    "\u2581openprocesstoken": 2526,
    "ervice": 2527,
    "xcb": 2528,
    "eace": 2529,
    "bdf": 2530,
    "\u2581vc": 2531,
    "\u2581setthreadpreferreduilanguages": 2532,
    "\u2581lstrcpyna": 2533,
    "param": 2534,
    "\u2581int": 2535,
    "\u2581contr": 2536,
    "ffca": 2537,
    "regi": 2538,
    "baf": 2539,
    "olfp": 2540,
    "\u2581controlfp": 2541,
    "\u2581commode": 2542,
    "\u2581getprivateprofilesection": 2543,
    "\u2581kk": 2544,
    "userw": 2545,
    "daa": 2546,
    "\u2581setfilepointerex": 2547,
    "runtime": 2548,
    "xaf": 2549,
    "\u2581em": 2550,
    "\u2581log": 2551,
    "eedf": 2552,
    "afcdff": 2553,
    "sspace": 2554,
    "\u2581vcruntime": 2555,
    "\u2581isspace": 2556,
    "\u2581coinitialize": 2557,
    "roll": 2558,
    "\u2581getwindowsdirectorya": 2559,
    "ase": 2560,
    "\u2581getcursor": 2561,
    "logon": 2562,
    "ld": 2563,
    "xfc": 2564,
    "\u2581hd": 2565,
    "ffcbff": 2566,
    "ffcaffcbff": 2567,
    "afcdffceffc": 2568,
    "\u2581setenvironmentvariablea": 2569,
    "\u2581setfileinformationbyhandlew": 2570,
    "\u2581getfileinformationbyhandleexw": 2571,
    "box": 2572,
    "win": 2573,
    "\u2581formatmessagew": 2574,
    "with": 2575,
    "\u2581cd": 2576,
    "xfeedf": 2577,
    "\u2581defwindowprocw": 2578,
    "igin": 2579,
    "iginal": 2580,
    "\u2581internet": 2581,
    "dregen": 2582,
    "\u2581hddregen": 2583,
    "\u2581hddregenerator": 2584,
    "\u2581classes": 2585,
    "\u2581duplicate": 2586,
    "\u2581heapdestroy": 2587,
    "\u2581duplicatehandle": 2588,
    "xffab": 2589,
    "ctrl": 2590,
    "exit": 2591,
    "ncy": 2592,
    "barcad": 2593,
    "barcadero": 2594,
    "\u2581embarcadero": 2595,
    "atab": 2596,
    "common": 2597,
    "xffac": 2598,
    "requency": 2599,
    "\u2581initcommon": 2600,
    "\u2581initcommoncontrols": 2601,
    "atabase": 2602,
    "cefrequency": 2603,
    "\u2581queryperformancefrequency": 2604,
    "listmsg": 2605,
    "\u2581commctrl": 2606,
    "\u2581draglistmsg": 2607,
    "eaa": 2608,
    "search": 2609,
    "searchmode": 2610,
    "\u2581setsearchmode": 2611,
    "afd": 2612,
    "\u2581localrealloc": 2613,
    "serviced": 2614,
    "servicedatabase": 2615,
    "\u2581registerclipboard": 2616,
    "bca": 2617,
    "unction": 2618,
    "vet": 2619,
    "sh": 2620,
    "priority": 2621,
    "zone": 2622,
    "ned": 2623,
    "\u2581getfull": 2624,
    "zoneinformation": 2625,
    "\u2581gettimezoneinformation": 2626,
    "\u2581setprocess": 2627,
    "efe": 2628,
    "leexist": 2629,
    "\u2581fileexist": 2630,
    "ddb": 2631,
    "ts": 2632,
    "licen": 2633,
    "fad": 2634,
    "cid": 2635,
    "\u2581string": 2636,
    "\u2581globalf": 2637,
    "\u2581run": 2638,
    "\u2581rand": 2639,
    "\u2581getwindowsdirectoryw": 2640,
    "dfd": 2641,
    "\u2581getdri": 2642,
    "vetype": 2643,
    "\u2581getdrivetype": 2644,
    "longw": 2645,
    "the": 2646,
    "xffcc": 2647,
    "\u2581openw": 2648,
    "\u2581original": 2649,
    "newimagebase": 2650,
    "\u2581originalimagebase": 2651,
    "enter": 2652,
    "eed": 2653,
    "xffad": 2654,
    "formata": 2655,
    "\u2581destroywindow": 2656,
    "bbc": 2657,
    "fea": 2658,
    "afdi": 2659,
    "\u2581wsafdi": 2660,
    "\u2581wsafdisset": 2661,
    "\u2581y": 2662,
    "dep": 2663,
    "cff": 2664,
    "access": 2665,
    "xba": 2666,
    "atus": 2667,
    "\u2581dialog": 2668,
    "move": 2669,
    "aad": 2670,
    "ly": 2671,
    "\u2581findfirstfilea": 2672,
    "xit": 2673,
    "\u2581writeprocessmemory": 2674,
    "cbd": 2675,
    "systemtime": 2676,
    "licy": 2677,
    "aaa": 2678,
    "validate": 2679,
    "policy": 2680,
    "\u2581heapvalidate": 2681,
    "gine": 2682,
    "couldnotbelocatedinthe": 2683,
    "\u2581are": 2684,
    "output": 2685,
    "memor": 2686,
    "ystatus": 2687,
    "memorystatus": 2688,
    "\u2581globalmemorystatus": 2689,
    "faf": 2690,
    "\u2581ob": 2691,
    "leasec": 2692,
    "\u2581filetimetosystemtime": 2693,
    "meta": 2694,
    "dialog": 2695,
    "deppolicy": 2696,
    "prop": 2697,
    "\u2581loadlibraryexa": 2698,
    "localfiletime": 2699,
    "\u2581filetimetolocalfiletime": 2700,
    "\u2581initcommoncontrolsex": 2701,
    "xffae": 2702,
    "\u2581getkeyboardtype": 2703,
    "\u2581monitor": 2704,
    "\u2581memcpy": 2705,
    "outputcp": 2706,
    "\u2581getconsoleoutputcp": 2707,
    "xffaf": 2708,
    "\u2581setprocessdeppolicy": 2709,
    "hash": 2710,
    "vironmentstringsa": 2711,
    "ave": 2712,
    "ters": 2713,
    "adap": 2714,
    "adapters": 2715,
    "\u2581unlock": 2716,
    "wer": 2717,
    "\u2581corexit": 2718,
    "\u2581corexitprocess": 2719,
    "extex": 2720,
    "oyo": 2721,
    "fied": 2722,
    "ook": 2723,
    "cdd": 2724,
    "\u2581coun": 2725,
    "\u2581memset": 2726,
    "\u2581movefilea": 2727,
    "cba": 2728,
    "xffec": 2729,
    "\u2581lstrcmpw": 2730,
    "\u2581setfiletime": 2731,
    "ookup": 2732,
    "ansi": 2733,
    "data": 2734,
    "\u2581lookup": 2735,
    "apis": 2736,
    "\u2581virtualallocex": 2737,
    "xffef": 2738,
    "\u2581getexit": 2739,
    "apisansi": 2740,
    "\u2581arefile": 2741,
    "\u2581arefileapisansi": 2742,
    "\u2581couldnotbelocatedinthe": 2743,
    "onsolea": 2744,
    "\u2581writeconsolea": 2745,
    "cdf": 2746,
    "fed": 2747,
    "metafile": 2748,
    "\u2581lstrcpya": 2749,
    "bff": 2750,
    "dllip": 2751,
    "dlliphlpapi": 2752,
    "\u2581couldnotbelocatedinthedlliphlpapi": 2753,
    "des": 2754,
    "fae": 2755,
    "top": 2756,
    "bed": 2757,
    "ible": 2758,
    "owned": 2759,
    "\u2581shgetspecialfolderw": 2760,
    "snot": 2761,
    "privilege": 2762,
    "\u2581lstrcpyw": 2763,
    "\u2581fileexistsa": 2764,
    "\u2581couninitialize": 2765,
    "\u2581sq": 2766,
    "want": 2767,
    "lag": 2768,
    "\u2581setenvironmentvariablew": 2769,
    "amet": 2770,
    "\u2581globalmemorystatusex": 2771,
    "\u2581lookupprivilege": 2772,
    "\u2581outputdebugstringw": 2773,
    "function": 2774,
    "\u2581setcurrentdirectoryw": 2775,
    "der": 2776,
    "usttoken": 2777,
    "privileges": 2778,
    "usttokenprivileges": 2779,
    "licence": 2780,
    "ream": 2781,
    "strings": 2782,
    "bac": 2783,
    "\u2581getadapters": 2784,
    "\u2581failedtoinitializ": 2785,
    "eengine": 2786,
    "\u2581failedtoinitializeengine": 2787,
    "ill": 2788,
    "\u2581getenvironmentstrings": 2789,
    "bab": 2790,
    "xw": 2791,
    "lcid": 2792,
    "\u2581findnextfilea": 2793,
    "\u2581lstrc": 2794,
    "\u2581getvolumeinformationw": 2795,
    "\u2581getfullnamew": 2796,
    "wasnot": 2797,
    "inity": 2798,
    "\u2581iswindow": 2799,
    "caa": 2800,
    "atomw": 2801,
    "pipe": 2802,
    "affinity": 2803,
    "affinitymask": 2804,
    "bea": 2805,
    "desk": 2806,
    "\u2581regcreatekeyexw": 2807,
    "\u2581cs": 2808,
    "paramw": 2809,
    "\u2581movefilew": 2810,
    "pop": 2811,
    "\u2581getfileex": 2812,
    "beb": 2813,
    "\u2581enable": 2814,
    "\u2581sa": 2815,
    "efa": 2816,
    "propw": 2817,
    "oree": 2818,
    "\u2581mscoree": 2819,
    "place": 2820,
    "\u2581dialogbox": 2821,
    "xea": 2822,
    "valueexa": 2823,
    "\u2581getmenuitem": 2824,
    "freee": 2825,
    "notin": 2826,
    "trect": 2827,
    "freeex": 2828,
    "\u2581virtualfreeex": 2829,
    "\u2581getprocessaffinitymask": 2830,
    "gn": 2831,
    "xbd": 2832,
    "notinitializ": 2833,
    "ectlock": 2834,
    "notowned": 2835,
    "supfunction": 2836,
    "notinitialized": 2837,
    "ectlocknotowned": 2838,
    "\u2581monitorsupfunction": 2839,
    "\u2581monitorsupfunctionnotinitialized": 2840,
    "onexit": 2841,
    "myarg": 2842,
    "\u2581application": 2843,
    "dfe": 2844,
    "reen": 2845,
    "dca": 2846,
    "specified": 2847,
    "acc": 2848,
    "svc": 2849,
    "filewasnot": 2850,
    "\u2581thespecified": 2851,
    "filewasnotfound": 2852,
    "\u2581thespecifiedfilewasnotfound": 2853,
    "\u2581service": 2854,
    "application": 2855,
    "\u2581getcursorpos": 2856,
    "afb": 2857,
    "stream": 2858,
    "\u2581registerclipboardformata": 2859,
    "aec": 2860,
    "\u2581getuserdefaultuilanguage": 2861,
    "\u2581wcs": 2862,
    "\u2581comdlg": 2863,
    "ownload": 2864,
    "\u2581at": 2865,
    "hard": 2866,
    "\u2581dat": 2867,
    "xffdd": 2868,
    "ime": 2869,
    "\u2581loader": 2870,
    "connect": 2871,
    "\u2581call": 2872,
    "\u2581enddialog": 2873,
    "\u2581replace": 2874,
    "febd": 2875,
    "\u2581fre": 2876,
    "dcd": 2877,
    "menuitem": 2878,
    "\u2581initi": 2879,
    "xef": 2880,
    "\u2581regenumkeyexw": 2881,
    "leng": 2882,
    "length": 2883,
    "dee": 2884,
    "ynam": 2885,
    "tive": 2886,
    "dynam": 2887,
    "aba": 2888,
    "org": 2889,
    "\u2581regdeletekeyw": 2890,
    "aaaaaaaa": 2891,
    "\u2581removedirectoryw": 2892,
    "cfe": 2893,
    "orgex": 2894,
    "codeprocess": 2895,
    "\u2581getexitcodeprocess": 2896,
    "acd": 2897,
    "try": 2898,
    "bef": 2899,
    "metafilebits": 2900,
    "\u2581cq": 2901,
    "hardlinkw": 2902,
    "\u2581createhardlinkw": 2903,
    "\u2581regdeletevaluew": 2904,
    "\u2581noaccess": 2905,
    "red": 2906,
    "eaba": 2907,
    "abf": 2908,
    "\u2581removedirectorya": 2909,
    "ocus": 2910,
    "dynamic": 2911,
    "\u2581getdateformatw": 2912,
    "eresource": 2913,
    "dynamiclink": 2914,
    "dynamiclinklibrary": 2915,
    "ip": 2916,
    "quir": 2917,
    "acquir": 2918,
    "acquirecon": 2919,
    "\u2581cryptacquirecon": 2920,
    "cae": 2921,
    "focus": 2922,
    "bfd": 2923,
    "\u2581freeresource": 2924,
    "\u2581lookupprivilegevaluew": 2925,
    "\u2581asw": 2926,
    "ece": 2927,
    "look": 2928,
    "rec": 2929,
    "\u2581outlook": 2930,
    "ead": 2931,
    "\u2581dialogboxparamw": 2932,
    "daab": 2933,
    "registry": 2934,
    "\u2581fa": 2935,
    "\u2581findresourcea": 2936,
    "fig": 2937,
    "fbd": 2938,
    "\u2581sc": 2939,
    "\u2581endd": 2940,
    "hort": 2941,
    "windowshook": 2942,
    "\u2581getshort": 2943,
    "\u2581freeenvironmentstringsa": 2944,
    "\u2581aa": 2945,
    "chr": 2946,
    "\u2581getprivateprofilestringw": 2947,
    "afa": 2948,
    "popup": 2949,
    "\u2581cadwork": 2950,
    "fdd": 2951,
    "you": 2952,
    "dbf": 2953,
    "fcb": 2954,
    "\u2581getuserdefaultlcid": 2955,
    "lien": 2956,
    "cab": 2957,
    "drag": 2958,
    "resourc": 2959,
    "cde": 2960,
    "\u2581getdrivetypew": 2961,
    "core": 2962,
    "wantto": 2963,
    "\u2581applicationerror": 2964,
    "\u2581version": 2965,
    "dabd": 2966,
    "\u2581setdll": 2967,
    "\u2581createpipe": 2968,
    "ceb": 2969,
    "cfb": 2970,
    "\u2581beg": 2971,
    "leave": 2972,
    "\u2581begind": 2973,
    "apt": 2974,
    "\u2581begindrag": 2975,
    "\u2581dragleave": 2976,
    "\u2581enddrag": 2977,
    "\u2581dragmove": 2978,
    "\u2581dragenter": 2979,
    "mi": 2980,
    "\u2581gettimeformatw": 2981,
    "winmetafilebits": 2982,
    "\u2581getcomputernamew": 2983,
    "apture": 2984,
    "ecb": 2985,
    "ocre": 2986,
    "power": 2987,
    "inter": 2988,
    "im": 2989,
    "\u2581install": 2990,
    "bas": 2991,
    "\u2581wts": 2992,
    "\u2581readprocessmemory": 2993,
    "\u2581replaceicon": 2994,
    "\u2581setsystem": 2995,
    "powerstate": 2996,
    "\u2581setsystempowerstate": 2997,
    "\u2581getdiskfreespacew": 2998,
    "eea": 2999,
    "visible": 3000,
    "\u2581enumresourc": 3001,
    "\u2581getcurrentdirectorya": 3002,
    "\u2581getwinmetafilebits": 3003,
    "\u2581regenumvaluew": 3004,
    "eae": 3005,
    "ds": 3006,
    "dow": 3007,
    "download": 3008,
    "fromstream": 3009,
    "scroll": 3010,
    "\u2581regconnect": 3011,
    "\u2581enumresourcename": 3012,
    "\u2581regconnectregistry": 3013,
    "xbb": 3014,
    "ccf": 3015,
    "dea": 3016,
    "aed": 3017,
    "fbb": 3018,
    "\u2581scouldnotbelocatedinthe": 3019,
    "device": 3020,
    "\u2581getshortnamew": 3021,
    "\u2581regconnectregistryw": 3022,
    "\u2581qt": 3023,
    "\u2581services": 3024,
    "\u2581openthreadtoken": 3025,
    "\u2581shfolder": 3026,
    "olor": 3027,
    "edit": 3028,
    "\u2581sm": 3029,
    "\u2581writeprivateprofilestringw": 3030,
    "\u2581dw": 3031,
    "\u2581enumresourcenamesw": 3032,
    "\u2581beep": 3033,
    "ession": 3034,
    "eentry": 3035,
    "\u2581getsave": 3036,
    "\u2581setdlldirectoryw": 3037,
    "priorityclass": 3038,
    "\u2581exp": 3039,
    "\u2581dragob": 3040,
    "xbe": 3041,
    "dfb": 3042,
    "\u2581globaladd": 3043,
    "\u2581download": 3044,
    "tp": 3045,
    "fcf": 3046,
    "\u2581setthreadlocale": 3047,
    "eeb": 3048,
    "\u2581messageboxw": 3049,
    "\u2581createprocessas": 3050,
    "\u2581setpriorityclass": 3051,
    "labe": 3052,
    "xffde": 3053,
    "volumelabe": 3054,
    "\u2581setvolumelabe": 3055,
    "afe": 3056,
    "lsid": 3057,
    "lower": 3058,
    "\u2581setdrag": 3059,
    "cursorimage": 3060,
    "\u2581setdragcursorimage": 3061,
    "bde": 3062,
    "ateto": 3063,
    "\u2581duplicateto": 3064,
    "\u2581getclassinfoa": 3065,
    "bdb": 3066,
    "leasecon": 3067,
    "\u2581getmessagew": 3068,
    "\u2581isc": 3069,
    "edur": 3070,
    "created": 3071,
    "releasecon": 3072,
    "releasecontext": 3073,
    "\u2581myarg": 3074,
    "fba": 3075,
    "edureentry": 3076,
    "edureentrypoint": 3077,
    "\u2581theprocedureentrypoint": 3078,
    "ebb": 3079,
    "eef": 3080,
    "dace": 3081,
    "\u2581createprocessasuserw": 3082,
    "acl": 3083,
    "dfa": 3084,
    "textout": 3085,
    "\u2581oleinitialize": 3086,
    "\u2581getsystemtimes": 3087,
    "deleteatom": 3088,
    "\u2581globaldeleteatom": 3089,
    "ebd": 3090,
    "eaf": 3091,
    "screen": 3092,
    "ecf": 3093,
    "\u2581logon": 3094,
    "kenex": 3095,
    "\u2581duplicatetokenex": 3096,
    "compar": 3097,
    "comparee": 3098,
    "\u2581initiate": 3099,
    "\u2581interlockedcomparee": 3100,
    "\u2581getprivateprofilesectionname": 3101,
    "systemsh": 3102,
    "\u2581oleload": 3103,
    "\u2581initiatesystemsh": 3104,
    "\u2581oleloadfromstream": 3105,
    "\u2581setvolumelabelw": 3106,
    "\u2581interlockedcompareexchange": 3107,
    "nexw": 3108,
    "sion": 3109,
    "ioco": 3110,
    "\u2581regopenkeya": 3111,
    "utdow": 3112,
    "update": 3113,
    "utdownexw": 3114,
    "\u2581initiatesystemshutdownexw": 3115,
    "\u2581getvolumeinformationa": 3116,
    "\u2581doyo": 3117,
    "\u2581strcmp": 3118,
    "lengthsid": 3119,
    "\u2581getlengthsid": 3120,
    "\u2581initializeacl": 3121,
    "\u2581globalrealloc": 3122,
    "\u2581createprocesswith": 3123,
    "valuea": 3124,
    "\u2581writeprivateprofilesection": 3125,
    "fdf": 3126,
    "pys": 3127,
    "pysid": 3128,
    "\u2581getace": 3129,
    "\u2581copysid": 3130,
    "\u2581getprivateprofilesectionw": 3131,
    "\u2581getprivateprofilesectionnamesw": 3132,
    "\u2581getsecuritydescriptordacl": 3133,
    "\u2581writeprivateprofilesectionw": 3134,
    "adc": 3135,
    "\u2581addace": 3136,
    "\u2581getacl": 3137,
    "\u2581getaclinformation": 3138,
    "logonw": 3139,
    "unters": 3140,
    "iocounters": 3141,
    "\u2581getprocessiocounters": 3142,
    "\u2581createprocesswithlogonw": 3143,
    "\u2581logonuserw": 3144,
    "fab": 3145,
    "ecolor": 3146,
    "aae": 3147,
    "\u2581globalfind": 3148,
    "\u2581cryptreleasecontext": 3149,
    "ccd": 3150,
    "menuw": 3151,
    "dat": 3152,
    "bfb": 3153,
    "\u2581regedit": 3154,
    "desktop": 3155,
    "\u2581getdiskfreespaceexa": 3156,
    "\u2581clsid": 3157,
    "agnt": 3158,
    "agntsvc": 3159,
    "\u2581mso": 3160,
    "\u2581lsass": 3161,
    "\u2581getsystemdefault": 3162,
    "ocreate": 3163,
    "eba": 3164,
    "xfd": 3165,
    "bda": 3166,
    "rss": 3167,
    "\u2581smss": 3168,
    "\u2581csrss": 3169,
    "\u2581wininit": 3170,
    "\u2581winlogon": 3171,
    "heme": 3172,
    "\u2581uxt": 3173,
    "\u2581uxtheme": 3174,
    "\u2581formal": 3175,
    "env": 3176,
    "\u2581clsidfrom": 3177,
    "\u2581systemprocess": 3178,
    "fce": 3179,
    "bba": 3180,
    "quired": 3181,
    "xffcb": 3182,
    "\u2581pi": 3183,
    "ffe": 3184,
    "\u2581tw": 3185,
    "\u2581yo": 3186,
    "instal": 3187,
    "efb": 3188,
    "ah": 3189,
    "xbc": 3190,
    "\u2581getsavefilenamew": 3191,
    "\u2581unlockservicedatabase": 3192,
    "\u2581sys": 3193,
    "\u2581required": 3194,
    "pool": 3195,
    "\u2581globalhandle": 3196,
    "ffb": 3197,
    "\u2581lockservicedatabase": 3198,
    "aee": 3199,
    "ail": 3200,
    "printer": 3201,
    "edf": 3202,
    "\u2581lstrcata": 3203,
    "seek": 3204,
    "\u2581onexit": 3205,
    "adf": 3206,
    "transform": 3207,
    "fromlog": 3208,
    "oi": 3209,
    "\u2581getadaptersinfo": 3210,
    "dde": 3211,
    "\u2581shgetfile": 3212,
    "ffa": 3213,
    "lser": 3214,
    "emyarg": 3215,
    "\u2581exemyarg": 3216,
    "cfd": 3217,
    "ecolortransform": 3218,
    "aca": 3219,
    "bdd": 3220,
    "\u2581atoi": 3221,
    "\u2581createcolortransform": 3222,
    "sions": 3223,
    "\u2581filen": 3224,
    "spacew": 3225,
    "colorspacew": 3226,
    "\u2581checkcolor": 3227,
    "profilefromlog": 3228,
    "\u2581createprofilefromlog": 3229,
    "\u2581createcolortransformw": 3230,
    "\u2581createprofilefromlogcolorspacew": 3231,
    "amut": 3232,
    "singamut": 3233,
    "devicelink": 3234,
    "devicelinkprofile": 3235,
    "\u2581checkcolorsingamut": 3236,
    "\u2581createdevicelinkprofile": 3237,
    "baa": 3238,
    "processid": 3239,
    "bfe": 3240,
    "\u2581dl": 3241,
    "threadprocessid": 3242,
    "\u2581getwindowthreadprocessid": 3243,
    "edb": 3244,
    "nec": 3245,
    "\u2581reset": 3246,
    "\u2581pleas": 3247,
    "fee": 3248,
    "lientrect": 3249,
    "\u2581getclientrect": 3250,
    "ade": 3251,
    "utton": 3252,
    "textoutw": 3253,
    "\u2581xh": 3254,
    "su": 3255,
    "xbf": 3256,
    "inet": 3257,
    "xdc": 3258,
    "atoma": 3259,
    "\u2581db": 3260,
    "\u2581loaderstart": 3261,
    "otfound": 3262,
    "\u2581filenotfound": 3263,
    "rom": 3264,
    "lags": 3265,
    "abd": 3266,
    "bcd": 3267,
    "\u2581formatmessagea": 3268,
    "aaf": 3269,
    "\u2581wininet": 3270,
    "cbf": 3271,
    "mapi": 3272,
    "vie": 3273,
    "lu": 3274,
    "\u2581getmodulehandl": 3275,
    "xde": 3276,
    "\u2581security": 3277,
    "iserror": 3278,
    "aea": 3279,
    "only": 3280,
    "pre": 3281,
    "sto": 3282,
    "\u2581setcurrentdirectorya": 3283,
    "fy": 3284,
    "\u2581atex": 3285,
    "\u2581atexit": 3286,
    "\u2581dwmapi": 3287,
    "\u2581cryptbase": 3288,
    "acf": 3289,
    "cea": 3290,
    "eff": 3291,
    "\u2581af": 3292,
    "caf": 3293,
    "\u2581ps": 3294,
    "\u2581strlen": 3295,
    "daf": 3296,
    "ord": 3297,
    "fde": 3298,
    "eda": 3299,
    "\u2581getmodulehandleexw": 3300,
    "lorer": 3301,
    "cfa": 3302,
    "\u2581dispatchmessagew": 3303,
    "\u2581userenv": 3304,
    "au": 3305,
    "\u2581ext": 3306,
    "active": 3307,
    "dcf": 3308,
    "\u2581connec": 3309,
    "\u2581si": 3310,
    "ects": 3311,
    "parent": 3312,
    "aeb": 3313,
    "\u2581ea": 3314,
    "\u2581psapi": 3315,
    "dae": 3316,
    "\u2581lp": 3317,
    "feaac": 3318,
    "atalog": 3319,
    "handler": 3320,
    "fef": 3321,
    "\u2581stor": 3322,
    "\u2581qae": 3323,
    "\u2581storage": 3324,
    "\u2581connector": 3325,
    "ceff": 3326,
    "\u2581isvalidlocale": 3327,
    "\u2581tow": 3328,
    "fbe": 3329,
    "\u2581cocreate": 3330,
    "\u2581oleacc": 3331,
    "cem": 3332,
    "internet": 3333,
    "will": 3334,
    "instan": 3335,
    "viewextex": 3336,
    "\u2581el": 3337,
    "cdb": 3338,
    "\u2581globalflags": 3339,
    "ameters": 3340,
    "rn": 3341,
    "edia": 3342,
    "ta": 3343,
    "atalogs": 3344,
    "ere": 3345,
    "romedia": 3346,
    "rnl": 3347,
    "upp": 3348,
    "\u2581runonce": 3349,
    "\u2581micromedia": 3350,
    "\u2581cl": 3351,
    "xffca": 3352,
    "vieworgex": 3353,
    "ccb": 3354,
    "cca": 3355,
    "osk": 3356,
    "oskrnl": 3357,
    "\u2581ntoskrnl": 3358,
    "\u2581ns": 3359,
    "\u2581commandline": 3360,
    "\u2581loadbitmap": 3361,
    "\u2581getfileattributesa": 3362,
    "abe": 3363,
    "\u2581scouldnotbelocatedinthedll": 3364,
    "ffffc": 3365,
    "argvw": 3366,
    "toargvw": 3367,
    "\u2581commandlinetoargvw": 3368,
    "qa": 3369,
    "lay": 3370,
    "\u2581instal": 3371,
    "button": 3372,
    "dba": 3373,
    "\u2581setscroll": 3374,
    "cee": 3375,
    "bae": 3376,
    "xffed": 3377,
    "\u2581charpre": 3378,
    "\u2581task": 3379,
    "vip": 3380,
    "\u2581prvip": 3381,
    "\u2581nsiserror": 3382,
    "\u2581mys": 3383,
    "\u2581oc": 3384,
    "fcd": 3385,
    "\u2581cocreateinstan": 3386,
    "cement": 3387,
    "placement": 3388,
    "\u2581getwindowrect": 3389,
    "\u2581taskbar": 3390,
    "\u2581ldr": 3391,
    "xfe": 3392,
    "main": 3393,
    "bfa": 3394,
    "pass": 3395,
    "\u2581scal": 3396,
    "keya": 3397,
    "\u2581scale": 3398,
    "ada": 3399,
    "seekto": 3400,
    "\u2581failedtoseekto": 3401,
    "\u2581regsetvalueexa": 3402,
    "qld": 3403,
    "mensions": 3404,
    "\u2581mysqld": 3405,
    "\u2581agntsvc": 3406,
    "startoffile": 3407,
    "\u2581failedtoseektostartoffile": 3408,
    "parameters": 3409,
    "tag": 3410,
    "anden": 3411,
    "inmodule": 3412,
    "\u2581failedtoinitializeenginesection": 3413,
    "conso": 3414,
    "withtag": 3415,
    "poolwithtag": 3416,
    "\u2581exallocate": 3417,
    "\u2581exallocatepoolwithtag": 3418,
    "\u2581expanden": 3419,
    "\u2581ab": 3420,
    "\u2581my": 3421,
    "\u2581failedtoinitializeenginestate": 3422,
    "\u2581wm": 3423,
    "dlgi": 3424,
    "dlgitem": 3425,
    "fdb": 3426,
    "\u2581ndr": 3427,
    "\u2581systemparameters": 3428,
    "\u2581ndrd": 3429,
    "bee": 3430,
    "aget": 3431,
    "era": 3432,
    "\u2581lstrcmpia": 3433,
    "xdb": 3434,
    "dimensions": 3435,
    "xdf": 3436,
    "rap": 3437,
    "procedure": 3438,
    "\u2581mta": 3439,
    "xda": 3440,
    "\u2581ldrget": 3441,
    "procedureaddress": 3442,
    "\u2581ldrgetprocedureaddress": 3443,
    "toc": 3444,
    "agetime": 3445,
    "\u2581opena": 3446,
    "\u2581command": 3447,
    "check": 3448,
    "\u2581cryptacquirecontexta": 3449,
    "controlset": 3450,
    "\u2581currentcontrolset": 3451,
    "\u2581can": 3452,
    "\u2581getfocus": 3453,
    "croll": 3454,
    "\u2581getscroll": 3455,
    "eecb": 3456,
    "aef": 3457,
    "\u2581dlldll": 3458,
    "\u2581getcapture": 3459,
    "\u2581print": 3460,
    "\u2581shgetspecialfolder": 3461,
    "\u2581cp": 3462,
    "\u2581environ": 3463,
    "xeb": 3464,
    "dce": 3465,
    "\u2581oa": 3466,
    "nd": 3467,
    "\u2581pb": 3468,
    "ht": 3469,
    "\u2581globaladdatomw": 3470,
    "times": 3471,
    "eeca": 3472,
    "ready": 3473,
    "dbb": 3474,
    "exist": 3475,
    "codeptr": 3476,
    "\u2581isctype": 3477,
    "\u2581isbadcodeptr": 3478,
    "\u2581off": 3479,
    "\u2581back": 3480,
    "\u2581globalfindatomw": 3481,
    "sd": 3482,
    "\u2581youm": 3483,
    "bbb": 3484,
    "\u2581offset": 3485,
    "messagepos": 3486,
    "\u2581getmessagepos": 3487,
    "ser": 3488,
    "hild": 3489,
    "dcb": 3490,
    "mar": 3491,
    "xbcf": 3492,
    "\u2581getdlgitem": 3493,
    "abb": 3494,
    "brows": 3495,
    "ster": 3496,
    "\u2581getconsolewindow": 3497,
    "frompoint": 3498,
    "\u2581enablewindow": 3499,
    "\u2581getmessagetime": 3500,
    "laun": 3501,
    "\u2581getwindowdc": 3502,
    "points": 3503,
    "\u2581towlower": 3504,
    "xdd": 3505,
    "launch": 3506,
    "xffdf": 3507,
    "install": 3508,
    "this": 3509,
    "console": 3510,
    "che": 3511,
    "\u2581qa": 3512,
    "\u2581your": 3513,
    "mark": 3514,
    "run": 3515,
    "xfffffffe": 3516,
    "\u2581regqueryvalueexa": 3517,
    "cod": 3518,
    "cbb": 3519,
    "\u2581ri": 3520,
    "been": 3521,
    "client": 3522,
    "checkmark": 3523,
    "\u2581getmenucheckmark": 3524,
    "\u2581getmenucheckmarkdimensions": 3525,
    "\u2581bo": 3526,
    "\u2581mfc": 3527,
    "applet": 3528,
    "ph": 3529,
    "fda": 3530,
    "\u2581client": 3531,
    "\u2581comparestringa": 3532,
    "xed": 3533,
    "\u2581failedtoopen": 3534,
    "\u2581registerwindowmessagea": 3535,
    "\u2581failedtoopenapplication": 3536,
    "\u2581failedtoopenapplicationlog": 3537,
    "ning": 3538,
    "\u2581arg": 3539,
    "\u2581lib": 3540,
    "\u2581getclassinfo": 3541,
    "enable": 3542,
    "icmp": 3543,
    "plorer": 3544,
    "couldnotbelocatedinthedynamiclinklibrary": 3545,
    "enamew": 3546,
    "\u2581getparent": 3547,
    "ched": 3548,
    "\u2581riched": 3549,
    "\u2581cocreateinstance": 3550,
    "yd": 3551,
    "addresses": 3552,
    "\u2581setwindowshook": 3553,
    "cbe": 3554,
    "\u2581ptin": 3555,
    "fic": 3556,
    "onfig": 3557,
    "\u2581getdrivetypea": 3558,
    "\u2581shgetfileinfow": 3559,
    "ethe": 3560,
    "\u2581charupp": 3561,
    "ebfb": 3562,
    "cce": 3563,
    "\u2581line": 3564,
    "\u2581callwindowproc": 3565,
    "\u2581setforegroundwindow": 3566,
    "\u2581setupapi": 3567,
    "\u2581getmenuitemid": 3568,
    "\u2581doyou": 3569,
    "ptr": 3570,
    "\u2581logme": 3571,
    "vb": 3572,
    "nexplorer": 3573,
    "\u2581cryptdestroy": 3574,
    "sys": 3575,
    "keyexa": 3576,
    "\u2581getwindowtextw": 3577,
    "adb": 3578,
    "\u2581getlast": 3579,
    "activepopup": 3580,
    "\u2581getlastactivepopup": 3581,
    "xfb": 3582,
    "\u2581unhook": 3583,
    "windowshookex": 3584,
    "\u2581unhookwindowshookex": 3585,
    "xffea": 3586,
    "enabled": 3587,
    "row": 3588,
    "etime": 3589,
    "\u2581sendmessagew": 3590,
    "\u2581iswindowenabled": 3591,
    "\u2581setmenuitem": 3592,
    "\u2581ro": 3593,
    "hd": 3594,
    "luss": 3595,
    "xffeb": 3596,
    "\u2581prop": 3597,
    "fca": 3598,
    "hookex": 3599,
    "\u2581apphelp": 3600,
    "\u2581callnext": 3601,
    "\u2581callnexthookex": 3602,
    "\u2581winhelp": 3603,
    "bcat": 3604,
    "\u2581propsys": 3605,
    "bcatq": 3606,
    "\u2581clbcatq": 3607,
    "\u2581getsystemwindows": 3608,
    "ei": 3609,
    "iconic": 3610,
    "\u2581isiconic": 3611,
    "\u2581getsystemwindowsdirectoryw": 3612,
    "\u2581mame": 3613,
    "\u2581freeware": 3614,
    "rypt": 3615,
    "xffdc": 3616,
    "toscreen": 3617,
    "\u2581ol": 3618,
    "\u2581fast": 3619,
    "\u2581cryptget": 3620,
    "\u2581clienttoscreen": 3621,
    "ustwindow": 3622,
    "bi": 3623,
    "cue": 3624,
    "erun": 3625,
    "rescue": 3626,
    "ustwindowrec": 3627,
    "profil": 3628,
    "ustwindowrectex": 3629,
    "\u2581translateaccelerator": 3630,
    "inrescue": 3631,
    "\u2581mapwindow": 3632,
    "\u2581logmeinrescue": 3633,
    "\u2581enablemenuitem": 3634,
    "\u2581mapwindowpoints": 3635,
    "\u2581isbadwrite": 3636,
    "\u2581logmeinrescueapplet": 3637,
    "\u2581isbadwriteptr": 3638,
    "cdfc": 3639,
    "indi": 3640,
    "\u2581ptinrect": 3641,
    "\u2581getmodulebas": 3642,
    "\u2581getwindowlongw": 3643,
    "ubmenu": 3644,
    "\u2581getsubmenu": 3645,
    "\u2581setwindowlongw": 3646,
    "\u2581mb": 3647,
    "ultip": 3648,
    "formultip": 3649,
    "\u2581destroymenu": 3650,
    "\u2581getmenuitemcount": 3651,
    "formultipleob": 3652,
    "\u2581getmodulebasenamew": 3653,
    "buf": 3654,
    "\u2581setcursor": 3655,
    "\u2581getmenustate": 3656,
    "\u2581getwindowplacement": 3657,
    "\u2581registerclassw": 3658,
    "bbf": 3659,
    "\u2581memmove": 3660,
    "lead": 3661,
    "\u2581xz": 3662,
    "raphi": 3663,
    "xcccc": 3664,
    "\u2581getprofile": 3665,
    "thash": 3666,
    "idto": 3667,
    "\u2581getadaptersaddresses": 3668,
    "mt": 3669,
    "thashdata": 3670,
    "createhash": 3671,
    "\u2581cm": 3672,
    "xee": 3673,
    "\u2581drawtextw": 3674,
    "filespec": 3675,
    "\u2581registerclipboardformatw": 3676,
    "\u2581removefilespec": 3677,
    "\u2581postmessagew": 3678,
    "\u2581getthreadtimes": 3679,
    "ctr": 3680,
    "\u2581add": 3681,
    "aaaaaaaaaaaaaaaa": 3682,
    "nam": 3683,
    "\u2581crypthashdata": 3684,
    "\u2581setwindowtextw": 3685,
    "\u2581cryptcreatehash": 3686,
    "vm": 3687,
    "\u2581tab": 3688,
    "ctrlid": 3689,
    "\u2581getdlg": 3690,
    "\u2581getdlgctrlid": 3691,
    "\u2581removefilespecw": 3692,
    "gd": 3693,
    "\u2581gray": 3694,
    "\u2581cryptdestroyhash": 3695,
    "mbb": 3696,
    "\u2581rect": 3697,
    "\u2581translateacceleratorw": 3698,
    "\u2581strchr": 3699,
    "fami": 3700,
    "\u2581ismbb": 3701,
    "\u2581ismbblead": 3702,
    "\u2581launch": 3703,
    "\u2581cryptgen": 3704,
    "\u2581hi": 3705,
    "\u2581cryptacquirecontextw": 3706,
    "\u2581gettop": 3707,
    "\u2581gettopwindow": 3708,
    "\u2581checkmenuitem": 3709,
    "\u2581createsemaphorea": 3710,
    "cda": 3711,
    "program": 3712,
    "\u2581getclassnamew": 3713,
    "vr": 3714,
    "store": 3715,
    "dbe": 3716,
    "\u2581vf": 3717,
    "dify": 3718,
    "\u2581internetopen": 3719,
    "uti": 3720,
    "random": 3721,
    "\u2581copyrect": 3722,
    "option": 3723,
    "\u2581modify": 3724,
    "\u2581systemparametersinfoa": 3725,
    "hashparam": 3726,
    "\u2581cryptgethashparam": 3727,
    "\u2581tabbed": 3728,
    "\u2581appdata": 3729,
    "rgn": 3730,
    "\u2581ar": 3731,
    "famili": 3732,
    "\u2581callwindowprocw": 3733,
    "wc": 3734,
    "icen": 3735,
    "\u2581cryptgenrandom": 3736,
    "enu": 3737,
    "\u2581cal": 3738,
    "\u2581setwindowshookexw": 3739,
    "\u2581shgetspecialfoldera": 3740,
    "fn": 3741,
    "\u2581zip": 3742,
    "\u2581lstrcatw": 3743,
    "orn": 3744,
    "alse": 3745,
    "running": 3746,
    "our": 3747,
    "ower": 3748,
    "\u2581aaa": 3749,
    "\u2581doyouwantto": 3750,
    "false": 3751,
    "strue": 3752,
    "allyour": 3753,
    "onexist": 3754,
    "zeroorn": 3755,
    "\u2581istrue": 3756,
    "\u2581isexist": 3757,
    "\u2581isfalse": 3758,
    "\u2581iszeroorn": 3759,
    "\u2581getclassinfow": 3760,
    "\u2581openanexplorer": 3761,
    "\u2581iszeroornonexist": 3762,
    "\u2581winhelpw": 3763,
    "frominternet": 3764,
    "ted": 3765,
    "bat": 3766,
    "tes": 3767,
    "ongle": 3768,
    "ecadwork": 3769,
    "lang": 3770,
    "cap": 3771,
    "emo": 3772,
    "\u2581peekmessagew": 3773,
    "letime": 3774,
    "\u2581getcursorinfo": 3775,
    "\u2581getfiletime": 3776,
    "\u2581createbitmap": 3777,
    "prog": 3778,
    "\u2581valid": 3779,
    "\u2581getclassinfoexw": 3780,
    "\u2581waitformultipleob": 3781,
    "dio": 3782,
    "langid": 3783,
    "\u2581graystringw": 3784,
    "session": 3785,
    "\u2581cf": 3786,
    "bir": 3787,
    "\u2581validaterect": 3788,
    "\u2581getclasslongw": 3789,
    "lservr": 3790,
    "bitmaps": 3791,
    "\u2581thebat": 3792,
    "\u2581sqlservr": 3793,
    "\u2581setmenuitembitmaps": 3794,
    "ebfa": 3795,
    "\u2581for": 3796,
    "\u2581mfn": 3797,
    "\u2581elvis": 3798,
    "\u2581gender": 3799,
    "erwindow": 3800,
    "familiar": 3801,
    "\u2581formality": 3802,
    "\u2581formalfamiliar": 3803,
    "progid": 3804,
    "erwindowpos": 3805,
    "\u2581clsidfromprogid": 3806,
    "\u2581clsidfromstring": 3807,
    "acbc": 3808,
    "emaphore": 3809,
    "\u2581modifymenuw": 3810,
    "syd": 3811,
    "\u2581std": 3812,
    "register": 3813,
    "\u2581calloc": 3814,
    "\u2581strcpy": 3815,
    "\u2581tabbedtextoutw": 3816,
    "tsb": 3817,
    "coll": 3818,
    "latsb": 3819,
    "\u2581getsid": 3820,
    "ort": 3821,
    "\u2581this": 3822,
    "acceleratortable": 3823,
    "\u2581getprivateprofilestringa": 3824,
    "\u2581sen": 3825,
    "\u2581stdio": 3826,
    "\u2581olerun": 3827,
    "\u2581winmain": 3828,
    "thority": 3829,
    "act": 3830,
    "fox": 3831,
    "\u2581ht": 3832,
    "\u2581es": 3833,
    "\u2581mei": 3834,
    "\u2581setpropw": 3835,
    "\u2581regcreatekeyexa": 3836,
    "\u2581argc": 3837,
    "qstring": 3838,
    "ataddress": 3839,
    "\u2581fastf": 3840,
    "\u2581accessviolationataddress": 3841,
    "\u2581drawtex": 3842,
    "\u2581meipass": 3843,
    "\u2581fastfail": 3844,
    "\u2581loadbitmapw": 3845,
    "vider": 3846,
    "bau": 3847,
    "\u2581gro": 3848,
    "febc": 3849,
    "subau": 3850,
    "\u2581getpropw": 3851,
    "subauthority": 3852,
    "\u2581removepropw": 3853,
    "\u2581getsidsubauthority": 3854,
    "word": 3855,
    "onitor": 3856,
    "\u2581ba": 3857,
    "layo": 3858,
    "texw": 3859,
    "xffee": 3860,
    "layout": 3861,
    "provider": 3862,
    "\u2581drawtextexw": 3863,
    "\u2581ie": 3864,
    "vert": 3865,
    "ki": 3866,
    "closehandle": 3867,
    "\u2581expandenvironmentstringsa": 3868,
    "dbed": 3869,
    "\u2581charprevw": 3870,
    "\u2581rectvisible": 3871,
    "fecb": 3872,
    "ttributes": 3873,
    "\u2581getfileattributes": 3874,
    "hg": 3875,
    "filenamea": 3876,
    "omm": 3877,
    "istre": 3878,
    "\u2581bb": 3879,
    "pc": 3880,
    "xddf": 3881,
    "\u2581afx": 3882,
    "\u2581uh": 3883,
    "play": 3884,
    "raphic": 3885,
    "\u2581xf": 3886,
    "\u2581xnewimagebase": 3887,
    "\u2581cannot": 3888,
    "\u2581om": 3889,
    "\u2581oem": 3890,
    "dbef": 3891,
    "arta": 3892,
    "\u2581getsidsubauthoritycount": 3893,
    "\u2581winapp": 3894,
    "\u2581escap": 3895,
    "\u2581findwindoww": 3896,
    "rm": 3897,
    "enh": 3898,
    "\u2581winmm": 3899,
    "\u2581isvalidsid": 3900,
    "\u2581ntm": 3901,
    "\u2581ntmarta": 3902,
    "\u2581dllonexit": 3903,
    "lick": 3904,
    "img": 3905,
    "ssec": 3906,
    "\u2581ts": 3907,
    "older": 3908,
    "ryptog": 3909,
    "\u2581group": 3910,
    "providerv": 3911,
    "ryptographic": 3912,
    "ryptographicproviderv": 3913,
    "lash": 3914,
    "\u2581sav": 3915,
    "ualfox": 3916,
    "tinue": 3917,
    "ally": 3918,
    "secor": 3919,
    "lipbox": 3920,
    "\u2581omsecor": 3921,
    "\u2581restore": 3922,
    "\u2581getclipbox": 3923,
    "\u2581vie": 3924,
    "\u2581savedc": 3925,
    "\u2581restoredc": 3926,
    "already": 3927,
    "\u2581pleasec": 3928,
    "avebeen": 3929,
    "ureally": 3930,
    "\u2581internetclosehandle": 3931,
    "\u2581stem": 3932,
    "\u2581evie": 3933,
    "\u2581printf": 3934,
    "ahki": 3935,
    "dsgd": 3936,
    "\u2581psc": 3937,
    "whsyd": 3938,
    "\u2581gdsgd": 3939,
    "\u2581boahki": 3940,
    "\u2581network": 3941,
    "\u2581boahkilser": 3942,
    "\u2581gdsgdwhsyd": 3943,
    "hide": 3944,
    "network": 3945,
    "\u2581pt": 3946,
    "\u2581lmi": 3947,
    "tivate": 3948,
    "\u2581getsystemdefaultuilanguage": 3949,
    "\u2581setthreadpriority": 3950,
    "\u2581getfullnamea": 3951,
    "ails": 3952,
    "\u2581youmust": 3953,
    "ctx": 3954,
    "\u2581pc": 3955,
    "\u2581mail": 3956,
    "do": 3957,
    "\u2581exttextoutw": 3958,
    "gw": 3959,
    "eta": 3960,
    "splash": 3961,
    "aha": 3962,
    "rio": 3963,
    "\u2581inf": 3964,
    "rty": 3965,
    "eyrio": 3966,
    "fdrty": 3967,
    "\u2581hiaha": 3968,
    "eyrioere": 3969,
    "\u2581uhfdrty": 3970,
    "\u2581uhfdrtyeyrioere": 3971,
    "\u2581deallocate": 3972,
    "tochar": 3973,
    "\u2581oemtochar": 3974,
    "\u2581releasesemaphore": 3975,
    "\u2581nar": 3976,
    "\u2581please": 3977,
    "\u2581getdesktop": 3978,
    "kg": 3979,
    "defi": 3980,
    "basec": 3981,
    "\u2581narrow": 3982,
    "screenhide": 3983,
    "\u2581aswsplash": 3984,
    "buttoncreated": 3985,
    "\u2581microsoftbasec": 3986,
    "\u2581aswsplashscreenhide": 3987,
    "\u2581taskbarbuttoncreated": 3988,
    "\u2581microsoftbasecryptographicproviderv": 3989,
    "ldrl": 3990,
    "\u2581tsldrl": 3991,
    "\u2581lpservice": 3992,
    "indirect": 3993,
    "\u2581escape": 3994,
    "\u2581flatsb": 3995,
    "emenu": 3996,
    "ups": 3997,
    "\u2581ptvisible": 3998,
    "\u2581session": 3999,
    "mapmode": 4000,
    "\u2581getdesktopwindow": 4001,
    "\u2581ff": 4002,
    "layer": 4003,
    "faac": 4004,
    "\u2581charlower": 4005,
    "ediac": 4006,
    "\u2581from": 4007,
    "\u2581textoutw": 4008,
    "cli": 4009,
    "\u2581mediac": 4010,
    "popupmenu": 4011,
    "\u2581getactive": 4012,
    "\u2581mediacenter": 4013,
    "\u2581fput": 4014,
    "av": 4015,
    "\u2581getclipboard": 4016,
    "ofaddress": 4017,
    "sert": 4018,
    "\u2581date": 4019,
    "\u2581insert": 4020,
    "\u2581getactivewindow": 4021,
    "xabc": 4022,
    "\u2581module": 4023,
    "\u2581setmapmode": 4024,
    "browser": 4025,
    "wit": 4026,
    "\u2581setvieworgex": 4027,
    "\u2581cqa": 4028,
    "xffda": 4029,
    "\u2581scqa": 4030,
    "tempty": 4031,
    "\u2581pscqa": 4032,
    "rectempty": 4033,
    "mb": 4034,
    "installed": 4035,
    "\u2581oemtochara": 4036,
    "copy": 4037,
    "aler": 4038,
    "virtu": 4039,
    "\u2581files": 4040,
    "\u2581virtu": 4041,
    "\u2581window": 4042,
    "\u2581virtuallock": 4043,
    "amo": 4044,
    "\u2581ur": 4045,
    "\u2581globaladdatoma": 4046,
    "\u2581tol": 4047,
    "\u2581tolower": 4048,
    "dp": 4049,
    "\u2581wtsapi": 4050,
    "gnal": 4051,
    "guid": 4052,
    "\u2581setwindowextex": 4053,
    "xffdb": 4054,
    "\u2581setviewextex": 4055,
    "trace": 4056,
    "\u2581lmir": 4057,
    "ext": 4058,
    "servicea": 4059,
    "\u2581creater": 4060,
    "fs": 4061,
    "its": 4062,
    "\u2581ww": 4063,
    "\u2581userprofil": 4064,
    "etw": 4065,
    "det": 4066,
    "\u2581offsetvieworgex": 4067,
    "\u2581vis": 4068,
    "windowextex": 4069,
    "\u2581scaleviewextex": 4070,
    "\u2581scalewindowextex": 4071,
    "\u2581getthreadpriority": 4072,
    "\u2581meta": 4073,
    "rv": 4074,
    "lot": 4075,
    "\u2581ta": 4076,
    "viewer": 4077,
    "range": 4078,
    "driver": 4079,
    "\u2581wcsn": 4080,
    "block": 4081,
    "\u2581signal": 4082,
    "dln": 4083,
    "cons": 4084,
    "mdln": 4085,
    "has": 4086,
    "idistre": 4087,
    "idistreamo": 4088,
    "quest": 4089,
    "llow": 4090,
    "ative": 4091,
    "\u2581readconsole": 4092,
    "fication": 4093,
    "fecc": 4094,
    "getatom": 4095,
    "\u2581globalgetatom": 4096,
    "lity": 4097,
    "vbvm": 4098,
    "\u2581flag": 4099,
    "\u2581pro": 4100,
    "\u2581info": 4101,
    "quo": 4102,
    "ci": 4103,
    "oka": 4104,
    "andar": 4105,
    "child": 4106,
    "\u2581msvbvm": 4107,
    "\u2581sldrl": 4108,
    "xffffe": 4109,
    "\u2581fd": 4110,
    "ress": 4111,
    "va": 4112,
    "format": 4113,
    "proper": 4114,
    "\u2581ftp": 4115,
    "\u2581http": 4116,
    "\u2581lockfile": 4117,
    "\u2581unlockfile": 4118,
    "mple": 4119,
    "\u2581mssec": 4120,
    "\u2581metaquo": 4121,
    "\u2581mssecsvc": 4122,
    "mutexw": 4123,
    "\u2581setfocus": 4124,
    "idistreamout": 4125,
    "\u2581iob": 4126,
    "\u2581taskbarcreated": 4127,
    "son": 4128,
    "eabc": 4129,
    "lear": 4130,
    "\u2581loadererror": 4131,
    "\u2581charlowerbuff": 4132,
    "\u2581xa": 4133,
    "lack": 4134,
    "\u2581lcidto": 4135,
    "\u2581lcidtolocalename": 4136,
    "ache": 4137,
    "\u2581cif": 4138,
    "othe": 4139,
    "\u2581stricmp": 4140,
    "\u2581cifmod": 4141,
    "\u2581writeprivateprofilestringa": 4142,
    "ivq": 4143,
    "\u2581wh": 4144,
    "doub": 4145,
    "doublec": 4146,
    "licktime": 4147,
    "\u2581directory": 4148,
    "\u2581getdoublec": 4149,
    "\u2581getdoubleclicktime": 4150,
    "his": 4151,
    "thi": 4152,
    "wares": 4153,
    "rey": 4154,
    "days": 4155,
    "dealer": 4156,
    "lowerw": 4157,
    "\u2581interm": 4158,
    "catalogs": 4159,
    "continue": 4160,
    "havebeen": 4161,
    "allcadwork": 4162,
    "\u2581doyoureally": 4163,
    "\u2581openanexploreron": 4164,
    "named": 4165,
    "aut": 4166,
    "\u2581cv": 4167,
    "\u2581cpp": 4168,
    "sessionid": 4169,
    "etch": 4170,
    "cache": 4171,
    "olcid": 4172,
    "enamet": 4173,
    "\u2581power": 4174,
    "enametolcid": 4175,
    "\u2581fileexistsw": 4176,
    "\u2581localenametolcid": 4177,
    "ish": 4178,
    "\u2581if": 4179,
    "result": 4180,
    "endar": 4181,
    "\u2581libg": 4182,
    "\u2581aroka": 4183,
    "calendar": 4184,
    "\u2581xc": 4185,
    "\u2581libgcc": 4186,
    "debughook": 4187,
    "\u2581gdipluss": 4188,
    "\u2581cppdebughook": 4189,
    "\u2581readconsolew": 4190,
    "isation": 4191,
    "scrollbar": 4192,
    "\u2581acmdln": 4193,
    "\u2581id": 4194,
    "\u2581users": 4195,
    "context": 4196,
    "\u2581uc": 4197,
    "\u2581getnext": 4198,
    "attribute": 4199,
    "\u2581common": 4200,
    "\u2581getnextdlg": 4201,
    "\u2581pa": 4202,
    "ftime": 4203,
    "afceff": 4204,
    "ffceffc": 4205,
    "lgi": 4206,
    "tify": 4207,
    "\u2581os": 4208,
    "\u2581gdiplus": 4209,
    "deferwindowpos": 4210,
    "\u2581cx": 4211,
    "\u2581gdipget": 4212,
    "hf": 4213,
    "pixe": 4214,
    "cdffd": 4215,
    "ceffcdffd": 4216,
    "afceffceffcdffd": 4217,
    "\u2581windowfrompoint": 4218,
    "\u2581globalfindatoma": 4219,
    "\u2581registerservicectrlhandler": 4220,
    "bin": 4221,
    "\u2581loadbitmapa": 4222,
    "gb": 4223,
    "xfrm": 4224,
    "\u2581ucrt": 4225,
    "\u2581unget": 4226,
    "visualfox": 4227,
    "xo": 4228,
    "\u2581vfp": 4229,
    "defined": 4230,
    "\u2581handler": 4231,
    "\u2581undefined": 4232,
    "visualfoxpro": 4233,
    "\u2581wide": 4234,
    "ablend": 4235,
    "phablend": 4236,
    "\u2581stea": 4237,
    "based": 4238,
    "\u2581charpreva": 4239,
    "\u2581ucrtbased": 4240,
    "dddc": 4241,
    "\u2581track": 4242,
    "\u2581openservicea": 4243,
    "installation": 4244,
    "codethread": 4245,
    "\u2581loadimage": 4246,
    "\u2581getexitcodethread": 4247,
    "\u2581pol": 4248,
    "ervicec": 4249,
    "traceguid": 4250,
    "erviceconfig": 4251,
    "queryinformation": 4252,
    "okhd": 4253,
    "\u2581cau": 4254,
    "gistry": 4255,
    "\u2581caution": 4256,
    "ks": 4257,
    "\u2581scouldnotbelocatedinthedynamiclinklibrary": 4258,
    "erf": 4259,
    "threads": 4260,
    "\u2581charupperw": 4261,
    "\u2581processthreads": 4262,
    "\u2581shgetfileinfoa": 4263,
    "rchr": 4264,
    "lib": 4265,
    "remo": 4266,
    "afca": 4267,
    "temm": 4268,
    "ddlgi": 4269,
    "ddlgitemm": 4270,
    "\u2581senddlgitemm": 4271,
    "\u2581senddlgitemmessage": 4272,
    "aret": 4273,
    "\u2581cho": 4274,
    "roniz": 4275,
    "\u2581default": 4276,
    "forcadwork": 4277,
    "ou": 4278,
    "imag": 4279,
    "\u2581synchroniz": 4280,
    "procw": 4281,
    "codeex": 4282,
    "\u2581br": 4283,
    "\u2581ni": 4284,
    "\u2581steam": 4285,
    "\u2581intersec": 4286,
    "ecode": 4287,
    "\u2581licen": 4288,
    "frame": 4289,
    "cbea": 4290,
    "etween": 4291,
    "\u2581www": 4292,
    "xebad": 4293,
    "acceleratortablew": 4294,
    "wi": 4295,
    "ssoftware": 4296,
    "ax": 4297,
    "\u2581dx": 4298,
    "\u2581fire": 4299,
    "\u2581getlong": 4300,
    "\u2581obso": 4301,
    "defaulti": 4302,
    "\u2581datetime": 4303,
    "\u2581obsolete": 4304,
    "defaultitem": 4305,
    "\u2581environment": 4306,
    "\u2581winht": 4307,
    "\u2581sfc": 4308,
    "ongles": 4309,
    "\u2581chang": 4310,
    "\u2581strcpyw": 4311,
    "qual": 4312,
    "\u2581getsystemdefaultlangid": 4313,
    "util": 4314,
    "datetime": 4315,
    "\u2581iu": 4316,
    "icli": 4317,
    "rame": 4318,
    "\u2581ssp": 4319,
    "\u2581sspicli": 4320,
    "\u2581convert": 4321,
    "config": 4322,
    "imer": 4323,
    "actctx": 4324,
    "\u2581excel": 4325,
    "\u2581memchr": 4326,
    "anew": 4327,
    "tivateactctx": 4328,
    "ght": 4329,
    "uri": 4330,
    "aram": 4331,
    "io": 4332,
    "ocu": 4333,
    "\u2581kill": 4334,
    "ablet": 4335,
    "ocument": 4336,
    "\u2581gettempfilenamea": 4337,
    "ga": 4338,
    "\u2581all": 4339,
    "orary": 4340,
    "dosdatetime": 4341,
    "\u2581movewindow": 4342,
    "\u2581filetimetodosdatetime": 4343,
    "ustment": 4344,
    "traceguidsw": 4345,
    "\u2581gdipcreate": 4346,
    "\u2581registertraceguidsw": 4347,
    "\u2581getfileattributesexw": 4348,
    "wrw": 4349,
    "ergw": 4350,
    "hgos": 4351,
    "faewrw": 4352,
    "hgosuri": 4353,
    "faewrwergw": 4354,
    "\u2581rsa": 4355,
    "\u2581dxgi": 4356,
    "\u2581rsaenh": 4357,
    "apos": 4358,
    "qerf": 4359,
    "sodp": 4360,
    "aposdf": 4361,
    "\u2581iuqerf": 4362,
    "\u2581dxgidebug": 4363,
    "\u2581iuqerfsodp": 4364,
    "\u2581equal": 4365,
    "\u2581killtimer": 4366,
    "\u2581installonly": 4367,
    "\u2581sofaddress": 4368,
    "ssd": 4369,
    "layered": 4370,
    "\u2581document": 4371,
    "layeredwindow": 4372,
    "\u2581expandenvironmentstringsw": 4373,
    "xfffffffc": 4374,
    "yourpc": 4375,
    "qd": 4376,
    "\u2581bc": 4377,
    "ffcc": 4378,
    "xabb": 4379,
    "calling": 4380,
    "afunction": 4381,
    "byt": 4382,
    "flush": 4383,
    "\u2581getsystemdefaultlcid": 4384,
    "\u2581sp": 4385,
    "\u2581max": 4386,
    "\u2581full": 4387,
    "byteex": 4388,
    "\u2581cexit": 4389,
    "fileexw": 4390,
    "\u2581gdipgetimage": 4391,
    "\u2581regdeletekeya": 4392,
    "\u2581isdbcsleadbyteex": 4393,
    "ql": 4394,
    "drawing": 4395,
    "\u2581querys": 4396,
    "\u2581getsystemtimead": 4397,
    "foreyou": 4398,
    "entr": 4399,
    "faec": 4400,
    "namet": 4401,
    "\u2581createmutexw": 4402,
    "\u2581getprofileint": 4403,
    "\u2581qq": 4404,
    "binary": 4405,
    "cke": 4406,
    "now": 4407,
    "asyn": 4408,
    "lotter": 4409,
    "asyncke": 4410,
    "\u2581getasyncke": 4411,
    "\u2581regqueryvaluea": 4412,
    "\u2581getasynckeystate": 4413,
    "web": 4414,
    "\u2581updat": 4415,
    "etchblt": 4416,
    "\u2581setscrollpos": 4417,
    "ree": 4418,
    "clear": 4419,
    "ableto": 4420,
    "git": 4421,
    "vec": 4422,
    "\u2581getinput": 4423,
    "instructioncache": 4424,
    "\u2581dir": 4425,
    "lparam": 4426,
    "\u2581ef": 4427,
    "clipr": 4428,
    "ssetup": 4429,
    "\u2581enumcalendar": 4430,
    "\u2581iswindowvisible": 4431,
    "pad": 4432,
    "\u2581ed": 4433,
    "\u2581getscrollpos": 4434,
    "ert": 4435,
    "\u2581opt": 4436,
    "ectex": 4437,
    "follow": 4438,
    "following": 4439,
    "getversion": 4440,
    "zip": 4441,
    "acle": 4442,
    "hs": 4443,
    "\u2581folder": 4444,
    "informati": 4445,
    "pen": 4446,
    "\u2581initial": 4447,
    "\u2581thisprogram": 4448,
    "\u2581flushinstructioncache": 4449,
    "\u2581uti": 4450,
    "lientin": 4451,
    "edownload": 4452,
    "\u2581variantclear": 4453,
    "ntoc": 4454,
    "leaset": 4455,
    "\u2581scree": 4456,
    "\u2581youma": 4457,
    "\u2581sysinfo": 4458,
    "ntoclient": 4459,
    "\u2581installation": 4460,
    "\u2581screentoclient": 4461,
    "pkg": 4462,
    "tab": 4463,
    "\u2581cod": 4464,
    "onthe": 4465,
    "manager": 4466,
    "downloaded": 4467,
    "tification": 4468,
    "applications": 4469,
    "yourcomputer": 4470,
    "itis": 4471,
    "\u2581demo": 4472,
    "beforeyou": 4473,
    "\u2581lookupprivilegevaluea": 4474,
    "\u2581us": 4475,
    "artn": 4476,
    "grey": 4477,
    "succ": 4478,
    "undb": 4479,
    "\u2581sql": 4480,
    "acode": 4481,
    "advis": 4482,
    "codes": 4483,
    "oyour": 4484,
    "\u2581itis": 4485,
    "ediate": 4486,
    "fromth": 4487,
    "inting": 4488,
    "stries": 4489,
    "\u2581strto": 4490,
    "between": 4491,
    "edfiles": 4492,
    "groundb": 4493,
    "ontinue": 4494,
    "standar": 4495,
    "withthi": 4496,
    "\u2581prints": 4497,
    "binaryto": 4498,
    "swindows": 4499,
    "isalready": 4500,
    "ofcadwork": 4501,
    "softwares": 4502,
    "\u2581clientin": 4503,
    "abletoquit": 4504,
    "informatik": 4505,
    "\u2581itisadvis": 4506,
    "\u2581startfile": 4507,
    "groundblack": 4508,
    "\u2581pleasecheck": 4509,
    "withthissetup": 4510,
    "\u2581intermediate": 4511,
    "allyourrunning": 4512,
    "\u2581cryptbinaryto": 4513,
    "\u2581doyouwanttore": 4514,
    "\u2581dialogswindows": 4515,
    "\u2581backgroundblack": 4516,
    "beforeyoucontinue": 4517,
    "\u2581doyoureallywantto": 4518,
    "\u2581itisadvisabletoquit": 4519,
    "allyourrunningapplications": 4520,
    "beforeyoucontinuewiththissetup": 4521,
    "\u2581itisadvisabletoquitallyourrunningapplications": 4522,
    "eng": 4523,
    "\u2581msvcp": 4524,
    "namedpipe": 4525,
    "\u2581msf": 4526,
    "filesfrom": 4527,
    "deee": 4528,
    "\u2581one": 4529,
    "\u2581fopen": 4530,
    "available": 4531,
    "\u2581loadimagew": 4532,
    "\u2581unregister": 4533,
    "\u2581fil": 4534,
    "ln": 4535,
    "cfdd": 4536,
    "riter": 4537,
    "\u2581firefo": 4538,
    "\u2581getopen": 4539,
    "vironmentblock": 4540,
    "\u2581openscmanagera": 4541,
    "thiscomputer": 4542,
    "sen": 4543,
    "note": 4544,
    "page": 4545,
    "laser": 4546,
    "\u2581sync": 4547,
    "reated": 4548,
    "\u2581msp": 4549,
    "erbuff": 4550,
    "\u2581charupperbuff": 4551,
    "\u2581getscrollinfo": 4552,
    "aace": 4553,
    "sand": 4554,
    "native": 4555,
    "\u2581setscrollinfo": 4556,
    "\u2581regdeletevaluea": 4557,
    "oup": 4558,
    "bird": 4559,
    "cores": 4560,
    "coreservice": 4561,
    "\u2581getprofilestringa": 4562,
    "kw": 4563,
    "isq": 4564,
    "pnt": 4565,
    "ssv": 4566,
    "ccon": 4567,
    "csvc": 4568,
    "fram": 4569,
    "snmp": 4570,
    "topq": 4571,
    "\u2581sqb": 4572,
    "isqlp": 4573,
    "oupds": 4574,
    "tesql": 4575,
    "\u2581sqlw": 4576,
    "\u2581tbir": 4577,
    "\u2581word": 4578,
    "cename": 4579,
    "dified": 4580,
    "lagent": 4581,
    "lussvc": 4582,
    "topqos": 4583,
    "\u2581dbeng": 4584,
    "\u2581exeen": 4585,
    "\u2581mspub": 4586,
    "\u2581ocaut": 4587,
    "\u2581ocomm": 4588,
    "\u2581ocssd": 4589,
    "\u2581visio": 4590,
    "\u2581xfssv": 4591,
    "dconfig": 4592,
    "xconfig": 4593,
    "\u2581dbsnmp": 4594,
    "\u2581except": 4595,
    "\u2581mydesk": 4596,
    "\u2581oracle": 4597,
    "\u2581onenote": 4598,
    "\u2581thunder": 4599,
    "\u2581winword": 4600,
    "\u2581wordpad": 4601,
    "\u2581exeisqlp": 4602,
    "\u2581msaccess": 4603,
    "\u2581msftesql": 4604,
    "\u2581powerpnt": 4605,
    "\u2581sqlagent": 4606,
    "\u2581synctime": 4607,
    "\u2581exeencsvc": 4608,
    "\u2581mydesktop": 4609,
    "\u2581sqlwriter": 4610,
    "\u2581xfssvccon": 4611,
    "\u2581exeagntsvc": 4612,
    "\u2581ocautoupds": 4613,
    "\u2581sqlbrowser": 4614,
    "\u2581tbirdconfig": 4615,
    "\u2581thunderbird": 4616,
    "\u2581mydesktopqos": 4617,
    "\u2581firefoxconfig": 4618,
    "\u2581exeisqlplussvc": 4619,
    "\u2581sqbcoreservice": 4620,
    "\u2581mydesktopservice": 4621,
    "omo": 4622,
    "lean": 4623,
    "orrect": 4624,
    "\u2581readonly": 4625,
    "textext": 4626,
    "stringlen": 4627,
    "\u2581setcursorpos": 4628,
    "\u2581getkeyboardlayout": 4629,
    "gs": 4630,
    "\u2581clean": 4631,
    "licenceson": 4632,
    "\u2581gettextext": 4633,
    "\u2581dd": 4634,
    "\u2581fmt": 4635,
    "\u2581msimg": 4636,
    "\u2581cc": 4637,
    "xafc": 4638,
    "request": 4639,
    "hy": 4640,
    "xadc": 4641,
    "\u2581pbd": 4642,
    "\u2581change": 4643,
    "textlength": 4644,
    "\u2581internetopena": 4645,
    "\u2581getwindowtextlength": 4646,
    "ik": 4647,
    "later": 4648,
    "\u2581changes": 4649,
    "\u2581getsystemmenu": 4650,
    "\u2581changeserviceconfig": 4651,
    "beae": 4652,
    "ial": 4653,
    "per": 4654,
    "pixel": 4655,
    "\u2581redraw": 4656,
    "\u2581getmonitor": 4657,
    "\u2581redrawwindow": 4658,
    "ffdc": 4659,
    "\u2581url": 4660,
    "eservice": 4661,
    "\u2581deleteservice": 4662,
    "bcac": 4663,
    "xaeb": 4664,
    "xafb": 4665,
    "\u2581pass": 4666,
    "anager": 4667,
    "\u2581ifyou": 4668,
    "entpoint": 4669,
    "willinstall": 4670,
    "\u2581strncpy": 4671,
    "\u2581gettextextentpoint": 4672,
    "station": 4673,
    "\u2581regcreatekeya": 4674,
    "toyour": 4675,
    "lection": 4676,
    "gl": 4677,
    "\u2581isdialog": 4678,
    "\u2581urldownload": 4679,
    "windowstation": 4680,
    "rl": 4681,
    "dfab": 4682,
    "xoqd": 4683,
    "\u2581sin": 4684,
    "lighi": 4685,
    "\u2581ellighi": 4686,
    "\u2581ellighixoqd": 4687,
    "oom": 4688,
    "stow": 4689,
    "ethis": 4690,
    "fromid": 4691,
    "fromidlist": 4692,
    "ry": 4693,
    "omob": 4694,
    "fromob": 4695,
    "\u2581deletemenu": 4696,
    "resultfromob": 4697,
    "thor": 4698,
    "tings": 4699,
    "\u2581xb": 4700,
    "\u2581iym": 4701,
    "bfcc": 4702,
    "cbcc": 4703,
    "\u2581par": 4704,
    "ention": 4705,
    "\u2581shgetfromidlist": 4706,
    "mtz": 4707,
    "\u2581dc": 4708,
    "lnik": 4709,
    "yivq": 4710,
    "yivqsw": 4711,
    "mtzlnik": 4712,
    "\u2581iymyivqsw": 4713,
    "\u2581fmtmtzlnik": 4714,
    "\u2581lresultfromob": 4715,
    "sel": 4716,
    "xacc": 4717,
    "cedri": 4718,
    "lease": 4719,
    "ibleob": 4720,
    "\u2581globalgetatomnamea": 4721,
    "inish": 4722,
    "\u2581getprocessversion": 4723,
    "efdc": 4724,
    "\u2581burn": 4725,
    "\u2581room": 4726,
    "\u2581offsetrect": 4727,
    "\u2581regqueryinfo": 4728,
    "dfdc": 4729,
    "xabf": 4730,
    "\u2581choos": 4731,
    "\u2581releasec": 4732,
    "\u2581releasecapture": 4733,
    "\u2581createpopupmenu": 4734,
    "\u2581df": 4735,
    "\u2581du": 4736,
    "afcb": 4737,
    "egistry": 4738,
    "\u2581setcapture": 4739,
    "activewindow": 4740,
    "efde": 4741,
    "winmm": 4742,
    "\u2581eb": 4743,
    "bdbc": 4744,
    "\u2581play": 4745,
    "cedrivers": 4746,
    "\u2581enumdevi": 4747,
    "\u2581explorer": 4748,
    "\u2581enumdevicedrivers": 4749,
    "bfba": 4750,
    "trgn": 4751,
    "ansom": 4752,
    "author": 4753,
    "\u2581ransom": 4754,
    "econtrol": 4755,
    "\u2581winhttp": 4756,
    "\u2581setactivewindow": 4757,
    "\u2581bf": 4758,
    "\u2581ok": 4759,
    "\u2581realloc": 4760,
    "\u2581setrect": 4761,
    "rc": 4762,
    "ebad": 4763,
    "edge": 4764,
    "urla": 4765,
    "basic": 4766,
    "\u2581ischild": 4767,
    "\u2581tra": 4768,
    "\u2581drawedge": 4769,
    "midistreamout": 4770,
    "\u2581postmessagea": 4771,
    "\u2581theprocedureentrypointmidistreamout": 4772,
    "uldnotbelocatedinthedynamiclinklibrary": 4773,
    "couldnotbelocatedinthedynamiclinklibrarywinmm": 4774,
    "xade": 4775,
    "anual": 4776,
    "\u2581cancel": 4777,
    "\u2581createdialog": 4778,
    "\u2581getdiskfreespacea": 4779,
    "adi": 4780,
    "xdfd": 4781,
    "\u2581sdl": 4782,
    "river": 4783,
    "zoom": 4784,
    "alicen": 4785,
    "zoomed": 4786,
    "\u2581excep": 4787,
    "\u2581traits": 4788,
    "\u2581iszoomed": 4789,
    "pp": 4790,
    "\u2581ec": 4791,
    "scan": 4792,
    "order": 4793,
    "\u2581abort": 4794,
    "\u2581notify": 4795,
    "\u2581getprofileintw": 4796,
    "xaca": 4797,
    "laterect": 4798,
    "\u2581enumdis": 4799,
    "\u2581licence": 4800,
    "\u2581release": 4801,
    "\u2581inflaterect": 4802,
    "iconex": 4803,
    "hmetafile": 4804,
    "imagecount": 4805,
    "\u2581drawiconex": 4806,
    "\u2581internetopenurla": 4807,
    "formation": 4808,
    "daccess": 4809,
    "\u2581fwrite": 4810,
    "\u2581intersectrect": 4811,
    "\u2581getdateformata": 4812,
    "propa": 4813,
    "accd": 4814,
    "chto": 4815,
    "\u2581swit": 4816,
    "\u2581openlog": 4817,
    "\u2581drawfram": 4818,
    "\u2581switchto": 4819,
    "\u2581setparent": 4820,
    "\u2581drawframecontrol": 4821,
    "\u2581eh": 4822,
    "caec": 4823,
    "\u2581wins": 4824,
    "\u2581rtlgetversion": 4825,
    "\u2581equalrect": 4826,
    "\u2581av": 4827,
    "alle": 4828,
    "\u2581selectan": 4829,
    "nel": 4830,
    "\u2581da": 4831,
    "hell": 4832,
    "xaab": 4833,
    "hasbeen": 4834,
    "\u2581excepti": 4835,
    "\u2581openlogw": 4836,
    "\u2581metaquote": 4837,
    "\u2581metaquotessoftware": 4838,
    "\u2581charlowerw": 4839,
    "xafd": 4840,
    "ection": 4841,
    "\u2581query": 4842,
    "\u2581sample": 4843,
    "\u2581isrectempty": 4844,
    "\u2581getfileinformationbyhandle": 4845,
    "efor": 4846,
    "\u2581updater": 4847,
    "nn": 4848,
    "\u2581ae": 4849,
    "current": 4850,
    "\u2581vs": 4851,
    "mous": 4852,
    "\u2581winspool": 4853,
    "\u2581getuserdefaultlangid": 4854,
    "aceb": 4855,
    "ectrgn": 4856,
    "\u2581thefile": 4857,
    "starttable": 4858,
    "\u2581setlocale": 4859,
    "\u2581lpservicestarttable": 4860,
    "mdi": 4861,
    "affic": 4862,
    "model": 4863,
    "tination": 4864,
    "\u2581manager": 4865,
    "\u2581traffic": 4866,
    "\u2581appmodel": 4867,
    "\u2581ck": 4868,
    "\u2581imm": 4869,
    "\u2581pack": 4870,
    "\u2581lpservi": 4871,
    "\u2581lpservicename": 4872,
    "\u2581lpserviceproc": 4873,
    "\u2581sessionmanager": 4874,
    "ight": 4875,
    "tart": 4876,
    "\u2581tim": 4877,
    "tartup": 4878,
    "\u2581screen": 4879,
    "\u2581gdiplusstartup": 4880,
    "pt": 4881,
    "cat": 4882,
    "\u2581drv": 4883,
    "\u2581yap": 4884,
    "\u2581setmode": 4885,
    "\u2581loadacceleratorsa": 4886,
    "ndmm": 4887,
    "\u2581sup": 4888,
    "\u2581borlndmm": 4889,
    "\u2581setinformation": 4890,
    "bs": 4891,
    "ui": 4892,
    "drb": 4893,
    "dvb": 4894,
    "\u2581cont": 4895,
    "\u2581next": 4896,
    "blem": 4897,
    "\u2581bak": 4898,
    "\u2581when": 4899,
    "problem": 4900,
    "tabitem": 4901,
    "dlgbutton": 4902,
    "\u2581enumdispla": 4903,
    "\u2581switchtothread": 4904,
    "\u2581getnextdlgtabitem": 4905,
    "\u2581setwindowplacement": 4906,
    "\u2581registerservicectrlhandlerexw": 4907,
    "ustom": 4908,
    "\u2581processidto": 4909,
    "\u2581queryservice": 4910,
    "\u2581setwindowrgn": 4911,
    "\u2581processidtosessionid": 4912,
    "\u2581systemparametersinfow": 4913,
    "cadc": 4914,
    "debc": 4915,
    "\u2581ee": 4916,
    "\u2581put": 4917,
    "\u2581wcst": 4918,
    "\u2581openprinter": 4919,
    "xabd": 4920,
    "cccc": 4921,
    "accessviolation": 4922,
    "\u2581queryservicestatus": 4923,
    "dcw": 4924,
    "bbbb": 4925,
    "ccdec": 4926,
    "\u2581wget": 4927,
    "consolec": 4928,
    "stdaccess": 4929,
    "\u2581pinmodule": 4930,
    "\u2581exceptione": 4931,
    "stdaccessibleob": 4932,
    "\u2581createstdaccessibleob": 4933,
    "\u2581exceptioneaccessviolation": 4934,
    "caae": 4935,
    "\u2581cache": 4936,
    "location": 4937,
    "attributes": 4938,
    "\u2581sinmodule": 4939,
    "\u2581setconsolec": 4940,
    "sdf": 4941,
    "\u2581debug": 4942,
    "uration": 4943,
    "\u2581scroll": 4944,
    "\u2581createdcw": 4945,
    "cut": 4946,
    "unc": 4947,
    "wen": 4948,
    "\u2581ca": 4949,
    "amer": 4950,
    "\u2581short": 4951,
    "\u2581fclose": 4952,
    "\u2581framer": 4953,
    "\u2581unpack": 4954,
    "\u2581getstringtyp": 4955,
    "\u2581charlowerbuffa": 4956,
    "dy": 4957,
    "hich": 4958,
    "\u2581uni": 4959,
    "select": 4960,
    "\u2581backup": 4961,
    "\u2581shortcut": 4962,
    "caaf": 4963,
    "glti": 4964,
    "ingw": 4965,
    "entrys": 4966,
    "tomati": 4967,
    "xdeadc": 4968,
    "entryslist": 4969,
    "ofa": 4970,
    "xaaf": 4971,
    "ration": 4972,
    "\u2581vfprintf": 4973,
    "\u2581insertmenuitem": 4974,
    "\u2581xe": 4975,
    "beep": 4976,
    "xafa": 4977,
    "msimg": 4978,
    "alphablend": 4979,
    "faewrwergwea": 4980,
    "\u2581messagebeep": 4981,
    "\u2581destroycursor": 4982,
    "xten": 4983,
    "\u2581abv": 4984,
    "\u2581fflush": 4985,
    "\u2581startservicectrldispatchera": 4986,
    "yr": 4987,
    "vbuf": 4988,
    "upper": 4989,
    "\u2581strtod": 4990,
    "properti": 4991,
    "\u2581setvbuf": 4992,
    "\u2581shbrows": 4993,
    "\u2581getnative": 4994,
    "\u2581setbkmode": 4995,
    "\u2581shbrowsefor": 4996,
    "\u2581getnativesystem": 4997,
    "\u2581getwindowtextlengthw": 4998,
    "\u2581theprocedureentrypointalphablend": 4999,
    "couldnotbelocatedinthedynamiclinklibrarymsimg": 5000,
    "\u2581sk": 5001,
    "aead": 5002,
    "\u2581deff": 5003,
    "\u2581wgetmain": 5004,
    "\u2581createmenu": 5005,
    "\u2581getmenuiteminfow": 5006,
    "ini": 5007,
    "tell": 5008,
    "xcfc": 5009,
    "xedc": 5010,
    "\u2581fread": 5011,
    "\u2581fseek": 5012,
    "drawings": 5013,
    "\u2581wcsncpy": 5014,
    "\u2581defframe": 5015,
    "\u2581pleasewait": 5016,
    "\u2581scrollwindow": 5017,
    "\u2581registerservicectrlhandlera": 5018,
    "oo": 5019,
    "tob": 5020,
    "\u2581fc": 5021,
    "conv": 5022,
    "\u2581uga": 5023,
    "hfdre": 5024,
    "\u2581niol": 5025,
    "okhdfr": 5026,
    "stowcs": 5027,
    "\u2581ftell": 5028,
    "\u2581mbstowcs": 5029,
    "\u2581siokhdfr": 5030,
    "\u2581getscrollrange": 5031,
    "\u2581setscrollrange": 5032,
    "\u2581getprocesswindowstation": 5033,
    "bffa": 5034,
    "xbca": 5035,
    "volum": 5036,
    "\u2581defmdi": 5037,
    "focusrect": 5038,
    "\u2581defmdichild": 5039,
    "\u2581getkeynamet": 5040,
    "\u2581drawfocusrect": 5041,
    "\u2581getmenustringw": 5042,
    "caed": 5043,
    "ccbc": 5044,
    "\u2581polk": 5045,
    "flushkey": 5046,
    "\u2581devicec": 5047,
    "\u2581utility": 5048,
    "\u2581regflushkey": 5049,
    "\u2581getnativesysteminfo": 5050,
    "\u2581destroyacceleratortable": 5051,
    "\u2581qqr": 5052,
    "decla": 5053,
    "onitors": 5054,
    "localesw": 5055,
    "ymonitors": 5056,
    "\u2581deviceclasses": 5057,
    "\u2581enumdisplaymonitors": 5058,
    "\u2581bd": 5059,
    "\u2581le": 5060,
    "fffd": 5061,
    "anies": 5062,
    "swith": 5063,
    "redwith": 5064,
    "updated": 5065,
    "convention": 5066,
    "declaredwith": 5067,
    "configuration": 5068,
    "\u2581charupperbuffw": 5069,
    "callingconvention": 5070,
    "dw": 5071,
    "ign": 5072,
    "ore": 5073,
    "atal": 5074,
    "dcce": 5075,
    "find": 5076,
    "enumer": 5077,
    "\u2581mingw": 5078,
    "working": 5079,
    "\u2581translation": 5080,
    "\u2581setrectempty": 5081,
    "\u2581aaaaaaaaaaaaaaaa": 5082,
    "\u2581aaaaaaaaaaaaaaaaaaaaaaaaaaaaaaaa": 5083,
    "mic": 5084,
    "exten": 5085,
    "\u2581tool": 5086,
    "xfffffc": 5087,
    "\u2581getmonitorinfow": 5088,
    "edec": 5089,
    "herr": 5090,
    "node": 5091,
    "\u2581couldnot": 5092,
    "\u2581shgetspecialfolderlocation": 5093,
    "ofi": 5094,
    "\u2581fatal": 5095,
    "\u2581vsprintf": 5096,
    "\u2581shgetfromidlistw": 5097,
    "\u2581enumsystemlocalesw": 5098,
    "fx": 5099,
    "deac": 5100,
    "\u2581dont": 5101,
    "\u2581errno": 5102,
    "loading": 5103,
    "trlhandler": 5104,
    "\u2581setconsolectrlhandler": 5105,
    "\u2581xd": 5106,
    "abfc": 5107,
    "\u2581lis": 5108,
    "\u2581old": 5109,
    "ctype": 5110,
    "\u2581getbk": 5111,
    "\u2581reload": 5112,
    "versioninfoa": 5113,
    "\u2581closeprinter": 5114,
    "\u2581virtualqueryex": 5115,
    "rosoftvisualfoxpro": 5116,
    "\u2581createfilemappingw": 5117,
    "\u2581dg": 5118,
    "acca": 5119,
    "bcfc": 5120,
    "resp": 5121,
    "xaee": 5122,
    "\u2581stri": 5123,
    "indirectparamw": 5124,
    "networklicence": 5125,
    "argv": 5126,
    "aved": 5127,
    "ddad": 5128,
    "\u2581sleepex": 5129,
    "\u2581documentproperti": 5130,
    "deda": 5131,
    "dows": 5132,
    "xecc": 5133,
    "disys": 5134,
    "\u2581assoc": 5135,
    "temdisys": 5136,
    "todownload": 5137,
    "temdisysaccel": 5138,
    "\u2581translatemdisysaccel": 5139,
    "aper": 5140,
    "hite": 5141,
    "\u2581inet": 5142,
    "\u2581skip": 5143,
    "\u2581strdup": 5144,
    "microsoftvisualfoxpro": 5145,
    "pdf": 5146,
    "tot": 5147,
    "\u2581ld": 5148,
    "bbbd": 5149,
    "deca": 5150,
    "totop": 5151,
    "\u2581gettext": 5152,
    "bitmapbits": 5153,
    "fromwindow": 5154,
    "\u2581appendmenuw": 5155,
    "\u2581cur": 5156,
    "wille": 5157,
    "\u2581bring": 5158,
    "cliprgn": 5159,
    "display": 5160,
    "\u2581framerect": 5161,
    "windowtotop": 5162,
    "\u2581getmenuinfo": 5163,
    "\u2581comparefiletime": 5164,
    "\u2581bringwindowtotop": 5165,
    "gy": 5166,
    "sch": 5167,
    "\u2581you": 5168,
    "emotet": 5169,
    "\u2581getnum": 5170,
    "istingfile": 5171,
    "emotethread": 5172,
    "installedon": 5173,
    "\u2581isdialogmessagew": 5174,
    "\u2581createremotethread": 5175,
    "cccf": 5176,
    "ustbe": 5177,
    "dfiles": 5178,
    "details": 5179,
    "\u2581unglti": 5180,
    "iphlpapi": 5181,
    "registered": 5182,
    "getadapters": 5183,
    "windowfrompoint": 5184,
    "\u2581setwindowtexta": 5185,
    "\u2581theprocedureentrypointgetadapters": 5186,
    "\u2581ci": 5187,
    "\u2581not": 5188,
    "enthe": 5189,
    "remov": 5190,
    "helpdesk": 5191,
    "\u2581gdipset": 5192,
    "\u2581setuser": 5193,
    "installer": 5194,
    "\u2581temporary": 5195,
    "\u2581insertmenuw": 5196,
    "\u2581getbitmapbits": 5197,
    "\u2581senddlgitemmessagea": 5198,
    "dxf": 5199,
    "edp": 5200,
    "mat": 5201,
    "xpi": 5202,
    "damm": 5203,
    "derw": 5204,
    "doyo": 5205,
    "duet": 5206,
    "edby": 5207,
    "etoc": 5208,
    "expi": 5209,
    "faff": 5210,
    "fbcb": 5211,
    "hisp": 5212,
    "ofit": 5213,
    "rein": 5214,
    "alize": 5215,
    "befor": 5216,
    "beren": 5217,
    "elect": 5218,
    "eyour": 5219,
    "fully": 5220,
    "phone": 5221,
    "pires": 5222,
    "swill": 5223,
    "texts": 5224,
    "\u2581clic": 5225,
    "\u2581zipp": 5226,
    "allzip": 5227,
    "andall": 5228,
    "arenot": 5229,
    "custom": 5230,
    "forany": 5231,
    "licenc": 5232,
    "orutil": 5233,
    "setthe": 5234,
    "stothe": 5235,
    "succes": 5236,
    "willbe": 5237,
    "\u2581yours": 5238,
    "ageduet": 5239,
    "artners": 5240,
    "backups": 5241,
    "dergrey": 5242,
    "ecodeis": 5243,
    "efolder": 5244,
    "hotline": 5245,
    "ingyour": 5246,
    "leaseto": 5247,
    "matherr": 5248,
    "onsible": 5249,
    "piresin": 5250,
    "ressthe": 5251,
    "stoyour": 5252,
    "xpirein": 5253,
    "customer": 5254,
    "inyourpc": 5255,
    "ldongles": 5256,
    "original": 5257,
    "validfor": 5258,
    "verwrite": 5259,
    "yourcode": 5260,
    "\u2581allregi": 5261,
    "\u2581already": 5262,
    "\u2581borderw": 5263,
    "\u2581pleases": 5264,
    "ecatalogs": 5265,
    "fromthere": 5266,
    "incadwork": 5267,
    "releaseto": 5268,
    "\u2581printing": 5269,
    "\u2581tocreate": 5270,
    "\u2581unsetthe": 5271,
    "andallhisp": 5272,
    "arenotresp": 5273,
    "foranydamm": 5274,
    "laserframe": 5275,
    "licencefor": 5276,
    "userprofil": 5277,
    "ageduetothe": 5278,
    "andcatalogs": 5279,
    "etocontinue": 5280,
    "isationofit": 5281,
    "succesfully": 5282,
    "xistingfile": 5283,
    "yourcadwork": 5284,
    "\u2581bordergrey": 5285,
    "\u2581clientinfo": 5286,
    "clientnumber": 5287,
    "licencewille": 5288,
    "originalfile": 5289,
    "\u2581zippedfiles": 5290,
    "allregistered": 5291,
    "codeexpiresin": 5292,
    "stothedefault": 5293,
    "\u2581sinformation": 5294,
    "customernumber": 5295,
    "\u2581allregistries": 5296,
    "\u2581borderwindows": 5297,
    "\u2581pleasecallyour": 5298,
    "\u2581setusermatherr": 5299,
    "\u2581trackpopupmenu": 5300,
    "\u2581installationfor": 5301,
    "andallhispartners": 5302,
    "arenotresponsible": 5303,
    "orutilisationofit": 5304,
    "yourcadworkdealer": 5305,
    "\u2581printslaserframe": 5306,
    "\u2581unsetthedownload": 5307,
    "allregisteredcodes": 5308,
    "forcadworkhavebeen": 5309,
    "\u2581cadworkinformatik": 5310,
    "allcadworksoftwares": 5311,
    "andcatalogsinyourpc": 5312,
    "licencewillexpirein": 5313,
    "foranydammageduetothe": 5314,
    "\u2581downloadfrominternet": 5315,
    "\u2581temporarycodeexpiresin": 5316,
    "\u2581thisprogramwillinstall": 5317,
    "\u2581createacceleratortablew": 5318,
    "installationorutilisationofit": 5319,
    "\u2581allregistriesforcadworkhavebeen": 5320,
    "andallhispartnersarenotresponsible": 5321,
    "allcadworksoftwaresandcatalogsinyourpc": 5322,
    "\u2581downloadfrominternetallregisteredcodes": 5323,
    "foranydammageduetotheinstallationorutilisationofit": 5324,
    "\u2581cadworkinformatikandallhispartnersarenotresponsible": 5325,
    "\u2581thisprogramwillinstallallcadworksoftwaresandcatalogsinyourpc": 5326,
    "dfce": 5327,
    "brushorgex": 5328,
    "yg": 5329,
    "vel": 5330,
    "edfe": 5331,
    "\u2581fls": 5332,
    "\u2581alloc": 5333,
    "options": 5334,
    "\u2581flsbuf": 5335,
    "\u2581copyimage": 5336,
    "\u2581rb": 5337,
    "cabc": 5338,
    "tocre": 5339,
    "popups": 5340,
    "tocreat": 5341,
    "\u2581showowned": 5342,
    "\u2581showscrollbar": 5343,
    "\u2581showownedpopups": 5344,
    "\u2581getfileattributesexa": 5345,
    "esw": 5346,
    "abcc": 5347,
    "edde": 5348,
    "\u2581igb": 5349,
    "\u2581basic": 5350,
    "\u2581fputc": 5351,
    "menubar": 5352,
    "\u2581strftime": 5353,
    "\u2581loadmenuw": 5354,
    "\u2581drawmenubar": 5355,
    "wow": 5356,
    "aada": 5357,
    "\u2581lseek": 5358,
    "utility": 5359,
    "\u2581removemenu": 5360,
    "deab": 5361,
    "\u2581cap": 5362,
    "\u2581lls": 5363,
    "\u2581fputs": 5364,
    "\u2581llseek": 5365,
    "\u2581copyicon": 5366,
    "\u2581createrectrgn": 5367,
    "ffeb": 5368,
    "ombs": 5369,
    "utor": 5370,
    "utorial": 5371,
    "\u2581qstring": 5372,
    "\u2581launcher": 5373,
    "\u2581wcstombs": 5374,
    "ingcadwork": 5375,
    "\u2581waitmessage": 5376,
    "\u2581setclasslongw": 5377,
    "\u2581checkdlgbutton": 5378,
    "\u2581enablescrollbar": 5379,
    "\u2581monitorfrompoint": 5380,
    "dcac": 5381,
    "xbdb": 5382,
    "\u2581trace": 5383,
    "\u2581setmenudefaultitem": 5384,
    "save": 5385,
    "\u2581pur": 5386,
    "chang": 5387,
    "econv": 5388,
    "letim": 5389,
    "waitab": 5390,
    "\u2581ismenu": 5391,
    "\u2581wcsicmp": 5392,
    "\u2581iswctype": 5393,
    "waitabletim": 5394,
    "\u2581localeconv": 5395,
    "\u2581enddeferwindowpos": 5396,
    "\u2581cg": 5397,
    "dfor": 5398,
    "\u2581dac": 5399,
    "febcc": 5400,
    "\u2581deac": 5401,
    "\u2581strerror": 5402,
    "yourauthor": 5403,
    "\u2581notifywin": 5404,
    "\u2581deferwindowpos": 5405,
    "yourauthorisation": 5406,
    "\u2581begindeferwindowpos": 5407,
    "cl": 5408,
    "aacf": 5409,
    "acad": 5410,
    "\u2581sink": 5411,
    "\u2581fdopen": 5412,
    "emodified": 5413,
    "\u2581showrunning": 5414,
    "\u2581showrunninglicenceson": 5415,
    "eno": 5416,
    "setup": 5417,
    "\u2581fstat": 5418,
    "\u2581getwc": 5419,
    "\u2581putwc": 5420,
    "\u2581filbuf": 5421,
    "\u2581ungetc": 5422,
    "\u2581strcoll": 5423,
    "\u2581strxfrm": 5424,
    "\u2581ungetwc": 5425,
    "\u2581wcscoll": 5426,
    "\u2581wcsxfrm": 5427,
    "\u2581stricoll": 5428,
    "\u2581towupper": 5429,
    "\u2581wcsftime": 5430,
    "\u2581getlogicaldrives": 5431,
    "hl": 5432,
    "deba": 5433,
    "atethe": 5434,
    "\u2581union": 5435,
    "\u2581unionrect": 5436,
    "xz": 5437,
    "aedc": 5438,
    "owno": 5439,
    "tpop": 5440,
    "showno": 5441,
    "tpopen": 5442,
    "shownolock": 5443,
    "\u2581openprinterw": 5444,
    "\u2581dragshownolock": 5445,
    "\u2581documentpropertiesw": 5446,
    "\u2581hu": 5447,
    "ffer": 5448,
    "ffcdd": 5449,
    "\u2581qqrp": 5450,
    "sources": 5451,
    "\u2581openfilemapping": 5452,
    "mc": 5453,
    "\u2581yw": 5454,
    "untof": 5455,
    "adiffer": 5456,
    "\u2581searchw": 5457,
    "adifferent": 5458,
    "\u2581getlongnamew": 5459,
    "\u2581deactivateactctx": 5460,
    "\u2581fb": 5461,
    "efab": 5462,
    "\u2581wargv": 5463,
    "dresources": 5464,
    "\u2581recreated": 5465,
    "notification": 5466,
    "\u2581shbrowseforfolderw": 5467,
    "kh": 5468,
    "dacb": 5469,
    "\u2581des": 5470,
    "sters": 5471,
    "\u2581exceptioneaccessviolationinmodule": 5472,
    "afab": 5473,
    "fddc": 5474,
    "\u2581func": 5475,
    "axi": 5476,
    "\u2581ce": 5477,
    "aaff": 5478,
    "\u2581amo": 5479,
    "\u2581amountof": 5480,
    "\u2581createpen": 5481,
    "uf": 5482,
    "\u2581zw": 5483,
    "\u2581lopen": 5484,
    "\u2581as": 5485,
    "adcf": 5486,
    "dedc": 5487,
    "\u2581getbkcolor": 5488,
    "\u2581getclipboardviewer": 5489,
    "youwantto": 5490,
    "\u2581charlowerbuffw": 5491,
    "cfbc": 5492,
    "dafd": 5493,
    "dedb": 5494,
    "extw": 5495,
    "xfcc": 5496,
    "\u2581getkeynametextw": 5497,
    "cbcb": 5498,
    "xffffff": 5499,
    "dt": 5500,
    "eti": 5501,
    "aaeb": 5502,
    "aefa": 5503,
    "ante": 5504,
    "suplibrary": 5505,
    "\u2581defframeprocw": 5506,
    "\u2581defmdichildprocw": 5507,
    "ode": 5508,
    "acac": 5509,
    "ddac": 5510,
    "eabf": 5511,
    "\u2581atl": 5512,
    "\u2581msg": 5513,
    "\u2581quest": 5514,
    "cdfd": 5515,
    "daea": 5516,
    "etimer": 5517,
    "xccccc": 5518,
    "\u2581sysalloc": 5519,
    "localdrive": 5520,
    "protection": 5521,
    "toyourlocaldrive": 5522,
    "chi": 5523,
    "\u2581dos": 5524,
    "anced": 5525,
    "\u2581huid": 5526,
    "mcw": 5527,
    "bacf": 5528,
    "bwen": 5529,
    "corem": 5530,
    "mcwkw": 5531,
    "\u2581pbvm": 5532,
    "\u2581time": 5533,
    "\u2581winc": 5534,
    "\u2581ywgb": 5535,
    "\u2581gener": 5536,
    "\u2581libif": 5537,
    "bwenmcwkw": 5538,
    "xcccccccc": 5539,
    "\u2581libifcorem": 5540,
    "asd": 5541,
    "cdbc": 5542,
    "edda": 5543,
    "\u2581backups": 5544,
    "freememory": 5545,
    "\u2581mr": 5546,
    "aabd": 5547,
    "group": 5548,
    "usethis": 5549,
    "\u2581postthread": 5550,
    "\u2581winappfirst": 5551,
    "\u2581heapqueryinformation": 5552,
    "zs": 5553,
    "adce": 5554,
    "cbee": 5555,
    "eeda": 5556,
    "\u2581yapaxi": 5557,
    "password": 5558,
    "\u2581display": 5559,
    "\u2581general": 5560,
    "tracatalogs": 5561,
    "grt": 5562,
    "beea": 5563,
    "push": 5564,
    "xbac": 5565,
    "ource": 5566,
    "fileex": 5567,
    "\u2581programdata": 5568,
    "\u2581libifcoremdd": 5569,
    "pushentryslist": 5570,
    "clipboardwindow": 5571,
    "\u2581getopenclipboardwindow": 5572,
    "\u2581interlockedpushentryslist": 5573,
    "mfc": 5574,
    "ung": 5575,
    "demo": 5576,
    "\u2581wow": 5577,
    "\u2581wave": 5578,
    "\u2581createen": 5579,
    "\u2581cocreateinstanceex": 5580,
    "aming": 5581,
    "ouble": 5582,
    "\u2581roaming": 5583,
    "\u2581sysfree": 5584,
    "\u2581attribute": 5585,
    "ws": 5586,
    "dir": 5587,
    "\u2581cn": 5588,
    "acdd": 5589,
    "bfdc": 5590,
    "ecdcc": 5591,
    "units": 5592,
    "dateti": 5593,
    "enumber": 5594,
    "xffffee": 5595,
    "alogbase": 5596,
    "dcatalogs": 5597,
    "\u2581getcaret": 5598,
    "\u2581dosdateti": 5599,
    "alogbaseunits": 5600,
    "standardcatalogs": 5601,
    "\u2581getdialogbaseunits": 5602,
    "\u2581ntqueryinformation": 5603,
    "\u2581dosdatetimetofiletime": 5604,
    "sin": 5605,
    "\u2581ya": 5606,
    "acti": 5607,
    "aedb": 5608,
    "ccec": 5609,
    "defd": 5610,
    "feac": 5611,
    "updat": 5612,
    "\u2581checking": 5613,
    "stretchblt": 5614,
    "\u2581utilityto": 5615,
    "stretchbltmode": 5616,
    "\u2581selectpalette": 5617,
    "ccdd": 5618,
    "ffab": 5619,
    "finish": 5620,
    "xbbbab": 5621,
    "xdbdad": 5622,
    "activec": 5623,
    "\u2581double": 5624,
    "\u2581ischar": 5625,
    "indirectory": 5626,
    "updatecadwork": 5627,
    "war": 5628,
    "zef": 5629,
    "bcdb": 5630,
    "xaea": 5631,
    "align": 5632,
    "xbfbe": 5633,
    "aeadac": 5634,
    "xabaaa": 5635,
    "xcbcac": 5636,
    "\u2581space": 5637,
    "xafaeadac": 5638,
    "xbfbebdbc": 5639,
    "xcfcecdcc": 5640,
    "\u2581postthreadmessagew": 5641,
    "layeredwindowattributes": 5642,
    "\u2581tlib": 5643,
    "\u2581wtsget": 5644,
    "\u2581winclass": 5645,
    "\u2581wtsenumer": 5646,
    "\u2581tlibmodule": 5647,
    "activeconsole": 5648,
    "\u2581registermodule": 5649,
    "\u2581monitorfromwindow": 5650,
    "\u2581wtsgetactiveconsole": 5651,
    "\u2581wtsgetactiveconsolesessionid": 5652,
    "anti": 5653,
    "bcee": 5654,
    "dacf": 5655,
    "edbe": 5656,
    "redi": 5657,
    "digit": 5658,
    "eddca": 5659,
    "rection": 5660,
    "\u2581setcomm": 5661,
    "\u2581waveout": 5662,
    "dialogrect": 5663,
    "\u2581metaquotes": 5664,
    "\u2581mapdialogrect": 5665,
    "\u2581updateregistry": 5666,
    "zca": 5667,
    "zcf": 5668,
    "zda": 5669,
    "zea": 5670,
    "zfe": 5671,
    "abde": 5672,
    "eeab": 5673,
    "font": 5674,
    "owner": 5675,
    "zffeb": 5676,
    "\u2581drawstate": 5677,
    "tinationdrive": 5678,
    "\u2581setwindowlonga": 5679,
    "\u2581getthreadcontext": 5680,
    "gt": 5681,
    "thr": 5682,
    "cbcf": 5683,
    "archi": 5684,
    "ccfae": 5685,
    "ffcba": 5686,
    "\u2581argv": 5687,
    "fsredi": 5688,
    "\u2581regre": 5689,
    "\u2581dragquery": 5690,
    "ma": 5691,
    "allp": 5692,
    "dfbc": 5693,
    "ectw": 5694,
    "fcdf": 5695,
    "ccaec": 5696,
    "eaacd": 5697,
    "gineer": 5698,
    "fileexa": 5699,
    "updater": 5700,
    "\u2581insertmenuitemw": 5701,
    "berform": 5702,
    "textouta": 5703,
    "veupdate": 5704,
    "\u2581profile": 5705,
    "\u2581dragfinish": 5706,
    "desktopfolder": 5707,
    "\u2581getnumberform": 5708,
    "\u2581setwindoworgex": 5709,
    "\u2581shgetdesktopfolder": 5710,
    "bre": 5711,
    "bbed": 5712,
    "fccf": 5713,
    "ffac": 5714,
    "menua": 5715,
    "fsredirection": 5716,
    "\u2581getlongnamea": 5717,
    "\u2581senddlgitemmessagew": 5718,
    "cadd": 5719,
    "cadaa": 5720,
    "sendre": 5721,
    "settings": 5722,
    "sendrequest": 5723,
    "\u2581isclipboard": 5724,
    "tpopenrequest": 5725,
    "\u2581getimagecount": 5726,
    "formatavailable": 5727,
    "\u2581unregisterclass": 5728,
    "\u2581updatelayeredwindow": 5729,
    "\u2581isclipboardformatavailable": 5730,
    "xu": 5731,
    "\u2581te": 5732,
    "efff": 5733,
    "facd": 5734,
    "ools": 5735,
    "xaec": 5736,
    "\u2581xcpt": 5737,
    "deeaff": 5738,
    "\u2581hidec": 5739,
    "\u2581touni": 5740,
    "optionw": 5741,
    "selection": 5742,
    "\u2581hidecaret": 5743,
    "\u2581xcptfilter": 5744,
    "\u2581tounicodeex": 5745,
    "\u2581getinputstate": 5746,
    "\u2581sysfreestring": 5747,
    "eacb": 5748,
    "fafe": 5749,
    "poly": 5750,
    "afbdc": 5751,
    "header": 5752,
    "hutdown": 5753,
    "scription": 5754,
    "\u2581enumcalendarinfow": 5755,
    "\u2581cryptbinarytostringa": 5756,
    "fill": 5757,
    "unct": 5758,
    "xbdc": 5759,
    "fdfdc": 5760,
    "\u2581clar": 5761,
    "\u2581inver": 5762,
    "\u2581shmem": 5763,
    "\u2581manual": 5764,
    "\u2581manualselection": 5765,
    "\u2581createdialogindirectparamw": 5766,
    "\u2581setlayeredwindowattributes": 5767,
    "cn": 5768,
    "cbfc": 5769,
    "dfcb": 5770,
    "efac": 5771,
    "hier": 5772,
    "\u2581mer": 5773,
    "aining": 5774,
    "eright": 5775,
    "\u2581lower": 5776,
    "\u2581driver": 5777,
    "updaterect": 5778,
    "\u2581getupdaterect": 5779,
    "\u2581wtsfreememory": 5780,
    "\u2581gdiplusshutdown": 5781,
    "\u2581getclipboardowner": 5782,
    "\u2581globalgetatomnamew": 5783,
    "\u2581data": 5784,
    "\u2581reus": 5785,
    "ddelparam": 5786,
    "\u2581getshell": 5787,
    "\u2581reusedde": 5788,
    "\u2581installthe": 5789,
    "\u2581lockwindow": 5790,
    "\u2581ischarlowerw": 5791,
    "\u2581peeknamedpipe": 5792,
    "\u2581dragqueryfilew": 5793,
    "\u2581getshellwindow": 5794,
    "\u2581reuseddelparam": 5795,
    "\u2581unpackddelparam": 5796,
    "\u2581lockwindowupdate": 5797,
    "\u2581mapvirtualkeyexw": 5798,
    "networklicenceservice": 5799,
    "oe": 5800,
    "vcs": 5801,
    "bbbf": 5802,
    "cefe": 5803,
    "over": 5804,
    "tern": 5805,
    "\u2581gthr": 5806,
    "\u2581pavcs": 5807,
    "\u2581punct": 5808,
    "\u2581upper": 5809,
    "\u2581drawex": 5810,
    "\u2581runtim": 5811,
    "\u2581xdigit": 5812,
    "utorials": 5813,
    "groupitem": 5814,
    "\u2581errorcode": 5815,
    "\u2581drawstatew": 5816,
    "\u2581invertrect": 5817,
    "allocateheap": 5818,
    "\u2581rtlallocateheap": 5819,
    "\u2581gdipcreatebitmap": 5820,
    "\u2581sysallocstringlen": 5821,
    "\u2581getmenudefaultitem": 5822,
    "\u2581getnextdlggroupitem": 5823,
    "dbda": 5824,
    "\u2581gdipdraw": 5825,
    "\u2581snapmodule": 5826,
    "\u2581getinputdesktop": 5827,
    "omp": 5828,
    "wid": 5829,
    "ccaf": 5830,
    "cdbf": 5831,
    "\u2581real": 5832,
    "appbar": 5833,
    "kernel": 5834,
    "\u2581atlget": 5835,
    "fxstring": 5836,
    "\u2581subtrac": 5837,
    "\u2581shappbar": 5838,
    "\u2581realchild": 5839,
    "\u2581alphablend": 5840,
    "\u2581getwindowrgn": 5841,
    "\u2581internetread": 5842,
    "\u2581subtractrect": 5843,
    "\u2581shappbarmessage": 5844,
    "\u2581copyacceleratortablew": 5845,
    "\u2581realchildwindowfrompoint": 5846,
    "aadc": 5847,
    "fbff": 5848,
    "sstr": 5849,
    "malloc": 5850,
    "\u2581getatom": 5851,
    "\u2581frominternet": 5852,
    "\u2581activateactctx": 5853,
    "\u2581getnumberformatw": 5854,
    "\u2581getstringtypeexa": 5855,
    "\u2581internetreadfile": 5856,
    "\u2581enumcalendarinfoa": 5857,
    "wor": 5858,
    "eact": 5859,
    "blink": 5860,
    "eactctx": 5861,
    "\u2581seticon": 5862,
    "blinktime": 5863,
    "\u2581runtimecheck": 5864,
    "\u2581midistreamout": 5865,
    "\u2581releaseactctx": 5866,
    "ach": 5867,
    "gui": 5868,
    "yru": 5869,
    "fadc": 5870,
    "fdcc": 5871,
    "gtdy": 5872,
    "lipr": 5873,
    "\u2581mid": 5874,
    "\u2581okhf": 5875,
    "\u2581iokhd": 5876,
    "gtdyyru": 5877,
    "\u2581getdrag": 5878,
    "\u2581iokhdgrt": 5879,
    "\u2581fatalerror": 5880,
    "\u2581okhfgtdyyru": 5881,
    "\u2581getclassinfoexa": 5882,
    "hiu": 5883,
    "ksd": 5884,
    "pha": 5885,
    "rop": 5886,
    "aaec": 5887,
    "\u2581sec": 5888,
    "lhandler": 5889,
    "strument": 5890,
    "\u2581getdragimage": 5891,
    "\u2581getcaretblinktime": 5892,
    "lmon": 5893,
    "sound": 5894,
    "tions": 5895,
    "\u2581root": 5896,
    "ccfaefc": 5897,
    "wprintf": 5898,
    "\u2581urlmon": 5899,
    "\u2581destroyen": 5900,
    "\u2581networklicence": 5901,
    "\u2581createenvironmentblock": 5902,
    "\u2581destroyenvironmentblock": 5903,
    "nc": 5904,
    "cop": 5905,
    "dfn": 5906,
    "nfs": 5907,
    "aaba": 5908,
    "cnsd": 5909,
    "ksff": 5910,
    "deedd": 5911,
    "ksdks": 5912,
    "sdfoe": 5913,
    "filein": 5914,
    "nfsdfn": 5915,
    "changeno": 5916,
    "\u2581boksdks": 5917,
    "sdfoeksff": 5918,
    "cnsdnfsdfn": 5919,
    "initfilein": 5920,
    "\u2581getwindowlonga": 5921,
    "cnsdnfsdfnsdfoeksff": 5922,
    "\u2581selectaninitfilein": 5923,
    "\u2581registerservicectrlhandlerexa": 5924,
    "gh": 5925,
    "ner": 5926,
    "afaa": 5927,
    "veto": 5928,
    "afile": 5929,
    "adcfdb": 5930,
    "vetoex": 5931,
    "\u2581lineto": 5932,
    "fedccdec": 5933,
    "arguments": 5934,
    "\u2581movetoex": 5935,
    "\u2581sysrealloc": 5936,
    "\u2581det": 5937,
    "allel": 5938,
    "dcfcc": 5939,
    "copies": 5940,
    "\u2581digit": 5941,
    "bdongles": 5942,
    "loadkeyw": 5943,
    "\u2581getpixel": 5944,
    "\u2581stretchblt": 5945,
    "eld": 5946,
    "abdf": 5947,
    "dafc": 5948,
    "eaca": 5949,
    "show": 5950,
    "thon": 5951,
    "\u2581efa": 5952,
    "inder": 5953,
    "\u2581sock": 5954,
    "getshow": 5955,
    "windowmode": 5956,
    "\u2581crtgetshow": 5957,
    "\u2581getenhmetafile": 5958,
    "\u2581crtgetshowwindowmode": 5959,
    "abdc": 5960,
    "\u2581sirc": 5961,
    "\u2581function": 5962,
    "demolicence": 5963,
    "\u2581findfirstfileexw": 5964,
    "\u2581getsavefilenamea": 5965,
    "\u2581createfontindirectw": 5966,
    "\u2581gs": 5967,
    "cdaa": 5968,
    "onhg": 5969,
    "adccc": 5970,
    "dcfccace": 5971,
    "\u2581cryptbinarytostringw": 5972,
    "fcac": 5973,
    "xbbe": 5974,
    "inutes": 5975,
    "\u2581setstretchbltmode": 5976,
    "kb": 5977,
    "lsc": 5978,
    "pat": 5979,
    "aabb": 5980,
    "eecd": 5981,
    "fadf": 5982,
    "bcccb": 5983,
    "ullsc": 5984,
    "dddcbc": 5985,
    "\u2581alpha": 5986,
    "\u2581cntrl": 5987,
    "ingthis": 5988,
    "pattern": 5989,
    "\u2581libgccw": 5990,
    "ullscreen": 5991,
    "aadd": 5992,
    "ddcd": 5993,
    "\u2581iss": 5994,
    "ected": 5995,
    "\u2581regenumkeyexa": 5996,
    "\u2581getfileversioninfoa": 5997,
    "ecu": 5998,
    "\u2581lz": 5999,
    "\u2581np": 6000,
    "\u2581zn": 6001,
    "fier": 6002,
    "xceee": 6003,
    "\u2581details": 6004,
    "\u2581wcsrchr": 6005,
    "patternbrush": 6006,
    "\u2581readofaddress": 6007,
    "\u2581regqueryinfokeyw": 6008,
    "\u2581ntqueryinformationprocess": 6009,
    "arec": 6010,
    "\u2581main": 6011,
    "\u2581filename": 6012,
    "hang": 6013,
    "yset": 6014,
    "xdfde": 6015,
    "ordinal": 6016,
    "\u2581options": 6017,
    "xdfdedddc": 6018,
    "\u2581urldownloadto": 6019,
    "cis": 6020,
    "acaa": 6021,
    "erte": 6022,
    "leco": 6023,
    "mouse": 6024,
    "tocache": 6025,
    "\u2581searcha": 6026,
    "registers": 6027,
    "\u2581recorder": 6028,
    "tocachefilew": 6029,
    "registersession": 6030,
    "\u2581urldownloadtofilew": 6031,
    "\u2581urldownloadtocachefilew": 6032,
    "registersessionnotification": 6033,
    "abdd": 6034,
    "bdcf": 6035,
    "dcad": 6036,
    "fcbf": 6037,
    "isal": 6038,
    "self": 6039,
    "cdefd": 6040,
    "ecomm": 6041,
    "ograms": 6042,
    "dccebdf": 6043,
    "\u2581packag": 6044,
    "facbcccb": 6045,
    "\u2581regenumvaluea": 6046,
    "\u2581queryservicestatusex": 6047,
    "pip": 6048,
    "\u2581xp": 6049,
    "acdb": 6050,
    "fdec": 6051,
    "queu": 6052,
    "\u2581poly": 6053,
    "ectsex": 6054,
    "\u2581getkb": 6055,
    "thename": 6056,
    "dosdevice": 6057,
    "queuetimer": 6058,
    "\u2581getkbcodepage": 6059,
    "\u2581internetconnect": 6060,
    "\u2581sysreallocstringlen": 6061,
    "ahi": 6062,
    "xacd": 6063,
    "xeac": 6064,
    "\u2581dde": 6065,
    "ecaus": 6066,
    "\u2581fdiv": 6067,
    "script": 6068,
    "\u2581acopy": 6069,
    "ingafile": 6070,
    "isalways": 6071,
    "\u2581cannotopen": 6072,
    "\u2581acopyisalways": 6073,
    "\u2581acopyisalwayscreated": 6074,
    "eaac": 6075,
    "eccd": 6076,
    "xdec": 6077,
    "ivqxu": 6078,
    "\u2581ldla": 6079,
    "backup": 6080,
    "bceedac": 6081,
    "\u2581bbccdd": 6082,
    "\u2581wcsstr": 6083,
    "locatethe": 6084,
    "\u2581ldlaivqxu": 6085,
    "argumentsaction": 6086,
    "\u2581cannotlocatethe": 6087,
    "microsoftvisualfoxprosuplibrary": 6088,
    "\u2581cannotlocatethemicrosoftvisualfoxprosuplibrary": 6089,
    "atec": 6090,
    "angle": 6091,
    "baefd": 6092,
    "\u2581acrt": 6093,
    "\u2581lclose": 6094,
    "\u2581safearray": 6095,
    "ana": 6096,
    "\u2581xt": 6097,
    "afcf": 6098,
    "cdfa": 6099,
    "fefc": 6100,
    "\u2581num": 6101,
    "\u2581pbdh": 6102,
    "setend": 6103,
    "\u2581explo": 6104,
    "offileco": 6105,
    "\u2581tryenter": 6106,
    "setendoffileco": 6107,
    "\u2581tryentercriticalsection": 6108,
    "\u2581theprocedureentrypointsetendoffileco": 6109,
    "uldnotbelocatedinthedynamiclinklibrarykernel": 6110,
    "oco": 6111,
    "ddca": 6112,
    "erson": 6113,
    "associ": 6114,
    "specific": 6115,
    "\u2581sinimage": 6116,
    "\u2581httpopenrequest": 6117,
    "\u2581httpsendrequest": 6118,
    "daac": 6119,
    "dabc": 6120,
    "ercis": 6121,
    "selfc": 6122,
    "\u2581after": 6123,
    "archivec": 6124,
    "\u2581cannotopenselfc": 6125,
    "ep": 6126,
    "ccef": 6127,
    "ebdc": 6128,
    "\u2581yax": 6129,
    "delet": 6130,
    "\u2581realize": 6131,
    "zspecific": 6132,
    "\u2581trackmouse": 6133,
    "\u2581realizepalette": 6134,
    "clu": 6135,
    "hal": 6136,
    "\u2581td": 6137,
    "fafd": 6138,
    "\u2581and": 6139,
    "\u2581hid": 6140,
    "etemp": 6141,
    "letit": 6142,
    "standard": 6143,
    "associative": 6144,
    "\u2581fo": 6145,
    "arge": 6146,
    "\u2581don": 6147,
    "dedcbd": 6148,
    "parama": 6149,
    "\u2581exclu": 6150,
    "facdedcbd": 6151,
    "\u2581shgetmalloc": 6152,
    "\u2581getshortnamea": 6153,
    "adfc": 6154,
    "cead": 6155,
    "fine": 6156,
    "fire": 6157,
    "pror": 6158,
    "xacb": 6159,
    "efeea": 6160,
    "quenc": 6161,
    "eeedec": 6162,
    "infoco": 6163,
    "sequenc": 6164,
    "\u2581define": 6165,
    "\u2581wcscmp": 6166,
    "xefeeedec": 6167,
    "proruntime": 6168,
    "\u2581visualfox": 6169,
    "sequencenumber": 6170,
    "\u2581regqueryinfokeya": 6171,
    "\u2581visualfoxproruntime": 6172,
    "\u2581getclipboardsequencenumber": 6173,
    "\u2581theprocedureentrypointgetadaptersinfoco": 6174,
    "uldnotbelocatedinthedynamiclinklibraryiphlpapi": 6175,
    "ple": 6176,
    "\u2581sy": 6177,
    "bcolor": 6178,
    "declipr": 6179,
    "\u2581direct": 6180,
    "decliprect": 6181,
    "bcolortable": 6182,
    "\u2581theordinal": 6183,
    "\u2581excludecliprect": 6184,
    "pd": 6185,
    "udi": 6186,
    "ance": 6187,
    "wall": 6188,
    "amedi": 6189,
    "ffbfc": 6190,
    "ercises": 6191,
    "fbfddac": 6192,
    "raphics": 6193,
    "orarchivec": 6194,
    "\u2581createicon": 6195,
    "\u2581settextalign": 6196,
    "\u2581selectcliprgn": 6197,
    "\u2581microsoftvisualfoxpro": 6198,
    "gle": 6199,
    "firm": 6200,
    "test": 6201,
    "\u2581pre": 6202,
    "icons": 6203,
    "ingto": 6204,
    "\u2581cxxf": 6205,
    "\u2581last": 6206,
    "\u2581cxxframe": 6207,
    "\u2581internetset": 6208,
    "\u2581cxxframehandler": 6209,
    "lui": 6210,
    "like": 6211,
    "ubip": 6212,
    "\u2581xtp": 6213,
    "edafd": 6214,
    "xebeae": 6215,
    "\u2581aclui": 6216,
    "\u2581pubip": 6217,
    "modules": 6218,
    "\u2581setrop": 6219,
    "firewall": 6220,
    "onyourpc": 6221,
    "orrectly": 6222,
    "thiserror": 6223,
    "\u2581allocator": 6224,
    "userprofile": 6225,
    "\u2581selectaninitfileinuserprofile": 6226,
    "bem": 6227,
    "befc": 6228,
    "\u2581aec": 6229,
    "\u2581mbs": 6230,
    "abdacf": 6231,
    "cedccd": 6232,
    "within": 6233,
    "\u2581prefer": 6234,
    "orcadwork": 6235,
    "we": 6236,
    "gds": 6237,
    "bbec": 6238,
    "edfd": 6239,
    "fcdd": 6240,
    "foun": 6241,
    "xbce": 6242,
    "\u2581pat": 6243,
    "bafcb": 6244,
    "begin": 6245,
    "fromh": 6246,
    "lassob": 6247,
    "\u2581patblt": 6248,
    "xtension": 6249,
    "cbbf": 6250,
    "eedc": 6251,
    "decomp": 6252,
    "ecaceb": 6253,
    "logger": 6254,
    "plotter": 6255,
    "\u2581mbsrchr": 6256,
    "\u2581gdipdelete": 6257,
    "\u2581unregisterclassa": 6258,
    "\u2581cr": 6259,
    "bbcf": 6260,
    "\u2581help": 6261,
    "\u2581strcat": 6262,
    "graphics": 6263,
    "\u2581interne": 6264,
    "stringformat": 6265,
    "\u2581setdlldirectorya": 6266,
    "ome": 6267,
    "\u2581wu": 6268,
    "acdf": 6269,
    "dbfc": 6270,
    "\u2581pdf": 6271,
    "ablea": 6272,
    "again": 6273,
    "cbaaf": 6274,
    "ofthe": 6275,
    "\u2581name": 6276,
    "\u2581sets": 6277,
    "ectand": 6278,
    "\u2581sendinput": 6279,
    "\u2581information": 6280,
    "ude": 6281,
    "\u2581cmd": 6282,
    "\u2581lok": 6283,
    "andre": 6284,
    "hasbeenfoun": 6285,
    "ecef": 6286,
    "ther": 6287,
    "\u2581kso": 6288,
    "\u2581tor": 6289,
    "fdccd": 6290,
    "\u2581tele": 6291,
    "cffcdd": 6292,
    "installe": 6293,
    "\u2581findfilenamew": 6294,
    "asy": 6295,
    "ram": 6296,
    "\u2581ao": 6297,
    "\u2581ga": 6298,
    "\u2581ti": 6299,
    "aeff": 6300,
    "xaac": 6301,
    "\u2581mai": 6302,
    "thela": 6303,
    "\u2581exel": 6304,
    "thelatest": 6305,
    "zi": 6306,
    "cse": 6307,
    "char": 6308,
    "ffbc": 6309,
    "xfca": 6310,
    "orrec": 6311,
    "\u2581alnum": 6312,
    "orrecte": 6313,
    "tomaticse": 6314,
    "\u2581automaticse": 6315,
    "\u2581exttextouta": 6316,
    "\u2581automaticselection": 6317,
    "lit": 6318,
    "lys": 6319,
    "cbad": 6320,
    "bytes": 6321,
    "\u2581wayset": 6322,
    "software": 6323,
    "waitabletimer": 6324,
    "\u2581setwindowshookexa": 6325,
    "\u2581waysetassociative": 6326,
    "ao": 6327,
    "iot": 6328,
    "cbec": 6329,
    "fada": 6330,
    "\u2581nto": 6331,
    "\u2581best": 6332,
    "canwork": 6333,
    "\u2581clariot": 6334,
    "\u2581verquery": 6335,
    "\u2581companies": 6336,
    "\u2581bestapplication": 6337,
    "acfc": 6338,
    "eaae": 6339,
    "xfcb": 6340,
    "andard": 6341,
    "streamw": 6342,
    "\u2581number": 6343,
    "\u2581wtsenumerate": 6344,
    "\u2581getwindowtexta": 6345,
    "\u2581setthreadcontext": 6346,
    "obe": 6347,
    "\u2581py": 6348,
    "\u2581zp": 6349,
    "etot": 6350,
    "edccc": 6351,
    "\u2581found": 6352,
    "extended": 6353,
    "ofcopies": 6354,
    "etotzspecific": 6355,
    "\u2581numberofcopies": 6356,
    "\u2581openfilemappinga": 6357,
    "etotzspecificlocaltime": 6358,
    "\u2581systemtimetotzspecificlocaltime": 6359,
    "asa": 6360,
    "\u2581sd": 6361,
    "afda": 6362,
    "bdbe": 6363,
    "dfte": 6364,
    "ving": 6365,
    "xaae": 6366,
    "\u2581hut": 6367,
    "\u2581srv": 6368,
    "entin": 6369,
    "ffile": 6370,
    "hatch": 6371,
    "khdfte": 6372,
    "\u2581child": 6373,
    "\u2581becaus": 6374,
    "\u2581hutdre": 6375,
    "\u2581thread": 6376,
    "\u2581becausethe": 6377,
    "\u2581polkkhdfte": 6378,
    "hmetafilebits": 6379,
    "\u2581getprocessid": 6380,
    "installationwill": 6381,
    "\u2581becausetheinstallationwill": 6382,
    "beh": 6383,
    "man": 6384,
    "babf": 6385,
    "cows": 6386,
    "deaa": 6387,
    "eddc": 6388,
    "ross": 6389,
    "unda": 6390,
    "stall": 6391,
    "python": 6392,
    "\u2581dgram": 6393,
    "\u2581unicows": 6394,
    "\u2581addatoma": 6395,
    "\u2581settings": 6396,
    "bn": 6397,
    "orp": 6398,
    "rar": 6399,
    "ccab": 6400,
    "debe": 6401,
    "ftys": 6402,
    "kgyd": 6403,
    "stdc": 6404,
    "uret": 6405,
    "\u2581seq": 6406,
    "dadad": 6407,
    "\u2581dows": 6408,
    "kgydter": 6409,
    "ftysuret": 6410,
    "\u2581libstdc": 6411,
    "queryuser": 6412,
    "\u2581lokkgydter": 6413,
    "\u2581hidftysuret": 6414,
    "aga": 6415,
    "lex": 6416,
    "lls": 6417,
    "faebb": 6418,
    "\u2581hide": 6419,
    "answer": 6420,
    "eddaaf": 6421,
    "layers": 6422,
    "logfile": 6423,
    "eenhmetafile": 6424,
    "\u2581getatomnamea": 6425,
    "\u2581querydosdevice": 6426,
    "od": 6427,
    "hyt": 6428,
    "\u2581gd": 6429,
    "\u2581im": 6430,
    "\u2581wt": 6431,
    "aily": 6432,
    "uana": 6433,
    "\u2581woo": 6434,
    "namee": 6435,
    "stdre": 6436,
    "\u2581mari": 6437,
    "hytdre": 6438,
    "tingto": 6439,
    "\u2581daily": 6440,
    "\u2581ddegw": 6441,
    "\u2581sonhg": 6442,
    "thefile": 6443,
    "\u2581winrar": 6444,
    "\u2581installs": 6445,
    "\u2581uninstal": 6446,
    "\u2581findatoma": 6447,
    "\u2581woohytdre": 6448,
    "\u2581sonhgstdre": 6449,
    "faewrwergwff": 6450,
    "adv": 6451,
    "cii": 6452,
    "del": 6453,
    "lya": 6454,
    "ofe": 6455,
    "vir": 6456,
    "\u2581mi": 6457,
    "\u2581zu": 6458,
    "affb": 6459,
    "enda": 6460,
    "hrow": 6461,
    "isus": 6462,
    "that": 6463,
    "very": 6464,
    "\u2581vsn": 6465,
    "acdfe": 6466,
    "ascii": 6467,
    "cbaca": 6468,
    "ofesp": 6469,
    "across": 6470,
    "uallya": 6471,
    "lysaved": 6472,
    "automati": 6473,
    "detected": 6474,
    "interval": 6475,
    "resultof": 6476,
    "tinstall": 6477,
    "\u2581console": 6478,
    "\u2581thisisus": 6479,
    "valueofesp": 6480,
    "\u2581theprogram": 6481,
    "wasnotproper": 6482,
    "afunctioncall": 6483,
    "lysavedacross": 6484,
    "withafunction": 6485,
    "\u2581errorloading": 6486,
    "uallyaresultof": 6487,
    "declaredwithone": 6488,
    "callingafunction": 6489,
    "pointerdeclaredwith": 6490,
    "valueofespwasnotproper": 6491,
    "\u2581thisisusuallyaresultof": 6492,
    "lysavedacrossafunctioncall": 6493,
    "adifferentcallingconvention": 6494,
    "callingconventionwithafunction": 6495,
    "callingafunctiondeclaredwithone": 6496,
    "pointerdeclaredwithadifferentcallingconvention": 6497,
    "valueofespwasnotproperlysavedacrossafunctioncall": 6498,
    "\u2581thisisusuallyaresultofcallingafunctiondeclaredwithone": 6499,
    "dun": 6500,
    "baae": 6501,
    "dbeb": 6502,
    "fddb": 6503,
    "keys": 6504,
    "\u2581thi": 6505,
    "panel": 6506,
    "which": 6507,
    "\u2581cxxt": 6508,
    "release": 6509,
    "pythondll": 6510,
    "\u2581cxxthrow": 6511,
    "\u2581printwindow": 6512,
    "\u2581couldnotload": 6513,
    "\u2581programfiles": 6514,
    "\u2581cxxthrowexception": 6515,
    "\u2581errorloadingpythondll": 6516,
    "ud": 6517,
    "bbcc": 6518,
    "ddec": 6519,
    "hout": 6520,
    "tice": 6521,
    "xfcd": 6522,
    "xfce": 6523,
    "ynch": 6524,
    "vious": 6525,
    "\u2581node": 6526,
    "\u2581quit": 6527,
    "dcadca": 6528,
    "tclipr": 6529,
    "tcliprect": 6530,
    "\u2581standard": 6531,
    "workingset": 6532,
    "\u2581getclassnamea": 6533,
    "\u2581getwindoworgex": 6534,
    "\u2581intersectcliprect": 6535,
    "iw": 6536,
    "ets": 6537,
    "ftp": 6538,
    "lik": 6539,
    "eebe": 6540,
    "reco": 6541,
    "seis": 6542,
    "sthe": 6543,
    "clone": 6544,
    "emode": 6545,
    "\u2581conc": 6546,
    "\u2581will": 6547,
    "\u2581click": 6548,
    "\u2581merge": 6549,
    "\u2581playenh": 6550,
    "sessionsa": 6551,
    "\u2581continue": 6552,
    "\u2581connection": 6553,
    "\u2581wtsqueryuser": 6554,
    "\u2581playenhmetafile": 6555,
    "\u2581wtsqueryusertoken": 6556,
    "\u2581getfileversioninfow": 6557,
    "\u2581wtsenumeratesessionsa": 6558,
    "eak": 6559,
    "ich": 6560,
    "oto": 6561,
    "stw": 6562,
    "appe": 6563,
    "bcdc": 6564,
    "each": 6565,
    "ffee": 6566,
    "task": 6567,
    "team": 6568,
    "tinu": 6569,
    "\u2581sem": 6570,
    "cbcef": 6571,
    "dcbac": 6572,
    "fcddd": 6573,
    "initi": 6574,
    "ities": 6575,
    "mouseb": 6576,
    "uttons": 6577,
    "\u2581level": 6578,
    "\u2581conver": 6579,
    "ecutable": 6580,
    "tousethis": 6581,
    "\u2581isrunning": 6582,
    "oraryfolder": 6583,
    "\u2581synchronize": 6584,
    "\u2581setbrushorgex": 6585,
    "dhy": 6586,
    "iat": 6587,
    "toa": 6588,
    "\u2581ep": 6589,
    "dfed": 6590,
    "gert": 6591,
    "komm": 6592,
    "mote": 6593,
    "tyus": 6594,
    "\u2581led": 6595,
    "\u2581snd": 6596,
    "indic": 6597,
    "mited": 6598,
    "ories": 6599,
    "ronis": 6600,
    "xccaa": 6601,
    "\u2581base": 6602,
    "\u2581edit": 6603,
    "\u2581goto": 6604,
    "buffer": 6605,
    "dhyude": 6606,
    "ersist": 6607,
    "releas": 6608,
    "tyusre": 6609,
    "\u2581extra": 6610,
    "\u2581field": 6611,
    "\u2581ntice": 6612,
    "managem": 6613,
    "motesup": 6614,
    "wanttoc": 6615,
    "\u2581youmay": 6616,
    "assistre": 6617,
    "leasetry": 6618,
    "\u2581package": 6619,
    "\u2581restart": 6620,
    "\u2581strrchr": 6621,
    "incontrol": 6622,
    "\u2581associat": 6623,
    "\u2581imagehlp": 6624,
    "\u2581pleasere": 6625,
    "\u2581gdipclone": 6626,
    "\u2581pleasetry": 6627,
    "\u2581cannotfind": 6628,
    "\u2581huidtyusre": 6629,
    "\u2581polkdhyude": 6630,
    "errormessage": 6631,
    "mousebuttons": 6632,
    "\u2581gotoassistre": 6633,
    "\u2581internetquery": 6634,
    "\u2581createdibitmap": 6635,
    "\u2581fatalerrordetected": 6636,
    "\u2581gotoassistremotesup": 6637,
    "\u2581pleasetrytodownload": 6638,
    "\u2581getnumberofconsolemousebuttons": 6639,
    "ml": 6640,
    "yt": 6641,
    "kso": 6642,
    "xto": 6643,
    "dede": 6644,
    "ffdd": 6645,
    "vect": 6646,
    "xaba": 6647,
    "\u2581gcc": 6648,
    "\u2581vsw": 6649,
    "ester": 6650,
    "selec": 6651,
    "tinel": 6652,
    "arecon": 6653,
    "define": 6654,
    "mustbe": 6655,
    "office": 6656,
    "opened": 6657,
    "playso": 6658,
    "\u2581black": 6659,
    "\u2581opene": 6660,
    "\u2581thist": 6661,
    "\u2581white": 6662,
    "execute": 6663,
    "setting": 6664,
    "\u2581person": 6665,
    "letitlea": 6666,
    "\u2581updaten": 6667,
    "\u2581installm": 6668,
    "\u2581interval": 6669,
    "\u2581varianti": 6670,
    "playsounda": 6671,
    "\u2581movefileexa": 6672,
    "printerdriver": 6673,
    "\u2581sndplaysounda": 6674,
    "\u2581interlockedexchangeadd": 6675,
    "wo": 6676,
    "eem": 6677,
    "noc": 6678,
    "into": 6679,
    "modi": 6680,
    "more": 6681,
    "orry": 6682,
    "ourc": 6683,
    "step": 6684,
    "umbn": 6685,
    "xdfc": 6686,
    "\u2581env": 6687,
    "eeded": 6688,
    "eexpi": 6689,
    "ftone": 6690,
    "xthis": 6691,
    "accord": 6692,
    "exists": 6693,
    "groups": 6694,
    "manual": 6695,
    "necess": 6696,
    "\u2581large": 6697,
    "\u2581other": 6698,
    "\u2581sorry": 6699,
    "\u2581sourc": 6700,
    "actyour": 6701,
    "ecolors": 6702,
    "foreach": 6703,
    "fromthe": 6704,
    "openthe": 6705,
    "removed": 6706,
    "removet": 6707,
    "vectore": 6708,
    "\u2581getenv": 6709,
    "\u2581ledger": 6710,
    "\u2581locale": 6711,
    "advanced": 6712,
    "halftone": 6713,
    "manually": 6714,
    "selected": 6715,
    "\u2581limited": 6716,
    "selectall": 6717,
    "utilities": 6718,
    "\u2581ungltige": 6719,
    "\u2581associate": 6720,
    "halftonepalette": 6721,
    "\u2581sourcedirectory": 6722,
    "vectoredexception": 6723,
    "ingthisapplication": 6724,
    "\u2581createhalftonepalette": 6725,
    "aem": 6726,
    "bye": 6727,
    "hen": 6728,
    "ifc": 6729,
    "isa": 6730,
    "lwh": 6731,
    "ofd": 6732,
    "woo": 6733,
    "abou": 6734,
    "actp": 6735,
    "adob": 6736,
    "alli": 6737,
    "arag": 6738,
    "asac": 6739,
    "civi": 6740,
    "easy": 6741,
    "edvi": 6742,
    "exew": 6743,
    "extr": 6744,
    "faxo": 6745,
    "gniz": 6746,
    "inci": 6747,
    "inda": 6748,
    "ived": 6749,
    "lauf": 6750,
    "ldxf": 6751,
    "nexe": 6752,
    "none": 6753,
    "ofor": 6754,
    "ofyo": 6755,
    "onab": 6756,
    "oold": 6757,
    "orby": 6758,
    "orfa": 6759,
    "owse": 6760,
    "oyou": 6761,
    "rete": 6762,
    "sare": 6763,
    "seem": 6764,
    "till": 6765,
    "tine": 6766,
    "tobe": 6767,
    "usho": 6768,
    "utno": 6769,
    "ynow": 6770,
    "\u2581dxf": 6771,
    "\u2581fax": 6772,
    "\u2581nob": 6773,
    "\u2581now": 6774,
    "\u2581tof": 6775,
    "\u2581tog": 6776,
    "\u2581usb": 6777,
    "\u2581viz": 6778,
    "aemai": 6779,
    "alarg": 6780,
    "andth": 6781,
    "aninf": 6782,
    "autoc": 6783,
    "becop": 6784,
    "bitsw": 6785,
    "cefde": 6786,
    "chool": 6787,
    "coder": 6788,
    "dcadd": 6789,
    "dfory": 6790,
    "doyou": 6791,
    "dvbor": 6792,
    "eakui": 6793,
    "ecebf": 6794,
    "eclos": 6795,
    "edbya": 6796,
    "faxit": 6797,
    "formp": 6798,
    "getoc": 6799,
    "guide": 6800,
    "inany": 6801,
    "inite": 6802,
    "isins": 6803,
    "links": 6804,
    "lpdfd": 6805,
    "mbtob": 6806,
    "newit": 6807,
    "ommen": 6808,
    "opies": 6809,
    "orpur": 6810,
    "pleus": 6811,
    "raphs": 6812,
    "sgrey": 6813,
    "since": 6814,
    "snode": 6815,
    "ssoft": 6816,
    "studi": 6817,
    "synch": 6818,
    "thome": 6819,
    "tocon": 6820,
    "trati": 6821,
    "useth": 6822,
    "white": 6823,
    "wills": 6824,
    "withe": 6825,
    "would": 6826,
    "\u2581adef": 6827,
    "\u2581anew": 6828,
    "\u2581ares": 6829,
    "\u2581city": 6830,
    "\u2581duet": 6831,
    "\u2581grey": 6832,
    "\u2581lets": 6833,
    "\u2581lpdf": 6834,
    "\u2581oldd": 6835,
    "\u2581road": 6836,
    "\u2581runt": 6837,
    "\u2581save": 6838,
    "\u2581usef": 6839,
    "abatch": 6840,
    "allthe": 6841,
    "andthe": 6842,
    "andyou": 6843,
    "arebeh": 6844,
    "artner": 6845,
    "aryinc": 6846,
    "aseofa": 6847,
    "blocks": 6848,
    "byeach": 6849,
    "dongle": 6850,
    "eceive": 6851,
    "electa": 6852,
    "ertedc": 6853,
    "ewhich": 6854,
    "faxore": 6855,
    "fileif": 6856,
    "filled": 6857,
    "forthe": 6858,
    "foryou": 6859,
    "hatchs": 6860,
    "hefile": 6861,
    "houtsa": 6862,
    "initiv": 6863,
    "itself": 6864,
    "itwill": 6865,
    "letter": 6866,
    "letyou": 6867,
    "ofazip": 6868,
    "ofdate": 6869,
    "ornode": 6870,
    "pixels": 6871,
    "sample": 6872,
    "saveas": 6873,
    "school": 6874,
    "sionsb": 6875,
    "spaper": 6876,
    "swillb": 6877,
    "ticons": 6878,
    "upteam": 6879,
    "ustill": 6880,
    "wantci": 6881,
    "warded": 6882,
    "\u2581brows": 6883,
    "\u2581butno": 6884,
    "\u2581donot": 6885,
    "\u2581exeto": 6886,
    "\u2581oldor": 6887,
    "\u2581onthe": 6888,
    "\u2581sende": 6889,
    "\u2581sview": 6890,
    "\u2581userp": 6891,
    "adongle": 6892,
    "againci": 6893,
    "alicenc": 6894,
    "alizedp": 6895,
    "andnode": 6896,
    "andreco": 6897,
    "andrema": 6898,
    "anymore": 6899,
    "askwill": 6900,
    "ateyour": 6901,
    "ationto": 6902,
    "bechang": 6903,
    "bemanag": 6904,
    "ccceecd": 6905,
    "civilen": 6906,
    "codehas": 6907,
    "confirm": 6908,
    "datnext": 6909,
    "dforpar": 6910,
    "eceived": 6911,
    "ediatec": 6912,
    "edpleas": 6913,
    "eedwith": 6914,
    "entasac": 6915,
    "exewill": 6916,
    "expired": 6917,
    "filesto": 6918,
    "foranew": 6919,
    "formdxf": 6920,
    "foryour": 6921,
    "gineers": 6922,
    "heckbox": 6923,
    "illorby": 6924,
    "istoold": 6925,
    "ivemode": 6926,
    "namethe": 6927,
    "ofyoure": 6928,
    "onlythe": 6929,
    "openisa": 6930,
    "orfaxto": 6931,
    "pagetoc": 6932,
    "passive": 6933,
    "pdffile": 6934,
    "quitwit": 6935,
    "renamee": 6936,
    "ronised": 6937,
    "schools": 6938,
    "seemsto": 6939,
    "studies": 6940,
    "success": 6941,
    "swithan": 6942,
    "thecomp": 6943,
    "thissec": 6944,
    "tivated": 6945,
    "toenter": 6946,
    "uldcopy": 6947,
    "viewthe": 6948,
    "withthe": 6949,
    "woodcon": 6950,
    "yprefer": 6951,
    "\u2581alldxf": 6952,
    "\u2581belong": 6953,
    "\u2581borrow": 6954,
    "\u2581browse": 6955,
    "\u2581mustbe": 6956,
    "\u2581nobeep": 6957,
    "\u2581sclock": 6958,
    "\u2581smalli": 6959,
    "\u2581thesen": 6960,
    "\u2581thumbn": 6961,
    "\u2581toggle": 6962,
    "\u2581uncomp": 6963,
    "\u2581youcan": 6964,
    "\u2581yousho": 6965,
    "aemailwh": 6966,
    "alicense": 6967,
    "andbegin": 6968,
    "anetwork": 6969,
    "backupso": 6970,
    "becopied": 6971,
    "bitswhen": 6972,
    "deleteit": 6973,
    "deleteth": 6974,
    "dforyour": 6975,
    "directly": 6976,
    "efaxthis": 6977,
    "filesare": 6978,
    "findyour": 6979,
    "foracode": 6980,
    "gistries": 6981,
    "gnizedby": 6982,
    "inishthe": 6983,
    "keyisins": 6984,
    "lastmodi": 6985,
    "linesand": 6986,
    "modified": 6987,
    "newcodes": 6988,
    "nexttime": 6989,
    "notvalid": 6990,
    "numberof": 6991,
    "ofallzip": 6992,
    "ommended": 6993,
    "printing": 6994,
    "releases": 6995,
    "spersist": 6996,
    "stepwill": 6997,
    "stweakui": 6998,
    "thisfile": 6999,
    "tobedeac": 7000,
    "updateit": 7001,
    "usertype": 7002,
    "versions": 7003,
    "whichare": 7004,
    "wouldlik": 7005,
    "\u2581address": 7006,
    "\u2581checkif": 7007,
    "\u2581company": 7008,
    "\u2581copyall": 7009,
    "\u2581country": 7010,
    "\u2581explode": 7011,
    "\u2581foundin": 7012,
    "\u2581getanew": 7013,
    "\u2581getinfo": 7014,
    "\u2581letsyou": 7015,
    "\u2581loaddxf": 7016,
    "\u2581mailnow": 7017,
    "\u2581minutes": 7018,
    "\u2581opening": 7019,
    "\u2581playthe": 7020,
    "\u2581pleaser": 7021,
    "\u2581remover": 7022,
    "\u2581removes": 7023,
    "\u2581runthis": 7024,
    "\u2581samples": 7025,
    "\u2581sendbye": 7026,
    "\u2581sentine": 7027,
    "\u2581setupth": 7028,
    "\u2581skipdow": 7029,
    "\u2581supfrom": 7030,
    "\u2581thecode": 7031,
    "\u2581toorder": 7032,
    "\u2581touseth": 7033,
    "\u2581whennoc": 7034,
    "\u2581withnet": 7035,
    "\u2581xchange": 7036,
    "\u2581yourweb": 7037,
    "afloating": 7038,
    "amedinexe": 7039,
    "andthenew": 7040,
    "andupdate": 7041,
    "aragraphs": 7042,
    "autocadob": 7043,
    "avedwithe": 7044,
    "browseron": 7045,
    "bycadwork": 7046,
    "companies": 7047,
    "dfilescon": 7048,
    "electable": 7049,
    "endavalid": 7050,
    "ethisfile": 7051,
    "etoanswer": 7052,
    "extralarg": 7053,
    "fications": 7054,
    "filesnode": 7055,
    "fromthecd": 7056,
    "ifcorrect": 7057,
    "intotexts": 7058,
    "lautility": 7059,
    "letefiles": 7060,
    "licenseis": 7061,
    "licensing": 7062,
    "opiesarec": 7063,
    "oyourlast": 7064,
    "perfaxore": 7065,
    "phonewith": 7066,
    "removethe": 7067,
    "renamethe": 7068,
    "sandfaxit": 7069,
    "succeeded": 7070,
    "thebutton": 7071,
    "thomepage": 7072,
    "toconvert": 7073,
    "tratiofor": 7074,
    "validcode": 7075,
    "viewerfor": 7076,
    "\u2581andwrite": 7077,
    "\u2581arelease": 7078,
    "\u2581codeexpi": 7079,
    "\u2581concrete": 7080,
    "\u2581contactp": 7081,
    "\u2581havebeen": 7082,
    "\u2581inpixels": 7083,
    "\u2581notvalid": 7084,
    "\u2581olddoyou": 7085,
    "\u2581parallel": 7086,
    "\u2581previous": 7087,
    "\u2581sdetails": 7088,
    "\u2581semester": 7089,
    "\u2581timberen": 7090,
    "\u2581training": 7091,
    "\u2581usereasy": 7092,
    "\u2581whenopen": 7093,
    "abatchfile": 7094,
    "acodebefor": 7095,
    "allplotter": 7096,
    "allthekeys": 7097,
    "andinstall": 7098,
    "aninfinite": 7099,
    "arebehinda": 7100,
    "arecontinu": 7101,
    "aredisplay": 7102,
    "backwarded": 7103,
    "beforeclos": 7104,
    "computerid": 7105,
    "defaultpdf": 7106,
    "expiration": 7107,
    "extensions": 7108,
    "formations": 7109,
    "formatlike": 7110,
    "houtsaving": 7111,
    "informedvi": 7112,
    "lpdfdriver": 7113,
    "orpurpleus": 7114,
    "pointingto": 7115,
    "setcadwork": 7116,
    "ssoftwares": 7117,
    "stoyourkey": 7118,
    "swithinany": 7119,
    "thisupdate": 7120,
    "toaprinter": 7121,
    "updateyour": 7122,
    "xtensionsb": 7123,
    "\u2581cadworkis": 7124,
    "\u2581cancelthe": 7125,
    "\u2581codornode": 7126,
    "\u2581converter": 7127,
    "\u2581deletethe": 7128,
    "\u2581exefolder": 7129,
    "\u2581fileright": 7130,
    "\u2581forlicenc": 7131,
    "\u2581ifproblem": 7132,
    "\u2581inrelease": 7133,
    "\u2581installit": 7134,
    "\u2581installto": 7135,
    "\u2581lastfiles": 7136,
    "\u2581launchweb": 7137,
    "\u2581listicons": 7138,
    "\u2581outofdate": 7139,
    "\u2581overwrite": 7140,
    "\u2581samplesto": 7141,
    "\u2581selectall": 7142,
    "\u2581telephone": 7143,
    "\u2581toreceive": 7144,
    "\u2581tutorials": 7145,
    "\u2581updatenow": 7146,
    "\u2581vswprintf": 7147,
    "\u2581willberen": 7148,
    "\u2581youmaynow": 7149,
    "\u2581youwillbe": 7150,
    "\u2581zipitwill": 7151,
    "accordingto": 7152,
    "alizedpaper": 7153,
    "andbeginner": 7154,
    "anewcadwork": 7155,
    "automaticli": 7156,
    "dforparalle": 7157,
    "directoryto": 7158,
    "doyoureally": 7159,
    "doyouwantto": 7160,
    "eceivedfrom": 7161,
    "edpleaserun": 7162,
    "ethelicence": 7163,
    "fileifexist": 7164,
    "foranewcode": 7165,
    "forcreating": 7166,
    "ftpdownload": 7167,
    "groundwhite": 7168,
    "isalreadyup": 7169,
    "isavailable": 7170,
    "licencescan": 7171,
    "noneofyoure": 7172,
    "onabillorby": 7173,
    "onexercises": 7174,
    "proceedwith": 7175,
    "renameevery": 7176,
    "softwaresin": 7177,
    "thecatalogs": 7178,
    "timebetween": 7179,
    "tineldriver": 7180,
    "tinstalling": 7181,
    "wantthissec": 7182,
    "willselecta": 7183,
    "withcadwork": 7184,
    "\u2581adefinitiv": 7185,
    "\u2581browseyour": 7186,
    "\u2581cadworkweb": 7187,
    "\u2581codandnode": 7188,
    "\u2581convertnow": 7189,
    "\u2581defaultpdf": 7190,
    "\u2581doyoustill": 7191,
    "\u2581dxfoptions": 7192,
    "\u2581ftppassive": 7193,
    "\u2581largeicons": 7194,
    "\u2581mycomputer": 7195,
    "\u2581pleasesend": 7196,
    "\u2581smallicons": 7197,
    "\u2581systeminfo": 7198,
    "\u2581thisclient": 7199,
    "\u2581thumbnails": 7200,
    "\u2581transformp": 7201,
    "\u2581updateonly": 7202,
    "\u2581usersguide": 7203,
    "\u2581yourschool": 7204,
    "andremainder": 7205,
    "andthecodeis": 7206,
    "aryincaseofa": 7207,
    "bemanagedbya": 7208,
    "byeachsaveas": 7209,
    "cadworklayer": 7210,
    "cadworkstart": 7211,
    "computertime": 7212,
    "demolicences": 7213,
    "ecadworkwith": 7214,
    "ecallingyour": 7215,
    "edinexplorer": 7216,
    "expiredsince": 7217,
    "filesalready": 7218,
    "foracodefile": 7219,
    "forthelicenc": 7220,
    "hotlinefirst": 7221,
    "indicateyour": 7222,
    "letyoudecomp": 7223,
    "loadingfiles": 7224,
    "managementin": 7225,
    "securitycopy": 7226,
    "swillbechang": 7227,
    "synchronised": 7228,
    "toyourdealer": 7229,
    "willbeupdate": 7230,
    "\u2581anewversion": 7231,
    "\u2581bakfilesare": 7232,
    "\u2581callcadwork": 7233,
    "\u2581choosewhich": 7234,
    "\u2581contactyour": 7235,
    "\u2581dateseemsto": 7236,
    "\u2581demoversion": 7237,
    "\u2581deselectall": 7238,
    "\u2581dialogsgrey": 7239,
    "\u2581directories": 7240,
    "\u2581downloadnow": 7241,
    "\u2581doyouwantci": 7242,
    "\u2581newversions": 7243,
    "\u2581notvalidfor": 7244,
    "\u2581ontheitself": 7245,
    "\u2581passivemode": 7246,
    "\u2581recommended": 7247,
    "\u2581setsforeach": 7248,
    "\u2581showdetails": 7249,
    "\u2581tofinishthe": 7250,
    "\u2581youmustquit": 7251,
    "\u2581yourrequest": 7252,
    "\u2581yoursupteam": 7253,
    "aemailwhenthe": 7254,
    "allzipfilesto": 7255,
    "anduserprofil": 7256,
    "anetworkdrive": 7257,
    "bitsreleaseto": 7258,
    "currentschool": 7259,
    "datnextlaunch": 7260,
    "driveristoold": 7261,
    "ecatalogsfrom": 7262,
    "ectsdirectory": 7263,
    "entasacadwork": 7264,
    "errormessages": 7265,
    "foryouroffice": 7266,
    "linesandtexts": 7267,
    "ontheinternet": 7268,
    "optiontoenter": 7269,
    "pagetocadwork": 7270,
    "printerspaper": 7271,
    "protectionasa": 7272,
    "removecadwork": 7273,
    "selectedsound": 7274,
    "sondefaultpdf": 7275,
    "stoyourdealer": 7276,
    "strumentation": 7277,
    "updateprocess": 7278,
    "uritytobedeac": 7279,
    "wanttoquitwit": 7280,
    "\u2581alldxflayers": 7281,
    "\u2581choosefolder": 7282,
    "\u2581dirdirectory": 7283,
    "\u2581directoryfor": 7284,
    "\u2581displayagain": 7285,
    "\u2581donotdisplay": 7286,
    "\u2581downloadfrom": 7287,
    "\u2581downloadsthe": 7288,
    "\u2581editthisfile": 7289,
    "\u2581fieldswithan": 7290,
    "\u2581generalsetup": 7291,
    "\u2581isselectable": 7292,
    "\u2581mustbefilled": 7293,
    "\u2581nextstepwill": 7294,
    "\u2581oldandthenew": 7295,
    "\u2581saveinterval": 7296,
    "\u2581skipdownload": 7297,
    "\u2581starttocreat": 7298,
    "\u2581thedirectory": 7299,
    "\u2581thistaskwill": 7300,
    "\u2581transformdxf": 7301,
    "\u2581unitratiofor": 7302,
    "\u2581youcandelete": 7303,
    "\u2581youmayprefer": 7304,
    "\u2581youmustclose": 7305,
    "\u2581yourkeyisins": 7306,
    "andyouwouldlik": 7307,
    "cadworkmodules": 7308,
    "catalogsfolder": 7309,
    "civilengineers": 7310,
    "codehasalready": 7311,
    "confirmationto": 7312,
    "ertedcorrectly": 7313,
    "executebetween": 7314,
    "incontrolpanel": 7315,
    "ingyourstudies": 7316,
    "mbtobedownload": 7317,
    "mustbeinstalle": 7318,
    "numberofpoints": 7319,
    "problemwiththe": 7320,
    "setcadworkcode": 7321,
    "thiscomputerid": 7322,
    "thiscomputerin": 7323,
    "viewthelogfile": 7324,
    "wanttocontinue": 7325,
    "wanttodeleteit": 7326,
    "\u2581alreadyexists": 7327,
    "\u2581aresavedwithe": 7328,
    "\u2581backupedfiles": 7329,
    "\u2581borrowlicence": 7330,
    "\u2581cadworkconfig": 7331,
    "\u2581cannotopenthe": 7332,
    "\u2581convertblocks": 7333,
    "\u2581createthefile": 7334,
    "\u2581directorywith": 7335,
    "\u2581duetoyourlast": 7336,
    "\u2581enteryourcode": 7337,
    "\u2581extraprinting": 7338,
    "\u2581installdongle": 7339,
    "\u2581intermediatec": 7340,
    "\u2581internetlinks": 7341,
    "\u2581letsyoudefine": 7342,
    "\u2581loaddxfhatchs": 7343,
    "\u2581pleasecheckit": 7344,
    "\u2581pleasefaxthis": 7345,
    "\u2581pleaserestart": 7346,
    "\u2581sclocksetting": 7347,
    "\u2581selectadongle": 7348,
    "\u2581selectalicenc": 7349,
    "\u2581togglebetween": 7350,
    "\u2581tooltoconvert": 7351,
    "\u2581uncompressthe": 7352,
    "\u2581updatesuccess": 7353,
    "\u2581usefullscreen": 7354,
    "\u2581withnetviewer": 7355,
    "\u2581youshouldcopy": 7356,
    "aboutinstalling": 7357,
    "allplotterframe": 7358,
    "allyourdrawings": 7359,
    "andrecognizedby": 7360,
    "canworkdirectly": 7361,
    "ecodeisvalidfor": 7362,
    "ethisfileforyou": 7363,
    "exewillbecopied": 7364,
    "fromtheinternet": 7365,
    "fromtheregistry": 7366,
    "hasbeenmodified": 7367,
    "incadworkgroups": 7368,
    "messagenexttime": 7369,
    "onlythelastmodi": 7370,
    "opiesarecreated": 7371,
    "printerdriverif": 7372,
    "readytodownload": 7373,
    "samplefilesfrom": 7374,
    "swillbemodified": 7375,
    "temporaryfolder": 7376,
    "tousethisoption": 7377,
    "\u2581alllicencescan": 7378,
    "\u2581butnovalidcode": 7379,
    "\u2581changepassword": 7380,
    "\u2581checkifservice": 7381,
    "\u2581clickthebutton": 7382,
    "\u2581codeexpiration": 7383,
    "\u2581contactpartner": 7384,
    "\u2581defaultprinter": 7385,
    "\u2581defineusertype": 7386,
    "\u2581filesattribute": 7387,
    "\u2581getanewlicence": 7388,
    "\u2581initialization": 7389,
    "\u2581mycomputername": 7390,
    "\u2581openingthefile": 7391,
    "\u2581printingwithin": 7392,
    "\u2581releaselicence": 7393,
    "\u2581removeregistry": 7394,
    "\u2581runthisprogram": 7395,
    "\u2581setupthecolors": 7396,
    "\u2581timberengineer": 7397,
    "\u2581toreceiveacode": 7398,
    "\u2581whennocheckbox": 7399,
    "\u2581youmayfindyour": 7400,
    "\u2581yourdownloaded": 7401,
    "backupsoverwrite": 7402,
    "codereceivedfrom": 7403,
    "createdbycadwork": 7404,
    "deletethecadwork": 7405,
    "dfilesconversion": 7406,
    "formatlikeletter": 7407,
    "numberisnotvalid": 7408,
    "thecompletefiles": 7409,
    "userprofilfolder": 7410,
    "woodconstruction": 7411,
    "youwanttoopenisa": 7412,
    "\u2581afterexpiration": 7413,
    "\u2581backgroundwhite": 7414,
    "\u2581filerightbutton": 7415,
    "\u2581ifyouarebehinda": 7416,
    "\u2581ifyouarecontinu": 7417,
    "\u2581installautility": 7418,
    "\u2581lastfilesopened": 7419,
    "\u2581pleasecheckthat": 7420,
    "\u2581sentineldongles": 7421,
    "\u2581standardversion": 7422,
    "\u2581synchronization": 7423,
    "\u2581synchronizeyour": 7424,
    "\u2581toorderalicense": 7425,
    "allcadworkdrawing": 7426,
    "anduserprofilfrom": 7427,
    "bitswhenavailable": 7428,
    "downloadandupdate": 7429,
    "edownloadnewcodes": 7430,
    "forcadworkwindows": 7431,
    "fromtheregistries": 7432,
    "licenceforschools": 7433,
    "licenseisextended": 7434,
    "onexercisesfolder": 7435,
    "pdffileswithinany": 7436,
    "stweakuiutilities": 7437,
    "thelatestreleases": 7438,
    "\u2581alreadyinstalled": 7439,
    "\u2581belongstoyourkey": 7440,
    "\u2581cadworkinstaller": 7441,
    "\u2581checkforanewcode": 7442,
    "\u2581copyallfilesfrom": 7443,
    "\u2581dailyautomaticli": 7444,
    "\u2581installpdfdriver": 7445,
    "\u2581internethomepage": 7446,
    "\u2581mailyourcomputer": 7447,
    "\u2581openexistingfile": 7448,
    "\u2581pleasesendavalid": 7449,
    "\u2581whenopeningafile": 7450,
    "\u2581xchangeisalready": 7451,
    "\u2581yourclientnumber": 7452,
    "\u2581yourcomputertime": 7453,
    "allcadworkdrawings": 7454,
    "aragraphsintotexts": 7455,
    "backupsaccordingto": 7456,
    "dforyourcomputerid": 7457,
    "edpleaserunagainci": 7458,
    "etocontinueworking": 7459,
    "havebeenbackwarded": 7460,
    "ldonglesorpurpleus": 7461,
    "necessaryincaseofa": 7462,
    "ofcadworkisalready": 7463,
    "renamethedirectory": 7464,
    "succesfullycreated": 7465,
    "succesfullyupdated": 7466,
    "timebetweenbackups": 7467,
    "updateyourcatalogs": 7468,
    "whicharedownloaded": 7469,
    "\u2581downloadsucceeded": 7470,
    "\u2581doyouwanttodelete": 7471,
    "\u2581hideerrormessages": 7472,
    "\u2581ifproblemspersist": 7473,
    "\u2581launchanewcadwork": 7474,
    "\u2581personalizedpaper": 7475,
    "\u2581printslaserframes": 7476,
    "\u2581printyourcomputer": 7477,
    "\u2581sdetailsperfaxore": 7478,
    "\u2581thesentineldriver": 7479,
    "\u2581tocreateafloating": 7480,
    "advancedandbeginner": 7481,
    "bemanagedbyawindows": 7482,
    "cadworkhotlinefirst": 7483,
    "dimensionsincadwork": 7484,
    "directorieshavebeen": 7485,
    "doyouwanttoupdateit": 7486,
    "followingextensions": 7487,
    "letyoudecompressthe": 7488,
    "licenceforcompanies": 7489,
    "ofcadworkaredisplay": 7490,
    "willselectastandard": 7491,
    "\u2581browseyourcomputer": 7492,
    "\u2581cadworkftpdownload": 7493,
    "\u2581clientinformations": 7494,
    "\u2581downloadandinstall": 7495,
    "\u2581doyouwanttorenewit": 7496,
    "\u2581installationfailed": 7497,
    "\u2581launchwebbrowseron": 7498,
    "\u2581pleaseindicateyour": 7499,
    "\u2581shortcutpointingto": 7500,
    "\u2581tocreateaninfinite": 7501,
    "\u2581willberenamedinexe": 7502,
    "\u2581yourcustomernumber": 7503,
    "ecallingyourhelpdesk": 7504,
    "ofcadworkisavailable": 7505,
    "onabillorbyphonewith": 7506,
    "sondefaultpdfprinter": 7507,
    "stothedefaultplotter": 7508,
    "stothedefaultprinter": 7509,
    "uritytobedeactivated": 7510,
    "\u2581cannotfindfilesnode": 7511,
    "\u2581contactyourhelpdesk": 7512,
    "\u2581donotdisplayanymore": 7513,
    "\u2581forlicencingcadwork": 7514,
    "\u2581installtheviewerfor": 7515,
    "\u2581openanexploreronthe": 7516,
    "\u2581skipdowloadingfiles": 7517,
    "\u2581windowsmanagementin": 7518,
    "\u2581youwillbeinformedvi": 7519,
    "forthelicencetoanswer": 7520,
    "optiontoenteryourcode": 7521,
    "proceedwiththisupdate": 7522,
    "sandfaxittoyourdealer": 7523,
    "\u2581associatecadworkwith": 7524,
    "\u2581cadworkisinstalledon": 7525,
    "\u2581cadworkprinterspaper": 7526,
    "\u2581choosewhichreleaseto": 7527,
    "\u2581connectiontoaprinter": 7528,
    "\u2581initializethelicence": 7529,
    "\u2581installprotectionasa": 7530,
    "\u2581launchcadworkmodules": 7531,
    "\u2581overwritefileifexist": 7532,
    "\u2581playtheselectedsound": 7533,
    "\u2581pleasecheckifcorrect": 7534,
    "\u2581tousethentasacadwork": 7535,
    "\u2581zipitwillrenameevery": 7536,
    "extralargecatalogsfrom": 7537,
    "filesalreadydownloaded": 7538,
    "noneofyourexistingfile": 7539,
    "\u2581attributeswillbechang": 7540,
    "\u2581displayagainthiserror": 7541,
    "\u2581duetoyourlastcomputer": 7542,
    "\u2581enteryourcodemanually": 7543,
    "\u2581intermediatedirectory": 7544,
    "\u2581limitednumberofpoints": 7545,
    "\u2581pleasecallyourhotline": 7546,
    "\u2581printsallplotterframe": 7547,
    "\u2581unitratioforautocadob": 7548,
    "canworkdirectlyonyourpc": 7549,
    "pagetocadworkinformatik": 7550,
    "wanttoquitwithoutsaving": 7551,
    "\u2581amountofmbtobedownload": 7552,
    "\u2581cannotopenthedirectory": 7553,
    "\u2581doyoureallywantthissec": 7554,
    "\u2581olddoyouwanttocontinue": 7555,
    "\u2581pleasesendyourcomputer": 7556,
    "\u2581removesfromtheregistry": 7557,
    "\u2581semesterconfirmationto": 7558,
    "\u2581theprogramwillbeupdate": 7559,
    "\u2581thisprogramisalreadyup": 7560,
    "\u2581trainingandyouwouldlik": 7561,
    "\u2581unsetthedownloadofazip": 7562,
    "exewillbecopiedfromthecd": 7563,
    "onlythelastmodifications": 7564,
    "updatecadworksoftwaresin": 7565,
    "\u2581aresavedwithextensionsb": 7566,
    "\u2581ifyouarebehindafirewall": 7567,
    "\u2581notvalidfordemolicences": 7568,
    "\u2581thefileyouwanttoopenisa": 7569,
    "\u2581utilitytosetcadworkcode": 7570,
    "installedonthiscomputerin": 7571,
    "mustbeinstalledforparalle": 7572,
    "\u2581dailyautomaticliveupdate": 7573,
    "\u2581downloadthecompletefiles": 7574,
    "\u2581doyoustillwanttodeleteit": 7575,
    "\u2581pleaseredownloadnewcodes": 7576,
    "\u2581printingwithinabatchfile": 7577,
    "\u2581selectalicencetocontinue": 7578,
    "\u2581tofinishtheupdateprocess": 7579,
    "\u2581unsetthedownloadofallzip": 7580,
    "allthekeyscreatedbycadwork": 7581,
    "codehasalreadyexpiredsince": 7582,
    "ldonglesorpurpleusbdongles": 7583,
    "problemwiththeoriginalfile": 7584,
    "\u2581adefinitivecodeisvalidfor": 7585,
    "\u2581butnovalidcodehasbeenfoun": 7586,
    "\u2581filesattributeindirectory": 7587,
    "\u2581installmstweakuiutilities": 7588,
    "\u2581sinformationstoyourdealer": 7589,
    "\u2581xchangeisalreadyinstalled": 7590,
    "\u2581youmaynowdeletethecadwork": 7591,
    "allcadworkdrawingbeforeclos": 7592,
    "andrecognizedbycadworkstart": 7593,
    "andthecodeisreadytodownload": 7594,
    "opiesarecreatedbyeachsaveas": 7595,
    "\u2581areleaseofcadworkisalready": 7596,
    "\u2581cadworkwillselectastandard": 7597,
    "\u2581callcadworktousethisoption": 7598,
    "\u2581couldnotrenamethedirectory": 7599,
    "\u2581doyoureallywanttoremovethe": 7600,
    "\u2581extraprintingconfiguration": 7601,
    "\u2581getanewlicencefrominternet": 7602,
    "\u2581havebeensuccesfullyupdated": 7603,
    "\u2581informationaboutinstalling": 7604,
    "\u2581installautilityforcreating": 7605,
    "\u2581intervaltimebetweenbackups": 7606,
    "\u2581setsforeachprinterdriverif": 7607,
    "\u2581thisclientnumberisnotvalid": 7608,
    "\u2581youmayfindyourclientnumber": 7609,
    "\u2581yourkeyisinsertedcorrectly": 7610,
    "\u2581yourweblicencewillexpirein": 7611,
    "\u2581youshouldcopyallzipfilesto": 7612,
    "backupsoverwriteoriginalfile": 7613,
    "pdffileswithinanyapplication": 7614,
    "thecatalogsanduserprofilfrom": 7615,
    "\u2581doyouwanttoreviewthelogfile": 7616,
    "\u2581starttocreatethisfileforyou": 7617,
    "etocontinueworkingwithcadwork": 7618,
    "ingthisapplicationdoyoureally": 7619,
    "thelatestreleasesfrominternet": 7620,
    "\u2581convertblocksincadworkgroups": 7621,
    "\u2581sentineldonglesdriveristoold": 7622,
    "\u2581transformparagraphsintotexts": 7623,
    "acodebeforecallingyourhelpdesk": 7624,
    "aemailwhenthelicenseisextended": 7625,
    "removecadworkfromtheregistries": 7626,
    "\u2581bakfilesarenecessaryincaseofa": 7627,
    "\u2581dateseemstohavebeenbackwarded": 7628,
    "\u2581doyouwanttoupdateyourcatalogs": 7629,
    "\u2581ifyouarecontinuingyourstudies": 7630,
    "\u2581installationforcivilengineers": 7631,
    "\u2581pleasesendavalidcurrentschool": 7632,
    "\u2581selectanoptiontoenteryourcode": 7633,
    "\u2581thumbnailsofcadworkaredisplay": 7634,
    "\u2581tousethentasacadworklicensing": 7635,
    "\u2581userprofildirectorieshavebeen": 7636,
    "\u2581youmustquitallcadworkdrawings": 7637,
    "\u2581yourschoollicencewillexpirein": 7638,
    "\u2581browseyourcomputerforacodefile": 7639,
    "\u2581intermediatebackupsaccordingto": 7640,
    "\u2581letsyoudefineyourauthorisation": 7641,
    "\u2581openanexploreroncatalogsfolder": 7642,
    "andremainderstothedefaultprinter": 7643,
    "dimensionsincadworklinesandtexts": 7644,
    "\u2581anewversionofcadworkisavailable": 7645,
    "\u2581installationforwoodconstruction": 7646,
    "\u2581nextstepwillletyoudecompressthe": 7647,
    "\u2581openanexploreronexercisesfolder": 7648,
    "\u2581openanexplorerontemporaryfolder": 7649,
    "\u2581pleasewaitforthelicencetoanswer": 7650,
    "\u2581setupthecolorsforcadworkwindows": 7651,
    "\u2581skipdowloadingfilesfrominternet": 7652,
    "\u2581yourclientnumberhasbeenmodified": 7653,
    "\u2581zipitwillrenameeverydirectoryto": 7654,
    "codereceivedfromyourcadworkdealer": 7655,
    "whicharedownloadedfromtheinternet": 7656,
    "\u2581downloadonlythelastmodifications": 7657,
    "\u2581doyouwanttoproceedwiththisupdate": 7658,
    "\u2581openanexploreronuserprofilfolder": 7659,
    "\u2581pleaseindicateyourcustomernumber": 7660,
    "\u2581togglebetweenadvancedandbeginner": 7661,
    "\u2581windowsmanagementinstrumentation": 7662,
    "\u2581alllicencescanbemanagedbyawindows": 7663,
    "\u2581cadworkisinstalledonanetworkdrive": 7664,
    "\u2581cadworkprinterspaperconfiguration": 7665,
    "\u2581pleasecallyourcadworkhotlinefirst": 7666,
    "\u2581sinformationsandfaxittoyourdealer": 7667,
    "\u2581choosewhichreleasetoexecutebetween": 7668,
    "\u2581doyoureallywanttodownloadandupdate": 7669,
    "\u2581yoursupteamcanworkdirectlyonyourpc": 7670,
    "\u2581thefileyouwanttoopenisasecuritycopy": 7671,
    "\u2581theprogramwillbeupdatedatnextlaunch": 7672,
    "\u2581tocreateaninfinitelicenceforschools": 7673,
    "noneofyourexistingfileswillbemodified": 7674,
    "onabillorbyphonewithyourcadworkdealer": 7675,
    "\u2581displayagainthiserrormessagenexttime": 7676,
    "\u2581oldandthenewexewillbecopiedfromthecd": 7677,
    "\u2581pleasefaxthispagetocadworkinformatik": 7678,
    "\u2581printslaserframesondefaultpdfprinter": 7679,
    "\u2581thistaskwillupdatecadworksoftwaresin": 7680,
    "\u2581tocreateafloatinglicenceforcompanies": 7681,
    "wanttoquitwithoutsavingallyourdrawings": 7682,
    "\u2581allregistriesforcadworkhavebeenremoved": 7683,
    "\u2581allregistriesforcadworkhavebeenupdated": 7684,
    "\u2581adefinitivecodeisvalidforthiscomputerid": 7685,
    "\u2581associatecadworkwithfollowingextensions": 7686,
    "\u2581attributeswillbechangedpleaserunagainci": 7687,
    "\u2581installmstweakuiutilitiesincontrolpanel": 7688,
    "\u2581youmustcloseallcadworkdrawingbeforeclos": 7689,
    "\u2581intermediatebackupsoverwriteoriginalfile": 7690,
    "\u2581intermediatecopiesarecreatedbyeachsaveas": 7691,
    "\u2581yourdownloadedcodehasalreadyexpiredsince": 7692,
    "\u2581printsallplotterframestothedefaultplotter": 7693,
    "\u2581thumbnailsofcadworkaredisplayedinexplorer": 7694,
    "\u2581userprofildirectorieshavebeensynchronised": 7695,
    "\u2581cadworkwillselectastandardformatlikeletter": 7696,
    "\u2581doyoureallywantthissecuritytobedeactivated": 7697,
    "\u2581thesentineldrivermustbeinstalledforparalle": 7698,
    "\u2581butnovalidcodehasbeenfoundforyourcomputerid": 7699,
    "\u2581anewversionofcadworkisavailableontheinternet": 7700,
    "\u2581transformdxfdimensionsincadworklinesandtexts": 7701,
    "\u2581downloadandinstallthelatestreleasesfrominternet": 7702,
    "\u2581doyoureallywanttoremovecadworkfromtheregistries": 7703,
    "\u2581informationaboutinstallingnetworklicenceservice": 7704,
    "\u2581removesfromtheregistryallthekeyscreatedbycadwork": 7705,
    "\u2581pleasetrytodownloadacodebeforecallingyourhelpdesk": 7706,
    "\u2581youwillbeinformedviaemailwhenthelicenseisextended": 7707,
    "\u2581areleaseofcadworkisalreadyinstalledonthiscomputerin": 7708,
    "\u2581downloadfrominternetallregisteredcodesforyouroffice": 7709,
    "\u2581trainingandyouwouldliketocontinueworkingwithcadwork": 7710,
    "\u2581nextstepwillletyoudecompressthefilesalreadydownloaded": 7711,
    "\u2581yourkeyisinsertedcorrectlyandrecognizedbycadworkstart": 7712,
    "\u2581installautilityforcreatingpdffileswithinanyapplication": 7713,
    "\u2581bakfilesarenecessaryincaseofaproblemwiththeoriginalfile": 7714,
    "foranydammageduetotheinstallationorutilisationofitssoftware": 7715,
    "foranydammageduetotheinstallationorutilisationofitssoftwares": 7716,
    "\u2581letsyoudefineyourauthorisationcodereceivedfromyourcadworkdealer": 7717,
    "\u2581youmayfindyourclientnumberonabillorbyphonewithyourcadworkdealer": 7718,
    "fffc": 7719,
    "cebec": 7720,
    "\u2581cert": 7721,
    "dibits": 7722,
    "\u2581strcmpiw": 7723,
    "\u2581executable": 7724,
    "\u2581gdipbitmap": 7725,
    "\u2581downloadfolder": 7726,
    "\u2581createpatternbrush": 7727,
    "hp": 7728,
    "dpi": 7729,
    "xbbc": 7730,
    "\u2581strl": 7731,
    "bafedc": 7732,
    "\u2581adobe": 7733,
    "\u2581ntohl": 7734,
    "corekso": 7735,
    "\u2581conout": 7736,
    "\u2581rectangle": 7737,
    "\u2581zipfilesfrom": 7738,
    "etempdirectory": 7739,
    "vectoredexceptionhandler": 7740,
    "tz": 7741,
    "ild": 7742,
    "acea": 7743,
    "badd": 7744,
    "timeout": 7745,
    "\u2581wcsnicmp": 7746,
    "\u2581failedtocreat": 7747,
    "\u2581downloadcadwork": 7748,
    "frominternettoyourlocaldrive": 7749,
    "\u2581failedtocreatetempdirectory": 7750,
    "\u2581downloadcadworkfrominternettoyourlocaldrive": 7751,
    "caad": 7752,
    "efca": 7753,
    "accff": 7754,
    "cadbc": 7755,
    "caffc": 7756,
    "fcdbe": 7757,
    "licies": 7758,
    "snotan": 7759,
    "\u2581times": 7760,
    "\u2581policies": 7761,
    "snotanarray": 7762,
    "variantarray": 7763,
    "\u2581variantarray": 7764,
    "\u2581showavailable": 7765,
    "\u2581variantisnotanarray": 7766,
    "\u2581getprivateprofileint": 7767,
    "\u2581showavailablelicenceson": 7768,
    "\u2581errorcreatingvariantarray": 7769,
    "\u2581variantarrayindexoutofbounds": 7770,
    "ia": 7771,
    "gon": 7772,
    "lla": 7773,
    "\u2581it": 7774,
    "icht": 7775,
    "sidl": 7776,
    "build": 7777,
    "\u2581purg": 7778,
    "itkomm": 7779,
    "disable": 7780,
    "thisnetwork": 7781,
    "\u2581getbrushorgex": 7782,
    "\u2581gettimeformata": 7783,
    "\u2581showrunninglicencesonthisnetwork": 7784,
    "til": 7785,
    "\u2581qu": 7786,
    "aefb": 7787,
    "bcaa": 7788,
    "vali": 7789,
    "febcb": 7790,
    "isher": 7791,
    "\u2581choo": 7792,
    "keyboard": 7793,
    "\u2581createtimer": 7794,
    "\u2581movefileexw": 7795,
    "\u2581callwindowproca": 7796,
    "\u2581setprocessworkingset": 7797,
    "\u2581showrunninglicencesonthiscomputer": 7798,
    "hsd": 7799,
    "\u2581mt": 7800,
    "fcae": 7801,
    "\u2581war": 7802,
    "cbccd": 7803,
    "slist": 7804,
    "\u2581startup": 7805,
    "\u2581toolbar": 7806,
    "\u2581purgecomm": 7807,
    "\u2581setmessage": 7808,
    "\u2581setimagecount": 7809,
    "coreapplication": 7810,
    "\u2581loadingcadwork": 7811,
    "\u2581setmessagequeue": 7812,
    "debd": 7813,
    "icher": 7814,
    "duntil": 7815,
    "eflatsb": 7816,
    "\u2581indows": 7817,
    "\u2581codevali": 7818,
    "\u2581openmutexw": 7819,
    "\u2581codevaliduntil": 7820,
    "gyu": 7821,
    "gzs": 7822,
    "ppp": 7823,
    "weh": 7824,
    "acce": 7825,
    "aced": 7826,
    "ahda": 7827,
    "babc": 7828,
    "defc": 7829,
    "duyg": 7830,
    "lott": 7831,
    "orde": 7832,
    "xadf": 7833,
    "xfec": 7834,
    "gaise": 7835,
    "gdgyu": 7836,
    "hsdhe": 7837,
    "width": 7838,
    "\u2581gert": 7839,
    "\u2581pppp": 7840,
    "gzsduyg": 7841,
    "secolor": 7842,
    "taskmem": 7843,
    "\u2581dborde": 7844,
    "\u2581hisher": 7845,
    "\u2581strstr": 7846,
    "gdgyuweh": 7847,
    "ahdahsdhe": 7848,
    "protectex": 7849,
    "semaphore": 7850,
    "ingwindows": 7851,
    "\u2581checkcode": 7852,
    "\u2581cotaskmem": 7853,
    "\u2581sfxstring": 7854,
    "\u2581gsgdgyuweh": 7855,
    "\u2581choosecolor": 7856,
    "\u2581hishergaise": 7857,
    "gzsduygahdahsdhe": 7858,
    "\u2581virtualprotectex": 7859,
    "ak": 7860,
    "\u2581tdm": 7861,
    "\u2581helper": 7862,
    "\u2581warning": 7863,
    "xtensionw": 7864,
    "\u2581initializeflatsb": 7865,
    "\u2581deleteenhmetafile": 7866,
    "yourauthorisationcode": 7867,
    "\u2581enteryourauthorisationcode": 7868,
    "cdce": 7869,
    "fcdc": 7870,
    "\u2581ele": 7871,
    "\u2581capau": 7872,
    "\u2581fileor": 7873,
    "timeouts": 7874,
    "\u2581fromascii": 7875,
    "\u2581gdipalloc": 7876,
    "directorytob": 7877,
    "sandsettings": 7878,
    "\u2581setscrollprop": 7879,
    "\u2581applicationdata": 7880,
    "\u2581fileordirectorytob": 7881,
    "\u2581documentsandsettings": 7882,
    "\u2581fileordirectorytobemodified": 7883,
    "bcad": 7884,
    "cefd": 7885,
    "eccc": 7886,
    "xbdf": 7887,
    "\u2581ows": 7888,
    "\u2581tcp": 7889,
    "\u2581tem": 7890,
    "antin": 7891,
    "\u2581wink": 7892,
    "dbccef": 7893,
    "prefer": 7894,
    "\u2581ystem": 7895,
    "\u2581choosecolora": 7896,
    "\u2581readonlyfile": 7897,
    "keyboardlayout": 7898,
    "\u2581opensemaphore": 7899,
    "ois": 7900,
    "tol": 7901,
    "cedc": 7902,
    "fdfc": 7903,
    "xdac": 7904,
    "\u2581att": 7905,
    "\u2581som": 7906,
    "fecbd": 7907,
    "proca": 7908,
    "stoyo": 7909,
    "\u2581past": 7910,
    "entral": 7911,
    "\u2581ndows": 7912,
    "stoyoure": 7913,
    "\u2581pastethe": 7914,
    "\u2581pastethefollowing": 7915,
    "informationstoyoure": 7916,
    "\u2581pastethefollowinginformationstoyoure": 7917,
    "orr": 7918,
    "daeb": 7919,
    "ddsd": 7920,
    "eacc": 7921,
    "xaaa": 7922,
    "ameter": 7923,
    "\u2581class": 7924,
    "prefered": 7925,
    "\u2581rtlcomp": 7926,
    "\u2581getvolum": 7927,
    "\u2581selectyour": 7928,
    "preferedlanguage": 7929,
    "\u2581getopenfilenamew": 7930,
    "\u2581selectyourpreferedlanguage": 7931,
    "aav": 7932,
    "dwp": 7933,
    "eey": 7934,
    "oot": 7935,
    "sof": 7936,
    "afee": 7937,
    "ecrc": 7938,
    "erti": 7939,
    "hiuk": 7940,
    "kwds": 7941,
    "\u2581yhi": 7942,
    "bbdec": 7943,
    "eeedc": 7944,
    "flags": 7945,
    "level": 7946,
    "orrup": 7947,
    "\u2581eled": 7948,
    "oisdwp": 7949,
    "struct": 7950,
    "utecrc": 7951,
    "\u2581aotes": 7952,
    "orrupted": 7953,
    "\u2581regsave": 7954,
    "\u2581yhihiuk": 7955,
    "bainmodule": 7956,
    "oisdwpkwds": 7957,
    "\u2581enumthread": 7958,
    "uninitialize": 7959,
    "\u2581microsofthelp": 7960,
    "\u2581rtlcomputecrc": 7961,
    "\u2581enumthreadwindows": 7962,
    "\u2581gdipgetimagepalette": 7963,
    "vs": 7964,
    "dgs": 7965,
    "acbd": 7966,
    "bcbc": 7967,
    "cbdc": 7968,
    "dfbb": 7969,
    "cebdb": 7970,
    "efbff": 7971,
    "\u2581hard": 7972,
    "\u2581login": 7973,
    "account": 7974,
    "getvaluew": 7975,
    "\u2581hardware": 7976,
    "\u2581updateex": 7977,
    "\u2581httpquery": 7978,
    "\u2581description": 7979,
    "\u2581updateextracatalogs": 7980,
    "\u2581addvectoredexceptionhandler": 7981,
    "xbaa": 7982,
    "fcecd": 7983,
    "flott": 7984,
    "\u2581aaal": 7985,
    "metric": 7986,
    "\u2581csidl": 7987,
    "\u2581qaeaav": 7988,
    "\u2581purecall": 7989,
    "\u2581installex": 7990,
    "\u2581safearrayget": 7991,
    "\u2581querydosdevicew": 7992,
    "\u2581queryserviceconfig": 7993,
    "\u2581installextracatalogs": 7994,
    "\u2581zwquerysysteminformation": 7995,
    "hao": 7996,
    "\u2581ka": 7997,
    "acef": 7998,
    "afed": 7999,
    "ftsd": 8000,
    "aware": 8001,
    "eturn": 8002,
    "ffede": 8003,
    "\u2581gong": 8004,
    "aeaceb": 8005,
    "\u2581tcpip": 8006,
    "dgsftsd": 8007,
    "\u2581prolog": 8008,
    "fillmode": 8009,
    "\u2581gonghao": 8010,
    "imageinfo": 8011,
    "\u2581regrestore": 8012,
    "\u2581setconsole": 8013,
    "polyfillmode": 8014,
    "\u2581getimageinfo": 8015,
    "\u2581getclasslonga": 8016,
    "\u2581internetopenw": 8017,
    "\u2581updatestandardcatalogs": 8018,
    "air": 8019,
    "tre": 8020,
    "\u2581hp": 8021,
    "\u2581mp": 8022,
    "cbcd": 8023,
    "eeaf": 8024,
    "xadb": 8025,
    "\u2581cli": 8026,
    "adfcfea": 8027,
    "control": 8028,
    "eenable": 8029,
    "\u2581immget": 8030,
    "dpiaware": 8031,
    "\u2581gettrac": 8032,
    "\u2581getpropa": 8033,
    "\u2581parameter": 8034,
    "\u2581removepropa": 8035,
    "\u2581reggetvaluew": 8036,
    "\u2581gettraceenable": 8037,
    "\u2581installstandardcatalogs": 8038,
    "couldnotbelocatedinthedynamiclinklibrarymfc": 8039,
    "mbf": 8040,
    "acbb": 8041,
    "aebd": 8042,
    "bcacf": 8043,
    "intal": 8044,
    "\u2581imag": 8045,
    "cfabcc": 8046,
    "\u2581frame": 8047,
    "\u2581sybase": 8048,
    "metricsw": 8049,
    "arraydata": 8050,
    "\u2581setpropa": 8051,
    "\u2581shcreate": 8052,
    "intallation": 8053,
    "mbforcadwork": 8054,
    "\u2581regenumkeya": 8055,
    "\u2581internetconnectw": 8056,
    "\u2581qcoreapplication": 8057,
[...]
