{
    "<unk>": 0,
    "<s>": 1,
    "</s>": 2,
    "\u25810": 3,
    "\u25810x": 4,
    "er": 5,
    "00": 6,
    "ne": 7,
    "32": 8,
    "32.": 9,
    "\u2581k": 10,
    "l32.": 11,
    "erne": 12,
    "\u2581kerne": 13,
    "\u2581kernel32.": 14,
    "\u25810x1": 15,
    "\u25810x0": 16,
    "et": 17,
    "ad": 18,
    "al": 19,
    "ti": 20,
    "get": 21,
    "000": 22,
    "\u25810x7": 23,
    "re": 24,
    "ec": 25,
    "\u25810x4": 26,
    "\u25810xf": 27,
    "in": 28,
    "oc": 29,
    "\u25810x77": 30,
    "iti": 31,
    "ee": 32,
    "\u25810xfee": 33,
    "\u25810xfeee": 34,
    "ss": 35,
    "pr": 36,
    "one": 37,
    "tr": 38,
    "0000": 39,
    "proc": 40,
    "ter": 41,
    "getproc": 42,
    "sec": 43,
    "dre": 44,
    "cal": 45,
    "on": 46,
    "secti": 47,
    "addre": 48,
    "address": 49,
    "getprocaddress": 50,
    "riti": 51,
    "ritical": 52,
    "riticalsecti": 53,
    "le": 54,
    "is": 55,
    "read": 56,
    "000000": 57,
    "ue": 58,
    "\u25810x1000": 59,
    "en": 60,
    "\u2581n": 61,
    "readp": 62,
    "ls": 63,
    "ecriticalsecti": 64,
    "val": 65,
    "\u2581none": 66,
    "\u25810x77000000": 67,
    "bad": 68,
    "isbad": 69,
    "readptr": 70,
    "isbadreadptr": 71,
    "value": 72,
    "\u25810xfeee00": 73,
    "getvalue": 74,
    "lsgetvalue": 75,
    "\u25810xfeee000": 76,
    "ap": 77,
    "iz": 78,
    "loc": 79,
    "\u25810x12": 80,
    "or": 81,
    "de": 82,
    "11": 83,
    "a0": 84,
    "aliz": 85,
    "te": 86,
    "initi": 87,
    "initializ": 88,
    "co": 89,
    "initializecriticalsecti": 90,
    "\u25810x46": 91,
    "f0": 92,
    "\u25810x1211": 93,
    "\u25810x2": 94,
    "ar": 95,
    "an": 96,
    "\u25810xfa0": 97,
    "he": 98,
    "\u25810x8": 99,
    "us": 100,
    "as": 101,
    "heap": 102,
    "inter": 103,
    "\u25810xfeee0001": 104,
    "onex": 105,
    "ror": 106,
    "tlsgetvalue": 107,
    "\u25810x770": 108,
    "alloc": 109,
    "las": 110,
    "laster": 111,
    "lasterror": 112,
    "initializecriticalsectionex": 113,
    "and": 114,
    "user": 115,
    "po": 116,
    "dec": 117,
    "\u2581user": 118,
    "\u2581user32.": 119,
    "set": 120,
    "pointer": 121,
    "lo": 122,
    "depointer": 123,
    "ow": 124,
    "lea": 125,
    "fi": 126,
    "\u25810x771": 127,
    "48": 128,
    "flsgetvalue": 129,
    "39": 130,
    "\u25810x5": 131,
    "d0": 132,
    "str": 133,
    "90": 134,
    "heapalloc": 135,
    "10": 136,
    "nt": 137,
    "ex": 138,
    "ing": 139,
    "\u25810x100": 140,
    "inf": 141,
    "ta": 142,
    "string": 143,
    "\u25810x10": 144,
    "ff": 145,
    "\u25810x41": 146,
    "\u25810x42": 147,
    "terc": 148,
    "ecriticalsection": 149,
    "\u25810x24": 150,
    "load": 151,
    "leav": 152,
    "leavecriticalsection": 153,
    "\u25810x2439": 154,
    "\u25810x243948": 155,
    "riticalsection": 156,
    "enterc": 157,
    "entercriticalsection": 158,
    "00000": 159,
    "har": 160,
    "\u2581c": 161,
    "\u25810x45": 162,
    "li": 163,
    "tem": 164,
    "hand": 165,
    "enco": 166,
    "encodepointer": 167,
    "ent": 168,
    "\u25810x40": 169,
    "getlasterror": 170,
    "me": 171,
    "ac": 172,
    "e4": 173,
    "tu": 174,
    "\u2581get": 175,
    "\u25810x46f0": 176,
    "setlasterror": 177,
    "\u25810x3": 178,
    "\u25810x45f0": 179,
    "by": 180,
    "\u25810x78": 181,
    "\u25810xff": 182,
    "\u25810x46d0": 183,
    "10000": 184,
    "unt": 185,
    "win": 186,
    "count": 187,
    "ul": 188,
    "info": 189,
    "40": 190,
    "\u25810x4e4": 191,
    "\u25810xc": 192,
    "initializecriticalsection": 193,
    "ur": 194,
    "file": 195,
    "let": 196,
    "ys": 197,
    "vi": 198,
    "handle": 199,
    "20": 200,
    "mo": 201,
    "\u2581s": 202,
    "dl": 203,
    "\u25810x43": 204,
    "c0": 205,
    "ess": 206,
    "local": 207,
    "to": 208,
    "\u25810x7d": 209,
    "dll": 210,
    "ab": 211,
    "mul": 212,
    "getc": 213,
    "rea": 214,
    "dow": 215,
    "du": 216,
    "multi": 217,
    "idec": 218,
    "multiby": 219,
    "idechar": 220,
    "ke": 221,
    "window": 222,
    "tion": 223,
    "\u25810x6": 224,
    "mp": 225,
    "78": 226,
    "modu": 227,
    "module": 228,
    "ystem": 229,
    "30": 230,
    "\u25810x400000": 231,
    "50": 232,
    "\u25810xfeee001": 233,
    "d10000": 234,
    "\u25810x77d10000": 235,
    "gets": 236,
    "f8": 237,
    "sp": 238,
    "th": 239,
    "fre": 240,
    "op": 241,
    "deco": 242,
    "decodepointer": 243,
    "spin": 244,
    "spincount": 245,
    "andspincount": 246,
    "initializecriticalsectionandspincount": 247,
    "ms": 248,
    "getmodule": 249,
    "vir": 250,
    "70": 251,
    "free": 252,
    "ment": 253,
    "ce": 254,
    "tet": 255,
    "d8": 256,
    "18": 257,
    "ri": 258,
    "b0": 259,
    "exw": 260,
    "process": 261,
    "\u25810x1211f": 262,
    "\u25810x10c": 263,
    "yp": 264,
    "reate": 265,
    "br": 266,
    "ge": 267,
    "locale": 268,
    "pinfo": 269,
    "ary": 270,
    "windows": 271,
    "stringw": 272,
    "nex": 273,
    "libr": 274,
    "library": 275,
    "map": 276,
    "rt": 277,
    "\u2581windows": 278,
    "38": 279,
    "id": 280,
    "26": 281,
    "\u2581g": 282,
    "e0": 283,
    "age": 284,
    "\u25810xf00": 285,
    "tetow": 286,
    "multibytetow": 287,
    "multibytetowidechar": 288,
    "\u25810x9": 289,
    "28": 290,
    "getcpinfo": 291,
    "leti": 292,
    "rent": 293,
    "urrent": 294,
    "\u2581f": 295,
    "\u25810xffff": 296,
    "char": 297,
    "cc": 298,
    "\u25810xc000": 299,
    "di": 300,
    "98": 301,
    "charnex": 302,
    "60": 303,
    "a5": 304,
    "getst": 305,
    "ddec": 306,
    "\u25810x70": 307,
    "\u25810xffffff": 308,
    "ini": 309,
    "ons": 310,
    "bc": 311,
    "\u25810x7e": 312,
    "64": 313,
    "vc": 314,
    "\u2581ms": 315,
    "lc": 316,
    "tw": 317,
    "34": 318,
    "c4": 319,
    "se": 320,
    "80": 321,
    "ystem32": 322,
    "ype": 323,
    "\u2581msvc": 324,
    "getlocale": 325,
    "\u2581set": 326,
    "68": 327,
    "\u2581msvcrt": 328,
    "lcmap": 329,
    "temp": 330,
    "infow": 331,
    "def": 332,
    "virtu": 333,
    "virtual": 334,
    "hi": 335,
    "\u25810x78000000": 336,
    "locke": 337,
    "interlocke": 338,
    "\u25810x1211c": 339,
    "api": 340,
    "comp": 341,
    "ize": 342,
    "un": 343,
    "\u25810xfeee002": 344,
    "wri": 345,
    "rement": 346,
    "ol": 347,
    "size": 348,
    "it": 349,
    "\u25810xfeee005": 350,
    "loadlibrary": 351,
    "write": 352,
    "\u25810x90": 353,
    "ame": 354,
    "ble": 355,
    "key": 356,
    "thread": 357,
    "\u25810xfeee007": 358,
    "\u25810x88": 359,
    "tat": 360,
    "ans": 361,
    "a8": 362,
    "tatus": 363,
    "rs": 364,
    "trans": 365,
    "\u25810xfeee004": 366,
    "69": 367,
    "b8": 368,
    "tom": 369,
    "1000": 370,
    "\u2581create": 371,
    "open": 372,
    "que": 373,
    "loadstringw": 374,
    "lient": 375,
    "14": 376,
    "58": 377,
    "dcomp": 378,
    "\u25810x243948c": 379,
    "getcpinfoexw": 380,
    "table": 381,
    "\u25810x4690": 382,
    "action": 383,
    "dc": 384,
    "queue": 385,
    "3000": 386,
    "onstatus": 387,
    "dcompleti": 388,
    "queuedcompleti": 389,
    "queuedcompletionstatus": 390,
    "transaction": 391,
    "ddeclient": 392,
    "ddeclienttransaction": 393,
    "getqueuedcompletionstatus": 394,
    "inita": 395,
    "initatom": 396,
    "\u25810x2439480": 397,
    "\u25810x2439484": 398,
    "\u25810x2439488": 399,
    "initatomtable": 400,
    "heapsize": 401,
    "tor": 402,
    "\u2581p": 403,
    "heapfree": 404,
    "rec": 405,
    "handlew": 406,
    "name": 407,
    "ers": 408,
    "ck": 409,
    "var": 410,
    "a4": 411,
    "56": 412,
    "a000": 413,
    "lm": 414,
    "\u2581system32": 415,
    "reg": 416,
    "2000": 417,
    "\u25810x1210": 418,
    "abc": 419,
    "\u2581temp": 420,
    "vw": 421,
    "fe": 422,
    "d4": 423,
    "ghi": 424,
    "5000": 425,
    "jk": 426,
    "nop": 427,
    "xy": 428,
    "\u25810xfeee008": 429,
    "xyz": 430,
    "qrs": 431,
    "tuvw": 432,
    "nopqrs": 433,
    "tuvwxyz": 434,
    "defghi": 435,
    "nopqrstuvwxyz": 436,
    "jklm": 437,
    "abcdefghi": 438,
    "jklmnopqrstuvwxyz": 439,
    "abcdefghijklmnopqrstuvwxyz": 440,
    "ch": 441,
    "\u25810x40a5": 442,
    "getmodulehandlew": 443,
    "\u25810x12117": 444,
    "multibyte": 445,
    "widechar": 446,
    "widecharto": 447,
    "widechartomultibyte": 448,
    "ic": 449,
    "tick": 450,
    "tickcount": 451,
    "mm": 452,
    "\u25810x12119": 453,
    "\u25810xfeee006": 454,
    "din": 455,
    "\u25810x80": 456,
    "b000": 457,
    "f4": 458,
    "orm": 459,
    "cmp": 460,
    "7000": 461,
    "da": 462,
    "qu": 463,
    "c8": 464,
    "12": 465,
    "\u25810x79": 466,
    "f000": 467,
    "d000": 468,
    "filet": 469,
    "filetype": 470,
    "be": 471,
    "\u2581-": 472,
    "\u25810xfeee003": 473,
    "\u25810x526": 474,
    "7c": 475,
    "mem": 476,
    "\u25810x3f": 477,
    "dhandle": 478,
    "sset": 479,
    "charnextw": 480,
    "getfiletype": 481,
    "6000": 482,
    "sw": 483,
    "fc": 484,
    "\u25810x47": 485,
    "getcurrent": 486,
    "lsset": 487,
    "lssetvalue": 488,
    "\u25810xfeee0004": 489,
    "gettickcount": 490,
    "ute": 491,
    "res": 492,
    "create": 493,
    "f5": 494,
    "stringa": 495,
    "9000": 496,
    "dinc": 497,
    "interlockedinc": 498,
    "interlockedincrement": 499,
    "direc": 500,
    "viron": 501,
    "environ": 502,
    "lsalloc": 503,
    "getlocaleinfow": 504,
    "environment": 505,
    "\u25810x20": 506,
    "\u25810x78c": 507,
    "\u25810x78c00000": 508,
    "1-": 509,
    "lose": 510,
    "getstdhandle": 511,
    "\u25810x70cc": 512,
    "\u25810xcd": 513,
    "\u25810x200": 514,
    "director": 515,
    "handlea": 516,
    "\u25810x7d90": 517,
    "filename": 518,
    "pa": 519,
    "artu": 520,
    "loadstringa": 521,
    "of": 522,
    "\u2581w": 523,
    "\u25810x409": 524,
    "e000": 525,
    "quer": 526,
    "5c": 527,
    "\u25810x44": 528,
    "\u25810xfeee0002": 529,
    "stringex": 530,
    "\u25810xffffffff": 531,
    "\u25810x18": 532,
    "\u25810x77e": 533,
    "\u25810x77e10000": 534,
    "ad0": 535,
    "b4": 536,
    "e8": 537,
    "\u25810x4c4": 538,
    "91": 539,
    "vers": 540,
    "\u25810x4610": 541,
    "charnexta": 542,
    "versi": 543,
    "\u25810xfeee0000": 544,
    "74": 545,
    "getmodulehandlea": 546,
    "\u25810xa": 547,
    "\u25810x1211d": 548,
    "\u2581load": 549,
    "\u2581open": 550,
    "ool": 551,
    "\u25810x5f8": 552,
    "ve": 553,
    "\u25810x5f800000": 554,
    "lcmapstringw": 555,
    "\u25810x7b": 556,
    "comm": 557,
    "e6": 558,
    "memcmp": 559,
    "sle": 560,
    "\u25810x104": 561,
    "24": 562,
    "dbc": 563,
    "filew": 564,
    "\u25810x41de": 565,
    "getstartu": 566,
    "\u25810x41f0": 567,
    "lcmapstringex": 568,
    "\u25810xfeee009": 569,
    "54": 570,
    "\u25810xf001": 571,
    "virtualalloc": 572,
    "\u25810x41f040": 573,
    "stringsw": 574,
    "infoa": 575,
    "loadlibrarya": 576,
    "es": 577,
    "eco": 578,
    "current": 579,
    "byte": 580,
    "f6": 581,
    "isdbc": 582,
    "slead": 583,
    "isdbcslead": 584,
    "dd": 585,
    "isdbcsleadbyte": 586,
    "2c": 587,
    "\u25810xfeee0003": 588,
    "\u2581ad": 589,
    "time": 590,
    "line": 591,
    "command": 592,
    "\u2581ap": 593,
    "commandline": 594,
    "3c": 595,
    "our": 596,
    "getsystem": 597,
    "environmentstringsw": 598,
    "directory": 599,
    "int": 600,
    "b9": 601,
    "\u25810x7de": 602,
    "\u25810x54": 603,
    "getlocaleinfoa": 604,
    "able": 605,
    "\u2581adv": 606,
    "api32.": 607,
    "\u25810x1211e": 608,
    "\u2581apis": 609,
    "\u2581advapi32.": 610,
    "\u25810x800": 611,
    "\u25810x7c": 612,
    "threadid": 613,
    "ation": 614,
    "form": 615,
    "71": 616,
    "\u2581var": 617,
    "\u2581h": 618,
    "ect": 619,
    "._": 620,
    "\u25810xfeee0005": 621,
    "valid": 622,
    "are": 623,
    "readpool": 624,
    "\u25810x7ec": 625,
    "\u25810x8ad0": 626,
    "arch": 627,
    "lee": 628,
    "l1-": 629,
    "filea": 630,
    "\u2581page": 631,
    "\u25810x12115": 632,
    "\u2581reg": 633,
    "\u25810xf003": 634,
    "\u25810xf002": 635,
    "fileti": 636,
    "1c": 637,
    "\u2581api": 638,
    "processor": 639,
    "9c": 640,
    "cep": 641,
    "\u2581crea": 642,
    "search": 643,
    "readwrite": 644,
    "path": 645,
    "losehandle": 646,
    "\u25810x7700": 647,
    "ist": 648,
    "\u25810x8a": 649,
    "94": 650,
    "mess": 651,
    "789": 652,
    "loadlibraryexw": 653,
    "ra": 654,
    "\u25810x7718": 655,
    "\u25810x7708": 656,
    "\u25810x7711": 657,
    "\u2581!": 658,
    "core": 659,
    "\u2581encodepointer": 660,
    "75": 661,
    "type": 662,
    "getmodulefilename": 663,
    "\u2581(": 664,
    "\u25810x120": 665,
    "e5": 666,
    "lstr": 667,
    "getcurrentthreadid": 668,
    "3456": 669,
    "%&": 670,
    "\u25810x7a": 671,
    "=>": 672,
    "\u2581|": 673,
    "?@": 674,
    "\u2581012": 675,
    "_`": 676,
    "<=>": 677,
    "<=>?@": 678,
    "3456789": 679,
    "\u25810123456789": 680,
    ")*": 681,
    "$%&": 682,
    "\u2581-.": 683,
    "\u2581()*": 684,
    "3d": 685,
    "ro": 686,
    "ource": 687,
    "getcommandline": 688,
    "\u25810x7710": 689,
    "ception": 690,
    "getprocess": 691,
    "message": 692,
    "\u25810x4c": 693,
    "\u25810x7714": 694,
    "\u25810x7704": 695,
    "urs": 696,
    "b7": 697,
    "list": 698,
    "0x": 699,
    "vari": 700,
    "\u2581de": 701,
    "\u25810x73": 702,
    "leep": 703,
    "\u25810x76": 704,
    "ba": 705,
    "filetime": 706,
    "e2": 707,
    "fa": 708,
    "pres": 709,
    "present": 710,
    "ate": 711,
    "pinfow": 712,
    "um": 713,
    "\u25810x102": 714,
    "eex": 715,
    "il": 716,
    "ursor": 717,
    "\u25810x8810": 718,
    "ecute": 719,
    "\u25810x400": 720,
    "getprocessheap": 721,
    "\u25810xfeee0": 722,
    "35": 723,
    "\u25810x75": 724,
    "db": 725,
    "system32": 726,
    "interlockeddec": 727,
    "interlockeddecrement": 728,
    "la": 729,
    "ut": 730,
    "getversi": 731,
    "stringtype": 732,
    "cursor": 733,
    "dex": 734,
    "\u25810x4600": 735,
    "fea": 736,
    "lob": 737,
    "\u2581<": 738,
    "ab0": 739,
    "ole": 740,
    "36": 741,
    "icon": 742,
    "a9": 743,
    "og": 744,
    "a1": 745,
    "a2": 746,
    "tin": 747,
    "getstartupinfow": 748,
    "ture": 749,
    "bo": 750,
    "fil": 751,
    "code": 752,
    "\u25810x8c": 753,
    "closehandle": 754,
    "localalloc": 755,
    "\u25810x7706": 756,
    "\u25810x7716": 757,
    "\u25810x7717": 758,
    "\u25810x7707": 759,
    "\u25810x7709": 760,
    "\u25810x7719": 761,
    "0x1": 762,
    "\u2581-0x1": 763,
    "\u25810x1c": 764,
    "stringtypew": 765,
    "b5": 766,
    "gin": 767,
    "feature": 768,
    "isprocessor": 769,
    "featurepresent": 770,
    "isprocessorfeaturepresent": 771,
    "\u25810xfeee0006": 772,
    "\u2581m": 773,
    "a6": 774,
    "directoryw": 775,
    "st": 776,
    "dri": 777,
    "ction": 778,
    "4c": 779,
    "\u25810x220": 780,
    "\u25810x7000": 781,
    "\u2581getcurrent": 782,
    "erform": 783,
    "ed": 784,
    "erforman": 785,
    "queryp": 786,
    "queryperforman": 787,
    "\u2581hkey": 788,
    "390": 789,
    "oftw": 790,
    "\u25810x7f": 791,
    "ot": 792,
    "\u25810x71": 793,
    "oftware": 794,
    "hel": 795,
    "\u25810x72": 796,
    "\u25810x9000": 797,
    "\u25810x14": 798,
    "\u2581software": 799,
    "unter": 800,
    "\u25810x48": 801,
    "\u25810x7d91": 802,
    "begin": 803,
    "f1": 804,
    "up": 805,
    "\u25810x8000": 806,
    "\u25810x770c": 807,
    "\u25810x771b": 808,
    "\u25810x7702": 809,
    "\u25810x770b": 810,
    "\u25810x7705": 811,
    "\u25810x770d": 812,
    "\u25810x770e": 813,
    "\u25810x7712": 814,
    "\u25810x7715": 815,
    "b2": 816,
    "ceco": 817,
    "cecounter": 818,
    "queryperformancecounter": 819,
    "f9": 820,
    "\u25810x74": 821,
    "\u25810x4c42": 822,
    "eric": 823,
    "filter": 824,
    "dexception": 825,
    "wa": 826,
    "unhandle": 827,
    "dexceptionfilter": 828,
    "unhandledexceptionfilter": 829,
    "15": 830,
    "ser": 831,
    "asfiletime": 832,
    "getstringtypew": 833,
    "\u2581gdi": 834,
    "execute": 835,
    "76": 836,
    "ond": 837,
    "acp": 838,
    "loadcursor": 839,
    "\u25810x4093": 840,
    "lock": 841,
    "ting": 842,
    "tdll": 843,
    "\u25810x4378": 844,
    "end": 845,
    "drive": 846,
    "\u25810x7701": 847,
    "\u25810x7703": 848,
    "\u25810x770f": 849,
    "\u25810x7713": 850,
    "\u25810xfeee0007": 851,
    "tim": 852,
    "eneric": 853,
    "bj": 854,
    "exe": 855,
    "d5": 856,
    "b6": 857,
    "\u2581gdi32.": 858,
    "timeasfiletime": 859,
    "\u2581pf": 860,
    "19": 861,
    "\u25810x42c": 862,
    "print": 863,
    "inform": 864,
    "writefile": 865,
    "information": 866,
    "b3": 867,
    "\u25810x41dd": 868,
    "\u25810x7e70": 869,
    "ition": 870,
    "ondition": 871,
    "flssetvalue": 872,
    "vice": 873,
    "\u2581ex": 874,
    "\u25810x437": 875,
    "a7": 876,
    "lobal": 877,
    "getcurrentprocess": 878,
    "bd": 879,
    "\u2581go": 880,
    "\u25810x1211c98": 881,
    "\u2581goog": 882,
    "\u2581google": 883,
    "hreadpool": 884,
    "\u2581flsalloc": 885,
    "\u2581flssetvalue": 886,
    "lete": 887,
    "sprint": 888,
    "\u25810x770a": 889,
    "\u25810x771a": 890,
    "\u25810x69": 891,
    "b1": 892,
    "timer": 893,
    "\u2581getmodule": 894,
    "c000": 895,
    "stru": 896,
    "struction": 897,
    "\u2581generic": 898,
    "onsole": 899,
    "getacp": 900,
    "\u25810x416": 901,
    "bject": 902,
    "d6": 903,
    "\u2581fin": 904,
    "flsalloc": 905,
    "freeenvironmentstringsw": 906,
    "exa": 907,
    "av": 908,
    "ail": 909,
    "isvalid": 910,
    "tri": 911,
    "query": 912,
    "\u25810x5265c": 913,
    "\u2581decodepointer": 914,
    "tee": 915,
    "2-": 916,
    "lass": 917,
    "sleep": 918,
    "openkey": 919,
    "66": 920,
    "ailable": 921,
    "\u25810x8d": 922,
    "\u25810x42d": 923,
    "available": 924,
    "sh": 925,
    "508": 926,
    "\u25810x169": 927,
    "f7": 928,
    "\u25810x420": 929,
    "\u25810x5266": 930,
    "ock": 931,
    "\u25810x47b0": 932,
    "yn": 933,
    "instruction": 934,
    "\u2581createt": 935,
    "locales": 936,
    "31": 937,
    "i64": 938,
    "instructions": 939,
    "xmm": 940,
    "i64_": 941,
    "xmmi64_": 942,
    "sc": 943,
    "\u25810x3000": 944,
    "acc": 945,
    "fro": 946,
    "tex": 947,
    "29": 948,
    "37": 949,
    "l1-2-": 950,
    "\u2581b": 951,
    "\u2581in": 952,
    "27": 953,
    "\u25810x7de0": 954,
    "ity": 955,
    "bf": 956,
    "\u25810x7810": 957,
    "dra": 958,
    "8c": 959,
    "lor": 960,
    "getsystemtimeasfiletime": 961,
    "25": 962,
    "defa": 963,
    "defaul": 964,
    "setunhandledexceptionfilter": 965,
    "\u25810x4e": 966,
    "\u25810x7c000000": 967,
    "aa": 968,
    "\u25810x69000000": 969,
    "fd": 970,
    "\u2581shel": 971,
    "\u25810x7ec0": 972,
    "\u25810x12116": 973,
    "from": 974,
    "system": 975,
    "getcurrentprocessid": 976,
    "variable": 977,
    "3e": 978,
    "met": 979,
    "\u25810xfffffff6": 980,
    "\u2581t": 981,
    "\u25810xfffffff5": 982,
    "\u25810xfffffff4": 983,
    "\u25810x30": 984,
    "color": 985,
    "getmodulefilenamew": 986,
    "object": 987,
    "\u2581global": 988,
    "pinfoa": 989,
    "access": 990,
    "getenvironmentstringsw": 991,
    "getcommandlinea": 992,
    "16": 993,
    "\u25810x50": 994,
    "lus": 995,
    "\u25810x7f00": 996,
    "gettemp": 997,
    "\u25810x1210e": 998,
    "\u25810x56": 999,
    "ver": 1000,
    "\u25810x53": 1001,
    "l1-1-": 1002,
    "\u25810x4b": 1003,
    "\u25810x430": 1004,
    "164": 1005,
    "getversionex": 1006,
    "\u25810x19": 1007,
    "\u25810x7890": 1008,
    "ho": 1009,
    "4000": 1010,
    "createfilew": 1011,
    "ber": 1012,
    "pathw": 1013,
    "79": 1014,
    "urity": 1015,
    "codep": 1016,
    "security": 1017,
    "loadicon": 1018,
    "\u2581flsgetvalue": 1019,
    "\u25810x180": 1020,
    "\u25810x1211b": 1021,
    "\u25810x4ab0": 1022,
    "af": 1023,
    "virtualquery": 1024,
    "\u25810x4078": 1025,
    "55": 1026,
    "\u25810x49": 1027,
    "threadex": 1028,
    "bu": 1029,
    "beginthreadex": 1030,
    "\u2581initializecriticalsectionex": 1031,
    "len": 1032,
    "codepage": 1033,
    "\u2581i": 1034,
    "\u25810xe": 1035,
    "ack": 1036,
    "\u25810x407840": 1037,
    "\u2581locales": 1038,
    "sprintf": 1039,
    "getmodulefilenamea": 1040,
    "isvalidcodepage": 1041,
    "section": 1042,
    "hread": 1043,
    "messagea": 1044,
    "loadcursorw": 1045,
    "f3": 1046,
    "enu": 1047,
    "\u25810x1211dc0": 1048,
    "service": 1049,
    "\u25810x41de20": 1050,
    "eexw": 1051,
    "error": 1052,
    "filepointer": 1053,
    "\u25810x28": 1054,
    "ae": 1055,
    "\u25810x1211e0": 1056,
    "threadpool": 1057,
    "\u25810x41ddd8": 1058,
    "1646": 1059,
    "\u25810x4670": 1060,
    "\u25810x435": 1061,
    "getstartupinfoa": 1062,
    "boar": 1063,
    "\u2581invalid": 1064,
    "\u25810x1210f": 1065,
    "17": 1066,
    "handl": 1067,
    "olf": 1068,
    "\u2581wa": 1069,
    "d2": 1070,
    "getcommandlinew": 1071,
    "board": 1072,
    "\u25810x2a": 1073,
    "\u25810x1804": 1074,
    "wait": 1075,
    "\u25810x12116d8": 1076,
    "\u2581sh": 1077,
    "regopenkey": 1078,
    "\u25810x1211918": 1079,
    "f10000": 1080,
    "mage": 1081,
    "308": 1082,
    "\u25810xa4": 1083,
    "\u2581getsystem": 1084,
    "\u25810x11": 1085,
    "\u25810x77f10000": 1086,
    "ttri": 1087,
    "bute": 1088,
    "\u25810x4d": 1089,
    "ttribute": 1090,
    "\u25810xd": 1091,
    "8000": 1092,
    "\u25810x1211c18": 1093,
    "vent": 1094,
    "lstrlen": 1095,
    "itprocess": 1096,
    "tmp": 1097,
    "fileattribute": 1098,
    "84": 1099,
    "f2": 1100,
    "\u2581delete": 1101,
    "version": 1102,
    "heapcreate": 1103,
    "\u25810xb": 1104,
    "process32": 1105,
    "\u25810x5f5": 1106,
    "\u2581crt": 1107,
    "\u2581crtdll": 1108,
    "fin": 1109,
    "95": 1110,
    "art": 1111,
    "num": 1112,
    "\u25810x3f30": 1113,
    "\u2581find": 1114,
    "\u2581golf": 1115,
    "\u25810xfeee0008": 1116,
    "ynch": 1117,
    "bers": 1118,
    "2e": 1119,
    "l1-2-0": 1120,
    "6c": 1121,
    "ase": 1122,
    "\u25810x1211f38": 1123,
    "d7": 1124,
    "\u2581free": 1125,
    "py": 1126,
    "synch": 1127,
    "sa": 1128,
    "\u25810x7ee": 1129,
    "106": 1130,
    "date": 1131,
    "\u2581clo": 1132,
    "_1646": 1133,
    "d1": 1134,
    "\u2581co": 1135,
    "crea": 1136,
    "\u25810x4c42c0": 1137,
    "ew": 1138,
    "lip": 1139,
    "7e": 1140,
    "lsfree": 1141,
    "\u25810x5265c14": 1142,
    "\u25810x5f500000": 1143,
    "\u25810xfeee0009": 1144,
    "99": 1145,
    "\u25810x771c": 1146,
    "\u25810xfeee000a": 1147,
    "\u25810xfeee000b": 1148,
    "rw": 1149,
    "\u2581read": 1150,
    "\u25810xfeee000c": 1151,
    "regis": 1152,
    "a3": 1153,
    "mode": 1154,
    "realloc": 1155,
    "\u25810xfeee000e": 1156,
    "b00": 1157,
    "\u25810xfeee000d": 1158,
    "\u25810xfeee0014": 1159,
    "\u25810xfeee000f": 1160,
    "condition": 1161,
    "getconsole": 1162,
    "\u25810xfeee0010": 1163,
    "\u2581shell32.": 1164,
    "908": 1165,
    "log": 1166,
    "\u25810xfeee0015": 1167,
    "\u25810x7910": 1168,
    "\u25810xfeee0012": 1169,
    "\u25810xfeee0011": 1170,
    "\u25810xfeee0013": 1171,
    "\u25810xfeee0016": 1172,
    "1e": 1173,
    "rtl": 1174,
    "\u2581a": 1175,
    "\u25810x8af0": 1176,
    "\u25810x42e5": 1177,
    "cs": 1178,
    "\u25810x4238": 1179,
    "\u25810x8a40": 1180,
    "hine": 1181,
    "mac": 1182,
    "\u25810x13": 1183,
    "machine": 1184,
    "cec": 1185,
    "gu": 1186,
    "d9": 1187,
    "\u25810x1211518": 1188,
    "\u25810xfeee00c": 1189,
    "firs": 1190,
    "\u25810x1211e04": 1191,
    "getversion": 1192,
    "db10": 1193,
    "dis": 1194,
    "term": 1195,
    "08": 1196,
    "\u25810x12114": 1197,
    "directorya": 1198,
    "processlist": 1199,
    "getconsoleprocesslist": 1200,
    "ical": 1201,
    "resource": 1202,
    "\u25810x4cf": 1203,
    "ies": 1204,
    "ecount": 1205,
    "db10106": 1206,
    "\u25810x1db10106": 1207,
    "\u2581ntdll": 1208,
    "00c": 1209,
    "lic": 1210,
    "\u25810xfeee0017": 1211,
    "virtualfree": 1212,
    "\u25810x1211748": 1213,
    "\u25810xfeee0018": 1214,
    "\u25810x4fe": 1215,
    "\u2581getuser": 1216,
    "menu": 1217,
    "\u25810xfeee0019": 1218,
    "handlecount": 1219,
    "\u25810x7e71": 1220,
    "fb": 1221,
    "vicec": 1222,
    "for": 1223,
    "260": 1224,
    "\u25810xffc": 1225,
    "draw": 1226,
    "directories": 1227,
    "\u25810x436": 1228,
    "\u2581getc": 1229,
    "\u25810x5265": 1230,
    "44": 1231,
    "isting": 1232,
    "defaultdll": 1233,
    "defaultdlldirectories": 1234,
    ".__": 1235,
    "\u25810x8811": 1236,
    "day": 1237,
    "rip": 1238,
    "scrip": 1239,
    "780": 1240,
    "\u25810x418": 1241,
    "flo": 1242,
    "existing": 1243,
    "descrip": 1244,
    "\u25810xfeee001c": 1245,
    "\u2581regis": 1246,
    "try": 1247,
    "\u25810x34": 1248,
    "lstrcmp": 1249,
    "descriptor": 1250,
    "securitydescriptor": 1251,
    "lipboard": 1252,
    "\u2581%": 1253,
    "\u25810xfeee001a": 1254,
    "\u2581sleep": 1255,
    "view": 1256,
    "\u25810x423d": 1257,
    "fibers": 1258,
    "\u25810x7d0": 1259,
    "\u25810x41e2": 1260,
    "e9": 1261,
    "e7": 1262,
    "xa": 1263,
    "rwlock": 1264,
    "\u25810x50000": 1265,
    "\u25810x40934": 1266,
    "\u2581ws": 1267,
    "ork": 1268,
    "\u2581file": 1269,
    "22": 1270,
    "filenamew": 1271,
    "\u25810x32": 1272,
    "\u25810x120e6": 1273,
    "\u25810x41e218": 1274,
    "1a": 1275,
    "3f": 1276,
    "\u25810xfeee001b": 1277,
    "\u25810x79f0": 1278,
    "\u2581closet": 1279,
    "\u25810x1211958": 1280,
    "\u2581closethreadpool": 1281,
    "\u2581createthreadpool": 1282,
    "gettemppathw": 1283,
    "l1-1-1": 1284,
    "con": 1285,
    "yscolor": 1286,
    "terclass": 1287,
    "regopenkeyexw": 1288,
    "tlssetvalue": 1289,
    "call": 1290,
    "\u2581j": 1291,
    "init": 1292,
    "heaprealloc": 1293,
    "33": 1294,
    "\u2581flsfree": 1295,
    "\u25810x678": 1296,
    "dres": 1297,
    "\u25810x417": 1298,
    "fileattributesw": 1299,
    "initializes": 1300,
    "\u25810x84": 1301,
    "\u25810x80c0": 1302,
    "97": 1303,
    "\u2581image": 1304,
    "\u2581re": 1305,
    "e1": 1306,
    "loadicona": 1307,
    "21": 1308,
    "\u25810xfeee001d": 1309,
    "\u25810x1211c7c": 1310,
    "tlsalloc": 1311,
    "\u25810x1211908": 1312,
    "prot": 1313,
    "\u2581imagelist": 1314,
    "\u25810x4a": 1315,
    "\u2581lcmapstringex": 1316,
    "\u25810x94": 1317,
    "esource": 1318,
    "88": 1319,
    "\u25810x419": 1320,
    "\u2581rtl": 1321,
    "ink": 1322,
    "next": 1323,
    "67": 1324,
    "ating": 1325,
    "getsyscolor": 1326,
    "\u25810x1211718": 1327,
    "\u25810x1f": 1328,
    "\u25810x12114b8": 1329,
    "net": 1330,
    "protect": 1331,
    "first": 1332,
    "\u2581freelibrary": 1333,
    "onditionvariable": 1334,
    "\u25810xfeee0071": 1335,
    "back": 1336,
    "virtualprotect": 1337,
    "threadlocale": 1338,
    "\u25810x7de1": 1339,
    "top": 1340,
    "viewof": 1341,
    "\u25810x4305": 1342,
    "mapviewof": 1343,
    "app": 1344,
    "pri": 1345,
    "\u25810x82": 1346,
    "orl": 1347,
    "\u2581wait": 1348,
    "number": 1349,
    "memor": 1350,
    "\u2581borl": 1351,
    "fromstr": 1352,
    "\u25810xfeee01": 1353,
    "\u2581golfinfo": 1354,
    "\u25810x8b": 1355,
    "initialize": 1356,
    "\u2581borland": 1357,
    "keyw": 1358,
    "\u25810x7ec1": 1359,
    "callback": 1360,
    "\u2581se": 1361,
    "\u25810x64": 1362,
    "dater": 1363,
    "metri": 1364,
    "\u2581setthreadpool": 1365,
    "ee0": 1366,
    "\u25810xfeee001e": 1367,
    "\u25810x58": 1368,
    "sethandlecount": 1369,
    "metrics": 1370,
    "setfilepointer": 1371,
    "ive": 1372,
    "\u25810x42d4": 1373,
    "ask": 1374,
    "a40": 1375,
    "\u25810x1211738": 1376,
    "\u25810x8f": 1377,
    "\u2581waitfor": 1378,
    "cp": 1379,
    "\u25810x4750": 1380,
    "ger": 1381,
    "\u25810x43b7": 1382,
    "\u2581getfile": 1383,
    "\u2581process32": 1384,
    "dateresource": 1385,
    "not": 1386,
    "qui": 1387,
    "bb": 1388,
    "\u25810x423": 1389,
    "exc": 1390,
    "exclus": 1391,
    "\u25810x41de50": 1392,
    "exclusive": 1393,
    "rwlockexclusive": 1394,
    "d3": 1395,
    "dr": 1396,
    "\u25810x7850": 1397,
    "\u25810x2c": 1398,
    "\u25810xfeee001f": 1399,
    "\u2581write": 1400,
    "\u25810x83": 1401,
    "\u25810xfeee0020": 1402,
    "\u25810x7930": 1403,
    "45": 1404,
    "icro": 1405,
    "lp": 1406,
    "\u25810xfeee007e": 1407,
    "\u25810x6781": 1408,
    "\u25810x1211dfc": 1409,
    "\u25810x428": 1410,
    "lease": 1411,
    "\u2581o": 1412,
    "ub": 1413,
    "\u25810x15": 1414,
    "getthreadlocale": 1415,
    "2f8": 1416,
    "wi": 1417,
    "\u2581micro": 1418,
    "ename": 1419,
    "\u25810x411": 1420,
    "paint": 1421,
    "df": 1422,
    "\u25810x89": 1423,
    "394": 1424,
    "\u25810x4feb": 1425,
    "der": 1426,
    "eb": 1427,
    "sof": 1428,
    "mask": 1429,
    "ven": 1430,
    "lstrcmpi": 1431,
    "\u25810x1e": 1432,
    "\u25810x198": 1433,
    "\u2581gettickcount": 1434,
    "280": 1435,
    "variab": 1436,
    "memory": 1437,
    "c6": 1438,
    "\u2581begin": 1439,
    "c1": 1440,
    "\u25810x700c": 1441,
    "oy": 1442,
    "\u2581getst": 1443,
    "alwa": 1444,
    "always": 1445,
    "mapvirtual": 1446,
    "72": 1447,
    "\u25810x429": 1448,
    "soft": 1449,
    "\u2581getcommandline": 1450,
    "arg": 1451,
    "dac": 1452,
    "logical": 1453,
    "windowexa": 1454,
    "teeven": 1455,
    "tun": 1456,
    "\u2581getlogical": 1457,
    "\u25810x704c": 1458,
    "lush": 1459,
    "mapvirtualkeyw": 1460,
    "\u25810x708c": 1461,
    "loadcursora": 1462,
    "buff": 1463,
    "\u25810x19a": 1464,
    "\u25810x414": 1465,
    "51": 1466,
    "work": 1467,
    "lstrlenw": 1468,
    "\u2581microsoft": 1469,
    "\u25810x8cc0": 1470,
    "\u25810x4e50": 1471,
    "tch": 1472,
    "\u25810x92": 1473,
    "\u25810x7f8": 1474,
    "\u25810x7ab0": 1475,
    "180": 1476,
    "bit": 1477,
    "lstrcmpiw": 1478,
    "\u2581createprocess": 1479,
    "led": 1480,
    "\u25810x42c4": 1481,
    "\u25810xf0019": 1482,
    "\u2581current": 1483,
    "pro": 1484,
    "div": 1485,
    "compare": 1486,
    "7d": 1487,
    "namea": 1488,
    "2a": 1489,
    "findres": 1490,
    "\u2581flush": 1491,
    "\u25810x8260": 1492,
    "\u25810x410": 1493,
    "lw": 1494,
    "__": 1495,
    "isi": 1496,
    "\u25810x1211758": 1497,
    "\u25810xa3": 1498,
    "buffers": 1499,
    "fd0": 1500,
    "l66": 1501,
    "73": 1502,
    "1d": 1503,
    "\u25810x12112f8": 1504,
    "trac": 1505,
    "move": 1506,
    "96": 1507,
    "\u25810x1211f64": 1508,
    "\u25810x105": 1509,
    "valu": 1510,
    "a256": 1511,
    "\u25810x53ba": 1512,
    "\u25810xcc": 1513,
    "\u25810xfeee0021": 1514,
    "getversionexw": 1515,
    "a256>": 1516,
    "sha256>": 1517,
    "\u25810x1075": 1518,
    "\u25810xfeee0022": 1519,
    "ockobject": 1520,
    "\u25810x7e8": 1521,
    "\u25810x42a1": 1522,
    "verset": 1523,
    "conditionmask": 1524,
    "versetconditionmask": 1525,
    "bug": 1526,
    "\u25810xfeee0024": 1527,
    "\u25810x1211cf8": 1528,
    "drl66": 1529,
    "\u25810xfeee0025": 1530,
    "\u25810xfeee0023": 1531,
    "ken": 1532,
    "\u2581setdefaultdlldirectories": 1533,
    "\u25810x41bc": 1534,
    "\u25810x4f": 1535,
    "atex": 1536,
    "clipboard": 1537,
    "tate": 1538,
    "\u25810x1211528": 1539,
    "token": 1540,
    "debug": 1541,
    "iled": 1542,
    "sn": 1543,
    "quires": 1544,
    "\u2581virtualalloc": 1545,
    "\u25810xfeee0027": 1546,
    "\u2581currentversion": 1547,
    "acquires": 1548,
    "servicew": 1549,
    "acquiresrwlockexclusive": 1550,
    "\u25810x12119c0": 1551,
    "stroy": 1552,
    "\u25810x4350": 1553,
    "\u25810x99": 1554,
    "ero": 1555,
    "\u2581creates": 1556,
    "\u25810xfeee0026": 1557,
    "\u25810x17": 1558,
    "delete": 1559,
    "createdirectoryw": 1560,
    "\u25810x6781d8": 1561,
    "480": 1562,
    "getversionexa": 1563,
    "\u25810x42a190": 1564,
    "allock": 1565,
    "messagew": 1566,
    "sprintfw": 1567,
    "\u2581copy": 1568,
    "ocket": 1569,
    "drl6660": 1570,
    "lec": 1571,
    "\u25810xa0": 1572,
    "\u25810x4c4308": 1573,
    "\u2581closehandle": 1574,
    "getstockobject": 1575,
    "77": 1576,
    "\u2581exitprocess": 1577,
    "utexa": 1578,
    "23": 1579,
    "mapho": 1580,
    "semapho": 1581,
    "onne": 1582,
    "\u2581virtualfree": 1583,
    "localename": 1584,
    "kart": 1585,
    "karton": 1586,
    "\u25810x1211780": 1587,
    "9d": 1588,
    "\u2581getenvironment": 1589,
    "\u2581king": 1590,
    "\u2581kingkarton": 1591,
    "angu": 1592,
    "\u2581wnet": 1593,
    "ace": 1594,
    "\u25810x4000": 1595,
    "\u25810x4bd0": 1596,
    "anguage": 1597,
    "\u25810x7ad0": 1598,
    "lex": 1599,
    "\u2581extrac": 1600,
    "loballock": 1601,
    "\u25810xfeee005f": 1602,
    "\u25810x1211a": 1603,
    "point": 1604,
    "59": 1605,
    "lwapi": 1606,
    "\u2581shlwapi": 1607,
    "c08": 1608,
    "snap": 1609,
    "\u25810x41de08": 1610,
    "und": 1611,
    "termin": 1612,
    "l32": 1613,
    "ilanguage": 1614,
    "updateresource": 1615,
    "ce0": 1616,
    "trl": 1617,
    "\u2581nt": 1618,
    "formatex": 1619,
    "ffc": 1620,
    "\u2581compare": 1621,
    "\u25810x1211728": 1622,
    "\u2581getlocale": 1623,
    "2d": 1624,
    "\u25810x67": 1625,
    "registerclass": 1626,
    "\u2581e": 1627,
    "drag": 1628,
    "ision": 1629,
    "variablew": 1630,
    "semaphore": 1631,
    "put": 1632,
    "\u2581ole": 1633,
    "\u2581vari": 1634,
    "\u2581gut": 1635,
    "1b": 1636,
    "\u25817": 1637,
    "\u2581gum": 1638,
    "ventw": 1639,
    "dclose": 1640,
    "!@": 1641,
    "\u25810x78a0": 1642,
    "\u2581kernel32": 1643,
    "link": 1644,
    "\u25810xfeee0028": 1645,
    "valueexw": 1646,
    "\u2581writefile": 1647,
    "\u25810x38": 1648,
    "\u2581ole32.": 1649,
    "sub": 1650,
    "\u25810x2e": 1651,
    "\u25810x1210f35": 1652,
    "ct": 1653,
    "\u25810xfeee008b": 1654,
    "\u25810x364": 1655,
    "1f": 1656,
    "flow": 1657,
    "profile": 1658,
    "getsystemmetrics": 1659,
    "\u25810x53ba40": 1660,
    "at": 1661,
    "\u2581getcurrentprocess": 1662,
    "\u2581varb": 1663,
    "\u25810x7f800": 1664,
    "\u25810x1211fd8": 1665,
    "\u2581setfilepointer": 1666,
    "\u2581termin": 1667,
    "eck": 1668,
    "with": 1669,
    "namew": 1670,
    "\u25810x23": 1671,
    "\u2581is": 1672,
    "rect": 1673,
    "l1-1-0": 1674,
    "9e": 1675,
    "\u25810x7a80": 1676,
    "\u25810xfeee0040": 1677,
    "aps": 1678,
    "\u25810x7830": 1679,
    "\u25810xfeee0029": 1680,
    "devicec": 1681,
    "devicecaps": 1682,
    "\u25810x1211c90": 1683,
    "\u25810x42d8": 1684,
    "loadiconw": 1685,
    "help": 1686,
    "\u2581draw": 1687,
    "\u2581createsemaphore": 1688,
    "61": 1689,
    "patch": 1690,
    "\u25810x1211f8": 1691,
    "ati": 1692,
    "\u2581loadlibrarya": 1693,
    "dispatch": 1694,
    "\u25810x4630": 1695,
    "\u25810x169b": 1696,
    "\u25810xfeee0072": 1697,
    "\u25810x42b0": 1698,
    "\u25810xfeee002a": 1699,
    "dc8": 1700,
    "lstrlena": 1701,
    "\u25810x60": 1702,
    "d04": 1703,
    "\u25810x16": 1704,
    "\u25810x4c46": 1705,
    "\u25810x42e5b0": 1706,
    "\u25810x7540": 1707,
    "\u25810x1211f7c": 1708,
    "\u25810x97": 1709,
    "fo": 1710,
    "readfile": 1711,
    "enum": 1712,
    "300": 1713,
    "\u25810xfeee005d": 1714,
    "\u25810x1211f20": 1715,
    "informationby": 1716,
    "\u25810x4014": 1717,
    "\u25810x41d": 1718,
    "ea": 1719,
    "ourc": 1720,
    "202": 1721,
    "\u2581readfile": 1722,
    "letecriticalsection": 1723,
    "dacl": 1724,
    "securitydescriptordacl": 1725,
    "\u25810x28fd0": 1726,
    "close": 1727,
    "\u2581_": 1728,
    "\u25810x7aa0": 1729,
    "3a": 1730,
    "exitprocess": 1731,
    "65": 1732,
    "ma": 1733,
    "por": 1734,
    "\u25810xfeee0046": 1735,
    "\u25810x43b": 1736,
    "\u25810x44f8": 1737,
    "eek": 1738,
    "\u25810xfeee002c": 1739,
    "ush": 1740,
    "wsprintfw": 1741,
    "getdevicecaps": 1742,
    "\u25810x1b": 1743,
    "\u25810x401468": 1744,
    "\u25810x1211cc0": 1745,
    "\u25810x1a": 1746,
    "3d8": 1747,
    "fol": 1748,
    "\u25810x569": 1749,
    "ef": 1750,
    "head": 1751,
    "zero": 1752,
    "\u25810xfeee002d": 1753,
    "\u25810xfeee002b": 1754,
    "\u25810x1211fd0": 1755,
    "\u25810xfeee002f": 1756,
    "\u25810xfeee00f1": 1757,
    "\u25810x439": 1758,
    "\u25810x2000": 1759,
    "\u25810xfeee002e": 1760,
    "\u25810x88a0": 1761,
    "a04": 1762,
    "\u25810x8d00": 1763,
    "brush": 1764,
    "\u2581getlasterror": 1765,
    "tart": 1766,
    "\u25810x4d70": 1767,
    "c04": 1768,
    "listhead": 1769,
    "initializeslisthead": 1770,
    "\u25810x78c0": 1771,
    "\u25810xd0": 1772,
    "\u25810xfeee007c": 1773,
    "\u2581getmodulehandlea": 1774,
    "\u25810x214": 1775,
    "\u25810xfeee0030": 1776,
    "\u25810x4336": 1777,
    "\u25810xfeee0074": 1778,
    "\u25810xfeee006b": 1779,
    "\u25810xfeee0045": 1780,
    "\u25810x3394": 1781,
    "\u25810x9010": 1782,
    "\u25810x4790": 1783,
    "tries": 1784,
    "\u25810xa000": 1785,
    "\u25810xfeee0031": 1786,
    "\u25810xfeee006d": 1787,
    "folder": 1788,
    "de9": 1789,
    "\u2581th": 1790,
    "\u25810xfeee0044": 1791,
    "\u25810xfeee0034": 1792,
    "64000": 1793,
    "\u25810xfeee005e": 1794,
    "\u25810x42c508": 1795,
    "\u25810xfeee0032": 1796,
    "\u25810xfeee0033": 1797,
    "filenamea": 1798,
    "\u25810xfeee0043": 1799,
    "\u25810x7bd0": 1800,
    "\u2581close": 1801,
    "\u25810xfeee0035": 1802,
    "\u25810xfeee0047": 1803,
    "sprintfa": 1804,
    "\u25810xfeee0036": 1805,
    "\u2581send": 1806,
    "\u25810xfeee0048": 1807,
    "run": 1808,
    "\u25810xfeee003b": 1809,
    "\u25810xfeee0037": 1810,
    "\u25810x21": 1811,
    "\u2581createeven": 1812,
    "6f": 1813,
    "\u2581getcurrentthreadid": 1814,
    "\u25810xfeee0049": 1815,
    "\u25810xfeee0038": 1816,
    "\u25810xfeee0039": 1817,
    "\u25810x1211fcc": 1818,
    "\u25810xfeee0041": 1819,
    "\u25810x7990": 1820,
    "\u25810xfeee003f": 1821,
    "\u25810xfeee0042": 1822,
    "menuinfo": 1823,
    "localiz": 1824,
    "localization": 1825,
    "\u25810xfeee003a": 1826,
    "\u25810xfeee003d": 1827,
    "\u25810xfeee003e": 1828,
    "\u25810xfeee003c": 1829,
    "sing": 1830,
    "\u2581gettime": 1831,
    "\u25810x1211fc0": 1832,
    "\u25810xfeee0062": 1833,
    "\u25810x7150": 1834,
    "\u2581geto": 1835,
    "\u25810x1211948": 1836,
    "\u25810xfeee0053": 1837,
    "\u25810xfeee004a": 1838,
    "\u25810xfeee0060": 1839,
    "\u2581gettemp": 1840,
    "\u25810xfeee005c": 1841,
    "\u25810x72a0": 1842,
    "\u25810xfeee004b": 1843,
    "\u25810xfeee004d": 1844,
    "\u25810xfeee004c": 1845,
    "initterm": 1846,
    "man": 1847,
    "\u25810x73f0": 1848,
    "5d": 1849,
    "\u25810xfeee005a": 1850,
    "\u25810xfeee0050": 1851,
    "\u25810xfeee004e": 1852,
    "\u25810xfeee0055": 1853,
    "\u25810xfeee005b": 1854,
    "\u25810x7d10": 1855,
    "\u25810xfeee0051": 1856,
    "\u25810xfeee0052": 1857,
    "\u25810xfeee004f": 1858,
    "\u25810xfeee0054": 1859,
    "\u25810xfeee0061": 1860,
    "\u25810x22": 1861,
    "\u25810xfeee0057": 1862,
    "\u25810xfeee0056": 1863,
    "\u25810xfeee0065": 1864,
    "\u25810xfeee0063": 1865,
    "\u25810x1211568": 1866,
    "\u25810xfeee0058": 1867,
    "e3": 1868,
    "\u25810xfeee0066": 1869,
    "\u25810xfeee0059": 1870,
    "\u25810xfeee0067": 1871,
    "setmenuinfo": 1872,
    "0000000": 1873,
    "\u25810x7690": 1874,
    "e40": 1875,
    "\u25810x42c4d8": 1876,
    "\u25810x43780": 1877,
    "servicec": 1878,
    "\u25810x77e0": 1879,
    "\u25810xfeee0068": 1880,
    "f04": 1881,
    "\u25810xfeee0064": 1882,
    "the": 1883,
    "\u25810xfeee0073": 1884,
    "disk": 1885,
    "firstfilew": 1886,
    "\u2581sleepcondition": 1887,
    "l1-2-1": 1888,
    "initializesecuritydescriptor": 1889,
    "\u25810x1211fc8": 1890,
    "mapviewoffile": 1891,
    "\u2581createfilea": 1892,
    "teeventw": 1893,
    "\u2581code": 1894,
    "\u25810x51": 1895,
    "\u25810xfeee0070": 1896,
    "\u25810x3c": 1897,
    "\u25810xfeee0075": 1898,
    "\u25810xfeee006c": 1899,
    "pal": 1900,
    "palet": 1901,
    "leex": 1902,
    "update": 1903,
    "\u25810x4169": 1904,
    "\u25810xfeee006a": 1905,
    "\u2581getmodulefilenamea": 1906,
    "\u2581regopenkey": 1907,
    "allc": 1908,
    "gear": 1909,
    "\u25810xfeee006f": 1910,
    "\u2581codegear": 1911,
    "pack": 1912,
    "\u25810x7d50": 1913,
    "\u25810xfeee006e": 1914,
    "\u25810xfeee0069": 1915,
    "ryp": 1916,
    "\u25810x436390": 1917,
    "wh": 1918,
    "\u25810x9c": 1919,
    "default": 1920,
    "getsystemdirectoryw": 1921,
    "52": 1922,
    "tryacquiresrwlockexclusive": 1923,
    "\u25810x1f4": 1924,
    "servicectrl": 1925,
    "erw": 1926,
    "help32": 1927,
    "snapsh": 1928,
    "oolhelp32": 1929,
    "oolhelp32snapsh": 1930,
    "oolhelp32snapshot": 1931,
    "\u25810x4c46d0": 1932,
    "9f": 1933,
    "varian": 1934,
    "ym": 1935,
    "pos": 1936,
    "main": 1937,
    "closekey": 1938,
    "2020": 1939,
    "failed": 1940,
    "ecomp": 1941,
    "heck": 1942,
    "\u25810x42d508": 1943,
    "110": 1944,
    "\u25810x437b": 1945,
    "data": 1946,
    "unlock": 1947,
    "crt": 1948,
    "leasedc": 1949,
    "\u2581shellex": 1950,
    "268": 1951,
    "\u25810x42c5": 1952,
    "2f": 1953,
    "package": 1954,
    "em": 1955,
    "d0a": 1956,
    "class": 1957,
    "atible": 1958,
    "\u2581po": 1959,
    "\u25810x1211ee0": 1960,
    "tecomp": 1961,
    "\u25810x1211bc0": 1962,
    "tecompatible": 1963,
    "\u25810x188": 1964,
    "696": 1965,
    "57": 1966,
    "vol": 1967,
    "\u2581varian": 1968,
    "\u25810x12118": 1969,
    "dinal": 1970,
    "ordinal": 1971,
    "\u25817z": 1972,
    "packageid": 1973,
    "\u25810x4305b0": 1974,
    "floating": 1975,
    "prec": 1976,
    "\u25810x40a5ce": 1977,
    "\u25810x40a5d0": 1978,
    "\u25810x40a5d2": 1979,
    "\u25810x40a5d4": 1980,
    "\u25810x40a5d6": 1981,
    "\u25810x40a5d8": 1982,
    "\u25810x40a5da": 1983,
    "poin": 1984,
    "\u25810xfeee0077": 1985,
    "\u2581createfilew": 1986,
    "\u25810xfeee0079": 1987,
    "\u2581start": 1988,
    "\u25810xfeee0078": 1989,
    "708": 1990,
    "\u25810xfeee0076": 1991,
    "\u2581kernel32._": 1992,
    "\u25810xfeee007a": 1993,
    "\u2581getlogicaldrive": 1994,
    "ec0": 1995,
    "ume": 1996,
    "\u25810x25": 1997,
    "320": 1998,
    "ns": 1999,
    "volume": 2000,
    "\u2581createcompatible": 2001,
    "keallc": 2002,
    "keallconditionvariable": 2003,
    "13": 2004,
    "leobject": 2005,
    "\u2581createthread": 2006,
    "\u2581getfilesize": 2007,
    "\u25810xfeee0081": 2008,
    "\u25810x12119ac": 2009,
    "tes": 2010,
    "\u25810x68": 2011,
    "\u2581getlocaleinfo": 2012,
    "\u25810x42d4d8": 2013,
    "\u2581comparestringex": 2014,
    "\u2581getlocaleinfoex": 2015,
    "\u25810xfde9": 2016,
    "\u25810xfeee009a": 2017,
    "status": 2018,
    "eration": 2019,
    "loating": 2020,
    "\u2581getmodulehandlew": 2021,
    "\u2581ht": 2022,
    "ec8": 2023,
    "\u2581regclosekey": 2024,
    "\u2581deletefilew": 2025,
    "ymbo": 2026,
    "92": 2027,
    "liclink": 2028,
    "ymboliclink": 2029,
    "ock32.": 2030,
    "\u2581wsock32.": 2031,
    "ymboliclinkw": 2032,
    "\u2581createsymboliclinkw": 2033,
    "588": 2034,
    "692": 2035,
    "temutexa": 2036,
    "\u25810x53000": 2037,
    "tack": 2038,
    "verflow": 2039,
    "\u2581floating": 2040,
    "lockresource": 2041,
    "ont": 2042,
    "source": 2043,
    "vate": 2044,
    "\u25810x434": 2045,
    "econditionvariable": 2046,
    "d80": 2047,
    "\u2581getmodulefilenamew": 2048,
    "ret": 2049,
    "strn": 2050,
    "lread": 2051,
    "strfrom": 2052,
    "\u2581regset": 2053,
    "append": 2054,
    "\u2581varbstrfrom": 2055,
    "ssoc": 2056,
    "meto": 2057,
    "ssoci": 2058,
    "\u25810x4239": 2059,
    "\u25810x21000": 2060,
    "\u25810x1211e14": 2061,
    "base": 2062,
    "\u25810x52": 2063,
    "appendw": 2064,
    "ofre": 2065,
    "ofresource": 2066,
    "\u2581process32next": 2067,
    "when": 2068,
    "\u2581end": 2069,
    "\u25810x8e": 2070,
    "ourceexw": 2071,
    "\u25810x1211f2c": 2072,
    "e66": 2073,
    "\u25810x4c32": 2074,
    "ast": 2075,
    "retur": 2076,
    "\u2581error": 2077,
    "\u25810x1f400": 2078,
    "event": 2079,
    "\u25810xfeee007b": 2080,
    "\u2581getstartu": 2081,
    "\u25810x3f34": 2082,
    "\u2581getcurrentpackageid": 2083,
    "\u2581getcommandlinew": 2084,
    "callbacks": 2085,
    "processwrite": 2086,
    "timercallbacks": 2087,
    "processornumber": 2088,
    "\u2581flushprocesswrite": 2089,
    "\u2581setthreadpoolwait": 2090,
    "\u2581waitforthreadpool": 2091,
    "\u2581createsemaphoreexw": 2092,
    "\u2581setthreadpooltimer": 2093,
    "\u2581closethreadpoolwait": 2094,
    "\u2581closethreadpooltimer": 2095,
    "\u2581createthreadpoolwait": 2096,
    "\u2581createthreadpooltimer": 2097,
    "\u2581flushprocesswritebuffers": 2098,
    "\u2581getcurrentprocessornumber": 2099,
    "\u2581waitforthreadpooltimercallbacks": 2100,
    "returns": 2101,
    "whencallback": 2102,
    "whencallbackreturns": 2103,
    "\u2581freelibrarywhencallbackreturns": 2104,
    "004": 2105,
    "\u2581getsystemtimeasfiletime": 2106,
    "getdc": 2107,
    "\u25810x1211fc4": 2108,
    "windowproc": 2109,
    "\u25810x42b": 2110,
    "releasedc": 2111,
    "uppor": 2112,
    "dup": 2113,
    "\u25810x79d0": 2114,
    "createfilea": 2115,
    "variablea": 2116,
    "args": 2117,
    "getmain": 2118,
    "getmainargs": 2119,
    "onnection": 2120,
    "39000": 2121,
    "2w": 2122,
    "ssociate": 2123,
    "\u25810x435390": 2124,
    "\u25810x121194c": 2125,
    "onnection2w": 2126,
    "\u25810x12117a4": 2127,
    "\u25810x98": 2128,
    "\u25810x121157c": 2129,
    "patha": 2130,
    "\u25810xfeee0089": 2131,
    "7f": 2132,
    "cy": 2133,
    "strncmp": 2134,
    "\u25810xfeee008a": 2135,
    "global": 2136,
    "b8000": 2137,
    "ourcew": 2138,
    "e6b": 2139,
    "\u25810xfeee007f": 2140,
    "ac6": 2141,
    "\u2581op": 2142,
    "messagebo": 2143,
    "\u25814": 2144,
    "\u25810x422": 2145,
    "dicon": 2146,
    "\u2581extracta": 2147,
    "ssociatedicon": 2148,
    "\u2581extractassociatedicon": 2149,
    "\u2581isprocessorfeaturepresent": 2150,
    "eekmessagea": 2151,
    "86": 2152,
    "ac000": 2153,
    "\u25810xfeee010": 2154,
    "nal": 2155,
    "\u2581getfileattributesw": 2156,
    "\u25810x1211dcc": 2157,
    "sti": 2158,
    "updateresourcea": 2159,
    "ong": 2160,
    "host": 2161,
    "trol": 2162,
    "singleobject": 2163,
    "\u2581font": 2164,
    "findresourceexw": 2165,
    "\u2581hg": 2166,
    "\u2581hgdraw": 2167,
    "pathappendw": 2168,
    "\u25810x460": 2169,
    "7b": 2170,
    "688": 2171,
    "onexw": 2172,
    "ok": 2173,
    "\u2581mon": 2174,
    "stitu": 2175,
    "stitutes": 2176,
    "\u2581fontsub": 2177,
    "\u2581fontsubstitutes": 2178,
    "private": 2179,
    "3c000": 2180,
    "privateprofile": 2181,
    "\u2581getprocaddress": 2182,
    "\u2581destroy": 2183,
    "\u25810xfeee0080": 2184,
    "3b": 2185,
    "ad000": 2186,
    "gettempfilenamew": 2187,
    "utput": 2188,
    "de0": 2189,
    "54000": 2190,
    "\u25810x101": 2191,
    "\u25810x7b40": 2192,
    "errormode": 2193,
    "\u25810xfeee007d": 2194,
    "\u25810x3f75": 2195,
    "69000": 2196,
    "\u25810x1211f00": 2197,
    "\u2581getdate": 2198,
    "a5000": 2199,
    "6d": 2200,
    "suppor": 2201,
    "lect": 2202,
    "filetimeto": 2203,
    "\u25810x2f": 2204,
    "380": 2205,
    "24000": 2206,
    "\u25810x33": 2207,
    "\u25810x3e": 2208,
    "\u25810x1211fd4": 2209,
    "tered": 2210,
    "cpyn": 2211,
    "lstrcpyn": 2212,
    "\u2581findclose": 2213,
    "b4000": 2214,
    "bc000": 2215,
    "\u2581regsetvalueexw": 2216,
    "28000": 2217,
    "32000": 2218,
    "text": 2219,
    "be000": 2220,
    "7c000": 2221,
    "\u25810x4371": 2222,
    "5c000": 2223,
    "\u25810x42e": 2224,
    "mapviewofsection": 2225,
    "\u25810xc00": 2226,
    "icode": 2227,
    "\u25810x44f9": 2228,
    "\u25810x59": 2229,
    "\u25810x7f0": 2230,
    "2c000": 2231,
    "26000": 2232,
    "58000": 2233,
    "770": 2234,
    "ontrol": 2235,
    "\u2581setwindow": 2236,
    "94000": 2237,
    "\u25810xfeee0082": 2238,
    "34000": 2239,
    "ab000": 2240,
    "c2": 2241,
    "\u2581post": 2242,
    "48000": 2243,
    "a8000": 2244,
    "securityinfo": 2245,
    "\u25810x4feba8": 2246,
    "7a": 2247,
    "38000": 2248,
    "\u25810x7090": 2249,
    "era": 2250,
    "tunicode": 2251,
    "69)": 2252,
    "56000": 2253,
    "74000": 2254,
    "(0": 2255,
    "a4000": 2256,
    "c4000": 2257,
    "208": 2258,
    "9c000": 2259,
    "\u2581findnext": 2260,
    "98000": 2261,
    "loadlibraryw": 2262,
    "78000": 2263,
    "initunicode": 2264,
    "initunicodestring": 2265,
    "c5": 2266,
    "68000": 2267,
    "\u25810x120e": 2268,
    "ntopen": 2269,
    "ntopensection": 2270,
    "378": 2271,
    "\u25810x4100": 2272,
    "\u25810x8230": 2273,
    "\u25810x1211e2c": 2274,
    "endof": 2275,
    "\u25812": 2276,
    "(0d0a": 2277,
    "692e66": 2278,
    "696e6b": 2279,
    "692e6669)": 2280,
    "\u25810x1210f35(": 2281,
    "696e6b692e6669)": 2282,
    "\u2581setup": 2283,
    "\u25810x29": 2284,
    "altered": 2285,
    "f4000": 2286,
    "\u25810xfeee0084": 2287,
    "\u25810x96": 2288,
    "nextw": 2289,
    "setdefaultdlldirectories": 2290,
    "down": 2291,
    "tec": 2292,
    "\u25810x169bf": 2293,
    "\u25810x7ae0": 2294,
    "\u25810x438": 2295,
    "defwindowproc": 2296,
    "\u2581device": 2297,
    "\u25810x46b0": 2298,
    "\u2581getcurrentdirectoryw": 2299,
    "\u25818": 2300,
    "\u25810xfeee0095": 2301,
    "spac": 2302,
    "endoffile": 2303,
    "188": 2304,
    "\u25810xfeee0087": 2305,
    "\u25810xfeee008e": 2306,
    "\u25810x5a": 2307,
    "\u25810xfeee0088": 2308,
    "\u25810x1211d04": 2309,
    "6e": 2310,
    "\u2581golfset": 2311,
    "\u25810xfeee0083": 2312,
    "\u25810xfeee008c": 2313,
    "bitmap": 2314,
    "\u25810x7300": 2315,
    "\u25810xfeee0085": 2316,
    "\u25810x7390": 2317,
    "\u25810xfeee0086": 2318,
    "338": 2319,
    "5e": 2320,
    "tethread": 2321,
    "2b": 2322,
    "\u25810x1211a04": 2323,
    "ange": 2324,
    "2_": 2325,
    "\u2581the": 2326,
    "\u25810x1211c04": 2327,
    "\u2581registry": 2328,
    "\u2581windowsnt": 2329,
    "\u2581trans": 2330,
    "\u25810x7900": 2331,
    "volumeinformation": 2332,
    "\u25810xfeee008d": 2333,
    "\u2581globalalloc": 2334,
    "long": 2335,
    "\u25810x7b80": 2336,
    "\u25810x8920": 2337,
    "e6c": 2338,
    "2030": 2339,
    "cpy": 2340,
    "\u2581globalfree": 2341,
    "\u2581registerclass": 2342,
    "\u25810x4967": 2343,
    "\u2581getuserdefault": 2344,
    "\u2581un": 2345,
    "\u25810x66": 2346,
    "\u25810xb8": 2347,
    "\u2581waitforsingleobject": 2348,
    "\u25810x7db0": 2349,
    "ab8": 2350,
    "\u25810x78d0": 2351,
    "lphi": 2352,
    "\u2581delphi": 2353,
    "\u25810x437880": 2354,
    "408": 2355,
    "\u25810x1d": 2356,
    "\u25810x569b00": 2357,
    "\u2581setfileattributesw": 2358,
    "\u25810xa9": 2359,
    "\u25810x6d": 2360,
    "owwindow": 2361,
    "\u25810x7270": 2362,
    "rand": 2363,
    "\u25810x7060": 2364,
    "fer": 2365,
    "quit": 2366,
    "\u25810x571": 2367,
    "\u25810x85": 2368,
    "uter": 2369,
    "computer": 2370,
    "tof": 2371,
    "\u2581.": 2372,
    "\u25810xfeee008f": 2373,
    "\u25810x71b0": 2374,
    "\u25810xfeee0090": 2375,
    "\u25810x75d0": 2376,
    "\u25810x1211dd4": 2377,
    "ysical": 2378,
    "\u25810x39": 2379,
    "\u25810x42b9": 2380,
    "\u25810x7870": 2381,
    "wc": 2382,
    "hysical": 2383,
    "oct": 2384,
    "eexception": 2385,
    "68c": 2386,
    "\u25810x1211efc": 2387,
    "rais": 2388,
    "raiseexception": 2389,
    "\u2581win": 2390,
    "\u2581physical": 2391,
    "ene": 2392,
    "\u25810x7030": 2393,
    "\u25810x7d95": 2394,
    "peekmessagea": 2395,
    "\u25810x7d94": 2396,
    "ust": 2397,
    "\u25810x416b": 2398,
    "erator": 2399,
    "\u25810x94c0": 2400,
    "\u25810xfeee0092": 2401,
    "\u25810x9a": 2402,
    "refer": 2403,
    "\u25810x42dac6": 2404,
    "register": 2405,
    "ray": 2406,
    "am": 2407,
    "\u2581ws2_": 2408,
    "118": 2409,
    "\u2581ws2_32.": 2410,
    "\u25810x7b10": 2411,
    "f30": 2412,
    "53": 2413,
    "\u25810x71e0": 2414,
    "\u25810x79c0": 2415,
    "\u2581system": 2416,
    "\u2581globalunlock": 2417,
    "\u2581globallock": 2418,
    "\u2581res": 2419,
    "\u25810xfeee0094": 2420,
    "b9c": 2421,
    "privi": 2422,
    "\u25810x7210": 2423,
    "\u25810x74e0": 2424,
    "\u25810x7240": 2425,
    "\u25810x72d0": 2426,
    "\u25810x7750": 2427,
    "\u25810x7a50": 2428,
    "\u25810xfeee0091": 2429,
    "\u25811": 2430,
    "localtime": 2431,
    "\u25810x70c0": 2432,
    "xt": 2433,
    "\u25810x7120": 2434,
    "\u25810x7180": 2435,
    "privile": 2436,
    "\u25810x8090": 2437,
    "\u25810x7600": 2438,
    "\u25810x7cf0": 2439,
    "\u25810x70f0": 2440,
    "\u25810x7480": 2441,
    "\u25810x7330": 2442,
    "updatewindow": 2443,
    "\u2581wakeallconditionvariable": 2444,
    "\u25810xfeee0093": 2445,
    "runtime": 2446,
    "\u25810x75a0": 2447,
    "\u25810x7360": 2448,
    "\u25810xe0": 2449,
    "\u25810x7570": 2450,
    "\u25810x7660": 2451,
    "\u25810x7720": 2452,
    "\u25810x73c0": 2453,
    "\u25810x7a20": 2454,
    "\u25810x7ba0": 2455,
    "\u25810x7450": 2456,
    "\u25810x7840": 2457,
    "\u25810x76f0": 2458,
    "messageboxa": 2459,
    "\u25810x74b0": 2460,
    "\u25810x76c0": 2461,
    "\u25810x7420": 2462,
    "\u25810x7510": 2463,
    "\u25810xfeee0098": 2464,
    "ou": 2465,
    "privilege": 2466,
    "\u25810x77b0": 2467,
    "\u25810xfeee0097": 2468,
    "\u25810xfeee0096": 2469,
    "\u25810xfeee0099": 2470,
    "\u25810x7630": 2471,
    "\u25810x86": 2472,
    "\u2581loadicon": 2473,
    "\u25810x1211fac": 2474,
    "\u25810x7960": 2475,
    "prog": 2476,
    "\u25810x7780": 2477,
    "\u25810x1211f28": 2478,
    "\u25810x7b70": 2479,
    "\u25810x36": 2480,
    "\u2581loadcursor": 2481,
    "lecs": 2482,
    "variablecs": 2483,
    "\u2581sleepconditionvariablecs": 2484,
    "stringsa": 2485,
    "56c": 2486,
    "\u2581defwindowproc": 2487,
    "\u25810x78f0": 2488,
    "\u25810x9030": 2489,
    "\u25810x121193c": 2490,
    "\u25810x7be0": 2491,
    "\u25810xa429": 2492,
    "e44": 2493,
    "diskfree": 2494,
    "allocate": 2495,
    "globalalloc": 2496,
    "\u25810xfeee009b": 2497,
    "\u25810xfeee009c": 2498,
    "ram": 2499,
    "\u2581local": 2500,
    "redu": 2501,
    "referredu": 2502,
    "referreduilanguage": 2503,
    "txt": 2504,
    "threadp": 2505,
    "threadpreferreduilanguage": 2506,
    "\u25810x419c": 2507,
    "threadpreferreduilanguages": 2508,
    "quitmessage": 2509,
    "\u25810x42a9": 2510,
    "\u2581postquitmessage": 2511,
    "ager": 2512,
    "ethread": 2513,
    "sid": 2514,
    "bits": 2515,
    "\u2581endpaint": 2516,
    "\u2581beginpaint": 2517,
    "\u2581no": 2518,
    "\u2581x": 2519,
    "\u25810x3f2000": 2520,
    "\u2581createdirectoryw": 2521,
    "62": 2522,
    "all": 2523,
    "keyboard": 2524,
    "\u2581setthread": 2525,
    "\u2581com": 2526,
    "ay": 2527,
    "change": 2528,
    "\u2581en": 2529,
    "ted": 2530,
    "handleex": 2531,
    "\u2581dispatch": 2532,
    "\u2581isvalid": 2533,
    "\u25810x420c": 2534,
    "\u2581deletefilea": 2535,
    "if": 2536,
    "\u25810x48f8": 2537,
    "\u25810x42a": 2538,
    "enums": 2539,
    "\u2581enums": 2540,
    "388": 2541,
    "\u25810x44f8e0": 2542,
    "rypt": 2543,
    "environmentvariablew": 2544,
    "recv": 2545,
    "\u25810x410090": 2546,
    "\u2581getversi": 2547,
    "ca": 2548,
    "hlp": 2549,
    "\u2581getcommandlinea": 2550,
    "\u25810x42a9a0": 2551,
    "\u25810x1211508": 2552,
    "ateprocess": 2553,
    "\u2581enumsystem": 2554,
    "diskfreespac": 2555,
    "\u2581transla": 2556,
    "\u25810x95": 2557,
    "debugger": 2558,
    "\u25810x410090(": 2559,
    "\u2581translatem": 2560,
    "63": 2561,
    "e00": 2562,
    "debuggerpresent": 2563,
    "ug": 2564,
    "\u25810x7bf0": 2565,
    "\u25810x7b90": 2566,
    "\u25810x41b": 2567,
    "tou": 2568,
    "\u25810x1211cdc": 2569,
    "malloc": 2570,
    "\u2581createtoolhelp32snapshot": 2571,
    "\u25810xa3a7": 2572,
    "5b": 2573,
    "textou": 2574,
    "\u2581getwindow": 2575,
    "hlpapi": 2576,
    "regopenkeyexa": 2577,
    "\u25810x1211928": 2578,
    "servicehandle": 2579,
    "_10": 2580,
    "manager": 2581,
    "f0(0d0a": 2582,
    "wsprintfa": 2583,
    "\u25810x412": 2584,
    "array": 2585,
    "\u2581getconsole": 2586,
    "fileattributesa": 2587,
    "\u2581heapalloc": 2588,
    "createwindowexa": 2589,
    "\u25810x6c": 2590,
    "\u2581exit": 2591,
    "980": 2592,
    "\u25810x1211f04": 2593,
    "\u25810x655": 2594,
    "2022030": 2595,
    "_2022030": 2596,
    "contr": 2597,
    "\u25810x404": 2598,
    "\u25810x80000000": 2599,
    "\u25810x12117f8": 2600,
    "teen": 2601,
    "\u25810x47c0": 2602,
    "a58": 2603,
    "\u2581setevent": 2604,
    "essage": 2605,
    "\u2581enumsystemlocales": 2606,
    "umethread": 2607,
    "\u2581translatemessage": 2608,
    "pe": 2609,
    "\u2581resumethread": 2610,
    "forma": 2611,
    "\u25810x1211578": 2612,
    "\u25810x52660": 2613,
    "ed8": 2614,
    "writec": 2615,
    "erra": 2616,
    "errata": 2617,
    "precision": 2618,
    "\u2581openprocess": 2619,
    "folderpathw": 2620,
    "002": 2621,
    "\u2581writec": 2622,
    "\u25810x65500000": 2623,
    "\u25810x41b9": 2624,
    "\u25810x1211308": 2625,
    "\u2581multibytetowidechar": 2626,
    "\u2581heapfree": 2627,
    "\u25810x41bc20": 2628,
    "\u2581getuserdefaultlocalename": 2629,
    "drl6660drl6660": 2630,
    "typ": 2631,
    "\u2581getdateformatex": 2632,
    "\u2581gettimeformatex": 2633,
    "\u2581isvalidlocalename": 2634,
    "\u2581enumsystemlocalesex": 2635,
    "bat": 2636,
    "\u25810x6b": 2637,
    "\u25810xa1": 2638,
    "\u2581findfirstfilew": 2639,
    "3c0": 2640,
    "\u2581sep": 2641,
    "item": 2642,
    "\u25810x424": 2643,
    "680": 2644,
    "ull": 2645,
    "round": 2646,
    "getsysteminfo": 2647,
    "\u2581jan": 2648,
    "\u25810x3bc": 2649,
    "seterrormode": 2650,
    "\u25810x10000": 2651,
    "\u2581dec": 2652,
    "\u2581jul": 2653,
    "\u25810xd000": 2654,
    "9a": 2655,
    "alog": 2656,
    "\u25810x4fec": 2657,
    "\u2581apr": 2658,
    "\u2581aug": 2659,
    "\u2581widechartomultibyte": 2660,
    "\u25810x1211f4c": 2661,
    "008": 2662,
    "\u25810x1211f34": 2663,
    "\u2581exitthread": 2664,
    "\u2581getprocessheap": 2665,
    "paletteen": 2666,
    "paletteentries": 2667,
    "\u2581msvcr": 2668,
    "\u25810x7cd0": 2669,
    "5f": 2670,
    "\u2581sun": 2671,
    "program": 2672,
    "unwin": 2673,
    "scmanager": 2674,
    "\u2581may": 2675,
    "uary": 2676,
    "msg": 2677,
    "unwind": 2678,
    "\u25810x42a40": 2679,
    "sday": 2680,
    "\u2581tue": 2681,
    "\u2581wed": 2682,
    "texta": 2683,
    "\u25810x2d": 2684,
    "\u2581fri": 2685,
    "cb": 2686,
    "\u25810x169b9": 2687,
    "\u2581olea": 2688,
    "\u25810x31": 2689,
    "getuser": 2690,
    "texw": 2691,
    "atethread": 2692,
    "f8000": 2693,
    "be8": 2694,
    "\u2581findnextfilew": 2695,
    "hod": 2696,
    "fe8": 2697,
    "initializeconditionvariable": 2698,
    "\u2581getdiskfreespac": 2699,
    "foreg": 2700,
    "foreground": 2701,
    "foregroundwindow": 2702,
    "\u25810x42b9a0": 2703,
    "\u2581createprocessa": 2704,
    "ac0": 2705,
    "utputdebug": 2706,
    "\u2581terminatethread": 2707,
    "93": 2708,
    "supported": 2709,
    "\u2581copyfilew": 2710,
    "\u25810x42e0": 2711,
    "division": 2712,
    "nexec": 2713,
    "\u25810x408": 2714,
    "\u25810x7df0": 2715,
    "\u2581localalloc": 2716,
    "state": 2717,
    "cc8": 2718,
    "adwork": 2719,
    "\u25810x7ee0": 2720,
    "\u25810xa8": 2721,
    "\u2581getstdhandle": 2722,
    "\u2581createdirectorya": 2723,
    "process32nextw": 2724,
    "\u2581entercriticalsection": 2725,
    "\u25810x27": 2726,
    "overflow": 2727,
    "typec": 2728,
    "\u2581floatingpoin": 2729,
    "\u2581invalidvarian": 2730,
    "toperation": 2731,
    "\u25810x4340": 2732,
    "\u2581leavecriticalsection": 2733,
    "byzero": 2734,
    "divisionbyzero": 2735,
    "\u25810x5265c28": 2736,
    "full": 2737,
    "processorinformation": 2738,
    "\u2581deletecriticalsection": 2739,
    "deletefilew": 2740,
    "mapp": 2741,
    "\u2581getlogicalprocessorinformation": 2742,
    "114": 2743,
    "guar": 2744,
    "stack": 2745,
    "8!@": 2746,
    "mapping": 2747,
    "filemapping": 2748,
    "antee": 2749,
    "guarantee": 2750,
    "stackguarantee": 2751,
    "\u2581varr": 2752,
    "4fromstr": 2753,
    "\u2581createprocessw": 2754,
    "fearray": 2755,
    "getsystempaletteentries": 2756,
    "\u2581setthreadstackguarantee": 2757,
    "9b": 2758,
    "\u2581getcurrentprocessid": 2759,
    "\u25810x409340": 2760,
    "\u25810x40933d": 2761,
    "\u25810x40933e": 2762,
    "\u25810x40933f": 2763,
    "\u25810x409341": 2764,
    "\u25810x409342": 2765,
    "\u25810x409343": 2766,
    "\u2581isdebuggerpresent": 2767,
    "\u2581check": 2768,
    "\u2581openscmanager": 2769,
    "e4000": 2770,
    "d50": 2771,
    "\u25810x67000000": 2772,
    "ccc": 2773,
    "\u2581getcpinfo": 2774,
    "\u25810x3f3000": 2775,
    "ty": 2776,
    "\u2581getacp": 2777,
    "ance": 2778,
    "\u25810x5265d": 2779,
    "\u25810x1211ef0": 2780,
    "\u2581closeservicehandle": 2781,
    "\u25810x37": 2782,
    "dows": 2783,
    "\u25810x41f3": 2784,
    "\u25810x3f34c0": 2785,
    "enthread": 2786,
    "\u25810x1211f88": 2787,
    "\u25810x527": 2788,
    "\u2581terminateprocess": 2789,
    "\u2581tlsgetvalue": 2790,
    "\u2581openscmanagerw": 2791,
    "\u2581tlssetvalue": 2792,
    "\u2581getfileinformationby": 2793,
    "\u2581unhandledexceptionfilter": 2794,
    "\u2581register": 2795,
    "torsa": 2796,
    "torsafearray": 2797,
    "\u2581getenvironmentvariablea": 2798,
    "b04": 2799,
    "\u25810x52662": 2800,
    "\u2581rtlunwind": 2801,
    "createeventw": 2802,
    "\u2581setlasterror": 2803,
    "\u2581openthread": 2804,
    "\u25810x3d": 2805,
    "\u25810x42d8c6": 2806,
    "globallock": 2807,
    "\u25810x107568": 2808,
    "\u2581getenvironmentvariablew": 2809,
    "\u25810x4c42d8": 2810,
    "\u25810x4c42f0": 2811,
    "\u2581d": 2812,
    "no": 2813,
    "\u25810x7af0": 2814,
    "\u25810x2b": 2815,
    "\u2581getfiletype": 2816,
    "\u2581getusernamew": 2817,
    "\u2581dispatchmessagea": 2818,
    "\u25810x8f20": 2819,
    "image": 2820,
    "\u25810x43b390": 2821,
    "driv": 2822,
    "\u2581initializesecuritydescriptor": 2823,
    "f40": 2824,
    "\u2581setsecuritydescriptordacl": 2825,
    "\u2581heaprealloc": 2826,
    "emcp": 2827,
    "\u25810x8a80": 2828,
    "filemappinga": 2829,
    "bk": 2830,
    "\u25810x40a9": 2831,
    "ce8": 2832,
    "\u2581interlockedincrement": 2833,
    "\u25810x35": 2834,
    "\u2581interlockeddecrement": 2835,
    "\u2581getmessagea": 2836,
    "fileinformationby": 2837,
    "328": 2838,
    "terect": 2839,
    "bl": 2840,
    "\u25810x1211f3c": 2841,
    "\u25810x60000": 2842,
    "\u2581getfileinformationbyhandleex": 2843,
    "\u2581select": 2844,
    "\u2581raiseexception": 2845,
    "find": 2846,
    "\u2581setunhandledexceptionfilter": 2847,
    "\u2581tlsalloc": 2848,
    "keys": 2849,
    "\u25810x42a0": 2850,
    "@!": 2851,
    "\u25810x4208": 2852,
    "\u25810x433648": 2853,
    "\u25810x1211bfc": 2854,
    "\u2581getstringtypew": 2855,
    "\u2581gettickcount64": 2856,
    "5a": 2857,
    "edu": 2858,
    "filebuffers": 2859,
    "edure": 2860,
    "\u2581getoemcp": 2861,
    "e08": 2862,
    "\u2581createeventexw": 2863,
    "\u2581setfileinformationby": 2864,
    "\u2581regquery": 2865,
    "\u2581flushfilebuffers": 2866,
    "\u25810x8814": 2867,
    "\u25810x7d98": 2868,
    "c9": 2869,
    "\u25810x7d99": 2870,
    "\u25810x26": 2871,
    "\u25810x4620": 2872,
    "exedows": 2873,
    "registerwindow": 2874,
    "\u2581lcmapstringw": 2875,
    "\u25810x1211cfc": 2876,
    "\u2581san": 2877,
    "\u25810x1211768": 2878,
    "fdr": 2879,
    "\u2581sanfdr": 2880,
    "\u2581release": 2881,
    "getsystemdirectorya": 2882,
    "shget": 2883,
    "\u25810x1211dc8": 2884,
    "saf": 2885,
    "\u25810x120e6d4": 2886,
    "onl": 2887,
    "\u25810x9020": 2888,
    "blt": 2889,
    "\u2581heapcreate": 2890,
    "e04": 2891,
    "\u25810x8280": 2892,
    "\u2581getenvironmentstringsw": 2893,
    "178": 2894,
    "\u2581freeenvironmentstringsw": 2895,
    "\u25810x7de4": 2896,
    "\u25810x7da0": 2897,
    "keystate": 2898,
    "\u2581setfileattributesa": 2899,
    "\u25810x7de5": 2900,
    "muldiv": 2901,
    "\u25810x8815": 2902,
    "lid": 2903,
    "\u25810x80c4": 2904,
    "\u25810x7d9c": 2905,
    "\u2581program": 2906,
    "deletecriticalsection": 2907,
    "\u25810x7d9d": 2908,
    "\u25810x120e6d0": 2909,
    "utex": 2910,
    "\u25810x40a": 2911,
    "726": 2912,
    "d08": 2913,
    "\u25810x42ce": 2914,
    "\u25810x7da1": 2915,
    "aterect": 2916,
    "\u2581getsystemmetrics": 2917,
    "bkcolor": 2918,
    "stdhandle": 2919,
    "\u25810x12117e8": 2920,
    "_16463": 2921,
    "140": 2922,
    "\u25810x12117fc": 2923,
    "ontin": 2924,
    "cel": 2925,
    "\u2581setstdhandle": 2926,
    "\u25810x7db4": 2927,
    "\u2581shellexecute": 2928,
    "\u25810x8a60": 2929,
    "\u25810x7da4": 2930,
    "\u25810x4800": 2931,
    "\u25810x410770": 2932,
    "\u25810x7db5": 2933,
    "artup": 2934,
    "ioc": 2935,
    "a18": 2936,
    "destroy": 2937,
    "cept": 2938,
    "\u2581initializecriticalsectionandspincount": 2939,
    "400": 2940,
    "\u25810x1211fdc": 2941,
    "setinformation": 2942,
    "\u2581getdc": 2943,
    "\u25810x7da5": 2944,
    "\u25810x43b8": 2945,
    "lecto": 2946,
    "\u2581copyfilea": 2947,
    "do": 2948,
    "uld": 2949,
    "\u25810x4330": 2950,
    "lectobject": 2951,
    "b08": 2952,
    "\u25810x1211e08": 2953,
    "\u25810x423e": 2954,
    "\u25810x527ed8": 2955,
    "bc8": 2956,
    "\u25810x7da8": 2957,
    "\u25810x5b": 2958,
    "\u25810x1211f48": 2959,
    "\u25810x45fc": 2960,
    "46": 2961,
    "\u25810x7e74": 2962,
    "\u2581regopenkeyexa": 2963,
    "\u25810x42c0": 2964,
    "e68": 2965,
    "\u25810x7e75": 2966,
    "\u2581wi": 2967,
    "\u25810x7e78": 2968,
    "dialog": 2969,
    "3f8": 2970,
    "\u25810x7da9": 2971,
    "\u25810x7e79": 2972,
    "\u25810x42d5": 2973,
    "\u25810x7e7c": 2974,
    "\u2581settext": 2975,
    "\u25810x7e7d": 2976,
    "verif": 2977,
    "files": 2978,
    "getvolumeinformation": 2979,
    "\u25810x1211e40": 2980,
    "loadresource": 2981,
    "\u25810x55": 2982,
    "\u25810xa7": 2983,
    "\u2581virtualprotect": 2984,
    "ut32.": 2985,
    "\u2581oleaut32.": 2986,
    "\u25810x7e80": 2987,
    "\u2581setwindowpos": 2988,
    "\u2581deleteobject": 2989,
    "\u25810x5f": 2990,
    "\u25810x8cf0": 2991,
    "\u2581getforegroundwindow": 2992,
    "c7": 2993,
    "\u2581selectobject": 2994,
    "numberis": 2995,
    "\u2581ac": 2996,
    "findresourcew": 2997,
    "\u2581crypt": 2998,
    "\u2581deletedc": 2999,
    "\u2581getkeystate": 3000,
    "\u25810x40a2": 3001,
    "\u2581sethandlecount": 3002,
    "registerclassa": 3003,
    "\u25810x2d4": 3004,
    "\u25810x6f": 3005,
    "eci": 3006,
    "\u25810x7dac": 3007,
    "656c": 3008,
    "\u25810x57": 3009,
    "teeventa": 3010,
    "createeventa": 3011,
    "\u25810x7dad": 3012,
    "\u25810x4428": 3013,
    "\u25810x7e81": 3014,
    "uldnot": 3015,
    "\u25810x7e84": 3016,
    "\u25810x7e85": 3017,
    "getsyscolorbrush": 3018,
    "\u2581queryperformancecounter": 3019,
    "sizeofresource": 3020,
    "\u25810x8d80": 3021,
    "l1-1-0.": 3022,
    "topen": 3023,
    "verify": 3024,
    "\u25810x61": 3025,
    "verifyversion": 3026,
    "\u2581settextcolor": 3027,
    "internal": 3028,
    "servicectrlhandl": 3029,
    "bjec": 3030,
    "\u25810x42fc": 3031,
    "\u25810x8410": 3032,
    "\u2581tlsfree": 3033,
    "\u25810x4255": 3034,
    "valuew": 3035,
    "\u25810x7db1": 3036,
    "\u2581setbkcolor": 3037,
    "errornumberis": 3038,
    "\u2581programinternal": 3039,
    "\u2581programinternalerrornumberis": 3040,
    "mutex": 3041,
    "\u25810x4340c8": 3042,
    "\u25810xa2": 3043,
    "\u2581textou": 3044,
    "\u25810x3f3": 3045,
    "heapsetinformation": 3046,
    "accel": 3047,
    "\u25810x8330": 3048,
    "6a": 3049,
    "10c": 3050,
    "getlocaltime": 3051,
    "368": 3052,
    "42": 3053,
    "\u2581comct": 3054,
    "verifyversioninfow": 3055,
    "\u25810x120e69": 3056,
    "initializeex": 3057,
    "\u25810x3f31": 3058,
    "\u2581setendoffile": 3059,
    "\u2581createeventa": 3060,
    "\u2581process32first": 3061,
    "\u2581showwindow": 3062,
    "dlg": 3063,
    "\u2581tr": 3064,
    "\u25810x8340": 3065,
    "pi": 3066,
    "locate": 3067,
    "socket": 3068,
    "\u25810xfeee011": 3069,
    "\u2581init": 3070,
    "\u25810x4bc": 3071,
    "dexchange": 3072,
    "interlockedexchange": 3073,
    "astartup": 3074,
    "fill": 3075,
    "\u25810x40b3": 3076,
    "belocate": 3077,
    "\u25810x42c588": 3078,
    "\u25810x4e5": 3079,
    "\u25810x1e5": 3080,
    "\u25810xa5": 3081,
    "servicectrldispatch": 3082,
    "\u25810x5265e": 3083,
    "\u25810x3e6c": 3084,
    "\u25810x41db": 3085,
    "pend": 3086,
    "776": 3087,
    "\u25810x9b": 3088,
    "\u2581winexec": 3089,
    "servicestatus": 3090,
    "\u25810x52661": 3091,
    "\u2581getlogicaldrivestringsa": 3092,
    "\u2581comctl32.": 3093,
    "\u25810x571b00": 3094,
    "\u25810x7db9": 3095,
    "\u25810x7db8": 3096,
    "\u25810x40e": 3097,
    "registerwindowmessagew": 3098,
    "\u25810x4710": 3099,
    "a0000": 3100,
    "longa": 3101,
    "dinthe": 3102,
    "uldnotbelocate": 3103,
    "uldnotbelocatedinthe": 3104,
    "\u25810x20000": 3105,
    "ow64": 3106,
    "\u2581updatewindow": 3107,
    "ec2": 3108,
    "\u25810x6a6": 3109,
    "\u25810x1211ec8": 3110,
    "\u25810x7dbc": 3111,
    "\u25813": 3112,
    "windowa": 3113,
    "onsolew": 3114,
    "\u25810x7dbd": 3115,
    "\u2581bit": 3116,
    "firstw": 3117,
    "\u25810x1210d": 3118,
    "\u25810x431f": 3119,
    "\u2581registerservicectrlhandl": 3120,
    "900": 3121,
    "\u25810x40a5dc": 3122,
    "\u25810x40a5cc": 3123,
    "fac": 3124,
    "\u25810x3a": 3125,
    "dibits": 3126,
    "\u2581mapviewoffile": 3127,
    "querys": 3128,
    "\u25810x4298": 3129,
    "\u25810x8d10": 3130,
    "getenvironmentvariablew": 3131,
    "\u2581createcompatibledc": 3132,
    "\u25810xfeee012": 3133,
    "\u2581bitblt": 3134,
    "\u25810x4169c0": 3135,
    "\u25810x4169c1": 3136,
    "\u2581loadicona": 3137,
    "\u2581heapsize": 3138,
    "\u25810x3f30b0": 3139,
    "accelerator": 3140,
    "coinitializeex": 3141,
    "initializesid": 3142,
    "\u25810x3f30e0": 3143,
    "d73": 3144,
    "\u25810x52000": 3145,
    "\u25810x3f3030": 3146,
    "\u25810x3f3110": 3147,
    "\u25810x1211ccc": 3148,
    "\u25810x3f3140": 3149,
    "allocateand": 3150,
    "allocateandinitializesid": 3151,
    "\u2581findres": 3152,
    "\u25810x432": 3153,
    "\u2581sendmessagea": 3154,
    "\u25810x3b": 3155,
    "\u25810x4015": 3156,
    "\u2581releasemutex": 3157,
    "\u2581unmapviewoffile": 3158,
    "\u2581createmutexa": 3159,
    "\u2581remove": 3160,
    "\u2581fill": 3161,
    "\u25810x41d8": 3162,
    "\u2581to": 3163,
    "\u2581mpr": 3164,
    "\u2581invalidaterect": 3165,
    "\u2581destroyicon": 3166,
    "\u25810x480": 3167,
    "\u2581getkeyboard": 3168,
    "\u2581createcompatiblebitmap": 3169,
    "398": 3170,
    "\u2581createwindowexa": 3171,
    "\u25810x9230": 3172,
    "\u2581defwindowproca": 3173,
    "a44": 3174,
    "\u2581getobjec": 3175,
    "\u25810x46a0": 3176,
    "fontin": 3177,
    "fontindirec": 3178,
    "\u2581filetimeto": 3179,
    "\u2581createfilemappinga": 3180,
    "f08": 3181,
    "dib": 3182,
    "procedure": 3183,
    "\u2581theprocedure": 3184,
    "\u2581getprivateprofile": 3185,
    "\u2581settimer": 3186,
    "\u25810x51000": 3187,
    "988": 3188,
    "olid": 3189,
    "\u2581getdibits": 3190,
    "bar": 3191,
    "\u25810x4c32c0": 3192,
    "\u2581fillrect": 3193,
    "\u25810x9d": 3194,
    "\u2581openservicew": 3195,
    "\u25810x41de80": 3196,
    "\u2581createfontindirec": 3197,
    "ad4": 3198,
    "servicectrldispatcherw": 3199,
    "350": 3200,
    "\u25810x2ac": 3201,
    "uspend": 3202,
    "olidbrush": 3203,
    "\u2581startservicew": 3204,
    "\u2581loadcursora": 3205,
    "\u2581createservicew": 3206,
    "uspendthread": 3207,
    "6.": 3208,
    "\u2581allocateandinitializesid": 3209,
    "7c3": 3210,
    "\u2581suspendthread": 3211,
    "\u2581getsystemdirectoryw": 3212,
    "\u2581setservicestatus": 3213,
    "ee8": 3214,
    "\u2581getkeyboardstate": 3215,
    "iconinfo": 3216,
    "\u2581geticoninfo": 3217,
    "\u2581startservicectrldispatcherw": 3218,
    "41": 3219,
    "\u2581setclass": 3220,
    "\u2581setclipboard": 3221,
    "\u25810x7dc0": 3222,
    "olec": 3223,
    "a08": 3224,
    "onsolec": 3225,
    "\u2581createsolidbrush": 3226,
    "\u2581registerclassexa": 3227,
    "dec8": 3228,
    "_680": 3229,
    "\u25810x4094": 3230,
    "\u25810x41678": 3231,
    "\u25810xf0": 3232,
    "\u25810x9240": 3233,
    "\u2581initializeconditionvariable": 3234,
    "wow64": 3235,
    "\u2581drawicon": 3236,
    "\u25810x1211c14": 3237,
    "\u2581getusernamea": 3238,
    "tic": 3239,
    "yarg": 3240,
    "\u2581emp": 3241,
    "\u25810x48f898": 3242,
    "d8000": 3243,
    "utdown": 3244,
    "seclipboard": 3245,
    "computernamea": 3246,
    "inst": 3247,
    "\u2581openclipboard": 3248,
    "\u2581closeclipboard": 3249,
    "addc": 3250,
    "\u2581setclipboarddata": 3251,
    "\u2581empty": 3252,
    "\u2581emptyclipboard": 3253,
    "788": 3254,
    "phlpapi": 3255,
    "\u25810x415": 3256,
    "\u25810x567": 3257,
    "\u2581freesid": 3258,
    "b88": 3259,
    "\u25810x41d6": 3260,
    "\u2581getobjecta": 3261,
    "couldnotbelocatedinthe": 3262,
    "generic": 3263,
    "\u2581createdib": 3264,
    "\u25810xfeee014": 3265,
    "\u2581getstartupinfow": 3266,
    "\u2581form": 3267,
    "hip": 3268,
    "a88": 3269,
    "members": 3270,
    "membership": 3271,
    "windowexw": 3272,
    "tokenmembership": 3273,
    "ind": 3274,
    "onnect": 3275,
    "\u25810x7dc1": 3276,
    "\u25810x4227": 3277,
    "\u25810x418a": 3278,
    "createmutexa": 3279,
    "\u25810x4170": 3280,
    "287e": 3281,
    "registerclassexw": 3282,
    "cc000": 3283,
    "\u25810x9460": 3284,
    "\u2581createdibsection": 3285,
    "\u2581getlogicaldrivestringsw": 3286,
    "\u2581createfontindirecta": 3287,
    "\u25810x1f000": 3288,
    "\u25810x44f928": 3289,
    "49": 3290,
    "\u25810xa42": 3291,
    "menuitem": 3292,
    "nad": 3293,
    "\u25810x42a7": 3294,
    "topene": 3295,
    "\u25810x4054": 3296,
    "\u2581checktokenmembership": 3297,
    "\u2581textouta": 3298,
    "\u2581wne": 3299,
    "topenenum": 3300,
    "\u2581wnetopenenum": 3301,
    "108": 3302,
    "\u2581wnetopenenumw": 3303,
    "\u2581drawtexta": 3304,
    "c3": 3305,
    "\u2581cb": 3306,
    "\u2581connect": 3307,
    "enumresource": 3308,
    "\u2581regopenkeyexw": 3309,
    "byname": 3310,
    "\u25810x4960": 3311,
    "hostbyname": 3312,
    "b20": 3313,
    "\u25810x405d": 3314,
    "\u2581wnetaddc": 3315,
    "\u2581getstartupinfoa": 3316,
    "\u25810x801000": 3317,
    "\u2581wnetaddconnection2w": 3318,
    "enumresourcew": 3319,
    "\u2581wnetenumresourcew": 3320,
    "\u2581sa": 3321,
    "\u25810x43d": 3322,
    "\u2581fa": 3323,
    "\u25810x800000": 3324,
    "\u2581findwindowa": 3325,
    "\u25810x1211bd0": 3326,
    "\u25810x1211f30": 3327,
    "cance": 3328,
    "\u2581work": 3329,
    "\u2581gethostbyname": 3330,
    "\u25810x41d7": 3331,
    "\u25810x7b000": 3332,
    "\u25810x4330c8": 3333,
    "\u25810x5d": 3334,
    "\u25810x4e80": 3335,
    "\u25810x120fb": 3336,
    "00a": 3337,
    "leas": 3338,
    "your": 3339,
    "\u25810x7b00": 3340,
    "\u25810x41dda8": 3341,
    "cancelc": 3342,
    "\u2581wnetcancelc": 3343,
    "\u2581wnetcancelconnection2w": 3344,
    "\u25810x41ddc0": 3345,
    "srand": 3346,
    "inki": 3347,
    "d4000": 3348,
    "\u25810x41ddf0": 3349,
    "\u2581gettemppathw": 3350,
    "wow64process": 3351,
    "ecut": 3352,
    "\u25810x41de38": 3353,
    "\u25810x41de68": 3354,
    "hels": 3355,
    "helsinki": 3356,
    "\u25810x41db9c": 3357,
    "\u25810x41db74": 3358,
    "\u25810x41de98": 3359,
    "\u2581shellexecut": 3360,
    "\u25810x41deb0": 3361,
    "\u25810x41dec8": 3362,
    "\u2581htons": 3363,
    "\u25810x405d54": 3364,
    "\u2581setclasslonga": 3365,
    "\u2581socket": 3366,
    "e88": 3367,
    "f828": 3368,
    "\u2581recv": 3369,
    "par": 3370,
    "\u2581closesocket": 3371,
    "\u25810x81": 3372,
    "shgetfolderpathw": 3373,
    "geo": 3374,
    "\u2581extractassociatedicona": 3375,
    "\u2581extractassociatediconw": 3376,
    "\u2581wsastartup": 3377,
    "\u25810x58de": 3378,
    "\u2581shellexecuteexw": 3379,
    "zeromemory": 3380,
    "\u2581shutdown": 3381,
    "\u25810x40a2d5": 3382,
    "\u2581findwindowexa": 3383,
    "\u2581endup": 3384,
    "updateresourcew": 3385,
    "\u2581endupdateresource": 3386,
    "iznad": 3387,
    "\u2581updateresourcea": 3388,
    "\u2581endupdateresourcea": 3389,
    "\u2581beginupdateresourcea": 3390,
    "\u2581triznad": 3391,
    "c8000": 3392,
    "geoid": 3393,
    "listen": 3394,
    "\u2581getusergeoid": 3395,
    "\u2581rtlzeromemory": 3396,
    "\u2581registerservicectrlhandlerw": 3397,
    "\u2581beginupdateresourcew": 3398,
    "setsecuritydescriptordacl": 3399,
    "\u25810xb0000": 3400,
    "\u2581extractic": 3401,
    "octls": 3402,
    "octlsocket": 3403,
    "\u2581extracticonexw": 3404,
    "\u2581ioctlsocket": 3405,
    "\u2581triznadm": 3406,
    "querysystem": 3407,
    "querysysteminformation": 3408,
    "\u2581htonl": 3409,
    "\u25810x80e0": 3410,
    "\u25810x1e00000": 3411,
    "\u25810x1e50000": 3412,
    "\u2581listen": 3413,
    "\u25810x1211fb8": 3414,
    "\u25810x1211938": 3415,
    "\u2581bind": 3416,
    "\u2581writeconsolew": 3417,
    "\u2581accept": 3418,
    "peer": 3419,
    "peername": 3420,
    "\u2581getpeername": 3421,
    "11000": 3422,
    "\u2581iphlpapi": 3423,
    "ag": 3424,
    "b48": 3425,
    "\u25810x2ac45": 3426,
    "\u2581getversionexw": 3427,
    "\u2581getconsolemode": 3428,
    "\u25810x1211f10": 3429,
    "getcomputernamea": 3430,
    "add": 3431,
    "\u25810x40287e": 3432,
    "\u25810x423818": 3433,
    "ce000": 3434,
    "\u25810x84b0": 3435,
    "mutexa": 3436,
    "\u25810xb0": 3437,
    "ang": 3438,
    "\u25810x8310": 3439,
    "onsolecp": 3440,
    "\u2581getconsolecp": 3441,
    "ff000": 3442,
    "\u25810x438c": 3443,
    "\u25810x416ed": 3444,
    "de000": 3445,
    "\u2581createeventw": 3446,
    "fc000": 3447,
    "cd": 3448,
    "exit": 3449,
    "\u25810xa6": 3450,
    "ec000": 3451,
    "\u2581loadresource": 3452,
    "\u25810x152": 3453,
    "new": 3454,
    "chi": 3455,
    "once": 3456,
    "18000": 3457,
    "\u2581lockresource": 3458,
    "e8000": 3459,
    "808": 3460,
    "\u25810x4189": 3461,
    "lstrcpy": 3462,
    "\u25810x12110": 3463,
    "findclose": 3464,
    "\u25810x1211af0": 3465,
    "1c000": 3466,
    "entries": 3467,
    "openmutexa": 3468,
    "\u25810x1076": 3469,
    "\u25810x8d2": 3470,
    "\u2581oc": 3471,
    "dc000": 3472,
    "\u25810x41d838": 3473,
    "\u25810x8026": 3474,
    "\u2581regdelete": 3475,
    "\u25810x7f03": 3476,
    "\u25810x41d6d0": 3477,
    "\u2581ntquerysysteminformation": 3478,
    "\u25810x42bd": 3479,
    "\u25810x41d740": 3480,
    "\u25810x41d708": 3481,
    "a6e6": 3482,
    "26b2": 3483,
    "\u25810x405461": 3484,
    "\u25810x41b910": 3485,
    "\u25810x41f828": 3486,
    "\u25810x97a0": 3487,
    "\u2581ntun": 3488,
    "\u2581ntunmapviewofsection": 3489,
    "\u25810x1f0001": 3490,
    "14000": 3491,
    "utputdebugstringa": 3492,
    "\u2581failed": 3493,
    "\u25810x525": 3494,
    "getusernamea": 3495,
    "fe000": 3496,
    "\u2581isvalidcodepage": 3497,
    "logon": 3498,
    "363": 3499,
    "inac": 3500,
    "duplic": 3501,
    "entriesinac": 3502,
    "488": 3503,
    "\u2581ntmapviewofsection": 3504,
    "\u25810xb4": 3505,
    "\u2581regqueryvalueexw": 3506,
    "todo": 3507,
    "ee000": 3508,
    "104": 3509,
    "e4c": 3510,
    "entriesinacla": 3511,
    "\u25810x43b3": 3512,
    "rtlinitunicodestring": 3513,
    "\u25810xab": 3514,
    "\u2581size": 3515,
    "ntstatus": 3516,
    "\u25810x40f6": 3517,
    "\u2581ntopen": 3518,
    "serror": 3519,
    "todoserror": 3520,
    "\u2581rtlntstatus": 3521,
    "\u2581rtlntstatustodoserror": 3522,
    "\u2581rtlinitunicodestring": 3523,
    "eto": 3524,
    "setentriesinacla": 3525,
    "\u25810xca0000": 3526,
    "\u2581ntopensection": 3527,
    "\u25810x77001000": 3528,
    "\u25810x77002000": 3529,
    "\u25810x77003000": 3530,
    "\u25810x77004000": 3531,
    "\u25810x77005000": 3532,
    "\u25810x77006000": 3533,
    "\u25810x77007000": 3534,
    "\u25810x77008000": 3535,
    "\u25810x77009000": 3536,
    "\u25810x7700a000": 3537,
    "\u25810x7700b000": 3538,
    "\u25810x7700c000": 3539,
    "\u25810x7700d000": 3540,
    "\u25810x7700e000": 3541,
    "\u25810x7700f000": 3542,
    "\u25810x77010000": 3543,
    "\u25810x77011000": 3544,
    "\u25810x77012000": 3545,
    "\u25810x77013000": 3546,
    "\u25810x77014000": 3547,
    "\u25810x77015000": 3548,
    "\u25810x77016000": 3549,
    "\u25810x77017000": 3550,
    "\u25810x77018000": 3551,
    "\u25810x77019000": 3552,
    "\u25810x7701a000": 3553,
    "\u25810x7701b000": 3554,
    "\u25810x7701c000": 3555,
    "\u25810x7701d000": 3556,
    "\u25810x7701e000": 3557,
    "\u25810x7701f000": 3558,
    "\u25810x77020000": 3559,
    "\u25810x77021000": 3560,
    "\u25810x77022000": 3561,
    "\u25810x77023000": 3562,
    "\u25810x77024000": 3563,
    "\u25810x77025000": 3564,
    "\u25810x77026000": 3565,
    "\u25810x77027000": 3566,
    "\u25810x77028000": 3567,
    "\u25810x77029000": 3568,
    "\u25810x7702a000": 3569,
    "\u25810x7702b000": 3570,
    "\u25810x7702c000": 3571,
    "\u25810x7702d000": 3572,
    "\u25810x7702e000": 3573,
    "\u25810x7702f000": 3574,
    "\u25810x77030000": 3575,
    "\u25810x77031000": 3576,
    "\u25810x77032000": 3577,
    "\u25810x77033000": 3578,
    "\u25810x77034000": 3579,
    "\u25810x77035000": 3580,
    "\u25810x77036000": 3581,
    "\u25810x77037000": 3582,
    "\u25810x77038000": 3583,
    "\u25810x77039000": 3584,
    "\u25810x7703a000": 3585,
    "\u25810x7703b000": 3586,
    "\u25810x7703c000": 3587,
    "\u25810x7703d000": 3588,
    "\u25810x7703e000": 3589,
    "\u25810x7703f000": 3590,
    "\u25810x77040000": 3591,
    "\u25810x77041000": 3592,
    "\u25810x77042000": 3593,
    "\u25810x77043000": 3594,
    "\u25810x77044000": 3595,
    "\u25810x77045000": 3596,
    "\u25810x77046000": 3597,
    "\u25810x77047000": 3598,
    "\u25810x77048000": 3599,
    "\u25810x77049000": 3600,
    "\u25810x7704a000": 3601,
    "\u25810x7704b000": 3602,
    "\u25810x7704c000": 3603,
    "\u25810x7704d000": 3604,
    "\u25810x7704e000": 3605,
    "\u25810x7704f000": 3606,
    "\u25810x77050000": 3607,
    "\u25810x77051000": 3608,
    "\u25810x77052000": 3609,
    "\u25810x77053000": 3610,
    "\u25810x77054000": 3611,
    "\u25810x77055000": 3612,
    "\u25810x77056000": 3613,
    "\u25810x77057000": 3614,
    "\u25810x77058000": 3615,
    "\u25810x77059000": 3616,
    "\u25810x7705a000": 3617,
    "\u25810x7705b000": 3618,
    "\u25810x7705c000": 3619,
    "\u25810x7705d000": 3620,
    "\u25810x7705e000": 3621,
    "\u25810x7705f000": 3622,
    "\u25810x77060000": 3623,
    "\u25810x77061000": 3624,
    "\u25810x77062000": 3625,
    "\u25810x77063000": 3626,
    "\u25810x77064000": 3627,
    "\u25810x77065000": 3628,
    "\u25810x77066000": 3629,
    "\u25810x77067000": 3630,
    "\u25810x77068000": 3631,
    "\u25810x77069000": 3632,
    "\u25810x7706a000": 3633,
    "\u25810x7706b000": 3634,
    "\u25810x7706c000": 3635,
    "\u25810x7706d000": 3636,
    "\u25810x7706e000": 3637,
    "\u25810x7706f000": 3638,
    "\u25810x77070000": 3639,
    "\u25810x77071000": 3640,
    "\u25810x77072000": 3641,
    "\u25810x77073000": 3642,
    "\u25810x77074000": 3643,
    "\u25810x77075000": 3644,
    "\u25810x77076000": 3645,
    "\u25810x77077000": 3646,
    "\u25810x77078000": 3647,
    "\u25810x77079000": 3648,
    "\u25810x7707a000": 3649,
    "\u25810x7707b000": 3650,
    "\u25810x7707c000": 3651,
    "\u25810x7707d000": 3652,
    "\u25810x7707e000": 3653,
    "\u25810x7707f000": 3654,
    "\u25810x77080000": 3655,
    "\u25810x77081000": 3656,
    "\u25810x77082000": 3657,
    "\u25810x77083000": 3658,
    "\u25810x77084000": 3659,
    "\u25810x77085000": 3660,
    "\u25810x77086000": 3661,
    "\u25810x77087000": 3662,
    "\u25810x77088000": 3663,
    "\u25810x77089000": 3664,
    "\u25810x7708a000": 3665,
    "\u25810x7708b000": 3666,
    "\u25810x7708c000": 3667,
    "\u25810x7708d000": 3668,
    "\u25810x7708e000": 3669,
    "\u25810x7708f000": 3670,
    "\u25810x77090000": 3671,
    "\u25810x77091000": 3672,
    "\u25810x77092000": 3673,
    "\u25810x77093000": 3674,
    "\u25810x77094000": 3675,
    "\u25810x77095000": 3676,
    "\u25810x77096000": 3677,
    "\u25810x77097000": 3678,
    "\u25810x77098000": 3679,
    "\u25810x77099000": 3680,
    "\u25810x7709a000": 3681,
    "\u25810x7709b000": 3682,
    "\u25810x7709c000": 3683,
    "\u25810x7709d000": 3684,
    "\u25810x7709e000": 3685,
    "\u25810x7709f000": 3686,
    "\u25810x770a0000": 3687,
    "\u25810x770a1000": 3688,
    "\u25810x770a2000": 3689,
    "\u25810x770a3000": 3690,
    "\u25810x770a4000": 3691,
    "\u25810x770a5000": 3692,
    "\u25810x770a6000": 3693,
    "\u25810x770a7000": 3694,
    "\u25810x770a8000": 3695,
    "\u25810x770a9000": 3696,
    "\u25810x770aa000": 3697,
    "\u25810x770ab000": 3698,
    "\u25810x770ac000": 3699,
    "\u25810x770ad000": 3700,
    "\u25810x770ae000": 3701,
    "\u25810x770af000": 3702,
    "\u25810x770b0000": 3703,
    "\u25810x770b1000": 3704,
    "\u25810x770b2000": 3705,
    "\u25810x770b3000": 3706,
    "\u25810x770b4000": 3707,
    "\u25810x770b5000": 3708,
    "\u25810x770b6000": 3709,
    "\u25810x770b7000": 3710,
    "\u25810x770b8000": 3711,
    "\u25810x770b9000": 3712,
    "\u25810x770ba000": 3713,
    "\u25810x770bb000": 3714,
    "\u25810x770bc000": 3715,
    "\u25810x770bd000": 3716,
    "\u25810x770be000": 3717,
    "\u25810x770bf000": 3718,
    "\u25810x770c0000": 3719,
    "\u25810x770c1000": 3720,
    "\u25810x770c2000": 3721,
    "\u25810x770c3000": 3722,
    "\u25810x770c4000": 3723,
    "\u25810x770c5000": 3724,
    "\u25810x770c6000": 3725,
    "\u25810x770c7000": 3726,
    "\u25810x770c8000": 3727,
    "\u25810x770c9000": 3728,
    "\u25810x770ca000": 3729,
    "\u25810x770cb000": 3730,
    "\u25810x770cc000": 3731,
    "\u25810x770cd000": 3732,
    "\u25810x770ce000": 3733,
    "\u25810x770cf000": 3734,
    "\u25810x770d0000": 3735,
    "\u25810x770d1000": 3736,
    "\u25810x770d2000": 3737,
    "\u25810x770d3000": 3738,
    "\u25810x770d4000": 3739,
    "\u25810x770d5000": 3740,
    "\u25810x770d6000": 3741,
    "\u25810x770d7000": 3742,
    "\u25810x770d8000": 3743,
    "\u25810x770d9000": 3744,
    "\u25810x770da000": 3745,
    "\u25810x770db000": 3746,
    "\u25810x770dc000": 3747,
    "\u25810x770dd000": 3748,
    "\u25810x770de000": 3749,
    "\u25810x770df000": 3750,
    "\u25810x770e0000": 3751,
    "\u25810x770e1000": 3752,
    "\u25810x770e2000": 3753,
    "\u25810x770e3000": 3754,
    "\u25810x770e4000": 3755,
    "\u25810x770e5000": 3756,
    "\u25810x770e6000": 3757,
    "\u25810x770e7000": 3758,
    "\u25810x770e8000": 3759,
    "\u25810x770e9000": 3760,
    "\u25810x770ea000": 3761,
    "\u25810x770eb000": 3762,
    "\u25810x770ec000": 3763,
    "\u25810x770ed000": 3764,
    "\u25810x770ee000": 3765,
    "\u25810x770ef000": 3766,
    "\u25810x770f0000": 3767,
    "\u25810x770f1000": 3768,
    "\u25810x770f2000": 3769,
    "\u25810x770f3000": 3770,
    "\u25810x770f4000": 3771,
    "\u25810x770f5000": 3772,
    "\u25810x770f6000": 3773,
    "\u25810x770f7000": 3774,
    "\u25810x770f8000": 3775,
    "\u25810x770f9000": 3776,
    "\u25810x770fa000": 3777,
    "\u25810x770fb000": 3778,
    "\u25810x770fc000": 3779,
    "\u25810x770fd000": 3780,
    "\u25810x770fe000": 3781,
    "\u25810x770ff000": 3782,
    "\u25810x77100000": 3783,
    "\u25810x77101000": 3784,
    "\u25810x77102000": 3785,
    "\u25810x77103000": 3786,
    "\u25810x77104000": 3787,
    "\u25810x77105000": 3788,
    "\u25810x77106000": 3789,
    "\u25810x77107000": 3790,
    "\u25810x77108000": 3791,
    "\u25810x77109000": 3792,
    "\u25810x7710a000": 3793,
    "\u25810x7710b000": 3794,
    "\u25810x7710c000": 3795,
    "\u25810x7710d000": 3796,
    "\u25810x7710e000": 3797,
    "\u25810x7710f000": 3798,
    "\u25810x77110000": 3799,
    "\u25810x77111000": 3800,
    "\u25810x77112000": 3801,
    "\u25810x77113000": 3802,
    "\u25810x77114000": 3803,
    "\u25810x77115000": 3804,
    "\u25810x77116000": 3805,
    "\u25810x77117000": 3806,
    "\u25810x77118000": 3807,
    "\u25810x77119000": 3808,
    "\u25810x7711a000": 3809,
    "\u25810x7711b000": 3810,
    "\u25810x7711c000": 3811,
    "\u25810x7711d000": 3812,
    "\u25810x7711e000": 3813,
    "\u25810x7711f000": 3814,
    "\u25810x77120000": 3815,
    "\u25810x77121000": 3816,
    "\u25810x77122000": 3817,
    "\u25810x77123000": 3818,
    "\u25810x77124000": 3819,
    "\u25810x77125000": 3820,
    "\u25810x77126000": 3821,
    "\u25810x77127000": 3822,
    "\u25810x77128000": 3823,
    "\u25810x77129000": 3824,
    "\u25810x7712a000": 3825,
    "\u25810x7712b000": 3826,
    "\u25810x7712c000": 3827,
    "\u25810x7712d000": 3828,
    "\u25810x7712e000": 3829,
    "\u25810x7712f000": 3830,
    "\u25810x77130000": 3831,
    "\u25810x77131000": 3832,
    "\u25810x77132000": 3833,
    "\u25810x77133000": 3834,
    "\u25810x77134000": 3835,
    "\u25810x77135000": 3836,
    "\u25810x77136000": 3837,
    "\u25810x77137000": 3838,
    "\u25810x77138000": 3839,
    "\u25810x77139000": 3840,
    "\u25810x7713a000": 3841,
    "\u25810x7713b000": 3842,
    "\u25810x7713c000": 3843,
    "\u25810x7713d000": 3844,
    "\u25810x7713e000": 3845,
    "\u25810x7713f000": 3846,
    "\u25810x77140000": 3847,
    "\u25810x77141000": 3848,
    "\u25810x77142000": 3849,
    "\u25810x77143000": 3850,
    "\u25810x77144000": 3851,
    "\u25810x77145000": 3852,
    "\u25810x77146000": 3853,
    "\u25810x77147000": 3854,
    "\u25810x77148000": 3855,
    "\u25810x77149000": 3856,
    "\u25810x7714a000": 3857,
    "\u25810x7714b000": 3858,
    "\u25810x7714c000": 3859,
    "\u25810x7714d000": 3860,
    "\u25810x7714e000": 3861,
    "\u25810x7714f000": 3862,
    "\u25810x77150000": 3863,
    "\u25810x77151000": 3864,
    "\u25810x77152000": 3865,
    "\u25810x77153000": 3866,
    "\u25810x77154000": 3867,
    "\u25810x77155000": 3868,
    "\u25810x77156000": 3869,
    "\u25810x77157000": 3870,
    "\u25810x77158000": 3871,
    "\u25810x77159000": 3872,
    "\u25810x7715a000": 3873,
    "\u25810x7715b000": 3874,
    "\u25810x7715c000": 3875,
    "\u25810x7715d000": 3876,
    "\u25810x7715e000": 3877,
    "\u25810x7715f000": 3878,
    "\u25810x77160000": 3879,
    "\u25810x77161000": 3880,
    "\u25810x77162000": 3881,
    "\u25810x77163000": 3882,
    "\u25810x77164000": 3883,
    "\u25810x77165000": 3884,
    "\u25810x77166000": 3885,
    "\u25810x77167000": 3886,
    "\u25810x77168000": 3887,
    "\u25810x77169000": 3888,
    "\u25810x7716a000": 3889,
    "\u25810x7716b000": 3890,
    "\u25810x7716c000": 3891,
    "\u25810x7716d000": 3892,
    "\u25810x7716e000": 3893,
    "\u25810x7716f000": 3894,
    "\u25810x77170000": 3895,
    "\u25810x77171000": 3896,
    "\u25810x77172000": 3897,
    "\u25810x77173000": 3898,
    "\u25810x77174000": 3899,
    "\u25810x77175000": 3900,
    "\u25810x77176000": 3901,
    "\u25810x77177000": 3902,
    "\u25810x77178000": 3903,
    "\u25810x77179000": 3904,
    "\u25810x7717a000": 3905,
    "\u25810x7717b000": 3906,
    "\u25810x7717c000": 3907,
    "\u25810x7717d000": 3908,
    "\u25810x7717e000": 3909,
    "\u25810x7717f000": 3910,
    "\u25810x77180000": 3911,
    "\u25810x77181000": 3912,
    "\u25810x77182000": 3913,
    "\u25810x77183000": 3914,
    "\u25810x77184000": 3915,
    "\u25810x77185000": 3916,
    "\u25810x77186000": 3917,
    "\u25810x77187000": 3918,
    "\u25810x77188000": 3919,
    "\u25810x77189000": 3920,
    "\u25810x7718a000": 3921,
    "\u25810x7718b000": 3922,
    "\u25810x7718c000": 3923,
    "\u25810x7718d000": 3924,
    "\u25810x7718e000": 3925,
    "\u25810x7718f000": 3926,
    "\u25810x77190000": 3927,
    "\u25810x77191000": 3928,
    "\u25810x77192000": 3929,
    "\u25810x77193000": 3930,
    "\u25810x77194000": 3931,
    "\u25810x77195000": 3932,
    "\u25810x77196000": 3933,
    "\u25810x77197000": 3934,
    "\u25810x77198000": 3935,
    "\u25810x77199000": 3936,
    "\u25810x7719a000": 3937,
    "\u25810x7719b000": 3938,
    "\u25810x7719c000": 3939,
    "\u25810x7719d000": 3940,
    "\u25810x7719e000": 3941,
    "\u25810x7719f000": 3942,
    "\u25810x771a0000": 3943,
    "\u25810x771a1000": 3944,
    "\u25810x771a2000": 3945,
    "\u25810x771a3000": 3946,
    "\u25810x771a4000": 3947,
    "\u25810x771a5000": 3948,
    "\u25810x771a6000": 3949,
    "\u25810x771a7000": 3950,
    "\u25810x771a8000": 3951,
    "\u25810x771a9000": 3952,
    "\u25810x771aa000": 3953,
    "\u25810x771ab000": 3954,
    "\u25810x771ac000": 3955,
    "\u25810x771ad000": 3956,
    "\u25810x771ae000": 3957,
    "\u25810x771af000": 3958,
    "\u25810x771b0000": 3959,
    "\u25810x771b1000": 3960,
    "\u25810x771b2000": 3961,
    "\u25810x771b3000": 3962,
    "\u25810x771b4000": 3963,
    "\u25810x771b5000": 3964,
    "\u25810x771b6000": 3965,
    "\u25810x771b7000": 3966,
    "\u25810x771b8000": 3967,
    "\u25810x771b9000": 3968,
    "\u25810x771ba000": 3969,
    "\u25810x771bb000": 3970,
    "\u25810x771bc000": 3971,
    "\u25810x771bd000": 3972,
    "\u25810x771be000": 3973,
    "\u25810x771bf000": 3974,
    "\u25810x771c0000": 3975,
    "\u25810x771c1000": 3976,
    "\u25810x771c2000": 3977,
    "\u25810x771c3000": 3978,
    "\u25810x771c4000": 3979,
    "\u25810x771c5000": 3980,
    "\u25810x771c6000": 3981,
    "getsecurityinfo": 3982,
    "setsecurityinfo": 3983,
    "\u2581physicalmemory": 3984,
    "\u25810x11cc": 3985,
    "\u25810x4317": 3986,
    "72697": 3987,
    "\u25810x12113": 3988,
    "776f7": 3989,
    "656c73": 3990,
    "1646d73": 3991,
    "26b2e68": 3992,
    "7472697": 3993,
    "7472697a6e6": 3994,
    "776f726b2e68": 3995,
    "7472697a6e61646d73": 3996,
    "776f726b2e68656c73": 3997,
    "\u25810x1210f35(7472697a6e61646d73": 3998,
    "\u25810x1210f35(776f726b2e68656c73": 3999,
    "\u25810x1210f35(7472697a6e61646d73696e6b692e6669)": 4000,
    "\u25810x1210f35(776f726b2e68656c73696e6b692e6669)": 4001,
    "\u25810x437a": 4002,
    "\u25810x70b8": 4003,
    "vchost": 4004,
    "\u2581r": 4005,
    "\u25810x4270": 4006,
    "\u25810x40152c": 4007,
    "3a8": 4008,
    "\u25810x7de8": 4009,
    "formatw": 4010,
    "\u25810x58c0": 4011,
    "\u25810x1525000": 4012,
    "6b": 4013,
    "ac4": 4014,
    "\u2581svchost": 4015,
    "ofc": 4016,
    "\u25810x7dc8": 4017,
    "\u25810x7de9": 4018,
    "ff8": 4019,
    "\u25810x11cc4c": 4020,
    "\u25810x70b86f": 4021,
    "\u25810x43d390": 4022,
    "a17": 4023,
    "500000": 4024,
    "\u25810x519": 4025,
    "9c1": 4026,
    "\u25810x120f8": 4027,
    "@@": 4028,
    "fmode": 4029,
    "\u2581sizeofresource": 4030,
    "\u2581gettemppatha": 4031,
    "f0000": 4032,
    "initializesrwlock": 4033,
    "l1-1-0._": 4034,
    "b4e8": 4035,
    "\u25810x3f4000": 4036,
    "\u25810x42e5f8": 4037,
    "\u25810x5c": 4038,
    "\u25810x421": 4039,
    "\u25810x99e0": 4040,
    "\u25810x411b": 4041,
    "\u25810x4febf0": 4042,
    "interne": 4043,
    "\u2581control": 4044,
    "iocontrol": 4045,
    "\u25810x42d3d8": 4046,
    "\u2581deviceiocontrol": 4047,
    "bff": 4048,
    "\u25810x91": 4049,
    "\u25810x7d00": 4050,
    "\u2581failedto": 4051,
    "ols": 4052,
    "processmemory": 4053,
    "\u2581wsprintfa": 4054,
    "keyexw": 4055,
    "\u25810x7f10": 4056,
    "viol": 4057,
    "\u25810x42d390": 4058,
    "ab4": 4059,
    "l1-2-0.": 4060,
    "\u25810x42e2": 4061,
    "\u25810x40a58": 4062,
    "violation": 4063,
    "gettemppatha": 4064,
    "\u2581getwindows": 4065,
    "afc": 4066,
    "\u2581error0x": 4067,
    "330": 4068,
    "\u25810x4308": 4069,
    "\u25810x4315": 4070,
    "ffce": 4071,
    "\u25810x437ad": 4072,
    "\u25810x437c4": 4073,
    "accessviolation": 4074,
    "getfile": 4075,
    "\u25810x4371e6": 4076,
    "\u25810x4371e7": 4077,
    "47": 4078,
    "look": 4079,
    "\u25810x6b9": 4080,
    "\u25810x43b7b9": 4081,
    "\u25810x43b7c3": 4082,
    "\u2581format": 4083,
    "gb": 4084,
    "288": 4085,
    "f60": 4086,
    "\u2581inter": 4087,
    "f80": 4088,
    "\u25810x1211f18": 4089,
    "een": 4090,
    "\u25810x42cd": 4091,
    "\u25810x5265f": 4092,
    "\u25810x120ff": 4093,
    "\u25810x42da": 4094,
    "\u2581regenum": 4095,
    "\u25810x4319": 4096,
    "cms": 4097,
    "\u2581mscms": 4098,
    "bd0": 4099,
    "\u25810x63": 4100,
    "findfirstfilew": 4101,
    "a81": 4102,
    "\u25810x7dec": 4103,
    "\u25810x1211f74": 4104,
    "\u25810x567a40": 4105,
    "palette": 4106,
    "\u25810x20019": 4107,
    "\u25810x53b4e8": 4108,
    "dbg": 4109,
    "\u25810x7c70": 4110,
    "inp": 4111,
    "ecc": 4112,
    "\u25810x42ca": 4113,
    "slen": 4114,
    "pathnamew": 4115,
    "\u25810x42e2f0(0d0a": 4116,
    "%1": 4117,
    "\u25810x431998": 4118,
    "\u25810x1211e28": 4119,
    "\u25810x4bb0": 4120,
    "numberofc": 4121,
    "numberofconsole": 4122,
    "\u25810x1211b04": 4123,
    "\u25810x46b3": 4124,
    "\u25810x7ded": 4125,
    "..": 4126,
    "\u25810xad": 4127,
    "\u2581systemtim": 4128,
    "leases": 4129,
    "getnumberofconsole": 4130,
    "\u25810x41f": 4131,
    "tra": 4132,
    "prop": 4133,
    "\u25810x79a0": 4134,
    "\u25810x41c8": 4135,
    "\u2581pec2": 4136,
    "dbgmsg": 4137,
    "\u2581400000": 4138,
    "\u2581pec2dbgmsg": 4139,
    "\u25810x181b": 4140,
    "\u25810x4168": 4141,
    "\u25810x7a10": 4142,
    "\u25810x4141": 4143,
    "\u2581getsystemtime": 4144,
    "\u25810xc0": 4145,
    "controls": 4146,
    "\u25810x4275": 4147,
    "\u25810xac": 4148,
    "\u2581findresourcew": 4149,
    "uilanguage": 4150,
    "iv": 4151,
    "\u25810x47a0": 4152,
    "\u25810x42e8": 4153,
    "\u25810x28c": 4154,
    "\u25810x4229": 4155,
    "\u2581pa": 4156,
    "\u25810x40935": 4157,
    "gen": 4158,
    "\u25810x210": 4159,
    "\u25810x90f0": 4160,
    "f88": 4161,
    "(0x": 4162,
    "vents": 4163,
    "inpute": 4164,
    "inputevents": 4165,
    "\u25810x4730": 4166,
    "threaduilanguage": 4167,
    "eexa": 4168,
    "584": 4169,
    "\u25810x8830": 4170,
    "etofiletime": 4171,
    "mod": 4172,
    "\u25810x3f3060": 4173,
    "getnumberofconsoleinputevents": 4174,
    "\u2581systemtimetofiletime": 4175,
    "\u25810x3f3010": 4176,
    "\u25810x40a3": 4177,
    "com": 4178,
    "getfilesize": 4179,
    "\u25815": 4180,
    "\u2581move": 4181,
    "d88": 4182,
    "9020": 4183,
    "\u25810x1211cec": 4184,
    "\u25810x7ef0": 4185,
    "\u25810x7df1": 4186,
    "\u25810x169b7": 4187,
    "\u25810x43540": 4188,
    "\u25810x4548": 4189,
    "pl": 4190,
    "f74": 4191,
    "\u25810xa42a": 4192,
    "\u25810x1211e34": 4193,
    "324": 4194,
    "\u25810x42c520": 4195,
    "input": 4196,
    "\u25810x41bcb0": 4197,
    "\u25810x41bce0": 4198,
    "\u25810x3f22": 4199,
    "\u2581mar": 4200,
    "\u25810xfeee015": 4201,
    "\u2581lcmap": 4202,
    "\u2581lcmapstringa": 4203,
    "\u25810x121": 4204,
    "\u25810x4f5": 4205,
    "\u25810x8c60": 4206,
    "7ff": 4207,
    "\u25810xaa": 4208,
    "\u2581duplic": 4209,
    "\u25810x4237": 4210,
    "onc": 4211,
    "\u25810x7cc0": 4212,
    "\u2581fe": 4213,
    "lstrcmpa": 4214,
    "\u25810x7230": 4215,
    "\u25810x3410c": 4216,
    "\u25810x70a8": 4217,
    "lstrcpynw": 4218,
    "filetimetofiletime": 4219,
    "\u2581localfiletimetofiletime": 4220,
    "\u2581getstringtype": 4221,
    "\u2581getstringtypea": 4222,
    "\u25810x788": 4223,
    "\u25810x406": 4224,
    "\u25810x491": 4225,
    "\u2581exception": 4226,
    "\u25810x7070": 4227,
    "\u25810x1210e8": 4228,
    "\u25810x56b": 4229,
    "b44": 4230,
    "\u25810x448": 4231,
    "\u25810x12119f0": 4232,
    "544": 4233,
    "just": 4234,
    "\u2581variant": 4235,
    "\u25810x41a5": 4236,
    "\u25810xfeee016": 4237,
    "aff": 4238,
    "\u25810x1211f78": 4239,
    "\u25810x417b": 4240,
    "de8": 4241,
    "\u2581programinternalerrornumberis6.": 4242,
    "sser": 4243,
    "\u25810x51a": 4244,
    "download": 4245,
    "\u25810x65": 4246,
    "\u2581accessviolation": 4247,
    "3b5": 4248,
    "c88": 4249,
    "\u25810x4238a8": 4250,
    "\u25810x4238d8": 4251,
    "ee4": 4252,
    "f0c": 4253,
    "\u25810x419d50": 4254,
    "\u2581str": 4255,
    "echeck": 4256,
    "\u25810x42b020": 4257,
    "\u25810x8250": 4258,
    "\u25810x409020": 4259,
    "\u25810x419e00": 4260,
    "getfileattributesw": 4261,
    "\u2581getdiskfreespaceexw": 4262,
    "\u25810x419f40": 4263,
    "\u25810x42a070": 4264,
    "\u25810x42b024": 4265,
    "\u25810x42b028": 4266,
    "\u25810x1212000": 4267,
    "createt": 4268,
    "\u2581physicaldriv": 4269,
    "wcslen": 4270,
    "\u25810x7c40": 4271,
    "ec4": 4272,
    "\u2581physicaldrive0": 4273,
    "de4": 4274,
    "a84": 4275,
    "\u2581writeprivateprofile": 4276,
    "\u25810x8420": 4277,
    "a41": 4278,
    "wcsc": 4279,
    "\u25810xa429c8": 4280,
    "\u25810x1211e44": 4281,
    "\u25810x71c0": 4282,
    "\u2581ou": 4283,
    "acb2": 4284,
    "iswow64process": 4285,
    "outputdebugstringa": 4286,
    "5088": 4287,
    "\u2581outof": 4288,
    "\u2581jun": 4289,
    "exception": 4290,
    "\u25810x416a17": 4291,
    "\u25810x416a18": 4292,
    "\u25810x4ec0": 4293,
    "\u25810x4b80": 4294,
    "getmess": 4295,
    "\u25810x7d20": 4296,
    "e20": 4297,
    "found": 4298,
    "e2c": 4299,
    "\u25810xffe1": 4300,
    "leasesrwlockexclusive": 4301,
    "\u2581ju": 4302,
    "\u25810x1009": 4303,
    "\u25810xffe0": 4304,
    "\u2581acquiresrwlockexclusive": 4305,
    "cf": 4306,
    "wcscpy": 4307,
    "\u25810xffe4": 4308,
    "cad": 4309,
    "gument": 4310,
    "\u25810xfffe": 4311,
    "\u2581sat": 4312,
    "ority": 4313,
    "b2acb2": 4314,
    "\u2581loadlibraryw": 4315,
    "low": 4316,
    "\u25810x3e8": 4317,
    "\u2581nov": 4318,
    "\u25810x7460": 4319,
    "argument": 4320,
    "ccess": 4321,
    "vem": 4322,
    "\u25810x164": 4323,
    "\u2581novem": 4324,
    "\u25810x4ee0": 4325,
    "\u2581ch": 4326,
    "32cs": 4327,
    "onversion": 4328,
    "\u25810x42d520": 4329,
    "\u25810x1005": 4330,
    "\u25810x46e0": 4331,
    "\u25810x43b880": 4332,
    "\u2581releasesrwlockexclusive": 4333,
    "\u25810xe00": 4334,
    "\u2581septem": 4335,
    "\u25810x7ee00": 4336,
    "\u25810x74d0": 4337,
    "\u25810x4393f8": 4338,
    "datom": 4339,
    "operation": 4340,
    "eextra": 4341,
    "ied": 4342,
    "\u2581th32cs": 4343,
    "createtoolhelp32snapshot": 4344,
    "\u25810x70e0": 4345,
    "creating": 4346,
    "\u25810x425": 4347,
    "ise": 4348,
    "shel": 4349,
    "\u2581feb": 4350,
    "anget": 4351,
    "\u2581febr": 4352,
    "\u25810xffba": 4353,
    "\u25810xffb7": 4354,
    "\u25810xffbb": 4355,
    "ssp": 4356,
    "\u2581oct": 4357,
    "index": 4358,
    "\u25810x7038": 4359,
    "\u25810x7cb0": 4360,
    "bound": 4361,
    "ember": 4362,
    "tober": 4363,
    "\u2581april": 4364,
    "\u25810xffb8": 4365,
    "\u2581august": 4366,
    "\u2581november": 4367,
    "\u2581september": 4368,
    "\u25810x72d8": 4369,
    "\u25810xffbe": 4370,
    "\u25810xffbd": 4371,
    "\u25810x4615": 4372,
    "\u25810xffb9": 4373,
    "\u25810xffbc": 4374,
    "\u25810xfffd": 4375,
    "ffceffc": 4376,
    "\u2581path": 4377,
    "sk": 4378,
    "\u25810xfffc": 4379,
    "\u25810x7620": 4380,
    "\u25810xffbf": 4381,
    "\u25810x1211c80": 4382,
    "b190": 4383,
    "\u25810x5265c3c": 4384,
    "fileex": 4385,
    "\u2581outofmemory": 4386,
    "344": 4387,
    "\u25810x8820": 4388,
    "\u25810x71f8": 4389,
    "\u25810x7498": 4390,
    "\u25810x435088": 4391,
    "freelibrary": 4392,
    "tur": 4393,
    "\u25810x1210900": 4394,
    "ash": 4395,
    "\u25810x8b50": 4396,
    "\u25810x7310": 4397,
    "\u2581march": 4398,
    "\u25810xffa0": 4399,
    "\u25810xffb6": 4400,
    "\u2581january": 4401,
    "\u2581february": 4402,
    "\u2581app": 4403,
    "\u25810x7380": 4404,
    "\u2581december": 4405,
    "\u2581july": 4406,
    "\u2581june": 4407,
    "\u25810xffa2": 4408,
    "\u2581october": 4409,
    "\u2581thu": 4410,
    "nesday": 4411,
    "\u2581monday": 4412,
    "\u2581sunday": 4413,
    "\u2581tuesday": 4414,
    "\u2581wednesday": 4415,
    "method": 4416,
    "ursday": 4417,
    "\u25810x7b60": 4418,
    "\u2581thursday": 4419,
    "\u25810xffa1": 4420,
    "\u25810xffa3": 4421,
    "turday": 4422,
    "\u2581friday": 4423,
    "\u25810x52666": 4424,
    "\u2581saturday": 4425,
    "textw": 4426,
    "\u25810xffa4": 4427,
    "\u25810x120fa": 4428,
    "den": 4429,
    "myarg": 4430,
    "\u25810x7188": 4431,
    "\u25810x75b0": 4432,
    "\u25810x9000(": 4433,
    "\u25810x7118": 4434,
    "\u25810x7770": 4435,
    "\u25810xffa7": 4436,
    "\u25810xffa6": 4437,
    "\u2581interfac": 4438,
    "\u25810xffa5": 4439,
    "\u25810x46b4": 4440,
    "\u25810x7428": 4441,
    "drl6660drl6660drl6660drl6660": 4442,
    "\u2581interfacen": 4443,
    "\u25810x7268": 4444,
    "\u25810xfffb": 4445,
    "360": 4446,
    "\u25810x7a48": 4447,
    "conne": 4448,
    "ternal": 4449,
    "\u25810x7348": 4450,
    "\u2581sub": 4451,
    "safec": 4452,
    "\u2581inte": 4453,
    "\u25810x73b8": 4454,
    "\u25810xffb5": 4455,
    "tchanget": 4456,
    "\u2581variantchanget": 4457,
    "\u25810x7b98": 4458,
    "\u2581stack": 4459,
    "\u25810xffa8": 4460,
    "\u25810x7508": 4461,
    "\u2581asser": 4462,
    "\u25810x7578": 4463,
    "\u25810x75e8": 4464,
    "\u25810xffa9": 4465,
    "\u2581external": 4466,
    "ageextra": 4467,
    "ageextrainfo": 4468,
    "\u25810x7658": 4469,
    "\u2581assertion": 4470,
    "\u25810xffcd": 4471,
    "\u25810xcf0000": 4472,
    "\u25810x76c8": 4473,
    "\u25810x7888": 4474,
    "\u2581integer": 4475,
    "mit": 4476,
    "\u25810x7818": 4477,
    "\u25810x78f8": 4478,
    "getmessageextrainfo": 4479,
    "\u25810x7738": 4480,
    "\u25810x77a8": 4481,
    "\u25810x1211f6c": 4482,
    "onceex": 4483,
    "ecuteonce": 4484,
    "onceexecuteonce": 4485,
    "insafec": 4486,
    "\u2581exceptioninsafec": 4487,
    "ethod": 4488,
    "\u25810x7968": 4489,
    "\u25810x7ab8": 4490,
    "\u25810x79d8": 4491,
    "\u25810x7c08": 4492,
    "\u25810x7ce8": 4493,
    "calls": 4494,
    "\u25810x7b28": 4495,
    "\u25810x7d58": 4496,
    "\u25810xffaa": 4497,
    "shellex": 4498,
    "\u25810xffe6": 4499,
    "\u2581disk": 4500,
    "\u25810x7c78": 4501,
    "bool": 4502,
    "notfound": 4503,
    "\u2581messageboxa": 4504,
    "shellexecute": 4505,
    "derflow": 4506,
    "denied": 4507,
    "\u25810x58c01c": 4508,
    "bounds": 4509,
    "\u2581assertionfailed": 4510,
    "peci": 4511,
    "pecial": 4512,
    "\u25810xffb4": 4513,
    "typecast": 4514,
    "\u2581privilege": 4515,
    "chit": 4516,
    "outof": 4517,
    "internet": 4518,
    "indexoutof": 4519,
    "otsupported": 4520,
    "notsupported": 4521,
    "classtypecast": 4522,
    "\u2581externalexception": 4523,
    "\u2581interfacenotsupported": 4524,
    "tunderflow": 4525,
    "methodcalls": 4526,
    "dinstruction": 4527,
    "creatingvarian": 4528,
    "\u2581floatingpoint": 4529,
    "indexoutofbounds": 4530,
    "\u2581variantmethodcalls": 4531,
    "\u2581invalidclasstypecast": 4532,
    "\u2581floatingpointunderflow": 4533,
    "\u2581variantmethodcallsnotsupported": 4534,
    "allm": 4535,
    "ttypec": 4536,
    "\u25810x7ec4": 4537,
    "angecheck": 4538,
    "\u2581getclass": 4539,
    "\u2581stackoverflow": 4540,
    "ttypeconversion": 4541,
    "pointeroperation": 4542,
    "\u2581errorcreatingvarian": 4543,
    "\u2581privilegedinstruction": 4544,
    "\u2581invalidvariantoperation": 4545,
    "\u2581invalidvarianttypeconversion": 4546,
    "toverflow": 4547,
    "\u2581floatingpointoverflow": 4548,
    "\u2581floatingpointdivisionbyzero": 4549,
    "yopen": 4550,
    "\u2581rangecheck": 4551,
    "floatingpoin": 4552,
    "\u2581divisionbyzero": 4553,
    "\u2581integeroverflow": 4554,
    "\u2581rangecheckerror": 4555,
    "\u2581invalidfloatingpoin": 4556,
    "\u2581invalidpointeroperation": 4557,
    "\u2581invalidfloatingpointoperation": 4558,
    "bey": 4559,
    "oman": 4560,
    "beyond": 4561,
    "numeric": 4562,
    "\u25810xfffa": 4563,
    "\u2581tooman": 4564,
    "\u2581diskfull": 4565,
    "fileaccess": 4566,
    "yopenfiles": 4567,
    "\u2581readbeyond": 4568,
    "numericinput": 4569,
    "\u2581invalidfilename": 4570,
    "\u2581toomanyopenfiles": 4571,
    "\u2581invalidnumericinput": 4572,
    "\u2581readbeyondendoffile": 4573,
    "\u25810x7e0": 4574,
    "\u25810x1210f6": 4575,
    "\u2581fileaccess": 4576,
    "\u2581fileaccessdenied": 4577,
    "\u25810x7ec5": 4578,
    "allmethod": 4579,
    "\u2581exceptioninsafecallmethod": 4580,
    "ypeex": 4581,
    "common": 4582,
    "precise": 4583,
    "preciseasfiletime": 4584,
    "\u2581variantchangetypeex": 4585,
    "\u2581getsystemtimepreciseasfiletime": 4586,
    "\u2581kk": 4587,
    "\u25810x42b190": 4588,
    "\u25810x42eace": 4589,
    "e2b": 4590,
    "\u25810xffce": 4591,
    "getspecial": 4592,
    "\u25810x40933c": 4593,
    "neg": 4594,
    "\u25810x140": 4595,
    "\u25810xffcf": 4596,
    "\u25810xffe5": 4597,
    "d1c": 4598,
    "\u2581varadd": 4599,
    "\u2581varneg": 4600,
    "\u2581varnot": 4601,
    "\u2581varsub": 4602,
    "xor": 4603,
    "idiv": 4604,
    "\u2581varcy": 4605,
    "\u2581varor": 4606,
    "\u2581varr8": 4607,
    "\u2581varand": 4608,
    "\u2581varcmp": 4609,
    "\u2581vardiv": 4610,
    "\u2581varmod": 4611,
    "\u2581varmul": 4612,
    "\u2581varxor": 4613,
    "\u2581varbool": 4614,
    "\u2581vardate": 4615,
    "\u2581varidiv": 4616,
    "\u2581varcyfromstr": 4617,
    "\u2581vari4fromstr": 4618,
    "\u2581varr4fromstr": 4619,
    "\u2581varr8fromstr": 4620,
    "\u2581varbstrfromcy": 4621,
    "\u2581varboolfromstr": 4622,
    "\u2581vardatefromstr": 4623,
    "\u2581varbstrfrombool": 4624,
    "\u2581varbstrfromdate": 4625,
    "\u25810x1211ed4": 4626,
    "\u25810x100300": 4627,
    "createpalette": 4628,
    "srw": 4629,
    "a10": 4630,
    "\u25810x4317e0": 4631,
    "\u25810x6b9c08": 4632,
    "\u25810x40a5a0": 4633,
    "a5c": 4634,
    "\u25810x409344": 4635,
    "snapprocess": 4636,
    "variablesrw": 4637,
    "\u2581sleepconditionvariablesrw": 4638,
    "6e8": 4639,
    "\u25810x4c4178": 4640,
    "\u25810x1211e1c": 4641,
    "\u25810x8c30": 4642,
    "\u25810x8d20": 4643,
    "\u25810x30000": 4644,
    "\u25810x41a0": 4645,
    "\u2581initonceexecuteonce": 4646,
    "\u25810x4284": 4647,
    "\u25810xffb0": 4648,
    "c8c": 4649,
    "\u25810xfff9": 4650,
    "\u2581createsemaphorew": 4651,
    "200": 4652,
    "\u25810x401": 4653,
    "\u25810x1210f8": 4654,
    "\u25810x8001": 4655,
    "\u25810xffb3": 4656,
    "\u25810x8bd0": 4657,
    "process32firstw": 4658,
    "fff0": 4659,
    "\u25810x40c": 4660,
    "\u25810xffb2": 4661,
    "3f0": 4662,
    "\u25810x4305f8": 4663,
    "\u25810x7ec8": 4664,
    "tokeninformation": 4665,
    "\u25810x4c3": 4666,
    "b5c": 4667,
    "\u25810xffb1": 4668,
    "20202020": 4669,
    "\u25810x71a0": 4670,
    "\u25810x7ec9": 4671,
    "\u2581__": 4672,
    "\u25810xfeee009d": 4673,
    "\u25810x169be04": 4674,
    "\u2581invalidargument": 4675,
    "\u2581variantorsafearray": 4676,
    "\u2581variantorsafearrayindexoutofbounds": 4677,
    "\u2581errorcreatingvariantorsafearray": 4678,
    "\u25810x566": 4679,
    "\u2581wak": 4680,
    "\u2581u": 4681,
    "\u2581wakeconditionvariable": 4682,
    "place": 4683,
    "\u25810x7ed0": 4684,
    "\u25810x4390": 4685,
    "\u25810x8c10": 4686,
    "d3c": 4687,
    "environmentvariablea": 4688,
    "\u25810x1211f24": 4689,
    "\u25810x42e0f0(0d0a": 4690,
    "\u25810x496760": 4691,
    "\u2581initializesrwlock": 4692,
    "\u25810x422e": 4693,
    "\u2581initializecriticalsection": 4694,
    "\u25810x41e": 4695,
    "\u25810x1211690": 4696,
    "\u25810x169bc": 4697,
    "lcid": 4698,
    "\u25810x118": 4699,
    "\u2581tryacquiresrwlockexclusive": 4700,
    "hook": 4701,
    "lasses": 4702,
    "\u25810x40a59e": 4703,
    "\u2581setfileinformationbyhandle": 4704,
    "\u25810x40a5a2": 4705,
    "\u25810x40a5a4": 4706,
    "\u25810x40a5a6": 4707,
    "\u25810x40a5a8": 4708,
    "\u25810x40a5aa": 4709,
    "itor": 4710,
    "\u2581submit": 4711,
    "threadpoolwork": 4712,
    "\u2581closethreadpoolwork": 4713,
    "\u2581createthreadpoolwork": 4714,
    "\u2581submitthreadpoolwork": 4715,
    "\u25810x43b6": 4716,
    "lication": 4717,
    "\u25810x13fff0": 4718,
    "createdirectorya": 4719,
    "f20": 4720,
    "\u25810x8be0": 4721,
    "\u25810x7edc": 4722,
    "\u25810x7ecc": 4723,
    "registerclassexa": 4724,
    "licen": 4725,
    "\u25810x41568c": 4726,
    "acceleratorsw": 4727,
    "\u2581getthreaduilanguage": 4728,
    "\u25810x7ecd": 4729,
    "\u25810x46b5": 4730,
    "d44": 4731,
    "\u2581getthreadpreferreduilanguages": 4732,
    "74c": 4733,
    "\u25810x100000": 4734,
    "\u25810x8c70": 4735,
    "\u25810x8c40": 4736,
    "\u25810x4390c8": 4737,
    "318": 4738,
    "\u25810x4400": 4739,
    "\u25810xfff8": 4740,
    "\u25810x8f50": 4741,
    "f00": 4742,
    "\u25810x85d0": 4743,
    "\u25810x8c00": 4744,
    "e8c": 4745,
    "\u25810x7e89": 4746,
    "\u25810x52664": 4747,
    "\u25810x7e88": 4748,
    "\u2581setthreadpreferreduilanguages": 4749,
    "\u25810x413": 4750,
    "504": 4751,
    "gi": 4752,
    "\u25810x4418": 4753,
    "lstrcpyna": 4754,
    "abd": 4755,
    "ervice": 4756,
    "olfp": 4757,
    "controlfp": 4758,
    "b40": 4759,
    "affc": 4760,
    "\u25810x4237d8": 4761,
    "3c8": 4762,
    "\u25810x508": 4763,
    "\u25810x3f34e0": 4764,
    "\u25810x5e": 4765,
    "commode": 4766,
    "b1f": 4767,
    "\u25810x7ed4": 4768,
    "\u25810x416c": 4769,
    "740": 4770,
    "\u2581lstrlenw": 4771,
    "\u25810x7ed5": 4772,
    "204": 4773,
    "264": 4774,
    "\u25810x7ed1": 4775,
    "\u25810x12110d8": 4776,
    "\u25810x7ed8": 4777,
    "\u25810x1211338": 4778,
    "\u2581or": 4779,
    "\u25810x1211ef8": 4780,
    "\u25810x43d3": 4781,
    "\u25810x7ed9": 4782,
    "ac8": 4783,
    "\u25810x8aa0": 4784,
    "\u25810xfff7": 4785,
    "207": 4786,
    "\u25810x4528": 4787,
    "\u25810x423d18": 4788,
    "acl": 4789,
    "userw": 4790,
    "\u25810x7edd": 4791,
    "\u2581getprivateprofilesection": 4792,
    "\u25810x8d60": 4793,
    "\u25810x1211c50": 4794,
    "140.": 4795,
    "\u2581vc": 4796,
    "\u25810x8c90": 4797,
    "\u25810x1211d14": 4798,
    "7e0": 4799,
    "\u25810x7f02": 4800,
    "\u2581shellexecutew": 4801,
    "358": 4802,
    "afcd": 4803,
    "4d5": 4804,
    "getcurrentthread": 4805,
    "d1ffc": 4806,
    "\u2581adjust": 4807,
    "\u2581vcruntime": 4808,
    "\u25810x7ee4": 4809,
    "\u25810x202": 4810,
    "b2acb2afcd": 4811,
    "oll": 4812,
    "sspace": 4813,
    "56f": 4814,
    "\u25810x7ee5": 4815,
    "\u25810x20a": 4816,
    "\u25810x8ab0": 4817,
    "quen": 4818,
    "\u25810x4228": 4819,
    "\u25810xfff6": 4820,
    "\u2581msvcr71": 4821,
    "\u25810x41a": 4822,
    "b7b": 4823,
    "184": 4824,
    "\u25810x7ee1": 4825,
    "\u2581em": 4826,
    "ffff": 4827,
    "\u25810x41e1": 4828,
    "\u25810x1211a00": 4829,
    "\u25819": 4830,
    "roll": 4831,
    "\u25810x4299": 4832,
    "2.": 4833,
    "\u25810x11000": 4834,
    "\u25810x120e6d8": 4835,
    "\u25810x8d90": 4836,
    "7ffd1ffc": 4837,
    "ffceffc7ffd1ffc": 4838,
    "1.": 4839,
    "affcbff": 4840,
    "ffceffc7ffd1ffcaffcbff": 4841,
    "b2acb2afcdffceffc7ffd1ffcaffcbff": 4842,
    "param": 4843,
    "904": 4844,
    "\u25810xfeee009e": 4845,
    "\u2581getlocaleinfoa": 4846,
    "\u2581@": 4847,
    "\u25810x1211a14": 4848,
    "\u25810x431d": 4849,
    "ts": 4850,
    "\u25810x8d50": 4851,
    "\u25810x1211f84": 4852,
    "bb8": 4853,
    "\u25810x4363d8": 4854,
    "\u2581setfileinformationbyhandlew": 4855,
    "\u2581getfileinformationbyhandleexw": 4856,
    "\u25816": 4857,
    "box": 4858,
    "228": 4859,
    "\u25810x4ad4": 4860,
    "\u25810x8ba0": 4861,
    "\u2581regcreate": 4862,
    "1211": 4863,
    "684": 4864,
    "\u25810x56bb00": 4865,
    "\u25810xfeee00a0": 4866,
    "\u2581comm": 4867,
    "b84": 4868,
    "\u25810x423da8": 4869,
    "\u25810x423dd8": 4870,
    "0000)": 4871,
    "dc0": 4872,
    "\u2581hd": 4873,
    "igin": 4874,
    "iginal": 4875,
    "\u25810x405": 4876,
    "\u25810x8d30": 4877,
    "dregen": 4878,
    "\u2581hddregen": 4879,
    "\u2581hddregenerator": 4880,
    "3e8": 4881,
    "\u25810x41c": 4882,
    "\u2581gdip": 4883,
    "heapdestroy": 4884,
    "\u25810xfeee009f": 4885,
    "atehandle": 4886,
    "\u2581getvolumeinformation": 4887,
    "\u25810x423df8": 4888,
    "\u25810x8cd0": 4889,
    "240": 4890,
    "\u25810x8ca0": 4891,
    "\u2581classes": 4892,
    "\u25810x678208": 4893,
    "\u25810x9f": 4894,
    "\u25810x8fc0": 4895,
    "\u25810xffab": 4896,
    "ctrl": 4897,
    "select": 4898,
    "cadwork": 4899,
    "\u25810x1211c08": 4900,
    "\u25810x169b958": 4901,
    "\u25810x8bb0": 4902,
    "744": 4903,
    "commoncontrols": 4904,
    "barcad": 4905,
    "barcadero": 4906,
    "\u2581embarcadero": 4907,
    "quency": 4908,
    "frequency": 4909,
    "327": 4910,
    "\u25810x52665": 4911,
    "\u25810xffac": 4912,
    "cefrequency": 4913,
    "queryperformancefrequency": 4914,
    "database": 4915,
    "\u25810x1211f80": 4916,
    "listmsg": 4917,
    "pathmode": 4918,
    "\u2581commctrl": 4919,
    "draglistmsg": 4920,
    "searchpathmode": 4921,
    "remove": 4922,
    "\u25810xfeee00a1": 4923,
    "\u25810xfeee00a2": 4924,
    "\u25810x169b780": 4925,
    "\u2581comparestringw": 4926,
    "servicedatabase": 4927,
    "384": 4928,
    "768": 4929,
    "(4d5": 4930,
    "zone": 4931,
    "\u25810x53000000": 4932,
    "\u2581vcruntime140.": 4933,
    "\u25810x431e": 4934,
    "\u25810x401000": 4935,
    "terclipboard": 4936,
    "\u2581formatmessagew": 4937,
    "\u2581shellexecutea": 4938,
    "f84": 4939,
    "unction": 4940,
    "\u25810x80c410": 4941,
    "c44": 4942,
    "\u25810x714": 4943,
    "\u25810x43640": 4944,
    "\u25810xfeee00a3": 4945,
    "\u25810xfeee00a4": 4946,
    "\u25810xfeee00a5": 4947,
    "priority": 4948,
    "\u25810xffc5": 4949,
    "\u25810x426": 4950,
    "ffff0000)": 4951,
    "\u25810xfeee00a6": 4952,
    "e24": 4953,
    "\u25810x2012": 4954,
    "\u25810x1210f4": 4955,
    "484": 4956,
    "zoneinformation": 4957,
    "608": 4958,
    "ned": 4959,
    "cc4": 4960,
    "a90000": 4961,
    "isspace": 4962,
    "showwindow": 4963,
    "\u25810x42ae": 4964,
    "\u25810xffd3": 4965,
    "000000ffff0000)": 4966,
    "\u25810x8ce0": 4967,
    "\u25810xfeee00a7": 4968,
    "\u2581enum": 4969,
    "\u25810xfeee00a8": 4970,
    "\u25810xffc6": 4971,
    "\u25810xfeee00a9": 4972,
    "tac": 4973,
    "onexa": 4974,
    "\u2581loadcursorw": 4975,
    "fileexist": 4976,
    "\u25810xfff5": 4977,
    "\u2581opene": 4978,
    "\u25810x416b50": 4979,
    "\u25810xfeee00aa": 4980,
    "4000000ffff0000)": 4981,
    "aa4": 4982,
    "\u25810xfeee00ab": 4983,
    "e10": 4984,
    "\u25810xfeee00ae": 4985,
    "bcf": 4986,
    "\u2581cd": 4987,
    "\u25810x4c3308": 4988,
    "\u25810xfeee00ac": 4989,
    "\u25810x82c0": 4990,
    "\u25810xfeee00ad": 4991,
    "\u25810xfeed": 4992,
    "\u2581getversionexa": 4993,
    "\u25810x3f24": 4994,
    "\u25810x88e0": 4995,
    "etype": 4996,
    "\u25810x41cb": 4997,
    "\u25810x418970": 4998,
    "\u25810x437808": 4999,
    "5c8": 5000,
    "licence": 5001,
    "\u25810x4338": 5002,
    "\u25810x4398": 5003,
    "\u25810xb5": 5004,
    "\u25810x42b40": 5005,
    "a900003": 5006,
    "a9000030000000": 5007,
    "a90000300000004000000ffff0000)": 5008,
    "\u25810xfc": 5009,
    "\u25810x58de20": 5010,
    "\u25810xfeee00af": 5011,
    "(4d5a90000300000004000000ffff0000)": 5012,
    "\u25810xfeee00b0": 5013,
    "\u25810xfeee00b1": 5014,
    "\u25810x120e694": 5015,
    "\u25810x120e69c": 5016,
    "\u25810x1211f40": 5017,
    "\u25810xb000": 5018,
    "\u25810x4245": 5019,
    "qa": 5020,
    "\u2581getfull": 5021,
    "\u25810x8818": 5022,
    "\u2581lstrcpy": 5023,
    "\u2581run": 5024,
    "\u25810x95d0": 5025,
    "\u25810xff8": 5026,
    "\u25810x8819": 5027,
    "\u25810x42990": 5028,
    "\u25810xfeee00b3": 5029,
    "\u25810xfeee00b4": 5030,
    "\u25810xfeee00b2": 5031,
    "\u25810xfeee00b5": 5032,
    "longw": 5033,
    "\u25810x4394": 5034,
    "\u25810x7340": 5035,
    "drivetype": 5036,
    "\u25810x75500000": 5037,
    "ld": 5038,
    "\u25810x881c": 5039,
    "\u25810xfeee00bc": 5040,
    "\u2581interlockedexchange": 5041,
    "\u25810x881d": 5042,
    "\u25810x8821": 5043,
    "36c": 5044,
    "\u25810x4a20": 5045,
    "\u25810xffcc": 5046,
    "\u25810x420e": 5047,
    "\u2581findfirst": 5048,
    "704": 5049,
    "ad8": 5050,
    "\u2581original": 5051,
    "bc0": 5052,
    "newi": 5053,
    "magebase": 5054,
    "imagebase": 5055,
    "newimagebase": 5056,
    "\u2581originalimagebase": 5057,
    "3d1": 5058,
    "\u25810x3410c60": 5059,
    "da0": 5060,
    "\u25810xffad": 5061,
    "formata": 5062,
    "\u2581loadiconw": 5063,
    "\u2581defwindowprocw": 5064,
    "\u25810x7e90": 5065,
    "\u2581openeventw": 5066,
    "wsaf": 5067,
    "disset": 5068,
    "wsafdisset": 5069,
    "\u25810xfeee00b7": 5070,
    "\u25810xfeee00b8": 5071,
    "a00": 5072,
    "dep": 5073,
    "\u25810xfeee00b6": 5074,
    "\u25810xfeee00b9": 5075,
    "\u2581wsock32.__": 5076,
    "men": 5077,
    "\u25810x4295": 5078,
    "defaultu": 5079,
    "defaultuilanguage": 5080,
    "\u25810x1210f5": 5081,
    "\u2581createwindowexw": 5082,
    "b60": 5083,
    "\u25810xfeee00bb": 5084,
    "\u25810x44280": 5085,
    "\u2581getdrivetype": 5086,
    "\u25810xfeee00ba": 5087,
    "ae3": 5088,
    "98c": 5089,
    "ort": 5090,
    "\u25810xfeee00bd": 5091,
    "\u25810xa9b0": 5092,
    "\u25810xfeee00be": 5093,
    "\u2581muldiv": 5094,
    "\u25810xfeee00bf": 5095,
    "\u25810x1210e0": 5096,
    "\u25810xfeee00c0": 5097,
    "\u2581getsysteminfo": 5098,
    "\u25810x4224": 5099,
    "\u2581programinternalerrornumberis6.(0x": 5100,
    "\u25810xfeee00c1": 5101,
    "\u25810x1211e30": 5102,
    "\u25810xfeee00c2": 5103,
    "b63": 5104,
    "\u25810x110": 5105,
    "\u25810xfeee00c3": 5106,
    "\u25810x3f3080": 5107,
    "\u2581864000": 5108,
    "\u25810x4353d8": 5109,
    "\u25810xfeee00c4": 5110,
    "\u2581destroywindow": 5111,
    "\u2581writeprocessmemory": 5112,
    "\u25810x4f6": 5113,
    "bb0": 5114,
    "\u258186400040": 5115,
    "\u25810xfeee00c6": 5116,
    "\u25810x3f3040": 5117,
    "\u25810xfeee00c7": 5118,
    "\u25810xfeee00c5": 5119,
    "\u25810x7df4": 5120,
    "\u25810xfeee00ca": 5121,
    "\u25810xffd0": 5122,
    "\u25810x46b5d4": 5123,
    "systemtime": 5124,
    "\u25810xfeee00c8": 5125,
    "licy": 5126,
    "policy": 5127,
    "validate": 5128,
    "\u25810xfeee00c9": 5129,
    "\u25810xfeee00cb": 5130,
    "\u25810x181c": 5131,
    "f30h": 5132,
    "\u25810x42e6": 5133,
    "\u25810x7df5": 5134,
    "1211f30h": 5135,
    "\u2581programinternalerrornumberis6.(0x1211f30h": 5136,
    "\u25810x7d40": 5137,
    "heapvalidate": 5138,
    "b30": 5139,
    "\u25810x42fb": 5140,
    "\u25810xfeee017": 5141,
    "\u2581wsprintfw": 5142,
    "\u2581registerclassexw": 5143,
    "gine": 5144,
    "getmessagea": 5145,
    "326": 5146,
    "\u25810x4318": 5147,
    "getcursor": 5148,
    "onso": 5149,
    "984": 5150,
    "\u25810x41c4": 5151,
    "\u25810x190": 5152,
    "\u25810xffc4": 5153,
    "\u25810x51c": 5154,
    "\u25810x1211f70": 5155,
    "meta": 5156,
    "memorys": 5157,
    "\u25810xfeee0108": 5158,
    "memorystatus": 5159,
    "100": 5160,
    "times": 5161,
    "\u25810x107": 5162,
    "\u25810x4df0": 5163,
    "\u25810x1211f5c": 5164,
    "leasec": 5165,
    "deppolicy": 5166,
    "\u25810x51af": 5167,
    "766": 5168,
    "commoncontrolsex": 5169,
    "*.": 5170,
    "loadlibraryexa": 5171,
    "\u25810x500": 5172,
    "localfiletime": 5173,
    "output": 5174,
    "\u25810x1211e00": 5175,
    "3868": 5176,
    "\u2581gettimezoneinformation": 5177,
    "b58": 5178,
    "\u25810x42d408": 5179,
    "memcpy": 5180,
    "\u25810x100b": 5181,
    "\u25810xffae": 5182,
    "registerclipboard": 5183,
    "\u2581aa": 5184,
    "\u25810x9e": 5185,
    "\u2581loadstringw": 5186,
    "hash": 5187,
    "enter": 5188,
    "outputcp": 5189,
    "\u25810x343b5": 5190,
    "check": 5191,
    "\u25810x4306": 5192,
    "\u2581monitor": 5193,
    "\u2581getconsoleoutputcp": 5194,
    "\u25810xffaf": 5195,
    "\u2581inst": 5196,
    "processdeppolicy": 5197,
    "\u25810x41678c": 5198,
    "\u25810x41678d": 5199,
    "f50": 5200,
    "\u25810x3f20": 5201,
    "c4c": 5202,
    "\u25810x19c": 5203,
    "\u25810x27dc": 5204,
    "d4c": 5205,
    "\u25810x3f5000": 5206,
    "\u25810x6e": 5207,
    "\u25810x120fd": 5208,
    "\u25810x1211f98": 5209,
    "\u25810x4196": 5210,
    "\u25810x48f894": 5211,
    "160": 5212,
    "f8c": 5213,
    "\u25810xbc": 5214,
    "\u25810x4fec20": 5215,
    "\u25810xffc2": 5216,
    "\u25810x8430": 5217,
    "environmentstringsa": 5218,
    "\u25810xff90": 5219,
    "apter": 5220,
    "\u25810x40f9": 5221,
    "adapter": 5222,
    "\u25810x48400": 5223,
    "adapters": 5224,
    "\u25810xa39": 5225,
    "...": 5226,
    "\u25810x9cc0": 5227,
    "scroll": 5228,
    "\u25810x524": 5229,
    "\u25810x12117f4": 5230,
    "ff4": 5231,
    "\u25810x488": 5232,
    "\u25810x42f": 5233,
    "\u25810x107598": 5234,
    "d68": 5235,
    "362": 5236,
    "348": 5237,
    "\u25810x4fea": 5238,
    "a4c": 5239,
    "\u25810x8650": 5240,
    "support": 5241,
    "\u25810x4225": 5242,
    "\u25810x107658": 5243,
    "\u25810xa42a10": 5244,
    ".?": 5245,
    "\u25810x429570": 5246,
    "wakeallconditionvariable": 5247,
    "\u25810x103": 5248,
    "\u25810xffd2": 5249,
    "\u25810x42956f": 5250,
    "f70": 5251,
    "abe": 5252,
    "03": 5253,
    "corex": 5254,
    "b0c8": 5255,
    "\u25810x109": 5256,
    "\u25810xffe3": 5257,
    "\u25810x7c10": 5258,
    "\u2581getwindowsdirectoryw": 5259,
    "getkeyboard": 5260,
    "corexitprocess": 5261,
    "getkeyboardtype": 5262,
    "f4c": 5263,
    "\u2581filetimetolocalfiletime": 5264,
    "d84": 5265,
    "\u25810x8660": 5266,
    "\u25810x431d00": 5267,
    "\u25810x20009": 5268,
    "\u25810x1b2": 5269,
    "lstrcmpw": 5270,
    "\u25810x41c0": 5271,
    "viewpor": 5272,
    "\u25810x437806": 5273,
    "\u25810x43780a": 5274,
    "\u25810x43780c": 5275,
    "\u25810x43780e": 5276,
    "\u25810x437810": 5277,
    "\u25810x437812": 5278,
    "\u25810x437814": 5279,
    "\u25810x437816": 5280,
    "\u25810x437818": 5281,
    "\u25810x43781a": 5282,
    "\u25810x43781c": 5283,
    "\u25810x43781e": 5284,
    "\u25810x490": 5285,
    "d40": 5286,
    "fc4": 5287,
    "fied": 5288,
    "\u25810x1210e4": 5289,
    "\u2581setcurrent": 5290,
    "apis": 5291,
    "\u25810x107538": 5292,
    "onsolea": 5293,
    "784": 5294,
    "memset": 5295,
    "\u25810xffec": 5296,
    "\u25810x40f937": 5297,
    "\u25810x1210ee": 5298,
    "\u25810x1210f0": 5299,
    "3a5": 5300,
    "fileapis": 5301,
    "\u25810xfeee018": 5302,
    "f44": 5303,
    "b8c": 5304,
    "\u25810x42eb": 5305,
    "124": 5306,
    "\u25810x41d114": 5307,
    "\u25810x563868": 5308,
    "\u25810x120f8c2": 5309,
    "\u25810x4010": 5310,
    "\u2581setfiletime": 5311,
    "bc4": 5312,
    "b24": 5313,
    "\u25810x417c": 5314,
    "\u25810xffef": 5315,
    "\u2581setenvironmentvariablea": 5316,
    "\u2581filetimetosystemtime": 5317,
    "26c": 5318,
    "function": 5319,
    "lookup": 5320,
    "\u25810x1211dd0": 5321,
    "uninitialize": 5322,
    "144": 5323,
    "ansi": 5324,
    "\u25810x1211df4": 5325,
    "\u25810x4300": 5326,
    "atom": 5327,
    "arefileapis": 5328,
    "arefileapisansi": 5329,
    "\u25810xffc3": 5330,
    "\u25810x7eab": 5331,
    "\u25810x43500": 5332,
    "39c": 5333,
    "\u2581writeconsolea": 5334,
    "3d0": 5335,
    "\u25810x59c1": 5336,
    "\u2581loadlibraryexw": 5337,
    "12c": 5338,
    "d98": 5339,
    "metafile": 5340,
    "a70": 5341,
    "\u25810x59bf": 5342,
    "718": 5343,
    "\u2581getexit": 5344,
    "\u25810x97b0": 5345,
    "medi": 5346,
    "\u25810xec": 5347,
    "\u25810x99d0": 5348,
    "\u2581lookup": 5349,
    "\u25810xfeee00f4": 5350,
    "dllip": 5351,
    "dlliphlpapi": 5352,
    "couldnotbelocatedinthedlliphlpapi": 5353,
    "\u25810x416ed1": 5354,
    "\u2581getlocaltime": 5355,
    "361": 5356,
    "\u25810x416ed2": 5357,
    "\u2581virtualallocex": 5358,
    "\u25810x42be": 5359,
    "\u25810x107688": 5360,
    "\u25810x1211fbc": 5361,
    "928": 5362,
    "\u25810x598": 5363,
    "ant": 5364,
    "\u2581openprocesstoken": 5365,
    "owned": 5366,
    "\u25810x7ee9": 5367,
    "644": 5368,
    "f5c": 5369,
    "\u2581seterrormode": 5370,
    "getspecialfolderpathw": 5371,
    "\u25810x454840": 5372,
    "278": 5373,
    "7b0": 5374,
    "fb0": 5375,
    "\u2581cs": 5376,
    "d6c": 5377,
    "304": 5378,
    "lower": 5379,
    "shellexecutew": 5380,
    "218": 5381,
    "\u25810x4378c8": 5382,
    "\u2581findfirstfilea": 5383,
    "\u25810x4332": 5384,
    "\u25810x4c51": 5385,
    "fileexistsa": 5386,
    "\u25810x437390": 5387,
    "\u25810x120fb48": 5388,
    "\u25810xffe7": 5389,
    "\u25810xc4": 5390,
    "556": 5391,
    "lag": 5392,
    "\u25810x7ee8": 5393,
    "700": 5394,
    "\u2581getprocess": 5395,
    "\u2581sq": 5396,
    "\u25810xff91": 5397,
    "createwindowexw": 5398,
    "ae8": 5399,
    "\u25810x1210c": 5400,
    "\u25810x1210e6": 5401,
    "758": 5402,
    "\u25810x509": 5403,
    "utputdebugstringw": 5404,
    "memorystatusex": 5405,
    "privileges": 5406,
    "tokenprivileges": 5407,
    "\u2581getcurrentthread": 5408,
    "804": 5409,
    "\u25810x8824": 5410,
    "a0f": 5411,
    "\u25810x288": 5412,
    "\u25810x8828": 5413,
    "\u25810x8a41": 5414,
    "\u25810x8825": 5415,
    "\u2581lookupprivilege": 5416,
    "\u2581lock": 5417,
    "40c": 5418,
    "\u25810x77b000": 5419,
    "\u25810x43b0c8": 5420,
    "\u25810x130": 5421,
    "strings": 5422,
    "speci": 5423,
    "\u25810x44d4": 5424,
    "\u25810x1210e5": 5425,
    "\u2581failedtoinitializ": 5426,
    "eengine": 5427,
    "\u25810x1210ec": 5428,
    "\u25810x169b5": 5429,
    "\u2581failedtoinitializeengine": 5430,
    "os": 5431,
    "\u25810x3f6000": 5432,
    "\u25810x40a3d": 5433,
    "\u25810x41624": 5434,
    "coinitialize": 5435,
    "ream": 5436,
    "\u25810xffe2": 5437,
    "\u2581adjusttokenprivileges": 5438,
    "6d7": 5439,
    "\u25810xae": 5440,
    "lstrca": 5441,
    "\u25810x882c": 5442,
    "00210": 5443,
    "284": 5444,
    "\u25810x8829": 5445,
    "\u25810x1210f9": 5446,
    "\u2581duplicatehandle": 5447,
    "alized": 5448,
    "\u25810x12118f8": 5449,
    "\u25810x882d": 5450,
    "\u25810x4140": 5451,
    "\u25810x8834": 5452,
    "b94": 5453,
    "\u25810x428a": 5454,
    "\u25810x51c4": 5455,
    "265": 5456,
    "\u25810x8831": 5457,
    "inity": 5458,
    "\u25810x42ce10": 5459,
    "db0": 5460,
    "\u25810x8835": 5461,
    "\u25810x1211fa0": 5462,
    "pipe": 5463,
    "\u25810x41688": 5464,
    "datomw": 5465,
    "1e8": 5466,
    "\u25810x3f7000": 5467,
    "affinity": 5468,
    "affinitymask": 5469,
    "b4c": 5470,
    "\u25810x1211d08": 5471,
    "d28": 5472,
    "32c": 5473,
    "c0c": 5474,
    "desk": 5475,
    "\u25810x62": 5476,
    "\u25810x4c4230": 5477,
    "\u25810x4c4260": 5478,
    "\u25810x4c42a8": 5479,
    "310": 5480,
    "\u25810x42a730": 5481,
    "\u25810x42a731": 5482,
    "\u25810x4c4248": 5483,
    "\u25810x4c4278": 5484,
    "\u25810x4c4290": 5485,
    "\u25810x4c4320": 5486,
    "\u25810x4c4338": 5487,
    "\u25810x4c4350": 5488,
    "\u25810x4c4368": 5489,
    "d00": 5490,
    "\u25810x3fb000": 5491,
    "\u25810x1211968": 5492,
    "\u25810x3f8000": 5493,
    "\u25810x433618": 5494,
    "\u25810x4289": 5495,
    "\u25810x539": 5496,
    "36f": 5497,
    "f21": 5498,
    "\u25810x4050": 5499,
    "\u25810x429a81": 5500,
    "\u25810x438be8": 5501,
    "\u25810x438c18": 5502,
    "\u25810x120e68c": 5503,
    "\u25810x423d38": 5504,
    "\u25810x120f9": 5505,
    "pop": 5506,
    "want": 5507,
    "\u25810x1075c8": 5508,
    "\u25810x4155": 5509,
    "b18": 5510,
    "paramw": 5511,
    "bf0": 5512,
    "gth": 5513,
    "\u25810x3f9000": 5514,
    "\u25810x3fa000": 5515,
    "\u25810x437ae4": 5516,
    "\u2581getfullpathnamew": 5517,
    "\u25810xa41e": 5518,
    "\u25810x437207": 5519,
    "\u25810x437208": 5520,
    "\u25810x437ad2": 5521,
    "\u25810x437ad3": 5522,
    "\u25810x437ae3": 5523,
    "\u25810x437b63": 5524,
    "\u25810x437b64": 5525,
    "\u25810x437b7b": 5526,
    "\u25810x437b7c": 5527,
    "\u25810x437bbd": 5528,
    "\u25810x437bbe": 5529,
    "\u25810x437bce": 5530,
    "\u25810x437bcf": 5531,
    "\u25810x437c42": 5532,
    "\u25810x437c43": 5533,
    "\u25810x120f7": 5534,
    "fa8": 5535,
    "\u25810x40a584": 5536,
    "\u25810x40a582": 5537,
    "\u25810x40a586": 5538,
    "\u25810x40a588": 5539,
    "\u2581iswindow": 5540,
    "\u25810x40a58a": 5541,
    "\u25810x4c5158": 5542,
    "\u2581movefilew": 5543,
    "\u25810x40a580": 5544,
    "\u25810x429e2b": 5545,
    "\u25810x429e2c": 5546,
    "\u25810x434d1c": 5547,
    "\u25810x43b7a9": 5548,
    "\u25810x43b7aa": 5549,
    "\u25810x1210e2": 5550,
    "\u25810x43b7b8": 5551,
    "\u2581..": 5552,
    "\u25810x4614": 5553,
    "\u25810x40a57e": 5554,
    "\u25810x44f910": 5555,
    "\u25810x1075f8": 5556,
    "\u25810x107628": 5557,
    "409": 5558,
    "\u25810x422ebe": 5559,
    "\u25810x43b7b3": 5560,
    "\u25810x43b7b4": 5561,
    "\u25810x43b7ba": 5562,
    "\u25810x43b7c4": 5563,
    "\u25810x188e00": 5564,
    "gn": 5565,
    "propw": 5566,
    "b70": 5567,
    "valueexa": 5568,
    "coree": 5569,
    "\u2581mscoree": 5570,
    "\u25810x430880": 5571,
    "\u25810x3f2": 5572,
    "dialogbox": 5573,
    "\u25810x4315b0": 5574,
    "eep": 5575,
    "siz": 5576,
    "visi": 5577,
    "\u25810x42af": 5578,
    "1d0": 5579,
    "\u2581getfilesiz": 5580,
    "340": 5581,
    "545": 5582,
    "\u25810x7e3000": 5583,
    "tiniti": 5584,
    "\u2581getfilesizeex": 5585,
    "\u2581virtualfreeex": 5586,
    "-%": 5587,
    "\u25810x3f75f60": 5588,
    "\u25810x3f25": 5589,
    "\u25810x12105": 5590,
    "\u25810x43ff": 5591,
    "\u2581object": 5592,
    "\u25810x7e4000": 5593,
    "\u25810xfff4": 5594,
    "ion": 5595,
    "\u25810x181": 5596,
    "\u25810x40b8": 5597,
    "notiniti": 5598,
    "locknot": 5599,
    "locknotowned": 5600,
    "notinitialized": 5601,
    "\u2581findnextfilea": 5602,
    "supportfunction": 5603,
    "\u2581objectlocknotowned": 5604,
    "\u2581monitorsupportfunction": 5605,
    "\u2581monitorsupportfunctionnotinitialized": 5606,
    "a45": 5607,
    "2e0": 5608,
    "onexit": 5609,
    "\u25810x4967a8": 5610,
    "reen": 5611,
    "myarg2": 5612,
    "a6c": 5613,
    "\u25810x46c0": 5614,
    "\u25810x4de": 5615,
    "you": 5616,
    "\u2581enable": 5617,
    "91c": 5618,
    "\u25810x4290": 5619,
    "\u2581outputdebugstringw": 5620,
    "316": 5621,
    "\u2581setfilepointerex": 5622,
    "7f0": 5623,
    "specified": 5624,
    "e84": 5625,
    "ill": 5626,
    "filewas": 5627,
    "\u25810x101c": 5628,
    "\u25810x1211e24": 5629,
    "\u2581application": 5630,
    "34c": 5631,
    "svc": 5632,
    "\u2581thespecified": 5633,
    "filewasnotfound": 5634,
    "\u2581thespecifiedfilewasnotfound": 5635,
    "1myarg2": 5636,
    "\u25810x42daa2": 5637,
    "\u25810x42daab": 5638,
    "\u25810x42dab4": 5639,
    "\u25810x42dabd": 5640,
    "404": 5641,
    "fe0": 5642,
    "\u2581unlock": 5643,
    "\u25810x4470": 5644,
    "\u25810x4554": 5645,
    "\u25810x8900": 5646,
    "\u2581$": 5647,
    "918": 5648,
    "\u2581getmenuitem": 5649,
    "b640": 5650,
    "\u2581comdlg": 5651,
    "\u25810x160": 5652,
    "290": 5653,
    "70c": 5654,
    "9c2": 5655,
    "\u25810x188d3c": 5656,
    "\u25810x423b20": 5657,
    "\u2581regcreatekeyexw": 5658,
    "_164630": 5659,
    "\u25810x423b1f": 5660,
    "\u25810x42fc38": 5661,
    "\u25810x3f75f30": 5662,
    "\u25810x235": 5663,
    "\u2581400000newimagebase": 5664,
    "\u2581comdlg32.": 5665,
    "f7c": 5666,
    "\u2581service": 5667,
    "\u2581y": 5668,
    "\u25810x10e9": 5669,
    "\u2581out": 5670,
    "\u25810x41d1": 5671,
    "569": 5672,
    "aaaa": 5673,
    "\u25810x1210f1": 5674,
    "device": 5675,
    "ime": 5676,
    "\u25810xffc1": 5677,
    "\u25810xffdd": 5678,
    "mb": 5679,
    "541": 5680,
    "\u25810x40a5ac": 5681,
    "fa2": 5682,
    "\u25810x423868": 5683,
    "\u25810x423898": 5684,
    "_17": 5685,
    "555": 5686,
    "888": 5687,
    "b14": 5688,
    "\u25810x419c20": 5689,
    "\u2581isbadreadptr": 5690,
    "3c4": 5691,
    "aa5": 5692,
    "58f": 5693,
    "replace": 5694,
    "b78": 5695,
    "\u25810x41bd": 5696,
    "b7d8": 5697,
    "\u25810x42fbf0": 5698,
    "38c": 5699,
    "\u25810x40eec": 5700,
    "54c": 5701,
    "ba0": 5702,
    "\u2581as": 5703,
    "\u25810x4e30": 5704,
    "bad8": 5705,
    "dat": 5706,
    "\u25810x58000": 5707,
    "778": 5708,
    "\u25810x125": 5709,
    "\u2581lstrcpyw": 5710,
    "\u2581user32": 5711,
    "\u25810x1211e18": 5712,
    "fec": 5713,
    "\u2581enddialog": 5714,
    "b10": 5715,
    "f48": 5716,
    "\u25810x7bc": 5717,
    "registerclipboardformata": 5718,
    "\u25810x40ef1": 5719,
    "fc8": 5720,
    "b90": 5721,
    "3e0": 5722,
    "ynam": 5723,
    "dynam": 5724,
    "\u25810x1211f44": 5725,
    "190": 5726,
    "2c8": 5727,
    "\u25810x4130": 5728,
    "\u25810x437820": 5729,
    "bcc": 5730,
    "\u25810x4076": 5731,
    "\u25810x7e5000": 5732,
    "\u2581getversion": 5733,
    "localfree": 5734,
    "\u2581regenumkeyexw": 5735,
    "\u2581initcommoncontrolsex": 5736,
    "d20": 5737,
    "794": 5738,
    "comparestringw": 5739,
    "382": 5740,
    "length": 5741,
    "\u25810x4254": 5742,
    "tive": 5743,
    "f90": 5744,
    "a8a8": 5745,
    "\u25810x486d": 5746,
    "a80": 5747,
    "\u25810x3f23": 5748,
    "\u2581localfree": 5749,
    "706": 5750,
    "\u25810x433": 5751,
    "getprocessaffinitymask": 5752,
    "gex": 5753,
    "\u25810x41c856": 5754,
    "\u25810x41c857": 5755,
    "\u2581regdeletekeyw": 5756,
    "\u25810x4244": 5757,
    "\u25810x43f0": 5758,
    "528": 5759,
    "\u25810x1211e8c": 5760,
    "\u25810x169b7a4": 5761,
    "\u25810x1b1": 5762,
    "\u2581queryperformancefrequency": 5763,
    "\u25810x47e0": 5764,
    "ha": 5765,
    "lay": 5766,
    "\u25810x169b57c": 5767,
    "\u25810x8930": 5768,
    "\u25810x169b94c": 5769,
    "\u25810x1211f1c": 5770,
    "codeprocess": 5771,
    "bd4": 5772,
    "d8c": 5773,
    "e28": 5774,
    "\u25810x4febd8": 5775,
    "\u25810x431f38": 5776,
    "\u25810x2100210": 5777,
    "dynamic": 5778,
    "248": 5779,
    "948": 5780,
    "\u2581lstrcmpiw": 5781,
    "\u2581dialogbox": 5782,
    "metafilebits": 5783,
    "\u25810x56b8": 5784,
    "\u2581getexitcodeprocess": 5785,
    "flag": 5786,
    "noaccess": 5787,
    "vis": 5788,
    "recon": 5789,
    "dynamiclink": 5790,
    "\u2581gettempfilenamew": 5791,
    "dynamiclinklibrary": 5792,
    "inkw": 5793,
    "short": 5794,
    "\u25810x3f21": 5795,
    "\u25810x417a": 5796,
    "hardl": 5797,
    "hardlinkw": 5798,
    "\u25810x188e24": 5799,
    "\u25810x42e5c8": 5800,
    "\u25810x42e5e0": 5801,
    "\u2581createhardlinkw": 5802,
    "230": 5803,
    "\u25810x42d3c0": 5804,
    "\u2581regdeletevaluew": 5805,
    "\u2581install": 5806,
    "\u25810x41a6": 5807,
    "798": 5808,
    "\u25810x4030": 5809,
    "\u25810x4084": 5810,
    "3f1c": 5811,
    "\u2581getvolumeinformationw": 5812,
    "\u25810x12106": 5813,
    "\u2581getdateformatw": 5814,
    "990": 5815,
    "ocus": 5816,
    "save": 5817,
    "a0c": 5818,
    "eresource": 5819,
    "\u2581process32nextw": 5820,
    "\u25810x42bf": 5821,
    "\u2581process32firstw": 5822,
    "c8d": 5823,
    "_164634": 5824,
    "\u25810x1211de4": 5825,
    "\u25810x42c1": 5826,
    "\u25810x88b0": 5827,
    "\u2581removedirectoryw": 5828,
    "focus": 5829,
    "\u25810x6a": 5830,
    "\u25810x343b570": 5831,
    "\u25810x431ef0": 5832,
    "\u2581gets": 5833,
    "ryptac": 5834,
    "quirecon": 5835,
    "ryptacquirecon": 5836,
    "b68": 5837,
    "freeresource": 5838,
    "f28": 5839,
    "\u25810x42e598": 5840,
    "f68": 5841,
    "b50": 5842,
    "994": 5843,
    "\u25810x99a0": 5844,
    "2dc": 5845,
    "f18": 5846,
    "\u25810x10e9bc": 5847,
    "\u2581getsyscolor": 5848,
    "sys": 5849,
    "\u2581outlook": 5850,
    "d0c": 5851,
    "\u2581asw": 5852,
    "210": 5853,
    "desktop": 5854,
    "registry": 5855,
    "start": 5856,
    "\u25810x1211d00": 5857,
    "2b0": 5858,
    "ip": 5859,
    "6d7363": 5860,
    "\u25810xe06d7363": 5861,
    "\u2581heapdestroy": 5862,
    "\u2581getwindowsdirectorya": 5863,
    "ourcea": 5864,
    "\u2581dialogboxparamw": 5865,
    "\u25810x42b3": 5866,
    "e2e": 5867,
    "\u25810x5004": 5868,
    "\u2581setcurrentdirectoryw": 5869,
    "11c": 5870,
    "370": 5871,
    "f46": 5872,
    "connect": 5873,
    "\u25810x4fe2": 5874,
    "\u2581lookupprivilegevaluew": 5875,
    "\u2581q": 5876,
    "f34": 5877,
    "fd8": 5878,
    "ds": 5879,
    "f6c": 5880,
    "a54": 5881,
    "720": 5882,
    "ef0": 5883,
    "\u25810x45f1": 5884,
    "\u25810x423dc8": 5885,
    "4005": 5886,
    "\u25810x7bc00000": 5887,
    "3b0": 5888,
    "ff0": 5889,
    "\u25810x41681a": 5890,
    "\u25810x41681b": 5891,
    "a48": 5892,
    "windowshook": 5893,
    "popup": 5894,
    "\u25810x8ec0": 5895,
    "\u25810x1211808": 5896,
    "116": 5897,
    "322": 5898,
    "ae0": 5899,
    "ba8": 5900,
    "f318": 5901,
    "\u25810x4fe6e8": 5902,
    "chr": 5903,
    "\u2581getdlg": 5904,
    "\u2581getshort": 5905,
    "dbe": 5906,
    "\u25810xc8": 5907,
    "\u25810x1210f7": 5908,
    "aa0": 5909,
    "ddra": 5910,
    "oyou": 5911,
    "\u25810x40ab": 5912,
    "\u25810x56bad8": 5913,
    "\u2581getcomputer": 5914,
    "\u2581sc": 5915,
    "pow": 5916,
    "printf": 5917,
    "\u2581getmenu": 5918,
    "\u25810x1211ad0": 5919,
    "301": 5920,
    "si": 5921,
    "3b8": 5922,
    "\u25810x4cb0": 5923,
    "froms": 5924,
    "\u25810x40b3de": 5925,
    "\u25810x46b3d0": 5926,
    "\u25810x120f": 5927,
    "\u25810x418a00": 5928,
    "\u25810x418a30": 5929,
    "\u25810x1211e20": 5930,
    "468": 5931,
    "298": 5932,
    "\u2581call": 5933,
    "\u25810x3f26": 5934,
    "\u2581applicationerror": 5935,
    "powers": 5936,
    "\u25810x5398": 5937,
    "\u25810xa429f8": 5938,
    "leave": 5939,
    "b008": 5940,
    "28.": 5941,
    "\u25810x4096": 5942,
    "\u25810x49c8": 5943,
    "dragmove": 5944,
    "ddrag": 5945,
    "enddrag": 5946,
    "dragleave": 5947,
    "begindrag": 5948,
    "dragenter": 5949,
    "bas": 5950,
    "fig": 5951,
    "\u25810x4395c8": 5952,
    "244": 5953,
    "366": 5954,
    "\u25810x120e690": 5955,
    "\u25810x120e698": 5956,
    "300b": 5957,
    "getclass": 5958,
    "\u2581gettimeformatw": 5959,
    "\u25810x53b640": 5960,
    "\u25810x53b7d8": 5961,
    "\u25810x53ba10": 5962,
    "f54": 5963,
    "resourc": 5964,
    "3.": 5965,
    "tp": 5966,
    "b80": 5967,
    "env": 5968,
    "\u2581removedirectorya": 5969,
    "dd4": 5970,
    "atet": 5971,
    "winmetafilebits": 5972,
    "985": 5973,
    "dc1": 5974,
    "f65": 5975,
    "\u2581createpipe": 5976,
    "\u2581getdrivetypew": 5977,
    "321": 5978,
    "505": 5979,
    "\u25810x7d51": 5980,
    "mss": 5981,
    "amet": 5982,
    "\u25810x144": 5983,
    "18c": 5984,
    "\u2581pathfileexistsa": 5985,
    "\u25810x97c0": 5986,
    "<!": 5987,
    "apture": 5988,
    "\u25810x54000": 5989,
    "\u2581setenvironmentvariablew": 5990,
    "baf": 5991,
    "\u2581version": 5992,
    "\u25810x42bd38": 5993,
    "e48": 5994,
    "\u25810x412e": 5995,
    "7a8": 5996,
    "716": 5997,
    "a38": 5998,
    "c84": 5999,
    "crypt": 6000,
    "ontext": 6001,
    "af4": 6002,
    "\u25810x40b3dd": 6003,
    "\u25810x43b3d8": 6004,
    "\u2581wts": 6005,
    "replaceicon": 6006,
    "\u2581lstrlena": 6007,
    "69c": 6008,
    "d90": 6009,
    "\u25810x3f27": 6010,
    "\u25810x120e6cc": 6011,
    "748": 6012,
    "b28": 6013,
    "\u25810x1253f1c": 6014,
    "\u2581gettokeninformation": 6015,
    "\u25810x9a90": 6016,
    "\u25810xcb000": 6017,
    "\u2581getcomputernamew": 6018,
    "xw": 6019,
    "fromst": 6020,
    "\u25810x47f0": 6021,
    "\u25810x42b36f": 6022,
    "\u25810x42b370": 6023,
    "\u25810x4aa0": 6024,
    "958": 6025,
    "\u25810x1019": 6026,
    "\u25810xa3a8": 6027,
    "\u25810x4307e0": 6028,
    "560": 6029,
    "\u2581setsystem": 6030,
    "\u25810xffc7": 6031,
    "powerstate": 6032,
    "\u2581setsystempowerstate": 6033,
    "120": 6034,
    "\u2581readprocessmemory": 6035,
    "d18": 6036,
    "visible": 6037,
    "694": 6038,
    "_11": 6039,
    "\u2581getdiskfreespacew": 6040,
    "\u25810x42f318": 6041,
    "944": 6042,
    "ir": 6043,
    "mar": 6044,
    "b0c": 6045,
    "\u25810x644": 6046,
    "\u25810x42900": 6047,
    "\u25810x4d50": 6048,
    "f78": 6049,
    "710": 6050,
    "\u25810x42f318(0d0a": 6051,
    "entry": 6052,
    "\u25810xbd": 6053,
    "70e": 6054,
    "\u25810x60c6": 6055,
    "\u2581enumresourc": 6056,
    "\u2581regenumvaluew": 6057,
    "\u25810x42aa58": 6058,
    "fromstream": 6059,
    "\u25810x1211ef4": 6060,
    "localrealloc": 6061,
    "\u25810x9210": 6062,
    "\u25810x44d4b8": 6063,
    "\u25810x4efd": 6064,
    "a20": 6065,
    "shgetspecialfolderpathw": 6066,
    "\u25810x484": 6067,
    "\u2581regconnect": 6068,
    "\u2581regconnectregistry": 6069,
    "\u25810x428000": 6070,
    "\u2581loadacceleratorsw": 6071,
    "d30": 6072,
    "f3f": 6073,
    "e58": 6074,
    "\u25810xba": 6075,
    "\u2581enumresourcename": 6076,
    "processid": 6077,
    "om": 6078,
    "978": 6079,
    "\u2581getenvironmentstrings": 6080,
    "\u25810x1074": 6081,
    "381": 6082,
    "\u25810x4126": 6083,
    "\u25810x4179": 6084,
    "\u2581initialize": 6085,
    "386": 6086,
    "\u25810x1211d2c": 6087,
    "dit": 6088,
    "scouldnotbelocatedinthe": 6089,
    "\u25810x45f2": 6090,
    "730": 6091,
    "\u25810x80c": 6092,
    "getcursorpos": 6093,
    "\u25810x2825": 6094,
    "\u2581getshortpathnamew": 6095,
    "9c0": 6096,
    "wantto": 6097,
    "\u25810x42c4f0": 6098,
    "\u2581regconnectregistryw": 6099,
    "dlldirectoryw": 6100,
    "\u25810xb3": 6101,
    "\u25810x41a8a8": 6102,
    "\u25810x41bc98": 6103,
    "\u25810x41bcc8": 6104,
    "d60": 6105,
    "\u25810x4088": 6106,
    "\u25810x4200": 6107,
    "306": 6108,
    "\u25810x431": 6109,
    "\u25810x88f0": 6110,
    "\u25810x42ae20": 6111,
    "\u2581services": 6112,
    "\u25810x40f": 6113,
    "\u2581shfolder": 6114,
    "olor": 6115,
    "\u2581202": 6116,
    "1cc": 6117,
    "101": 6118,
    "\u25810x53e4": 6119,
    "\u25810x82f0": 6120,
    "\u2581getprivateprofilestringw": 6121,
    "ass": 6122,
    "e50": 6123,
    "\u2581getsave": 6124,
    "\u25810x1211f54": 6125,
    "\u2581writeprivateprofilestringw": 6126,
    "\u2581enumresourcenamesw": 6127,
    "a0e": 6128,
    "\u25810xe8": 6129,
    "\u25810x5219": 6130,
    "\u2581openthreadtoken": 6131,
    "\u25810x3b7": 6132,
    "\u25810x42d8a2": 6133,
    "\u25810x42d8ab": 6134,
    "\u25810x42d8b4": 6135,
    "\u25810x42d8bd": 6136,
    "604": 6137,
    "\u2581beep": 6138,
    "\u25810x8ef0": 6139,
    "\u25810x169bf64": 6140,
    "\u25810x437804": 6141,
    "3a4": 6142,
    "aba": 6143,
    "\u25810x40a59c": 6144,
    "\u25810x9810": 6145,
    "\u2581setvolume": 6146,
    "\u25810x63000000": 6147,
    "\u25810x41cc": 6148,
    "priorityclass": 6149,
    "dragobject": 6150,
    "\u25810x1211f97": 6151,
    "getwinmetafilebits": 6152,
    "325": 6153,
    "\u25810xf8": 6154,
    "\u25810x79b0": 6155,
    "\u25810x6781c0": 6156,
    "\u25810x6781f0": 6157,
    "install": 6158,
    "\u25810x50850": 6159,
    "\u25810x40a6": 6160,
    "\u25810x1210ed": 6161,
    "566": 6162,
    "\u25810x45f4": 6163,
    "\u25810x52667": 6164,
    "\u25810x120faa8": 6165,
    "a90": 6166,
    "\u25810x12119d0": 6167,
    "messageboxw": 6168,
    "\u2581globalmemorystatusex": 6169,
    "f85": 6170,
    "\u2581virtualquery": 6171,
    "d48": 6172,
    "\u25810x208": 6173,
    "\u25810xffde": 6174,
    "\u25810x12115bc": 6175,
    "setdrag": 6176,
    "cursorimage": 6177,
    "\u2581createprocessas": 6178,
    "setdragcursorimage": 6179,
    "\u25810x42b8": 6180,
    "lstrcpya": 6181,
    "\u25810x41300b": 6182,
    "\u25810x9630": 6183,
    "a09": 6184,
    "a30": 6185,
    "b98": 6186,
    "\u25810x1fa": 6187,
    "\u25810x41f7": 6188,
    "\u25810x408478": 6189,
    "tab": 6190,
    "\u25810x12115d0": 6191,
    "labe": 6192,
    "\u2581setvolumelabe": 6193,
    "fc0": 6194,
    "lsid": 6195,
    "294": 6196,
    "940": 6197,
    "\u25810x1210fa": 6198,
    "\u2581freeenvironmentstringsa": 6199,
    "e80": 6200,
    "\u25810x28800": 6201,
    "\u25810x1211c40": 6202,
    "ateto": 6203,
    "\u25810x4310": 6204,
    "\u2581setpriorityclass": 6205,
    "565": 6206,
    "deleteatom": 6207,
    "\u2581duplicateto": 6208,
    "\u25810x417b50": 6209,
    "\u25810xa16": 6210,
    "releasec": 6211,
    "releasecontext": 6212,
    "938": 6213,
    "738": 6214,
    "f35": 6215,
    "created": 6216,
    "\u25810x422798": 6217,
    "\u25810x423890": 6218,
    "\u25810x4238c0": 6219,
    "\u2581theprocedureentry": 6220,
    "\u2581initi": 6221,
    "\u25810x1211900": 6222,
    "getuserdefaultuilanguage": 6223,
    "\u2581ls": 6224,
    "dace": 6225,
    "\u2581theprocedureentrypoint": 6226,
    "\u2581myarg": 6227,
    "dcc": 6228,
    "\u2581createprocessasuserw": 6229,
    "\u25810x566a40": 6230,
    "cef": 6231,
    "\u25810x7e00": 6232,
    "\u25810x439880": 6233,
    "\u25810x1211ecc": 6234,
    "3bc": 6235,
    "960": 6236,
    "createthread": 6237,
    "\u2581logon": 6238,
    "\u25810x1211ee8": 6239,
    "1e4": 6240,
    "areex": 6241,
    "quire": 6242,
    "dcompareex": 6243,
    "dcompareexchange": 6244,
    "interlockedcompareexchange": 6245,
    "au": 6246,
    "bed": 6247,
    "screen": 6248,
    "\u25810x7ff": 6249,
    "\u2581initiate": 6250,
    "_202203040": 6251,
    "\u25810x4176": 6252,
    "systemsh": 6253,
    "\u2581initiatesystemsh": 6254,
    "kenex": 6255,
    "_164636": 6256,
    "inet": 6257,
    "\u2581duplicatetokenex": 6258,
    "nexw": 6259,
    "\u25810x41c044": 6260,
    "\u25810x42c5d0": 6261,
    "utdow": 6262,
    "\u2581getprivateprofilesectionname": 6263,
    "theme": 6264,
    "oleload": 6265,
    "\u25810x4201": 6266,
    "\u25810x5658": 6267,
    "oleloadfromstream": 6268,
    "utdownexw": 6269,
    "\u2581initiatesystemshutdownexw": 6270,
    "31c": 6271,
    "\u25810x150": 6272,
    "\u2581setvolumelabelw": 6273,
    "2c5": 6274,
    "\u25810x5c000": 6275,
    "ioco": 6276,
    "setevent": 6277,
    "\u2581globalad": 6278,
    "lengthsid": 6279,
    "\u25810x8ed0": 6280,
    "valuea": 6281,
    "71c": 6282,
    "d5c": 6283,
    "\u2581getlengthsid": 6284,
    "\u2581initializeacl": 6285,
    "\u2581globaldeleteatom": 6286,
    "pys": 6287,
    "pysid": 6288,
    "\u2581getace": 6289,
    "\u2581copysid": 6290,
    "\u2581createprocesswith": 6291,
    "gettokeninformation": 6292,
    "\u25810x422c": 6293,
    "\u25810x4280": 6294,
    "\u25810x433660": 6295,
    "\u2581getsecuritydescriptordacl": 6296,
    "506": 6297,
    "78c": 6298,
    "\u25810x4dd": 6299,
    "getsystemtimes": 6300,
    "\u2581writeprivateprofilesection": 6301,
    "\u2581addace": 6302,
    "\u25810x4a40": 6303,
    "\u2581getacl": 6304,
    "loadacceleratorsw": 6305,
    "\u2581getaclinformation": 6306,
    "\u2581getprivateprofilesectionw": 6307,
    "\u2581getprivateprofilesectionnamesw": 6308,
    "220": 6309,
    "\u25810x421d": 6310,
    "\u25810x42d4f0": 6311,
    "\u2581writeprivateprofilesectionw": 6312,
    "\u25810x181b70": 6313,
    "\u2581msvcr71.__": 6314,
    "d10": 6315,
    "logonw": 6316,
    "\u25810x4990": 6317,
    "\u2581logonuserw": 6318,
    "\u2581freeresource": 6319,
    "\u2581createprocesswithlogonw": 6320,
    "unters": 6321,
    "iocounters": 6322,
    "\u2581getprocessiocounters": 6323,
    "\u25810x4a80": 6324,
    "\u25810x438bd0": 6325,
    "\u25810x4828": 6326,
    "a98": 6327,
    "\u25810x4614d0": 6328,
    "600": 6329,
    "\u25810x3200a": 6330,
    "\u25810x56b868": 6331,
    "menuw": 6332,
    "\u25810x1210e78": 6333,
    "\u25810x1210e7c": 6334,
    "\u25810x5199": 6335,
    "\u2581msvcr71._": 6336,
    "5c0": 6337,
    "f51": 6338,
    "\u25810x42be20": 6339,
    "\u25810x80be": 6340,
    "728": 6341,
    "998": 6342,
    "gedit": 6343,
    "\u2581regedit": 6344,
    "\u25810x423e08": 6345,
    "\u2581globalfin": 6346,
    "\u25810x4912": 6347,
    "f58": 6348,
    "\u25810x45fe": 6349,
    "dp": 6350,
    "\u25810xd8": 6351,
    "\u25810x420a0f": 6352,
    "\u25810x420a10": 6353,
    "\u2581l": 6354,
    "130": 6355,
    "\u25810x45f6": 6356,
    "\u25810x1211db8": 6357,
    "\u2581getdiskfreespaceexa": 6358,
    "\u25810x416be0": 6359,
    "7.": 6360,
    "pre": 6361,
    "\u25810xc94": 6362,
    "\u25810x416c10": 6363,
    "af0": 6364,
    "\u2581ux": 6365,
    "\u25810x40b": 6366,
    "\u25810xa42a40": 6367,
    "\u25810x169bf74": 6368,
    "\u25810x4160": 6369,
    "\u25810x45f5": 6370,
    "a64": 6371,
    "a8c": 6372,
    "\u25810x42a6": 6373,
    "ntsvc": 6374,
    "\u25810x2002": 6375,
    "\u25810x4f60": 6376,
    "03-": 6377,
    "\u2581mso": 6378,
    "2-03-": 6379,
    "\u25810x455": 6380,
    "\u25810x521": 6381,
    "\u25810x45f8": 6382,
    "\u25812022-03-": 6383,
    "\u25810x407": 6384,
    "\u2581lsass": 6385,
    "\u25810x45f3": 6386,
    "\u25810x425590": 6387,
    "\u25810x45f7": 6388,
    "\u25810x45fa": 6389,
    "ef8": 6390,
    "ession": 6391,
    "\u2581clsid": 6392,
    "getwindows": 6393,
    "\u25810x41b0": 6394,
    "fa0": 6395,
    "\u25810x412f": 6396,
    "\u25810x42ba58": 6397,
    "1b8": 6398,
    "\u25810x40a0": 6399,
    "\u2581uxtheme": 6400,
    "\u25810x1211fe0": 6401,
    "rss": 6402,
    "\u2581smss": 6403,
    "\u2581csrss": 6404,
    "\u2581isbad": 6405,
    "ocreate": 6406,
    "\u2581wininit": 6407,
    "\u2581winlogon": 6408,
    "\u2581download": 6409,
    "7d0": 6410,
    "\u25810x45f9": 6411,
    "\u2581systemprocess": 6412,
    "\u25810x4c24": 6413,
    "\u25810x68000": 6414,
    "\u25810x402": 6415,
    "\u25810x4086": 6416,
    "\u25810xffcb": 6417,
    "\u25810x1211e54": 6418,
    "quired": 6419,
    "\u25810x4fc": 6420,
    "getclassinfoa": 6421,
    "1c0": 6422,
    "\u2581msvcr90": 6423,
    "\u2581clsidfrom": 6424,
    "\u2581wcs": 6425,
    "\u25810x8190": 6426,
    "\u2581tw": 6427,
    "\u25810xdd": 6428,
    "couninitialize": 6429,
    "d38": 6430,
    "d24": 6431,
    "oleinitialize": 6432,
    "14c": 6433,
    "202e": 6434,
    "adc": 6435,
    "connec": 6436,
    "e0c": 6437,
    "\u25810x4232": 6438,
    "9d8": 6439,
    "f17": 6440,
    "\u25810x41ba": 6441,
    "\u25810x4233": 6442,
    "\u25810x8f70": 6443,
    "\u25810x4601": 6444,
    "so": 6445,
    "\u25810x45fd": 6446,
    "\u25810x5000": 6447,
    "3da": 6448,
    "715": 6449,
    "printer": 6450,
    "_164638": 6451,
    "\u2581getsystemdirectorya": 6452,
    "\u25810x9640": 6453,
    "\u25810x45ff": 6454,
    "\u25810x41af": 6455,
    "\u2581getsavefilenamew": 6456,
    "3a0": 6457,
    "\u25810x42558f": 6458,
    "\u2581globalrealloc": 6459,
    "3d4": 6460,
    "\u25810x5617": 6461,
    "\u258112": 6462,
    "\u25810x1860": 6463,
    "\u2581qt": 6464,
    "\u25810x4184": 6465,
    "beginpaint": 6466,
    "\u25810x169bc5c": 6467,
    "\u2581setsearchpathmode": 6468,
    "a86": 6469,
    "\u25810x9af0": 6470,
    "\u25810x71000000": 6471,
    "a78": 6472,
    "bfc": 6473,
    "\u25810x44000": 6474,
    "setsearchpathmode": 6475,
    "_164632": 6476,
    "\u25810x44180": 6477,
    "\u2581unlockservicedatabase": 6478,
    "334": 6479,
    "50c": 6480,
    "df8": 6481,
    "\u25810x4a7": 6482,
    "\u2581required": 6483,
    "10428.": 6484,
    "\u2581tw10428.": 6485,
    "\u2581lockservicedatabase": 6486,
    "toi": 6487,
    "16c": 6488,
    "690": 6489,
    "9e0": 6490,
    "a87": 6491,
    "\u25810x9d10": 6492,
    "bd8": 6493,
    "ce1": 6494,
    "d2c": 6495,
    "pool": 6496,
    "\u25810xa4a0": 6497,
    "bb4": 6498,
    "\u25810x440": 6499,
    "\u25810x42efe8": 6500,
    "\u25810x4c42d0": 6501,
    "dc9": 6502,
    "fb8": 6503,
    "\u2581e000": 6504,
    "\u25810x4c4468": 6505,
    "\u25810x4c46a0": 6506,
    "80004005": 6507,
    "\u2581error0x80004005": 6508,
    "this": 6509,
    "158": 6510,
    "\u25810x4134": 6511,
    "\u25810xfff3": 6512,
    "lstrcata": 6513,
    "\u2581globalhandle": 6514,
    "7c8": 6515,
    "fad": 6516,
    "\u25810x2439f74": 6517,
    "396": 6518,
    "48c": 6519,
    "\u25810x403": 6520,
    "2e2": 6521,
    "\u25810x40e7": 6522,
    "\u25810xfff2": 6523,
    "\u2581lstrcmpa": 6524,
    "a7c": 6525,
    "\u25810x4efd98": 6526,
    "\u2581update": 6527,
    "20c": 6528,
    "7e8": 6529,
    "fd4": 6530,
    "\u2581v": 6531,
    "a50": 6532,
    ".??": 6533,
    "\u25810x9ad0": 6534,
    "\u25810x4305c8": 6535,
    "\u25810x4305e0": 6536,
    "bf8": 6537,
    "\u25810x22e": 6538,
    "\u25810x8f40": 6539,
    "adaptersinfo": 6540,
    "upp": 6541,
    "seek": 6542,
    "\u25810x8de0": 6543,
    "fy": 6544,
    "345": 6545,
    "endpaint": 6546,
    "af8": 6547,
    "\u25810x41ab": 6548,
    "\u25810x9a70": 6549,
    "da9": 6550,
    "\u25810x427": 6551,
    "\u25810x3f2210": 6552,
    "\u25810x42b964": 6553,
    "\u25810xbe": 6554,
    "waitfor": 6555,
    "c01": 6556,
    "_164635": 6557,
    "fromlog": 6558,
    "createc": 6559,
    "64c": 6560,
    "\u25810x9c30": 6561,
    "9c6": 6562,
    "3cc": 6563,
    "transform": 6564,
    "60c": 6565,
    "fdd": 6566,
    "374": 6567,
    "a69": 6568,
    "\u25810x430598": 6569,
    "7a0": 6570,
    "lser": 6571,
    "eb8": 6572,
    "\u25810x42ebc0": 6573,
    "\u25810xa3a7b0": 6574,
    "bbc": 6575,
    "sions": 6576,
    "\u25810x120fb30": 6577,
    "\u25810x169bf94": 6578,
    "myarg1myarg2": 6579,
    "xh": 6580,
    "307": 6581,
    "dee": 6582,
    "\u25810x51b": 6583,
    "\u25810xa42980": 6584,
    "\u25810xfeee019": 6585,
    "exemyarg1myarg2": 6586,
    "974": 6587,
    "lib": 6588,
    "\u2581peekmessagea": 6589,
    "317": 6590,
    "\u25810x84b": 6591,
    "\u25810x1211c00": 6592,
    "olortransform": 6593,
    "\u25810xa3a768": 6594,
    "createdevice": 6595,
    "d70": 6596,
    "spacew": 6597,
    "colorspacew": 6598,
    "olortransformw": 6599,
    "profilefromlog": 6600,
    "profilefromlogcolorspacew": 6601,
    "\u258128": 6602,
    "\u25810xa210": 6603,
    "amut": 6604,
    "singamut": 6605,
    "\u25810x423326": 6606,
    "\u25810x423327": 6607,
    "checkcolor": 6608,
    "linkprofile": 6609,
    "checkcolorsingamut": 6610,
    "createcolortransformw": 6611,
    "createdevicelinkprofile": 6612,
    "createprofilefromlogcolorspacew": 6613,
    "\u25810x70000": 6614,
    "threadprocessid": 6615,
    "\u2581getwindowthreadprocessid": 6616,
    "148": 6617,
    "utt": 6618,
    "\u25810x4650": 6619,
    "textoutw": 6620,
    "lientrect": 6621,
    "\u25810x46b400": 6622,
    "\u25810x6ba": 6623,
    "\u25810x4199": 6624,
    "\u25810x4240": 6625,
    "aae": 6626,
    "10e": 6627,
    "\u25810x43a4": 6628,
    "\u25810x534": 6629,
    "\u25810x42759f": 6630,
    "\u25810x4275a0": 6631,
    "3d6": 6632,
    "\u25810xfeee00f3": 6633,
    "\u25810xb7": 6634,
    "\u25810x40b4": 6635,
    "\u25810x423d90": 6636,
    "\u25810x423dc0": 6637,
    "\u25810xfeee00f2": 6638,
    "f16": 6639,
    "winexec": 6640,
    "\u25810x40d8": 6641,
    "\u25810x80c458": 6642,
    "acd": 6643,
    "\u25810x46b": 6644,
    "305": 6645,
    "b6c": 6646,
    "\u2581qt5": 6647,
    "\u25810xb2": 6648,
    "\u2581atoi": 6649,
    "dd6": 6650,
    "\u25810x5f6": 6651,
    "\u25810x50e10": 6652,
    "9c24": 6653,
    "\u25810x500000": 6654,
    "a43": 6655,
    "ce6": 6656,
    "\u25810x5218": 6657,
    "datoma": 6658,
    "\u2581con": 6659,
    "erstart": 6660,
    "\u2581loaderstart": 6661,
    "\u25810x9730": 6662,
    "\u25810x42bdc8": 6663,
    "\u25810x42bdf8": 6664,
    "\u25810x1211f50": 6665,
    "\u25810x5f3": 6666,
    "270": 6667,
    "970": 6668,
    "flags": 6669,
    "b46": 6670,
    "\u25810x4ff": 6671,
    "\u25810x60c690": 6672,
    "\u2581filenotfound": 6673,
    "a60": 6674,
    "\u25810x431828": 6675,
    "gro": 6676,
    "\u2581wininet": 6677,
    "\u2581cq": 6678,
    "\u25810x435000": 6679,
    "\u25810x4606": 6680,
    "\u25810x1211d30": 6681,
    "su": 6682,
    "bec": 6683,
    "toc": 6684,
    "\u25810x427f": 6685,
    "\u25810x9c80": 6686,
    "\u25810x52668": 6687,
    "9.": 6688,
    "920": 6689,
    "\u258114": 6690,
    "\u25810xf000": 6691,
    "\u25810x411555": 6692,
    "\u25810x411556": 6693,
    "\u2581getuserdefaultlcid": 6694,
    "910": 6695,
    "getthreadpreferreduilanguages": 6696,
    "tag": 6697,
    "mapi": 6698,
    "a65": 6699,
    "\u25810x433860": 6700,
    "f3e": 6701,
    "vie": 6702,
    "\u258124": 6703,
    "server": 6704,
    "\u25810xffd4": 6705,
    "\u25810x22002": 6706,
    "a66": 6707,
    "397": 6708,
    "ab5": 6709,
    ".(0x": 6710,
    "\u25810x9850": 6711,
    "\u25810x120fe": 6712,
    "\u25810x4139": 6713,
    "\u25810x40300": 6714,
    "\u2581formatmessagea": 6715,
    "\u25810x4df": 6716,
    "\u25810x4c97": 6717,
    "movefilea": 6718,
    "only": 6719,
    "2c4": 6720,
    "\u25810x40ac": 6721,
    "\u25810x99c0": 6722,
    "33a": 6723,
    "58c": 6724,
    "\u2581dw": 6725,
    "\u2581....": 6726,
    "\u258118": 6727,
    "7978": 6728,
    "drl6660drl6660drl6660drl6660drl6660drl6660drl6660drl6660": 6729,
    "atexit": 6730,
    "\u25810x1808": 6731,
    "modi": 6732,
    "\u2581char": 6733,
    "\u25810x464": 6734,
    "\u25810x454": 6735,
    "fr": 6736,
    "\u2581dwmapi": 6737,
    "\u25810x1211ce0": 6738,
    "ab9": 6739,
    "f98": 6740,
    "db5": 6741,
    "dd7": 6742,
    "ec9": 6743,
    "\u2581cryptbase": 6744,
    "90c": 6745,
    "7ea": 6746,
    "b34": 6747,
    "e4f": 6748,
    "\u25810x4079": 6749,
    "d78": 6750,
    "netw": 6751,
    "150": 6752,
    "\u2581qt5core": 6753,
    "\u25810x11dbe": 6754,
    "\u25810xffd1": 6755,
    "\u2581security": 6756,
    "69e": 6757,
    "\u25810xffc8": 6758,
    "580": 6759,
    "\u25810x4316": 6760,
    "\u25810x9600": 6761,
    "5.": 6762,
    "plor": 6763,
    "ventlog": 6764,
    "\u25810x4020": 6765,
    "handleexw": 6766,
    "314": 6767,
    "dd0": 6768,
    "star": 6769,
    "network": 6770,
    "\u25810x434280": 6771,
    "\u25810x4363c0": 6772,
    "plorer": 6773,
    "\u25810x433378": 6774,
    "\u25810x434268": 6775,
    "\u25810x1211b74": 6776,
    "\u2581setprocessdeppolicy": 6777,
    "a99": 6778,
    "\u25810x423baf": 6779,
    "\u25810x423bb0": 6780,
    "be0": 6781,
    "\u25810x560": 6782,
    "bd7": 6783,
    "\u2581ps": 6784,
    "\u25810x1a0": 6785,
    "\u25810x40b7": 6786,
    "\u25810x41cbd0": 6787,
    "2c6": 6788,
    "3e4": 6789,
    "b55": 6790,
    "df0": 6791,
    "ef4": 6792,
    "\u25810xa6b0": 6793,
    "\u2581internet": 6794,
    "\u2581userenv": 6795,
    "\u2581msvcr90._": 6796,
    "\u25810x40000": 6797,
    "\u2581lstrcmpw": 6798,
    "2e8": 6799,
    "a24": 6800,
    "\u25810x42b6": 6801,
    "a02": 6802,
    "a74": 6803,
    "parent": 6804,
    "\u25810x4093e8": 6805,
    "stor": 6806,
    "647": 6807,
    "a28": 6808,
    "f38": 6809,
    "\u25810x4093e5": 6810,
    "\u25810x4093e6": 6811,
    "\u25810x4093e7": 6812,
    "out": 6813,
    "7ac": 6814,
    "b7c": 6815,
    "\u25810x4cf0": 6816,
    "regopenkeya": 6817,
    "950": 6818,
    "a89": 6819,
    "\u25810x468": 6820,
    "handler": 6821,
    "db8": 6822,
    "\u25810x616": 6823,
    "\u2581psapi": 6824,
    "\u25810x427000": 6825,
    "setprocessdeppolicy": 6826,
    "9c5": 6827,
    "\u25810x423de0": 6828,
    "\u25810x599": 6829,
    "\u25810xff86": 6830,
    "\u25810x41a044": 6831,
    "646": 6832,
    "\u25810x134": 6833,
    "\u25810x1211b50": 6834,
    "atalog": 6835,
    "\u25810x409c": 6836,
    "bc6": 6837,
    "117": 6838,
    "\u258116": 6839,
    "setthreadlocale": 6840,
    "qae": 6841,
    "\u25810x4feaac": 6842,
    "storage": 6843,
    "connector": 6844,
    "textex": 6845,
    "\u25810x4170d4": 6846,
    "\u25810x4170d5": 6847,
    "\u25810x41b8": 6848,
    "\u25810x4364": 6849,
    "\u25810x40a3e": 6850,
    "\u25810x42c0a4": 6851,
    "utton": 6852,
    "paramet": 6853,
    "\u25810xa260": 6854,
    "c1b": 6855,
    "extex": 6856,
    "rn": 6857,
    "button": 6858,
    "001": 6859,
    "\u258126": 6860,
    "strcmp": 6861,
    "\u25810x42f1": 6862,
    "\u25810x1211b54": 6863,
    "isc": 6864,
    "\u25810xd4": 6865,
    "502": 6866,
    "7b8": 6867,
    "aa8": 6868,
    "c8e": 6869,
    "f24": 6870,
    "_164639": 6871,
    "\u25810x9a60": 6872,
    "\u25810x41e1d8": 6873,
    "viewportextex": 6874,
    "15c": 6875,
    "1740": 6876,
    "\u25810x8490": 6877,
    "\u2581oleacc": 6878,
    "\u25810x940000": 6879,
    "\u2581iswow64process": 6880,
    "media": 6881,
    "\u2581corexitprocess": 6882,
    "\u25810x52669": 6883,
    "\u25810x422470": 6884,
    "\u25810x4d7978": 6885,
    "\u2581globalflags": 6886,
    "520": 6887,
    "\u258119": 6888,
    "\u25810xb1": 6889,
    "\u25810xff69": 6890,
    "351": 6891,
    "741": 6892,
    "6d8": 6893,
    "e100": 6894,
    "\u25810x56bb": 6895,
    "\u25810x66000": 6896,
    "7d8": 6897,
    "df5": 6898,
    "\u25810x3f2000(": 6899,
    "\u2581micromedia": 6900,
    "im": 6901,
    "76c": 6902,
    "9f0": 6903,
    "dd8": 6904,
    "\u25810x5937": 6905,
    "\u25810x188e4c": 6906,
    "\u25810x422788": 6907,
    "\u2581dispatchmessagew": 6908,
    "getwindowsdirectorya": 6909,
    "\u25810xb6": 6910,
    "\u25810x4259": 6911,
    "3d2": 6912,
    "cod": 6913,
    "f45": 6914,
    "torgex": 6915,
    "atalogs": 6916,
    "\u25810x4ddb24": 6917,
    "viewportorgex": 6918,
    "rnl": 6919,
    "\u258115": 6920,
    "\u25810x42ea": 6921,
    "\u25810x414138": 6922,
    "\u25810x414168": 6923,
    "\u25810x500410": 6924,
    "\u25810xffca": 6925,
    "\u2581runonce": 6926,
    "\u25810x1211370": 6927,
    "3ac": 6928,
    "\u2581nto": 6929,
    "\u25810x42aa": 6930,
    "\u25810x461518": 6931,
    "61c": 6932,
    "\u25810x10e": 6933,
    "\u25810x40f1": 6934,
    "\u25810x43d3d8": 6935,
    "315": 6936,
    "7c5": 6937,
    "\u25810x450": 6938,
    "\u25810x4093e9": 6939,
    "\u25810x4093ea": 6940,
    "\u25810x4093eb": 6941,
    "\u25810x120e6dc": 6942,
    "skrnl": 6943,
    "\u2581ntoskrnl": 6944,
    "379": 6945,
    "\u25810x131": 6946,
    "\u25810x4c33": 6947,
    "\u25810x423d78": 6948,
    "\u25810x423e38": 6949,
    "\u25810x1211e80": 6950,
    "fd3": 6951,
    "\u25810x94f0": 6952,
    "\u25810x74000": 6953,
    "scouldnotbelocatedinthedll": 6954,
    "119": 6955,
    "aec": 6956,
    "bc9": 6957,
    "\u2581localrealloc": 6958,
    "695": 6959,
    "94c": 6960,
    "datet": 6961,
    "\u25810x53b5": 6962,
    "\u25810x4c32d8": 6963,
    "\u25810x4c32f0": 6964,
    "%2": 6965,
    "68b": 6966,
    "\u25810xfeee00cc": 6967,
    "argvw": 6968,
    "toargvw": 6969,
    "\u25810x7920": 6970,
    "commandlinetoargvw": 6971,
    "790": 6972,
    "7f4": 6973,
    "da8": 6974,
    "\u25810x414c": 6975,
    "\u25810x8000000": 6976,
    "645": 6977,
    "\u25810x4040": 6978,
    "\u25810x599b5c": 6979,
    "\u25810x599c24": 6980,
    "\u25810x59bf3c": 6981,
    "\u25810x59bf7c": 6982,
    "\u25810x59c120": 6983,
    "\u25810x59c138": 6984,
    "\u25810xfeee00cd": 6985,
    "el": 6986,
    "22c": 6987,
    "354": 6988,
    "dfc": 6989,
    "1a0": 6990,
    "296": 6991,
    "___": 6992,
    "\u25810xfeee00ce": 6993,
    "ware": 6994,
    "\u25810xfeee00cf": 6995,
    "\u25810x45fb": 6996,
    "312": 6997,
    "d58": 6998,
    "311": 6999,
    "e49": 7000,
    "\u25810x4ffffc": 7001,
    "\u25810x1211d44": 7002,
    "menus": 7003,
    "\u2581ns": 7004,
    "pass": 7005,
    "\u25810xa010": 7006,
    "\u2581getmenus": 7007,
    "\u25810xa9a0": 7008,
    "9f8": 7009,
    "\u25810x170": 7010,
    "\u25810x429818": 7011,
    "\u25810x5617a8": 7012,
    "\u25810x40935d": 7013,
    "\u25810x40935e": 7014,
    "\u25810x40935f": 7015,
    "\u25810x409360": 7016,
    "\u25810x409361": 7017,
    "\u25810x409362": 7018,
    "\u25810x409363": 7019,
    "d05": 7020,
    "115": 7021,
    "\u25810x4ac": 7022,
    "\u25810xffed": 7023,
    "shgetfile": 7024,
    "\u25810x1211ebc": 7025,
    "\u25810x16000": 7026,
    "8!": 7027,
    "375": 7028,
    "746": 7029,
    "vip": 7030,
    "\u2581cl": 7031,
    "charpre": 7032,
    "prvip": 7033,
    "\u25810xdc": 7034,
    "\u25810xfeee00d7": 7035,
    "\u25810xfeee00f0": 7036,
    "e69": 7037,
    "a32": 7038,
    "\u25810x4c0": 7039,
    "setcurrent": 7040,
    "d9f": 7041,
    "\u2581nsis": 7042,
    "\u2581nsiserror": 7043,
    "\u25810xfeee00f5": 7044,
    "\u2581yo": 7045,
    "\u2581mys": 7046,
    "\u25810x1bf9": 7047,
    "\u25810x42fc68": 7048,
    "ere": 7049,
    "fc6": 7050,
    "\u2581ag": 7051,
    "20202e": 7052,
    "\u25810x518": 7053,
    "\u25810xffc9": 7054,
    "\u25810x7dc4": 7055,
    "\u25810x8838": 7056,
    "ocreateinst": 7057,
    "3b6": 7058,
    "754": 7059,
    "7ce": 7060,
    "mi": 7061,
    "\u2581db": 7062,
    "placement": 7063,
    "9b4": 7064,
    "\u25810x423d68": 7065,
    "\u25810x438378": 7066,
    "\u25810x598740": 7067,
    "2d8": 7068,
    "\u25810x423e28": 7069,
    "\u2581task": 7070,
    "\u25810x4c10": 7071,
    "\u25810x7dd9": 7072,
    "\u25810x8839": 7073,
    "\u25810xa420": 7074,
    "9d0": 7075,
    "\u25810x41aa": 7076,
    "\u25810x409aa4": 7077,
    "ht": 7078,
    "\u2581lp": 7079,
    "\u25810x4ec": 7080,
    "\u25810x409aa5": 7081,
    "\u25810x4350c8": 7082,
    "\u25810x1210e80": 7083,
    "\u2581taskbar": 7084,
    "122": 7085,
    "ad5": 7086,
    "\u25810x467": 7087,
    "\u25810x7dd0": 7088,
    "ll": 7089,
    "\u25810x40a7": 7090,
    "getcurrentdirectorya": 7091,
    "a68": 7092,
    "\u25810x7dc5": 7093,
    ".%": 7094,
    "ed0": 7095,
    "brow": 7096,
    "keya": 7097,
    "\u2581ext": 7098,
    "a9b": 7099,
    "cale": 7100,
    "\u2581scale": 7101,
    "\u25810x419ce0": 7102,
    "a06": 7103,
    "a94": 7104,
    "ee9": 7105,
    "getthread": 7106,
    "\u25810x26000": 7107,
    "\u25810x432378": 7108,
    "\u25810x1211ed8": 7109,
    "2f5": 7110,
    "dimen": 7111,
    "bc5": 7112,
    "\u258134": 7113,
    "dimensions": 7114,
    "66c": 7115,
    "\u25810x9940": 7116,
    "fic": 7117,
    "\u25810x1b0": 7118,
    "\u25810x4353c0": 7119,
    "295": 7120,
    "e74": 7121,
    "\u25810xe4": 7122,
    "\u25810x53e498": 7123,
    "\u25810x41cc54": 7124,
    "\u25810x120f8a6": 7125,
    "qld": 7126,
    "\u25810x87": 7127,
    "\u2581show": 7128,
    "seekto": 7129,
    "\u25810x4012": 7130,
    "\u25810x4604": 7131,
    "\u25810x433268": 7132,
    "\u25810x433280": 7133,
    "\u25810x3200a48": 7134,
    "\u2581failedtoseekto": 7135,
    "355": 7136,
    "\u25810x569b48": 7137,
    "\u25810x169bf28": 7138,
    "198": 7139,
    "3ad": 7140,
    "a85": 7141,
    "startof": 7142,
    "\u2581mysqld": 7143,
    "\u2581agntsvc": 7144,
    "startoffile": 7145,
    "\u2581getwindowrect": 7146,
    "\u2581failedtoseektostartoffile": 7147,
    "parameters": 7148,
    "1c6": 7149,
    "ab6": 7150,
    "\u2581my": 7151,
    "b888": 7152,
    "pand": 7153,
    "\u25810x4335": 7154,
    "application": 7155,
    "inmodule": 7156,
    "\u25810x430828": 7157,
    "\u25810xfeee00d5": 7158,
    "\u25810x7dd": 7159,
    "\u25810x4060": 7160,
    "\u25810xfeee00d6": 7161,
    "nd": 7162,
    "\u2581failedtoinitializeenginesection": 7163,
    "fdc": 7164,
    "\u25810x524a40": 7165,
    "controlset": 7166,
    "\u2581currentcontrolset": 7167,
    "\u25810xde": 7168,
    "withtag": 7169,
    "\u25810x5266c": 7170,
    "lstrcmpia": 7171,
    "\u25810x411bc0": 7172,
    "\u25810x4208e0": 7173,
    "exallocate": 7174,
    "poolwithtag": 7175,
    "exallocatepoolwithtag": 7176,
    "d46": 7177,
    "fa6": 7178,
    "605": 7179,
    "a49": 7180,
    "ldr": 7181,
    "\u25810x4217": 7182,
    "_202203031": 7183,
    "00e": 7184,
    "392": 7185,
    "709": 7186,
    "shellexecutea": 7187,
    "\u2581failedtoinitializeenginestate": 7188,
    "f3c": 7189,
    "\u25810x4605": 7190,
    "fox": 7191,
    "will": 7192,
    "30c": 7193,
    "\u25810x401324": 7194,
    "\u25810x424470": 7195,
    "1a4": 7196,
    "\u2581ndr": 7197,
    "2c0": 7198,
    "\u2581ndrd": 7199,
    "\u25810x442": 7200,
    "750": 7201,
    "a9a": 7202,
    "\u258110": 7203,
    "\u25810x169ba04": 7204,
    "a5b": 7205,
    "instal": 7206,
    "3b2": 7207,
    "d34": 7208,
    "\u25810x4127": 7209,
    "\u25810x9290": 7210,
    "\u25810x1210e84": 7211,
    "\u2581movefilea": 7212,
    "329": 7213,
    "37c": 7214,
    "\u25810x7df9": 7215,
    "\u25810x39569": 7216,
    "006": 7217,
    "\u258125": 7218,
    "\u25810x431f68": 7219,
    "225": 7220,
    "b3c": 7221,
    "_164637": 7222,
    "\u25810x7df8": 7223,
    "\u25810x169bc04": 7224,
    "\u25810x169bd04": 7225,
    "1b0": 7226,
    "5e8": 7227,
    "\u25810x4219": 7228,
    "\u25810x41688a": 7229,
    "\u25810x41688b": 7230,
    "\u25810x4208df": 7231,
    "bdc": 7232,
    "rap": 7233,
    "\u25810x7eaba8": 7234,
    "\u25810xfeee00d8": 7235,
    "\u25810x4324": 7236,
    "bf1": 7237,
    "fa4": 7238,
    "3ec": 7239,
    "f96": 7240,
    "\u25810x419cb0": 7241,
    "\u25810x2010": 7242,
    "\u25810xfeee00d9": 7243,
    "f10": 7244,
    "\u25810x2b4": 7245,
    "\u25810x4540": 7246,
    "\u25810x416b2": 7247,
    "\u25810x416c0": 7248,
    "\u25810x416242": 7249,
    "\u25810x416243": 7250,
    "\u25810x42a0a0": 7251,
    "\u25810xfeee00d0": 7252,
    "3de": 7253,
    "9c4": 7254,
    "\u25810x1211e38": 7255,
    "oa": 7256,
    "\u25810xfeee00d1": 7257,
    "365": 7258,
    "mta": 7259,
    "\u25810x4175": 7260,
    "\u25810xfeee00d2": 7261,
    "7a7": 7262,
    "7c7": 7263,
    "\u2581map": 7264,
    "\u25810x4258": 7265,
    "\u25810x413f": 7266,
    "aget": 7267,
    "agetime": 7268,
    "edureaddress": 7269,
    "getprocedureaddress": 7270,
    "1c4": 7271,
    "2d0": 7272,
    "xz": 7273,
    "745": 7274,
    "bd5": 7275,
    "\u25810x7eec": 7276,
    "findresourcea": 7277,
    "35c": 7278,
    "\u2581setmenu": 7279,
    "\u25810x2200220": 7280,
    "\u25810xfeee00da": 7281,
    "\u25810x7dc9": 7282,
    "\u25810xa427": 7283,
    "\u25810xfeee00d3": 7284,
    "eta": 7285,
    "50000": 7286,
    "ob": 7287,
    "std": 7288,
    "20224": 7289,
    "\u25810x3f2420": 7290,
    "b96": 7291,
    "bf4": 7292,
    "70656": 7293,
    "d0a64": 7294,
    "\u25810x4700": 7295,
    "\u25810xffe8": 7296,
    "\u25810x40a58c": 7297,
    "\u25810xfeee00d4": 7298,
    "ryptacquirecontexta": 7299,
    "3a5265": 7300,
    "2022433a": 7301,
    "\u25810x64000": 7302,
    "1740d0a64": 7303,
    "\u25810x200020": 7304,
    "3a526570656": 7305,
    "656c2022433a": 7306,
    "\u2581arefileapisansi": 7307,
    "3a5265706561740d0a64": 7308,
    "3a5265706561740d0a64656c2022433a": 7309,
    "\u25810x47ee": 7310,
    "\u25810x40a57c": 7311,
    "\u25810x522": 7312,
    "\u25810x4718": 7313,
    "\u25810x7f8003": 7314,
    "\u25810x7f8004": 7315,
    "\u25810x7f8005": 7316,
    "\u25810x7f8006": 7317,
    "\u25810x7f8007": 7318,
    "\u25810x7f8008": 7319,
    "\u25810x7f8009": 7320,
    "\u25810x7f800a": 7321,
    "\u25810x7f800b": 7322,
    "\u25810x7f800c": 7323,
    "\u25810x7f800d": 7324,
    "tho": 7325,
    "\u25810x4011": 7326,
    "\u25810x41d2": 7327,
    "\u25810x7eed": 7328,
    "\u25810xcccc": 7329,
    "\u25810x1211f68": 7330,
    "128": 7331,
    "\u258120": 7332,
    "\u25810x7f800e": 7333,
    "\u25810x43f6": 7334,
    "\u25810x5676": 7335,
    "openprocess": 7336,
    "_4": 7337,
    "bac": 7338,
    "dlldll": 7339,
    "\u25810x600": 7340,
    "\u25810x7f800f": 7341,
    "\u25810x3f2000(3a5265706561740d0a64656c2022433a": 7342,
    "f69": 7343,
    "\u25810x42b4": 7344,
    "\u25810x41cba4": 7345,
    "getspecialfolder": 7346,
    "546": 7347,
    "b66": 7348,
    "\u25810x428e": 7349,
    "f2c": 7350,
    "bd6": 7351,
    "b2c": 7352,
    "ded": 7353,
    "\u25810x4354": 7354,
    "\u25810x1211b08": 7355,
    "212": 7356,
    "a0d": 7357,
    "ally": 7358,
    "\u25810x1211dbc": 7359,
    "727": 7360,
    "zip": 7361,
    "\u25810x44b7": 7362,
    "\u25810x7dcc": 7363,
    "l1-1-0.__": 7364,
    "\u25810x1210cf0": 7365,
    "\u25810x41d0": 7366,
    "\u25810x1211bf4": 7367,
    "9a8": 7368,
    "75c8": 7369,
    "\u25810x169b9c0": 7370,
    "\u25810xfeee00db": 7371,
    "\u25810xa41": 7372,
    "\u25810x7dd4": 7373,
    "createfilemappinga": 7374,
    "ldrgetprocedureaddress": 7375,
    "2b8": 7376,
    "codeptr": 7377,
    "\u2581isbadcodeptr": 7378,
    "fed": 7379,
    "\u25810x12117ec": 7380,
    "\u2581globaladdatomw": 7381,
    "33c4": 7382,
    "exist": 7383,
    "\u25810x7dd8": 7384,
    "\u2581getvolumeinformationa": 7385,
    "19e": 7386,
    "705": 7387,
    "\u2581log": 7388,
    "\u25810x1211cf4": 7389,
    "setfilepointerex": 7390,
    "9bc": 7391,
    "\u25810x7dd1": 7392,
    "ready": 7393,
    "\u25810x4607": 7394,
    "\u25810x7e30": 7395,
    "\u25810x58de50": 7396,
    "isctype": 7397,
    "\u25810x7ac0": 7398,
    "\u25810x7dcd": 7399,
    "\u25810x1211cb8": 7400,
    "?$": 7401,
    "\u25810x7ddc": 7402,
    "\u2581globalfindatomw": 7403,
    "b1e": 7404,
    "3b4": 7405,
    "ache": 7406,
    "\u25810x4d5": 7407,
    "\u25810x1211438": 7408,
    "\u25810x1211e4c": 7409,
    "134": 7410,
    "844": 7411,
    "ad6": 7412,
    "b33": 7413,
    "\u25810x4608": 7414,
    "a56": 7415,
    "\u25810x422778": 7416,
    "d49": 7417,
    "\u25810x48ec": 7418,
    "\u25810x7dd5": 7419,
    "waitforsingleobject": 7420,
    "\u25810x4298a8": 7421,
    "\u25810x4298d8": 7422,
    "\u25810x4f6200": 7423,
    "\u25810x1211fb4": 7424,
    "7e9": 7425,
    "7c9": 7426,
    "ffset": 7427,
    "\u25810x80000": 7428,
    "\u2581offset": 7429,
    "\u2581youm": 7430,
    "\u25810x7ddd": 7431,
    "messagepos": 7432,
    "ec6": 7433,
    "\u25810xf4": 7434,
    "\u25810x4dc": 7435,
    "\u25810x427f70": 7436,
    "\u2581shgetspecialfolder": 7437,
    "fd9": 7438,
    "\u25810x426f": 7439,
    "fae": 7440,
    "\u2581af": 7441,
    "enable": 7442,
    "ba4": 7443,
    "ee2": 7444,
    "3a20": 7445,
    "\u25810xff92": 7446,
    "\u25810x169bec8": 7447,
    "pathnamea": 7448,
    "765": 7449,
    "\u25810x8554": 7450,
    "!_": 7451,
    "f71": 7452,
    "frompoint": 7453,
    "jh": 7454,
    "7dc": 7455,
    "ed1": 7456,
    "\u25810x3010": 7457,
    "\u25810x4190": 7458,
    "266": 7459,
    "3fc": 7460,
    "\u25810x1b5": 7461,
    "\u2581cocreateinst": 7462,
    "enh": 7463,
    "fcc": 7464,
    "\u2581bo": 7465,
    "\u25810x43b4": 7466,
    "\u2581messageboxw": 7467,
    "\u25810x40d9": 7468,
    "a39": 7469,
    "\u25810x108": 7470,
    "\u25810xa3a0": 7471,
    "\u25810x169bf04": 7472,
    "ord": 7473,
    "919": 7474,
    "strlen": 7475,
    "181": 7476,
    "33c": 7477,
    "b74": 7478,
    "\u25810x1211f0c": 7479,
    "deletefilea": 7480,
    "mt": 7481,
    "a55": 7482,
    "\u25810x169bf2c": 7483,
    "a1c": 7484,
    "\u25810x1211e0c": 7485,
    "146": 7486,
    "97.": 7487,
    "3d28": 7488,
    "\u25810xb9": 7489,
    "\u25810x41ac": 7490,
    "\u2581getdlgitem": 7491,
    "fc42.": 7492,
    "\u25810x1211584": 7493,
    "\u2581=": 7494,
    "336": 7495,
    "e46": 7496,
    "\u25810xfeee00dc": 7497,
    "\u25810x502dc": 7498,
    "\u25810x400108": 7499,
    "15f": 7500,
    "\u25810xffdf": 7501,
    "302": 7502,
    "unch": 7503,
    "points": 7504,
    "\u25810x115": 7505,
    "\u25810x7f4": 7506,
    "\u25810x40eeca": 7507,
    "\u25810x40eecb": 7508,
    "ad9": 7509,
    "ae00": 7510,
    "owlower": 7511,
    "\u25810x417da0": 7512,
    "\u25810x420f2": 7513,
    "\u25810x42b0a0": 7514,
    "f95": 7515,
    "\u25810x4366": 7516,
    "yd": 7517,
    "\u2581cadwork": 7518,
    "\u25810x417d9f": 7519,
    "111": 7520,
    "e14": 7521,
    "onfig": 7522,
    "\u2581peek": 7523,
    "\u25810x42390": 7524,
    "185": 7525,
    "7c0": 7526,
    "\u25810x4378b0": 7527,
    "\u25810xfeee00dd": 7528,
    "dff": 7529,
    "\u25810x40ef1b": 7530,
    "\u2581outputdebugstringa": 7531,
    "\u25810x478": 7532,
    "\u25810x740": 7533,
    "alse": 7534,
    "\u25810x2357b": 7535,
    "\u2581releasedc": 7536,
    "che": 7537,
    "\u25810x40ef1a": 7538,
    "\u25810xfeee00de": 7539,
    "376": 7540,
    "916": 7541,
    "b16": 7542,
    "f3a": 7543,
    "mark": 7544,
    "\u25810xe9": 7545,
    "\u25810xa710": 7546,
    "3e5": 7547,
    "tore": 7548,
    "atione": 7549,
    "2fc": 7550,
    "385": 7551,
    "755": 7552,
    "a3c": 7553,
    "f99": 7554,
    "getconsolewindow": 7555,
    "\u25810x4602": 7556,
    "\u25810x1211888": 7557,
    "\u25810x6940": 7558,
    "767": 7559,
    "\u25810x4066": 7560,
    "250": 7561,
    "\u25810x4b7": 7562,
    "\u25810x58c034": 7563,
    "2020202020202020": 7564,
    "\u25810x40b0": 7565,
    "\u25810x40c8": 7566,
    "234": 7567,
    "\u25810x4218": 7568,
    "\u25810xfffffffe": 7569,
    "\u25810xbb": 7570,
    "339": 7571,
    "357": 7572,
    "\u25810x42a4": 7573,
    "\u25810x4c30": 7574,
    "f05": 7575,
    "active": 7576,
    "frominternet": 7577,
    "ae4": 7578,
    "cc5": 7579,
    "df4": 7580,
    "\u25810x40e5": 7581,
    "\u25810x41e9": 7582,
    "qstring": 7583,
    "\u25810x88d0": 7584,
    "checkmark": 7585,
    "\u2581systemparameters": 7586,
    "checkmarkdimensions": 7587,
    "485": 7588,
    "applet": 7589,
    "\u25810x4c27": 7590,
    "launch": 7591,
    "\u25810xa41f": 7592,
    "a46": 7593,
    "\u25810x4251": 7594,
    "235": 7595,
    "ctr": 7596,
    "\u25810xe6": 7597,
    "applic": 7598,
    "\u25810x43b8c8": 7599,
    "couldnotbelocatedinthedynamiclinklibrary": 7600,
    "\u25810x491288": 7601,
    "686": 7602,
    "6c5": 7603,
    "7f8": 7604,
    "group": 7605,
    "\u25810x43b5": 7606,
    "\u25810x48ec3c": 7607,
    "005": 7608,
    "905": 7609,
    "9e8": 7610,
    "uti": 7611,
    "\u2581client": 7612,
    "\u25810x414f20": 7613,
    "121": 7614,
    "e60": 7615,
    "f64": 7616,
    "\u25810x6970": 7617,
    "395": 7618,
    "dd5": 7619,
    "\u25810x44c": 7620,
    "24c": 7621,
    "723": 7622,
    "\u25810x40f6a8": 7623,
    "applicatione": 7624,
    "\u2581failedtoopen": 7625,
    "145": 7626,
    "ea0": 7627,
    "icmp": 7628,
    "\u25810x80be54": 7629,
    "applicationeventlog": 7630,
    "\u2581failedtoopenapplicationeventlog": 7631,
    "\u2581ri": 7632,
    "ning": 7633,
    "\u25810xffe9": 7634,
    "\u25810x414f21": 7635,
    "2ec": 7636,
    "a34": 7637,
    "\u25810x10a": 7638,
    "\u25810x42ec": 7639,
    "\u25810x4760": 7640,
    "\u25810x411b90": 7641,
    "\u25810x565868": 7642,
    "332": 7643,
    "\u25810xc2": 7644,
    "\u25810x2100": 7645,
    "\u25810x40a4": 7646,
    "\u25810x4212": 7647,
    "\u25810x1210e30": 7648,
    "\u2581enablewindow": 7649,
    "\u2581getclientrect": 7650,
    "\u25810x2804": 7651,
    "\u25810x7ce0": 7652,
    "71f": 7653,
    "\u258108": 7654,
    "79c": 7655,
    "\u25810x500010": 7656,
    "\u25810x598758": 7657,
    "\u25810x1211790": 7658,
    "\u2581riche": 7659,
    "\u25810x6b9c": 7660,
    "\u25810xa429b0": 7661,
    "\u25810x1906000": 7662,
    "154": 7663,
    "b42": 7664,
    "ce5": 7665,
    "ad50": 7666,
    "\u25810x458": 7667,
    "activewindow": 7668,
    "7170": 7669,
    "\u25810x6b6": 7670,
    "\u25810xa0e6": 7671,
    "\u25810x3fd00": 7672,
    "76e": 7673,
    "aad": 7674,
    "\u25810x40e9": 7675,
    "\u25810xffd8": 7676,
    "\u25810x640000": 7677,
    "ws": 7678,
    "bfb": 7679,
    "e81": 7680,
    "fee": 7681,
    "addresses": 7682,
    "adaptersaddresses": 7683,
    "be6": 7684,
    "04": 7685,
    "ah": 7686,
    "\u2581ptin": 7687,
    "\u25810x5052": 7688,
    "\u2581cocreateinstance": 7689,
    "2cc": 7690,
    "319": 7691,
    "enamew": 7692,
    "\u2581getparent": 7693,
    "\u25810xfeee00df": 7694,
    "\u25810xd2": 7695,
    "\u25810xfeedf000": 7696,
    "\u2581regqueryvalueexa": 7697,
    "e55": 7698,
    "\u25810x1211fb0": 7699,
    "\u25810x5b5": 7700,
    "685": 7701,
    "96c": 7702,
    "\u25810x9110": 7703,
    "\u25810x42e0a4": 7704,
    "\u25810x46b3b8": 7705,
    "\u2581registerwindow": 7706,
    "364": 7707,
    "701": 7708,
    "a9c": 7709,
    "istr": 7710,
    "\u25810x4366e0": 7711,
    "\u25810x438b58": 7712,
    "\u25810x438c00": 7713,
    "d14": 7714,
    "tactive": 7715,
    "\u2581loadbitmap": 7716,
    "377": 7717,
    "486": 7718,
    "9c8": 7719,
    "b39": 7720,
    "165": 7721,
    "ptr": 7722,
    "\u25810x181b48": 7723,
    "\u25810x1211cac": 7724,
    "\u25810x1211f14": 7725,
    "245": 7726,
    "3c6": 7727,
    "erun": 7728,
    "\u25810x419c54": 7729,
    "\u2581setforegroundwindow": 7730,
    "vb": 7731,
    "eab": 7732,
    "e4b8": 7733,
    "\u25810x2d4d9": 7734,
    "\u25810x419c53": 7735,
    "\u25810xfeee01c": 7736,
    "\u2581setwindowshook": 7737,
    "3b9": 7738,
    "\u25810x366": 7739,
    "\u25810x40d": 7740,
    "606": 7741,
    "\u25810x509e4": 7742,
    "\u25810x7c000": 7743,
    "186": 7744,
    "dd3": 7745,
    "\u25810x4b40": 7746,
    "\u25810x42398": 7747,
    "\u25810x420818": 7748,
    "\u25810x4f53c8": 7749,
    "\u25810x120e6a0": 7750,
    "3a2": 7751,
    "\u25810x9520": 7752,
    "ac5": 7753,
    "17f4": 7754,
    "ba9": 7755,
    "\u2581setupapi": 7756,
    "d26": 7757,
    "doyou": 7758,
    "\u2581cryp": 7759,
    "\u25810x154": 7760,
    "\u25810x4106": 7761,
    "\u25810x4af4": 7762,
    "ae2": 7763,
    "b12": 7764,
    "b75": 7765,
    "f14": 7766,
    "uss": 7767,
    "\u2581%1": 7768,
    "mein": 7769,
    "\u25810x1211c4c": 7770,
    "d55": 7771,
    "\u25810xbf": 7772,
    "\u25810x474": 7773,
    "\u2581opena": 7774,
    "\u25810x4e5c": 7775,
    "eb6": 7776,
    "\u2581callwindowproc": 7777,
    "\u2581getsyscolorbrush": 7778,
    "28c": 7779,
    "already": 7780,
    "\u2581logmein": 7781,
    "bf6": 7782,
    "wcs": 7783,
    "\u25810x4b8": 7784,
    "nexplorer": 7785,
    "\u25810x486d18": 7786,
    "getadaptersinfo": 7787,
    "\u2581back": 7788,
    "\u25810x4ebf": 7789,
    "\u25810x181b98": 7790,
    "ly": 7791,
    "b25": 7792,
    "e38": 7793,
    "aaaaaaaa": 7794,
    "\u2581getdrivetypea": 7795,
    "7cc": 7796,
    "keyexa": 7797,
    "\u25810x7e4": 7798,
    "\u25810x47a00": 7799,
    "lastactive": 7800,
    "lastactivepopup": 7801,
    "\u25810x700": 7802,
    "messagetime": 7803,
    "309": 7804,
    "enabled": 7805,
    "row": 7806,
    "\u25810x78e": 7807,
    "windowshookex": 7808,
    "hookwindowshookex": 7809,
    "f39": 7810,
    "f55": 7811,
    "\u25810x435018": 7812,
    "3d5": 7813,
    "fe9": 7814,
    "\u25810x504": 7815,
    "datetime": 7816,
    "\u25810x435002": 7817,
    "\u25810x435004": 7818,
    "\u25810x435006": 7819,
    "\u25810x435008": 7820,
    "\u25810x43500a": 7821,
    "\u25810x43500c": 7822,
    "\u25810x43500e": 7823,
    "\u25810x435010": 7824,
    "\u25810x423db0": 7825,
    "\u25810x435014": 7826,
    "\u2581sendmessagew": 7827,
    "\u2581unhookwindowshookex": 7828,
    "b64": 7829,
    "\u2581prop": 7830,
    "\u25810x42b7": 7831,
    "\u25810x435016": 7832,
    "\u25810x4902e0": 7833,
    "\u2581setmenuitem": 7834,
    "\u25810xdb": 7835,
    "\u25810x41d4": 7836,
    "\u25810x496790": 7837,
    "\u25810x1210ec0": 7838,
    "\u2581getwindowtextw": 7839,
    "760": 7840,
    "db4": 7841,
    "\u25810xdf": 7842,
    "\u25810x4095": 7843,
    "\u25810x56ba": 7844,
    "\u25810x423df0": 7845,
    "\u25810x3f29": 7846,
    "2f0": 7847,
    "b91": 7848,
    "copy": 7849,
    "\u25810x8cb0": 7850,
    "\u25810x423e20": 7851,
    "\u25810x1211f94": 7852,
    "\u25810xffea": 7853,
    "\u25810x3f28": 7854,
    "\u25810x8a90": 7855,
    "712": 7856,
    "7bc": 7857,
    "okex": 7858,
    "nextho": 7859,
    "\u25810xffeb": 7860,
    "\u25810x4255ef": 7861,
    "\u25810x4255f0": 7862,
    "\u25810x567678": 7863,
    "nexthookex": 7864,
    "\u2581callnexthookex": 7865,
    "\u2581apphelp": 7866,
    "\u25810x42eab0": 7867,
    "\u25810x42fc20": 7868,
    "238": 7869,
    "bcat": 7870,
    "\u25818!@": 7871,
    "202020": 7872,
    "\u25810x8e90": 7873,
    "\u25810x120ff7c": 7874,
    "openprocesstoken": 7875,
    "e64": 7876,
    "\u2581propsys": 7877,
    "defaultlcid": 7878,
    "bcatq": 7879,
    "\u2581clbcatq": 7880,
    "\u2581cryptdestroy": 7881,
    "\u2581comparestringa": 7882,
    "terminateprocess": 7883,
    "7c6": 7884,
    "\u25810x4137": 7885,
    "\u2581transl": 7886,
    "\u25810x435012": 7887,
    "\u2581getsystemwindows": 7888,
    "1b4": 7889,
    "258": 7890,
    "child": 7891,
    "\u25810xfeedf0": 7892,
    "iconic": 7893,
    "\u25810x44c2": 7894,
    "\u2581isiconic": 7895,
    "\u2581getsystemwindowsdirectoryw": 7896,
    "764": 7897,
    "\u25810xffdc": 7898,
    "\u25810x1733c4": 7899,
    "\u2581getfocus": 7900,
    "a29": 7901,
    "691": 7902,
    "ame32": 7903,
    "\u2581mame32": 7904,
    "\u25810x71000": 7905,
    "\u2581freeware": 7906,
    "\u25810x1211a44": 7907,
    "389": 7908,
    "406": 7909,
    "5c6": 7910,
    "\u25810x180c": 7911,
    "\u25810x4188": 7912,
    "toscreen": 7913,
    "bb9": 7914,
    "cue": 7915,
    "f49": 7916,
    "70000": 7917,
    "\u25810x4d0": 7918,
    "\u2581clienttoscreen": 7919,
    "2a8": 7920,
    "\u25810x403000": 7921,
    "ab1": 7922,
    "d94": 7923,
    "\u25810x5627": 7924,
    "\u25810x8e50": 7925,
    "\u25810x508d0": 7926,
    "semaphorea": 7927,
    "\u2581translate": 7928,
    "\u2581adjustwindow": 7929,
    "c46": 7930,
    "rectex": 7931,
    "\u25810x40d5": 7932,
    "\u25810x509a8": 7933,
    "\u25810x1211ba8": 7934,
    "\u2581adjustwindowrectex": 7935,
    "dg": 7936,
    "7d6": 7937,
    "upper": 7938,
    "rescue": 7939,
    "writeptr": 7940,
    "\u2581getcapture": 7941,
    "f86": 7942,
    "\u25810x44f": 7943,
    "\u25810x415c": 7944,
    "\u25810x42d498": 7945,
    "\u2581mapwindow": 7946,
    "\u25810xfeee00e0": 7947,
    "\u2581enablemenuitem": 7948,
    "\u2581mapwindowpoints": 7949,
    "\u2581translateaccelerator": 7950,
    "1d4": 7951,
    "274": 7952,
    "5a0": 7953,
    "7675": 7954,
    "\u25810x417c10": 7955,
    "\u25810x120e688": 7956,
    "\u2581logmeinrescue": 7957,
    "\u2581iswindowenabled": 7958,
    "\u25810x350": 7959,
    "\u25810xa020": 7960,
    "\u25810x422750": 7961,
    "\u25810x423850": 7962,
    "\u25810x423880": 7963,
    "\u25810x42c020": 7964,
    "\u2581logmeinrescueapplet": 7965,
    "ec7": 7966,
    "\u25810x181c88": 7967,
    "\u25810x42c024": 7968,
    "\u25810x42c028": 7969,
    "\u25810xfeee00e1": 7970,
    "\u25810xfeee00e2": 7971,
    "\u25810xfeee00e3": 7972,
    "3e1": 7973,
    "beb": 7974,
    "\u25810xfeee00e4": 7975,
    "b56": 7976,
    "b7e": 7977,
    "\u25810x181c60": 7978,
    "\u25810x417be0": 7979,
    "\u2581ptinrect": 7980,
    "multip": 7981,
    "\u25810x169be": 7982,
    "\u25810x1211eac": 7983,
    "\u25810xfeee00e5": 7984,
    "884": 7985,
    "b76": 7986,
    "cc6": 7987,
    "leobjects": 7988,
    "multipleobjects": 7989,
    "\u2581getwindowlongw": 7990,
    "\u2581setwindowlongw": 7991,
    "3f2": 7992,
    "buf": 7993,
    "\u25810xe2": 7994,
    "submenu": 7995,
    "\u2581getsubmenu": 7996,
    "\u2581destroymenu": 7997,
    "\u2581getmenuitemcount": 7998,
    "796": 7999,
    "disp": 8000,
    "\u25810x2d4df": 8001,
    "basenamew": 8002,
    "\u2581getmenuitemid": 8003,
    "112": 8004,
    "b0000": 8005,
    "\u25810x41af40": 8006,
    "\u2581coinitialize": 8007,
    "\u2581getwindowplacement": 8008,
    "b45": 8009,
    "a14": 8010,
    "ba6": 8011,
    "ed2": 8012,
    "spec": 8013,
    "\u25810x41eb": 8014,
    "\u25810x12000": 8015,
    "\u25810x41ae00": 8016,
    "\u25810xc417f4": 8017,
    "\u2581getmenustate": 8018,
    "ea8": 8019,
    "grap": 8020,
    "order": 8021,
    "profil": 8022,
    "memmove": 8023,
    "\u25810x4a50": 8024,
    "\u25810x40a020": 8025,
    "\u25810x41ad50": 8026,
    "\u25810x42b070": 8027,
    "\u25810x42eaa6": 8028,
    "\u25810x42eaba": 8029,
    "\u25810x42eac4": 8030,
    "7de": 8031,
    "20302": 8032,
    "3f4": 8033,
    "f06": 8034,
    "1afa": 8035,
    "\u25810x9050": 8036,
    "\u25810x9c50": 8037,
    "\u25810x1211e88": 8038,
    "d9c": 8039,
    "\u25810xda": 8040,
    "\u25810x431f20": 8041,
    "\u2581getmessagepos": 8042,
    "3dc": 8043,
    "775": 8044,
    "\u25810x7e20": 8045,
    "\u25810x3020302": 8046,
    "ig": 8047,
    "a25": 8048,
    "\u25810x5188": 8049,
    "\u2581getlastactivepopup": 8050,
    "543": 8051,
    "cap": 8052,
    "e70": 8053,
    "e96": 8054,
    "graphi": 8055,
    "registerwindowmessagea": 8056,
    "3d9": 8057,
    "setdlldirectoryw": 8058,
    "168": 8059,
    "55c8": 8060,
    "\u25810x7dc": 8061,
    "eac": 8062,
    "\u2581mso97.": 8063,
    "\u25810x43501a": 8064,
    "db9": 8065,
    "\u258129": 8066,
    "been": 8067,
    "thash": 8068,
    "\u25810x41a9": 8069,
    "\u2581cryptreleasecontext": 8070,
    "2ac": 8071,
    "fc9": 8072,
    "fe4": 8073,
    "\u25810x4f4": 8074,
    "\u25810x7100": 8075,
    "\u25810x56000": 8076,
    "\u25810x42ce08": 8077,
    "\u2581cryptget": 8078,
    "\u2581getadaptersaddresses": 8079,
    "641": 8080,
    "a95": 8081,
    "e9c": 8082,
    "vm": 8083,
    "586": 8084,
    "thashdata": 8085,
    "createhash": 8086,
    "\u25810x46a1": 8087,
    "1d5": 8088,
    "b38": 8089,
    "\u25810x429920": 8090,
    "\u25810x5265c50": 8091,
    "03t": 8092,
    "\u25810x9ab0": 8093,
    "\u25810x1211ec0": 8094,
    "\u25812022-03-03t": 8095,
    "\u2581postmessagew": 8096,
    "fs": 8097,
    "a96": 8098,
    "3888": 8099,
    "filespec": 8100,
    "\u25810x408c8d": 8101,
    "\u25810x408c8e": 8102,
    "\u25810x4254ef": 8103,
    "\u25810x4254f0": 8104,
    "\u25810xfeee010b": 8105,
    "7c4": 8106,
    "\u25810x7730": 8107,
    "\u25810x77000": 8108,
    "removefilespec": 8109,
    "\u25810x4220": 8110,
    "\u25810x423c": 8111,
    "\u25810x47d0": 8112,
    "\u25810x8a44": 8113,
    "\u2581setwindowtextw": 8114,
    "a62": 8115,
    "d01": 8116,
    "\u2581rect": 8117,
    "263": 8118,
    "a05": 8119,
    "681": 8120,
    "30000": 8121,
    "ctrlid": 8122,
    "\u25810x3f75e88": 8123,
    "\u2581getdlgctrlid": 8124,
    "161": 8125,
    "df9": 8126,
    "\u25810x7f5": 8127,
    "\u25810x40f4": 8128,
    "removefilespecw": 8129,
    "\u258117": 8130,
    "\u2581tab": 8131,
    "\u25810x238": 8132,
    "\u2581getscroll": 8133,
    "internetopen": 8134,
    "\u25810x4a8": 8135,
    "\u2581couninitialize": 8136,
    "ye": 8137,
    "_164633": 8138,
    "\u25810x43501c": 8139,
    "\u25810x43501e": 8140,
    "\u25810x435020": 8141,
    "\u25810x435022": 8142,
    "\u25810x435028": 8143,
    "\u25810x43502a": 8144,
    "\u25810x43502c": 8145,
    "\u25810x43502e": 8146,
    "\u25810x435030": 8147,
    "\u2581getmessagetime": 8148,
    "\u2581translateacceleratorw": 8149,
    "fbc": 8150,
    "aac0": 8151,
    "\u25810x40c5": 8152,
    "\u25810x7f80": 8153,
    "\u25810x99f0": 8154,
    "\u25810x120f3": 8155,
    "\u25810xa3a7d8": 8156,
    "ismb": 8157,
    "blead": 8158,
    "ismbblead": 8159,
    "\u2581getmessagew": 8160,
    "\u2581cryptdestroyhash": 8161,
    "\u2581registerwindowmessagew": 8162,
    "ci": 8163,
    "mf": 8164,
    "777": 8165,
    "a61": 8166,
    "b26": 8167,
    "b29": 8168,
    "\u25810x9b30": 8169,
    "\u2581crypthashdata": 8170,
    "\u2581cryptcreatehash": 8171,
    "199": 8172,
    "785": 8173,
    "option": 8174,
    "\u2581setscroll": 8175,
    "fb4": 8176,
    "\u25810x1e0": 8177,
    "945": 8178,
    "0048": 8179,
    "\u25810x434388": 8180,
    "\u25810xa3a790": 8181,
    "\u2581drawtextw": 8182,
    "\u2581getstockobject": 8183,
    "ryptacquirecontextw": 8184,
    "a71": 8185,
    "c43": 8186,
    "dad": 8187,
    "random": 8188,
    "\u25810xa050": 8189,
    "topwindow": 8190,
    "isvalidlocale": 8191,
    "53a0": 8192,
    "abc0": 8193,
    "\u25810x435228": 8194,
    "\u25810x435240": 8195,
    "\u25810x4c9778": 8196,
    "\u2581gettopwindow": 8197,
    "gettickcount64": 8198,
    "\u2581checkmenuitem": 8199,
    "\u25810xd5": 8200,
    "\u25810x40f5": 8201,
    "direct": 8202,
    "modify": 8203,
    "\u25810x563a20": 8204,
    "\u25810x1210550": 8205,
    "a7b": 8206,
    "afe": 8207,
    "ce9": 8208,
    "\u25810x636": 8209,
    "\u25810x1211ddc": 8210,
    "\u2581gray": 8211,
    "hashparam": 8212,
    "\u2581copyrect": 8213,
    "e09": 8214,
    "0074": 8215,
    "\u25810x413b": 8216,
    "\u2581modify": 8217,
    "335": 8218,
    "72c": 8219,
    "734": 8220,
    "d06": 8221,
    "d12": 8222,
    "\u2581cm": 8223,
    "ac2": 8224,
    "e05": 8225,
    "\u25810x41f9": 8226,
    "f75": 8227,
    "006c": 8228,
    "fa10": 8229,
    "\u25810x2840": 8230,
    "\u25810x71a1": 8231,
    "\u25810x1210e70": 8232,
    "1f0": 8233,
    "2a4": 8234,
    "vert": 8235,
    "\u25810x677": 8236,
    "\u2581tabbed": 8237,
    "genrandom": 8238,
    "\u25810xa3a7e0": 8239,
    "\u25810x1210e34": 8240,
    "155": 8241,
    "\u2581hi": 8242,
    "\u25810x41d1e0": 8243,
    "\u25810x46b388": 8244,
    "c85": 8245,
    "fami": 8246,
    "\u25810xee": 8247,
    "famili": 8248,
    "\u25810x7f6": 8249,
    "\u25810x513d28": 8250,
    "\u2581&": 8251,
    "db1": 8252,
    "fa5": 8253,
    "rgn": 8254,
[...]
