{
    "<pad>": 0,
    "<unk>": 1,
    "<mask>": 2,
    "\u25810": 3,
    "\u25810x": 4,
    "er": 5,
    "ne": 6,
    "00": 7,
    "32": 8,
    "\u2581k": 9,
    "l32": 10,
    "erne": 11,
    "ernel32": 12,
    "\u2581kernel32": 13,
    "\u25810x1": 14,
    "\u25810x0": 15,
    "et": 16,
    "al": 17,
    "ti": 18,
    "get": 19,
    "ad": 20,
    "\u25810x7": 21,
    "re": 22,
    "000": 23,
    "ec": 24,
    "\u25810x4": 25,
    "\u25810xf": 26,
    "\u2581get": 27,
    "in": 28,
    "oc": 29,
    "\u25810x77": 30,
    "iti": 31,
    "ee": 32,
    "\u25810xfee": 33,
    "\u25810xfeee": 34,
    "ss": 35,
    "pr": 36,
    "one": 37,
    "0000": 38,
    "proc": 39,
    "st": 40,
    "\u2581getproc": 41,
    "sec": 42,
    "cal": 43,
    "dre": 44,
    "on": 45,
    "secti": 46,
    "addre": 47,
    "address": 48,
    "\u2581getprocaddress": 49,
    "riti": 50,
    "ritical": 51,
    "riticalsecti": 52,
    "le": 53,
    "ue": 54,
    "000000": 55,
    "en": 56,
    "read": 57,
    "is": 58,
    "\u2581n": 59,
    "ecriticalsecti": 60,
    "val": 61,
    "\u2581none": 62,
    "\u25810x77000000": 63,
    "tr": 64,
    "ls": 65,
    "\u25810x1000": 66,
    "value": 67,
    "\u2581is": 68,
    "\u2581in": 69,
    "\u25810xfeee00": 70,
    "ter": 71,
    "getvalue": 72,
    "lsgetvalue": 73,
    "readp": 74,
    "\u25810xfeee000": 75,
    "bad": 76,
    "\u2581isbad": 77,
    "readptr": 78,
    "\u2581isbadreadptr": 79,
    "ap": 80,
    "loc": 81,
    "\u25810x12": 82,
    "or": 83,
    "de": 84,
    "a0": 85,
    "11": 86,
    "iz": 87,
    "aliz": 88,
    "itializ": 89,
    "\u2581s": 90,
    "\u2581initializ": 91,
    "co": 92,
    "\u2581initializecriticalsecti": 93,
    "\u25810x46": 94,
    "f0": 95,
    "\u2581t": 96,
    "\u25810x1211": 97,
    "\u25810x2": 98,
    "\u2581f": 99,
    "ar": 100,
    "an": 101,
    "\u25810xfa0": 102,
    "he": 103,
    "\u25810x8": 104,
    "\u2581en": 105,
    "us": 106,
    "la": 107,
    "heap": 108,
    "\u25810xfeee0001": 109,
    "\u2581heap": 110,
    "onex": 111,
    "err": 112,
    "error": 113,
    "\u2581tlsgetvalue": 114,
    "alloc": 115,
    "last": 116,
    "lasterror": 117,
    "\u2581initializecriticalsectionex": 118,
    "\u2581l": 119,
    "\u2581c": 120,
    "te": 121,
    "and": 122,
    "user": 123,
    "po": 124,
    "\u2581user": 125,
    "poin": 126,
    "\u25810x770": 127,
    "dec": 128,
    "pointer": 129,
    "\u2581user32": 130,
    "depointer": 131,
    "lea": 132,
    "str": 133,
    "ow": 134,
    "\u2581set": 135,
    "48": 136,
    "\u2581flsgetvalue": 137,
    "39": 138,
    "\u25810x5": 139,
    "d0": 140,
    "10": 141,
    "\u2581m": 142,
    "fi": 143,
    "90": 144,
    "\u2581heapalloc": 145,
    "\u2581w": 146,
    "ex": 147,
    "nt": 148,
    "ing": 149,
    "\u25810x100": 150,
    "inf": 151,
    "string": 152,
    "em": 153,
    "\u25810x771": 154,
    "\u25810x10": 155,
    "ff": 156,
    "\u25810x41": 157,
    "\u25810x42": 158,
    "ecriticalsection": 159,
    "\u25810x24": 160,
    "leav": 161,
    "\u2581leav": 162,
    "\u2581leavecriticalsection": 163,
    "oad": 164,
    "\u25810x2439": 165,
    "\u25810x243948": 166,
    "\u2581enter": 167,
    "criticalsecti": 168,
    "criticalsection": 169,
    "\u2581entercriticalsection": 170,
    "\u2581load": 171,
    "00000": 172,
    "har": 173,
    "\u25810x45": 174,
    "\u2581d": 175,
    "li": 176,
    "\u2581enco": 177,
    "\u2581encodepointer": 178,
    "hand": 179,
    "\u25810x40": 180,
    "ac": 181,
    "\u2581getlasterror": 182,
    "at": 183,
    "ent": 184,
    "e4": 185,
    "\u25810x46f0": 186,
    "\u2581setlasterror": 187,
    "ab": 188,
    "\u25810x45f0": 189,
    "\u25810x3": 190,
    "by": 191,
    "\u25810x78": 192,
    "\u25810xff": 193,
    "\u25810x46d0": 194,
    "10000": 195,
    "unt": 196,
    "ess": 197,
    "\u2581getc": 198,
    "count": 199,
    "ul": 200,
    "rt": 201,
    "info": 202,
    "40": 203,
    "\u25810x4e4": 204,
    "\u25810xc": 205,
    "ind": 206,
    "\u2581initializecriticalsection": 207,
    "ur": 208,
    "let": 209,
    "ate": 210,
    "handle": 211,
    "vi": 212,
    "20": 213,
    "mp": 214,
    "\u25810x43": 215,
    "c0": 216,
    "local": 217,
    "mo": 218,
    "ll": 219,
    "file": 220,
    "\u25810x7d": 221,
    "it": 222,
    "ulti": 223,
    "idec": 224,
    "ultiby": 225,
    "idechar": 226,
    "du": 227,
    "tion": 228,
    "indow": 229,
    "\u25810x6": 230,
    "78": 231,
    "yst": 232,
    "dule": 233,
    "om": 234,
    "module": 235,
    "\u2581getmodule": 236,
    "ke": 237,
    "30": 238,
    "ystem": 239,
    "50": 240,
    "\u25810x400000": 241,
    "me": 242,
    "\u25810xfeee001": 243,
    "\u2581cre": 244,
    "d10000": 245,
    "\u25810x77d10000": 246,
    "op": 247,
    "sp": 248,
    "\u2581dec": 249,
    "f8": 250,
    "\u2581deco": 251,
    "\u2581decodepointer": 252,
    "spin": 253,
    "spincount": 254,
    "andspincount": 255,
    "\u2581initializecriticalsectionandspincount": 256,
    "ree": 257,
    "\u2581dll": 258,
    "70": 259,
    "ce": 260,
    "ment": 261,
    "d8": 262,
    "18": 263,
    "\u2581ms": 264,
    "exw": 265,
    "b0": 266,
    "xt": 267,
    "process": 268,
    "\u25810x10c": 269,
    "\u25810x1211f": 270,
    "yp": 271,
    "br": 272,
    "ri": 273,
    "locale": 274,
    "pinfo": 275,
    "ge": 276,
    "\u2581g": 277,
    "\u2581create": 278,
    "ary": 279,
    "stringw": 280,
    "indows": 281,
    "brary": 282,
    "\u2581windows": 283,
    "next": 284,
    "id": 285,
    "38": 286,
    "lo": 287,
    "60": 288,
    "e0": 289,
    "\u25810xf00": 290,
    "tet": 291,
    "\u2581multiby": 292,
    "tetow": 293,
    "tetowidechar": 294,
    "\u2581multibytetowidechar": 295,
    "age": 296,
    "\u2581getcpinfo": 297,
    "\u25810x9": 298,
    "\u2581getst": 299,
    "80": 300,
    "leti": 301,
    "rent": 302,
    "urrent": 303,
    "free": 304,
    "\u2581char": 305,
    "\u25810xffff": 306,
    "\u25810xc000": 307,
    "cc": 308,
    "\u2581charnext": 309,
    "map": 310,
    "26": 311,
    "a5": 312,
    "th": 313,
    "\u25810x70": 314,
    "\u25810xffffff": 315,
    "\u2581getlocale": 316,
    "\u25810x7e": 317,
    "98": 318,
    "28": 319,
    "vc": 320,
    "bc": 321,
    "\u2581system": 322,
    "di": 323,
    "64": 324,
    "34": 325,
    "c4": 326,
    "\u2581system32": 327,
    "ype": 328,
    "\u2581msvc": 329,
    "library": 330,
    "able": 331,
    "un": 332,
    "\u2581msvcrt": 333,
    "68": 334,
    "\u2581lc": 335,
    "\u2581lcmap": 336,
    "\u2581inter": 337,
    "def": 338,
    "infow": 339,
    "ual": 340,
    "virt": 341,
    "\u25810x78000000": 342,
    "virtual": 343,
    "\u2581ex": 344,
    "locke": 345,
    "\u2581interlocke": 346,
    "\u2581re": 347,
    "hi": 348,
    "\u25810x1211c": 349,
    "\u2581p": 350,
    "comp": 351,
    "\u25810xfeee002": 352,
    "\u2581interlocked": 353,
    "api": 354,
    "rement": 355,
    "\u2581getcurrent": 356,
    "\u25810xfeee005": 357,
    "\u2581loadlibrary": 358,
    "\u2581init": 359,
    "\u25810x90": 360,
    "ol": 361,
    "ame": 362,
    "\u2581virtual": 363,
    "thread": 364,
    "\u25810xfeee007": 365,
    "\u25810x88": 366,
    "ans": 367,
    "rite": 368,
    "a8": 369,
    "ers": 370,
    "open": 371,
    "trans": 372,
    "rst": 373,
    "stat": 374,
    "\u25810xfeee004": 375,
    "status": 376,
    "atom": 377,
    "b8": 378,
    "que": 379,
    "\u2581loadstringw": 380,
    "lient": 381,
    "69": 382,
    "\u2581getcpinfoexw": 383,
    "\u25810x243948c": 384,
    "table": 385,
    "\u25810x4690": 386,
    "action": 387,
    "queue": 388,
    "14": 389,
    "letion": 390,
    "58": 391,
    "dcomp": 392,
    "queuedcomp": 393,
    "letionstatus": 394,
    "queuedcompletionstatus": 395,
    "transaction": 396,
    "\u2581ddec": 397,
    "\u2581getqueuedcompletionstatus": 398,
    "\u2581ddeclient": 399,
    "\u2581ddeclienttransaction": 400,
    "atomtable": 401,
    "\u25810x2439480": 402,
    "\u25810x2439484": 403,
    "\u25810x2439488": 404,
    "\u2581initatomtable": 405,
    "\u2581heapfree": 406,
    "handlew": 407,
    "so": 408,
    "\u2581getmodulehandlew": 409,
    "\u2581getti": 410,
    "name": 411,
    "\u2581getfi": 412,
    "var": 413,
    "emp": 414,
    "se": 415,
    "ct": 416,
    "\u2581gets": 417,
    "c8": 418,
    "a4": 419,
    "key": 420,
    "1000": 421,
    "56": 422,
    "\u2581temp": 423,
    "abc": 424,
    "vw": 425,
    "\u2581read": 426,
    "\u25810x1210": 427,
    "opq": 428,
    "lm": 429,
    "ghi": 430,
    "fe": 431,
    "xy": 432,
    "\u25810xfeee008": 433,
    "xyz": 434,
    "\u2581abc": 435,
    "klm": 436,
    "uvw": 437,
    "opqrst": 438,
    "uvwxyz": 439,
    "nopqrst": 440,
    "defghi": 441,
    "nopqrstuvwxyz": 442,
    "\u2581abcdefghi": 443,
    "klmnopqrstuvwxyz": 444,
    "\u25810x40a5": 445,
    "\u25810x12117": 446,
    "ck": 447,
    "tom": 448,
    "ultibyte": 449,
    "\u2581widechar": 450,
    "tomultibyte": 451,
    "\u2581widechartomultibyte": 452,
    "d4": 453,
    "3000": 454,
    "ckcount": 455,
    "\u2581gettickcount": 456,
    "mm": 457,
    "ch": 458,
    "12": 459,
    "\u25810x12119": 460,
    "\u25810xfeee006": 461,
    "ic": 462,
    "art": 463,
    "\u25810x80": 464,
    "orm": 465,
    "f4": 466,
    "cmp": 467,
    "qu": 468,
    "\u2581reg": 469,
    "\u25810x79": 470,
    "\u2581getfilet": 471,
    "\u2581getfiletype": 472,
    "be": 473,
    "up": 474,
    "\u2581co": 475,
    "rect": 476,
    "\u25810xfeee003": 477,
    "a000": 478,
    "dc": 479,
    "\u25810x526": 480,
    "7c": 481,
    "f5": 482,
    "dhandle": 483,
    "sset": 484,
    "sw": 485,
    "\u2581charnextw": 486,
    "\u25811": 487,
    "\u25810x47": 488,
    "ute": 489,
    "lsset": 490,
    "lssetvalue": 491,
    "\u25810x3f": 492,
    "fc": 493,
    "\u25810xfeee0004": 494,
    "b000": 495,
    "\u2581getstdhandle": 496,
    "2000": 497,
    "inc": 498,
    "stringa": 499,
    "ron": 500,
    "\u2581getlocaleinfow": 501,
    "5000": 502,
    "increment": 503,
    "\u2581interlockedincrement": 504,
    "viron": 505,
    "\u2581getsystem": 506,
    "lsalloc": 507,
    "7000": 508,
    "vironment": 509,
    "d000": 510,
    "environment": 511,
    "direct": 512,
    "f000": 513,
    "\u25810x20": 514,
    "vers": 515,
    "\u25810x78c": 516,
    "\u25810x78c00000": 517,
    "\u2581clo": 518,
    "\u25810x70cc": 519,
    "\u25810xcd": 520,
    "\u25810x200": 521,
    "\u2581getmodulehand": 522,
    "\u25810x7d90": 523,
    "director": 524,
    "\u2581getmodulehandlea": 525,
    "filename": 526,
    "6000": 527,
    "wa": 528,
    "\u2581loadstringa": 529,
    "\u25810x409": 530,
    "\u2581open": 531,
    "of": 532,
    "quer": 533,
    "\u25810x1211d": 534,
    "9000": 535,
    "\u25810x44": 536,
    "stringex": 537,
    "\u25810xffffffff": 538,
    "\u25810xfeee0002": 539,
    "\u2581ap": 540,
    "\u25810x18": 541,
    "\u25810x77e": 542,
    "\u25810x77e10000": 543,
    "ad0": 544,
    "\u2581mem": 545,
    "\u2581getstart": 546,
    "5c": 547,
    "window": 548,
    "\u25810x4c4": 549,
    "e8": 550,
    "\u25810xfeee009": 551,
    "b4": 552,
    "\u2581charnexta": 553,
    "\u25810x4610": 554,
    "\u25810xfeee0000": 555,
    "\u25810xa": 556,
    "\u2581getlocaleinfo": 557,
    "versi": 558,
    "ool": 559,
    "dd": 560,
    "74": 561,
    "\u2581local": 562,
    "\u25810x5f8": 563,
    "\u2581lcmapstringw": 564,
    "\u25810x5f800000": 565,
    "\u25810x7b": 566,
    "\u2581memcmp": 567,
    "sle": 568,
    "\u2581se": 569,
    "\u25810x104": 570,
    "\u2581flssetvalue": 571,
    "dbc": 572,
    "\u25810x41de": 573,
    "\u25810x41f0": 574,
    "\u2581lcmapstringex": 575,
    "91": 576,
    "\u25810xf001": 577,
    "ve": 578,
    "\u25810x41f040": 579,
    "stringsw": 580,
    "\u2581getmodulefilename": 581,
    "24": 582,
    "ect": 583,
    "e000": 584,
    "filew": 585,
    "eco": 586,
    "54": 587,
    "byte": 588,
    "slead": 589,
    "\u2581isdbc": 590,
    "\u2581isdbcslead": 591,
    "f6": 592,
    "\u2581loadlibrarya": 593,
    "\u2581isdbcsleadbyte": 594,
    "\u2581virtualalloc": 595,
    "\u2581flsalloc": 596,
    "e6": 597,
    "\u25810xfeee0003": 598,
    "comm": 599,
    "\u2581a": 600,
    "2c": 601,
    "\u2581ad": 602,
    "\u2581getlocaleinfoa": 603,
    "line": 604,
    "\u2581getcurrentthread": 605,
    "environmentstringsw": 606,
    "andline": 607,
    "b9": 608,
    "\u2581getcomm": 609,
    "\u25810x7de": 610,
    "\u2581getcommandline": 611,
    "\u2581close": 612,
    "3c": 613,
    "\u2581win": 614,
    "directory": 615,
    "\u2581write": 616,
    "\u25810x54": 617,
    "da": 618,
    "write": 619,
    "res": 620,
    "\u25810x1211e": 621,
    "\u2581h": 622,
    "\u2581de": 623,
    "\u25810x800": 624,
    "\u2581apis": 625,
    "eex": 626,
    "\u2581getcurrentthreadid": 627,
    "api32": 628,
    "ut": 629,
    "form": 630,
    "\u2581var": 631,
    "\u2581adv": 632,
    "71": 633,
    "\u2581advapi32": 634,
    "sour": 635,
    "as": 636,
    "\u25810xfeee0005": 637,
    "valid": 638,
    "\u25810x7ec": 639,
    "readpool": 640,
    "\u25810x8ad0": 641,
    "arch": 642,
    "\u2581free": 643,
    "\u25810x7c": 644,
    "dll": 645,
    "time": 646,
    "ation": 647,
    "\u2581l1": 648,
    "\u25810x12115": 649,
    "\u25810xf003": 650,
    "\u25810xf002": 651,
    "essage": 652,
    "\u2581api": 653,
    "processor": 654,
    "cep": 655,
    "\u2581page": 656,
    "1c": 657,
    "eth": 658,
    "9c": 659,
    "\u25810x8a": 660,
    "789": 661,
    "um": 662,
    "\u2581loadlibraryexw": 663,
    "\u2581readwrite": 664,
    "\u2581closehandle": 665,
    "\u2581search": 666,
    "75": 667,
    "int": 668,
    "94": 669,
    "ed": 670,
    "3d": 671,
    "3456": 672,
    "e5": 673,
    "\u25810x7a": 674,
    "\u2581012": 675,
    "\u2581lstr": 676,
    "3456789": 677,
    "\u25810123456789": 678,
    "\u2581getversi": 679,
    "\u2581li": 680,
    "\u2581fi": 681,
    "fileti": 682,
    "\u2581core": 683,
    "source": 684,
    "eep": 685,
    "ception": 686,
    "\u2581getprocess": 687,
    "b7": 688,
    "\u2581sl": 689,
    "ba": 690,
    "\u25810x120": 691,
    "vari": 692,
    "\u25810x73": 693,
    "\u25810x76": 694,
    "\u2581sleep": 695,
    "e2": 696,
    "pres": 697,
    "present": 698,
    "ra": 699,
    "4c": 700,
    "filetime": 701,
    "\u25810x102": 702,
    "og": 703,
    "es": 704,
    "message": 705,
    "type": 706,
    "\u2581creat": 707,
    "\u25810x4c": 708,
    "\u25810x7700": 709,
    "con": 710,
    "\u25810x8810": 711,
    "upinfow": 712,
    "\u2581getstartupinfow": 713,
    "\u25810x400": 714,
    "urs": 715,
    "\u2581getprocessheap": 716,
    "\u25810xfeee0": 717,
    "a2": 718,
    "\u25810x7718": 719,
    "\u25810x7708": 720,
    "\u25810x7711": 721,
    "list": 722,
    "a9": 723,
    "\u2581library": 724,
    "decrement": 725,
    "\u2581interlockeddecrement": 726,
    "\u25810x75": 727,
    "ecute": 728,
    "\u2581getstring": 729,
    "\u2581x": 730,
    "\u2581getstringtype": 731,
    "\u25810x4600": 732,
    "dex": 733,
    "lob": 734,
    "\u2581glob": 735,
    "ab0": 736,
    "36": 737,
    "ure": 738,
    "35": 739,
    "tin": 740,
    "\u25812": 741,
    "a1": 742,
    "ai": 743,
    "\u2581getcurrentprocess": 744,
    "ursor": 745,
    "bo": 746,
    "b5": 747,
    "icon": 748,
    "\u25810x7710": 749,
    "\u25810x8c": 750,
    "a6": 751,
    "\u2581localalloc": 752,
    "ys": 753,
    "ature": 754,
    "\u2581getstringtypew": 755,
    "feature": 756,
    "\u2581isprocessor": 757,
    "featurepresent": 758,
    "\u2581isprocessorfeaturepresent": 759,
    "\u25810x1c": 760,
    "\u2581sh": 761,
    "directoryw": 762,
    "ction": 763,
    "\u2581b": 764,
    "\u25810xfeee0006": 765,
    "db": 766,
    "\u25810x220": 767,
    "\u2581quer": 768,
    "ot": 769,
    "filea": 770,
    "ware": 771,
    "cursor": 772,
    "erform": 773,
    "\u25810x7000": 774,
    "erforman": 775,
    "\u2581queryp": 776,
    "\u2581queryperforman": 777,
    "390": 778,
    "ble": 779,
    "\u2581hkey": 780,
    "\u25810x71": 781,
    "gin": 782,
    "oft": 783,
    "\u25810x72": 784,
    "f1": 785,
    "oftware": 786,
    "\u2581be": 787,
    "\u25810x9000": 788,
    "\u25810x4c42": 789,
    "unter": 790,
    "\u25810x7714": 791,
    "\u25810x7704": 792,
    "\u25810x7d91": 793,
    "\u2581software": 794,
    "\u25810x48": 795,
    "fil": 796,
    "\u2581getsystemtime": 797,
    "\u2581getac": 798,
    "\u25810x14": 799,
    "f9": 800,
    "hel": 801,
    "\u25810x8000": 802,
    "\u2581loadcursor": 803,
    "ceco": 804,
    "cecounter": 805,
    "\u2581queryperformancecounter": 806,
    "\u25810x74": 807,
    "\u2581ws": 808,
    "\u2581nt": 809,
    "ob": 810,
    "\u2581begin": 811,
    "\u25810x7f": 812,
    "filter": 813,
    "dexception": 814,
    "unhandle": 815,
    "dexceptionfilter": 816,
    "unhandledexceptionfilter": 817,
    "6c": 818,
    "eric": 819,
    "asfiletime": 820,
    "\u2581delet": 821,
    "\u2581gdi": 822,
    "\u25810x7717": 823,
    "\u25810x7707": 824,
    "\u25810x7709": 825,
    "\u25810x7719": 826,
    "\u2581getacp": 827,
    "\u25810x4093": 828,
    "15": 829,
    "b2": 830,
    "lock": 831,
    "bd": 832,
    "ting": 833,
    "\u25810x4378": 834,
    "rive": 835,
    "tim": 836,
    "\u25810xfeee0007": 837,
    "\u2581gen": 838,
    "\u2581execute": 839,
    "a7": 840,
    "\u2581find": 841,
    "temp": 842,
    "\u2581generic": 843,
    "\u2581getsystemtimeasfiletime": 844,
    "\u2581pf": 845,
    "\u25810x42c": 846,
    "ervi": 847,
    "\u2581gettemp": 848,
    "\u2581gdi32": 849,
    "\u25810x7e70": 850,
    "\u25810x41dd": 851,
    "ition": 852,
    "dition": 853,
    "\u25810x437": 854,
    "\u2581getmodulefilenamew": 855,
    "b3": 856,
    "inform": 857,
    "\u2581regi": 858,
    "\u25810x770c": 859,
    "\u25810x7706": 860,
    "\u25810x7716": 861,
    "\u25810x7702": 862,
    "\u25810x770b": 863,
    "\u25810x7705": 864,
    "\u25810x770d": 865,
    "\u25810x770e": 866,
    "\u25810x7712": 867,
    "\u25810x7715": 868,
    "\u25810x771b": 869,
    "19": 870,
    "information": 871,
    "code": 872,
    "\u2581global": 873,
    "d5": 874,
    "\u2581current": 875,
    "76": 876,
    "\u25810x1211c98": 877,
    "\u2581go": 878,
    "b6": 879,
    "\u2581goog": 880,
    "\u2581google": 881,
    "onso": 882,
    "ethreadpool": 883,
    "print": 884,
    "\u2581createfilew": 885,
    "\u2581writefile": 886,
    "\u25810x69": 887,
    "timer": 888,
    "\u2581ac": 889,
    "\u2581setunhandledexceptionfilter": 890,
    "stru": 891,
    "printf": 892,
    "\u2581getcurrentprocessid": 893,
    "struction": 894,
    "b1": 895,
    "\u2581getmodulefilenamea": 896,
    "eexw": 897,
    "\u2581getcommandlinea": 898,
    "onsole": 899,
    "ack": 900,
    "\u25810x7703": 901,
    "\u25810x7713": 902,
    "\u25810x82": 903,
    "\u2581getenvironmentstringsw": 904,
    "\u2581freeenvironmentstringsw": 905,
    "\u2581getversionex": 906,
    "cre": 907,
    "\u2581isvalid": 908,
    "query": 909,
    "\u2581o": 910,
    "bf": 911,
    "exa": 912,
    "\u2581regopen": 913,
    "\u25810x8d": 914,
    "\u2581regopenkey": 915,
    "aila": 916,
    "vaila": 917,
    "vailable": 918,
    "508": 919,
    "tri": 920,
    "\u25810x169": 921,
    "66": 922,
    "af": 923,
    "\u2581getcommandlinew": 924,
    "\u2581exe": 925,
    "rom": 926,
    "\u2581available": 927,
    "\u25810x420": 928,
    "29": 929,
    "lass": 930,
    "\u25810x5265c": 931,
    "\u25810x47b0": 932,
    "\u2581shel": 933,
    "yn": 934,
    "locales": 935,
    "31": 936,
    "ock": 937,
    "\u25810x42d": 938,
    "\u2581instruction": 939,
    "i64": 940,
    "\u2581instructions": 941,
    "\u2581xmm": 942,
    "\u2581xmmi64": 943,
    "\u2581i": 944,
    "\u25810x416": 945,
    "ity": 946,
    "79": 947,
    "\u2581loadicon": 948,
    "\u25810x5266": 949,
    "\u25810x7de0": 950,
    "to": 951,
    "from": 952,
    "\u25810x7810": 953,
    "\u25810x7701": 954,
    "\u25810x770a": 955,
    "\u25810x770f": 956,
    "\u25810x771a": 957,
    "servi": 958,
    "d6": 959,
    "ult": 960,
    "7e": 961,
    "lor": 962,
    "defa": 963,
    "\u2581regist": 964,
    "\u25810x4e": 965,
    "\u2581setfile": 966,
    "8c": 967,
    "\u25810x69000000": 968,
    "\u25810x3000": 969,
    "\u2581drive": 970,
    "handl": 971,
    "\u25810x12116": 972,
    "default": 973,
    "\u25810x7ec0": 974,
    "variable": 975,
    "sc": 976,
    "\u2581delete": 977,
    "\u25810xfffffff6": 978,
    "3e": 979,
    "\u25810xfffffff5": 980,
    "\u25810xfffffff4": 981,
    "end": 982,
    "condition": 983,
    "color": 984,
    "25": 985,
    "\u25810x30": 986,
    "upinfo": 987,
    "\u2581getstartupinfo": 988,
    "\u2581getstartupinfoa": 989,
    "\u25810x53": 990,
    "fd": 991,
    "lus": 992,
    "\u25810x50": 993,
    "\u2581exit": 994,
    "cess": 995,
    "\u25810x1210e": 996,
    "create": 997,
    "37": 998,
    "\u2581wa": 999,
    "\u25810x430": 1000,
    "\u2581crt": 1001,
    "ae": 1002,
    "\u25810x4b": 1003,
    "\u25810x19": 1004,
    "\u25810x56": 1005,
    "resource": 1006,
    "\u25810x7890": 1007,
    "len": 1008,
    "804": 1009,
    "646": 1010,
    "f7": 1011,
    "codep": 1012,
    "\u25810x1211b": 1013,
    "\u25810x4ab0": 1014,
    "\u2581virtualquery": 1015,
    "\u25810x49": 1016,
    "\u25810x7f00": 1017,
    "55": 1018,
    "\u25810x4078": 1019,
    "met": 1020,
    "\u2581getconsole": 1021,
    "threadex": 1022,
    "aa": 1023,
    "\u2581beginthreadex": 1024,
    "bu": 1025,
    "\u25810x7c000000": 1026,
    "codepage": 1027,
    "\u25810x407840": 1028,
    "urity": 1029,
    "\u2581locales": 1030,
    "security": 1031,
    "\u2581isvalidcodepage": 1032,
    "\u25810xe": 1033,
    "16": 1034,
    "\u25810x1210f": 1035,
    "\u2581access": 1036,
    "\u25810x1211dc0": 1037,
    "d2": 1038,
    "\u25810x41de20": 1039,
    "service": 1040,
    "messagea": 1041,
    "\u2581register": 1042,
    "\u2581loadcursorw": 1043,
    "\u25810x1211e0": 1044,
    "threadpool": 1045,
    "\u25810x41ddd8": 1046,
    "\u25810x4670": 1047,
    "\u2581invalid": 1048,
    "\u25810x435": 1049,
    "f3": 1050,
    "boar": 1051,
    "\u2581setfilepointer": 1052,
    "class": 1053,
    "olf": 1054,
    "set": 1055,
    "ber": 1056,
    "\u2581getuser": 1057,
    "\u25810x2a": 1058,
    "f2": 1059,
    "\u25810x1804": 1060,
    "\u25810x12116d8": 1061,
    "\u25810x11": 1062,
    "4000": 1063,
    "\u2581process": 1064,
    "\u25810x1211918": 1065,
    "f10000": 1066,
    "308": 1067,
    "\u25810xa4": 1068,
    "\u25810x28": 1069,
    "tor": 1070,
    "mage": 1071,
    "\u25810x4d": 1072,
    "\u25810x77f10000": 1073,
    "bute": 1074,
    "tribute": 1075,
    "section": 1076,
    "ro": 1077,
    "wait": 1078,
    "\u25810x1211c18": 1079,
    "\u2581lstrlen": 1080,
    "\u2581tmp": 1081,
    "ttribute": 1082,
    "\u25810xd": 1083,
    "84": 1084,
    "\u2581heapcreate": 1085,
    "gu": 1086,
    "ho": 1087,
    "\u25810x5f5": 1088,
    "\u2581ini": 1089,
    "\u25810xb": 1090,
    "95": 1091,
    "\u2581syn": 1092,
    "num": 1093,
    "\u2581tlssetvalue": 1094,
    "\u25810x3f30": 1095,
    "\u2581process32": 1096,
    "\u2581golf": 1097,
    "\u25810xfeee0008": 1098,
    "bers": 1099,
    "\u2581synch": 1100,
    "d1": 1101,
    "a3": 1102,
    "py": 1103,
    "\u25810x7ee": 1104,
    "version": 1105,
    "27": 1106,
    "2e": 1107,
    "\u25811646": 1108,
    "\u25810x4fe": 1109,
    "\u25810x4c42c0": 1110,
    "\u2581gettempw": 1111,
    "lip": 1112,
    "lsfree": 1113,
    "\u2581tlsalloc": 1114,
    "men": 1115,
    "106": 1116,
    "date": 1117,
    "\u2581exitprocess": 1118,
    "8000": 1119,
    "99": 1120,
    "\u25810xfeee0009": 1121,
    "\u2581al": 1122,
    "\u2581regopenkeyexw": 1123,
    "board": 1124,
    "\u25810x5f500000": 1125,
    "\u25810xfeee000a": 1126,
    "\u25810xfeee000b": 1127,
    "rw": 1128,
    "d7": 1129,
    "\u25810xfeee000c": 1130,
    "b00": 1131,
    "\u25810xfeee000e": 1132,
    "\u25810xfeee000d": 1133,
    "\u25810xfeee0014": 1134,
    "\u25810xfeee000f": 1135,
    "net": 1136,
    "\u2581shell32": 1137,
    "mode": 1138,
    "\u2581getversion": 1139,
    "\u25810xfeee0010": 1140,
    "908": 1141,
    "\u2581wsprintf": 1142,
    "realloc": 1143,
    "\u25810x7910": 1144,
    "\u25810xfeee0015": 1145,
    "\u25810xfeee0012": 1146,
    "\u25810xfeee0011": 1147,
    "\u25810xfeee0013": 1148,
    "\u25810xfeee0016": 1149,
    "ethread": 1150,
    "17": 1151,
    "\u25810x8af0": 1152,
    "\u25810x42e5": 1153,
    "\u25810x4238": 1154,
    "lose": 1155,
    "\u25810x8a40": 1156,
    "cs": 1157,
    "menu": 1158,
    "ew": 1159,
    "\u25810x13": 1160,
    "\u25810x5265c14": 1161,
    "cec": 1162,
    "1e": 1163,
    "gi": 1164,
    "close": 1165,
    "achi": 1166,
    "achine": 1167,
    "\u2581machine": 1168,
    "\u25810x1211518": 1169,
    "sa": 1170,
    "d9": 1171,
    "ies": 1172,
    "ey": 1173,
    "\u25810x1211e04": 1174,
    "first": 1175,
    "\u25810xfeee00c": 1176,
    "term": 1177,
    "\u25810x12114": 1178,
    "processlist": 1179,
    "\u2581getconsoleprocesslist": 1180,
    "\u2581crtdll": 1181,
    "\u25810x423d": 1182,
    "\u25810x1211f38": 1183,
    "ecount": 1184,
    "\u2581readfile": 1185,
    "00c": 1186,
    "\u25810xfeee0017": 1187,
    "\u2581virtualfree": 1188,
    "\u25810x1211748": 1189,
    "\u25810xfeee0018": 1190,
    "db10": 1191,
    "\u25810xfeee0019": 1192,
    "handlecount": 1193,
    "\u25810x7e71": 1194,
    "\u2581sethandlecount": 1195,
    "erw": 1196,
    "\u2581key": 1197,
    "directorya": 1198,
    "raw": 1199,
    "fb": 1200,
    "db10106": 1201,
    "\u25810x1db10106": 1202,
    "\u25810xffc": 1203,
    "22": 1204,
    "\u2581rt": 1205,
    "lic": 1206,
    "\u25810x436": 1207,
    "directories": 1208,
    "\u2581rtl": 1209,
    "\u25810x5265": 1210,
    "\u2581setdefault": 1211,
    "08": 1212,
    "dlldirectories": 1213,
    "\u2581setdefaultdlldirectories": 1214,
    "\u25810x8811": 1215,
    "\u2581map": 1216,
    "day": 1217,
    "\u2581getthread": 1218,
    "rip": 1219,
    "isting": 1220,
    "scrip": 1221,
    "780": 1222,
    "\u2581loadicona": 1223,
    "ating": 1224,
    "\u25810x418": 1225,
    "\u2581creates": 1226,
    "44": 1227,
    "3f": 1228,
    "aps": 1229,
    "descrip": 1230,
    "\u25810xfeee001c": 1231,
    "\u2581existing": 1232,
    "\u2581freelibrary": 1233,
    "descriptor": 1234,
    "\u25810x34": 1235,
    "securitydescriptor": 1236,
    "\u2581lstrcmp": 1237,
    "\u25810x41e2": 1238,
    "pri": 1239,
    "\u25810xfeee001a": 1240,
    "\u25810x7d0": 1241,
    "\u2581fibers": 1242,
    "ant": 1243,
    "\u25810x771c": 1244,
    "for": 1245,
    "c000": 1246,
    "rwlock": 1247,
    "\u25810x40934": 1248,
    "e9": 1249,
    "\u25810x50000": 1250,
    "\u25810x41e218": 1251,
    "e7": 1252,
    "\u2581clos": 1253,
    "\u25810x32": 1254,
    "\u25810xfeee001b": 1255,
    "\u25810x79f0": 1256,
    "\u25810x1211958": 1257,
    "\u2581closethreadpool": 1258,
    "\u2581createthreadpool": 1259,
    "\u2581createdirectoryw": 1260,
    "fa": 1261,
    "yscolor": 1262,
    "\u2581getsyscolor": 1263,
    "call": 1264,
    "view": 1265,
    "ork": 1266,
    "\u2581ntdll": 1267,
    "\u25810x417": 1268,
    "33": 1269,
    "\u2581heaprealloc": 1270,
    "\u2581flsfree": 1271,
    "\u25810x678": 1272,
    "\u25810x4cf": 1273,
    "ttributesw": 1274,
    "e1": 1275,
    "\u25810x84": 1276,
    "21": 1277,
    "xa": 1278,
    "\u25810x80c0": 1279,
    "\u2581fin": 1280,
    "\u2581registerclass": 1281,
    "\u2581findre": 1282,
    "\u25810x1f": 1283,
    "\u2581image": 1284,
    "\u2581file": 1285,
    "\u25810xfeee001d": 1286,
    "point": 1287,
    "\u25810x1211c7c": 1288,
    "\u2581wait": 1289,
    "a40": 1290,
    "\u25810x1211908": 1291,
    "\u2581getfile": 1292,
    "pa": 1293,
    "offile": 1294,
    "\u2581relea": 1295,
    "text": 1296,
    "\u25810xfeee01": 1297,
    "esource": 1298,
    "\u25810x94": 1299,
    "97": 1300,
    "\u2581imagelist": 1301,
    "\u2581loadcursora": 1302,
    "prot": 1303,
    "88": 1304,
    "start": 1305,
    "\u2581bor": 1306,
    "loating": 1307,
    "\u25810x1211718": 1308,
    "\u2581getenvironment": 1309,
    "67": 1310,
    "\u25810x12114b8": 1311,
    "all": 1312,
    "protect": 1313,
    "\u25810xfeee0071": 1314,
    "\u2581getversionexw": 1315,
    "\u25810x7de1": 1316,
    "1a": 1317,
    "\u25810x4305": 1318,
    "\u2581virtualprotect": 1319,
    "back": 1320,
    "\u2581createfilea": 1321,
    "ink": 1322,
    "number": 1323,
    "\u2581borl": 1324,
    "9d": 1325,
    "\u25810x120e6": 1326,
    "fromstr": 1327,
    "\u2581golfinfo": 1328,
    "initializ": 1329,
    "\u25810x8b": 1330,
    "mem": 1331,
    "\u2581borland": 1332,
    "keyw": 1333,
    "\u25810x7ec1": 1334,
    "callback": 1335,
    "dater": 1336,
    "metri": 1337,
    "\u2581waitfor": 1338,
    "\u2581setthreadpool": 1339,
    "\u25810x64": 1340,
    "\u25817": 1341,
    "ee0": 1342,
    "\u2581app": 1343,
    "\u25810xfeee001e": 1344,
    "metrics": 1345,
    "\u25810x58": 1346,
    "\u2581wnet": 1347,
    "\u25810x42d4": 1348,
    "\u2581getsystemmetrics": 1349,
    "\u25810x1211738": 1350,
    "\u25810x8f": 1351,
    "ask": 1352,
    "9e": 1353,
    "ive": 1354,
    "\u25810x4a": 1355,
    "\u25810x4750": 1356,
    "\u25810x43b7": 1357,
    "dateresource": 1358,
    "lipboard": 1359,
    "are": 1360,
    "ata": 1361,
    "ver": 1362,
    "\u25810x41de50": 1363,
    "clus": 1364,
    "clusive": 1365,
    "rwlockex": 1366,
    "rwlockexclusive": 1367,
    "qui": 1368,
    "\u2581getthreadlocale": 1369,
    "\u25810x7850": 1370,
    "\u25810xfeee001f": 1371,
    "\u25810x83": 1372,
    "bb": 1373,
    "\u25810xfeee0020": 1374,
    "\u25810x2c": 1375,
    "d3": 1376,
    "\u25810x7930": 1377,
    "45": 1378,
    "96": 1379,
    "ft": 1380,
    "cp": 1381,
    "\u25810xfeee007e": 1382,
    "dr": 1383,
    "\u25810x6781": 1384,
    "\u2581r": 1385,
    "\u25810x1211dfc": 1386,
    "ename": 1387,
    "ub": 1388,
    "work": 1389,
    "und": 1390,
    "\u25810x428": 1391,
    "2f8": 1392,
    "\u2581mic": 1393,
    "\u25810x411": 1394,
    "\u25810x89": 1395,
    "\u2581process32next": 1396,
    "\u25810x15": 1397,
    "paint": 1398,
    "394": 1399,
    "put": 1400,
    "\u25810x4feb": 1401,
    "soft": 1402,
    "compare": 1403,
    "not": 1404,
    "72": 1405,
    "\u2581str": 1406,
    "mask": 1407,
    "\u2581lstrcmpi": 1408,
    "oy": 1409,
    "ory": 1410,
    "\u25810x1e": 1411,
    "variab": 1412,
    "51": 1413,
    "\u25810x198": 1414,
    "ion": 1415,
    "\u25810x700c": 1416,
    "\u2581mapvirtual": 1417,
    "dac": 1418,
    "\u2581floating": 1419,
    "\u2581getversionexa": 1420,
    "logi": 1421,
    "logical": 1422,
    "\u2581getlogical": 1423,
    "rosoft": 1424,
    "7d": 1425,
    "\u25810x92": 1426,
    "\u25810x704c": 1427,
    "\u25810x708c": 1428,
    "lush": 1429,
    "\u2581mapvirtualkeyw": 1430,
    "\u25810x19a": 1431,
    "\u25810x423": 1432,
    "buff": 1433,
    "c1": 1434,
    "\u2581tr": 1435,
    "\u25810x414": 1436,
    "\u2581ole": 1437,
    "\u2581microsoft": 1438,
    "\u2581deletefilew": 1439,
    "\u25810x8cc0": 1440,
    "\u25810x4e50": 1441,
    "\u25810x7f8": 1442,
    "\u2581lstrlenw": 1443,
    "\u2581createprocess": 1444,
    "ways": 1445,
    "lp": 1446,
    "\u25810x7ab0": 1447,
    "180": 1448,
    "\u2581lstrcmpiw": 1449,
    "\u2581createwindow": 1450,
    "\u2581always": 1451,
    "bit": 1452,
    "led": 1453,
    "lw": 1454,
    "\u2581initializes": 1455,
    "\u25810x42c4": 1456,
    "df": 1457,
    "l66": 1458,
    "\u25810xf0019": 1459,
    "\u25810x52": 1460,
    "\u2581flush": 1461,
    "pro": 1462,
    "\u2581globalalloc": 1463,
    "\u2581compare": 1464,
    "eb": 1465,
    "c6": 1466,
    "\u25810x8260": 1467,
    "\u25810x410": 1468,
    "\u25810x1211758": 1469,
    "2a": 1470,
    "\u2581sprintf": 1471,
    "\u25810xa3": 1472,
    "\u2581getsystemdirectoryw": 1473,
    "buffers": 1474,
    "\u25810x12112f8": 1475,
    "\u25810x1211f64": 1476,
    "\u25810x99": 1477,
    "\u25810x105": 1478,
    "l6660": 1479,
    "valu": 1480,
    "\u2581con": 1481,
    "77": 1482,
    "\u25810x53ba": 1483,
    "\u2581loadiconw": 1484,
    "a256": 1485,
    "\u25810xfeee0021": 1486,
    "\u25810xcc": 1487,
    "\u25810x1075": 1488,
    "trac": 1489,
    "\u25810xfeee0022": 1490,
    "\u2581sha256": 1491,
    "link": 1492,
    "\u25810x7e8": 1493,
    "1d": 1494,
    "\u2581vers": 1495,
    "\u2581getdc": 1496,
    "bug": 1497,
    "\u2581verset": 1498,
    "conditionmask": 1499,
    "\u2581versetconditionmask": 1500,
    "low": 1501,
    "\u2581ch": 1502,
    "\u25810x4f": 1503,
    "\u25810xfeee0024": 1504,
    "\u25810x1211cf8": 1505,
    "\u25810xfeee0025": 1506,
    "\u25810xfeee0023": 1507,
    "ken": 1508,
    "\u25810x41bc": 1509,
    "atex": 1510,
    "\u25810x1211528": 1511,
    "rag": 1512,
    "token": 1513,
    "\u2581release": 1514,
    "\u2581getusername": 1515,
    "ailed": 1516,
    "lan": 1517,
    "quires": 1518,
    "servicew": 1519,
    "\u2581currentversion": 1520,
    "\u25810xfeee0027": 1521,
    "\u2581copy": 1522,
    "9f": 1523,
    "stroy": 1524,
    "\u25810x12119c0": 1525,
    "debug": 1526,
    "quiresrwlockexclusive": 1527,
    "\u25810x4350": 1528,
    "\u2581up": 1529,
    "\u25814": 1530,
    "\u25810xfeee0026": 1531,
    "\u25810x17": 1532,
    "\u25810x6781d8": 1533,
    "lect": 1534,
    "devi": 1535,
    "480": 1536,
    "allock": 1537,
    "\u2581getfilea": 1538,
    "ockob": 1539,
    "\u2581getstockob": 1540,
    "ocket": 1541,
    "\u2581wsprintfw": 1542,
    "drl6660": 1543,
    "\u25810x4c4308": 1544,
    "\u25810xa0": 1545,
    "73": 1546,
    "messagew": 1547,
    "apho": 1548,
    "aphore": 1549,
    "emaphore": 1550,
    "\u2581select": 1551,
    "localename": 1552,
    "\u25810x1211780": 1553,
    "\u2581setfilea": 1554,
    "\u2581extrac": 1555,
    "\u25810x7ad0": 1556,
    "\u25810x4bd0": 1557,
    "\u25810x4000": 1558,
    "guage": 1559,
    "\u25810x429": 1560,
    "\u2581globallock": 1561,
    "\u25810xfeee005f": 1562,
    "lex": 1563,
    "\u25810x1211a": 1564,
    "23": 1565,
    "language": 1566,
    "\u2581findfirst": 1567,
    "lwapi": 1568,
    "\u2581shlwapi": 1569,
    "c08": 1570,
    "dis": 1571,
    "trl": 1572,
    "\u25810x41de08": 1573,
    "termin": 1574,
    "dateresourcea": 1575,
    "ilanguage": 1576,
    "\u2581draw": 1577,
    "ce0": 1578,
    "\u25818": 1579,
    "ag": 1580,
    "\u2581vari": 1581,
    "mute": 1582,
    "\u2581termin": 1583,
    "formatex": 1584,
    "ffc": 1585,
    "\u2581shellex": 1586,
    "\u25810x1211728": 1587,
    "econ": 1588,
    "\u2581createsemaphore": 1589,
    "ision": 1590,
    "system": 1591,
    "\u25810x67": 1592,
    "fd0": 1593,
    "variablew": 1594,
    "din": 1595,
    "1b": 1596,
    "ith": 1597,
    "\u2581gut": 1598,
    "\u2581gum": 1599,
    "\u25810x78a0": 1600,
    "\u2581findclose": 1601,
    "ero": 1602,
    "\u25810xfeee0028": 1603,
    "valueexw": 1604,
    "59": 1605,
    "conditionvariable": 1606,
    "\u2581ole32": 1607,
    "fo": 1608,
    "\u25810x38": 1609,
    "61": 1610,
    "mutexa": 1611,
    "\u25810x2e": 1612,
    "\u25810xfeee008b": 1613,
    "\u2581getm": 1614,
    "\u25810x42a1": 1615,
    "\u2581or": 1616,
    "\u25810x364": 1617,
    "flow": 1618,
    "profile": 1619,
    "\u25810x53ba40": 1620,
    "atch": 1621,
    "\u2581varb": 1622,
    "\u25810x7f800": 1623,
    "clipboard": 1624,
    "\u25810x1211fd8": 1625,
    "ef": 1626,
    "eck": 1627,
    "\u2581king": 1628,
    "\u2581setmenu": 1629,
    "mapview": 1630,
    "\u25810x23": 1631,
    "1f": 1632,
    "\u25810x7a80": 1633,
    "\u2581getfileattributesw": 1634,
    "\u25810xfeee0040": 1635,
    "\u25810x7830": 1636,
    "\u25810x1211c90": 1637,
    "\u2581getdevi": 1638,
    "\u25810xfeee0029": 1639,
    "cecaps": 1640,
    "\u2581getdevicecaps": 1641,
    "ea": 1642,
    "help": 1643,
    "patch": 1644,
    "\u2581regopenkeyexa": 1645,
    "\u25810x42a190": 1646,
    "\u25810x4630": 1647,
    "\u25810xfeee0072": 1648,
    "\u25810x1211f8": 1649,
    "\u25810xfeee002a": 1650,
    "\u2581lstrlena": 1651,
    "filenamew": 1652,
    "\u25810x169b": 1653,
    "d04": 1654,
    "\u25810x4c46": 1655,
    "\u25810x42e5b0": 1656,
    "\u25810x7540": 1657,
    "2d": 1658,
    "\u25810x1211f7c": 1659,
    "65": 1660,
    "div": 1661,
    "\u25810x97": 1662,
    "sub": 1663,
    "\u25810xfeee005d": 1664,
    "\u25810x1211f20": 1665,
    "informationby": 1666,
    "\u2581lock": 1667,
    "3a": 1668,
    "300": 1669,
    "\u2581initialize": 1670,
    "\u25810x41d": 1671,
    "\u2581deletecriticalsection": 1672,
    "dacl": 1673,
    "securitydescriptordacl": 1674,
    "\u25810x60": 1675,
    "kart": 1676,
    "karton": 1677,
    "\u25810x7aa0": 1678,
    "\u258120": 1679,
    "\u2581kingkarton": 1680,
    "\u25810xfeee0046": 1681,
    "\u25810x44f8": 1682,
    "old": 1683,
    "eek": 1684,
    "\u25810x16": 1685,
    "\u2581out": 1686,
    "\u25810xfeee002c": 1687,
    "ush": 1688,
    "\u25810x1211cc0": 1689,
    "\u25810x1b": 1690,
    "3d8": 1691,
    "\u25810x569": 1692,
    "rec": 1693,
    "\u25810x1a": 1694,
    "head": 1695,
    "\u25810xfeee002d": 1696,
    "\u25810xfeee002b": 1697,
    "\u25810x1211fd0": 1698,
    "\u25810xfeee002f": 1699,
    "\u25810xfeee00f1": 1700,
    "\u25810x439": 1701,
    "\u25810x88a0": 1702,
    "\u25810xfeee002e": 1703,
    "ati": 1704,
    "a04": 1705,
    "\u25810x8d00": 1706,
    "brush": 1707,
    "\u25810x4d70": 1708,
    "6f": 1709,
    "listhead": 1710,
    "\u2581initializeslisthead": 1711,
    "\u25810x78c0": 1712,
    "c04": 1713,
    "\u25810x2000": 1714,
    "\u2581th": 1715,
    "\u25810xfeee007c": 1716,
    "\u2581un": 1717,
    "\u25810xd0": 1718,
    "\u2581send": 1719,
    "linkw": 1720,
    "\u25810x214": 1721,
    "\u25810x22": 1722,
    "\u25810x4336": 1723,
    "\u25810xfeee0030": 1724,
    "\u25810xfeee0074": 1725,
    "\u25810xfeee006b": 1726,
    "\u25810xfeee0045": 1727,
    "\u25810x3394": 1728,
    "\u25810x9010": 1729,
    "\u25810x4790": 1730,
    "\u25810x43b": 1731,
    "\u25810xa000": 1732,
    "\u25810xfeee0031": 1733,
    "de9": 1734,
    "\u2581createthread": 1735,
    "\u25810xfeee006d": 1736,
    "memory": 1737,
    "\u2581start": 1738,
    "\u25810x1210f35": 1739,
    "\u25810xfeee0044": 1740,
    "\u2581failed": 1741,
    "\u25810x42c508": 1742,
    "\u25810xfeee0034": 1743,
    "ass": 1744,
    "\u2581gettime": 1745,
    "\u25810xfeee005e": 1746,
    "\u2581ntopen": 1747,
    "fold": 1748,
    "\u25810xfeee0032": 1749,
    "\u2581ntopensection": 1750,
    "\u2581createwindowexa": 1751,
    "oct": 1752,
    "\u25810xfeee0033": 1753,
    "sourc": 1754,
    "\u25810x7bd0": 1755,
    "\u25810xfeee0043": 1756,
    "\u2581getenvironmentvariablew": 1757,
    "\u25810xfeee0035": 1758,
    "\u25810xfeee0047": 1759,
    "\u25810xfeee0036": 1760,
    "een": 1761,
    "\u25810xfeee0048": 1762,
    "\u25810xfeee003b": 1763,
    "\u25810xfeee0037": 1764,
    "\u25810x21": 1765,
    "\u25810x4014": 1766,
    "\u25810xfeee0049": 1767,
    "ms": 1768,
    "sn": 1769,
    "\u25810xfeee0038": 1770,
    "\u25810xfeee0039": 1771,
    "\u2581loc": 1772,
    "\u2581wsprintfa": 1773,
    "\u25810xfeee0041": 1774,
    "\u25810x7990": 1775,
    "\u25810xfeee003f": 1776,
    "\u25810xfeee0042": 1777,
    "\u2581localiz": 1778,
    "\u2581localization": 1779,
    "\u25810xfeee003a": 1780,
    "\u25810xfeee003d": 1781,
    "\u25810x1211fcc": 1782,
    "\u25810xfeee003e": 1783,
    "\u25810xfeee003c": 1784,
    "sing": 1785,
    "\u25810x1211fc0": 1786,
    "\u25810xfeee0062": 1787,
    "\u25810x7150": 1788,
    "\u25810x1211948": 1789,
    "\u25810xfeee0053": 1790,
    "\u2581findresource": 1791,
    "\u25810xfeee004a": 1792,
    "\u2581dis": 1793,
    "\u25810x51": 1794,
    "\u25810xfeee0060": 1795,
    "\u2581destroy": 1796,
    "\u25810x42d8": 1797,
    "\u25810xfeee005c": 1798,
    "\u25810x72a0": 1799,
    "\u25810xfeee004b": 1800,
    "\u25810xfeee004d": 1801,
    "\u25810xfeee004c": 1802,
    "\u25810x73f0": 1803,
    "\u25810x42b0": 1804,
    "\u25810xfeee005a": 1805,
    "\u25810xfeee0050": 1806,
    "\u25810xfeee004e": 1807,
    "\u25810xfeee0055": 1808,
    "\u2581end": 1809,
    "\u25810x7d10": 1810,
    "\u25810xfeee005b": 1811,
    "\u25810xfeee0051": 1812,
    "\u25810xfeee0052": 1813,
    "\u25810xfeee004f": 1814,
    "\u25810xfeee0054": 1815,
    "\u25810xfeee0061": 1816,
    "drive": 1817,
    "\u25810xfeee0057": 1818,
    "5d": 1819,
    "\u25810xfeee0056": 1820,
    "\u25810xfeee0065": 1821,
    "\u25810xfeee0063": 1822,
    "\u2581initterm": 1823,
    "\u25810x1211568": 1824,
    "\u2581setmenuinfo": 1825,
    "\u25810xfeee0058": 1826,
    "\u25810xfeee0066": 1827,
    "\u25810xfeee0059": 1828,
    "\u25810x7690": 1829,
    "\u25810xfeee0067": 1830,
    "\u25810x42c4d8": 1831,
    "52": 1832,
    "\u25810x43780": 1833,
    "\u2581code": 1834,
    "\u25810x77e0": 1835,
    "e40": 1836,
    "\u25810xfeee0068": 1837,
    "\u25810x401468": 1838,
    "\u2581gettempfilenamew": 1839,
    "\u25810xfeee0064": 1840,
    "f04": 1841,
    "\u2581getuserdefault": 1842,
    "\u2581com": 1843,
    "0000000": 1844,
    "\u25810xfeee0073": 1845,
    "e3": 1846,
    "\u2581findfirstfilew": 1847,
    "hot": 1848,
    "\u2581initializesecuritydescriptor": 1849,
    "\u2581createw": 1850,
    "ton": 1851,
    "\u2581createt": 1852,
    "\u2581try": 1853,
    "\u2581setsecuritydescriptordacl": 1854,
    "nex": 1855,
    "\u25810x1211fc8": 1856,
    "\u25810xfeee0070": 1857,
    "\u25810xfeee0075": 1858,
    "\u25810xfeee006c": 1859,
    "pal": 1860,
    "\u25810x4169": 1861,
    "palet": 1862,
    "\u25810x3c": 1863,
    "\u25810xfeee006a": 1864,
    "gear": 1865,
    "\u2581codegear": 1866,
    "\u25810xfeee006f": 1867,
    "\u25810x7d50": 1868,
    "\u2581createa": 1869,
    "cel": 1870,
    "\u25810xfeee006e": 1871,
    "\u25810xfeee0069": 1872,
    "\u25810x436390": 1873,
    "oper": 1874,
    "57": 1875,
    "tries": 1876,
    "\u25810x9c": 1877,
    "ryp": 1878,
    "\u2581tryac": 1879,
    "\u2581tryacquiresrwlockexclusive": 1880,
    "92": 1881,
    "\u25810x1f4": 1882,
    "cectrl": 1883,
    "apshot": 1884,
    "pack": 1885,
    "help32": 1886,
    "oolhelp32": 1887,
    "ym": 1888,
    "snapshot": 1889,
    "oolhelp32snapshot": 1890,
    "\u2581createtoolhelp32snapshot": 1891,
    "\u25810x4c46d0": 1892,
    "chan": 1893,
    "stry": 1894,
    "\u25810x28fd0": 1895,
    "pos": 1896,
    "tem": 1897,
    "closekey": 1898,
    "\u2581regclosekey": 1899,
    "\u2581enum": 1900,
    "\u25810x42d508": 1901,
    "ecomp": 1902,
    "\u25810x437b": 1903,
    "\u2581po": 1904,
    "\u25816": 1905,
    "110": 1906,
    "c2": 1907,
    "\u2581releasedc": 1908,
    "ain": 1909,
    "\u25810x42c5": 1910,
    "\u25817z": 1911,
    "268": 1912,
    "\u25810x1211ee0": 1913,
    "atible": 1914,
    "\u2581process32first": 1915,
    "\u25810x1211bc0": 1916,
    "leob": 1917,
    "ecompatible": 1918,
    "\u2581createcompatible": 1919,
    "ont": 1920,
    "\u25810x188": 1921,
    "64000": 1922,
    "vol": 1923,
    "package": 1924,
    "\u25810x12118": 1925,
    "\u2581findwindow": 1926,
    "\u2581peek": 1927,
    "packageid": 1928,
    "\u2581getcurrentpackageid": 1929,
    "\u25810x4305b0": 1930,
    "wh": 1931,
    "dinal": 1932,
    "\u25810x40a5ce": 1933,
    "\u25810x40a5d0": 1934,
    "\u25810x40a5d2": 1935,
    "\u25810x40a5d4": 1936,
    "\u25810x40a5d6": 1937,
    "\u25810x40a5d8": 1938,
    "\u25810x40a5da": 1939,
    "draw": 1940,
    "\u2581getlogicaldrive": 1941,
    "\u25810xfeee0077": 1942,
    "\u25810xfeee0079": 1943,
    "\u25810xfeee0078": 1944,
    "\u25810xfeee0076": 1945,
    "\u25810xfeee007a": 1946,
    "708": 1947,
    "ec0": 1948,
    "320": 1949,
    "\u2581wake": 1950,
    "\u2581wakeall": 1951,
    "\u2581wakeallconditionvariable": 1952,
    "\u2581regset": 1953,
    "move": 1954,
    "\u2581drag": 1955,
    "\u25810x25": 1956,
    "\u25810x12119ac": 1957,
    "\u25810xfeee0081": 1958,
    "220": 1959,
    "7f": 1960,
    "\u2581ordinal": 1961,
    "\u2581loadresource": 1962,
    "\u2581comparestringex": 1963,
    "\u25810x42d4d8": 1964,
    "\u2581getlocaleinfoex": 1965,
    "\u2581append": 1966,
    "\u25810x68": 1967,
    "\u25810xfde9": 1968,
    "ume": 1969,
    "\u25810xfeee009a": 1970,
    "volume": 1971,
    "\u2581shget": 1972,
    "urn": 1973,
    "operation": 1974,
    "\u2581of": 1975,
    "ec8": 1976,
    "ymbo": 1977,
    "ock32": 1978,
    "\u2581wsock32": 1979,
    "ymbolic": 1980,
    "13": 1981,
    "ymboliclinkw": 1982,
    "\u2581createsymboliclinkw": 1983,
    "588": 1984,
    "\u25810x53000": 1985,
    "stack": 1986,
    "verflow": 1987,
    "\u2581lockresource": 1988,
    "vate": 1989,
    "\u2581error": 1990,
    "\u25810x434": 1991,
    "econdition": 1992,
    "econditionvariable": 1993,
    "\u2581cryp": 1994,
    "2020": 1995,
    "\u2581strn": 1996,
    "\u2581lread": 1997,
    "strfrom": 1998,
    "\u2581varbstrfrom": 1999,
    "am": 2000,
    "d80": 2001,
    "oci": 2002,
    "\u258132": 2003,
    "\u25810x4239": 2004,
    "\u25810x21000": 2005,
    "ret": 2006,
    "\u25810x1211e14": 2007,
    "\u2581appendw": 2008,
    "\u2581findresourc": 2009,
    "\u2581createdirectorya": 2010,
    "\u2581ofresource": 2011,
    "\u25810x8e": 2012,
    "\u2581findresourceexw": 2013,
    "\u25810x1211f2c": 2014,
    "\u25810x4c32": 2015,
    "nection": 2016,
    "\u25810x1f400": 2017,
    "\u2581message": 2018,
    "\u25810xfeee007b": 2019,
    "\u25810x3f34": 2020,
    "7b": 2021,
    "when": 2022,
    "return": 2023,
    "processornumber": 2024,
    "\u2581getcurrentprocessornumber": 2025,
    "returns": 2026,
    "processwrite": 2027,
    "whencallback": 2028,
    "\u2581flushprocesswrite": 2029,
    "\u2581setthreadpoolwait": 2030,
    "whencallbackreturns": 2031,
    "\u2581closethreadpoolwait": 2032,
    "\u2581closethreadpooltimer": 2033,
    "\u2581createthreadpoolwait": 2034,
    "\u2581flushprocesswritebuffers": 2035,
    "\u2581freelibrarywhencallbackreturns": 2036,
    "callbacks": 2037,
    "timercallbacks": 2038,
    "\u2581waitforthreadpool": 2039,
    "\u2581setthreadpooltimer": 2040,
    "\u2581createthreadpooltimer": 2041,
    "\u2581waitforthreadpooltimercallbacks": 2042,
    "\u2581createsemaphoreexw": 2043,
    "singleob": 2044,
    "\u2581e": 2045,
    "init": 2046,
    "\u2581hton": 2047,
    "associ": 2048,
    "\u25810x1211fc4": 2049,
    "\u2581the": 2050,
    "004": 2051,
    "variablea": 2052,
    "\u25810x79d0": 2053,
    "\u2581extract": 2054,
    "\u2581waitforsingleob": 2055,
    "windowproc": 2056,
    "2w": 2057,
    "\u25810x435390": 2058,
    "\u25810x121194c": 2059,
    "nection2w": 2060,
    "\u25810x12117a4": 2061,
    "\u25810x121157c": 2062,
    "\u25810x98": 2063,
    "\u2581no": 2064,
    "\u25810xfeee0089": 2065,
    "utes": 2066,
    "\u2581getsysteminfo": 2067,
    "\u2581strncmp": 2068,
    "\u25810xfeee008a": 2069,
    "cy": 2070,
    "2f": 2071,
    "\u25810xfeee007f": 2072,
    "\u2581findresourcew": 2073,
    "enum": 2074,
    "associate": 2075,
    "dicon": 2076,
    "associatedicon": 2077,
    "\u2581extractassociatedicon": 2078,
    "ok": 2079,
    "\u2581peekmessagea": 2080,
    "\u25810x1211dcc": 2081,
    "sti": 2082,
    "\u2581messagebo": 2083,
    "\u2581beginup": 2084,
    "3b": 2085,
    "host": 2086,
    "nal": 2087,
    "\u2581createmutexa": 2088,
    "\u25810xfeee010": 2089,
    "\u2581hg": 2090,
    "\u2581font": 2091,
    "ong": 2092,
    "stit": 2093,
    "\u2581hgdraw": 2094,
    "meto": 2095,
    "\u2581mon": 2096,
    "d0a": 2097,
    "\u2581findnext": 2098,
    "trol": 2099,
    "substit": 2100,
    "substitutes": 2101,
    "\u2581fontsubstitutes": 2102,
    "private": 2103,
    "state": 2104,
    "windows": 2105,
    "688": 2106,
    "privateprofile": 2107,
    "\u2581update": 2108,
    "696": 2109,
    "\u25810xfeee0080": 2110,
    "\u2581def": 2111,
    "\u25810x460": 2112,
    "de0": 2113,
    "\u25810x101": 2114,
    "\u25810x7b40": 2115,
    "86": 2116,
    "errormode": 2117,
    "\u25810xfeee007d": 2118,
    "\u2581seterrormode": 2119,
    "yo": 2120,
    "\u25810x3f75": 2121,
    "\u25810x1211f00": 2122,
    "\u2581setthread": 2123,
    "\u2581getdate": 2124,
    "sup": 2125,
    "\u2581show": 2126,
    "\u2581shellexecute": 2127,
    "\u25810x3e": 2128,
    "\u2581setwindow": 2129,
    "380": 2130,
    "own": 2131,
    "spac": 2132,
    "cpyn": 2133,
    "\u2581lstrcpyn": 2134,
    "\u2581globalfree": 2135,
    "7a": 2136,
    "\u25810x33": 2137,
    "\u2581regsetvalueexw": 2138,
    "\u25810x1211fd4": 2139,
    "\u25810x2f": 2140,
    "770": 2141,
    "\u2581getcurrentdirectoryw": 2142,
    "\u25810x4371": 2143,
    "\u25810xa9": 2144,
    "\u25810xa429": 2145,
    "\u25810x44f9": 2146,
    "\u25810xc00": 2147,
    "\u2581post": 2148,
    "\u2581crypt": 2149,
    "\u25810xfeee0082": 2150,
    "\u2581with": 2151,
    "\u25810x4feba8": 2152,
    "\u25810x7090": 2153,
    "\u2581loadlibraryw": 2154,
    "ace": 2155,
    "6d": 2156,
    "\u2581setup": 2157,
    "\u25810x59": 2158,
    "\u2581beginpaint": 2159,
    "378": 2160,
    "\u25810x4100": 2161,
    "lec": 2162,
    "\u25810x8230": 2163,
    "\u25810x1211e2c": 2164,
    "\u2581getusernamea": 2165,
    "\u2581endpaint": 2166,
    "tered": 2167,
    "\u2581altered": 2168,
    "692": 2169,
    "\u25810x422": 2170,
    "\u25810xfeee0084": 2171,
    "\u25810x29": 2172,
    "ternal": 2173,
    "ust": 2174,
    "\u25810x96": 2175,
    "\u2581setc": 2176,
    "\u25810xb8": 2177,
    "\u2581trans": 2178,
    "\u25810x169bf": 2179,
    "\u25810x7ae0": 2180,
    "\u25810x438": 2181,
    "\u25810x46b0": 2182,
    "208": 2183,
    "image": 2184,
    "\u25810xfeee0095": 2185,
    "\u2581defwindowproc": 2186,
    "endoffile": 2187,
    "188": 2188,
    "\u25810xfeee0087": 2189,
    "\u25810xfeee008e": 2190,
    "\u2581getmessagea": 2191,
    "\u2581getmain": 2192,
    "\u25810xfeee0088": 2193,
    "\u25810x1211d04": 2194,
    "\u2581golfset": 2195,
    "\u25810xfeee0083": 2196,
    "\u25810xfeee008c": 2197,
    "53": 2198,
    "5e": 2199,
    "\u2581pr": 2200,
    "bitmap": 2201,
    "\u25810x7300": 2202,
    "\u25810xfeee0085": 2203,
    "\u25810x7390": 2204,
    "e66": 2205,
    "\u25810xfeee0086": 2206,
    "\u25810x5a": 2207,
    "\u25810x1211a04": 2208,
    "338": 2209,
    "e6c": 2210,
    "\u25810x1211c04": 2211,
    "\u2581gettempa": 2212,
    "\u2581windowsnt": 2213,
    "\u2581process32nextw": 2214,
    "\u25810x7900": 2215,
    "volumeinformation": 2216,
    "\u2581getvolumeinformation": 2217,
    "\u25810xfeee008d": 2218,
    "\u2581transla": 2219,
    "\u25810x7b80": 2220,
    "2b": 2221,
    "\u25810x8920": 2222,
    "cpy": 2223,
    "long": 2224,
    "6e": 2225,
    "\u2581registry": 2226,
    "\u2581setfileattributesw": 2227,
    "\u2581devi": 2228,
    "\u2581deletefilea": 2229,
    "\u25810x7f0": 2230,
    "\u25810x4967": 2231,
    "\u25810x6d": 2232,
    "\u25810x42e": 2233,
    "39000": 2234,
    "\u25810x7db0": 2235,
    "\u25810x66": 2236,
    "\u2581coinitializ": 2237,
    "\u25810x78d0": 2238,
    "ab8": 2239,
    "lphi": 2240,
    "\u2581delphi": 2241,
    "\u25810x569b00": 2242,
    "\u25810x1d": 2243,
    "quit": 2244,
    "\u25810x42b": 2245,
    "\u25810x437880": 2246,
    "9a": 2247,
    "408": 2248,
    "e6b": 2249,
    "\u25810x7270": 2250,
    "\u25810x7060": 2251,
    "ac000": 2252,
    "f4000": 2253,
    "fer": 2254,
    "ator": 2255,
    "\u2581createprocessw": 2256,
    "\u25810x571": 2257,
    "\u2581wc": 2258,
    "unlock": 2259,
    "\u25810x71b0": 2260,
    "c5": 2261,
    "\u25810x85": 2262,
    "\u25810xfeee008f": 2263,
    "ac6": 2264,
    "\u25810x75d0": 2265,
    "\u25810xfeee0090": 2266,
    "3c000": 2267,
    "\u2581device": 2268,
    "dl": 2269,
    "\u25810x42b9": 2270,
    "\u2581ra": 2271,
    "\u25810x7870": 2272,
    "\u2581getkey": 2273,
    "eexception": 2274,
    "\u25810x1211efc": 2275,
    "\u25810x39": 2276,
    "\u2581rais": 2277,
    "\u2581raiseexception": 2278,
    "\u25810x7030": 2279,
    "nect": 2280,
    "uni": 2281,
    "\u25810x7d95": 2282,
    "\u2581openprocess": 2283,
    "\u2581globalunlock": 2284,
    "ad000": 2285,
    "\u25810x7d94": 2286,
    "\u25810x416b": 2287,
    "out": 2288,
    "untime": 2289,
    "\u25810x94c0": 2290,
    "\u25810xfeee0092": 2291,
    "54000": 2292,
    "\u25810x9a": 2293,
    "\u2581registerclassexa": 2294,
    "\u2581check": 2295,
    "\u2581showwindow": 2296,
    "refer": 2297,
    "\u25813": 2298,
    "\u25810x1211dd4": 2299,
    "\u2581ws2": 2300,
    "69000": 2301,
    "a5000": 2302,
    "\u25810x7b10": 2303,
    "ray": 2304,
    "118": 2305,
    "\u25810x71e0": 2306,
    "erator": 2307,
    "\u25810x79c0": 2308,
    "\u2581getwindow": 2309,
    "24000": 2310,
    "\u25810xfeee0094": 2311,
    "ger": 2312,
    "\u2581translate": 2313,
    "6c000": 2314,
    "\u25810x7210": 2315,
    "\u25810x74e0": 2316,
    "\u25810x7240": 2317,
    "\u25810x72d0": 2318,
    "\u25810x7750": 2319,
    "b9c": 2320,
    "privi": 2321,
    "\u25810x7a50": 2322,
    "\u25810xfeee0091": 2323,
    "b4000": 2324,
    "b8000": 2325,
    "bc000": 2326,
    "32000": 2327,
    "\u25810x70c0": 2328,
    "\u25810x7120": 2329,
    "28000": 2330,
    "\u25810x7180": 2331,
    "\u25810x8090": 2332,
    "localtime": 2333,
    "\u25810x7600": 2334,
    "\u25810x7cf0": 2335,
    "be000": 2336,
    "\u25810x70f0": 2337,
    "privile": 2338,
    "input": 2339,
    "\u25810x7480": 2340,
    "\u25810x7330": 2341,
    "\u2581getkeyboard": 2342,
    "7c000": 2343,
    "\u25810x75a0": 2344,
    "\u25810x7360": 2345,
    "\u25810xfeee0093": 2346,
    "5c000": 2347,
    "mapviewof": 2348,
    "mapviewofsection": 2349,
    "\u25810x7570": 2350,
    "\u25810x7660": 2351,
    "\u25810x7720": 2352,
    "\u25810x73c0": 2353,
    "unicode": 2354,
    "\u25810x7a20": 2355,
    "\u25810x7ba0": 2356,
    "26000": 2357,
    "\u25810x7450": 2358,
    "\u25810x7840": 2359,
    "\u25810x76f0": 2360,
    "2c000": 2361,
    "\u25810x74b0": 2362,
    "\u25810x76c0": 2363,
    "\u25810x7420": 2364,
    "\u25810x7510": 2365,
    "58000": 2366,
    "\u25810xe0": 2367,
    "\u25810xfeee0098": 2368,
    "34000": 2369,
    "ab000": 2370,
    "\u25810x77b0": 2371,
    "94000": 2372,
    "securityinfo": 2373,
    "\u25810xfeee0097": 2374,
    "\u25810x86": 2375,
    "\u25810xfeee0096": 2376,
    "\u25810x7630": 2377,
    "privilege": 2378,
    "\u2581messageboxa": 2379,
    "\u25810xfeee0099": 2380,
    "\u25810x1211fac": 2381,
    "48000": 2382,
    "a8000": 2383,
    "\u25810x7960": 2384,
    "38000": 2385,
    "\u25810x7780": 2386,
    "74000": 2387,
    "68c": 2388,
    "56000": 2389,
    "\u25810x7b70": 2390,
    "unicodestring": 2391,
    "9c000": 2392,
    "a4000": 2393,
    "\u2581rtlinit": 2394,
    "c4000": 2395,
    "lecs": 2396,
    "98000": 2397,
    "variablecs": 2398,
    "\u2581sleepcondition": 2399,
    "\u2581sleepconditionvariablecs": 2400,
    "78000": 2401,
    "\u2581updatewindow": 2402,
    "stringsa": 2403,
    "\u2581rtlinitunicodestring": 2404,
    "\u25810x1211f28": 2405,
    "68000": 2406,
    "4c000": 2407,
    "\u25810x78f0": 2408,
    "\u25810x9030": 2409,
    "anag": 2410,
    "\u2581getlocaltime": 2411,
    "disk": 2412,
    "\u25810x121193c": 2413,
    "e6669": 2414,
    "\u258110": 2415,
    "\u25810d0a": 2416,
    "696e6b": 2417,
    "\u25810x7be0": 2418,
    "692e6669": 2419,
    "696e6b692e6669": 2420,
    "\u25810x120e": 2421,
    "e44": 2422,
    "\u25810x36": 2423,
    "diskfree": 2424,
    "diskfreespac": 2425,
    "\u2581getdiskfreespac": 2426,
    "allocate": 2427,
    "\u2581txt": 2428,
    "\u25810xfeee009b": 2429,
    "12000": 2430,
    "\u25810xfeee009c": 2431,
    "uter": 2432,
    "computer": 2433,
    "gro": 2434,
    "ysi": 2435,
    "sid": 2436,
    "ram": 2437,
    "redu": 2438,
    "\u25810x419c": 2439,
    "referredu": 2440,
    "referreduilanguage": 2441,
    "threadp": 2442,
    "threadpreferreduilanguage": 2443,
    "62": 2444,
    "\u25810x42a9": 2445,
    "threadpreferreduilanguages": 2446,
    "\u2581postquit": 2447,
    "\u2581postquitmessage": 2448,
    "base": 2449,
    "\u2581rec": 2450,
    "hysi": 2451,
    "\u2581dispatch": 2452,
    "\u2581wi": 2453,
    "\u2581remove": 2454,
    "bits": 2455,
    "\u25810x3f2000": 2456,
    "\u2581physi": 2457,
    "\u2581physical": 2458,
    "\u2581di": 2459,
    "\u2581malloc": 2460,
    "fore": 2461,
    "\u25810x48f8": 2462,
    "arg": 2463,
    "zero": 2464,
    "\u2581registerclassexw": 2465,
    "new": 2466,
    "\u25810x44f8e0": 2467,
    "388": 2468,
    "\u2581err": 2469,
    "os": 2470,
    "\u25810x410090": 2471,
    "\u2581recv": 2472,
    "\u25810x42a9a0": 2473,
    "\u25810x1211508": 2474,
    "\u2581unhandledexceptionfilter": 2475,
    "\u2581enumsystem": 2476,
    "hlp": 2477,
    "\u25810x1211f30": 2478,
    "ateprocess": 2479,
    "\u25810x95": 2480,
    "manag": 2481,
    "\u2581variant": 2482,
    "debugger": 2483,
    "debuggerpresent": 2484,
    "\u25810x7bf0": 2485,
    "\u25810x7b90": 2486,
    "\u2581ma": 2487,
    "\u25810x1211cdc": 2488,
    "\u25810xa3a7": 2489,
    "lete": 2490,
    "\u2581isdebuggerpresent": 2491,
    "\u2581op": 2492,
    "\u25810x41b": 2493,
    "\u2581terminateprocess": 2494,
    "5f": 2495,
    "if": 2496,
    "\u25810x1211928": 2497,
    "hlpapi": 2498,
    "servicehandle": 2499,
    "\u2581closeservicehandle": 2500,
    "folderw": 2501,
    "\u2581sat": 2502,
    "array": 2503,
    "ttributesa": 2504,
    "ows": 2505,
    "\u25810x6c": 2506,
    "\u2581res": 2507,
    "dri": 2508,
    "pe": 2509,
    "5b": 2510,
    "\u25810x1211f04": 2511,
    "\u258120220": 2512,
    "\u25812022030": 2513,
    "\u25810x655": 2514,
    "56c": 2515,
    "808": 2516,
    "93": 2517,
    "rit": 2518,
    "\u25810x12117f8": 2519,
    "change": 2520,
    "\u25810x47c0": 2521,
    "63": 2522,
    "a58": 2523,
    "\u2581au": 2524,
    "\u2581resum": 2525,
    "\u2581resumethread": 2526,
    "\u2581enumsystemlocales": 2527,
    "\u2581translatemessage": 2528,
    "\u25810x1211578": 2529,
    "\u25810x52660": 2530,
    "\u2581point": 2531,
    "\u2581writ": 2532,
    "\u2581prec": 2533,
    "\u2581errata": 2534,
    "\u2581precision": 2535,
    "\u25810x80000000": 2536,
    "\u2581writec": 2537,
    "variant": 2538,
    "\u25810x404": 2539,
    "\u25810x412": 2540,
    "\u25810x65500000": 2541,
    "\u25810x1211308": 2542,
    "\u2581getuserdefaultlocalename": 2543,
    "\u25810x41b9": 2544,
    "\u25810x41bc20": 2545,
    "drl6660drl6660": 2546,
    "\u2581isvalidlocalename": 2547,
    "\u2581getdateformatex": 2548,
    "\u2581gettimeformatex": 2549,
    "\u2581enumsystemlocalesex": 2550,
    "\u25810x6b": 2551,
    "\u25810xa1": 2552,
    "\u2581registerwindow": 2553,
    "\u2581mo": 2554,
    "\u2581nov": 2555,
    "\u2581sep": 2556,
    "\u2581q": 2557,
    "\u25810x424": 2558,
    "typ": 2559,
    "ull": 2560,
    "\u2581gettickcount64": 2561,
    "\u2581exitthread": 2562,
    "\u25810xa2": 2563,
    "\u25810x3bc": 2564,
    "008": 2565,
    "ground": 2566,
    "\u25810x4fec": 2567,
    "alog": 2568,
    "\u2581oct": 2569,
    "\u2581getsystemdirectorya": 2570,
    "ember": 2571,
    "\u25810x10000": 2572,
    "\u25810x1211f4c": 2573,
    "\u25810xd000": 2574,
    "\u2581sun": 2575,
    "\u25810x420c": 2576,
    "\u25810x1211f34": 2577,
    "teen": 2578,
    "paletteen": 2579,
    "paletteentries": 2580,
    "\u25810x7cd0": 2581,
    "\u25810x42dac6": 2582,
    "down": 2583,
    "wind": 2584,
    "\u2581msvcr": 2585,
    "cad": 2586,
    "ogram": 2587,
    "scmanag": 2588,
    "\u2581openscmanag": 2589,
    "\u25810x42a": 2590,
    "\u25810x42a40": 2591,
    "uary": 2592,
    "msg": 2593,
    "\u2581may": 2594,
    "\u2581copyfilew": 2595,
    "sday": 2596,
    "\u2581tue": 2597,
    "\u2581wed": 2598,
    "\u2581findnextfilew": 2599,
    "unwind": 2600,
    "\u2581rtlunwind": 2601,
    "\u2581fri": 2602,
    "\u2581olea": 2603,
    "\u25810x169b9": 2604,
    "texta": 2605,
    "\u25810x2d": 2606,
    "\u2581createprocessa": 2607,
    "namew": 2608,
    "atethread": 2609,
    "\u25810x42b9a0": 2610,
    "\u2581initializeconditionvariable": 2611,
    "foreground": 2612,
    "foregroundwindow": 2613,
    "ccc": 2614,
    "be8": 2615,
    "\u2581terminatethread": 2616,
    "\u2581output": 2617,
    "fe8": 2618,
    "\u2581outputdebug": 2619,
    "hread": 2620,
    "3c0": 2621,
    "suped": 2622,
    "nexec": 2623,
    "9b": 2624,
    "\u25810x408": 2625,
    "\u25810x31": 2626,
    "\u25810x7df0": 2627,
    "\u2581getsystempaletteentries": 2628,
    "ac0": 2629,
    "\u25810x7ee0": 2630,
    "cc8": 2631,
    "\u2581getenvironmentvariablea": 2632,
    "delete": 2633,
    "\u25810x4340": 2634,
    "\u2581floatingpoint": 2635,
    "\u2581invalidvariant": 2636,
    "byzero": 2637,
    "isionbyzero": 2638,
    "\u2581getlogicalprocessor": 2639,
    "\u25810xa8": 2640,
    "\u2581getlogicalprocessorinformation": 2641,
    "mapp": 2642,
    "\u2581winexec": 2643,
    "guar": 2644,
    "mapping": 2645,
    "filemapping": 2646,
    "114": 2647,
    "antee": 2648,
    "guarantee": 2649,
    "stackguarantee": 2650,
    "\u2581setthreadstackguarantee": 2651,
    "\u2581varr": 2652,
    "4fromstr": 2653,
    "fearray": 2654,
    "\u25810x5265c28": 2655,
    "\u25810x40933d": 2656,
    "\u25810x40933e": 2657,
    "\u25810x409340": 2658,
    "\u25810x40933f": 2659,
    "\u25810x409341": 2660,
    "\u25810x409342": 2661,
    "\u25810x409343": 2662,
    "uilanguage": 2663,
    "\u2581getfileinformationby": 2664,
    "ater": 2665,
    "\u25810x67000000": 2666,
    "\u25810x3f3000": 2667,
    "\u25810x5265d": 2668,
    "\u25810x1211ef0": 2669,
    "f5000": 2670,
    "\u25810x37": 2671,
    "\u25810x41f3": 2672,
    "\u25810x3f34c0": 2673,
    "ty": 2674,
    "enthread": 2675,
    "\u2581openscmanagerw": 2676,
    "\u25810x52661": 2677,
    "\u2581openthread": 2678,
    "\u25810x1211f88": 2679,
    "\u25810x27": 2680,
    "load": 2681,
    "antor": 2682,
    "antorsa": 2683,
    "antorsafearray": 2684,
    "\u25810x52662": 2685,
    "\u25810x3d": 2686,
    "\u2581getsyscolorbrush": 2687,
    "b04": 2688,
    "full": 2689,
    "oem": 2690,
    "\u25810x107568": 2691,
    "\u25810x4c42d8": 2692,
    "\u25810x4c42f0": 2693,
    "\u25810x41c": 2694,
    "\u2581createfilemapping": 2695,
    "\u25810x7af0": 2696,
    "spec": 2697,
    "\u2581getusernamew": 2698,
    "\u2581dispatchmessagea": 2699,
    "\u25810x42e0": 2700,
    "\u25810x43b390": 2701,
    "driv": 2702,
    "\u25810x8f20": 2703,
    "log": 2704,
    "\u2581getoem": 2705,
    "\u2581getoemcp": 2706,
    "\u25810x8a80": 2707,
    "\u25810x40a9": 2708,
    "\u2581getfileinformationbyhandl": 2709,
    "\u25810x2b": 2710,
    "ce8": 2711,
    "\u2581regquery": 2712,
    "bk": 2713,
    "\u2581bat": 2714,
    "f8000": 2715,
    "\u2581getcomputer": 2716,
    "\u25810x35": 2717,
    "bl": 2718,
    "\u2581san": 2719,
    "\u25810x433648": 2720,
    "\u25810x4208": 2721,
    "\u25810x1211bfc": 2722,
    "\u2581deleteob": 2723,
    "\u25810x40a": 2724,
    "edu": 2725,
    "procedu": 2726,
    "procedure": 2727,
    "\u2581connect": 2728,
    "\u2581flushfile": 2729,
    "\u2581flushfilebuffers": 2730,
    "e08": 2731,
    "\u2581createfilemappinga": 2732,
    "\u2581setfileinformationby": 2733,
    "\u2581createexw": 2734,
    "\u25810x8814": 2735,
    "\u25810x7d98": 2736,
    "\u25810x7d99": 2737,
    "\u2581exed": 2738,
    "\u2581exedows": 2739,
    "\u25810x4620": 2740,
    "\u25810x1211768": 2741,
    "fdr": 2742,
    "\u2581sanfdr": 2743,
    "\u2581registerwindowmessagew": 2744,
    "\u2581program": 2745,
    "328": 2746,
    "002": 2747,
    "namea": 2748,
    "\u25810x26": 2749,
    "\u2581setfileattributesa": 2750,
    "\u25810x1211dc8": 2751,
    "\u258116463": 2752,
    "\u25810x9020": 2753,
    "\u25810x1211cfc": 2754,
    "blt": 2755,
    "\u25810x8280": 2756,
    "e04": 2757,
    "5a": 2758,
    "\u25810x7de4": 2759,
    "\u25810x7da0": 2760,
    "e4000": 2761,
    "keyst": 2762,
    "keystate": 2763,
    "\u25810x7de5": 2764,
    "lid": 2765,
    "\u25810x8815": 2766,
    "280": 2767,
    "\u2581setbk": 2768,
    "\u25810x80c4": 2769,
    "\u25810x7d9c": 2770,
    "eto": 2771,
    "\u2581mul": 2772,
    "\u2581muldiv": 2773,
    "\u25810x7d9d": 2774,
    "\u25810x42ce": 2775,
    "d08": 2776,
    "\u25810x7da1": 2777,
    "aterect": 2778,
    "\u2581setst": 2779,
    "\u25810x42bd": 2780,
    "\u25810x12117e8": 2781,
    "\u2581setstdhandle": 2782,
    "\u2581copyfilea": 2783,
    "\u25810x12117fc": 2784,
    "\u2581getforegroundwindow": 2785,
    "140": 2786,
    "\u2581form": 2787,
    "\u25810x7db4": 2788,
    "\u2581mapview": 2789,
    "\u25810x8a60": 2790,
    "\u25810x7da4": 2791,
    "\u25810x410770": 2792,
    "\u25810x4800": 2793,
    "\u25810x7db5": 2794,
    "ioc": 2795,
    "\u2581defwindowproca": 2796,
    "add": 2797,
    "cept": 2798,
    "\u2581mapviewoffile": 2799,
    "7ed8": 2800,
    "c9": 2801,
    "\u25810x1211fdc": 2802,
    "\u25810x43b8": 2803,
    "\u25810x7da5": 2804,
    "400": 2805,
    "\u2581allocate": 2806,
    "\u25810x4330": 2807,
    "uld": 2808,
    "\u25810x423e": 2809,
    "\u25810x1211e08": 2810,
    "\u2581selectob": 2811,
    "b08": 2812,
    "\u25810x527ed8": 2813,
    "\u2581ver": 2814,
    "46": 2815,
    "bc8": 2816,
    "\u25810x7da8": 2817,
    "tout": 2818,
    "\u25810x1211f48": 2819,
    "\u2581tex": 2820,
    "\u2581textout": 2821,
    "\u25810x6f": 2822,
    "\u25810x5f": 2823,
    "\u25810x7e74": 2824,
    "\u25810x7e75": 2825,
    "10c": 2826,
    "\u25810x7e78": 2827,
    "\u2581getprivateprofile": 2828,
    "a18": 2829,
    "\u2581getwindows": 2830,
    "\u2581comm": 2831,
    "\u25810x7da9": 2832,
    "\u25810x7e79": 2833,
    "3f8": 2834,
    "\u25810x42d5": 2835,
    "\u25810x7e7c": 2836,
    "\u25810x5b": 2837,
    "\u2581setwindowpos": 2838,
    "\u25810x7e7d": 2839,
    "\u2581setbkcolor": 2840,
    "\u2581settext": 2841,
    "\u25810x42a0": 2842,
    "tex": 2843,
    "\u25810x1211e40": 2844,
    "\u25810x55": 2845,
    "\u25810x61": 2846,
    "\u25810x7e80": 2847,
    "\u25810x1211f3c": 2848,
    "ut32": 2849,
    "\u2581oleaut32": 2850,
    "\u25810x60000": 2851,
    "\u25810x8cf0": 2852,
    "ist": 2853,
    "\u2581deletedc": 2854,
    "numberis": 2855,
    "\u2581getkeystate": 2856,
    "\u2581registers": 2857,
    "\u25810x40a2": 2858,
    "bd0": 2859,
    "versioninfow": 2860,
    "\u25810x7dac": 2861,
    "\u25810x42d8c6": 2862,
    "\u25810xa7": 2863,
    "\u25810x2d4": 2864,
    "\u25810x7dad": 2865,
    "\u25810x7e81": 2866,
    "\u25810x7e84": 2867,
    "\u25810x7e85": 2868,
    "speci": 2869,
    "\u25810x8d80": 2870,
    "setinformation": 2871,
    "eca": 2872,
    "ify": 2873,
    "uldnot": 2874,
    "\u2581verify": 2875,
    "\u2581registerservi": 2876,
    "\u2581settextcolor": 2877,
    "cectrlhandl": 2878,
    "\u2581registerservicectrlhandl": 2879,
    "\u25810x42fc": 2880,
    "\u2581tlsfree": 2881,
    "ontin": 2882,
    "\u25810x4255": 2883,
    "valuew": 2884,
    "\u25810x7db1": 2885,
    "\u25810x8410": 2886,
    "internal": 2887,
    "\u2581fileti": 2888,
    "\u2581filetimeto": 2889,
    "\u25810x42c0": 2890,
    "errornumberis": 2891,
    "\u2581programinternal": 2892,
    "\u2581programinternalerrornumberis": 2893,
    "\u2581getmenu": 2894,
    "\u25810x4340c8": 2895,
    "\u25810x3f3": 2896,
    "\u25810x8330": 2897,
    "\u2581heapsetinformation": 2898,
    "item": 2899,
    "\u2581geticon": 2900,
    "\u25810x57": 2901,
    "\u2581accept": 2902,
    "\u2581verifyversioninfow": 2903,
    "\u2581wsa": 2904,
    "startup": 2905,
    "\u25810x3f31": 2906,
    "\u2581coinitializeex": 2907,
    "\u2581setendoffile": 2908,
    "ctl32": 2909,
    "\u2581comctl32": 2910,
    "atw": 2911,
    "\u2581sendmessagea": 2912,
    "\u2581createdi": 2913,
    "\u25810x8340": 2914,
    "\u2581getdi": 2915,
    "a44": 2916,
    "\u2581wsastartup": 2917,
    "utex": 2918,
    "\u2581bit": 2919,
    "178": 2920,
    "accel": 2921,
    "\u25810x4bc": 2922,
    "dexchange": 2923,
    "\u2581interlockedexchange": 2924,
    "\u25810x40b3": 2925,
    "\u25810x42c588": 2926,
    "locate": 2927,
    "inthe": 2928,
    "\u25810x4e5": 2929,
    "\u25810xa5": 2930,
    "dispatch": 2931,
    "servicectrl": 2932,
    "\u2581startservicectrl": 2933,
    "\u2581startservicectrldispatch": 2934,
    "files": 2935,
    "\u25810x5265e": 2936,
    "b20": 2937,
    "\u25810x3e6c": 2938,
    "\u25810xfeee011": 2939,
    "\u2581createcompatibledc": 2940,
    "368": 2941,
    "located": 2942,
    "\u2581bitblt": 2943,
    "belocated": 2944,
    "\u2581setservice": 2945,
    "\u2581setservicestatus": 2946,
    "dcon": 2947,
    "imagebase": 2948,
    "\u25810x41db": 2949,
    "\u25810x1e5": 2950,
    "f30": 2951,
    "\u2581drawtexta": 2952,
    "\u25810x9d": 2953,
    "726": 2954,
    "\u2581getlogicaldrivestringsa": 2955,
    "\u25810x571b00": 2956,
    "\u25810x7db9": 2957,
    "\u2581shellexecutew": 2958,
    "lation": 2959,
    "\u25810x7db8": 2960,
    "longa": 2961,
    "\u25810x4710": 2962,
    "sem": 2963,
    "\u25810x20000": 2964,
    "6a": 2965,
    "fac": 2966,
    "semutex": 2967,
    "\u2581releasemutex": 2968,
    "ow64": 2969,
    "ec2": 2970,
    "\u25810x6a6": 2971,
    "\u2581unmapview": 2972,
    "\u2581unmapviewoffile": 2973,
    "\u25810x7dbc": 2974,
    "uldnotbelocated": 2975,
    "uldnotbelocatedinthe": 2976,
    "\u25810x1211ec8": 2977,
    "\u25810x1210d": 2978,
    "900": 2979,
    "\u25810x7dbd": 2980,
    "\u25810x40c": 2981,
    "\u25810x431f": 2982,
    "\u25810x40a5dc": 2983,
    "\u25810x40a5cc": 2984,
    "\u2581createcompatiblebitmap": 2985,
    "\u2581getob": 2986,
    "\u25810x4298": 2987,
    "\u25810x8d10": 2988,
    "socket": 2989,
    "\u2581closesocket": 2990,
    "\u25810x4169c0": 2991,
    "\u25810x4169c1": 2992,
    "\u25810x120e6d4": 2993,
    "\u25810x3a": 2994,
    "\u2581setenvironment": 2995,
    "can": 2996,
    "\u25810x3f30b0": 2997,
    "\u2581createf": 2998,
    "\u2581fill": 2999,
    "\u25810x3f30e0": 3000,
    "\u25810x3f3030": 3001,
    "\u2581u": 3002,
    "\u2581settimer": 3003,
    "dup": 3004,
    "\u25810x3f3110": 3005,
    "\u25810x1211ccc": 3006,
    "\u25810x3f3140": 3007,
    "\u2581invalidaterect": 3008,
    "usp": 3009,
    "esid": 3010,
    "andinitializ": 3011,
    "andinitializesid": 3012,
    "\u2581allocateandinitializesid": 3013,
    "\u25810x52000": 3014,
    "\u25810xfeee012": 3015,
    "\u25810x4015": 3016,
    "\u2581move": 3017,
    "\u25810x432": 3018,
    "\u25810x40e": 3019,
    "\u25810x41d8": 3020,
    "\u2581mpr": 3021,
    "your": 3022,
    "\u2581destroyicon": 3023,
    "\u2581textouta": 3024,
    "\u25810x3b": 3025,
    "\u25810x45fc": 3026,
    "\u25810x9230": 3027,
    "\u25810x46a0": 3028,
    "\u2581process32firstw": 3029,
    "\u25810x120e6d0": 3030,
    "ontindirect": 3031,
    "\u2581createfontindirect": 3032,
    "\u2581isw": 3033,
    "398": 3034,
    "f08": 3035,
    "accelerator": 3036,
    "\u2581openservicew": 3037,
    "\u2581theprocedure": 3038,
    "\u25815": 3039,
    "\u25810x51000": 3040,
    "\u2581getdibits": 3041,
    "ad4": 3042,
    "solid": 3043,
    "\u25810x4c32c0": 3044,
    "\u2581fillrect": 3045,
    "bar": 3046,
    "ons": 3047,
    "350": 3048,
    "\u2581startservicew": 3049,
    "\u25810x2ac": 3050,
    "\u2581startservicectrldispatcherw": 3051,
    "988": 3052,
    "\u2581susp": 3053,
    "ddata": 3054,
    "lipboar": 3055,
    "lipboarddata": 3056,
    "e68": 3057,
    "\u25810x41de80": 3058,
    "solidbrush": 3059,
    "\u2581createservicew": 3060,
    "\u2581createsolidbrush": 3061,
    "7c3": 3062,
    "\u2581freesid": 3063,
    "\u2581suspend": 3064,
    "\u2581suspendthread": 3065,
    "rand": 3066,
    "a0000": 3067,
    "\u2581getclass": 3068,
    "\u2581getkeyboardstate": 3069,
    "\u2581geticoninfo": 3070,
    "\u2581findwindowa": 3071,
    "\u25810x480": 3072,
    "\u2581680": 3073,
    "\u2581setclass": 3074,
    "ee8": 3075,
    "\u25810x7dc0": 3076,
    "emory": 3077,
    "olec": 3078,
    "ope": 3079,
    "a08": 3080,
    "dec8": 3081,
    "\u25810x4094": 3082,
    "\u25810x41678": 3083,
    "opene": 3084,
    "\u25810x9240": 3085,
    "\u25810x4428": 3086,
    "\u2581drawicon": 3087,
    "\u25810x1211c14": 3088,
    "\u2581emp": 3089,
    "\u2581openclipboard": 3090,
    "\u25810x48f898": 3091,
    "\u2581closec": 3092,
    "\u2581closeclipboard": 3093,
    "utdown": 3094,
    "42": 3095,
    "\u25810xf0": 3096,
    "\u2581setclipboarddata": 3097,
    "yarg": 3098,
    "\u2581empty": 3099,
    "\u2581emptyclipboard": 3100,
    "\u2581registerclassa": 3101,
    "ecta": 3102,
    "\u2581htons": 3103,
    "\u25810x567": 3104,
    "\u2581socket": 3105,
    "\u25810x41d6": 3106,
    "\u25810xfeee014": 3107,
    "\u2581createdib": 3108,
    "b88": 3109,
    "phlpapi": 3110,
    "\u2581createfontindirecta": 3111,
    "788": 3112,
    "hip": 3113,
    "members": 3114,
    "membership": 3115,
    "\u2581checktoken": 3116,
    "\u2581checktokenmembership": 3117,
    "a88": 3118,
    "\u25810x7dc1": 3119,
    "leex": 3120,
    "\u25810x4170": 3121,
    "287e": 3122,
    "\u2581net": 3123,
    "\u25810x9460": 3124,
    "\u2581getlogicaldrivestringsw": 3125,
    "\u2581createdibsection": 3126,
    "\u25810x405d": 3127,
    "\u25810x44f928": 3128,
    "\u25810x4227": 3129,
    "\u25810x42a7": 3130,
    "\u2581cb": 3131,
    "\u2581gethost": 3132,
    "openenum": 3133,
    "\u2581wnetopenenum": 3134,
    "\u25810x5d": 3135,
    "\u2581bind": 3136,
    "\u2581wnetopenenumw": 3137,
    "\u25810x4054": 3138,
    "\u2581createwindowexw": 3139,
    "byname": 3140,
    "\u25810x4960": 3141,
    "\u25810x415": 3142,
    "\u2581gethostbyname": 3143,
    "\u25810x43d": 3144,
    "\u2581runtime": 3145,
    "addcon": 3146,
    "\u2581wnetaddcon": 3147,
    "resourcew": 3148,
    "\u2581wnetaddconnection2w": 3149,
    "\u2581wnetenum": 3150,
    "\u2581wnetenumresourcew": 3151,
    "\u25810x801000": 3152,
    "\u25810x41d7": 3153,
    "\u25810x1211bd0": 3154,
    "\u25810xa6": 3155,
    "\u25810x7b000": 3156,
    "\u25810x800000": 3157,
    "\u25810x4330c8": 3158,
    "\u25810x120fb": 3159,
    "cancel": 3160,
    "cancelcon": 3161,
    "\u2581wnetcancelcon": 3162,
    "\u2581wnetcancelconnection2w": 3163,
    "\u25810x4e80": 3164,
    "\u25810x7b00": 3165,
    "e61": 3166,
    "ecut": 3167,
    "\u2581shellexecut": 3168,
    "\u2581iswow64": 3169,
    "\u2581iswow64process": 3170,
    "\u25810x41dda8": 3171,
    "\u25810x41ddc0": 3172,
    "00a": 3173,
    "\u25810x9b": 3174,
    "\u25810x418a": 3175,
    "tic": 3176,
    "\u25810x41db9c": 3177,
    "\u25810x41db74": 3178,
    "\u25810x41ddf0": 3179,
    "\u25810x81": 3180,
    "\u25810x405d54": 3181,
    "\u25810x41de38": 3182,
    "\u2581setclasslonga": 3183,
    "\u25810x41de68": 3184,
    "\u25810x41de98": 3185,
    "\u25810x41deb0": 3186,
    "\u25810x41dec8": 3187,
    "\u2581z": 3188,
    "f828": 3189,
    "zer": 3190,
    "geo": 3191,
    "\u2581type": 3192,
    "\u2581shellexecuteexw": 3193,
    "\u2581list": 3194,
    "\u2581extractassociatedicona": 3195,
    "\u2581extractassociatediconw": 3196,
    "e88": 3197,
    "\u25810x58de": 3198,
    "\u2581shutdown": 3199,
    "zerom": 3200,
    "\u2581rtlzerom": 3201,
    "\u2581rtlzeromemory": 3202,
    "\u2581comparestringw": 3203,
    "41": 3204,
    "dateresourcew": 3205,
    "\u2581findwindowexa": 3206,
    "\u2581endup": 3207,
    "\u25810x40a2d5": 3208,
    "\u2581writeconsole": 3209,
    "\u2581registerservicectrlhandlerw": 3210,
    "\u2581updateresourcea": 3211,
    "\u2581endupdateresourcea": 3212,
    "\u2581beginupdateresourcea": 3213,
    "b48": 3214,
    "geoid": 3215,
    "\u2581getusergeoid": 3216,
    "\u2581beginupdateresourcew": 3217,
    "\u2581htonl": 3218,
    "\u25810xb0000": 3219,
    "ticonex": 3220,
    "\u2581extracticonex": 3221,
    "\u2581writeconsolew": 3222,
    "\u2581extracticonexw": 3223,
    "octls": 3224,
    "\u2581ioctls": 3225,
    "\u2581ioctlsocket": 3226,
    "\u2581listen": 3227,
    "cef": 3228,
    "108": 3229,
    "\u25810x1e00000": 3230,
    "\u25810x1e50000": 3231,
    "onsolec": 3232,
    "\u25810x80e0": 3233,
    "\u2581getconsolec": 3234,
    "\u2581getconsolemode": 3235,
    "\u25810x1211938": 3236,
    "\u2581shgetfolderw": 3237,
    "363": 3238,
    "2ac": 3239,
    "\u2581getpe": 3240,
    "ername": 3241,
    "\u2581getpeername": 3242,
    "\u25810x2ac45": 3243,
    "\u25810x423818": 3244,
    "\u25810x40287e": 3245,
    "\u2581iphlpapi": 3246,
    "\u25810x1211f10": 3247,
    "\u25810x84b0": 3248,
    "\u25810x8310": 3249,
    "49": 3250,
    "\u2581getconsolecp": 3251,
    "\u25810x438c": 3252,
    "\u25810x1211fb8": 3253,
    "\u2581ls": 3254,
    "\u25810x416ed": 3255,
    "\u25810x152": 3256,
    "e4c": 3257,
    "once": 3258,
    "\u25810xb0": 3259,
    "\u25810x4229": 3260,
    "\u25810x4189": 3261,
    "\u2581to": 3262,
    "\u25810x12110": 3263,
    "\u25810x120e69": 3264,
    "\u25810x1211af0": 3265,
    "\u2581lstrcpy": 3266,
    "\u25810x1076": 3267,
    "\u25810x8d2": 3268,
    "\u25810x41d838": 3269,
    "\u2581regdelete": 3270,
    "d73": 3271,
    "\u25810x8026": 3272,
    "\u25810x11cc": 3273,
    "\u25810x5c": 3274,
    "\u25810x41d6d0": 3275,
    "\u25810x41d708": 3276,
    "\u25810x41d740": 3277,
    "\u25810x405461": 3278,
    "\u25810x97a0": 3279,
    "\u25810x41b910": 3280,
    "\u25810x41f828": 3281,
    "\u25810x525": 3282,
    "\u2581outputdebugstringa": 3283,
    "\u25810x42ca": 3284,
    "\u2581regqueryvalueexw": 3285,
    "488": 3286,
    "\u2581control": 3287,
    "par": 3288,
    "\u25810xab": 3289,
    "dos": 3290,
    "\u2581dup": 3291,
    "\u25810x43b3": 3292,
    "\u25810x40f6": 3293,
    "\u25810xb4": 3294,
    "c3": 3295,
    "\u2581getthreadpreferreduilanguages": 3296,
    "\u2581duplic": 3297,
    "\u25810x4317": 3298,
    "\u25810x437a": 3299,
    "\u25810x12113": 3300,
    "ontrol": 3301,
    "3a8": 3302,
    "vchost": 3303,
    "\u25810x70b8": 3304,
    "\u25810x4270": 3305,
    "\u25810x40152c": 3306,
    "\u25810x7de8": 3307,
    "\u2581svchost": 3308,
    "\u25810x58c0": 3309,
    "47": 3310,
    "\u25810x1525000": 3311,
    "a17": 3312,
    "ofc": 3313,
    "formatw": 3314,
    "\u25810x7dc8": 3315,
    "\u25810x7de9": 3316,
    "\u25810x11cc4c": 3317,
    "\u25810x43d390": 3318,
    "vio": 3319,
    "\u25810x70b86f": 3320,
    "\u25810x519": 3321,
    "ff8": 3322,
    "\u25810x120f8": 3323,
    "9c1": 3324,
    "\u2581getcomputernamea": 3325,
    "d8000": 3326,
    "\u25810x3f22": 3327,
    "f0000": 3328,
    "dat": 3329,
    "folder": 3330,
    "\u25810x42cd": 3331,
    "\u2581getmess": 3332,
    "b4e8": 3333,
    "\u2581initializesrwlock": 3334,
    "f60": 3335,
    "\u25810x42e5f8": 3336,
    "\u25810x3f4000": 3337,
    "\u258174": 3338,
    "aba": 3339,
    "\u2581fmode": 3340,
    "\u2581format": 3341,
    "\u25810x99e0": 3342,
    "\u25810x4febf0": 3343,
    "\u2581acquiresrwlockexclusive": 3344,
    "\u25810x91": 3345,
    "\u25810x42d3d8": 3346,
    "104": 3347,
    "\u25810x411b": 3348,
    "cd": 3349,
    "iocontrol": 3350,
    "\u2581deviceiocontrol": 3351,
    "\u25810x7d00": 3352,
    "processmemory": 3353,
    "\u2581he": 3354,
    "\u25810x1f000": 3355,
    "\u25810x7f10": 3356,
    "adm": 3357,
    "pla": 3358,
    "330": 3359,
    "keyexw": 3360,
    "\u25810x42d390": 3361,
    "\u2581failedto": 3362,
    "afc": 3363,
    "\u2581srand": 3364,
    "\u25810x40a58": 3365,
    "500000": 3366,
    "violation": 3367,
    "app": 3368,
    "0x": 3369,
    "\u2581error0x": 3370,
    "ols": 3371,
    "\u25810x4308": 3372,
    "\u25810x4315": 3373,
    "\u2581getdiskfreespaceexw": 3374,
    "\u2581work": 3375,
    "\u25810x437ad": 3376,
    "\u25810x437c4": 3377,
    "\u25810x4371e6": 3378,
    "\u25810x4371e7": 3379,
    "ffce": 3380,
    "querys": 3381,
    "bff": 3382,
    "inki": 3383,
    "d4000": 3384,
    "\u25810x6b9": 3385,
    "\u25810x43b7b9": 3386,
    "\u2581hels": 3387,
    "\u25810x43b7c3": 3388,
    "\u2581helsinki": 3389,
    "ecc": 3390,
    "cc000": 3391,
    "288": 3392,
    "f20": 3393,
    "\u25810x1211f18": 3394,
    "\u2581st": 3395,
    "\u2581releases": 3396,
    "f80": 3397,
    "izn": 3398,
    "iznadm": 3399,
    "\u2581triznadm": 3400,
    "c8000": 3401,
    "\u25810xac": 3402,
    "6b": 3403,
    "heck": 3404,
    "lication": 3405,
    "querysystem": 3406,
    "querysysteminformation": 3407,
    "\u25810x120ff": 3408,
    "\u2581regenum": 3409,
    "ernet": 3410,
    "\u25810x4319": 3411,
    "cms": 3412,
    "\u2581mscms": 3413,
    "a81": 3414,
    "\u25810x7dec": 3415,
    "11000": 3416,
    "\u25810x567a40": 3417,
    "palette": 3418,
    "\u2581openmutexa": 3419,
    "\u25810x63": 3420,
    "\u25810x53b4e8": 3421,
    "\u25810x20019": 3422,
    "eexa": 3423,
    "ce000": 3424,
    "gen": 3425,
    "\u25810x7c70": 3426,
    "\u25810x1211f74": 3427,
    "\u2581v": 3428,
    "iv": 3429,
    "hook": 3430,
    "slen": 3431,
    "ff000": 3432,
    "de000": 3433,
    "\u25810x421": 3434,
    "fc000": 3435,
    "\u25810x431998": 3436,
    "\u25810x1211e28": 3437,
    "\u2581getnumber": 3438,
    "ofconsole": 3439,
    "\u2581getnumberofconsole": 3440,
    "ec000": 3441,
    "\u25810x1211b04": 3442,
    "\u25810x4bb0": 3443,
    "\u25810xad": 3444,
    "76f7": 3445,
    "\u25810x46b3": 3446,
    "\u2581systemtim": 3447,
    "\u25810x7ded": 3448,
    "18000": 3449,
    "\u2581seten": 3450,
    "\u2581ntquerysysteminformation": 3451,
    "\u25810x188e": 3452,
    "ac4": 3453,
    "trols": 3454,
    "e8000": 3455,
    "dbg": 3456,
    "\u2581wcslen": 3457,
    "\u25810x79a0": 3458,
    "\u25810x41c8": 3459,
    "\u2581pec2": 3460,
    "dbgmsg": 3461,
    "\u2581400000": 3462,
    "\u2581pec2dbgmsg": 3463,
    "1c000": 3464,
    "dc000": 3465,
    "\u25810x181b": 3466,
    "\u25810x7a10": 3467,
    "\u25810x419": 3468,
    "\u25810x4168": 3469,
    "any": 3470,
    "\u25810x4141": 3471,
    "\u25810x7f03": 3472,
    "\u25810x4275": 3473,
    "26b2": 3474,
    "unmapviewofsection": 3475,
    "\u2581ntunmapviewofsection": 3476,
    "14000": 3477,
    "\u25810x1f0001": 3478,
    "\u25810x42e8": 3479,
    "fe000": 3480,
    "\u25810xc0": 3481,
    "inac": 3482,
    "\u25810x47a0": 3483,
    "triesinac": 3484,
    "\u2581setentriesinac": 3485,
    "initialize": 3486,
    "\u2581getsecurityinfo": 3487,
    "\u2581ntmapviewofsection": 3488,
    "pi": 3489,
    "metofiletime": 3490,
    "ee000": 3491,
    "ab4": 3492,
    "\u2581gb": 3493,
    "\u2581accessviolation": 3494,
    "\u25810x28c": 3495,
    "\u25810x40935": 3496,
    "\u25810x401": 3497,
    "\u25810x90f0": 3498,
    "\u2581shellexecutea": 3499,
    "\u2581setentriesinacla": 3500,
    "controls": 3501,
    "656c": 3502,
    "statust": 3503,
    "odos": 3504,
    "\u2581rtlnt": 3505,
    "odoserror": 3506,
    "\u2581rtlntstatust": 3507,
    "\u2581rtlntstatustodoserror": 3508,
    "inputs": 3509,
    "\u2581getnumberofconsoleinputs": 3510,
    "\u25810x4730": 3511,
    "\u2581setsecurityinfo": 3512,
    "\u25810x210": 3513,
    "\u25810xca0000": 3514,
    "\u25810x77001000": 3515,
    "\u25810x77002000": 3516,
    "\u25810x77003000": 3517,
    "\u25810x77004000": 3518,
    "\u25810x77005000": 3519,
    "\u25810x77006000": 3520,
    "\u25810x77007000": 3521,
    "\u25810x77008000": 3522,
    "\u25810x77009000": 3523,
    "\u25810x7700a000": 3524,
    "\u25810x7700b000": 3525,
    "\u25810x7700c000": 3526,
    "\u25810x7700d000": 3527,
    "\u25810x7700e000": 3528,
    "\u25810x7700f000": 3529,
    "\u25810x77010000": 3530,
    "\u25810x77011000": 3531,
    "\u25810x77012000": 3532,
    "\u25810x77013000": 3533,
    "\u25810x77014000": 3534,
    "\u25810x77015000": 3535,
    "\u25810x77016000": 3536,
    "\u25810x77017000": 3537,
    "\u25810x77018000": 3538,
    "\u25810x77019000": 3539,
    "\u25810x7701a000": 3540,
    "\u25810x7701b000": 3541,
    "\u25810x7701c000": 3542,
    "\u25810x7701d000": 3543,
    "\u25810x7701e000": 3544,
    "\u25810x7701f000": 3545,
    "\u25810x77020000": 3546,
    "\u25810x77021000": 3547,
    "\u25810x77022000": 3548,
    "\u25810x77023000": 3549,
    "\u25810x77024000": 3550,
    "\u25810x77025000": 3551,
    "\u25810x77026000": 3552,
    "\u25810x77027000": 3553,
    "\u25810x77028000": 3554,
    "\u25810x77029000": 3555,
    "\u25810x7702a000": 3556,
    "\u25810x7702b000": 3557,
    "\u25810x7702c000": 3558,
    "\u25810x7702d000": 3559,
    "\u25810x7702e000": 3560,
    "\u25810x7702f000": 3561,
    "\u25810x77030000": 3562,
    "\u25810x77031000": 3563,
    "\u25810x77032000": 3564,
    "\u25810x77033000": 3565,
    "\u25810x77034000": 3566,
    "\u25810x77035000": 3567,
    "\u25810x77036000": 3568,
    "\u25810x77037000": 3569,
    "\u25810x77038000": 3570,
    "\u25810x77039000": 3571,
    "\u25810x7703a000": 3572,
    "\u25810x7703b000": 3573,
    "\u25810x7703c000": 3574,
    "\u25810x7703d000": 3575,
    "\u25810x7703e000": 3576,
    "\u25810x7703f000": 3577,
    "\u25810x77040000": 3578,
    "\u25810x77041000": 3579,
    "\u25810x77042000": 3580,
    "\u25810x77043000": 3581,
    "\u25810x77044000": 3582,
    "\u25810x77045000": 3583,
    "\u25810x77046000": 3584,
    "\u25810x77047000": 3585,
    "\u25810x77048000": 3586,
    "\u25810x77049000": 3587,
    "\u25810x7704a000": 3588,
    "\u25810x7704b000": 3589,
    "\u25810x7704c000": 3590,
    "\u25810x7704d000": 3591,
    "\u25810x7704e000": 3592,
    "\u25810x7704f000": 3593,
    "\u25810x77050000": 3594,
    "\u25810x77051000": 3595,
    "\u25810x77052000": 3596,
    "\u25810x77053000": 3597,
    "\u25810x77054000": 3598,
    "\u25810x77055000": 3599,
    "\u25810x77056000": 3600,
    "\u25810x77057000": 3601,
    "\u25810x77058000": 3602,
    "\u25810x77059000": 3603,
    "\u25810x7705a000": 3604,
    "\u25810x7705b000": 3605,
    "\u25810x7705c000": 3606,
    "\u25810x7705d000": 3607,
    "\u25810x7705e000": 3608,
    "\u25810x7705f000": 3609,
    "\u25810x77060000": 3610,
    "\u25810x77061000": 3611,
    "\u25810x77062000": 3612,
    "\u25810x77063000": 3613,
    "\u25810x77064000": 3614,
    "\u25810x77065000": 3615,
    "\u25810x77066000": 3616,
    "\u25810x77067000": 3617,
    "\u25810x77068000": 3618,
    "\u25810x77069000": 3619,
    "\u25810x7706a000": 3620,
    "\u25810x7706b000": 3621,
    "\u25810x7706c000": 3622,
    "\u25810x7706d000": 3623,
    "\u25810x7706e000": 3624,
    "\u25810x7706f000": 3625,
    "\u25810x77070000": 3626,
    "\u25810x77071000": 3627,
    "\u25810x77072000": 3628,
    "\u25810x77073000": 3629,
    "\u25810x77074000": 3630,
    "\u25810x77075000": 3631,
    "\u25810x77076000": 3632,
    "\u25810x77077000": 3633,
    "\u25810x77078000": 3634,
    "\u25810x77079000": 3635,
    "\u25810x7707a000": 3636,
    "\u25810x7707b000": 3637,
    "\u25810x7707c000": 3638,
    "\u25810x7707d000": 3639,
    "\u25810x7707e000": 3640,
    "\u25810x7707f000": 3641,
    "\u25810x77080000": 3642,
    "\u25810x77081000": 3643,
    "\u25810x77082000": 3644,
    "\u25810x77083000": 3645,
    "\u25810x77084000": 3646,
    "\u25810x77085000": 3647,
    "\u25810x77086000": 3648,
    "\u25810x77087000": 3649,
    "\u25810x77088000": 3650,
    "\u25810x77089000": 3651,
    "\u25810x7708a000": 3652,
    "\u25810x7708b000": 3653,
    "\u25810x7708c000": 3654,
    "\u25810x7708d000": 3655,
    "\u25810x7708e000": 3656,
    "\u25810x7708f000": 3657,
    "\u25810x77090000": 3658,
    "\u25810x77091000": 3659,
    "\u25810x77092000": 3660,
    "\u25810x77093000": 3661,
    "\u25810x77094000": 3662,
    "\u25810x77095000": 3663,
    "\u25810x77096000": 3664,
    "\u25810x77097000": 3665,
    "\u25810x77098000": 3666,
    "\u25810x77099000": 3667,
    "\u25810x7709a000": 3668,
    "\u25810x7709b000": 3669,
    "\u25810x7709c000": 3670,
    "\u25810x7709d000": 3671,
    "\u25810x7709e000": 3672,
    "\u25810x7709f000": 3673,
    "\u25810x770a0000": 3674,
    "\u25810x770a1000": 3675,
    "\u25810x770a2000": 3676,
    "\u25810x770a3000": 3677,
    "\u25810x770a4000": 3678,
    "\u25810x770a5000": 3679,
    "\u25810x770a6000": 3680,
    "\u25810x770a7000": 3681,
    "\u25810x770a8000": 3682,
    "\u25810x770a9000": 3683,
    "\u25810x770aa000": 3684,
    "\u25810x770ab000": 3685,
    "\u25810x770ac000": 3686,
    "\u25810x770ad000": 3687,
    "\u25810x770ae000": 3688,
    "\u25810x770af000": 3689,
    "\u25810x770b0000": 3690,
    "\u25810x770b1000": 3691,
    "\u25810x770b2000": 3692,
    "\u25810x770b3000": 3693,
    "\u25810x770b4000": 3694,
    "\u25810x770b5000": 3695,
    "\u25810x770b6000": 3696,
    "\u25810x770b7000": 3697,
    "\u25810x770b8000": 3698,
    "\u25810x770b9000": 3699,
    "\u25810x770ba000": 3700,
    "\u25810x770bb000": 3701,
    "\u25810x770bc000": 3702,
    "\u25810x770bd000": 3703,
    "\u25810x770be000": 3704,
    "\u25810x770bf000": 3705,
    "\u25810x770c0000": 3706,
    "\u25810x770c1000": 3707,
    "\u25810x770c2000": 3708,
    "\u25810x770c3000": 3709,
    "\u25810x770c4000": 3710,
    "\u25810x770c5000": 3711,
    "\u25810x770c6000": 3712,
    "\u25810x770c7000": 3713,
    "\u25810x770c8000": 3714,
    "\u25810x770c9000": 3715,
    "\u25810x770ca000": 3716,
    "\u25810x770cb000": 3717,
    "\u25810x770cc000": 3718,
    "\u25810x770cd000": 3719,
    "\u25810x770ce000": 3720,
    "\u25810x770cf000": 3721,
    "\u25810x770d0000": 3722,
    "\u25810x770d1000": 3723,
    "\u25810x770d2000": 3724,
    "\u25810x770d3000": 3725,
    "\u25810x770d4000": 3726,
    "\u25810x770d5000": 3727,
    "\u25810x770d6000": 3728,
    "\u25810x770d7000": 3729,
    "\u25810x770d8000": 3730,
    "\u25810x770d9000": 3731,
    "\u25810x770da000": 3732,
    "\u25810x770db000": 3733,
    "\u25810x770dc000": 3734,
    "\u25810x770dd000": 3735,
    "\u25810x770de000": 3736,
    "\u25810x770df000": 3737,
    "\u25810x770e0000": 3738,
    "\u25810x770e1000": 3739,
    "\u25810x770e2000": 3740,
    "\u25810x770e3000": 3741,
    "\u25810x770e4000": 3742,
    "\u25810x770e5000": 3743,
    "\u25810x770e6000": 3744,
    "\u25810x770e7000": 3745,
    "\u25810x770e8000": 3746,
    "\u25810x770e9000": 3747,
    "\u25810x770ea000": 3748,
    "\u25810x770eb000": 3749,
    "\u25810x770ec000": 3750,
    "\u25810x770ed000": 3751,
    "\u25810x770ee000": 3752,
    "\u25810x770ef000": 3753,
    "\u25810x770f0000": 3754,
    "\u25810x770f1000": 3755,
    "\u25810x770f2000": 3756,
    "\u25810x770f3000": 3757,
    "\u25810x770f4000": 3758,
    "\u25810x770f5000": 3759,
    "\u25810x770f6000": 3760,
    "\u25810x770f7000": 3761,
    "\u25810x770f8000": 3762,
    "\u25810x770f9000": 3763,
    "\u25810x770fa000": 3764,
    "\u25810x770fb000": 3765,
    "\u25810x770fc000": 3766,
    "\u25810x770fd000": 3767,
    "\u25810x770fe000": 3768,
    "\u25810x770ff000": 3769,
    "\u25810x77100000": 3770,
    "\u25810x77101000": 3771,
    "\u25810x77102000": 3772,
    "\u25810x77103000": 3773,
    "\u25810x77104000": 3774,
    "\u25810x77105000": 3775,
    "\u25810x77106000": 3776,
    "\u25810x77107000": 3777,
    "\u25810x77108000": 3778,
    "\u25810x77109000": 3779,
    "\u25810x7710a000": 3780,
    "\u25810x7710b000": 3781,
    "\u25810x7710c000": 3782,
    "\u25810x7710d000": 3783,
    "\u25810x7710e000": 3784,
    "\u25810x7710f000": 3785,
    "\u25810x77110000": 3786,
    "\u25810x77111000": 3787,
    "\u25810x77112000": 3788,
    "\u25810x77113000": 3789,
    "\u25810x77114000": 3790,
    "\u25810x77115000": 3791,
    "\u25810x77116000": 3792,
    "\u25810x77117000": 3793,
    "\u25810x77118000": 3794,
    "\u25810x77119000": 3795,
    "\u25810x7711a000": 3796,
    "\u25810x7711b000": 3797,
    "\u25810x7711c000": 3798,
    "\u25810x7711d000": 3799,
    "\u25810x7711e000": 3800,
    "\u25810x7711f000": 3801,
    "\u25810x77120000": 3802,
    "\u25810x77121000": 3803,
    "\u25810x77122000": 3804,
    "\u25810x77123000": 3805,
    "\u25810x77124000": 3806,
    "\u25810x77125000": 3807,
    "\u25810x77126000": 3808,
    "\u25810x77127000": 3809,
    "\u25810x77128000": 3810,
    "\u25810x77129000": 3811,
    "\u25810x7712a000": 3812,
    "\u25810x7712b000": 3813,
    "\u25810x7712c000": 3814,
    "\u25810x7712d000": 3815,
    "\u25810x7712e000": 3816,
    "\u25810x7712f000": 3817,
    "\u25810x77130000": 3818,
    "\u25810x77131000": 3819,
    "\u25810x77132000": 3820,
    "\u25810x77133000": 3821,
    "\u25810x77134000": 3822,
    "\u25810x77135000": 3823,
    "\u25810x77136000": 3824,
    "\u25810x77137000": 3825,
    "\u25810x77138000": 3826,
    "\u25810x77139000": 3827,
    "\u25810x7713a000": 3828,
    "\u25810x7713b000": 3829,
    "\u25810x7713c000": 3830,
    "\u25810x7713d000": 3831,
    "\u25810x7713e000": 3832,
    "\u25810x7713f000": 3833,
    "\u25810x77140000": 3834,
    "\u25810x77141000": 3835,
    "\u25810x77142000": 3836,
    "\u25810x77143000": 3837,
    "\u25810x77144000": 3838,
    "\u25810x77145000": 3839,
    "\u25810x77146000": 3840,
    "\u25810x77147000": 3841,
    "\u25810x77148000": 3842,
    "\u25810x77149000": 3843,
    "\u25810x7714a000": 3844,
    "\u25810x7714b000": 3845,
    "\u25810x7714c000": 3846,
    "\u25810x7714d000": 3847,
    "\u25810x7714e000": 3848,
    "\u25810x7714f000": 3849,
    "\u25810x77150000": 3850,
    "\u25810x77151000": 3851,
    "\u25810x77152000": 3852,
    "\u25810x77153000": 3853,
    "\u25810x77154000": 3854,
    "\u25810x77155000": 3855,
    "\u25810x77156000": 3856,
    "\u25810x77157000": 3857,
    "\u25810x77158000": 3858,
    "\u25810x77159000": 3859,
    "\u25810x7715a000": 3860,
    "\u25810x7715b000": 3861,
    "\u25810x7715c000": 3862,
    "\u25810x7715d000": 3863,
    "\u25810x7715e000": 3864,
    "\u25810x7715f000": 3865,
    "\u25810x77160000": 3866,
    "\u25810x77161000": 3867,
    "\u25810x77162000": 3868,
    "\u25810x77163000": 3869,
    "\u25810x77164000": 3870,
    "\u25810x77165000": 3871,
    "\u25810x77166000": 3872,
    "\u25810x77167000": 3873,
    "\u25810x77168000": 3874,
    "\u25810x77169000": 3875,
    "\u25810x7716a000": 3876,
    "\u25810x7716b000": 3877,
    "\u25810x7716c000": 3878,
    "\u25810x7716d000": 3879,
    "\u25810x7716e000": 3880,
    "\u25810x7716f000": 3881,
    "\u25810x77170000": 3882,
    "\u25810x77171000": 3883,
    "\u25810x77172000": 3884,
    "\u25810x77173000": 3885,
    "\u25810x77174000": 3886,
    "\u25810x77175000": 3887,
    "\u25810x77176000": 3888,
    "\u25810x77177000": 3889,
    "\u25810x77178000": 3890,
    "\u25810x77179000": 3891,
    "\u25810x7717a000": 3892,
    "\u25810x7717b000": 3893,
    "\u25810x7717c000": 3894,
    "\u25810x7717d000": 3895,
    "\u25810x7717e000": 3896,
    "\u25810x7717f000": 3897,
    "\u25810x77180000": 3898,
    "\u25810x77181000": 3899,
    "\u25810x77182000": 3900,
    "\u25810x77183000": 3901,
    "\u25810x77184000": 3902,
    "\u25810x77185000": 3903,
    "\u25810x77186000": 3904,
    "\u25810x77187000": 3905,
    "\u25810x77188000": 3906,
    "\u25810x77189000": 3907,
    "\u25810x7718a000": 3908,
    "\u25810x7718b000": 3909,
    "\u25810x7718c000": 3910,
    "\u25810x7718d000": 3911,
    "\u25810x7718e000": 3912,
    "\u25810x7718f000": 3913,
    "\u25810x77190000": 3914,
    "\u25810x77191000": 3915,
    "\u25810x77192000": 3916,
    "\u25810x77193000": 3917,
    "\u25810x77194000": 3918,
    "\u25810x77195000": 3919,
    "\u25810x77196000": 3920,
    "\u25810x77197000": 3921,
    "\u25810x77198000": 3922,
    "\u25810x77199000": 3923,
    "\u25810x7719a000": 3924,
    "\u2581physicalmemory": 3925,
    "97a6": 3926,
    "\u25810x7719b000": 3927,
    "\u25810x7719c000": 3928,
    "\u25810x7719d000": 3929,
    "\u25810x7719e000": 3930,
    "\u25810x7719f000": 3931,
    "\u25810x771a0000": 3932,
    "d88": 3933,
    "\u25810x771a1000": 3934,
    "\u25810x771a2000": 3935,
    "\u25810x771a3000": 3936,
    "\u25810x771a4000": 3937,
    "\u25810x771a5000": 3938,
    "\u25810x771a6000": 3939,
    "\u25810x771a7000": 3940,
    "\u25810x771a8000": 3941,
    "\u25810x771a9000": 3942,
    "\u25810x771aa000": 3943,
    "\u25810x771ab000": 3944,
    "\u25810x771ac000": 3945,
    "\u25810x771ad000": 3946,
    "\u25810x771ae000": 3947,
    "\u25810x771af000": 3948,
    "\u25810x771b0000": 3949,
    "\u25810x771b1000": 3950,
    "\u25810x771b2000": 3951,
    "\u25810x771b3000": 3952,
    "\u25810x3f3060": 3953,
    "\u25810x771b4000": 3954,
    "\u25810x771b5000": 3955,
    "\u25810x771b6000": 3956,
    "\u25810x771b7000": 3957,
    "\u25810x771b8000": 3958,
    "\u25810x771b9000": 3959,
    "\u25810x771ba000": 3960,
    "\u25810x771bb000": 3961,
    "\u25810x771bc000": 3962,
    "\u25810x771bd000": 3963,
    "\u25810x771be000": 3964,
    "\u25810x771bf000": 3965,
    "\u25810x771c0000": 3966,
    "\u25810x771c1000": 3967,
    "\u25810x771c2000": 3968,
    "\u25810x771c3000": 3969,
    "\u25810x771c4000": 3970,
    "\u25810x771c5000": 3971,
    "f88": 3972,
    "\u25810x771c6000": 3973,
    "584": 3974,
    "mod": 3975,
    "\u25810x8830": 3976,
    "\u25810x3f3010": 3977,
    "etofiletime": 3978,
    "\u2581systemtimetofiletime": 3979,
    "\u25810x40a3": 3980,
    "\u2581getthreaduilanguage": 3981,
    "646d73": 3982,
    "656c73": 3983,
    "\u258174726": 3984,
    "\u2581776f7": 3985,
    "26b2e68": 3986,
    "97a6e61": 3987,
    "26b2e68656c73": 3988,
    "97a6e61646d73": 3989,
    "\u25817472697a6e61646d73": 3990,
    "\u2581776f726b2e68656c73": 3991,
    "\u25817472697a6e61646d73696e6b692e6669": 3992,
    "\u2581776f726b2e68656c73696e6b692e6669": 3993,
    "\u2581inst": 3994,
    "cf": 3995,
    "\u25810x1211cec": 3996,
    "\u25810x7ef0": 3997,
    "\u25810x7df1": 3998,
    "\u25810x43540": 3999,
    "\u25810x169b7": 4000,
    "\u25810x4548": 4001,
    "\u25810xa42a": 4002,
    "destroy": 4003,
    "\u25810x1211e34": 4004,
    "\u25810x42c520": 4005,
    "\u25810x41bcb0": 4006,
    "\u25810x41bce0": 4007,
    "7ff": 4008,
    "\u2581fe": 4009,
    "dlg": 4010,
    "c8c": 4011,
    "\u25810xfeee015": 4012,
    "\u2581mar": 4013,
    "\u2581new": 4014,
    "f74": 4015,
    "\u2581lcmapstringa": 4016,
    "\u2581sn": 4017,
    "\u25810x4f5": 4018,
    "\u25810x8c60": 4019,
    "c88": 4020,
    "\u25819": 4021,
    "\u25810xaa": 4022,
    "\u25810x4237": 4023,
    "\u25810x7cc0": 4024,
    "\u2581localfree": 4025,
    "under": 4026,
    "\u25810x7230": 4027,
    "\u25810x3410c": 4028,
    "\u2581lstrcmpa": 4029,
    "\u25810x70a8": 4030,
    "\u2581exception": 4031,
    "\u2581lstrcpynw": 4032,
    "\u2581localfileti": 4033,
    "\u2581localfiletimetofiletime": 4034,
    "\u25810x41e": 4035,
    "\u25810x419d": 4036,
    "\u25810x41f": 4037,
    "\u25810x788": 4038,
    "\u2581getstringtypea": 4039,
    "\u25810x491": 4040,
    "\u25810x7070": 4041,
    "\u25810x1210e8": 4042,
    "\u25810x56b": 4043,
    "tra": 4044,
    "ang": 4045,
    "\u2581ass": 4046,
    "\u25810x12119f0": 4047,
    "544": 4048,
    "\u25810x42e2": 4049,
    "f0c": 4050,
    "\u25810x448": 4051,
    "\u25810x406": 4052,
    "aff": 4053,
    "\u25810x41a5": 4054,
    "\u2581writeprivateprofile": 4055,
    "b44": 4056,
    "e20": 4057,
    "\u25810x417b": 4058,
    "\u2581wcsc": 4059,
    "\u25810x416c": 4060,
    "\u25810x65": 4061,
    "\u2581programinternalerrornumberis6": 4062,
    "\u25810x4238a8": 4063,
    "\u25810x4238d8": 4064,
    "324": 4065,
    "\u25810x1211f78": 4066,
    "de8": 4067,
    "\u25810x8250": 4068,
    "ee4": 4069,
    "\u2581physicaldriv": 4070,
    "inst": 4071,
    "echeck": 4072,
    "\u25810x7c40": 4073,
    "\u25810x1212000": 4074,
    "3b5": 4075,
    "\u2581physicaldrive0": 4076,
    "ec4": 4077,
    "\u25810x8420": 4078,
    "no": 4079,
    "ceex": 4080,
    "a41": 4081,
    "\u25810x1211e44": 4082,
    "a84": 4083,
    "\u25810x71c0": 4084,
    "\u25810xa429c8": 4085,
    "\u2581wcscpy": 4086,
    "de4": 4087,
    "\u2581outof": 4088,
    "\u25810x416a17": 4089,
    "\u25810x416a18": 4090,
    "\u25810x5265f": 4091,
    "5088": 4092,
    "\u25810x4ec0": 4093,
    "yon": 4094,
    "\u25810x7d20": 4095,
    "\u25810x4b80": 4096,
    "failed": 4097,
    "found": 4098,
    "c7": 4099,
    "\u25810xffe1": 4100,
    "\u25810x42da": 4101,
    "\u2581releasesrwlockexclusive": 4102,
    "exception": 4103,
    "\u25810x1009": 4104,
    "\u25810x419f": 4105,
    "ins": 4106,
    "\u25810xffe0": 4107,
    "\u2581setcurrent": 4108,
    "\u25810xffe4": 4109,
    "une": 4110,
    "2acb2": 4111,
    "gument": 4112,
    "\u25810xfffe": 4113,
    "\u2581b2acb2": 4114,
    "ority": 4115,
    "\u25810x7460": 4116,
    "\u2581snap": 4117,
    "\u25810x4ee0": 4118,
    "32cs": 4119,
    "\u2581th32cs": 4120,
    "\u25810x42d520": 4121,
    "argument": 4122,
    "\u25810x46e0": 4123,
    "\u25810x43b880": 4124,
    "\u25810x3e8": 4125,
    "\u25810xa42": 4126,
    "\u25810xe00": 4127,
    "\u25810x1005": 4128,
    "\u25810x7ee00": 4129,
    "\u25810x74d0": 4130,
    "\u25810x4393f8": 4131,
    "\u2581septem": 4132,
    "eextra": 4133,
    "ccess": 4134,
    "ied": 4135,
    "\u25810x70e0": 4136,
    "afec": 4137,
    "creating": 4138,
    "infoa": 4139,
    "\u25810x164": 4140,
    "ise": 4141,
    "\u2581feb": 4142,
    "\u2581loadaccelerator": 4143,
    "\u2581febr": 4144,
    "\u25810x7038": 4145,
    "\u25810xffba": 4146,
    "\u25810x425": 4147,
    "\u25810x7cb0": 4148,
    "\u25810xffb7": 4149,
    "\u25810xffbb": 4150,
    "\u25810x72d8": 4151,
    "ober": 4152,
    "gust": 4153,
    "pril": 4154,
    "\u2581apr": 4155,
    "\u2581aug": 4156,
    "\u2581april": 4157,
    "\u25810x4615": 4158,
    "\u25810xffb8": 4159,
    "\u2581august": 4160,
    "\u2581november": 4161,
    "\u2581september": 4162,
    "\u2581div": 4163,
    "bound": 4164,
    "ffceffc": 4165,
    "\u25810xffbe": 4166,
    "\u25810xffbd": 4167,
    "\u25810xffb9": 4168,
    "\u25810xffbc": 4169,
    "ssp": 4170,
    "\u25810xfffd": 4171,
    "\u25810x7620": 4172,
    "\u25810x42e2f0": 4173,
    "\u25810x1211c80": 4174,
    "\u25810xfffc": 4175,
    "\u25810x8820": 4176,
    "\u25810xffbf": 4177,
    "\u25810x5265c3c": 4178,
    "\u25810x71f8": 4179,
    "\u2581outofmemory": 4180,
    "\u25810x7498": 4181,
    "\u25810x1210900": 4182,
    "\u25810x7310": 4183,
    "\u25810x8b50": 4184,
    "\u25810x7380": 4185,
    "aac": 4186,
    "344": 4187,
    "index": 4188,
    "anuary": 4189,
    "\u2581march": 4190,
    "\u25810x7b60": 4191,
    "\u25810xffa0": 4192,
    "\u25810xffb6": 4193,
    "\u25810x435088": 4194,
    "\u2581february": 4195,
    "ash": 4196,
    "uly": 4197,
    "\u2581december": 4198,
    "\u25810xffa2": 4199,
    "\u2581october": 4200,
    "\u2581createsemaphorew": 4201,
    "\u2581thu": 4202,
    "nesday": 4203,
    "\u2581monday": 4204,
    "\u2581sunday": 4205,
    "\u25810x52666": 4206,
    "\u2581tuesday": 4207,
    "\u2581wednesday": 4208,
    "\u2581createpalette": 4209,
    "ursday": 4210,
    "\u2581thursday": 4211,
    "\u25810xffa1": 4212,
    "\u25810xffa3": 4213,
    "urday": 4214,
    "\u2581friday": 4215,
    "\u2581saturday": 4216,
    "360": 4217,
    "adwork": 4218,
    "\u25810x7188": 4219,
    "\u25810x75b0": 4220,
    "\u25810xffa4": 4221,
    "\u25810x7118": 4222,
    "\u25810x7770": 4223,
    "den": 4224,
    "afecall": 4225,
    "textw": 4226,
    "\u25810x46b4": 4227,
    "\u25810xffa7": 4228,
    "\u25810x7428": 4229,
    "\u25810xffa6": 4230,
    "\u25810xffa5": 4231,
    "\u2581interfac": 4232,
    "504": 4233,
    "9e00": 4234,
    "\u25810x7268": 4235,
    "\u25810x7a48": 4236,
    "drl6660drl6660drl6660drl6660": 4237,
    "\u2581sub": 4238,
    "\u2581interfacen": 4239,
    "\u25810x7348": 4240,
    "\u25810xfffb": 4241,
    "\u25810x120fa": 4242,
    "\u25810x73b8": 4243,
    "quire": 4244,
    "\u25810x7b98": 4245,
    "\u2581asser": 4246,
    "\u2581inte": 4247,
    "\u25810x7508": 4248,
    "changet": 4249,
    "\u25810xffb5": 4250,
    "\u2581variantchanget": 4251,
    "\u2581stack": 4252,
    "\u25810x7578": 4253,
    "\u25810x75e8": 4254,
    "vis": 4255,
    "\u25810xffa8": 4256,
    "ageextra": 4257,
    "ageextrainfo": 4258,
    "\u2581getmessageextrainfo": 4259,
    "\u25810x7658": 4260,
    "\u2581external": 4261,
    "\u25810xffa9": 4262,
    "\u25810x76c8": 4263,
    "\u25810x7888": 4264,
    "\u25810x7818": 4265,
    "\u25810x78f8": 4266,
    "\u25810xffcd": 4267,
    "\u2581assertion": 4268,
    "\u25810x7738": 4269,
    "\u25810x77a8": 4270,
    "\u2581initon": 4271,
    "mit": 4272,
    "ceexecute": 4273,
    "ceexecuteonce": 4274,
    "\u2581initonceexecuteonce": 4275,
    "\u25810x7968": 4276,
    "\u25810x7ab8": 4277,
    "\u25810x1211f6c": 4278,
    "\u25810x79d8": 4279,
    "\u25810x7c08": 4280,
    "\u25810x7ce8": 4281,
    "\u25810x7b28": 4282,
    "insafecall": 4283,
    "\u2581exceptioninsafecall": 4284,
    "\u25810x7d58": 4285,
    "\u25810x7c78": 4286,
    "\u2581disk": 4287,
    "\u25810xffaa": 4288,
    "ave": 4289,
    "calls": 4290,
    "\u25810xffe6": 4291,
    "e8c": 4292,
    "ecast": 4293,
    "\u25810x58c01c": 4294,
    "underflow": 4295,
    "bool": 4296,
    "denied": 4297,
    "bounds": 4298,
    "\u25810x7ec4": 4299,
    "\u25810xffb4": 4300,
    "\u2581privilege": 4301,
    "\u2581assertionfailed": 4302,
    "\u2581chit": 4303,
    "classtyp": 4304,
    "notsuped": 4305,
    "classtypecast": 4306,
    "outof": 4307,
    "otsuped": 4308,
    "leaccess": 4309,
    "overflow": 4310,
    "indexoutof": 4311,
    "dinstruction": 4312,
    "callsnotsuped": 4313,
    "\u2581errorcreating": 4314,
    "\u2581externalexception": 4315,
    "\u2581interfacenotsuped": 4316,
    "\u2581invalidclasstypecast": 4317,
    "\u2581variantcallsnotsuped": 4318,
    "\u2581floatingpointunderflow": 4319,
    "\u2581rang": 4320,
    "\u25810x7e0": 4321,
    "typecon": 4322,
    "\u25810x1210f6": 4323,
    "\u2581rangecheck": 4324,
    "typeconversion": 4325,
    "\u2581stackoverflow": 4326,
    "indexoutofbounds": 4327,
    "pointeroperation": 4328,
    "\u2581privilegedinstruction": 4329,
    "\u2581invalidvariantoperation": 4330,
    "\u2581invalidvarianttypeconversion": 4331,
    "pointo": 4332,
    "\u2581integ": 4333,
    "pointoverflow": 4334,
    "divisionbyzero": 4335,
    "\u2581floatingpointoverflow": 4336,
    "\u2581floatingpointdivisionbyzero": 4337,
    "\u25810x7ec5": 4338,
    "floating": 4339,
    "\u2581integero": 4340,
    "floatingpoint": 4341,
    "\u2581divisionbyzero": 4342,
    "\u2581integeroverflow": 4343,
    "\u2581rangecheckerror": 4344,
    "\u2581invalidfloatingpoint": 4345,
    "\u2581invalidpointeroperation": 4346,
    "\u2581invalidfloatingpointoperation": 4347,
    "a5c": 4348,
    "yond": 4349,
    "omany": 4350,
    "beyond": 4351,
    "numeric": 4352,
    "\u25810xfffa": 4353,
    "\u2581toomany": 4354,
    "openfiles": 4355,
    "\u2581diskfull": 4356,
    "\u2581readbeyond": 4357,
    "numericinput": 4358,
    "\u2581invalidfilename": 4359,
    "\u2581toomanyopenfiles": 4360,
    "\u2581invalidnumericinput": 4361,
    "\u2581readbeyondendoffile": 4362,
    "\u2581fileaccess": 4363,
    "\u2581varbstrfrombool": 4364,
    "\u2581fileaccessdenied": 4365,
    "prec": 4366,
    "precise": 4367,
    "preciseasfiletime": 4368,
    "\u2581getsystemtimepreciseasfiletime": 4369,
    "ypeex": 4370,
    "\u2581variantchangetypeex": 4371,
    "\u25810xfeee016": 4372,
    "special": 4373,
    "\u2581shgetspecial": 4374,
    "\u25810xffce": 4375,
    "\u25810x40933c": 4376,
    "\u25810xcf0000": 4377,
    "d1c": 4378,
    "\u25810x51a": 4379,
    "\u2581getfileinformationbyhandleex": 4380,
    "a10": 4381,
    "9020": 4382,
    "neg": 4383,
    "e2b": 4384,
    "\u25810xffcf": 4385,
    "\u25810xffe5": 4386,
    "\u25810x1211ed4": 4387,
    "\u2581varadd": 4388,
    "\u2581varneg": 4389,
    "\u2581varnot": 4390,
    "\u2581varsub": 4391,
    "mul": 4392,
    "xor": 4393,
    "idiv": 4394,
    "\u2581varcy": 4395,
    "\u2581varor": 4396,
    "\u2581varr8": 4397,
    "\u2581varand": 4398,
    "\u2581varcmp": 4399,
    "\u2581vardiv": 4400,
    "\u2581varmod": 4401,
    "\u2581varmul": 4402,
    "\u2581varxor": 4403,
    "\u2581varbool": 4404,
    "\u2581vardate": 4405,
    "\u2581varidiv": 4406,
    "\u2581varcyfromstr": 4407,
    "\u2581vari4fromstr": 4408,
    "\u2581varr4fromstr": 4409,
    "\u2581varr8fromstr": 4410,
    "\u2581varbstrfromcy": 4411,
    "\u2581varboolfromstr": 4412,
    "\u2581vardatefromstr": 4413,
    "\u2581varbstrfromdate": 4414,
    "srw": 4415,
    "cadwork": 4416,
    "\u25810x100300": 4417,
    "\u2581gdip": 4418,
    "\u25810x4317e0": 4419,
    "\u25810x6b9c08": 4420,
    "\u25810x140": 4421,
    "\u25810x40a5a0": 4422,
    "\u25810x409344": 4423,
    "\u2581snapprocess": 4424,
    "conditionvariablesrw": 4425,
    "\u2581sleepconditionvariablesrw": 4426,
    "740": 4427,
    "\u25810x4c4178": 4428,
    "\u25810x1211e1c": 4429,
    "\u25810x8c30": 4430,
    "\u25810x41a0": 4431,
    "\u25810x4284": 4432,
    "\u25810x8d20": 4433,
    "\u25810xffb0": 4434,
    "\u25810xfff9": 4435,
    "b5c": 4436,
    "\u25810x1210f8": 4437,
    "\u25810x8001": 4438,
    "\u25810xffb3": 4439,
    "3f0": 4440,
    "\u25810x8bd0": 4441,
    "fff0": 4442,
    "\u25810x30000": 4443,
    "\u25810x4305f8": 4444,
    "\u25810xffb2": 4445,
    "\u25810x7ec8": 4446,
    "\u25810x4c3": 4447,
    "tokeninformation": 4448,
    "\u25810x71a0": 4449,
    "\u25810x7ec9": 4450,
    "\u25810xffb1": 4451,
    "\u25810xfeee009d": 4452,
    "\u25810x169be04": 4453,
    "\u2581invalidargument": 4454,
    "\u25810x5e": 4455,
    "variantorsafearray": 4456,
    "\u2581errorcreatingvariantorsafearray": 4457,
    "\u2581variantorsafearray": 4458,
    "\u2581variantorsafearrayindexoutofbounds": 4459,
    "\u2581wak": 4460,
    "\u2581wakeconditionvariable": 4461,
    "\u25810x7ed0": 4462,
    "\u258111": 4463,
    "reque": 4464,
    "d3c": 4465,
    "\u25810x4390": 4466,
    "\u2581regcreate": 4467,
    "lasses": 4468,
    "\u25810x8c10": 4469,
    "\u2581gettokeninformation": 4470,
    "\u25810x422e": 4471,
    "\u25810x1211f24": 4472,
    "\u25810x496760": 4473,
    "\u25810x1211690": 4474,
    "200": 4475,
    "\u25810x169bc": 4476,
    "itor": 4477,
    "\u25810x40a59e": 4478,
    "\u2581submit": 4479,
    "\u25810x40a5a2": 4480,
    "\u25810x40a5a4": 4481,
    "\u25810x40a5a6": 4482,
    "\u25810x40a5a8": 4483,
    "\u25810x40a5aa": 4484,
    "\u2581setfileinformationbyhandle": 4485,
    "\u25810x43b6": 4486,
    "threadpoolwork": 4487,
    "\u2581closethreadpoolwork": 4488,
    "\u2581createthreadpoolwork": 4489,
    "\u2581submitthreadpoolwork": 4490,
    "\u25810x13fff0": 4491,
    "\u25810x118": 4492,
    "264": 4493,
    "\u25810x7edc": 4494,
    "\u25810x7ecc": 4495,
    "\u25810x8be0": 4496,
    "\u25810x41568c": 4497,
    "\u25810x7ecd": 4498,
    "\u25810x46b5": 4499,
    "\u2581loadacceleratorsw": 4500,
    "318": 4501,
    "ervice": 4502,
    "\u2581openprocesstoken": 4503,
    "\u25810x8c70": 4504,
    "\u25810x8c40": 4505,
    "\u25810x100000": 4506,
    "\u25810x4390c8": 4507,
    "\u25810x4400": 4508,
    "6e8": 4509,
    "7e0": 4510,
    "d44": 4511,
    "\u25810xfff8": 4512,
    "\u25810x85d0": 4513,
    "\u25810x8f50": 4514,
    "\u25810x8c00": 4515,
    "\u25810x7e89": 4516,
    "\u25810x52664": 4517,
    "b190": 4518,
    "\u25810x7e88": 4519,
    "\u2581setthreadpreferreduilanguages": 4520,
    "\u25810x4418": 4521,
    "f00": 4522,
    "\u25810x417d": 4523,
    "\u2581lstrcpyna": 4524,
    "\u2581vc": 4525,
    "param": 4526,
    "\u25810x566": 4527,
    "affc": 4528,
    "\u2581contr": 4529,
    "\u25810x419d50": 4530,
    "\u25810x4237d8": 4531,
    "\u2581int": 4532,
    "\u25810x419e00": 4533,
    "\u25810x42b020": 4534,
    "b1f": 4535,
    "\u25810x3f34e0": 4536,
    "\u25810x409020": 4537,
    "\u25810x413": 4538,
    "\u25810x419f40": 4539,
    "\u25810x42a070": 4540,
    "\u25810x42b024": 4541,
    "\u25810x42b028": 4542,
    "b40": 4543,
    "\u25810x7ed4": 4544,
    "3c8": 4545,
    "\u25810x7ed5": 4546,
    "\u25810x508": 4547,
    "olfp": 4548,
    "\u2581controlfp": 4549,
    "\u25810x7ed1": 4550,
    "\u25810x7ed8": 4551,
    "\u25810x12110d8": 4552,
    "\u25810x1211338": 4553,
    "regi": 4554,
    "\u25810x43d3": 4555,
    "\u25810x7ed9": 4556,
    "\u25810x8aa0": 4557,
    "\u2581commode": 4558,
    "\u25810xfff7": 4559,
    "\u25810x423d18": 4560,
    "bb8": 4561,
    "\u25810x4528": 4562,
    "\u25810x7edd": 4563,
    "\u2581getprivateprofilesection": 4564,
    "\u25810x1211ef8": 4565,
    "\u25810x8d60": 4566,
    "\u25810x1211c50": 4567,
    "\u2581kk": 4568,
    "userw": 4569,
    "\u25810x1211d14": 4570,
    "ca": 4571,
    "56f": 4572,
    "\u25810x8c90": 4573,
    "afcd": 4574,
    "d1ffc": 4575,
    "\u2581setfilepointerex": 4576,
    "358": 4577,
    "\u2581em": 4578,
    "\u25810x7f02": 4579,
    "\u25810x7ee4": 4580,
    "\u2581log": 4581,
    "\u2581b2acb2afcd": 4582,
    "runtime": 4583,
    "\u25810x7ee5": 4584,
    "\u25810x8ab0": 4585,
    "\u25810x20a": 4586,
    "\u25810x202": 4587,
    "\u25810x4228": 4588,
    "\u25810x42b190": 4589,
    "\u25810x42eace": 4590,
    "\u2581coinitialize": 4591,
    "sspace": 4592,
    "roll": 4593,
    "\u2581isspace": 4594,
    "\u25810xfff6": 4595,
    "runtime140": 4596,
    "\u2581vcruntime140": 4597,
    "\u2581msvcr71": 4598,
    "\u25810x7ee1": 4599,
    "74c": 4600,
    "\u2581getwindowsdirectorya": 4601,
    "\u25810x41e1": 4602,
    "\u2581getcursor": 4603,
    "184": 4604,
    "b7b": 4605,
    "\u25810x1211a00": 4606,
    "\u25810x4299": 4607,
    "logon": 4608,
    "3e8": 4609,
    "\u25810x11000": 4610,
    "\u2581hd": 4611,
    "ffff": 4612,
    "7ffd1ffc": 4613,
    "ffceffc7ffd1ffc": 4614,
    "\u25810x8d90": 4615,
    "affcbff": 4616,
    "ffceffc7ffd1ffcaffcbff": 4617,
    "\u2581b2acb2afcdffceffc7ffd1ffcaffcbff": 4618,
    "\u25810x9f": 4619,
    "ld": 4620,
    "\u25810x1211a14": 4621,
    "\u2581setenvironmentvariablea": 4622,
    "\u25810xfeee009e": 4623,
    "904": 4624,
    "202": 4625,
    "\u25810x8d50": 4626,
    "\u25810x4363d8": 4627,
    "\u2581setfileinformationbyhandlew": 4628,
    "\u2581getfileinformationbyhandleexw": 4629,
    "\u25810x4ad4": 4630,
    "\u2581classes": 4631,
    "box": 4632,
    "\u25810x56bb00": 4633,
    "with": 4634,
    "\u25810x8ba0": 4635,
    "\u2581formatmessagew": 4636,
    "win": 4637,
    "684": 4638,
    "b60": 4639,
    "\u25810xfeee00a0": 4640,
    "\u25810x423da8": 4641,
    "\u25810x423dd8": 4642,
    "\u2581defwindowprocw": 4643,
    "228": 4644,
    "20202020": 4645,
    "igin": 4646,
    "iginal": 4647,
    "207": 4648,
    "b84": 4649,
    "\u25810x1211f84": 4650,
    "\u25810x8d30": 4651,
    "dregen": 4652,
    "\u2581hddregen": 4653,
    "\u2581hddregenerator": 4654,
    "\u2581internet": 4655,
    "\u2581duplicate": 4656,
    "ac8": 4657,
    "\u2581heapdestroy": 4658,
    "\u25810xfeee009f": 4659,
    "\u25810x423df8": 4660,
    "484": 4661,
    "\u2581duplicatehandle": 4662,
    "768": 4663,
    "\u25810x678208": 4664,
    "\u25810x8cd0": 4665,
    "\u25810x8ca0": 4666,
    "\u25810xffab": 4667,
    "\u25810x8fc0": 4668,
    "bc0": 4669,
    "ctrl": 4670,
    "abd": 4671,
    "exit": 4672,
    "\u25810x169b958": 4673,
    "ncy": 4674,
    "\u25810x8bb0": 4675,
    "\u25810x1211c08": 4676,
    "barcad": 4677,
    "barcadero": 4678,
    "\u2581embarcadero": 4679,
    "\u25810x51af": 4680,
    "common": 4681,
    "requency": 4682,
    "\u25810x52665": 4683,
    "\u25810xffac": 4684,
    "aa4": 4685,
    "744": 4686,
    "cefrequency": 4687,
    "\u2581initcommon": 4688,
    "\u2581initcommoncontrols": 4689,
    "\u2581queryperformancefrequency": 4690,
    "search": 4691,
    "abase": 4692,
    "listmsg": 4693,
    "\u2581commctrl": 4694,
    "\u2581draglistmsg": 4695,
    "database": 4696,
    "searchmode": 4697,
    "\u2581setsearchmode": 4698,
    "608": 4699,
    "\u25810xfeee00a1": 4700,
    "\u2581localrealloc": 4701,
    "\u25810xfeee00a2": 4702,
    "204": 4703,
    "\u25810x169b780": 4704,
    "servicedatabase": 4705,
    "a90000": 4706,
    "\u2581registerclipboard": 4707,
    "5c8": 4708,
    "unction": 4709,
    "\u25810x431e": 4710,
    "\u25810x80c410": 4711,
    "\u25810x1211f80": 4712,
    "\u25810x53000000": 4713,
    "\u25810x401000": 4714,
    "\u25814d5": 4715,
    "\u2581cd": 4716,
    "\u25810x714": 4717,
    "384": 4718,
    "f84": 4719,
    "\u25810x43640": 4720,
    "sh": 4721,
    "\u25810xfeee00a3": 4722,
    "90c": 4723,
    "\u25810xffc5": 4724,
    "priority": 4725,
    "zone": 4726,
    "\u25810x426": 4727,
    "\u25810xfeee00a4": 4728,
    "\u25810xfeee00a5": 4729,
    "\u25810x1210f4": 4730,
    "\u25810x2012": 4731,
    "ned": 4732,
    "\u2581getfull": 4733,
    "\u25810xfeee00a6": 4734,
    "zoneinformation": 4735,
    "c44": 4736,
    "\u2581gettimezoneinformation": 4737,
    "\u25810x42ae": 4738,
    "\u25810x42e0f0": 4739,
    "\u2581setprocess": 4740,
    "\u25810x8ce0": 4741,
    "cc4": 4742,
    "\u25810xffd3": 4743,
    "ffff0000": 4744,
    "\u25810xaf": 4745,
    "bcf": 4746,
    "\u25810xffc6": 4747,
    "\u25810xfeee00a7": 4748,
    "\u25810xfeee00a8": 4749,
    "leexist": 4750,
    "\u2581fileexist": 4751,
    "\u25810xfeee00a9": 4752,
    "\u25810xfff5": 4753,
    "ts": 4754,
    "000000ffff0000": 4755,
    "\u25810x416b50": 4756,
    "d4c": 4757,
    "\u25810xfc": 4758,
    "\u25810x4c3308": 4759,
    "\u25810x82c0": 4760,
    "\u25810xfeee00aa": 4761,
    "\u25810xfeee00ab": 4762,
    "e10": 4763,
    "\u25810x88e0": 4764,
    "\u25810xfeee00ac": 4765,
    "\u25810xfeee00ae": 4766,
    "\u25810x418970": 4767,
    "\u25810xfeee00ad": 4768,
    "\u25810x4338": 4769,
    "\u25810x4398": 4770,
    "\u25810xfeed": 4771,
    "\u25810x437808": 4772,
    "240": 4773,
    "etype": 4774,
    "licen": 4775,
    "\u25810xb5": 4776,
    "\u25810x42b40": 4777,
    "4000000ffff0000": 4778,
    "cid": 4779,
    "\u25810x58de20": 4780,
    "\u25810x3f24": 4781,
    "\u25810x42332": 4782,
    "\u25810x1211f40": 4783,
    "\u25810x4245": 4784,
    "\u25810xfeee00af": 4785,
    "b30": 4786,
    "\u25810x431d": 4787,
    "\u2581string": 4788,
    "\u25810xfeee00b0": 4789,
    "\u25810xfeee00b1": 4790,
    "\u2581globalf": 4791,
    "36c": 4792,
    "\u25810x8818": 4793,
    "\u25810x95d0": 4794,
    "\u25810xb000": 4795,
    "a900003": 4796,
    "\u25814d5a900003": 4797,
    "\u25814d5a9000030000000": 4798,
    "\u25814d5a90000300000004000000ffff0000": 4799,
    "\u2581rand": 4800,
    "\u25810x8819": 4801,
    "\u2581run": 4802,
    "\u25810xff8": 4803,
    "\u2581getwindowsdirectoryw": 4804,
    "\u25810x4394": 4805,
    "\u25810x7340": 4806,
    "\u2581getdriv": 4807,
    "\u25810xfeee00b3": 4808,
    "\u25810xfeee00b4": 4809,
    "\u25810x881c": 4810,
    "\u25810xfeee00b2": 4811,
    "\u2581getdrivetype": 4812,
    "\u25810x42af": 4813,
    "\u25810xfeee00b5": 4814,
    "\u25810x881d": 4815,
    "\u25810x8821": 4816,
    "ae3": 4817,
    "\u25810x4a20": 4818,
    "longw": 4819,
    "\u25810x420e": 4820,
    "the": 4821,
    "\u25810xffcc": 4822,
    "\u2581openw": 4823,
    "3d1": 4824,
    "\u25810xfeee00bc": 4825,
    "\u2581original": 4826,
    "newimagebase": 4827,
    "\u2581originalimagebase": 4828,
    "\u25810x3410c60": 4829,
    "704": 4830,
    "\u25810xffad": 4831,
    "formata": 4832,
    "enter": 4833,
    "ad8": 4834,
    "\u2581destroywindow": 4835,
    "\u25810x7e90": 4836,
    "98c": 4837,
    "afdi": 4838,
    "\u2581wsafdi": 4839,
    "\u2581wsafdisset": 4840,
    "a80": 4841,
    "bb0": 4842,
    "\u25810x4295": 4843,
    "yarg1": 4844,
    "dep": 4845,
    "\u25810x1210f5": 4846,
    "\u2581y": 4847,
    "\u25810xfeee00b7": 4848,
    "\u25810xfeee00b8": 4849,
    "\u25810xfeee00b6": 4850,
    "\u25810xfeee00b9": 4851,
    "\u25810x120e6d8": 4852,
    "\u25810x9e": 4853,
    "access": 4854,
    "\u2581aa": 4855,
    "\u25810x3f20": 4856,
    "b63": 4857,
    "\u25810xa9b0": 4858,
    "atus": 4859,
    "\u2581dialog": 4860,
    "\u25810xfeee00bb": 4861,
    "\u25810x1210e0": 4862,
    "\u25810x4224": 4863,
    "\u25810xfeee00ba": 4864,
    "\u2581864000": 4865,
    "\u25810xfeee00bd": 4866,
    "\u25810x3f3080": 4867,
    "\u25810xfeee00be": 4868,
    "\u25810x4353d8": 4869,
    "\u25810xfeee00bf": 4870,
    "\u25810xfeee00c0": 4871,
    "\u2581findfirstfilea": 4872,
    "\u2581writeprocessmemory": 4873,
    "\u25810x4f6": 4874,
    "00e": 4875,
    "\u25810x3f3040": 4876,
    "\u258186400040": 4877,
    "\u25810xfeee00c1": 4878,
    "\u25810x405": 4879,
    "\u25810xfeee00c2": 4880,
    "\u25810x46b5d4": 4881,
    "\u25810x7df4": 4882,
    "\u25810xfeee00c3": 4883,
    "licy": 4884,
    "\u25810xffd0": 4885,
    "policy": 4886,
    "xit": 4887,
    "systemtime": 4888,
    "\u25810xfeee00c4": 4889,
    "\u25810x181c": 4890,
    "\u25810x42e6": 4891,
    "\u25810x1211f30h": 4892,
    "\u25810x7d40": 4893,
    "\u25810x7df5": 4894,
    "validate": 4895,
    "\u25810xfeee00c6": 4896,
    "\u25810xfeee00c7": 4897,
    "\u2581heapvalidate": 4898,
    "b58": 4899,
    "\u25810x42fb": 4900,
    "\u25810xfeee00c5": 4901,
    "\u25810xfeee00ca": 4902,
    "gine": 4903,
    "\u25810xfeee00c8": 4904,
    "\u2581are": 4905,
    "\u25810x4196": 4906,
    "\u25810x110": 4907,
    "\u25810x4318": 4908,
    "\u25810xfeee00c9": 4909,
    "couldnotbelocatedinthe": 4910,
    "\u25810xfeee00cb": 4911,
    "\u25810x1211e30": 4912,
    "\u25810xffc4": 4913,
    "\u25810x41c4": 4914,
    "output": 4915,
    "984": 4916,
    "\u25810x1211f70": 4917,
    "\u25810xfeee0108": 4918,
    "\u25810x107": 4919,
    "memor": 4920,
    "\u25810x51c": 4921,
    "ystatus": 4922,
    "memorystatus": 4923,
    "\u2581globalmemorystatus": 4924,
    "\u25810x4df0": 4925,
    "\u25810x75500000": 4926,
    "deppolicy": 4927,
    "\u2581ob": 4928,
    "\u25810x1211f5c": 4929,
    "\u2581filetimetosystemtime": 4930,
    "meta": 4931,
    "dialog": 4932,
    "prop": 4933,
    "\u2581loadlibraryexa": 4934,
    "3868": 4935,
    "\u25810x42d408": 4936,
    "\u25810x100b": 4937,
    "\u2581initcommoncontrolsex": 4938,
    "ort": 4939,
    "\u25810x1211e00": 4940,
    "localfiletime": 4941,
    "\u2581filetimetolocalfiletime": 4942,
    "c4c": 4943,
    "\u25810xffae": 4944,
    "766": 4945,
    "\u2581getkeyboardtype": 4946,
    "902": 4947,
    "\u2581monitor": 4948,
    "outputcp": 4949,
    "\u25810x41a": 4950,
    "\u25810x4306": 4951,
    "\u25810x120fd": 4952,
    "\u25810x343b5": 4953,
    "\u2581getconsoleoutputcp": 4954,
    "\u25810xffaf": 4955,
    "\u25810x41678c": 4956,
    "758": 4957,
    "\u2581memcpy": 4958,
    "\u25810x41678d": 4959,
    "\u2581setprocessdeppolicy": 4960,
    "\u25810x500": 4961,
    "\u25810x3f5000": 4962,
    "f4c": 4963,
    "\u25810x48f894": 4964,
    "160": 4965,
    "\u25810x4fec20": 4966,
    "\u25810xffc2": 4967,
    "hash": 4968,
    "\u25810x8430": 4969,
    "a4c": 4970,
    "\u25810xff90": 4971,
    "\u25810x40f9": 4972,
    "\u25810x48400": 4973,
    "environmentstringsa": 4974,
    "ly": 4975,
    "\u25810xa39": 4976,
    "\u25810x19c": 4977,
    "362": 4978,
    "718": 4979,
    "\u25810x9cc0": 4980,
    "ters": 4981,
    "\u25810xbc": 4982,
    "\u25810x12117f4": 4983,
    "dc0": 4984,
    "\u25810x524": 4985,
    "adap": 4986,
    "\u25810x488": 4987,
    "adapters": 4988,
    "\u258103": 4989,
    "006": 4990,
    "\u25810x107598": 4991,
    "\u25810x42f": 4992,
    "\u25810x4225": 4993,
    "\u25810x8650": 4994,
    "\u25810x107658": 4995,
    "\u25810xa42a10": 4996,
    "\u25810x103": 4997,
    "\u2581unlock": 4998,
    "\u25810x429570": 4999,
    "\u25810x27dc": 5000,
    "\u25810x42956f": 5001,
    "348": 5002,
    "ae8": 5003,
    "\u25810xffd2": 5004,
    "39c": 5005,
    "wer": 5006,
    "ff4": 5007,
    "b0c8": 5008,
    "\u25810xffe3": 5009,
    "\u25810x1211f98": 5010,
    "\u25810x109": 5011,
    "\u25810x7c10": 5012,
    "784": 5013,
    "extex": 5014,
    "\u25810x8660": 5015,
    "644": 5016,
    "\u25810x20009": 5017,
    "\u25810x1b2": 5018,
    "a70": 5019,
    "d84": 5020,
    "oyo": 5021,
    "\u2581corexit": 5022,
    "\u2581corexitprocess": 5023,
    "\u25810x437806": 5024,
    "\u25810x43780a": 5025,
    "\u25810x43780c": 5026,
    "\u25810x43780e": 5027,
    "\u25810x437810": 5028,
    "\u25810x437812": 5029,
    "\u25810x437814": 5030,
    "\u25810x437816": 5031,
    "\u25810x437818": 5032,
    "\u25810x43781a": 5033,
    "\u25810x43781c": 5034,
    "\u25810x43781e": 5035,
    "\u25810x6e": 5036,
    "\u25810x190": 5037,
    "data": 5038,
    "fied": 5039,
    "b24": 5040,
    "\u25810x1210e4": 5041,
    "26c": 5042,
    "\u25810x107538": 5043,
    "ook": 5044,
    "\u25810x40f937": 5045,
    "\u25810x41c0": 5046,
    "\u25810x1210ee": 5047,
    "\u25810x1210f0": 5048,
    "\u2581coun": 5049,
    "\u25810xfeee018": 5050,
    "\u2581movefilea": 5051,
    "\u25810x42eb": 5052,
    "\u25810xffec": 5053,
    "\u2581memset": 5054,
    "\u25810x41d114": 5055,
    "\u25810x563868": 5056,
    "\u25810x120f8c2": 5057,
    "f44": 5058,
    "f5c": 5059,
    "b8c": 5060,
    "\u25810x417c": 5061,
    "\u2581setfiletime": 5062,
    "361": 5063,
    "\u2581lstrcmpw": 5064,
    "\u25810xffef": 5065,
    "ansi": 5066,
    "\u25810x1211dd0": 5067,
    "ookup": 5068,
    "bc4": 5069,
    "\u2581lookup": 5070,
    "apis": 5071,
    "\u2581virtualallocex": 5072,
    "124": 5073,
    "\u25810x4010": 5074,
    "\u25810x1211df4": 5075,
    "\u25810x4300": 5076,
    "144": 5077,
    "\u2581getexit": 5078,
    "apisansi": 5079,
    "\u2581arefile": 5080,
    "\u2581arefileapisansi": 5081,
    "\u2581couldnotbelocatedinthe": 5082,
    "onsolea": 5083,
    "\u25810xffc3": 5084,
    "\u25810x7eab": 5085,
    "fc4": 5086,
    "\u2581writeconsolea": 5087,
    "\u25810x59c1": 5088,
    "3d0": 5089,
    "\u25810x59bf": 5090,
    "7b0": 5091,
    "yarg2": 5092,
    "\u25810x97b0": 5093,
    "metafile": 5094,
    "\u25810x99d0": 5095,
    "dllip": 5096,
    "dlliphlpapi": 5097,
    "\u2581couldnotbelocatedinthedlliphlpapi": 5098,
    "\u25810x416ed1": 5099,
    "\u2581lstrcpya": 5100,
    "\u25810x416ed2": 5101,
    "\u25810xfeee00f4": 5102,
    "des": 5103,
    "top": 5104,
    "\u25810x107688": 5105,
    "\u25810x42be": 5106,
    "ible": 5107,
    "\u25810xec": 5108,
    "\u25810x1211fbc": 5109,
    "f8c": 5110,
    "\u25810x598": 5111,
    "\u25810x120e694": 5112,
    "\u25810x120e69c": 5113,
    "100": 5114,
    "\u25810x7ee9": 5115,
    "owned": 5116,
    "\u258117": 5117,
    "928": 5118,
    "\u2581shgetspecialfolderw": 5119,
    "d98": 5120,
    "\u25810x454840": 5121,
    "snot": 5122,
    "a0f": 5123,
    "278": 5124,
    "12c": 5125,
    "260": 5126,
    "304": 5127,
    "\u2581lstrcpyw": 5128,
    "\u25810x4332": 5129,
    "\u25810x4c51": 5130,
    "\u25810x437390": 5131,
    "\u25810x4378c8": 5132,
    "\u25810x120fb48": 5133,
    "\u2581fileexistsa": 5134,
    "\u25810xae": 5135,
    "\u2581couninitialize": 5136,
    "218": 5137,
    "\u25810xfeee017": 5138,
    "\u2581sq": 5139,
    "\u25810xffe7": 5140,
    "d40": 5141,
    "\u25810x7ee8": 5142,
    "\u25810xc4": 5143,
    "want": 5144,
    "\u25810x44280": 5145,
    "\u2581lookupprivilege": 5146,
    "d68": 5147,
    "\u25810xff91": 5148,
    "lag": 5149,
    "\u25810x1210c": 5150,
    "\u25810x429e": 5151,
    "\u2581setenvironmentvariablew": 5152,
    "amet": 5153,
    "700": 5154,
    "\u2581outputdebugstringw": 5155,
    "\u2581globalmemorystatusex": 5156,
    "function": 5157,
    "556": 5158,
    "\u2581setcurrentdirectoryw": 5159,
    "40c": 5160,
    "der": 5161,
    "\u25810x8824": 5162,
    "\u25810x509": 5163,
    "licence": 5164,
    "usttoken": 5165,
    "privileges": 5166,
    "usttokenprivileges": 5167,
    "\u25810x8828": 5168,
    "\u25810x8a41": 5169,
    "\u25810x8825": 5170,
    "ream": 5171,
    "\u25810x77b000": 5172,
    "\u25810x43b0c8": 5173,
    "7f0": 5174,
    "e2e": 5175,
    "leasec": 5176,
    "strings": 5177,
    "\u25810x44d4": 5178,
    "\u25810x1210e5": 5179,
    "\u2581getadapters": 5180,
    "\u2581failedtoinitializ": 5181,
    "eengine": 5182,
    "\u2581failedtoinitializeengine": 5183,
    "\u2581getenvironmentstrings": 5184,
    "\u25810x169b5": 5185,
    "xw": 5186,
    "\u25810x40a3d": 5187,
    "\u25810x3f6000": 5188,
    "\u25810x41624": 5189,
    "f70": 5190,
    "284": 5191,
    "\u25810x882c": 5192,
    "\u25810xffe2": 5193,
    "310": 5194,
    "00210": 5195,
    "lcid": 5196,
    "\u25810x8829": 5197,
    "\u25810x1210f9": 5198,
    "\u25810x12118f8": 5199,
    "\u25810x130": 5200,
    "\u25810x882d": 5201,
    "\u2581findnextfilea": 5202,
    "\u2581lstrc": 5203,
    "\u25810x8834": 5204,
    "\u25810x4140": 5205,
    "\u2581getvolumeinformationw": 5206,
    "409": 5207,
    "ill": 5208,
    "\u25810x51c4": 5209,
    "32c": 5210,
    "36f": 5211,
    "b4c": 5212,
    "wasnot": 5213,
    "\u25810x431d00": 5214,
    "\u25810x8831": 5215,
    "\u2581getfullnamew": 5216,
    "\u25810x42ce10": 5217,
    "\u25810x8835": 5218,
    "\u25810x41688": 5219,
    "6d7": 5220,
    "b94": 5221,
    "inity": 5222,
    "c0c": 5223,
    "\u25810x3f7000": 5224,
    "\u2581iswindow": 5225,
    "ba4": 5226,
    "atomw": 5227,
    "pipe": 5228,
    "\u25810x1211d08": 5229,
    "affinity": 5230,
    "affinitymask": 5231,
    "\u25810x4c4230": 5232,
    "\u25810x4c4260": 5233,
    "\u25810x4c42a8": 5234,
    "\u25810x42a730": 5235,
    "\u25810x42a731": 5236,
    "\u25810x4c4248": 5237,
    "\u25810x4c4278": 5238,
    "\u25810x4c4290": 5239,
    "\u25810x4c4320": 5240,
    "\u25810x4c4338": 5241,
    "\u25810x4c4350": 5242,
    "\u25810x4c4368": 5243,
    "bf0": 5244,
    "\u25810x3fb000": 5245,
    "\u25810x1211968": 5246,
    "265": 5247,
    "\u25810x433618": 5248,
    "\u25810x3f8000": 5249,
    "desk": 5250,
    "\u25810x539": 5251,
    "a6c": 5252,
    "f21": 5253,
    "\u25810x429a81": 5254,
    "1e8": 5255,
    "\u25810x438c18": 5256,
    "\u25810x120f9": 5257,
    "\u25810x423d38": 5258,
    "\u2581regcreatekeyexw": 5259,
    "\u25810x1075c8": 5260,
    "\u25810x62": 5261,
    "\u25810x438be8": 5262,
    "302": 5263,
    "798": 5264,
    "pop": 5265,
    "\u25810x4155": 5266,
    "\u25810x437ae4": 5267,
    "\u25810x3f9000": 5268,
    "\u25810x3fa000": 5269,
    "\u25810x437207": 5270,
    "\u25810x437208": 5271,
    "\u25810x437ad2": 5272,
    "\u25810x437ad3": 5273,
    "\u25810x437ae3": 5274,
    "\u25810x437b63": 5275,
    "\u25810x437b64": 5276,
    "\u25810x437b7b": 5277,
    "\u25810x437b7c": 5278,
    "\u25810x437bbd": 5279,
    "\u25810x437bbe": 5280,
    "\u25810x437bce": 5281,
    "\u25810x437bcf": 5282,
    "\u25810x437c42": 5283,
    "\u25810x437c43": 5284,
    "b18": 5285,
    "paramw": 5286,
    "\u25810x40a584": 5287,
    "\u2581movefilew": 5288,
    "f40": 5289,
    "\u25810xa41e": 5290,
    "\u25810x120f7": 5291,
    "\u25810x40a582": 5292,
    "\u25810x40a586": 5293,
    "\u25810x40a588": 5294,
    "db0": 5295,
    "\u25810x40a58a": 5296,
    "\u25810x4c5158": 5297,
    "\u25810x40a580": 5298,
    "\u25810x429e2b": 5299,
    "\u25810x429e2c": 5300,
    "\u25810x434d1c": 5301,
    "\u25810x43b7a9": 5302,
    "\u25810x43b7aa": 5303,
    "\u25810x43b7b8": 5304,
    "\u2581getfileex": 5305,
    "b70": 5306,
    "\u25810x4614": 5307,
    "\u25810x40a57e": 5308,
    "\u2581cs": 5309,
    "\u25810x44f910": 5310,
    "\u25810x1075f8": 5311,
    "\u25810x107628": 5312,
    "\u25810x422ebe": 5313,
    "\u25810x43b7b3": 5314,
    "\u25810x43b7b4": 5315,
    "\u25810x43b7ba": 5316,
    "\u25810x43b7c4": 5317,
    "\u25810x188e00": 5318,
    "\u2581enable": 5319,
    "80c": 5320,
    "d00": 5321,
    "\u25810x1211fa0": 5322,
    "propw": 5323,
    "\u25810x430880": 5324,
    "f7c": 5325,
    "e84": 5326,
    "\u25810x420f": 5327,
    "a09": 5328,
    "\u25810x4315b0": 5329,
    "coree": 5330,
    "\u2581mscoree": 5331,
    "\u2581dialogbox": 5332,
    "place": 5333,
    "545": 5334,
    "entr": 5335,
    "1d0": 5336,
    "340": 5337,
    "valueexa": 5338,
    "\u2581getmenuitem": 5339,
    "\u25810x7e3000": 5340,
    "a00": 5341,
    "aa5": 5342,
    "\u25810x3f75f60": 5343,
    "b78": 5344,
    "70c": 5345,
    "notin": 5346,
    "\u25810x12105": 5347,
    "\u2581virtualfreeex": 5348,
    "\u2581getprocessaffinitymask": 5349,
    "\u25810x181": 5350,
    "\u25810x43ff": 5351,
    "34c": 5352,
    "gn": 5353,
    "\u25810x288": 5354,
    "\u25810x7e4000": 5355,
    "316": 5356,
    "notinitializ": 5357,
    "\u25810xfff4": 5358,
    "ectlock": 5359,
    "notowned": 5360,
    "supfunction": 5361,
    "notinitialized": 5362,
    "ectlocknotowned": 5363,
    "\u2581monitorsupfunction": 5364,
    "\u2581monitorsupfunctionnotinitialized": 5365,
    "\u25810x4050": 5366,
    "\u25810x4967a8": 5367,
    "onexit": 5368,
    "\u25810x40b8": 5369,
    "\u25810x3f25": 5370,
    "\u2581application": 5371,
    "\u25810x442": 5372,
    "\u25810x46c0": 5373,
    "706": 5374,
    "myarg2": 5375,
    "\u25810x1210e6": 5376,
    "91c": 5377,
    "\u2581fre": 5378,
    "specified": 5379,
    "creen": 5380,
    "\u25810x4290": 5381,
    "\u25810x1211e24": 5382,
    "svc": 5383,
    "fa8": 5384,
    "filewasnot": 5385,
    "\u2581thespecified": 5386,
    "filewasnotfound": 5387,
    "\u2581thespecifiedfilewasnotfound": 5388,
    "a45": 5389,
    "\u2581service": 5390,
    "\u2581getcursorpos": 5391,
    "application": 5392,
    "\u25810x4470": 5393,
    "stream": 5394,
    "\u25810x4554": 5395,
    "\u25810x8900": 5396,
    "\u2581registerclipboardformata": 5397,
    "569": 5398,
    "b640": 5399,
    "d28": 5400,
    "\u2581getuserdefaultuilanguage": 5401,
    "58f": 5402,
    "b14": 5403,
    "541": 5404,
    "\u25810x188d3c": 5405,
    "\u25810x423b20": 5406,
    "\u25810x4289": 5407,
    "404": 5408,
    "\u25810x423b1f": 5409,
    "\u25810x42fc38": 5410,
    "\u25810x3f75f30": 5411,
    "9c2": 5412,
    "\u25810x235": 5413,
    "\u2581400000newimagebase": 5414,
    "\u25810x1210ec": 5415,
    "yarg1myarg2": 5416,
    "\u2581wcs": 5417,
    "3c4": 5418,
    "\u2581dat": 5419,
    "dlg32": 5420,
    "\u25810x10e9": 5421,
    "\u25810x41d1": 5422,
    "\u2581comdlg32": 5423,
    "\u25810x1210f1": 5424,
    "ba0": 5425,
    "ime": 5426,
    "888": 5427,
    "\u2581at": 5428,
    "hard": 5429,
    "\u25810xffc1": 5430,
    "\u25810x40a5ac": 5431,
    "\u25810xffdd": 5432,
    "dd4": 5433,
    "\u25810x125": 5434,
    "\u2581loader": 5435,
    "\u25810x423868": 5436,
    "\u25810x423898": 5437,
    "778": 5438,
    "38c": 5439,
    "794": 5440,
    "device": 5441,
    "\u25810x160": 5442,
    "\u25810x419c20": 5443,
    "555": 5444,
    "connect": 5445,
    "\u25810x41bd": 5446,
    "b7d8": 5447,
    "18c": 5448,
    "b10": 5449,
    "d50": 5450,
    "54c": 5451,
    "\u25810x42fbf0": 5452,
    "\u2581call": 5453,
    "\u25810x4e30": 5454,
    "\u25810x4de": 5455,
    "bad8": 5456,
    "370": 5457,
    "b90": 5458,
    "\u25810x1211e18": 5459,
    "\u25810x58000": 5460,
    "\u2581enddialog": 5461,
    "382": 5462,
    "3e0": 5463,
    "\u25810x40ef1": 5464,
    "748": 5465,
    "\u2581replace": 5466,
    "738": 5467,
    "\u25810x4130": 5468,
    "\u25810x1211f44": 5469,
    "menuitem": 5470,
    "\u25810x437820": 5471,
    "\u25810x7e5000": 5472,
    "edi": 5473,
    "\u2581initi": 5474,
    "11c": 5475,
    "720": 5476,
    "a0c": 5477,
    "bd4": 5478,
    "fb0": 5479,
    "\u2581regenumkeyexw": 5480,
    "loadfrom": 5481,
    "c8d": 5482,
    "\u25810x4076": 5483,
    "\u25810x4254": 5484,
    "leng": 5485,
    "download": 5486,
    "aaaa": 5487,
    "length": 5488,
    "\u25810x486d": 5489,
    "\u2581164630": 5490,
    "d8c": 5491,
    "a8a8": 5492,
    "ae0": 5493,
    "tive": 5494,
    "ynam": 5495,
    "\u25810x1210e2": 5496,
    "fec": 5497,
    "org": 5498,
    "dynam": 5499,
    "a54": 5500,
    "\u25810x433": 5501,
    "\u25810x41c856": 5502,
    "\u25810x41c857": 5503,
    "\u2581regdeletekeyw": 5504,
    "\u25810x3f23": 5505,
    "\u25810x4244": 5506,
    "\u25810x43f0": 5507,
    "b50": 5508,
    "\u25810x1211e8c": 5509,
    "f48": 5510,
    "\u25810x1b1": 5511,
    "2c8": 5512,
    "\u25810x169b7a4": 5513,
    "\u25810x7bc": 5514,
    "\u25810x8930": 5515,
    "\u2581removedirectoryw": 5516,
    "\u25810x169b57c": 5517,
    "528": 5518,
    "orgex": 5519,
    "\u25810x47e0": 5520,
    "codeprocess": 5521,
    "\u2581getexitcodeprocess": 5522,
    "\u25810x169b94c": 5523,
    "\u25810x4096": 5524,
    "\u25810x4febd8": 5525,
    "\u25810x2100210": 5526,
    "a28": 5527,
    "\u25810x431f38": 5528,
    "248": 5529,
    "b28": 5530,
    "metafilebits": 5531,
    "fc8": 5532,
    "\u25810x56b8": 5533,
    "\u25810x1211f1c": 5534,
    "\u25810x120f": 5535,
    "hardlinkw": 5536,
    "\u25810x188e24": 5537,
    "\u25810x42e5c8": 5538,
    "\u25810x42e5e0": 5539,
    "\u2581createhardlinkw": 5540,
    "\u2581regdeletevaluew": 5541,
    "\u25810x42d3c0": 5542,
    "a20": 5543,
    "\u25810x41a6": 5544,
    "\u2581noaccess": 5545,
    "3f1c": 5546,
    "\u25810x3f21": 5547,
    "\u25810x12106": 5548,
    "001": 5549,
    "\u25810x4084": 5550,
    "\u2581removedirectorya": 5551,
    "\u25810x101c": 5552,
    "e28": 5553,
    "\u2581cq": 5554,
    "230": 5555,
    "918": 5556,
    "\u25810x42c1": 5557,
    "\u25810x42bf": 5558,
    "\u2581164634": 5559,
    "\u2581getdateformatw": 5560,
    "d0c": 5561,
    "ocus": 5562,
    "dynamic": 5563,
    "\u25810x88b0": 5564,
    "eresource": 5565,
    "\u25810x343b570": 5566,
    "ip": 5567,
    "\u25810x4030": 5568,
    "dynamiclink": 5569,
    "dynamiclinklibrary": 5570,
    "f28": 5571,
    "f68": 5572,
    "focus": 5573,
    "acquire": 5574,
    "acquirecon": 5575,
    "\u2581cryptacquirecon": 5576,
    "\u25810x431ef0": 5577,
    "\u25810x42e598": 5578,
    "\u25810x1211de4": 5579,
    "\u2581freeresource": 5580,
    "b68": 5581,
    "\u25810x99a0": 5582,
    "\u2581install": 5583,
    "\u2581asw": 5584,
    "\u2581lookupprivilegevaluew": 5585,
    "look": 5586,
    "\u25810x10e9bc": 5587,
    "\u2581outlook": 5588,
    "2b0": 5589,
    "2dc": 5590,
    "\u25810x1211d00": 5591,
    "acc": 5592,
    "\u2581dialogboxparamw": 5593,
    "990": 5594,
    "6d7363": 5595,
    "\u25810xe06d7363": 5596,
    "fig": 5597,
    "\u25810x42b3": 5598,
    "registry": 5599,
    "\u25810x4fe2": 5600,
    "994": 5601,
    "210": 5602,
    "\u25810x5004": 5603,
    "\u25810xbd": 5604,
    "\u2581findresourcea": 5605,
    "f54": 5606,
    "f6c": 5607,
    "ff0": 5608,
    "60c": 5609,
    "3b0": 5610,
    "f46": 5611,
    "\u25810x423dc8": 5612,
    "dbe": 5613,
    "4005": 5614,
    "c84": 5615,
    "\u25810x41681a": 5616,
    "\u25810x41681b": 5617,
    "windowshook": 5618,
    "\u2581freeenvironmentstringsa": 5619,
    "ds": 5620,
    "hort": 5621,
    "\u25810x421d": 5622,
    "\u2581getshort": 5623,
    "ba8": 5624,
    "366": 5625,
    "\u25810x8ec0": 5626,
    "\u25810x120e68c": 5627,
    "\u2581endd": 5628,
    "\u25810x1211808": 5629,
    "301": 5630,
    "\u25810x4efd": 5631,
    "\u25810x1210ed": 5632,
    "\u25810x45f1": 5633,
    "\u25810x4fe6e8": 5634,
    "\u2581getprivateprofilestringw": 5635,
    "3b8": 5636,
    "chr": 5637,
    "\u25810x56bad8": 5638,
    "popup": 5639,
    "fd8": 5640,
    "\u25810x40ab": 5641,
    "\u25810x41af": 5642,
    "\u2581cadwork": 5643,
    "f18": 5644,
    "you": 5645,
    "\u25810x1211ad0": 5646,
    "78c": 5647,
    "baf": 5648,
    "\u25810x4cb0": 5649,
    "70e": 5650,
    "\u2581getuserdefaultlcid": 5651,
    "\u25810x40b3de": 5652,
    "\u25810x46b3d0": 5653,
    "\u25810x7bc00000": 5654,
    "\u25810x40f": 5655,
    "\u25810x418a00": 5656,
    "\u25810x418a30": 5657,
    "\u25810x1211e20": 5658,
    "948": 5659,
    "af4": 5660,
    "bcc": 5661,
    "\u2581getdrivetypew": 5662,
    "core": 5663,
    "\u25810x5398": 5664,
    "\u25810xa429f8": 5665,
    "wantto": 5666,
    "\u2581applicationerror": 5667,
    "fe0": 5668,
    "\u25810xc8": 5669,
    "b008": 5670,
    "\u25810x4201": 5671,
    "\u25810x49c8": 5672,
    "\u2581setdll": 5673,
    "468": 5674,
    "728": 5675,
    "\u2581version": 5676,
    "\u2581createpipe": 5677,
    "\u25810x3f26": 5678,
    "\u25810x4395c8": 5679,
    "resourc": 5680,
    "\u25810x53b640": 5681,
    "\u25810x53b7d8": 5682,
    "\u25810x53ba10": 5683,
    "298": 5684,
    "apt": 5685,
    "3a4": 5686,
    "\u2581beg": 5687,
    "leave": 5688,
    "300b": 5689,
    "mi": 5690,
    "dcc": 5691,
    "apture": 5692,
    "\u2581gettimeformatw": 5693,
    "dc1": 5694,
    "\u2581begind": 5695,
    "\u2581dragmove": 5696,
    "\u2581enddrag": 5697,
    "\u2581begindrag": 5698,
    "\u2581dragenter": 5699,
    "\u2581dragleave": 5700,
    "winmetafilebits": 5701,
    "aa0": 5702,
    "\u2581getcomputernamew": 5703,
    "69c": 5704,
    "a48": 5705,
    "\u25810x7d51": 5706,
    "716": 5707,
    "985": 5708,
    "\u25810x42daa2": 5709,
    "\u25810x42daab": 5710,
    "\u2581164632": 5711,
    "\u25810x42dab4": 5712,
    "\u25810x42dabd": 5713,
    "\u25810x97c0": 5714,
    "ocre": 5715,
    "power": 5716,
    "\u25810x54000": 5717,
    "604": 5718,
    "2e2": 5719,
    "inter": 5720,
    "7a8": 5721,
    "\u25810x5219": 5722,
    "244": 5723,
    "\u25810x42bd38": 5724,
    "im": 5725,
    "386": 5726,
    "710": 5727,
    "\u2581wts": 5728,
    "\u25810x144": 5729,
    "\u25810x40b3dd": 5730,
    "\u25810x412e": 5731,
    "116": 5732,
    "\u25810x43b3d8": 5733,
    "290": 5734,
    "\u25810x6a": 5735,
    "\u25810x9a90": 5736,
    "\u25810x1253f1c": 5737,
    "\u25810x42b36f": 5738,
    "\u25810x42b370": 5739,
    "\u2581readprocessmemory": 5740,
    "b0c": 5741,
    "7b8": 5742,
    "b80": 5743,
    "\u25810xa3a8": 5744,
    "\u25810x3f27": 5745,
    "\u25810x4307e0": 5746,
    "created": 5747,
    "\u25810x4aa0": 5748,
    "\u2581setsystem": 5749,
    "e48": 5750,
    "306": 5751,
    "\u2581replaceicon": 5752,
    "ef0": 5753,
    "powerstate": 5754,
    "\u2581setsystempowerstate": 5755,
    "\u25810xffc7": 5756,
    "\u25810xcb000": 5757,
    "\u2581getdiskfreespacew": 5758,
    "381": 5759,
    "944": 5760,
    "visible": 5761,
    "\u25810x419a": 5762,
    "\u25810x47f0": 5763,
    "\u25810x4d50": 5764,
    "\u2581enumresourc": 5765,
    "d18": 5766,
    "\u2581getcurrentdirectorya": 5767,
    "aad": 5768,
    "\u25810x644": 5769,
    "958": 5770,
    "\u25810x60c6": 5771,
    "\u2581getwinmetafilebits": 5772,
    "\u2581regenumvaluew": 5773,
    "\u25810x42aa58": 5774,
    "\u25810x1211ef4": 5775,
    "\u25810x9210": 5776,
    "\u25810x44d4b8": 5777,
    "entry": 5778,
    "\u25810x45f2": 5779,
    "694": 5780,
    "f65": 5781,
    "dow": 5782,
    "scroll": 5783,
    "\u2581enumresourcename": 5784,
    "\u25810x428000": 5785,
    "\u2581regconnect": 5786,
    "\u2581regconnectregistry": 5787,
    "\u25810x484": 5788,
    "f51": 5789,
    "750": 5790,
    "\u25810x4179": 5791,
    "\u25810x1211d2c": 5792,
    "ged": 5793,
    "322": 5794,
    "\u25810x1074": 5795,
    "\u2581scouldnotbelocatedinthe": 5796,
    "d30": 5797,
    "\u25810x2825": 5798,
    "tp": 5799,
    "\u25810x431": 5800,
    "\u25810x42c4f0": 5801,
    "\u2581getshortnamew": 5802,
    "\u25810x4126": 5803,
    "\u25810xba": 5804,
    "\u25810x41a8a8": 5805,
    "\u25810x41bc98": 5806,
    "\u25810x41bcc8": 5807,
    "f318": 5808,
    "\u2581regconnectregistryw": 5809,
    "9c0": 5810,
    "\u25810x4088": 5811,
    "\u25810x4200": 5812,
    "\u25810x4a7": 5813,
    "\u25810x88f0": 5814,
    "\u25810x42ae20": 5815,
    "\u2581services": 5816,
    "\u2581qt": 5817,
    "\u2581shfolder": 5818,
    "olor": 5819,
    "\u25810xb3": 5820,
    "\u2581openthreadtoken": 5821,
    "120": 5822,
    "a90": 5823,
    "\u2581sm": 5824,
    "\u2581writeprivateprofilestringw": 5825,
    "\u25810x82f0": 5826,
    "\u2581dw": 5827,
    "\u2581enumresourcenamesw": 5828,
    "\u25810x53e4": 5829,
    "978": 5830,
    "\u25810xd2": 5831,
    "730": 5832,
    "\u2581fa": 5833,
    "\u25810x1211f54": 5834,
    "\u2581beep": 5835,
    "ession": 5836,
    "\u25810x169bf64": 5837,
    "\u25810x8ef0": 5838,
    "505": 5839,
    "\u25810x437804": 5840,
    "\u25810x40a59c": 5841,
    "\u2581setdlldirectoryw": 5842,
    "50c": 5843,
    "\u25810x9810": 5844,
    "\u2581getsave": 5845,
    "\u25810x63000000": 5846,
    "1cc": 5847,
    "\u258112": 5848,
    "\u2581exp": 5849,
    "\u2581down": 5850,
    "\u25810x41cc": 5851,
    "priorityclass": 5852,
    "\u2581dragob": 5853,
    "\u25810x1211f97": 5854,
    "\u2581globaladd": 5855,
    "\u25810x79b0": 5856,
    "\u25810x3b7": 5857,
    "\u25810x6781c0": 5858,
    "\u25810x6781f0": 5859,
    "\u25810xe8": 5860,
    "\u2581setthreadlocale": 5861,
    "env": 5862,
    "\u25810x40a6": 5863,
    "2c5": 5864,
    "a9c": 5865,
    "bb4": 5866,
    "\u25810x12119d0": 5867,
    "\u25810x50850": 5868,
    "\u25810x120faa8": 5869,
    "\u25810x12115bc": 5870,
    "\u25810xf8": 5871,
    "\u2581messageboxw": 5872,
    "\u2581setpriorityclass": 5873,
    "506": 5874,
    "lower": 5875,
    "\u25810x42b8": 5876,
    "\u25810x41300b": 5877,
    "\u25810x9630": 5878,
    "\u2581createprocessas": 5879,
    "d6c": 5880,
    "labe": 5881,
    "\u25810xffde": 5882,
    "\u25810x12115d0": 5883,
    "\u25810x408478": 5884,
    "volumelabe": 5885,
    "\u2581setvolumelabe": 5886,
    "b98": 5887,
    "d60": 5888,
    "drag": 5889,
    "lsid": 5890,
    "\u25810x41f7": 5891,
    "\u25810x45f4": 5892,
    "565": 5893,
    "\u25810x4310": 5894,
    "\u25810x120e690": 5895,
    "\u25810x120e698": 5896,
    "\u2581setdrag": 5897,
    "cursorimage": 5898,
    "\u2581getclassinfoa": 5899,
    "\u2581setdragcursorimage": 5900,
    "\u25810x417b50": 5901,
    "321": 5902,
    "ateto": 5903,
    "\u25810x1211c40": 5904,
    "\u2581getmessagew": 5905,
    "396": 5906,
    "bd8": 5907,
    "\u2581duplicateto": 5908,
    "leasecon": 5909,
    "lease": 5910,
    "\u25810x422798": 5911,
    "\u25810x423890": 5912,
    "\u25810x4238c0": 5913,
    "\u25810x1211900": 5914,
    "releasecon": 5915,
    "releasecontext": 5916,
    "294": 5917,
    "\u25810x4dd": 5918,
    "entrypoint": 5919,
    "\u2581theprocedureentrypoint": 5920,
    "e0c": 5921,
    "\u25810xa16": 5922,
    "\u25810x566a40": 5923,
    "dace": 5924,
    "\u25810x7e00": 5925,
    "\u25810x439880": 5926,
    "\u25810x1211ecc": 5927,
    "bed": 5928,
    "\u2581createprocessasuserw": 5929,
    "\u25810x1019": 5930,
    "textout": 5931,
    "\u2581oleinitialize": 5932,
    "aa8": 5933,
    "deleteatom": 5934,
    "\u25810x1211ee8": 5935,
    "\u2581globaldeleteatom": 5936,
    "938": 5937,
    "\u2581getsystemtimes": 5938,
    "acl": 5939,
    "f85": 5940,
    "\u25810x7ff": 5941,
    "\u2581202203040": 5942,
    "31c": 5943,
    "71c": 5944,
    "\u2581logon": 5945,
    "d48": 5946,
    "\u25810x41c044": 5947,
    "\u25810x42c5d0": 5948,
    "exchange": 5949,
    "compareexchange": 5950,
    "\u2581interlockedcompareexchange": 5951,
    "\u2581getprivateprofilesectionname": 5952,
    "kenex": 5953,
    "\u25810x5658": 5954,
    "\u2581oleloadfrom": 5955,
    "\u2581regopenkeya": 5956,
    "\u2581duplicatetokenex": 5957,
    "\u2581oleloadfromstream": 5958,
    "\u2581initiate": 5959,
    "d5c": 5960,
    "systemsh": 5961,
    "\u2581setvolumelabelw": 5962,
    "\u2581initiatesystemsh": 5963,
    "sion": 5964,
    "screen": 5965,
    "\u25810x5c000": 5966,
    "ioco": 5967,
    "\u25810x208": 5968,
    "5c0": 5969,
    "nexw": 5970,
    "update": 5971,
    "\u2581getvolumeinformationa": 5972,
    "utdow": 5973,
    "\u25810x8ed0": 5974,
    "101": 5975,
    "7c5": 5976,
    "\u2581doyo": 5977,
    "utdownexw": 5978,
    "\u2581initiatesystemshutdownexw": 5979,
    "e58": 5980,
    "a99": 5981,
    "\u2581strcmp": 5982,
    "ah": 5983,
    "7d0": 5984,
    "e50": 5985,
    "lengthsid": 5986,
    "\u25810x120e6cc": 5987,
    "\u2581getlengthsid": 5988,
    "7e8": 5989,
    "\u2581globalrealloc": 5990,
    "\u25810x422c": 5991,
    "\u25810x4280": 5992,
    "\u25810x4a40": 5993,
    "\u25810x433660": 5994,
    "\u2581initializeacl": 5995,
    "\u2581writeprivateprofilesection": 5996,
    "960": 5997,
    "a98": 5998,
    "valuea": 5999,
    "\u2581createprocesswith": 6000,
    "\u2581getprivateprofilesectionw": 6001,
    "\u2581getprivateprofilesectionnamesw": 6002,
    "pys": 6003,
    "pysid": 6004,
    "\u2581copysid": 6005,
    "\u25810x42d4f0": 6006,
    "\u2581writeprivateprofilesectionw": 6007,
    "\u25810x42f318": 6008,
    "f78": 6009,
    "\u2581getace": 6010,
    "\u25810x181b70": 6011,
    "\u2581getsecuritydescriptordacl": 6012,
    "754": 6013,
    "unters": 6014,
    "iocounters": 6015,
    "\u2581getprocessiocounters": 6016,
    "\u2581addace": 6017,
    "\u2581getacl": 6018,
    "\u25810x438bd0": 6019,
    "\u2581getaclinformation": 6020,
    "\u2581164636": 6021,
    "logonw": 6022,
    "\u25810x4a80": 6023,
    "\u25810x4614d0": 6024,
    "\u2581createprocesswithlogonw": 6025,
    "\u2581logonuserw": 6026,
    "\u25810x4990": 6027,
    "fc0": 6028,
    "\u25810x3200a": 6029,
    "\u25810x56b868": 6030,
    "3a0": 6031,
    "\u258128": 6032,
    "\u25810x490": 6033,
    "\u25810x1210e78": 6034,
    "\u25810x1210e7c": 6035,
    "ecolor": 6036,
    "\u25810x80c": 6037,
    "\u25810x5199": 6038,
    "f17": 6039,
    "\u25810x42be20": 6040,
    "\u25810x80be": 6041,
    "\u25810x423e08": 6042,
    "\u2581globalfind": 6043,
    "a38": 6044,
    "ab5": 6045,
    "\u25812022": 6046,
    "146": 6047,
    "64c": 6048,
    "\u25810x4912": 6049,
    "menuw": 6050,
    "\u2581cryptreleasecontext": 6051,
    "d20": 6052,
    "\u25810x420a0f": 6053,
    "\u25810x420a10": 6054,
    "desktop": 6055,
    "\u25810x4828": 6056,
    "\u25810x416be0": 6057,
    "3bc": 6058,
    "\u25810x1211db8": 6059,
    "\u25810xc94": 6060,
    "\u25810x416c10": 6061,
    "\u2581getdiskfreespaceexa": 6062,
    "ad9": 6063,
    "f3f": 6064,
    "\u25810xa42a40": 6065,
    "\u25810x169bf74": 6066,
    "heme": 6067,
    "gedit": 6068,
    "\u25810x4160": 6069,
    "\u2581regedit": 6070,
    "7c8": 6071,
    "\u2581clsid": 6072,
    "\u25810x42a6": 6073,
    "ntsvc": 6074,
    "\u25810x2002": 6075,
    "\u25810x4f60": 6076,
    "\u2581mso": 6077,
    "\u2581lsass": 6078,
    "\u25810x45fe": 6079,
    "\u25810x425590": 6080,
    "\u25810x41b0": 6081,
    "\u25810x412f": 6082,
    "\u2581getsystemdefault": 6083,
    "\u25810x42ba58": 6084,
    "ocreate": 6085,
    "14c": 6086,
    "af0": 6087,
    "rss": 6088,
    "\u2581smss": 6089,
    "\u2581csrss": 6090,
    "\u25810x45f6": 6091,
    "\u2581wininit": 6092,
    "\u2581winlogon": 6093,
    "\u25810x1211fe0": 6094,
    "e80": 6095,
    "ecb": 6096,
    "\u2581uxt": 6097,
    "\u25810x455": 6098,
    "\u2581uxtheme": 6099,
    "\u25810x407": 6100,
    "\u2581formal": 6101,
    "\u25810xd8": 6102,
    "566": 6103,
    "\u25810xdd": 6104,
    "\u25810x45f5": 6105,
    "\u2581clsidfrom": 6106,
    "\u2581systemprocess": 6107,
    "\u25810x4c24": 6108,
    "7a0": 6109,
    "\u25810x150": 6110,
    "\u25810x4086": 6111,
    "\u25810x45f8": 6112,
    "\u25810x1211e54": 6113,
    "715": 6114,
    "\u25810x45f3": 6115,
    "a8c": 6116,
    "quired": 6117,
    "\u25810x45f7": 6118,
    "\u25810x45fa": 6119,
    "\u25810x68000": 6120,
    "\u25810x8190": 6121,
    "\u25810xffcb": 6122,
    "\u2581msvcr90": 6123,
    "\u25810x4fc": 6124,
    "bfc": 6125,
    "ef8": 6126,
    "\u2581sa": 6127,
    "1e4": 6128,
    "adc": 6129,
    "bf8": 6130,
    "\u2581pi": 6131,
    "d24": 6132,
    "\u258100": 6133,
    "\u25810x4232": 6134,
    "\u258124": 6135,
    "\u25810x41ba": 6136,
    "\u25810x4233": 6137,
    "\u25810x45f9": 6138,
    "\u25810x8f70": 6139,
    "1c0": 6140,
    "f58": 6141,
    "\u2581tw": 6142,
    "325": 6143,
    "\u25810x40ac": 6144,
    "\u25810x9640": 6145,
    "48c": 6146,
    "a0e": 6147,
    "\u25810x5000": 6148,
    "1b8": 6149,
    "345": 6150,
    "f16": 6151,
    "\u25810x42558f": 6152,
    "a64": 6153,
    "\u2581yo": 6154,
    "\u25810x5617": 6155,
    "\u2581164638": 6156,
    "3da": 6157,
    "\u25810x4184": 6158,
    "instal": 6159,
    "\u25810x45fd": 6160,
    "190": 6161,
    "\u25810x1860": 6162,
    "\u25810x4601": 6163,
    "\u25810x169bc5c": 6164,
    "ance": 6165,
    "10428": 6166,
    "\u25810x28800": 6167,
    "\u25810x9af0": 6168,
    "\u25810x44000": 6169,
    "\u25810x44180": 6170,
    "\u2581getsavefilenamew": 6171,
    "\u25810x45ff": 6172,
    "\u25810x71000000": 6173,
    "a69": 6174,
    "ce1": 6175,
    "\u2581sys": 6176,
    "\u2581required": 6177,
    "\u2581unlockservicedatabase": 6178,
    "\u2581tw10428": 6179,
    "\u25810xa4a0": 6180,
    "\u2581globalhandle": 6181,
    "pool": 6182,
    "\u25810x3f2": 6183,
    "\u25810x9d10": 6184,
    "\u25810x42efe8": 6185,
    "\u25810x4c42d0": 6186,
    "\u25810x4c4468": 6187,
    "\u2581lockservicedatabase": 6188,
    "\u2581e000": 6189,
    "\u25810x4c46a0": 6190,
    "80004005": 6191,
    "\u2581error0x80004005": 6192,
    "af8": 6193,
    "\u25810x4134": 6194,
    "ail": 6195,
    "fdd": 6196,
    "d2c": 6197,
    "\u25810x403": 6198,
    "\u25810x2439f74": 6199,
    "c01": 6200,
    "a50": 6201,
    "\u25810x40e7": 6202,
    "\u25810xfff3": 6203,
    "printer": 6204,
    "\u25810xfff2": 6205,
    "oi": 6206,
    "df8": 6207,
    "\u25810x4efd98": 6208,
    "305": 6209,
    "\u25810x41ebf": 6210,
    "\u2581lstrcata": 6211,
    "bbc": 6212,
    "\u25810x9ad0": 6213,
    "\u25810x4305c8": 6214,
    "\u25810x4305e0": 6215,
    "\u25810x440": 6216,
    "seek": 6217,
    "\u25810x22e": 6218,
    "\u25810x8de0": 6219,
    "\u2581onexit": 6220,
    "\u25810x1210f7": 6221,
    "\u25810x40a0": 6222,
    "\u25810x41ab": 6223,
    "\u25810x8f40": 6224,
    "\u25810x9a70": 6225,
    "\u25810x42d8a2": 6226,
    "\u25810x42d8ab": 6227,
    "\u25810x42d8b4": 6228,
    "\u25810x42d8bd": 6229,
    "f50": 6230,
    "a32": 6231,
    "a78": 6232,
    "f90": 6233,
    "\u25810x521": 6234,
    "\u25810x427": 6235,
    "\u25810x42b964": 6236,
    "158": 6237,
    "ab9": 6238,
    "ser": 6239,
    "\u25810xbe": 6240,
    "transform": 6241,
    "\u25810x9c30": 6242,
    "\u25810x3f2210": 6243,
    "a87": 6244,
    "a94": 6245,
    "fromlog": 6246,
    "\u2581164635": 6247,
    "9e0": 6248,
    "\u2581getadaptersinfo": 6249,
    "a86": 6250,
    "\u25810x430598": 6251,
    "10e": 6252,
    "20c": 6253,
    "9f8": 6254,
    "\u25810x42ebc0": 6255,
    "\u25810xa3a7b0": 6256,
    "\u2581shgetfile": 6257,
    "mb": 6258,
    "d38": 6259,
    "dee": 6260,
    "\u25810x4179c": 6261,
    "lser": 6262,
    "\u25810x51b": 6263,
    "colorspac": 6264,
    "\u25810x120fb30": 6265,
    "\u25810x169bf94": 6266,
    "690": 6267,
    "dc8": 6268,
    "\u25810xa42980": 6269,
    "\u25810xfeee019": 6270,
    "emyarg1myarg2": 6271,
    "\u2581exemyarg1myarg2": 6272,
    "ecolortransform": 6273,
    "\u25810x84b": 6274,
    "\u25810x1211c00": 6275,
    "fb8": 6276,
    "\u2581atoi": 6277,
    "6c5": 6278,
    "\u2581createcolortransform": 6279,
    "sions": 6280,
    "\u2581filen": 6281,
    "130": 6282,
    "ord": 6283,
    "\u25810xa3a768": 6284,
    "colorspacew": 6285,
    "\u2581checkcolor": 6286,
    "profilefromlog": 6287,
    "\u2581createprofilefromlog": 6288,
    "\u2581createcolortransformw": 6289,
    "\u2581createprofilefromlogcolorspacew": 6290,
    "\u25810xa210": 6291,
    "\u258118": 6292,
    "amut": 6293,
    "singamut": 6294,
    "\u25810x423326": 6295,
    "\u25810x423327": 6296,
    "devicelink": 6297,
    "devicelinkprofile": 6298,
    "\u2581checkcolorsingamut": 6299,
    "\u2581createdevicelinkprofile": 6300,
    "7ac": 6301,
    "ae4": 6302,
    "b55": 6303,
    "\u2581reset": 6304,
    "\u25810x46b400": 6305,
    "3cc": 6306,
    "fd4": 6307,
    "\u2581dl": 6308,
    "\u25810x6ba": 6309,
    "\u25810x4199": 6310,
    "\u25810x4240": 6311,
    "\u25810x70000": 6312,
    "processid": 6313,
    "threadprocessid": 6314,
    "\u2581getwindowthreadprocessid": 6315,
    "\u25810x4650": 6316,
    "354": 6317,
    "3d6": 6318,
    "7f4": 6319,
    "974": 6320,
    "a65": 6321,
    "fa4": 6322,
    "su": 6323,
    "790": 6324,
    "\u25810x43a4": 6325,
    "\u25810x42990": 6326,
    "\u25810x42759f": 6327,
    "\u25810x4275a0": 6328,
    "utton": 6329,
    "\u25810xb2": 6330,
    "textoutw": 6331,
    "374": 6332,
    "bec": 6333,
    "\u2581xh": 6334,
    "\u25810x40b4": 6335,
    "lientrect": 6336,
    "\u2581getclientrect": 6337,
    "\u25810x423d90": 6338,
    "\u25810x423dc0": 6339,
    "d90": 6340,
    "\u25810x80c458": 6341,
    "\u25810xfeee00f3": 6342,
    "\u2581qt5": 6343,
    "\u25810xfeee00f2": 6344,
    "\u25810x3020": 6345,
    "\u25810x40d8": 6346,
    "148": 6347,
    "a66": 6348,
    "croll": 6349,
    "\u25810x46b": 6350,
    "\u25810x5f6": 6351,
    "346": 6352,
    "be0": 6353,
    "atoma": 6354,
    "\u25810x50e10": 6355,
    "inet": 6356,
    "270": 6357,
    "d10": 6358,
    "9c24": 6359,
    "\u2581loaderstart": 6360,
    "\u25810x9730": 6361,
    "\u25810x42bdc8": 6362,
    "\u25810x42bdf8": 6363,
    "otfound": 6364,
    "\u25810x5f3": 6365,
    "\u25810x1211f50": 6366,
    "a7c": 6367,
    "\u25810x4ff": 6368,
    "\u25810x60c690": 6369,
    "\u25810xb7": 6370,
    "\u25810x431828": 6371,
    "\u2581formatmessagea": 6372,
    "317": 6373,
    "920": 6374,
    "\u2581filenotfound": 6375,
    "\u25810x435000": 6376,
    "lags": 6377,
    "\u25810x1211d30": 6378,
    "605": 6379,
    "647": 6380,
    "a02": 6381,
    "\u25810x427f": 6382,
    "ce6": 6383,
    "dd6": 6384,
    "\u25810x52668": 6385,
    "eb8": 6386,
    "645": 6387,
    "\u25810x9c80": 6388,
    "\u25810x411555": 6389,
    "\u25810x411556": 6390,
    "\u2581wininet": 6391,
    "mapi": 6392,
    "\u25810x433860": 6393,
    "lu": 6394,
    "ded": 6395,
    "vie": 6396,
    "\u25810xffd4": 6397,
    "e4f": 6398,
    "7978": 6399,
    "58c": 6400,
    "\u25810xf000": 6401,
    "\u25810x4606": 6402,
    "\u25810x9850": 6403,
    "69e": 6404,
    "\u25810x4139": 6405,
    "\u25810x120fe": 6406,
    "\u2581security": 6407,
    "iserror": 6408,
    "\u25810x4c97": 6409,
    "950": 6410,
    "d05": 6411,
    "sto": 6412,
    "only": 6413,
    "\u25810x40300": 6414,
    "pre": 6415,
    "\u25810x99c0": 6416,
    "2c4": 6417,
    "\u2581setcurrentdirectorya": 6418,
    "drl6660drl6660drl6660drl6660drl6660drl6660drl6660drl6660": 6419,
    "397": 6420,
    "\u25810x464": 6421,
    "fy": 6422,
    "ad5": 6423,
    "ec9": 6424,
    "\u25810x534": 6425,
    "ange": 6426,
    "\u25810x1211ce0": 6427,
    "d70": 6428,
    "\u2581atex": 6429,
    "\u2581atexit": 6430,
    "\u2581dwmapi": 6431,
    "ctype": 6432,
    "au": 6433,
    "a74": 6434,
    "\u25810x500000": 6435,
    "\u25810x1808": 6436,
    "\u25810x4079": 6437,
    "\u2581cryptbase": 6438,
    "334": 6439,
    "910": 6440,
    "d78": 6441,
    "\u25810x454": 6442,
    "a24": 6443,
    "2c6": 6444,
    "\u2581qt5core": 6445,
    "d9f": 6446,
    "\u258126": 6447,
    "35c": 6448,
    "\u25810xffd1": 6449,
    "\u25810x11dbe": 6450,
    "\u2581strlen": 6451,
    "\u25810x4316": 6452,
    "\u25810x9600": 6453,
    "\u2581ps": 6454,
    "leexw": 6455,
    "\u25810xffc8": 6456,
    "3e4": 6457,
    "a60": 6458,
    "\u25810x4020": 6459,
    "acd": 6460,
    "bc6": 6461,
    "\u2581getmodulehandleexw": 6462,
    "\u25810x434280": 6463,
    "\u25810x4363c0": 6464,
    "77c": 6465,
    "lorer": 6466,
    "\u25810x433378": 6467,
    "\u25810x434268": 6468,
    "\u25810x1211b74": 6469,
    "\u2581dispatchmessagew": 6470,
    "150": 6471,
    "\u25810x423baf": 6472,
    "\u25810x423bb0": 6473,
    "202e": 6474,
    "\u25810x41cbd0": 6475,
    "b2c": 6476,
    "f98": 6477,
    "\u25810xa6b0": 6478,
    "c8e": 6479,
    "\u2581userenv": 6480,
    "\u2581ext": 6481,
    "\u25810x4df": 6482,
    "\u25810x40b7": 6483,
    "005": 6484,
    "314": 6485,
    "active": 6486,
    "\u25810x4093e8": 6487,
    "351": 6488,
    "\u25810x4093e5": 6489,
    "\u25810x4093e6": 6490,
    "\u25810x4093e7": 6491,
    "f38": 6492,
    "ects": 6493,
    "3d4": 6494,
    "\u25810x560": 6495,
    "33a": 6496,
    "\u2581si": 6497,
    "parent": 6498,
    "\u25810x42b6": 6499,
    "\u25810x616": 6500,
    "3ac": 6501,
    "\u25810x427000": 6502,
    "\u25810x423de0": 6503,
    "bd7": 6504,
    "db8": 6505,
    "\u2581lp": 6506,
    "\u25810x468": 6507,
    "\u2581psapi": 6508,
    "handler": 6509,
    "\u25810xff86": 6510,
    "\u25810x41a044": 6511,
    "3a5": 6512,
    "6d8": 6513,
    "\u25810x599": 6514,
    "\u25810x1211b50": 6515,
    "atalog": 6516,
    "\u25810x1a0": 6517,
    "\u25810x409c": 6518,
    "\u25810x5218": 6519,
    "580": 6520,
    "50000": 6521,
    "fic": 6522,
    "\u2581stor": 6523,
    "\u25810x4cf0": 6524,
    "\u2581qae": 6525,
    "a68": 6526,
    "\u2581ldr": 6527,
    "\u2581storage": 6528,
    "2e8": 6529,
    "dd7": 6530,
    "\u2581connector": 6531,
    "\u25810x4170d4": 6532,
    "\u25810x4170d5": 6533,
    "\u25810x4feaac": 6534,
    "71f": 6535,
    "7d8": 6536,
    "\u25810x41b8": 6537,
    "\u25810x4364": 6538,
    "\u25810x40a3e": 6539,
    "\u25810x42c0a4": 6540,
    "\u2581isvalidlocale": 6541,
    "7dc": 6542,
    "\u25810xa260": 6543,
    "df0": 6544,
    "\u25810x134": 6545,
    "\u2581tow": 6546,
    "\u25810x42f1": 6547,
    "\u25810x40000": 6548,
    "\u2581164639": 6549,
    "\u2581download": 6550,
    "\u25810x1211b54": 6551,
    "a89": 6552,
    "15c": 6553,
    "\u25810x9a60": 6554,
    "\u25810x41e1d8": 6555,
    "\u2581cocreate": 6556,
    "\u25810x8490": 6557,
    "\u2581oleacc": 6558,
    "\u25810x940000": 6559,
    "e69": 6560,
    "cem": 6561,
    "internet": 6562,
    "\u25810x52669": 6563,
    "\u25810x422470": 6564,
    "\u25810x4d7978": 6565,
    "bc9": 6566,
    "will": 6567,
    "122": 6568,
    "1740": 6569,
    "\u25810xff69": 6570,
    "viewextex": 6571,
    "bdc": 6572,
    "\u2581globalflags": 6573,
    "ameters": 6574,
    "\u25810x56bb": 6575,
    "rn": 6576,
    "df5": 6577,
    "\u2581el": 6578,
    "\u25810x40b": 6579,
    "\u25810x188e4c": 6580,
    "\u25810x422788": 6581,
    "\u25810xb1": 6582,
    "edia": 6583,
    "\u25810x4259": 6584,
    "315": 6585,
    "741": 6586,
    "e100": 6587,
    "atalogs": 6588,
    "\u25810x4ddb24": 6589,
    "ta": 6590,
    "7d5": 6591,
    "\u25812d": 6592,
    "\u25810x66000": 6593,
    "\u25810x414168": 6594,
    "e00": 6595,
    "ef4": 6596,
    "rnl": 6597,
    "upp": 6598,
    "\u25810x450": 6599,
    "\u25810x500410": 6600,
    "311": 6601,
    "695": 6602,
    "bd6": 6603,
    "\u258114": 6604,
    "\u2581runonce": 6605,
    "\u25810x1211370": 6606,
    "\u25810xd4": 6607,
    "romedia": 6608,
    "\u25810x42aa": 6609,
    "\u25810x461518": 6610,
    "\u2581cl": 6611,
    "\u25810x10e": 6612,
    "\u25810x40f1": 6613,
    "vieworgex": 6614,
    "\u25810xffca": 6615,
    "\u25810x43d3d8": 6616,
    "\u2581micromedia": 6617,
    "\u25810x4093e9": 6618,
    "\u25810x4093ea": 6619,
    "\u25810x4093eb": 6620,
    "\u25810x414138": 6621,
    "b46": 6622,
    "9f0": 6623,
    "\u25810xb6": 6624,
    "osk": 6625,
    "oskrnl": 6626,
    "\u25810x4c33": 6627,
    "\u25810x423d78": 6628,
    "\u25810x423e38": 6629,
    "\u2581ntoskrnl": 6630,
    "\u25810x1211e80": 6631,
    "\u2581ns": 6632,
    "bd5": 6633,
    "f24": 6634,
    "312": 6635,
    "\u25810x131": 6636,
    "\u25810x94f0": 6637,
    "\u25810x74000": 6638,
    "3d2": 6639,
    "\u2581commandline": 6640,
    "\u2581getfileattributesa": 6641,
    "\u2581scouldnotbelocatedinthedll": 6642,
    "a06": 6643,
    "\u25810x53b5": 6644,
    "\u25810x4c32d8": 6645,
    "\u25810x4c32f0": 6646,
    "dd8": 6647,
    "\u2581loadbitmap": 6648,
    "a43": 6649,
    "d58": 6650,
    "\u2581ag": 6651,
    "fr": 6652,
    "argvw": 6653,
    "toargvw": 6654,
    "\u25810x414c": 6655,
    "\u2581commandlinetoargvw": 6656,
    "qa": 6657,
    "22c": 6658,
    "\u25810x599b5c": 6659,
    "\u25810x599c24": 6660,
    "\u25810x59bf3c": 6661,
    "\u25810x59bf7c": 6662,
    "\u25810x59c120": 6663,
    "\u25810x59c138": 6664,
    "dfc": 6665,
    "\u25810xfeee00cc": 6666,
    "a30": 6667,
    "lay": 6668,
    "\u25810x7920": 6669,
    "\u25810x8000000": 6670,
    "94c": 6671,
    "\u25810xfeee00cd": 6672,
    "da8": 6673,
    "e49": 6674,
    "\u25810x4ffffc": 6675,
    "\u25810x1211d44": 6676,
    "\u25810x4040": 6677,
    "\u25810xfeee00ce": 6678,
    "375": 6679,
    "button": 6680,
    "\u25810x4127": 6681,
    "\u25810xfeee00cf": 6682,
    "61c": 6683,
    "\u2581setscroll": 6684,
    "\u25810x5937": 6685,
    "\u25810xa010": 6686,
    "\u25810xa9a0": 6687,
    "\u25810x429818": 6688,
    "\u25810x5617a8": 6689,
    "\u25810x40935d": 6690,
    "\u25810x40935e": 6691,
    "\u25810x40935f": 6692,
    "\u25810x409360": 6693,
    "\u25810x409361": 6694,
    "\u25810x409362": 6695,
    "\u25810x409363": 6696,
    "355": 6697,
    "7ce": 6698,
    "\u25810xffed": 6699,
    "\u25810x1211ebc": 6700,
    "\u25810x45fb": 6701,
    "\u2581charpre": 6702,
    "\u2581task": 6703,
    "\u25810x4ac": 6704,
    "7e9": 6705,
    "vip": 6706,
    "\u25810x16000": 6707,
    "\u2581prvip": 6708,
    "392": 6709,
    "\u25810x180": 6710,
    "\u25810x402": 6711,
    "\u2581nsiserror": 6712,
    "\u25810xfeee00f0": 6713,
    "\u2581mys": 6714,
    "\u25810x1bf9": 6715,
    "\u25810xfeee00d7": 6716,
    "7ea": 6717,
    "bc5": 6718,
    "\u2581oc": 6719,
    "\u25810x42fc68": 6720,
    "68b": 6721,
    "9d0": 6722,
    "\u25810x170": 6723,
    "\u25810xfeee00f5": 6724,
    "f96": 6725,
    "\u25810x8838": 6726,
    "745": 6727,
    "\u25810xdc": 6728,
    "\u25810x4c0": 6729,
    "\u25810x7dc4": 6730,
    "1a0": 6731,
    "\u2581cocreateinst": 6732,
    "\u25810x518": 6733,
    "\u25810xffc9": 6734,
    "502": 6735,
    "cement": 6736,
    "placement": 6737,
    "\u25810x423d68": 6738,
    "\u25810x438378": 6739,
    "\u25810x598740": 6740,
    "\u2581getwindowrect": 6741,
    "\u25810x423e28": 6742,
    "\u25810x4219": 6743,
    "\u25810x40a7": 6744,
    "\u25810x7dd9": 6745,
    "\u25810x8839": 6746,
    "72c": 6747,
    "\u25810x409aa4": 6748,
    "a85": 6749,
    "\u25810xa420": 6750,
    "\u25810x409aa5": 6751,
    "\u25810x4350c8": 6752,
    "2f5": 6753,
    "\u25810x1210e80": 6754,
    "ee9": 6755,
    "\u2581taskbar": 6756,
    "\u25810x7dd0": 6757,
    "\u25810x41aa": 6758,
    "\u25810x4c10": 6759,
    "\u25810x7dc5": 6760,
    "3b6": 6761,
    "main": 6762,
    "\u25810x44c2": 6763,
    "\u25810x419ce0": 6764,
    "be4": 6765,
    "\u25810x467": 6766,
    "\u25810x26000": 6767,
    "\u25810x432378": 6768,
    "\u2581ea": 6769,
    "307": 6770,
    "fad": 6771,
    "pass": 6772,
    "\u2581scal": 6773,
    "3b2": 6774,
    "9b4": 6775,
    "e2c": 6776,
    "\u25810x9940": 6777,
    "760": 6778,
    "7a7": 6779,
    "keya": 6780,
    "\u2581scale": 6781,
    "\u25810x42ea": 6782,
    "\u25810x4353c0": 6783,
    "f3c": 6784,
    "\u25810x4012": 6785,
    "\u25810x53e498": 6786,
    "932": 6787,
    "\u25810x41cc54": 6788,
    "\u25810x120f8a6": 6789,
    "9d8": 6790,
    "seekto": 6791,
    "\u25810x433268": 6792,
    "\u25810x433280": 6793,
    "\u25810x1211ed8": 6794,
    "\u25810x3200a48": 6795,
    "\u2581failedtoseekto": 6796,
    "198": 6797,
    "bf4": 6798,
    "dimen": 6799,
    "\u25810x569b48": 6800,
    "\u25810x169bf28": 6801,
    "a34": 6802,
    "qld": 6803,
    "dimensions": 6804,
    "\u2581regsetvalueexa": 6805,
    "ab6": 6806,
    "b0000": 6807,
    "\u2581mysqld": 6808,
    "\u2581agntsvc": 6809,
    "startoffile": 6810,
    "\u2581failedtoseektostartoffile": 6811,
    "2d8": 6812,
    "365": 6813,
    "940": 6814,
    "parameters": 6815,
    "1a4": 6816,
    "\u25810x2200": 6817,
    "tag": 6818,
    "b888": 6819,
    "\u25810x4335": 6820,
    "inmodule": 6821,
    "765": 6822,
    "970": 6823,
    "\u25810x430828": 6824,
    "\u25810x7dd": 6825,
    "9c4": 6826,
    "fae": 6827,
    "\u2581failedtoinitializeenginesection": 6828,
    "\u25810x524a40": 6829,
    "withtag": 6830,
    "\u25810x5266c": 6831,
    "\u25810x411bc0": 6832,
    "\u25810x4208e0": 6833,
    "poolwithtag": 6834,
    "\u25810xfeee00d5": 6835,
    "\u2581exallocate": 6836,
    "\u2581exallocatepoolwithtag": 6837,
    "2c0": 6838,
    "b7c": 6839,
    "\u25810x428e": 6840,
    "\u2581expand": 6841,
    "\u25810xfeee00d6": 6842,
    "rap": 6843,
    "\u2581my": 6844,
    "\u2581202203031": 6845,
    "709": 6846,
    "7c0": 6847,
    "\u2581wm": 6848,
    "\u25810x4604": 6849,
    "\u2581failedtoinitializeenginestate": 6850,
    "fa2": 6851,
    "\u25810xe4": 6852,
    "\u25810x4060": 6853,
    "3de": 6854,
    "dlgi": 6855,
    "dlgitem": 6856,
    "\u2581please": 6857,
    "1b0": 6858,
    "30c": 6859,
    "\u25810xde": 6860,
    "fox": 6861,
    "\u2581ndr": 6862,
    "\u25810x1b0": 6863,
    "\u25810x401324": 6864,
    "\u25810x424470": 6865,
    "\u2581systemparameters": 6866,
    "a9b": 6867,
    "d34": 6868,
    "cc5": 6869,
    "\u2581af": 6870,
    "\u2581ndrd": 6871,
    "d46": 6872,
    "aget": 6873,
    "\u25810x169ba04": 6874,
    "\u25810x9290": 6875,
    "\u25810x1210e84": 6876,
    "chi": 6877,
    "\u25810x7df9": 6878,
    "\u25810x39569": 6879,
    "\u2581lstrcmpia": 6880,
    "296": 6881,
    "b3c": 6882,
    "era": 6883,
    "\u25810x4217": 6884,
    "\u25810x431f68": 6885,
    "fed": 6886,
    "\u25810x7df8": 6887,
    "2e0": 6888,
    "5e8": 6889,
    "b6c": 6890,
    "\u25810x4605": 6891,
    "\u25810x41688a": 6892,
    "\u25810x41688b": 6893,
    "\u25810x4208df": 6894,
    "\u25810x169bc04": 6895,
    "\u25810x169bd04": 6896,
    "\u25810x413f": 6897,
    "\u25810x7eaba8": 6898,
    "\u25813a5": 6899,
    "1c6": 6900,
    "\u25810x41d2": 6901,
    "\u25810x4324": 6902,
    "727": 6903,
    "\u25810x419cb0": 6904,
    "a76": 6905,
    "b96": 6906,
    "ed8": 6907,
    "\u25810xfeee00d8": 6908,
    "bf1": 6909,
    "ere": 6910,
    "\u25810x4540": 6911,
    "\u25810x416b2": 6912,
    "\u25810x416c0": 6913,
    "\u25810x416242": 6914,
    "\u25810x416243": 6915,
    "\u25810x42a0a0": 6916,
    "f45": 6917,
    "\u25810x2010": 6918,
    "\u25810x1211e38": 6919,
    "111": 6920,
    "\u2581mta": 6921,
    "\u25810x4175": 6922,
    "\u25810xfeee00d9": 6923,
    "998": 6924,
    "a5b": 6925,
    "\u25810x4258": 6926,
    "\u25810xfeee00d0": 6927,
    "115": 6928,
    "\u2581ldrget": 6929,
    "procedureaddress": 6930,
    "\u2581ldrgetprocedureaddress": 6931,
    "agetime": 6932,
    "\u2581command": 6933,
    "\u25810xfeee00d1": 6934,
    "746": 6935,
    "\u2581opena": 6936,
    "\u25810x7eec": 6937,
    "\u25810xfeee00d2": 6938,
    "toc": 6939,
    "\u25810x2200220": 6940,
    "fdc": 6941,
    "\u25810x7dc9": 6942,
    "\u25810xa427": 6943,
    "121": 6944,
    "bac": 6945,
    "controlset": 6946,
    "\u2581currentcontrolset": 6947,
    "70656": 6948,
    "\u25810x4700": 6949,
    "\u25810xffe8": 6950,
    "\u25810x40a58c": 6951,
    "\u25810xfeee00da": 6952,
    "2d0": 6953,
    "a0d": 6954,
    "a9a": 6955,
    "20224": 6956,
    "64656c": 6957,
    "1740d0a": 6958,
    "\u25813a5265": 6959,
    "2022433a": 6960,
    "\u25810x200020": 6961,
    "\u25810xfeee00d3": 6962,
    "706561740d0a": 6963,
    "64656c2022433a": 6964,
    "\u25813a5265706561740d0a": 6965,
    "\u25813a5265706561740d0a64656c2022433a": 6966,
    "\u25810x64000": 6967,
    "\u2581cryptacquirecontexta": 6968,
    "\u25810x47ee": 6969,
    "\u25810x3f2420": 6970,
    "\u25810x40a57c": 6971,
    "f35": 6972,
    "\u25810x522": 6973,
    "\u2581getfocus": 6974,
    "\u25810xfeee00d4": 6975,
    "\u25812020": 6976,
    "\u25810x4718": 6977,
    "\u25810x7f8003": 6978,
    "\u25810x7f8004": 6979,
    "\u25810x7f8005": 6980,
    "\u25810x7f8006": 6981,
    "\u25810x7f8007": 6982,
    "\u25810x7f8008": 6983,
    "\u25810x7f8009": 6984,
    "\u25810x7f800a": 6985,
    "\u25810x7f800b": 6986,
    "\u25810x7f800c": 6987,
    "\u25810x7f800d": 6988,
    "\u2581getscroll": 6989,
    "3ad": 6990,
    "\u25810x7eed": 6991,
    "d32": 6992,
    "\u25810xcccc": 6993,
    "117": 6994,
    "705": 6995,
    "\u25810x7f800e": 6996,
    "3dc": 6997,
    "ec6": 6998,
    "\u25810x43f6": 6999,
    "\u25810x5676": 7000,
    "\u25810x1211f68": 7001,
    "\u2581db": 7002,
    "a49": 7003,
    "\u25810x2b4": 7004,
    "\u25810x4ec": 7005,
    "\u25810x7f800f": 7006,
    "\u25810x7f4": 7007,
    "1c4": 7008,
    "f69": 7009,
    "\u25810x42b4": 7010,
    "\u25810x41cba4": 7011,
    "\u2581getcapture": 7012,
    "\u25810x4011": 7013,
    "\u2581environ": 7014,
    "\u2581shgetspecialfolder": 7015,
    "546": 7016,
    "\u2581print": 7017,
    "\u2581dlldll": 7018,
    "\u2581cp": 7019,
    "796": 7020,
    "\u2581can": 7021,
    "2e5": 7022,
    "37c": 7023,
    "3b4": 7024,
    "fa0": 7025,
    "\u25810x4354": 7026,
    "\u2581instal": 7027,
    "\u25810x1211b08": 7028,
    "db5": 7029,
    "ed0": 7030,
    "nd": 7031,
    "\u25810x4176": 7032,
    "\u25810x1211dbc": 7033,
    "\u2581oa": 7034,
    "\u25810x7dcc": 7035,
    "\u25810x1210cf0": 7036,
    "b66": 7037,
    "\u25810x41d0": 7038,
    "75c8": 7039,
    "\u25810x169b9c0": 7040,
    "ethe": 7041,
    "\u25810x7dd4": 7042,
    "\u25810x1211bf4": 7043,
    "\u2581globaladdatomw": 7044,
    "33c4": 7045,
    "\u25810x12117ec": 7046,
    "\u25810xfeee00db": 7047,
    "times": 7048,
    "\u25810x7dd8": 7049,
    "181": 7050,
    "f2c": 7051,
    "\u25810xa41": 7052,
    "\u25810x1211cf4": 7053,
    "9a8": 7054,
    "\u25810x44b7": 7055,
    "\u25810x7dd1": 7056,
    "7c7": 7057,
    "\u258108": 7058,
    "ready": 7059,
    "\u25810x7e30": 7060,
    "\u25810x58de50": 7061,
    "exist": 7062,
    "codeptr": 7063,
    "\u25810x7dcd": 7064,
    "\u25810x1211cb8": 7065,
    "\u2581isbadcodeptr": 7066,
    "aec": 7067,
    "\u25810x7ddc": 7068,
    "\u25810x7ac0": 7069,
    "916": 7070,
    "e74": 7071,
    "\u25810x4d5": 7072,
    "\u25810x1211438": 7073,
    "\u25810x1211e4c": 7074,
    "\u2581ab": 7075,
    "ache": 7076,
    "\u2581back": 7077,
    "\u25810x120e6dc": 7078,
    "16c": 7079,
    "\u25810x422778": 7080,
    "\u2581globalfindatomw": 7081,
    "128": 7082,
    "ad6": 7083,
    "\u25810x48ec": 7084,
    "\u25810x7dd5": 7085,
    "19e": 7086,
    "844": 7087,
    "9bc": 7088,
    "a56": 7089,
    "\u25810x4298a8": 7090,
    "\u25810x4298d8": 7091,
    "\u25810x4f6200": 7092,
    "7ec": 7093,
    "b33": 7094,
    "\u2581youm": 7095,
    "\u2581isctype": 7096,
    "24c": 7097,
    "b1e": 7098,
    "\u25810x80000": 7099,
    "395": 7100,
    "fcc": 7101,
    "\u2581off": 7102,
    "check": 7103,
    "\u25810x7ddd": 7104,
    "sd": 7105,
    "225": 7106,
    "2b8": 7107,
    "\u25810xe9": 7108,
    "79c": 7109,
    "\u2581164637": 7110,
    "\u2581offset": 7111,
    "\u25810x427f70": 7112,
    "\u25810x1211fb4": 7113,
    "20202e": 7114,
    "\u25810x426f": 7115,
    "\u25810x42900": 7116,
    "ae2": 7117,
    "da0": 7118,
    "messagepos": 7119,
    "\u2581getmessagepos": 7120,
    "f34": 7121,
    "\u25810xff92": 7122,
    "\u25810x169bec8": 7123,
    "385": 7124,
    "b74": 7125,
    "mar": 7126,
    "conso": 7127,
    "\u25810x4608": 7128,
    "\u2581getdlgitem": 7129,
    "119": 7130,
    "b39": 7131,
    "\u25810x4dc": 7132,
    "\u25810x8554": 7133,
    "185": 7134,
    "3c5": 7135,
    "a39": 7136,
    "d49": 7137,
    "dd0": 7138,
    "ster": 7139,
    "\u25810x3010": 7140,
    "\u25810x4190": 7141,
    "134": 7142,
    "f10": 7143,
    "\u25810x40d9": 7144,
    "\u25810x43b4": 7145,
    "ed1": 7146,
    "\u25810xf4": 7147,
    "\u2581getconsolewindow": 7148,
    "7f8": 7149,
    "\u25810xa3a0": 7150,
    "frompoint": 7151,
    "\u25810x169bf04": 7152,
    "15f": 7153,
    "520": 7154,
    "\u258104": 7155,
    "\u25810x600": 7156,
    "332": 7157,
    "\u25810x1211f0c": 7158,
    "250": 7159,
    "\u25813d": 7160,
    "\u25810x41ac": 7161,
    "\u25810x169bf2c": 7162,
    "\u25810x1211e0c": 7163,
    "\u258134": 7164,
    "che": 7165,
    "\u25810xb9": 7166,
    "\u2581enablewindow": 7167,
    "\u2581getmessagetime": 7168,
    "485": 7169,
    "dff": 7170,
    "e55": 7171,
    "laun": 7172,
    "\u25810x1b5": 7173,
    "\u25810x502dc": 7174,
    "\u25810x400108": 7175,
    "\u2581getwindowdc": 7176,
    "919": 7177,
    "3d28": 7178,
    "points": 7179,
    "\u25810x40eeca": 7180,
    "\u25810x40eecb": 7181,
    "\u25810x417da0": 7182,
    "\u2581towlower": 7183,
    "\u25810x1211584": 7184,
    "\u25810xfeee00dc": 7185,
    "266": 7186,
    "755": 7187,
    "bas": 7188,
    "\u25810x420f2": 7189,
    "\u25810x42b0a0": 7190,
    "295": 7191,
    "\u25810x4366": 7192,
    "launch": 7193,
    "\u25810xffdf": 7194,
    "\u25810x417d9f": 7195,
    "\u25810x42390": 7196,
    "2fc": 7197,
    "a55": 7198,
    "install": 7199,
    "fa6": 7200,
    "\u25810x40ef1b": 7201,
    "this": 7202,
    "\u25810x740": 7203,
    "fd9": 7204,
    "\u25810x2357b": 7205,
    "\u25810x4378b0": 7206,
    "145": 7207,
    "795": 7208,
    "a3c": 7209,
    "\u25810x40ef1a": 7210,
    "\u25810xfeee00dd": 7211,
    "f95": 7212,
    "\u25810x478": 7213,
    "7cc": 7214,
    "\u25810xa710": 7215,
    "600": 7216,
    "f71": 7217,
    "\u25810x7e4": 7218,
    "\u2581your": 7219,
    "\u25810xfeee00de": 7220,
    "723": 7221,
    "a46": 7222,
    "f55": 7223,
    "\u2581qa": 7224,
    "mark": 7225,
    "\u25810x41e9": 7226,
    "\u25810x6940": 7227,
    "f05": 7228,
    "3a20": 7229,
    "\u25810x4b7": 7230,
    "\u25810x58c034": 7231,
    "\u25810x1211888": 7232,
    "543": 7233,
    "run": 7234,
    "fc42": 7235,
    "\u25810x4218": 7236,
    "245": 7237,
    "ce5": 7238,
    "\u25810x115": 7239,
    "\u2581regqueryvalueexa": 7240,
    "606": 7241,
    "cod": 7242,
    "\u25810x40b0": 7243,
    "\u25810x4c30": 7244,
    "767": 7245,
    "\u25810xbf": 7246,
    "\u25810xfffffffe": 7247,
    "b16": 7248,
    "been": 7249,
    "\u2581lib": 7250,
    "\u25810x40e5": 7251,
    "235": 7252,
    "686": 7253,
    "\u25810x504": 7254,
    "\u25810x4602": 7255,
    "\u25810x88d0": 7256,
    "\u2581ri": 7257,
    "checkmark": 7258,
    "\u2581getmenucheckmark": 7259,
    "\u2581getmenucheckmarkdimensions": 7260,
    "\u2581bo": 7261,
    "applet": 7262,
    "\u25810x108": 7263,
    "\u25810x4607": 7264,
    "\u25810x4c27": 7265,
    "ph": 7266,
    "\u25810x4066": 7267,
    "\u25810x4251": 7268,
    "\u25810x43b8c8": 7269,
    "319": 7270,
    "\u25810x40c8": 7271,
    "\u25810x491288": 7272,
    "\u25810x43b5": 7273,
    "\u2581client": 7274,
    "\u25810x48ec3c": 7275,
    "641": 7276,
    "\u25810x414f20": 7277,
    "\u2581comparestringa": 7278,
    "77e": 7279,
    "\u25810x6970": 7280,
    "\u25810xa41f": 7281,
    "9c8": 7282,
    "dd3": 7283,
    "ttp": 7284,
    "\u2581arg": 7285,
    "\u25810x3f29": 7286,
    "\u25810x40f6a8": 7287,
    "\u2581registerwindowmessagea": 7288,
    "df4": 7289,
    "enable": 7290,
    "\u25810x80be54": 7291,
    "\u2581failedtoopen": 7292,
    "\u2581failedtoopenapplication": 7293,
    "2ec": 7294,
    "ning": 7295,
    "\u25810xffe9": 7296,
    "\u25810x414f21": 7297,
    "\u2581getclassinfo": 7298,
    "\u2581failedtoopenapplicationlog": 7299,
    "2cc": 7300,
    "9e8": 7301,
    "\u25810x4760": 7302,
    "\u25810x565868": 7303,
    "\u25810x42ec": 7304,
    "685": 7305,
    "\u25810x2100": 7306,
    "\u25810x7ce0": 7307,
    "165": 7308,
    "96c": 7309,
    "e14": 7310,
    "\u25810x10a": 7311,
    "161": 7312,
    "icmp": 7313,
    "\u25810x2804": 7314,
    "\u25810x598758": 7315,
    "\u25810x1210e30": 7316,
    "plorer": 7317,
    "\u25810x40a4": 7318,
    "\u25810x4212": 7319,
    "\u25810x6b9c": 7320,
    "\u25810x500010": 7321,
    "\u25810xa429b0": 7322,
    "3c6": 7323,
    "\u25810x40e9": 7324,
    "couldnotbelocatedinthedynamiclinklibrary": 7325,
    "dd5": 7326,
    "0060": 7327,
    "\u25810x1906000": 7328,
    "\u2581getparent": 7329,
    "339": 7330,
    "3e5": 7331,
    "fee": 7332,
    "7170": 7333,
    "enamew": 7334,
    "\u25810xa0e6": 7335,
    "\u25810x411b90": 7336,
    "\u25810x1211790": 7337,
    "212": 7338,
    "b42": 7339,
    "\u25810x458": 7340,
    "\u25810x6b6": 7341,
    "\u2581riche": 7342,
    "\u25810x3fd00": 7343,
    "\u2581cocreateinstance": 7344,
    "680": 7345,
    "\u2581pb": 7346,
    "\u25810x640000": 7347,
    "376": 7348,
    "3b9": 7349,
    "b75": 7350,
    "dfd": 7351,
    "\u25810xffd8": 7352,
    "yd": 7353,
    "e81": 7354,
    "addresses": 7355,
    "\u2581setwindowshook": 7356,
    "d14": 7357,
    "\u2581ptin": 7358,
    "\u2581getdrivetypea": 7359,
    "\u25810xe6": 7360,
    "d94": 7361,
    "enh": 7362,
    "\u25810x56c": 7363,
    "\u25810x5b5": 7364,
    "\u25810xfeee00df": 7365,
    "\u2581shgetfileinfow": 7366,
    "\u25810x9110": 7367,
    "\u25810x42e0a4": 7368,
    "\u25810x46b3b8": 7369,
    "\u25810x1211fb0": 7370,
    "b1c": 7371,
    "\u25810x42a4": 7372,
    "\u25810x4366e0": 7373,
    "\u25810x438b58": 7374,
    "\u25810x438c00": 7375,
    "28c": 7376,
    "357": 7377,
    "\u2581charupp": 7378,
    "486": 7379,
    "\u25810xc2": 7380,
    "\u25810x181b48": 7381,
    "\u25810x1211cac": 7382,
    "\u25810x1211f14": 7383,
    "\u25810xfeedf000": 7384,
    "\u258116462": 7385,
    "\u25810x419c54": 7386,
    "3e1": 7387,
    "afe": 7388,
    "\u2581line": 7389,
    "\u25810x2d4d9": 7390,
    "\u25810x419c53": 7391,
    "\u25810xfeee01c": 7392,
    "7bc": 7393,
    "ba9": 7394,
    "ae00": 7395,
    "ei": 7396,
    "act": 7397,
    "be6": 7398,
    "\u2581callwindowproc": 7399,
    "76e": 7400,
    "\u25810x42398": 7401,
    "\u25810x420818": 7402,
    "\u25810x4f53c8": 7403,
    "\u2581setforegroundwindow": 7404,
    "186": 7405,
    "b12": 7406,
    "e4b8": 7407,
    "\u25810x4b40": 7408,
    "\u25810x9520": 7409,
    "\u25810x7c000": 7410,
    "\u25810x509e4": 7411,
    "\u2581setupapi": 7412,
    "\u2581getmenuitemid": 7413,
    "bf6": 7414,
    "d26": 7415,
    "\u2581doyou": 7416,
    "\u25810x4106": 7417,
    "\u25810x4af4": 7418,
    "3fc": 7419,
    "389": 7420,
    "\u25810x4e5c": 7421,
    "bd1": 7422,
    "\u2581logme": 7423,
    "\u25810x1211c4c": 7424,
    "v1": 7425,
    "eab": 7426,
    "ptr": 7427,
    "nexplorer": 7428,
    "\u25810x486d18": 7429,
    "db4": 7430,
    "ea0": 7431,
    "2f0": 7432,
    "e60": 7433,
    "17f4": 7434,
    "\u25810x4ebf": 7435,
    "\u25810x181b98": 7436,
    "sys": 7437,
    "\u2581cryptdestroy": 7438,
    "vb": 7439,
    "3f2": 7440,
    "keyexa": 7441,
    "\u25810x474": 7442,
    "\u2581getwindowtextw": 7443,
    "f64": 7444,
    "\u25810x366": 7445,
    "\u2581getlast": 7446,
    "activepopup": 7447,
    "\u2581getlastactivepopup": 7448,
    "b56": 7449,
    "f14": 7450,
    "\u25810x4b8": 7451,
    "\u25810x7f1": 7452,
    "b91": 7453,
    "a71": 7454,
    "row": 7455,
    "vert": 7456,
    "\u25810x78e": 7457,
    "\u2581unhook": 7458,
    "\u25810x435018": 7459,
    "windowshookex": 7460,
    "\u2581unhookwindowshookex": 7461,
    "712": 7462,
    "etime": 7463,
    "\u25810xdf": 7464,
    "enabled": 7465,
    "\u25810x435002": 7466,
    "\u25810x435004": 7467,
    "\u25810x435006": 7468,
    "\u25810x435008": 7469,
    "\u25810x43500a": 7470,
    "\u25810x43500c": 7471,
    "\u25810x43500e": 7472,
    "\u25810x435010": 7473,
    "3ec": 7474,
    "dc9": 7475,
    "902e0": 7476,
    "\u25810x423db0": 7477,
    "\u25810x435014": 7478,
    "\u2581sendmessagew": 7479,
    "\u25810x42b7": 7480,
    "\u25810x435016": 7481,
    "\u25810x4902e0": 7482,
    "\u2581iswindowenabled": 7483,
    "b64": 7484,
    "\u2581ro": 7485,
    "\u25810x7fc": 7486,
    "\u25810x41d4": 7487,
    "\u25810x496790": 7488,
    "\u25810x1210ec0": 7489,
    "\u2581setmenuitem": 7490,
    "3ff": 7491,
    "764": 7492,
    "a1c": 7493,
    "406": 7494,
    "b25": 7495,
    "b34": 7496,
    "\u25810x4095": 7497,
    "\u25810x56ba": 7498,
    "\u25810x423df0": 7499,
    "1ac": 7500,
    "\u25810x5052": 7501,
    "7b7": 7502,
    "console": 7503,
    "\u25810x423e20": 7504,
    "\u25810x8cb0": 7505,
    "\u25810xffea": 7506,
    "e46": 7507,
    "luss": 7508,
    "\u25810x8a90": 7509,
    "a96": 7510,
    "ctr": 7511,
    "\u25810xdb": 7512,
    "\u2581prop": 7513,
    "\u25810x154": 7514,
    "\u25810xffeb": 7515,
    "\u25810x4255ef": 7516,
    "\u25810x4255f0": 7517,
    "\u25810x567678": 7518,
    "hookex": 7519,
    "\u25810x3f28": 7520,
    "\u2581apphelp": 7521,
    "\u25810x42fc20": 7522,
    "\u2581callnext": 7523,
    "\u2581callnexthookex": 7524,
    "ab1": 7525,
    "bb9": 7526,
    "bcat": 7527,
    "\u25810x8e90": 7528,
    "30000": 7529,
    "\u2581propsys": 7530,
    "\u25810x120ff7c": 7531,
    "bcatq": 7532,
    "\u2581clbcatq": 7533,
    "\u2581getsystemwindows": 7534,
    "b45": 7535,
    "\u25810xda": 7536,
    "\u25810x435012": 7537,
    "\u25810x1211f94": 7538,
    "336": 7539,
    "ed2": 7540,
    "\u25810xfeedf0": 7541,
    "364": 7542,
    "9ac": 7543,
    "a25": 7544,
    "iconic": 7545,
    "\u25810x4137": 7546,
    "\u25810x1733c4": 7547,
    "\u2581isiconic": 7548,
    "\u2581getsystemwindowsdirectoryw": 7549,
    "691": 7550,
    "ame32": 7551,
    "child": 7552,
    "\u2581mame32": 7553,
    "\u25810x71000": 7554,
    "\u2581freeware": 7555,
    "9cc": 7556,
    "\u25810x4188": 7557,
    "70000": 7558,
    "\u25810xffdc": 7559,
    "toscreen": 7560,
    "\u2581ol": 7561,
    "rypt": 7562,
    "\u2581clienttoscreen": 7563,
    "681": 7564,
    "\u2581fast": 7565,
    "\u25810x180c": 7566,
    "\u25810x8e50": 7567,
    "bi": 7568,
    "2a8": 7569,
    "\u25810x40d5": 7570,
    "ustwindow": 7571,
    "\u2581cryptget": 7572,
    "326": 7573,
    "a95": 7574,
    "cue": 7575,
    "d9c": 7576,
    "fe9": 7577,
    "rectex": 7578,
    "rescue": 7579,
    "\u25810x44f": 7580,
    "\u25810x4d0": 7581,
    "\u25810x403000": 7582,
    "ustwindowrectex": 7583,
    "234": 7584,
    "ba6": 7585,
    "f99": 7586,
    "7675": 7587,
    "profil": 7588,
    "\u25810x42d498": 7589,
    "\u25810x1211ba8": 7590,
    "\u2581translateaccelerator": 7591,
    "5c6": 7592,
    "\u25810x415c": 7593,
    "inrescue": 7594,
    "\u25810x508d0": 7595,
    "\u25810x417c10": 7596,
    "\u2581mapwindow": 7597,
    "\u2581logmeinrescue": 7598,
    "\u2581enablemenuitem": 7599,
    "\u2581mapwindowpoints": 7600,
    "7a4": 7601,
    "\u25810x509a8": 7602,
    "3f4": 7603,
    "\u25810xa020": 7604,
    "\u25810x422750": 7605,
    "\u25810x423850": 7606,
    "\u25810x423880": 7607,
    "\u25810xfeee00e0": 7608,
    "\u2581isbadwrite": 7609,
    "\u2581logmeinrescueapplet": 7610,
    "775": 7611,
    "c46": 7612,
    "indi": 7613,
    "\u25810x181c88": 7614,
    "ad50": 7615,
    "\u25810x181c60": 7616,
    "\u25810x417be0": 7617,
    "\u2581isbadwriteptr": 7618,
    "258": 7619,
    "7de": 7620,
    "a61": 7621,
    "\u25810x169be": 7622,
    "\u2581ptinrect": 7623,
    "\u25810x1211a44": 7624,
    "\u25810xfeee00e1": 7625,
    "\u25810xfeee00e2": 7626,
    "\u25810xfeee00e3": 7627,
    "\u2581getwindowlongw": 7628,
    "ubmenu": 7629,
    "\u25810x1211eac": 7630,
    "\u25810xfeee00e4": 7631,
    "\u2581getsubmenu": 7632,
    "\u2581setwindowlongw": 7633,
    "3a2": 7634,
    "b38": 7635,
    "db9": 7636,
    "\u2581mb": 7637,
    "\u25810xe2": 7638,
    "\u2581getmodulebas": 7639,
    "ultip": 7640,
    "\u25810x2d4df": 7641,
    "formultip": 7642,
    "\u25810xfeee00e5": 7643,
    "\u2581destroymenu": 7644,
    "\u2581getmenuitemcount": 7645,
    "formultipleob": 7646,
    "\u2581registerclassw": 7647,
    "3d5": 7648,
    "buf": 7649,
    "\u2581setcursor": 7650,
    "\u2581getmenustate": 7651,
    "\u2581getwindowplacement": 7652,
    "5a0": 7653,
    "7c6": 7654,
    "7c9": 7655,
    "\u2581getmodulebasenamew": 7656,
    "aab": 7657,
    "f86": 7658,
    "\u25810x350": 7659,
    "\u25810x700": 7660,
    "\u25810xc417f4": 7661,
    "f06": 7662,
    "\u25810x9050": 7663,
    "\u25810x9c50": 7664,
    "\u25810x12000": 7665,
    "\u25810x4a50": 7666,
    "\u2581memmove": 7667,
    "\u25810x431f20": 7668,
    "\u25810x1211e88": 7669,
    "5b0": 7670,
    "prog": 7671,
    "\u25810x4220": 7672,
    "\u25810x7e20": 7673,
    "\u25810x41a9": 7674,
    "\u25810x3020302": 7675,
    "805": 7676,
    "\u2581xz": 7677,
    "\u25810x5188": 7678,
    "777": 7679,
    "ea8": 7680,
    "263": 7681,
    "e70": 7682,
    "1d4": 7683,
    "a14": 7684,
    "d55": 7685,
    "3ba": 7686,
    "e9c": 7687,
    "55c8": 7688,
    "raphi": 7689,
    "\u2581mso97": 7690,
    "\u25810x43501a": 7691,
    "beb": 7692,
    "a62": 7693,
    "da4": 7694,
    "df9": 7695,
    "thash": 7696,
    "indirect": 7697,
    "\u2581getprofile": 7698,
    "e96": 7699,
    "idto": 7700,
    "\u25810x7100": 7701,
    "\u25810x42ce08": 7702,
    "\u2581getadaptersaddresses": 7703,
    "785": 7704,
    "586": 7705,
    "9fc": 7706,
    "b26": 7707,
    "\u2581add": 7708,
    "\u25810x56000": 7709,
    "mt": 7710,
    "\u25810x46a1": 7711,
    "thashdata": 7712,
    "createhash": 7713,
    "b76": 7714,
    "\u2581cm": 7715,
    "\u25810x429920": 7716,
    "\u25810x9ab0": 7717,
    "\u25810x5265c50": 7718,
    "\u2581drawtextw": 7719,
    "e64": 7720,
    "ec7": 7721,
    "3888": 7722,
    "\u258103t": 7723,
    "filespec": 7724,
    "\u25810x408c8d": 7725,
    "\u25810x408c8e": 7726,
    "\u25810x4254ef": 7727,
    "\u25810x4254f0": 7728,
    "\u2581registerclipboardformatw": 7729,
    "fe4": 7730,
    "\u25810x7730": 7731,
    "\u25810x77000": 7732,
    "\u2581removefilespec": 7733,
    "\u25810x423c": 7734,
    "\u25810x8a44": 7735,
    "\u2581postmessagew": 7736,
    "\u2581getthreadtimes": 7737,
    "d01": 7738,
    "f49": 7739,
    "\u2581tab": 7740,
    "config": 7741,
    "aaaaaaaa": 7742,
    "\u25810xfeee010b": 7743,
    "274": 7744,
    "\u25810x4f4": 7745,
    "\u2581crypthashdata": 7746,
    "\u2581setwindowtextw": 7747,
    "\u2581cryptcreatehash": 7748,
    "vm": 7749,
    "\u2581164633": 7750,
    "\u25810x1211ec0": 7751,
    "eac": 7752,
    "\u25810x3f75e88": 7753,
    "c43": 7754,
    "ctrlid": 7755,
    "\u25810x7f5": 7756,
    "\u25810x40f4": 7757,
    "\u25810x47d0": 7758,
    "\u2581getdlg": 7759,
    "\u2581getdlgctrlid": 7760,
    "\u2581removefilespecw": 7761,
    "\u2581gray": 7762,
    "\u25810x120e6a0": 7763,
    "\u2581cryptdestroyhash": 7764,
    "911": 7765,
    "\u2581sc": 7766,
    "\u25810x40d": 7767,
    "gd": 7768,
    "c85": 7769,
    "\u2581rect": 7770,
    "\u25810x43501c": 7771,
    "\u25810x43501e": 7772,
    "\u25810x435020": 7773,
    "\u25810x435022": 7774,
    "\u25810x435028": 7775,
    "\u25810x43502a": 7776,
    "\u25810x43502c": 7777,
    "\u25810x43502e": 7778,
    "\u25810x435030": 7779,
    "\u2581translateacceleratorw": 7780,
    "734": 7781,
    "fami": 7782,
    "\u25810x40c5": 7783,
    "\u25810x7f80": 7784,
    "\u25810x99f0": 7785,
    "\u2581strchr": 7786,
    "\u25810x120f3": 7787,
    "\u25810xa3a7d8": 7788,
    "945": 7789,
    "f39": 7790,
    "\u25810x4a8": 7791,
    "2a4": 7792,
    "\u25810x9b30": 7793,
    "\u2581launch": 7794,
    "\u2581hi": 7795,
    "aac0": 7796,
    "0048": 7797,
    "\u25810xa3a790": 7798,
    "\u2581cryptgen": 7799,
    "168": 7800,
    "199": 7801,
    "store": 7802,
    "\u25810x413b": 7803,
    "\u25810xa050": 7804,
    "164": 7805,
    "\u2581gettop": 7806,
    "\u25810x4c9778": 7807,
    "\u2581gettopwindow": 7808,
    "\u2581checkmenuitem": 7809,
    "\u2581createsemaphorea": 7810,
    "\u2581cryptacquirecontextw": 7811,
    "a05": 7812,
    "\u25810x572": 7813,
    "program": 7814,
    "\u25810x40f5": 7815,
    "\u25810x434388": 7816,
    "\u2581getclassnamew": 7817,
    "vr": 7818,
    "1f0": 7819,
    "\u25810xd5": 7820,
    "\u25810x563a20": 7821,
    "\u25810x1210550": 7822,
    "dify": 7823,
    "blead": 7824,
    "\u2581ismb": 7825,
    "\u25810x435228": 7826,
    "\u25810x435240": 7827,
    "\u25810x1211ddc": 7828,
    "\u2581ismbblead": 7829,
    "154": 7830,
    "238": 7831,
    "756": 7832,
    "fbc": 7833,
    "\u2581vf": 7834,
    "abc0": 7835,
    "d12": 7836,
    "uti": 7837,
    "\u2581ar": 7838,
    "\u25810x636": 7839,
    "\u2581copyrect": 7840,
    "df1": 7841,
    "option": 7842,
    "\u25810x238": 7843,
    "\u2581modify": 7844,
    "\u25810x42eab0": 7845,
    "\u2581internetopen": 7846,
    "\u2581systemparametersinfoa": 7847,
    "33e": 7848,
    "0074": 7849,
    "random": 7850,
    "\u25810x41f9": 7851,
    "\u2581appdata": 7852,
    "155": 7853,
    "f75": 7854,
    "006c": 7855,
    "\u25810x2840": 7856,
    "\u25810x71a1": 7857,
    "\u25810x1210e70": 7858,
    "afa": 7859,
    "bce": 7860,
    "20000": 7861,
    "\u25810x677": 7862,
    "hashparam": 7863,
    "\u25810xa3a7e0": 7864,
    "\u25810x1210e34": 7865,
    "\u2581cryptgethashparam": 7866,
    "a16": 7867,
    "\u2581tabbed": 7868,
    "\u25810x41d1e0": 7869,
    "\u25810x46b388": 7870,
    "335": 7871,
    "3d7": 7872,
    "a72": 7873,
    "a7d": 7874,
    "e05": 7875,
    "e0000": 7876,
    "\u25810x7f6": 7877,
    "112": 7878,
    "e09": 7879,
    "0068": 7880,
    "word": 7881,
    "famili": 7882,
    "\u25810x513d28": 7883,
    "rgn": 7884,
    "\u258150": 7885,
    "356": 7886,
    "d06": 7887,
    "\u25810xee": 7888,
    "\u25810x422530": 7889,
    "\u25810x423e10": 7890,
    "\u2581callwindowprocw": 7891,
    "wc": 7892,
    "53a0": 7893,
    "\u25810x7c90": 7894,
    "\u25810x9890": 7895,
    "fa5": 7896,
    "\u25810xa950": 7897,
    "\u25810x1211edc": 7898,
    "icen": 7899,
    "\u25810x4375c8": 7900,
    "1d5": 7901,
    "\u25810x4aac": 7902,
    "\u25810x44c250": 7903,
    "\u25810x1211c60": 7904,
    "2020202020202020": 7905,
    "ad2": 7906,
    "enu": 7907,
    "\u2581cryptgenrandom": 7908,
    "7b5": 7909,
    "fba": 7910,
    "\u25810x411c": 7911,
    "33c": 7912,
    "582": 7913,
    "\u25810xa3a": 7914,
    "\u25810x4128": 7915,
    "fn": 7916,
    "b05": 7917,
    "b29": 7918,
    "\u2581cal": 7919,
    "\u25810x422500": 7920,
    "\u25810x4338a8": 7921,
    "\u2581setwindowshookexw": 7922,
    "\u2581shgetspecialfoldera": 7923,
    "3ed": 7924,
    "7c58": 7925,
    "\u2581zip": 7926,
    "\u25810x4b4": 7927,
    "\u25810x4c50": 7928,
    "\u25810x8a45": 7929,
    "\u25810x169b8": 7930,
    "\u25810x40a5b0": 7931,
    "\u25810x40a5b4": 7932,
    "\u25810x40a5b8": 7933,
    "\u25810x80c488": 7934,
    "\u2581lstrcatw": 7935,
    "3d9": 7936,
    "\u258144": 7937,
    "alse": 7938,
    "running": 7939,
    "\u25810x1211800": 7940,
    "781": 7941,
    "orn": 7942,
    "ower": 7943,
    "\u25810x42c020": 7944,
    "\u2581doyouwantto": 7945,
    "2d9": 7946,
    "701": 7947,
    "b54": 7948,
    "d35": 7949,
    "db1": 7950,
    "false": 7951,
    "\u25810x1e0": 7952,
    "\u25810x42c024": 7953,
    "\u25810x42c028": 7954,
    "\u25810xfeee00e6": 7955,
    "955": 7956,
    "\u2581save": 7957,
    "\u25810x40a5ae": 7958,
    "\u25810x40a5b2": 7959,
    "\u25810x40a5b6": 7960,
    "\u25810x40a5ba": 7961,
    "strue": 7962,
    "\u25810x2f5": 7963,
    "\u2581winhelp": 7964,
    "\u25810x120e688": 7965,
    "\u25810xfeee00e7": 7966,
    "\u25810xfeee00e8": 7967,
    "\u25810xfeee00e9": 7968,
    "7d2": 7969,
    "7ee": 7970,
    "dc4": 7971,
    "\u25810xed": 7972,
    "\u25810x43f": 7973,
    "allyour": 7974,
    "\u25810x4156": 7975,
    "\u2581istrue": 7976,
    "\u2581isexist": 7977,
    "\u2581isfalse": 7978,
    "\u25810x4355c8": 7979,
    "\u2581getclassinfow": 7980,
    "\u2581openanexplorer": 7981,
    "226": 7982,
    "774": 7983,
    "e38": 7984,
    "fff": 7985,
    "\u258135": 7986,
    "onexist": 7987,
    "zeroorn": 7988,
    "\u25810x8860": 7989,
    "\u2581winhelpw": 7990,
    "\u2581iszeroorn": 7991,
    "\u2581iszeroornonexist": 7992,
    "6564": 7993,
    "\u25810x73a0": 7994,
    "\u25810x40300c": 7995,
    "\u25810xfeee00ea": 7996,
    "af1": 7997,
    "\u25810x1fa": 7998,
    "\u25810x422a": 7999,
    "\u25810x4438": 8000,
    "\u25810x4189e8": 8001,
    "\u25810x41af40": 8002,
    "\u25810xfeee00eb": 8003,
    "\u25810xfeee00ec": 8004,
    "dde": 8005,
    "ted": 8006,
    "\u25810x2e7": 8007,
    "\u25810x406c": 8008,
    "\u25810x4177b0": 8009,
    "742": 8010,
    "\u25810x5b2": 8011,
    "\u25810x431a": 8012,
    "\u25810x4111d0": 8013,
    "\u25810x41ae00": 8014,
    "\u25810x42d420": 8015,
    "\u25810x77b008": 8016,
    "\u25810x9f9000": 8017,
    "\u25810xfeee00ee": 8018,
    "aa9": 8019,
    "d91": 8020,
    "da9": 8021,
    "\u25810x2280": 8022,
    "\u25810x41ff": 8023,
    "\u25810x40a020": 8024,
    "\u25810x418a18": 8025,
    "\u25810x41ad50": 8026,
    "\u25810x42a670": 8027,
    "\u25810x42b070": 8028,
    "\u25810x42eaa6": 8029,
    "\u25810x42eaba": 8030,
    "\u25810x42eac4": 8031,
    "\u25810x120fd64": 8032,
    "\u25810xfeee00ed": 8033,
    "\u25810xfeee00ef": 8034,
    "3ce": 8035,
    "ae6": 8036,
    "006e": 8037,
    "\u25810xff87": 8038,
    "\u25810x409c2c": 8039,
    "007": 8040,
    "1b5": 8041,
    "76c": 8042,
    "a7b": 8043,
    "be5": 8044,
    "\u25810x4370": 8045,
    "\u25810x439458": 8046,
    "\u25810x120e100": 8047,
    "\u25810x1211c94": 8048,
    "pc": 8049,
    "d81": 8050,
    "tes": 8051,
    "ongle": 8052,
    "\u25810x80ba": 8053,
    "ecadwork": 8054,
    "\u25810x76500000": 8055,
    "fe5": 8056,
    "lang": 8057,
    "\u25810x6f6": 8058,
    "\u25810x3810": 8059,
    "bat": 8060,
    "emo": 8061,
    "\u25810x4491": 8062,
    "\u25810x4f5320": 8063,
    "\u2581peekmessagew": 8064,
    "b71": 8065,
    "de5": 8066,
    "em32": 8067,
    "\u25810x8c20": 8068,
    "\u2581getcursorinfo": 8069,
    "3ae": 8070,
    "ac2": 8071,
    "letime": 8072,
    "\u2581createbitmap": 8073,
    "\u25810x444": 8074,
    "\u25810x40af": 8075,
    "\u25810xffd5": 8076,
    "\u25810x2840284": 8077,
    "\u2581getfiletime": 8078,
    "2f6": 8079,
    "f94": 8080,
    "7540": 8081,
    "\u25810x132": 8082,
    "\u2581valid": 8083,
    "\u2581getclassinfoexw": 8084,
    "\u2581waitformultipleob": 8085,
    "3b3": 8086,
    "dio": 8087,
    "ed4": 8088,
    "langid": 8089,
    "\u2581graystringw": 8090,
    "\u25810x4ed": 8091,
    "session": 8092,
    "d54": 8093,
    "\u25810x47a": 8094,
    "7e5": 8095,
    "bir": 8096,
    "f720": 8097,
    "\u2581validaterect": 8098,
    "\u2581getclasslongw": 8099,
    "b65": 8100,
    "e98": 8101,
    "lservr": 8102,
    "\u25810x6b4": 8103,
    "\u25810x7f9": 8104,
    "bitmaps": 8105,
    "\u25810x4195": 8106,
    "\u2581thebat": 8107,
    "\u2581sqlservr": 8108,
    "\u2581setmenuitembitmaps": 8109,
    "d85": 8110,
    "e94": 8111,
    "\u2581for": 8112,
    "d0000": 8113,
    "\u25810x85c0": 8114,
    "\u25810x9028": 8115,
    "7d6": 8116,
    "\u25810x1001": 8117,
    "\u25810x417e": 8118,
    "\u25810x6b00": 8119,
    "\u25810x7f7e": 8120,
    "309": 8121,
    "\u25810x59c": 8122,
    "\u25810x4a5c": 8123,
    "7fc": 8124,
    "f1c": 8125,
    "\u25810xa9d0": 8126,
    "\u25810x4912d0": 8127,
    "7d4": 8128,
    "e90": 8129,
    "\u2581mfn": 8130,
    "\u2581elvis": 8131,
    "\u25810x1800": 8132,
    "\u2581gender": 8133,
    "familiar": 8134,
    "\u25810x4229c1": 8135,
    "\u25810x6d006c": 8136,
    "\u2581formality": 8137,
    "\u2581formalfamiliar": 8138,
    "711": 8139,
    "b32": 8140,
    "dc6": 8141,
    "\u25810x8a70": 8142,
    "\u2581strcpy": 8143,
    "erwindow": 8144,
    "cc6": 8145,
    "ebc": 8146,
    "progid": 8147,
    "\u25810xa290": 8148,
    "\u25810xa980": 8149,
    "\u25810x43b3c0": 8150,
    "\u25810x455480": 8151,
    "erwindowpos": 8152,
    "\u2581clsidfromprogid": 8153,
    "\u2581clsidfromstring": 8154,
    "b79": 8155,
    "\u25810x112": 8156,
    "\u2581164631": 8157,
    "\u2581getsid": 8158,
    "\u25810x439268": 8159,
    "\u25810x439280": 8160,
    "\u25810x6f006e": 8161,
    "\u25810x710070": 8162,
    "\u25810x770076": 8163,
    "\u25810x790078": 8164,
    "\u25810x1211ec4": 8165,
    "\u2581std": 8166,
    "\u25810x89e0": 8167,
    "\u25810x690068": 8168,
    "\u25810x6b006a": 8169,
    "\u25810x714d98": 8170,
    "\u25810x730072": 8171,
    "\u25810x750074": 8172,
    "\u25810x7b007a": 8173,
    "\u25810x7d007c": 8174,
    "\u25810x7f007e": 8175,
    "\u2581modifymenuw": 8176,
    "196": 8177,
    "syd": 8178,
    "60000": 8179,
    "\u25810xf1": 8180,
    "\u25810xbcf2": 8181,
    "register": 8182,
    "799": 8183,
    "\u25810x40ad": 8184,
    "\u25810x455468": 8185,
    "\u2581tabbedtextoutw": 8186,
[...]
