{
    "<pad>": 0,
    "<unk>": 1,
    "<mask>": 2,
    "\u25810": 3,
    "\u25811": 4,
    "te": 5,
    "nt": 6,
    "re": 7,
    "in": 8,
    "00": 9,
    "le": 10,
    "\u2581c": 11,
    "ad": 12,
    "fi": 13,
    "\u2581nt": 14,
    "er": 15,
    "file": 16,
    "do": 17,
    "de": 18,
    "\u258112": 19,
    "ro": 20,
    "\u25812": 21,
    "ex": 22,
    "al": 23,
    "ke": 24,
    "\u25814": 25,
    "ra": 26,
    "tem": 27,
    "ws": 28,
    "win": 29,
    "\u2581f": 30,
    "\u25817": 31,
    "me": 32,
    "windo": 33,
    "et": 34,
    "lo": 35,
    "32": 36,
    "ff": 37,
    "ri": 38,
    "windows": 39,
    "pro": 40,
    "read": 41,
    "at": 42,
    "exe": 43,
    "ys": 44,
    "cu": 45,
    "ry": 46,
    "80": 47,
    "sys": 48,
    "ct": 49,
    "\u2581fa": 50,
    "system": 51,
    "\u25813": 52,
    "bu": 53,
    "\u2581fake": 54,
    "000": 55,
    "on": 56,
    "\u2581s": 57,
    "\u2581cwindows": 58,
    "es": 59,
    "ic": 60,
    "ll": 61,
    "of": 62,
    "system32": 63,
    "prog": 64,
    "oft": 65,
    "progra": 66,
    "\u2581ntread": 67,
    "program": 68,
    "dll": 69,
    "\u258112f": 70,
    "\u2581cprogram": 71,
    "\u2581cwindowssystem32": 72,
    "ate": 73,
    "52": 74,
    "an": 75,
    "60": 76,
    "key": 77,
    "min": 78,
    "ger": 79,
    "10": 80,
    "17": 81,
    "li": 82,
    "ac": 83,
    "be": 84,
    "rite": 85,
    "write": 86,
    "soft": 87,
    "cume": 88,
    "docume": 89,
    "loc": 90,
    "tect": 91,
    "local": 92,
    "fe": 93,
    "\u2581cdocume": 94,
    "us": 95,
    "pe": 96,
    "exw": 97,
    "\u2581d": 98,
    "bug": 99,
    "debug": 100,
    "debugger": 101,
    "cre": 102,
    "detect": 103,
    "\u2581ntreadfile": 104,
    "\u2581fakedetect": 105,
    "\u2581fakedetectdebugger": 106,
    "lib": 107,
    "0000": 108,
    "co": 109,
    "load": 110,
    "rary": 111,
    "38": 112,
    "ers": 113,
    "qu": 114,
    "val": 115,
    "ion": 116,
    "\u2581h": 117,
    "library": 118,
    "\u2581load": 119,
    "libraryexw": 120,
    "\u2581loadlibraryexw": 121,
    "ery": 122,
    "query": 123,
    "ter": 124,
    "ec": 125,
    "are": 126,
    "\u2581ntquery": 127,
    "valu": 128,
    "78": 129,
    "f6": 130,
    "admin": 131,
    "50": 132,
    "ing": 133,
    "\u2581ntcre": 134,
    "files": 135,
    "\u258180": 136,
    "11": 137,
    "\u258112e": 138,
    "7c": 139,
    "ings": 140,
    "\u2581ntwrite": 141,
    "vi": 142,
    "\u2581set": 143,
    "tings": 144,
    "\u2581settings": 145,
    "set": 146,
    "mic": 147,
    "\u2581files": 148,
    "mp": 149,
    "\u2581ntwritefile": 150,
    "micro": 151,
    "96": 152,
    "microsoft": 153,
    "to": 154,
    "tes": 155,
    "14": 156,
    "20": 157,
    "b0": 158,
    "99": 159,
    "ta": 160,
    "s1": 161,
    "ware": 162,
    "64": 163,
    "51": 164,
    "nts": 165,
    "f8": 166,
    "\u258110": 167,
    "na": 168,
    "att": 169,
    "pi": 170,
    "ory": 171,
    "\u2581b": 172,
    "attri": 173,
    "attribu": 174,
    "attributes": 175,
    "attributesfile": 176,
    "\u2581an": 177,
    "\u2581ntqueryattributesfile": 178,
    "rt": 179,
    "reg": 180,
    "cur": 181,
    "\u2581and": 182,
    "\u2581cdocuments": 183,
    "f0": 184,
    "\u2581hkey": 185,
    "\u258114": 186,
    "name": 187,
    "97": 188,
    "\u258113": 189,
    "rent": 190,
    "current": 191,
    "07": 192,
    "28": 193,
    "68": 194,
    "\u2581e": 195,
    "dc": 196,
    "value": 197,
    "valuekey": 198,
    "\u25811f": 199,
    "temp": 200,
    "\u25819": 201,
    "adminlocal": 202,
    "un": 203,
    "\u2581g": 204,
    "6c": 205,
    "\u2581a": 206,
    "ep": 207,
    "\u25818": 208,
    "ess": 209,
    "003": 210,
    "fa": 211,
    "\u25817ff": 212,
    "ach": 213,
    "70": 214,
    "proc": 215,
    "\u25815": 216,
    "d8": 217,
    "xe": 218,
    "\u2581ntset": 219,
    "\u2581get": 220,
    "\u2581ntsetvaluekey": 221,
    "users": 222,
    "e8": 223,
    "or": 224,
    "process": 225,
    "\u258115": 226,
    "9c": 227,
    "ns": 228,
    "e4": 229,
    "0001": 230,
    "atem": 231,
    "108": 232,
    "ed": 233,
    "fc": 234,
    "tant": 235,
    "18": 236,
    "atemu": 237,
    "atemutant": 238,
    "\u2581ntcreatemutant": 239,
    "\u25811f0001": 240,
    "\u2581cdocume1": 241,
    "\u2581cdocume1adminlocal": 242,
    "\u2581cdocume1adminlocals1": 243,
    "515": 244,
    "5211": 245,
    "991": 246,
    "leep": 247,
    "\u2581sleep": 248,
    "32dll": 249,
    "3817": 250,
    "bc": 251,
    "1760": 252,
    "9678": 253,
    "0752": 254,
    "97108": 255,
    "0752515": 256,
    "9678991": 257,
    "52111760": 258,
    "971083817": 259,
    "07525159678991": 260,
    "52111760971083817": 261,
    "5211176097108381707525159678991": 262,
    "5211176097108381707525159678991003": 263,
    "mem": 264,
    "memory": 265,
    "im": 266,
    "per": 267,
    "ea": 268,
    "vic": 269,
    "waremicrosoft": 270,
    "\u2581cdocume1adminlocals1temp": 271,
    "rtu": 272,
    "d0": 273,
    "ls": 274,
    "90": 275,
    "virtu": 276,
    "virtual": 277,
    "virtualmemory": 278,
    "48": 279,
    "st": 280,
    "58": 281,
    "pp": 282,
    "inter": 283,
    "tmp": 284,
    "ation": 285,
    "\u2581cprogram1": 286,
    "reader": 287,
    "e0": 288,
    "net": 289,
    "30": 290,
    "ado": 291,
    "id": 292,
    "\u2581ntreadvirtualmemory": 293,
    "5c": 294,
    "vers": 295,
    "f4": 296,
    "adobe": 297,
    "di": 298,
    "ata": 299,
    "mach": 300,
    "machin": 301,
    "com": 302,
    "\u25811000": 303,
    "b8": 304,
    "localmachin": 305,
    "\u2581hkeylocalmachin": 306,
    "ateprocess": 307,
    "version": 308,
    "34": 309,
    "dpi": 310,
    "namedpi": 311,
    "94": 312,
    "he": 313,
    "\u2581ntcreate": 314,
    "98": 315,
    "d4": 316,
    "rect": 317,
    "c8": 318,
    "vice": 319,
    "fo": 320,
    "waremicrosoftwindows": 321,
    "e7": 322,
    "ss": 323,
    "\u25816": 324,
    "a4": 325,
    "\u25817ffd": 326,
    "currentversion": 327,
    "a0": 328,
    "mu": 329,
    "ch": 330,
    "esoft": 331,
    "pefile": 332,
    "writepefile": 333,
    "waremicrosoftwindowscurrentversion": 334,
    "\u2581fakewritepefile": 335,
    "\u2581hkeylocalmachinesoft": 336,
    "\u2581ntcreatefile": 337,
    "\u258128": 338,
    "ope": 339,
    "\u2581cprogram1exe": 340,
    "ms": 341,
    "yu": 342,
    "\u2581per": 343,
    "valuate": 344,
    "\u2581perfe": 345,
    "\u2581perfevaluate": 346,
    "b4": 347,
    "en": 348,
    "00c": 349,
    "54": 350,
    "\u2581t": 351,
    "und": 352,
    "all": 353,
    "3c": 354,
    "oo": 355,
    "window": 356,
    "round": 357,
    "foreg": 358,
    "foreground": 359,
    "\u2581getforeground": 360,
    "\u2581getforegroundwindow": 361,
    "1c": 362,
    "tex": 363,
    "eb": 364,
    "\u2581ope": 365,
    "\u2581opens": 366,
    "24": 367,
    "\u2581de": 368,
    "\u258120": 369,
    "man": 370,
    "\u25817e": 371,
    "la": 372,
    "mutex": 373,
    "pc": 374,
    "74": 375,
    "\u25817f6": 376,
    "tm": 377,
    "\u2581settingsadmin": 378,
    "lt": 379,
    "\u2581filesadobe": 380,
    "lic": 381,
    "\u258118": 382,
    "a8": 383,
    "fau": 384,
    "\u2581users": 385,
    "fault": 386,
    "default": 387,
    "2c": 388,
    "\u2581settingsall": 389,
    "\u2581di": 390,
    "app": 391,
    "ho": 392,
    "ar": 393,
    "\u258110000": 394,
    "users1": 395,
    "mon": 396,
    "12": 397,
    "\u2581hkeycurrent": 398,
    "users15211176097108381707525159678991003": 399,
    "plo": 400,
    "44": 401,
    "\u2581hkeycurrentusers15211176097108381707525159678991003": 402,
    "internet": 403,
    "plore": 404,
    "wor": 405,
    "explore": 406,
    "sk": 407,
    "lete": 408,
    "sc": 409,
    "\u25811c": 410,
    "\u2581reg": 411,
    "ef": 412,
    "termin": 413,
    "\u2581namedpi": 414,
    "ww": 415,
    "ag": 416,
    "him": 417,
    "\u258112f4": 418,
    "\u258116": 419,
    "tp": 420,
    "\u2581hkeycurrentusers15211176097108381707525159678991003soft": 421,
    "\u2581namedpipe": 422,
    "rc": 423,
    "s15211176097108381707525159678991003": 424,
    "htm": 425,
    "defaults15211176097108381707525159678991003": 426,
    "\u258112ff": 427,
    "ervice": 428,
    "\u2581268": 429,
    "\u2581nttermin": 430,
    "lication": 431,
    "direct": 432,
    "si": 433,
    "db": 434,
    "\u2581ntterminateprocess": 435,
    "application": 436,
    "40": 437,
    "ze": 438,
    "iq": 439,
    "aly": 440,
    "4c": 441,
    "\u2581dwindows": 442,
    "\u2581ct": 443,
    "directory": 444,
    "directoryfile": 445,
    "\u2581ntquerydirectoryfile": 446,
    "36": 447,
    "e6": 448,
    "se": 449,
    "d1": 450,
    "\u2581namedpipels": 451,
    "toke": 452,
    "\u258129": 453,
    "uyu": 454,
    "iqa": 455,
    "uyuiqa": 456,
    "\u2581data": 457,
    "ba": 458,
    "504": 459,
    "arpc": 460,
    "\u2581namedpipelsarpc": 461,
    "\u2581114": 462,
    "ky": 463,
    "ryto": 464,
    "7c4": 465,
    "f7": 466,
    "qg": 467,
    "analy": 468,
    "fd": 469,
    "analyze": 470,
    "\u2581tryto": 471,
    "\u2581trytoanalyze": 472,
    "\u258132": 473,
    "inf": 474,
    "ime": 475,
    "mutexdefaults15211176097108381707525159678991003": 476,
    "html": 477,
    "comp": 478,
    "f1": 479,
    "common": 480,
    "\u2581120": 481,
    "dex": 482,
    "\u258122": 483,
    "up": 484,
    "e9": 485,
    "\u258100": 486,
    "rip": 487,
    "texe": 488,
    "\u2581fakebe": 489,
    "\u2581cre": 490,
    "\u2581400": 491,
    "nal": 492,
    "\u258148": 493,
    "\u25817f0": 494,
    "ew": 495,
    "\u258117": 496,
    "sig": 497,
    "26": 498,
    "scrip": 499,
    "internal": 500,
    "\u2581createprocess": 501,
    "internalw": 502,
    "\u2581createprocessinternalw": 503,
    "ffff": 504,
    "wwco": 505,
    "rcx": 506,
    "\u2581ctf": 507,
    "sigwwco": 508,
    "\u2581settingsadminsigwwco": 509,
    "\u258160": 510,
    "setfile": 511,
    "\u2581fakesetfile": 512,
    "sa": 513,
    "explorer": 514,
    "\u258112d": 515,
    "hel": 516,
    "\u2581ff": 517,
    "\u2581280": 518,
    "\u25811exe": 519,
    "oou": 520,
    "qgky": 521,
    "qgkyoou": 522,
    "ts": 523,
    "00s": 524,
    "04": 525,
    "data": 526,
    "16": 527,
    "fb": 528,
    "vc": 529,
    "\u2581crcx": 530,
    "e5": 531,
    "create": 532,
    "pes": 533,
    "\u2581fakebecreate": 534,
    "\u2581fakebecreatedex": 535,
    "47c": 536,
    "view": 537,
    "\u2581filesadobereader": 538,
    "\u2581direct": 539,
    "\u2581cwindowssystem32c": 540,
    "116": 541,
    "lass": 542,
    "leg": 543,
    "1000": 544,
    "run": 545,
    "\u258180reader": 546,
    "ager": 547,
    "\u2581u": 548,
    "manager": 549,
    "jus": 550,
    "pag": 551,
    "ervicew": 552,
    "viewer": 553,
    "token": 554,
    "\u2581openservicew": 555,
    "tpri": 556,
    "\u258142": 557,
    "vileg": 558,
    "adjus": 559,
    "vileges": 560,
    "\u2581ntadjus": 561,
    "tprivileges": 562,
    "tprivilegestoken": 563,
    "\u2581ntadjustprivilegestoken": 564,
    "e2": 565,
    "uter": 566,
    "\u2581device": 567,
    "\u2581164": 568,
    "managerw": 569,
    "\u2581opensc": 570,
    "\u2581openscmanagerw": 571,
    "den": 572,
    "f9": 573,
    "idden": 574,
    "peshim": 575,
    "peshimviewer": 576,
    "\u2581devicenamedpi": 577,
    "\u2581devicenamedpipeshimviewer": 578,
    "\u2581120116": 579,
    "\u258111": 580,
    "100080": 581,
    "f2": 582,
    "\u2581filescommon": 583,
    "wsi": 584,
    "computer": 585,
    "computername": 586,
    "\u2581getcomputername": 587,
    "pagi": 588,
    "pagiwsi": 589,
    "\u2581userspagiwsi": 590,
    "\u258140": 591,
    "filew": 592,
    "b3": 593,
    "\u2581ffffff": 594,
    "class": 595,
    "ser": 596,
    "cv": 597,
    "work": 598,
    "d3": 599,
    "\u258170": 600,
    "ce": 601,
    "api": 602,
    "92": 603,
    "\u2581ffffffff": 604,
    "dexe": 605,
    "ly": 606,
    "\u2581ws": 607,
    "\u2581152": 608,
    "hell": 609,
    "\u258180100080": 610,
    "how": 611,
    "waremicrosoftwindowscurrentversionexplorer": 612,
    "\u2581dwindowssystem32": 613,
    "aa": 614,
    "\u2581internet": 615,
    "95": 616,
    "mexe": 617,
    "howto": 618,
    "pat": 619,
    "\u258180readerhowto": 620,
    "log": 621,
    "\u2581fbe": 622,
    "classes": 623,
    "user": 624,
    "ne": 625,
    "86": 626,
    "dff": 627,
    "\u2581hkeylocalmachinesoftwaremicrosoftwindowscurrentversion": 628,
    "8c": 629,
    "\u2581system": 630,
    "\u2581w": 631,
    "ver": 632,
    "orm": 633,
    "ou": 634,
    "d6": 635,
    "\u25814c": 636,
    "e3": 637,
    "\u2581efe": 638,
    "22": 639,
    "13": 640,
    "adv": 641,
    "bat": 642,
    "\u258150": 643,
    "ki": 644,
    "roo": 645,
    "\u2581104": 646,
    "56": 647,
    "008": 648,
    "e1": 649,
    "\u2581settingsadminsigwwcoke": 650,
    "\u2581settingsadminsigwwcokeqgkyoou": 651,
    "delete": 652,
    "\u2581hkeylocalmachinesoftware": 653,
    "\u2581ntdelete": 654,
    "\u2581delete": 655,
    "ntro": 656,
    "\u258113ed": 657,
    "oper": 658,
    "\u2581deletefilew": 659,
    "df": 660,
    "sh": 661,
    "operation": 662,
    "001": 663,
    "contro": 664,
    "fileexw": 665,
    "f99": 666,
    "\u2581hkeylocalmachinesoftwareclasses": 667,
    "\u258112ed": 668,
    "d5": 669,
    "\u258176": 670,
    "\u25819be": 671,
    "pl": 672,
    "ty": 673,
    "rst": 674,
    "\u258144": 675,
    "uyuiqamexe": 676,
    "script": 677,
    "\u2581filesadobehel": 678,
    "c0": 679,
    "\u258129dff": 680,
    "\u2581reader": 681,
    "\u258112f8": 682,
    "cls": 683,
    "\u2581reader80": 684,
    "res": 685,
    "mdexe": 686,
    "mo": 687,
    "\u2581systemroo": 688,
    "\u2581getcomputernamew": 689,
    "\u2581cwindowssystem32ms": 690,
    "cc": 691,
    "\u2581userspagiwsiyu": 692,
    "\u25812ad": 693,
    "bf": 694,
    "\u2581ad": 695,
    "\u25814000": 696,
    "\u258119": 697,
    "shell": 698,
    "53": 699,
    "pen": 700,
    "f8b0": 701,
    "\u258130": 702,
    "is": 703,
    "\u2581cc": 704,
    "76": 705,
    "\u2581datamicrosoft": 706,
    "lexe": 707,
    "pu": 708,
    "th": 709,
    "if": 710,
    "hidden": 711,
    "only": 712,
    "readonly": 713,
    "hiddenor": 714,
    "hiddenorreadonly": 715,
    "\u2581fakesetfilehiddenorreadonly": 716,
    "\u258180000": 717,
    "\u2581000000": 718,
    "\u2581cdocume1adminlocals1tempns": 719,
    "d7": 720,
    "lp": 721,
    "con": 722,
    "f878": 723,
    "ble": 724,
    "\u2581b8": 725,
    "arecv": 726,
    "\u2581wsarecv": 727,
    "\u25817c8": 728,
    "f5": 729,
    "end": 730,
    "\u258190": 731,
    "\u2581200": 732,
    "\u2581usersapplication": 733,
    "au": 734,
    "first": 735,
    "ad0": 736,
    "180": 737,
    "01": 738,
    "\u258174": 739,
    "\u2581hkeylocalmachinesoftwareclassescls": 740,
    "f3": 741,
    "penus": 742,
    "word": 743,
    "f7c4": 744,
    "cach": 745,
    "\u2581filesadobehelpenus": 746,
    "2tmp": 747,
    "\u2581filesadobehelpenusadobe": 748,
    "1tmp": 749,
    "0008": 750,
    "\u2581100": 751,
    "\u2581disk": 752,
    "rexe": 753,
    "f628": 754,
    "ng": 755,
    "\u2581diskoperation": 756,
    "\u2581b1": 757,
    "\u258177": 758,
    "patch": 759,
    "\u2581send": 760,
    "\u2581114f99": 761,
    "po": 762,
    "nect": 763,
    "15": 764,
    "35": 765,
    "\u2581uuyuiqamexe": 766,
    "\u2581in": 767,
    "88": 768,
    "\u25812adff": 769,
    "\u2581ra": 770,
    "\u258112e7": 771,
    "\u2581con": 772,
    "\u25811e7": 773,
    "nti": 774,
    "\u25817ffde": 775,
    "\u258129c": 776,
    "\u2581208": 777,
    "ced": 778,
    "\u2581userspagiwsiyuuyuiqa": 779,
    "ee": 780,
    "\u2581settingsadminsigwwcokeqgkyoouinf": 781,
    "\u258112c": 782,
    "io": 783,
    "\u2581settingsadminlocal": 784,
    "minf": 785,
    "\u2581userspagiwsiyuuyuiqaminf": 786,
    "yexe": 787,
    "\u258112f3": 788,
    "\u2581hkeylocalmachinesoftwaremicrosoftwindowscurrentversionrun": 789,
    "afe": 790,
    "\u2581v": 791,
    "a1": 792,
    "200": 793,
    "e20": 794,
    "27": 795,
    "no": 796,
    "\u258127": 797,
    "\u2581hkeylocalmachinesoftwaremicrosoft": 798,
    "f620": 799,
    "b9": 800,
    "180s": 801,
    "\u2581sleep180s": 802,
    "\u2581x": 803,
    "dd": 804,
    "\u258112f7": 805,
    "\u2581settingsadminapplication": 806,
    "anced": 807,
    "sx": 808,
    "23": 809,
    "advanced": 810,
    "dr": 811,
    "\u25813c": 812,
    "waremicrosoftwindowscurrentversionexploreradvanced": 813,
    "network": 814,
    "\u2581396": 815,
    "984": 816,
    "\u2581crcx1tmp": 817,
    "e90": 818,
    "\u2581hkeycurrentusers15211176097108381707525159678991003software": 819,
    "\u258129cff": 820,
    "\u25811d1": 821,
    "f680": 822,
    "av": 823,
    "\u25811e0": 824,
    "\u2581add": 825,
    "\u25814e7": 826,
    "ea38": 827,
    "ea28": 828,
    "\u2581hk": 829,
    "\u25812ac": 830,
    "dword": 831,
    "\u2581regdword": 832,
    "\u258112fe": 833,
    "\u258113f6": 834,
    "ead0": 835,
    "\u258112f1": 836,
    "curi": 837,
    "curity": 838,
    "\u258177ed": 839,
    "\u2581b5": 840,
    "\u2581170": 841,
    "39": 842,
    "ind": 843,
    "\u2581cwindowssystem32reg": 844,
    "da": 845,
    "xt": 846,
    "\u2581127": 847,
    "security": 848,
    "604": 849,
    "chs": 850,
    "\u25814e8": 851,
    "\u2581cwindowssystem32regexe": 852,
    "\u25811b0": 853,
    "enter": 854,
    "op": 855,
    "tsdb": 856,
    "ack": 857,
    "tapp": 858,
    "systes": 859,
    "tapppatch": 860,
    "systestsdb": 861,
    "tapppatchsystestsdb": 862,
    "\u2581systemrootapppatchsystestsdb": 863,
    "\u2581regexe": 864,
    "ntime": 865,
    "84": 866,
    "d2": 867,
    "mm": 868,
    "c00": 869,
    "\u2581ht": 870,
    "f700": 871,
    "kdll": 872,
    "apidll": 873,
    "b5": 874,
    "\u2581center": 875,
    "cf": 876,
    "ff34": 877,
    "\u258170ff": 878,
    "\u2581hkeylocalmachinesoftwaremicrosoftsecurity": 879,
    "\u2581a0": 880,
    "3a": 881,
    "\u25812c": 882,
    "\u258180000000": 883,
    "\u25814e6": 884,
    "\u2581shim": 885,
    "\u258113f0": 886,
    "\u2581connect": 887,
    "\u2581find": 888,
    "bd": 889,
    "\u2581findfirst": 890,
    "\u2581findfirstfileexw": 891,
    "\u2581sleep36": 892,
    "\u258112fb": 893,
    "as": 894,
    "2c0": 895,
    "\u2581sleep3600s": 896,
    "\u2581cwindowssystem32us": 897,
    "31": 898,
    "\u25811a": 899,
    "atio": 900,
    "\u25812080000": 901,
    "\u2581a0008": 902,
    "\u2581cmdexe": 903,
    "14e90": 904,
    "\u25817c814e90": 905,
    "liblog": 906,
    "liblogmutex": 907,
    "\u2581shimliblogmutex": 908,
    "inform": 909,
    "dat": 910,
    "hare": 911,
    "ationtime": 912,
    "creationtime": 913,
    "\u2581fakesetfilecreationtime": 914,
    "sman": 915,
    "91": 916,
    "rac": 917,
    "task": 918,
    "information": 919,
    "servic": 920,
    "ost": 921,
    "valid": 922,
    "b7": 923,
    "server": 924,
    "10dll": 925,
    "\u2581invalid": 926,
    "ku": 927,
    "rar": 928,
    "\u258112e6": 929,
    "fice": 930,
    "\u2581c0": 931,
    "\u258124": 932,
    "controls": 933,
    "em": 934,
    "\u2581host": 935,
    "37": 936,
    "lpkdll": 937,
    "d04": 938,
    "p10dll": 939,
    "\u25812acff": 940,
    "\u2581ac": 941,
    "\u25817c": 942,
    "\u2581bc": 943,
    "ff44": 944,
    "tra": 945,
    "ws2": 946,
    "ole": 947,
    "os": 948,
    "2664": 949,
    "\u258176eb": 950,
    "service": 951,
    "\u2581rasman": 952,
    "b1": 953,
    "\u258176eb2664": 954,
    "gm": 955,
    "\u2581settingstemp": 956,
    "qq": 957,
    "\u2581258": 958,
    "ass": 959,
    "\u2581cprogramc": 960,
    "\u2581http": 961,
    "ies": 962,
    "ec04": 963,
    "\u25817fa": 964,
    "scriptexe": 965,
    "\u2581share": 966,
    "taskki": 967,
    "wexe": 968,
    "1a": 969,
    "\u258180readerhowtoen": 970,
    "\u258180readerhowtochs": 971,
    "\u2581154": 972,
    "office": 973,
    "\u2581reader80ws": 974,
    "ini": 975,
    "zh": 976,
    "\u2581hkeylocalmachinesoftwareclassesclsid": 977,
    "ppdata": 978,
    "33": 979,
    "am": 980,
    "svc": 981,
    "\u258100000086": 982,
    "3tmp": 983,
    "\u2581ntdeletevaluekey": 984,
    "\u2581pi": 985,
    "eu": 986,
    "lay": 987,
    "software": 988,
    "7a": 989,
    "\u2581e0": 990,
    "65": 991,
    "\u258112f2": 992,
    "b64": 993,
    "9a4": 994,
    "cou": 995,
    "\u25811c5": 996,
    "ctu": 997,
    "\u258180readerhowtoenu": 998,
    "count": 999,
    "9f": 1000,
    "jl": 1001,
    "\u25811dc": 1002,
    "e7ec": 1003,
    "\u2581fbe47c": 1004,
    "ide": 1005,
    "\u2581pictu": 1006,
    "\u258150200": 1007,
    "upd": 1008,
    "ec4": 1009,
    "\u2581ntdeletekey": 1010,
    "fce4": 1011,
    "iexe": 1012,
    "\u258113ed50": 1013,
    "\u258113ed70": 1014,
    "ext": 1015,
    "d9": 1016,
    "\u2581c4": 1017,
    "b2": 1018,
    "\u25817f0e4": 1019,
    "\u25817f0b4": 1020,
    "\u25817f0ec": 1021,
    "\u258184": 1022,
    "\u2581filesmicrosoft": 1023,
    "sms": 1024,
    "upexe": 1025,
    "wn": 1026,
    "\u2581efe47c": 1027,
    "lu": 1028,
    "inst": 1029,
    "\u25817f648": 1030,
    "\u25817f6f8": 1031,
    "\u25817f66c": 1032,
    "\u25817f67c": 1033,
    "\u25817f6d8": 1034,
    "\u25817f700": 1035,
    "\u2581127001": 1036,
    "pcrt": 1037,
    "\u258188": 1038,
    "m32dll": 1039,
    "form": 1040,
    "profiles": 1041,
    "\u25816c": 1042,
    "\u2581cprogramcscript": 1043,
    "\u25817e984": 1044,
    "\u25817e9a4": 1045,
    "orary": 1046,
    "\u25819bc": 1047,
    "\u2581280ec": 1048,
    "\u258112ff10": 1049,
    "\u258114c": 1050,
    "informationprocess": 1051,
    "\u2581ntqueryinformationprocess": 1052,
    "ebb0": 1053,
    "by": 1054,
    "conte": 1055,
    "a7": 1056,
    "003f": 1057,
    "\u2581f003f": 1058,
    "\u25817ffde00c": 1059,
    "server32": 1060,
    "01ff": 1061,
    "servicea": 1062,
    "host": 1063,
    "\u2581f01ff": 1064,
    "\u2581bsms": 1065,
    "gmbf": 1066,
    "\u2581bsmsgmbf": 1067,
    "jav": 1068,
    "\u2581ntqueryinformationprocess7": 1069,
    "\u2581settingstemporary": 1070,
    "\u258129dffb0": 1071,
    "\u258129dff6c": 1072,
    "ali": 1073,
    "\u25811e4": 1074,
    "protect": 1075,
    "plat": 1076,
    "l32dll": 1077,
    "\u2581filesconte": 1078,
    "\u2581fbe504": 1079,
    "ming": 1080,
    "\u2581filescontenti": 1081,
    "\u25814e9": 1082,
    "aming": 1083,
    "\u2581filescontentie5": 1084,
    "platform": 1085,
    "protection": 1086,
    "softwareprotection": 1087,
    "softwareprotectionplatform": 1088,
    "\u2581cpu": 1089,
    "roaming": 1090,
    "\u2581hkcu": 1091,
    "softwaremicrosoftwindowscurrentversionexploreradvanced": 1092,
    "networkservicea": 1093,
    "\u2581hkcusoftwaremicrosoftwindowscurrentversionexploreradvanced": 1094,
    "serviceprofiles": 1095,
    "p0": 1096,
    "lb": 1097,
    "rs": 1098,
    "ppdataroaming": 1099,
    "\u2581124": 1100,
    "\u2581c8": 1101,
    "ap": 1102,
    "b6": 1103,
    "sable": 1104,
    "ppdataroamingmicrosoft": 1105,
    "\u2581cwindowssystem32r": 1106,
    "\u2581efe504": 1107,
    "17c": 1108,
    "not": 1109,
    "\u2581dwindowsserviceprofiles": 1110,
    "08": 1111,
    "644": 1112,
    "\u2581e2": 1113,
    "xjl": 1114,
    "networkserviceappdataroamingmicrosoft": 1115,
    "networkserviceappdataroamingmicrosoftsoftwareprotectionplatform": 1116,
    "\u2581settingsadminsigwwcok": 1117,
    "\u25812000": 1118,
    "\u258112fec4": 1119,
    "f68": 1120,
    "tokens": 1121,
    "14c": 1122,
    "tokensdat": 1123,
    "\u25811f0": 1124,
    "\u2581cwindowssystem32ole": 1125,
    "ify": 1126,
    "\u2581fi": 1127,
    "1m": 1128,
    "comct": 1129,
    "wnload": 1130,
    "ecf4": 1131,
    "\u2581274": 1132,
    "\u258132ff": 1133,
    "api32dll": 1134,
    "\u2581c1": 1135,
    "comctl32dll": 1136,
    "\u2581104d3": 1137,
    "\u2581cwindowssystem32sh": 1138,
    "ee0": 1139,
    "\u25815c": 1140,
    "sablenot": 1141,
    "fd04": 1142,
    "control": 1143,
    "20s": 1144,
    "72": 1145,
    "update": 1146,
    "est": 1147,
    "f1e8": 1148,
    "\u258194": 1149,
    "\u2581cwindowssystem32w": 1150,
    "\u25819be0": 1151,
    "disablenot": 1152,
    "disablenotify": 1153,
    "ld": 1154,
    "\u2581sleep9": 1155,
    "\u258121": 1156,
    "\u2581sleep900s": 1157,
    "\u258134": 1158,
    "\u2581taskki": 1159,
    "polic": 1160,
    "\u2581k": 1161,
    "\u2581pictures": 1162,
    "\u2581e8": 1163,
    "\u258142f1e8": 1164,
    "ff8": 1165,
    "pdll": 1166,
    "hostby": 1167,
    "hostbyname": 1168,
    "\u2581gethostbyname": 1169,
    "ao": 1170,
    "66": 1171,
    "\u2581cwindowssystem32dc": 1172,
    "list": 1173,
    "gdi": 1174,
    "\u2581423": 1175,
    "bb": 1176,
    "bs": 1177,
    "\u2581d0": 1178,
    "boo": 1179,
    "nu": 1180,
    "xjlpe": 1181,
    "xjlpe1m": 1182,
    "\u2581uxjlpe1m": 1183,
    "ve": 1184,
    "\u258112f6": 1185,
    "\u2581qq": 1186,
    "7cc": 1187,
    "\u2581sleep20s": 1188,
    "\u2581eqgkyoou": 1189,
    "\u2581eqgkyoouexe": 1190,
    "oc": 1191,
    "\u25811d0": 1192,
    "sp": 1193,
    "dcc": 1194,
    "\u25817ffd6": 1195,
    "ju": 1196,
    "eck": 1197,
    "\u258178": 1198,
    "\u2581b0": 1199,
    "\u2581cop": 1200,
    "nable": 1201,
    "esystem": 1202,
    "0089": 1203,
    "\u2581copy": 1204,
    "controlset": 1205,
    "\u2581copyfileexw": 1206,
    "\u2581120089": 1207,
    "3ff": 1208,
    "\u258136": 1209,
    "controlset001": 1210,
    "\u2581hidden": 1211,
    "\u2581407": 1212,
    "\u2581hkeylocalmachinesystem": 1213,
    "\u2581re": 1214,
    "\u258112f0": 1215,
    "\u2581hkeylocalmachinesystemcontrolset001": 1216,
    "readfile": 1217,
    "\u2581internetreadfile": 1218,
    "344": 1219,
    "\u258112fe80": 1220,
    "check": 1221,
    "\u258112f17c": 1222,
    "\u2581b4": 1223,
    "\u258112f3f8": 1224,
    "\u258112f410": 1225,
    "\u2581explore": 1226,
    "\u258112f14c": 1227,
    "rame": 1228,
    "71": 1229,
    "\u258112f164": 1230,
    "fe50": 1231,
    "\u258168": 1232,
    "\u258112ff9c": 1233,
    "sm": 1234,
    "\u258112f428": 1235,
    "\u25811648": 1236,
    "2b": 1237,
    "js": 1238,
    "rtdll": 1239,
    "\u2581cwindowssystem32x": 1240,
    "\u2581e2ff44": 1241,
    "e238": 1242,
    "\u258164": 1243,
    "dc00": 1244,
    "fe28": 1245,
    "policies": 1246,
    "\u2581127c": 1247,
    "art": 1248,
    "ce8": 1249,
    "\u2581filesinternet": 1250,
    "\u258125": 1251,
    "boot": 1252,
    "\u25817e7c4": 1253,
    "\u25817e7ec": 1254,
    "auto": 1255,
    "\u258126": 1256,
    "download": 1257,
    "85": 1258,
    "esta": 1259,
    "p0d": 1260,
    "\u2581ki": 1261,
    "vcrtdll": 1262,
    "\u2581bd0": 1263,
    "imeexe": 1264,
    "open": 1265,
    "\u258113e": 1266,
    "trap0d": 1267,
    "\u2581kitrap0d": 1268,
    "\u2581bd0f68": 1269,
    "e208": 1270,
    "\u25817ffd600c": 1271,
    "\u258180readerhowtochsws": 1272,
    "\u258112ef": 1273,
    "\u258151": 1274,
    "19": 1275,
    "\u25812adff60": 1276,
    "\u2581270": 1277,
    "\u25812adffa4": 1278,
    "\u258112ff18": 1279,
    "\u258112ff38": 1280,
    "\u25811d8": 1281,
    "4dll": 1282,
    "\u2581a8": 1283,
    "icbc": 1284,
    "user32dll": 1285,
    "\u25814ad": 1286,
    "pre": 1287,
    "\u25817ffda": 1288,
    "advapi32dll": 1289,
    "llexe": 1290,
    "jueu": 1291,
    "pcrt4dll": 1292,
    "\u2581hkeycurrentusers15211176097108381707525159678991003softwaream": 1293,
    "a9": 1294,
    "imm32dll": 1295,
    "baid": 1296,
    "lw": 1297,
    "b3ec": 1298,
    "\u25811cc": 1299,
    "\u2581148": 1300,
    "gdi32dll": 1301,
    "fileext": 1302,
    "af": 1303,
    "exem": 1304,
    "ifest": 1305,
    "\u2581cauto": 1306,
    "\u2581180": 1307,
    "\u2581150": 1308,
    "policiessystem": 1309,
    "manifest": 1310,
    "\u2581cwindowssystem32cmdexe": 1311,
    "\u258129cffb0": 1312,
    "\u258129cff6c": 1313,
    "b070": 1314,
    "ef60": 1315,
    "ec0": 1316,
    "a5": 1317,
    "512": 1318,
    "\u2581cpucheck": 1319,
    "\u258112fa": 1320,
    "f2c8": 1321,
    "\u258177edb070": 1322,
    "\u258177edb3ec": 1323,
    "\u258110c": 1324,
    "\u25813e": 1325,
    "\u2581cwindowssystem32cscriptexe": 1326,
    "fc00": 1327,
    "path": 1328,
    "\u258112f5": 1329,
    "a6": 1330,
    "\u258180readerhowtoenuws": 1331,
    "shell32dll": 1332,
    "ackupexe": 1333,
    "\u2581enable": 1334,
    "\u2581cwindowssystem32se": 1335,
    "thread": 1336,
    "winsx": 1337,
    "bmp": 1338,
    "cn": 1339,
    "46": 1340,
    "dccprogram": 1341,
    "\u2581cwindowssystem32xdccprogram": 1342,
    "idefileext": 1343,
    "\u25817ffdfc00": 1344,
    "\u2581hidefileext": 1345,
    "000000": 1346,
    "\u25817ffda00c": 1347,
    "\u2581cwindowssystem32win": 1348,
    "\u258158": 1349,
    "ath": 1350,
    "lua": 1351,
    "mi": 1352,
    "kexe": 1353,
    "93": 1354,
    "ff4c": 1355,
    "5b": 1356,
    "\u25817ffd3": 1357,
    "\u258112ec": 1358,
    "\u2581enablelua": 1359,
    "d0000": 1360,
    "kur": 1361,
    "crac": 1362,
    "crackur": 1363,
    "\u2581internetcrackur": 1364,
    "\u258112f9": 1365,
    "\u2581cwindowssystem32msvcrtdll": 1366,
    "\u2581ec": 1367,
    "sent": 1368,
    "f69": 1369,
    "000c": 1370,
    "\u258110be": 1371,
    "\u2581recv": 1372,
    "\u25817ffd8": 1373,
    "aa3": 1374,
    "86microsoft": 1375,
    "\u2581f8": 1376,
    "tdll": 1377,
    "\u25817fe": 1378,
    "rayexe": 1379,
    "0c": 1380,
    "\u2581hkeylocalmachinesystemcontrolset001controls": 1381,
    "\u2581128": 1382,
    "146": 1383,
    "3f": 1384,
    "epath": 1385,
    "\u258170ff5c": 1386,
    "\u258170ff7c": 1387,
    "present": 1388,
    "cur32dll": 1389,
    "bo": 1390,
    "bem": 1391,
    "tim": 1392,
    "\u2581cwindowswindows": 1393,
    "helpdll": 1394,
    "\u2581cwindowssystem32user32dll": 1395,
    "winsxsx": 1396,
    "\u258112e5": 1397,
    "\u2581centersvc": 1398,
    "\u2581423f69": 1399,
    "my": 1400,
    "\u2581ffe": 1401,
    "ac00": 1402,
    "\u2581cwindowssystem32advapi32dll": 1403,
    "\u2581getcomputernameexw": 1404,
    "\u2581userspagiwsiy": 1405,
    "a04": 1406,
    "\u2581cwindowssystem32rpcrt4dll": 1407,
    "top": 1408,
    "\u2581user": 1409,
    "\u2581a4": 1410,
    "\u2581cwindowssystem32secur32dll": 1411,
    "\u2581592": 1412,
    "java": 1413,
    "ith": 1414,
    "\u2581cwindowswindowsshell": 1415,
    "\u2581cwindowswindowsshellmanifest": 1416,
    "xww": 1417,
    "\u2581sleep2": 1418,
    "\u2581cwindowssystem32gdi32dll": 1419,
    "winsxsx86microsoft": 1420,
    "\u2581151": 1421,
    "setup": 1422,
    "t32dll": 1423,
    "ml": 1424,
    "zon": 1425,
    "winrar": 1426,
    "\u258115c": 1427,
    "\u2581cwindowstemp": 1428,
    "\u2581p": 1429,
    "\u2581is": 1430,
    "\u2581ali": 1431,
    "ert": 1432,
    "afeboot": 1433,
    "\u258112d4": 1434,
    "ithprog": 1435,
    "\u2581592aa3": 1436,
    "\u2581hkeylocalmachinesystemcontrolset001controlsafeboot": 1437,
    "ae": 1438,
    "\u25817ffd300c": 1439,
    "ea4": 1440,
    "requ": 1441,
    "\u2581systemroot": 1442,
    "\u258112ee": 1443,
    "\u25818000": 1444,
    "57": 1445,
    "\u2581isdebugger": 1446,
    "\u2581isdebuggerpresent": 1447,
    "\u2581cwindowssystem32imm32dll": 1448,
    "layou": 1449,
    "\u2581systemrootsystem32": 1450,
    "ffe": 1451,
    "\u2581httpopen": 1452,
    "requesta": 1453,
    "\u2581httpopenrequesta": 1454,
    "\u25810000": 1455,
    "pg": 1456,
    "b8c": 1457,
    "\u2581cwindowssystem32lpkdll": 1458,
    "\u2581ksa": 1459,
    "frame": 1460,
    "\u2581160": 1461,
    "\u2581cwindowssystem32usp10dll": 1462,
    "4cc": 1463,
    "\u2581cwindowswinsxsx86microsoft": 1464,
    "\u258112fc": 1465,
    "ab": 1466,
    "vch": 1467,
    "waremicrosoftwindowscurrentversioninternet": 1468,
    "\u2581cwindowssystem32xdccprograms": 1469,
    "heme": 1470,
    "\u2581e4": 1471,
    "\u2581cwindowssystem32msct": 1472,
    "\u2581210": 1473,
    "\u2581168": 1474,
    "\u2581a1": 1475,
    "tion": 1476,
    "\u2581174": 1477,
    "md": 1478,
    "layouts": 1479,
    "localserver32": 1480,
    "bro": 1481,
    "3e": 1482,
    "ere": 1483,
    "\u25811a0": 1484,
    "vbs": 1485,
    "6595": 1486,
    "144cc": 1487,
    "144ccf1": 1488,
    "6595b64": 1489,
    "6595b64144ccf1": 1490,
    "005": 1491,
    "fasm": 1492,
    "lbes": 1493,
    "\u2581ctflbes": 1494,
    "compart": 1495,
    "\u2581ctfcompart": 1496,
    "\u258152": 1497,
    "ostexe": 1498,
    "\u2581ctfasm": 1499,
    "\u2581ctflayouts": 1500,
    "\u2581mo": 1501,
    "tmd": 1502,
    "vchostexe": 1503,
    "\u2581ctftmd": 1504,
    "\u2581cwindowssystem32shell32dll": 1505,
    "lm": 1506,
    "filevbs": 1507,
    "usp10dll": 1508,
    "\u2581cc000c": 1509,
    "\u2581ntwritevirtualmemory": 1510,
    "\u2581ctflbesmutexdefaults15211176097108381707525159678991003": 1511,
    "cachef": 1512,
    "e20c": 1513,
    "\u2581ctfcompartmutexdefaults15211176097108381707525159678991003": 1514,
    "timlist": 1515,
    "cachefmp": 1516,
    "\u2581ctftimlist": 1517,
    "\u2581ctftimlistcachefmp": 1518,
    "9a": 1519,
    "cache": 1520,
    "\u2581ctfasmmutexdefaults15211176097108381707525159678991003": 1521,
    "2e": 1522,
    "6595b64144ccf1df": 1523,
    "\u2581ctflayoutsmutexdefaults15211176097108381707525159678991003": 1524,
    "940": 1525,
    "\u2581ctftmdmutexdefaults15211176097108381707525159678991003": 1526,
    "\u25811d4": 1527,
    "\u2581128c": 1528,
    "\u2581cwindowssystem32con": 1529,
    "\u2581m": 1530,
    "ame": 1531,
    "baidu": 1532,
    "\u2581internetcrackurla": 1533,
    "69": 1534,
    "\u2581ctftimlistcachefmpdefaults15211176097108381707525159678991003": 1535,
    "lwapidll": 1536,
    "rus": 1537,
    "\u25817fa10": 1538,
    "\u258133": 1539,
    "\u2581dc": 1540,
    "\u25817ffdec00": 1541,
    "zhcn": 1542,
    "\u25811c8": 1543,
    "64c": 1544,
    "\u2581cwindowssystem32wbem": 1545,
    "\u25817fa70": 1546,
    "\u25817c80": 1547,
    "\u2581217": 1548,
    "\u2581114f990": 1549,
    "\u2581114f998": 1550,
    "\u2581114f99c": 1551,
    "6b": 1552,
    "34400": 1553,
    "\u25814ad34400": 1554,
    "120": 1555,
    "oog": 1556,
    "f65c": 1557,
    "png": 1558,
    "\u2581cwindowssystem32regexelocal": 1559,
    "commoncontrols": 1560,
    "windowscommoncontrols": 1561,
    "\u2581107": 1562,
    "ress": 1563,
    "\u25812acff60": 1564,
    "\u2581svchostexe": 1565,
    "\u25812acffa4": 1566,
    "old": 1567,
    "\u2581cdocume1adminlocals1tempfilevbs": 1568,
    "\u2581000000a1": 1569,
    "ws232dll": 1570,
    "og": 1571,
    "\u2581cach": 1572,
    "753": 1573,
    "f90": 1574,
    "ug": 1575,
    "788": 1576,
    "005512": 1577,
    "00000": 1578,
    "ip": 1579,
    "bexe": 1580,
    "\u258112e4": 1581,
    "26005512": 1582,
    "9c00": 1583,
    "\u25817eee0": 1584,
    "\u25817eec0": 1585,
    "\u2581cwindowssystem32conimeexe": 1586,
    "\u25819be0bc": 1587,
    "inpu": 1588,
    "\u2581explorer": 1589,
    "runinf": 1590,
    "imag": 1591,
    "\u2581settingsadminsigwwcokeqgkyoouexe": 1592,
    "\u2581427": 1593,
    "75": 1594,
    "\u2581443": 1595,
    "\u2581ntcreatethread": 1596,
    "\u258138": 1597,
    "\u2581hkeylocalmachinesoftwareclassesclsi": 1598,
    "70c": 1599,
    "oogle": 1600,
    "\u2581cautoruninf": 1601,
    "26005512xww": 1602,
    "\u25811f03ff": 1603,
    "ac9f": 1604,
    "\u25817c80ac9f": 1605,
    "ats": 1606,
    "9e": 1607,
    "ryp": 1608,
    "\u258124c": 1609,
    "inputdll": 1610,
    "c4": 1611,
    "\u2581systemrootsystem32inputdll": 1612,
    "too": 1613,
    "\u2581d4": 1614,
    "\u25818000000": 1615,
    "\u2581crcx2tmp": 1616,
    "\u2581f0": 1617,
    "emb": 1618,
    "ws2helpdll": 1619,
    "fig": 1620,
    "\u258112e8": 1621,
    "\u25814e5": 1622,
    "e0000": 1623,
    "a3": 1624,
    "\u2581280e4": 1625,
    "\u25817ffd9c00": 1626,
    "0018": 1627,
    "9d": 1628,
    "waremicrosoftwindowscurrentversionpoliciessystem": 1629,
    "000ff": 1630,
    "\u25811454": 1631,
    "6595b64144ccf1df60": 1632,
    "\u2581cwindowssystem32shlwapidll": 1633,
    "\u2581178": 1634,
    "cexe": 1635,
    "\u2581account": 1636,
    "\u258112ea": 1637,
    "\u25817f5": 1638,
    "windowscommoncontrols6595b64144ccf1df60": 1639,
    "ang": 1640,
    "6c18": 1641,
    "a2": 1642,
    "\u258154": 1643,
    "\u2581datamicrosoftuser": 1644,
    "rew": 1645,
    "\u2581fold": 1646,
    "tu": 1647,
    "\u25811e8": 1648,
    "60s": 1649,
    "2c8": 1650,
    "aut32dll": 1651,
    "assemb": 1652,
    "\u2581146c18": 1653,
    "14676": 1654,
    "14676753": 1655,
    "\u25811414676753": 1656,
    "scriptcom": 1657,
    "\u2581cwindowssystem32cscriptcom": 1658,
    "e50": 1659,
    "195": 1660,
    "\u2581explorerexe": 1661,
    "\u25813d5": 1662,
    "\u2581744": 1663,
    "\u2581e0ff": 1664,
    "ig": 1665,
    "\u25817c885": 1666,
    "\u25817c885604": 1667,
    "488": 1668,
    "\u2581process": 1669,
    "\u258112ed48": 1670,
    "assembly": 1671,
    "\u2581cmd": 1672,
    "ride": 1673,
    "install": 1674,
    "\u258141": 1675,
    "verride": 1676,
    "ql": 1677,
    "\u2581hklm": 1678,
    "35d4": 1679,
    "220": 1680,
    "yn": 1681,
    "ce83": 1682,
    "35d4ce83": 1683,
    "26005512xww35d4ce83": 1684,
    "windowscommoncontrols6595b64144ccf1df6026005512xww35d4ce83": 1685,
    "acro": 1686,
    "\u258123": 1687,
    "\u2581hklmsoft": 1688,
    "\u25811ea": 1689,
    "\u25811454d8": 1690,
    "\u2581picturesdefault": 1691,
    "\u2581hklmsoftwaremicrosoftwindowscurrentversionpoliciessystem": 1692,
    "32first": 1693,
    "instal": 1694,
    "\u258199": 1695,
    "\u2581settingsapplication": 1696,
    "\u258113f0ec": 1697,
    "cfg": 1698,
    "\u258116c": 1699,
    "nv": 1700,
    "box": 1701,
    "dec": 1702,
    "\u258128d0000": 1703,
    "9c0": 1704,
    "\u2581sleep60s": 1705,
    "\u25811d": 1706,
    "\u258137a": 1707,
    "microsoftnet": 1708,
    "\u2581sleep6": 1709,
    "77": 1710,
    "\u25811b": 1711,
    "\u2581cdocume1adminlocals1tem": 1712,
    "\u2581114d7": 1713,
    "versiondll": 1714,
    "\u25817ffd8c00": 1715,
    "\u258112e2": 1716,
    "\u2581hkeylocalmachinesoftwaremicrosoftwindowscurrentversioninternet": 1717,
    "\u25811d5": 1718,
    "wk": 1719,
    "ressw": 1720,
    "\u25816f0": 1721,
    "\u2581move": 1722,
    "\u2581movefilew": 1723,
    "ithprogressw": 1724,
    "\u2581movefilewithprogressw": 1725,
    "\u2581d8": 1726,
    "virus": 1727,
    "\u2581folders": 1728,
    "\u25811523": 1729,
    "73": 1730,
    "cachepath": 1731,
    "cachepaths": 1732,
    "\u2581settingscachepaths": 1733,
    "n32": 1734,
    "\u2581240": 1735,
    "\u2581fa0": 1736,
    "nd": 1737,
    "usr": 1738,
    "lie": 1739,
    "\u258132fe": 1740,
    "\u25811244": 1741,
    "pexe": 1742,
    "wts": 1743,
    "f00c": 1744,
    "nf": 1745,
    "360": 1746,
    "\u258112eb": 1747,
    "office12": 1748,
    "wtsn32": 1749,
    "59": 1750,
    "ntivirus": 1751,
    "waremicrosoftwindowscurrentversionexplorershell": 1752,
    "\u2581crcx3tmp": 1753,
    "\u2581nu": 1754,
    "mode": 1755,
    "atson": 1756,
    "\u2581cwindowssystem32ole32dll": 1757,
    "\u2581taskkillexe": 1758,
    "\u2581cprogram1exelocal": 1759,
    "\u2581cscript": 1760,
    "\u2581sleep600s": 1761,
    "\u258127c": 1762,
    "21": 1763,
    "\u25812b3": 1764,
    "info": 1765,
    "\u2581win": 1766,
    "\u2581antivirus": 1767,
    "drwtsn32": 1768,
    "\u2581firew": 1769,
    "\u2581watson": 1770,
    "\u2581datamicrosoftdr": 1771,
    "\u2581office": 1772,
    "\u2581cwindowssystem32versiondll": 1773,
    "backupexe": 1774,
    "f7cc": 1775,
    "f2c0": 1776,
    "\u2581188": 1777,
    "22e3": 1778,
    "1510": 1779,
    "vmon": 1780,
    "9794": 1781,
    "630": 1782,
    "70cb64": 1783,
    "\u25817670cb64": 1784,
    "b84": 1785,
    "\u2581admin": 1786,
    "32firstw": 1787,
    "prox": 1788,
    "0020": 1789,
    "\u2581filesjava": 1790,
    "\u2581290": 1791,
    "oy": 1792,
    "5a": 1793,
    "\u2581754": 1794,
    "5f4": 1795,
    "58a04": 1796,
    "102b": 1797,
    "195ff": 1798,
    "102bd6": 1799,
    "a822e3": 1800,
    "15109794": 1801,
    "a822e3e50": 1802,
    "15109794195ff": 1803,
    "58a04a822e3e50": 1804,
    "102bd615109794195ff": 1805,
    "\u2581reader80ws58a04a822e3e50": 1806,
    "\u2581reader80ws58a04a822e3e50102bd615109794195ff": 1807,
    "\u25811f4": 1808,
    "\u2581aa": 1809,
    "ourc": 1810,
    "\u2581cwindowssystem32d": 1811,
    "xtheme": 1812,
    "ca": 1813,
    "jpg": 1814,
    "b08": 1815,
    "\u2581000": 1816,
    "dc4": 1817,
    "bcde": 1818,
    "\u2581cwindowssystem32u": 1819,
    "\u2581im": 1820,
    "ffedc": 1821,
    "afeef": 1822,
    "dcafeef": 1823,
    "bcdeffedc": 1824,
    "e00": 1825,
    "bcc": 1826,
    "\u258120c": 1827,
    "xthemedll": 1828,
    "\u2581248": 1829,
    "plug": 1830,
    "964": 1831,
    "4tmp": 1832,
    "acc": 1833,
    "icbcexe": 1834,
    "\u25813e1": 1835,
    "\u2581254": 1836,
    "sktop": 1837,
    "\u2581dd3": 1838,
    "\u25817ffdf00c": 1839,
    "f6b8": 1840,
    "mote": 1841,
    "\u2581cert": 1842,
    "\u2581108": 1843,
    "\u2581do": 1844,
    "pa": 1845,
    "1d": 1846,
    "\u2581wsas": 1847,
    "\u2581251": 1848,
    "\u2581cwindowssystem32oleaut32dll": 1849,
    "erne": 1850,
    "\u2581117": 1851,
    "\u25818c": 1852,
    "drwtsn32log": 1853,
    "\u2581watsondrwtsn32log": 1854,
    "\u25819b": 1855,
    "ef98": 1856,
    "\u2581ksaf": 1857,
    "sexe": 1858,
    "10000": 1859,
    "\u258112f458": 1860,
    "xp": 1861,
    "55": 1862,
    "3d": 1863,
    "\u2581144": 1864,
    "qexe": 1865,
    "\u2581shell": 1866,
    "resdll": 1867,
    "\u25814e8f628": 1868,
    "\u25814e7f628": 1869,
    "\u2581taskkill": 1870,
    "20000": 1871,
    "\u2581eq": 1872,
    "\u2581cscriptexe": 1873,
    "jre": 1874,
    "\u258132ff2c0": 1875,
    "erexe": 1876,
    "ad8": 1877,
    "dc0": 1878,
    "\u2581username": 1879,
    "\u258112e774": 1880,
    "\u258132ff2c8": 1881,
    "6d": 1882,
    "filejs": 1883,
    "\u2581250": 1884,
    "140": 1885,
    "\u2581ravmon": 1886,
    "ac0": 1887,
    "\u258125c": 1888,
    "f6e0": 1889,
    "\u258137": 1890,
    "ea04": 1891,
    "hdll": 1892,
    "\u2581158": 1893,
    "framework": 1894,
    "rm": 1895,
    "\u25811fe": 1896,
    "gac": 1897,
    "fime": 1898,
    "\u2581cwindowssystem32msctfime": 1899,
    "\u2581cwindowssystem32msctfimeime": 1900,
    "fc30": 1901,
    "\u25812b3ff34": 1902,
    "inj": 1903,
    "5e": 1904,
    "sapi": 1905,
    "e614": 1906,
    "\u2581hkeylocalmachinesystemcontrolset001controlsafebootnetwork": 1907,
    "fe6c": 1908,
    "\u2581sendto": 1909,
    "\u2581docf": 1910,
    "\u2581339": 1911,
    "\u2581118": 1912,
    "e630": 1913,
    "dd8": 1914,
    "\u25819be6": 1915,
    "ff5c": 1916,
    "\u2581hkeycurrentusers15211176097108381707525159678991003softwarep": 1917,
    "\u2581fileswinrar": 1918,
    "mmdll": 1919,
    "enhdll": 1920,
    "\u2581filesjavajre": 1921,
    "500": 1922,
    "\u25813b": 1923,
    "ionao": 1924,
    "\u2581150018": 1925,
    "gexe": 1926,
    "\u2581d6": 1927,
    "\u2581cwindowssystem32comctl32dll": 1928,
    "txt": 1929,
    "rl": 1930,
    "\u2581officeoffice12": 1931,
    "\u2581244": 1932,
    "ism": 1933,
    "dc08": 1934,
    "\u25819c": 1935,
    "\u258112d8": 1936,
    "dcafeefac00": 1937,
    "rn": 1938,
    "\u2581mu": 1939,
    "tw": 1940,
    "\u2581201": 1941,
    "qky": 1942,
    "assemblygac": 1943,
    "61": 1944,
    "ted": 1945,
    "gos": 1946,
    "documents": 1947,
    "fc8": 1948,
    "\u258198": 1949,
    "\u2581f4": 1950,
    "\u25814e8f620": 1951,
    "du": 1952,
    "\u2581218": 1953,
    "b40": 1954,
    "\u258113d4": 1955,
    "\u258112e76c": 1956,
    "\u258127be": 1957,
    "\u2581280ed": 1958,
    "\u2581b5dc00": 1959,
    "gosqky": 1960,
    "\u2581mugosqky": 1961,
    "\u2581b5dc08": 1962,
    "\u258112a": 1963,
    "25": 1964,
    "cism": 1965,
    "cismqg": 1966,
    "\u2581nucismqg": 1967,
    "\u2581settingscachepathspath": 1968,
    "\u2581cwindowsmicrosoftnet": 1969,
    "erenv": 1970,
    "ico": 1971,
    "erenvdll": 1972,
    "\u258189": 1973,
    "29": 1974,
    "3b9": 1975,
    "tc": 1976,
    "\u25814e6f628": 1977,
    "\u2581194": 1978,
    "\u25817ffd5": 1979,
    "\u25817ffddc00": 1980,
    "\u258112db": 1981,
    "ervic": 1982,
    "ment": 1983,
    "time": 1984,
    "\u2581shell32dll": 1985,
    "\u25814e7f620": 1986,
    "nch": 1987,
    "brows": 1988,
    "\u25817ffdc": 1989,
    "ebd8": 1990,
    "msco": 1991,
    "\u2581memory": 1992,
    "rom": 1993,
    "resourc": 1994,
    "\u2581memoryoperation": 1995,
    "saenhdll": 1996,
    "\u2581147": 1997,
    "ist": 1998,
    "\u258120060": 1999,
    "\u2581userspagiwsiyuuyuiqamexe": 2000,
    "\u25811c0": 2001,
    "ff48": 2002,
    "32exe": 2003,
    "\u258114e": 2004,
    "il": 2005,
    "\u2581systemrootsystem32inputdll50": 2006,
    "\u2581cdocume1adminlocals1tempi": 2007,
    "\u2581149": 2008,
    "\u2581184": 2009,
    "\u258117c": 2010,
    "\u258167c": 2011,
    "remote": 2012,
    "f000ff": 2013,
    "1f": 2014,
    "sv": 2015,
    "ected": 2016,
    "injected": 2017,
    "\u2581fakebeinjected": 2018,
    "desktop": 2019,
    "eexe": 2020,
    "s3": 2021,
    "1391": 2022,
    "\u2581datas": 2023,
    "f928": 2024,
    "\u258111c": 2025,
    "920": 2026,
    "oooy": 2027,
    "67": 2028,
    "imoooy": 2029,
    "fdll": 2030,
    "imoooywexe": 2031,
    "adata": 2032,
    "lient": 2033,
    "1e": 2034,
    "\u25812ba": 2035,
    "974": 2036,
    "ernel": 2037,
    "\u2581280e3": 2038,
    "inproc": 2039,
    "6f": 2040,
    "inprocserver32": 2041,
    "\u2581260": 2042,
    "\u25817ffdd": 2043,
    "hoto": 2044,
    "\u2581reader80ws58a04a822e3e50102bd615109794195ff7": 2045,
    "\u258112de": 2046,
    "\u2581214": 2047,
    "lg": 2048,
    "\u258112f830": 2049,
    "\u2581aimoooywexe": 2050,
    "\u2581cwindowssystem32userenvdll": 2051,
    "\u2581cwindowssystem32nt": 2052,
    "\u25811ec": 2053,
    "1b": 2054,
    "ma": 2055,
    "110": 2056,
    "100": 2057,
    "amebox": 2058,
    "\u25811bc": 2059,
    "\u258119c": 2060,
    "\u2581cwindowssystem": 2061,
    "\u258114d": 2062,
    "e74": 2063,
    "\u25811ff": 2064,
    "bec": 2065,
    "\u25817ffd9": 2066,
    "11c": 2067,
    "\u25811a8": 2068,
    "a710": 2069,
    "ooglecom": 2070,
    "a0000": 2071,
    "7j": 2072,
    "\u2581190": 2073,
    "e8c": 2074,
    "\u2581i": 2075,
    "\u25814e6f620": 2076,
    "\u25819be0d0": 2077,
    "\u2581110": 2078,
    "\u2581264": 2079,
    "\u2581dat": 2080,
    "base": 2081,
    "\u258113e9": 2082,
    "\u2581process32firstw": 2083,
    "63": 2084,
    "3a9": 2085,
    "5cc": 2086,
    "46z": 2087,
    "7jxt": 2088,
    "7jxt46z": 2089,
    "\u2581filescontentie57jxt46z": 2090,
    "\u25817ffdb": 2091,
    "installe": 2092,
    "\u25817ffd500c": 2093,
    "1exe": 2094,
    "\u2581cc00": 2095,
    "\u2581googlecom": 2096,
    "\u2581cwindowssystem32uxthemedll": 2097,
    "hlp": 2098,
    "mmcount": 2099,
    "\u25819be2": 2100,
    "7c0": 2101,
    "968": 2102,
    "\u25814073a9": 2103,
    "\u25814073b9": 2104,
    "\u2581185": 2105,
    "\u25812e8": 2106,
    "photo": 2107,
    "yo": 2108,
    "\u25819bc5f4": 2109,
    "\u25819bc630": 2110,
    "\u258112dc": 2111,
    "\u2581e7": 2112,
    "\u258118c": 2113,
    "388": 2114,
    "ff6c": 2115,
    "\u258110fe": 2116,
    "\u2581134": 2117,
    "\u2581cwindowssystem32winmmdll": 2118,
    "rd": 2119,
    "exploreexe": 2120,
    "208": 2121,
    "\u2581cprogra": 2122,
    "\u25811646": 2123,
    "hoh": 2124,
    "\u2581360": 2125,
    "hohdi": 2126,
    "rshohdi": 2127,
    "rshohdiphoto": 2128,
    "sr": 2129,
    "ocke": 2130,
    "skin": 2131,
    "cryp": 2132,
    "rshohdiphotousr": 2133,
    "rsu": 2134,
    "lash": 2135,
    "\u25812006": 2136,
    "\u258110066": 2137,
    "fa20": 2138,
    "6a": 2139,
    "528": 2140,
    "ha": 2141,
    "\u2581384": 2142,
    "setupapidll": 2143,
    "dmp": 2144,
    "rshohdiphotousrrsu": 2145,
    "\u2581cwindowssystem32usrshohdiphotousrrsu": 2146,
    "\u25812c8": 2147,
    "\u2581cc0008": 2148,
    "170": 2149,
    "\u25817fb": 2150,
    "\u25814e9f628": 2151,
    "rivers": 2152,
    "53f000ff": 2153,
    "\u258112eda8": 2154,
    "\u25814e": 2155,
    "\u25817ffdd00c": 2156,
    "images": 2157,
    "bi": 2158,
    "pzhcn": 2159,
    "\u25813d4": 2160,
    "\u2581fc": 2161,
    "\u25811e": 2162,
    "fac": 2163,
    "\u2581cwindowssystem32run": 2164,
    "\u258112edb0": 2165,
    "\u258112e1": 2166,
    "\u25817ffdb00c": 2167,
    "ssvc": 2168,
    "\u2581cwindowsmicrosoftnetframework": 2169,
    "setupexe": 2170,
    "\u25812d0": 2171,
    "ngdll": 2172,
    "\u25811ba": 2173,
    "\u2581update": 2174,
    "\u258139": 2175,
    "\u258175": 2176,
    "vexe": 2177,
    "ocketw": 2178,
    "\u2581wsasocketw": 2179,
    "np": 2180,
    "\u258112f49c": 2181,
    "\u2581111": 2182,
    "\u25819e": 2183,
    "trayexe": 2184,
    "eb58": 2185,
    "d5a": 2186,
    "wkssvc": 2187,
    "252": 2188,
    "\u2581namedpipewkssvc": 2189,
    "hread": 2190,
    "\u25817e6": 2191,
    "62": 2192,
    "terminate": 2193,
    "remoteprocess": 2194,
    "\u2581faketerminate": 2195,
    "\u2581faketerminateremoteprocess": 2196,
    "00000000": 2197,
    "94c": 2198,
    "\u2581cprogramlpkdll": 2199,
    "\u2581cprogramusp10dll": 2200,
    "\u25817ffd900c": 2201,
    "\u258112f494": 2202,
    "e08": 2203,
    "\u258110be47c": 2204,
    "zones": 2205,
    "\u2581cache": 2206,
    "aexe": 2207,
    "\u258112e0": 2208,
    "resources": 2209,
    "\u2581123c": 2210,
    "f98": 2211,
    "fdat": 2212,
    "d28": 2213,
    "\u2581220": 2214,
    "d1b8": 2215,
    "loy": 2216,
    "unter": 2217,
    "\u258110be504": 2218,
    "\u25813dc": 2219,
    "eng": 2220,
    "\u2581405": 2221,
    "484": 2222,
    "\u2581thread": 2223,
    "javad": 2224,
    "nsapidll": 2225,
    "\u258112f470": 2226,
    "ceexe": 2227,
    "wu": 2228,
    "\u2581104d3f4": 2229,
    "\u2581104d3ec": 2230,
    "7b": 2231,
    "\u258112fb84": 2232,
    "hx": 2233,
    "confdat": 2234,
    "5tmp": 2235,
    "\u25811033": 2236,
    "\u2581104d3f8": 2237,
    "\u2581explorerd": 2238,
    "\u2581filesadobehelpzhcn": 2239,
    "eploy": 2240,
    "javadeploy": 2241,
    "\u258112d9": 2242,
    "e644": 2243,
    "counter": 2244,
    "\u2581408": 2245,
    "e64c": 2246,
    "50000": 2247,
    "\u2581153": 2248,
    "\u2581filesadobehelpzhcnadobe": 2249,
    "\u2581datasun": 2250,
    "iv": 2251,
    "\u2581130": 2252,
    "cl": 2253,
    "v40": 2254,
    "\u25814e9f620": 2255,
    "2j": 2256,
    "79": 2257,
    "\u25813e3": 2258,
    "\u258121c": 2259,
    "\u258112f488": 2260,
    "mlconfdat": 2261,
    "\u258112b": 2262,
    "\u2581cdocume1adminlocals1temptmp": 2263,
    "bench": 2264,
    "\u2581cap": 2265,
    "804": 2266,
    "zhu": 2267,
    "\u2581explorerdmlconfdat": 2268,
    "countermutex": 2269,
    "\u2581204": 2270,
    "fco": 2271,
    "\u258114e008": 2272,
    "config": 2273,
    "\u258112d5": 2274,
    "dw": 2275,
    "\u258126c": 2276,
    "244": 2277,
    "\u2581zones": 2278,
    "912": 2279,
    "\u2581ffe47c": 2280,
    "\u258175c": 2281,
    "modetime": 2282,
    "\u2581518": 2283,
    "\u2581no": 2284,
    "\u2581caption": 2285,
    "f0000": 2286,
    "\u2581d2": 2287,
    "\u25817f2": 2288,
    "b4d": 2289,
    "gen": 2290,
    "320": 2291,
    "\u25812910000": 2292,
    "\u258112e3": 2293,
    "\u2581co": 2294,
    "ogou": 2295,
    "\u25813000": 2296,
    "3031": 2297,
    "ru": 2298,
    "xml": 2299,
    "\u258111727": 2300,
    "ral": 2301,
    "139134": 2302,
    "\u258111727139134": 2303,
    "qw": 2304,
    "apppatch": 2305,
    "\u2581794": 2306,
    "38b0": 2307,
    "\u25810001": 2308,
    "cbat": 2309,
    "\u2581av": 2310,
    "\u2581cwindowssystem32rsaenhdll": 2311,
    "su": 2312,
    "\u2581hkeycurrentusers15211176097108381707525159678991003classes": 2313,
    "fc18": 2314,
    "ysec": 2315,
    "de0": 2316,
    "\u2581datasunjavadeploy": 2317,
    "readers": 2318,
    "\u2581crcx4tmp": 2319,
    "ifi": 2320,
    "a710b8": 2321,
    "924": 2322,
    "workbench": 2323,
    "\u2581ffff4c": 2324,
    "1d4": 2325,
    "jj": 2326,
    "desktopini": 2327,
    "imexe": 2328,
    "paysec": 2329,
    "9b": 2330,
    "uninstall": 2331,
    "imengdll": 2332,
    "taskkillexe": 2333,
    "\u25813d9": 2334,
    "paysecsvc": 2335,
    "\u2581cwindowssystem32taskkillexe": 2336,
    "\u25811a4": 2337,
    "\u2581332": 2338,
    "\u2581datasunjavadeployment": 2339,
    "b5d": 2340,
    "f910": 2341,
    "acm32dll": 2342,
    "ff0": 2343,
    "\u2581198": 2344,
    "\u25811528": 2345,
    "\u258113f0e4": 2346,
    "ouceexe": 2347,
    "\u258113f0b4": 2348,
    "\u25813be": 2349,
    "\u2581too": 2350,
    "ngf": 2351,
    "hdc": 2352,
    "ssexe": 2353,
    "\u2581cdocume1adminlocals1tempd": 2354,
    "apppatchac": 2355,
    "18c": 2356,
    "\u25811b4": 2357,
    "\u25817ed": 2358,
    "\u258113f67c": 2359,
    "\u25811b8": 2360,
    "\u258156": 2361,
    "\u2581cwindowssystem32runouceexe": 2362,
    "rili": 2363,
    "188": 2364,
    "\u258113f700": 2365,
    "angyu": 2366,
    "5fe": 2367,
    "dongf": 2368,
    "zhudongf": 2369,
    "zhudongfangyu": 2370,
    "fc2c": 2371,
    "50c": 2372,
    "idll": 2373,
    "\u2581aa0": 2374,
    "\u258112fb3c": 2375,
    "\u258113f6d8": 2376,
    "\u258113f6f8": 2377,
    "\u258113f648": 2378,
    "\u258113f66c": 2379,
    "\u258112eea4": 2380,
    "emap": 2381,
    "640": 2382,
    "508": 2383,
    "\u2581prox": 2384,
    "49": 2385,
    "dbhdc": 2386,
    "\u2581ffe504": 2387,
    "\u2581170e9": 2388,
    "520": 2389,
    "zonemap": 2390,
    "\u2581140": 2391,
    "\u2581settingszonemap": 2392,
    "wo": 2393,
    "30s": 2394,
    "\u25817ffd7": 2395,
    "42": 2396,
    "s3000": 2397,
    "\u258113e984": 2398,
    "\u258113e9a4": 2399,
    "\u25811480": 2400,
    "\u25813e8": 2401,
    "5f": 2402,
    "518": 2403,
    "iz": 2404,
    "pack": 2405,
    "m2j": 2406,
    "igpl": 2407,
    "m2jigpl": 2408,
    "\u2581filescontentie5m2jigpl": 2409,
    "\u2581cwindowssystem32shimengdll": 2410,
    "iaa": 2411,
    "nps3000": 2412,
    "\u2581cprogram1com": 2413,
    "\u25811f8": 2414,
    "\u25811c4": 2415,
    "\u2581427b4d": 2416,
    "\u2581427b5d": 2417,
    "\u258114ea": 2418,
    "ea0": 2419,
    "2000": 2420,
    "dnps3000": 2421,
    "ary": 2422,
    "index": 2423,
    "ebc": 2424,
    "\u258136252": 2425,
    "ull": 2426,
    "tyk": 2427,
    "\u2581107ff4c": 2428,
    "\u2581cwindowssystem32msacm32dll": 2429,
    "raldll": 2430,
    "\u258112e644": 2431,
    "\u2581cwindowsapppatchac": 2432,
    "onnect": 2433,
    "genraldll": 2434,
    "\u2581cwindowsapppatchacgenraldll": 2435,
    "\u258114ec": 2436,
    "\u2581sleep30s": 2437,
    "\u2581aa03c": 2438,
    "reexe": 2439,
    "\u258114cdd8": 2440,
    "\u25813a4": 2441,
    "readerslexe": 2442,
    "\u2581152348": 2443,
    "cnt": 2444,
    "\u258114cff8": 2445,
    "\u25817ffdac00": 2446,
    "\u25811527": 2447,
    "340": 2448,
    "plugin": 2449,
    "204": 2450,
    "440": 2451,
    "\u2581dwindowssystem32s": 2452,
    "rmku": 2453,
    "iaam": 2454,
    "iesn": 2455,
    "drfco": 2456,
    "tykdd": 2457,
    "iesnrmku": 2458,
    "drfcoiaam": 2459,
    "tykddadata": 2460,
    "iesnrmkudrfcoiaam": 2461,
    "iesnrmkudrfcoiaamtykddadata": 2462,
    "ac8": 2463,
    "\u25817e604": 2464,
    "\u2581c5": 2465,
    "614": 2466,
    "ear": 2467,
    "\u25817e61a": 2468,
    "\u25813e0": 2469,
    "lin": 2470,
    "\u2581212": 2471,
    "\u25819be2e0": 2472,
    "tens": 2473,
    "\u258112f878": 2474,
    "ank": 2475,
    "\u25811036": 2476,
    "\u258112ee8c": 2477,
    "pct": 2478,
    "ito": 2479,
    "gn": 2480,
    "1dll": 2481,
    "\u258119a": 2482,
    "\u2581183": 2483,
    "\u25812cc": 2484,
    "\u2581cwindowsassemblygac": 2485,
    "lob": 2486,
    "\u25811c9": 2487,
    "\u258112ee74": 2488,
    "\u25811e7ead0": 2489,
    "\u258122f680": 2490,
    "\u258178c": 2491,
    "\u258114d788": 2492,
    "\u2581cpudetect": 2493,
    "\u25812920000": 2494,
    "medi": 2495,
    "\u2581207": 2496,
    "\u2581reader80h": 2497,
    "\u2581filescontentie57jxt46zl": 2498,
    "\u25811ac": 2499,
    "\u258122fa20": 2500,
    "ctmp": 2501,
    "\u25817f5b0": 2502,
    "lr": 2503,
    "\u2581e0ff3c": 2504,
    "\u2581e0ff98": 2505,
    "pow": 2506,
    "\u25811e7ea38": 2507,
    "\u25811e7ea28": 2508,
    "600": 2509,
    "\u258131": 2510,
    "\u2581280ec1c": 2511,
    "\u2581280ecfc": 2512,
    "\u258130e": 2513,
    "bmpexe": 2514,
    "bb0": 2515,
    "\u2581analy": 2516,
    "\u2581analyz": 2517,
    "\u25817f5d8": 2518,
    "\u25813d1": 2519,
    "dyn": 2520,
    "hy": 2521,
    "f88": 2522,
    "\u2581e1": 2523,
    "\u2581114d": 2524,
    "\u2581cwindowstempsc": 2525,
    "\u258120000": 2526,
    "2052": 2527,
    "ad4": 2528,
    "ldll": 2529,
    "dyndll": 2530,
    "osk": 2531,
    "\u25812d": 2532,
    "fe40": 2533,
    "\u25819999": 2534,
    "\u25817ffd700c": 2535,
    "\u2581o": 2536,
    "minim": 2537,
    "\u2581cprogramfilejs": 2538,
    "fyexe": 2539,
    "clsi": 2540,
    "103": 2541,
    "cntfyexe": 2542,
    "\u25815b": 2543,
    "uiexe": 2544,
    "\u258112f5f4": 2545,
    "\u25813625250": 2546,
    "mscor": 2547,
    "7f": 2548,
    "\u2581cdocume1adminlocals1temp39": 2549,
    "ross": 2550,
    "allo": 2551,
    "\u2581documents": 2552,
    "\u2581278": 2553,
    "hlpdll": 2554,
    "070": 2555,
    "oskrn": 2556,
    "ht": 2557,
    "esvc": 2558,
    "bcdeffedcba": 2559,
    "lan": 2560,
    "\u2581sleep28": 2561,
    "ession": 2562,
    "\u2581cprogramws232dll": 2563,
    "2f": 2564,
    "asp": 2565,
    "908": 2566,
    "\u2581cprogramws2helpdll": 2567,
    "7e": 2568,
    "\u258113f": 2569,
    "\u258112ef54": 2570,
    "tec": 2571,
    "\u2581d5": 2572,
    "fc0": 2573,
    "b88": 2574,
    "df0": 2575,
    "umm": 2576,
    "\u258173c": 2577,
    "oskrnlexe": 2578,
    "fe88": 2579,
    "informationdata": 2580,
    "age": 2581,
    "35a": 2582,
    "\u2581hkeycurrentusers15211176097108381707525159678991003classesclsi": 2583,
    "\u2581cwindowssystem32ntoskrnlexe": 2584,
    "\u2581251ea4": 2585,
    "\u2581exploreri": 2586,
    "d88": 2587,
    "tension": 2588,
    "v2": 2589,
    "\u2581101": 2590,
    "\u2581127c9c": 2591,
    "\u25818f4": 2592,
    "poi": 2593,
    "\u25819ff": 2594,
    "cache60": 2595,
    "dea": 2596,
    "\u258112f464": 2597,
    "\u2581un": 2598,
    "out": 2599,
    "\u2581294": 2600,
    "\u258112f5cc": 2601,
    "ummary": 2602,
    "ummaryinformationdata": 2603,
    "rk": 2604,
    "monito": 2605,
    "\u258112fb08": 2606,
    "\u258113e7ec": 2607,
    "\u258113e7c4": 2608,
    "epack": 2609,
    "d68": 2610,
    "\u2581228": 2611,
    "gu": 2612,
    "\u2581cwindowstempscs": 2613,
    "tao": 2614,
    "icb": 2615,
    "308": 2616,
    "3b": 2617,
    "layer": 2618,
    "de8": 2619,
    "ed0c": 2620,
    "\u2581q": 2621,
    "bk": 2622,
    "\u25811d1ead0": 2623,
    "\u2581c9": 2624,
    "rossfi": 2625,
    "\u2581hkeylocalmachinesystemcontrolset001controlsafebootminim": 2626,
    "\u2581firewall": 2627,
    "readme": 2628,
    "\u2581153a": 2629,
    "\u2581105": 2630,
    "logon": 2631,
    "\u2581232": 2632,
    "\u25813ec": 2633,
    "ebank": 2634,
    "ebankass": 2635,
    "icbcebankass": 2636,
    "\u258128c": 2637,
    "\u25811504": 2638,
    "icbcu": 2639,
    "\u2581138": 2640,
    "rcc": 2641,
    "mess": 2642,
    "protec": 2643,
    "808": 2644,
    "\u258196": 2645,
    "6d6": 2646,
    "\u25811d1ea28": 2647,
    "\u25811d1ea38": 2648,
    "740": 2649,
    "\u2581aaf": 2650,
    "ched": 2651,
    "\u25813e38b0": 2652,
    "\u2581cdocume1adminlocals1tempwin": 2653,
    "\u2581323": 2654,
    "\u258130fb": 2655,
    "\u2581124c": 2656,
    "protectexe": 2657,
    "v20": 2658,
    "zhudongfangyuexe": 2659,
    "\u2581cdocume1adminlocals1temp3": 2660,
    "\u2581wscntfyexe": 2661,
    "ff7c": 2662,
    "wicbcu": 2663,
    "wicbcukey": 2664,
    "607": 2665,
    "etrayexe": 2666,
    "\u25811836": 2667,
    "\u2581exploreriexploreexe": 2668,
    "paysecsvcexe": 2669,
    "\u2581hkeylocalmachinesystemcontrolset001controlsafebootminimal": 2670,
    "sdll": 2671,
    "\u2581cwindowssystem32drivers": 2672,
    "workbenchexe": 2673,
    "sapidll": 2674,
    "browserexe": 2675,
    "ount": 2676,
    "override": 2677,
    "\u2581a2": 2678,
    "\u2581antivirusoverride": 2679,
    "\u2581antivirusdisablenotify": 2680,
    "f1a4": 2681,
    "\u2581firewalldisablenotify": 2682,
    "pctrayexe": 2683,
    "\u258113c": 2684,
    "914": 2685,
    "\u2581updates": 2686,
    "588": 2687,
    "www": 2688,
    "ertm": 2689,
    "\u2581firewallo": 2690,
    "\u2581firewalloverride": 2691,
    "dkey": 2692,
    "f44": 2693,
    "dcertm": 2694,
    "dcertmcc": 2695,
    "lobal": 2696,
    "monitorcc": 2697,
    "dkeymonitorcc": 2698,
    "interfac": 2699,
    "\u2581be": 2700,
    "rstrayexe": 2701,
    "\u2581updatesdisablenotify": 2702,
    "rarexe": 2703,
    "taobrowserexe": 2704,
    "\u2581uac": 2705,
    "\u2581uacdisablenotify": 2706,
    "bc8": 2707,
    "552": 2708,
    "\u25817d": 2709,
    "\u2581aafbcc": 2710,
    "\u258160ff": 2711,
    "\u25811a1": 2712,
    "4d": 2713,
    "290": 2714,
    "bj": 2715,
    "217": 2716,
    "mg": 2717,
    "\u25813e4": 2718,
    "f00": 2719,
    "\u2581dwindowssystem32ms": 2720,
    "\u25816e": 2721,
    "\u25812e80000": 2722,
    "1060": 2723,
    "\u258112eae8": 2724,
    "\u258112eac0": 2725,
    "507": 2726,
    "\u2581conimeexe": 2727,
    "code": 2728,
    "a84": 2729,
    "ti": 2730,
    "\u2581288": 2731,
    "qdll": 2732,
    "\u2581cs": 2733,
    "\u258112e790": 2734,
    "points": 2735,
    "\u258130eff34": 2736,
    "owexe": 2737,
    "211": 2738,
    "e1d4": 2739,
    "338": 2740,
    "himg": 2741,
    "flash": 2742,
    "f60": 2743,
    "1c0": 2744,
    "ec8": 2745,
    "\u258112e7b8": 2746,
    "ef18": 2747,
    "\u2581cwindowssystem32net": 2748,
    "\u2581ca": 2749,
    "e47c": 2750,
    "fe70": 2751,
    "\u25812c4": 2752,
    "f40": 2753,
    "\u2581wmic": 2754,
    "944": 2755,
    "\u2581a81060": 2756,
    "\u258120060912": 2757,
    "5c4": 2758,
    "inet": 2759,
    "keexe": 2760,
    "so": 2761,
    "\u2581360trayexe": 2762,
    "\u2581cwindowssystem32msctfdll": 2763,
    "\u2581certdbhdc": 2764,
    "\u2581122": 2765,
    "\u258112dd": 2766,
    "\u2581certdnps3000": 2767,
    "miexe": 2768,
    "\u2581crossfi": 2769,
    "\u258127a": 2770,
    "bcat": 2771,
    "\u2581dnf": 2772,
    "bcatqdll": 2773,
    "get": 2774,
    "\u25812b": 2775,
    "f19c": 2776,
    "60000": 2777,
    "\u2581ctfmon": 2778,
    "\u2581ksafe": 2779,
    "\u2581icbcebankass": 2780,
    "v403031": 2781,
    "pad": 2782,
    "\u2581c0000": 2783,
    "\u25819ffaa": 2784,
    "mui": 2785,
    "acrord": 2786,
    "700": 2787,
    "\u25813e3ad8": 2788,
    "opoo": 2789,
    "ok": 2790,
    "\u258113f0cc": 2791,
    "istexe": 2792,
    "\u2581ksafesvc": 2793,
    "96f": 2794,
    "\u2581ksafetrayexe": 2795,
    "\u258112fb68": 2796,
    "\u25817ffd4": 2797,
    "\u2581se": 2798,
    "\u25811b0ead0": 2799,
    "\u25812a": 2800,
    "\u2581wmiconnect": 2801,
    "\u2581wmiconnectserver": 2802,
    "\u2581mwicbcukey": 2803,
    "386": 2804,
    "\u2581356": 2805,
    "9000": 2806,
    "\u2581filescontentie5m2jigpl2": 2807,
    "opoolexe": 2808,
    "framedyndll": 2809,
    "d08": 2810,
    "\u2581qqpcrt": 2811,
    "fe90": 2812,
    "\u2581284": 2813,
    "share": 2814,
    "\u25811b0ea38": 2815,
    "\u25811b0ea28": 2816,
    "\u2581roo": 2817,
    "\u258112da": 2818,
    "\u25812dc": 2819,
    "\u2581qqpctrayexe": 2820,
    "\u2581bas": 2821,
    "fe94": 2822,
    "rand": 2823,
    "\u2581qqprotectexe": 2824,
    "34b8": 2825,
    "\u258112ff60": 2826,
    "\u25815000": 2827,
    "\u25811e7e238": 2828,
    "\u25811e7e208": 2829,
    "30000": 2830,
    "vv": 2831,
    "ard": 2832,
    "\u2581exe": 2833,
    "\u2581ravmondexe": 2834,
    "lanman": 2835,
    "\u2581rstrayexe": 2836,
    "\u2581taobrowserexe": 2837,
    "fa8": 2838,
    "1htm": 2839,
    "\u2581wowexe": 2840,
    "\u2581114d3": 2841,
    "ph": 2842,
    "\u2581wdcertmcc": 2843,
    "\u2581wdkeymonitorcc": 2844,
    "baa": 2845,
    "e200": 2846,
    "523": 2847,
    "rdll": 2848,
    "vior": 2849,
    "beha": 2850,
    "behavior": 2851,
    "babc": 2852,
    "\u2581344": 2853,
    "\u2581b1d8": 2854,
    "\u2581cwindowssystem32ra": 2855,
    "\u2581109": 2856,
    "\u258112aa": 2857,
    "gntexe": 2858,
    "1cc": 2859,
    "mswin": 2860,
    "core": 2861,
    "\u2581summaryinformationdata": 2862,
    "lect": 2863,
    "fe8": 2864,
    "spoo": 2865,
    "\u2581124f99": 2866,
    "broth": 2867,
    "fc4": 2868,
    "\u2581720": 2869,
    "\u258112fb40": 2870,
    "f918": 2871,
    "riched": 2872,
    "104": 2873,
    "ive": 2874,
    "fe68": 2875,
    "ck": 2876,
    "148": 2877,
    "f04": 2878,
    "sysq": 2879,
    "be0": 2880,
    "\u25811538": 2881,
    "f78": 2882,
    "many": 2883,
    "\u25811526": 2884,
    "\u2581toomany": 2885,
    "eclass": 2886,
    "fc94": 2887,
    "yg": 2888,
    "b0000": 2889,
    "waremicrosoftwindowscurrentversionrun": 2890,
    "mount": 2891,
    "\u25817d5a": 2892,
    "\u25817d5a34b8": 2893,
    "tat": 2894,
    "zip": 2895,
    "\u258115d": 2896,
    "b0c": 2897,
    "94c8": 2898,
    "mountpoints": 2899,
    "waremicrosoftwindowscurrentversionexplorermountpoints": 2900,
    "9bc": 2901,
    "e1d0": 2902,
    "\u2581baseclass": 2903,
    "stre": 2904,
    "mscorlib": 2905,
    "\u2581global": 2906,
    "198": 2907,
    "17c0": 2908,
    "\u25811fc": 2909,
    "dcafeefac0016": 2910,
    "\u25817f3": 2911,
    "mit": 2912,
    "\u258145": 2913,
    "aspx": 2914,
    "\u25813f8": 2915,
    "\u2581path": 2916,
    "00a710b8": 2917,
    "\u25817ffd400c": 2918,
    "250": 2919,
    "\u258112fd": 2920,
    "tart": 2921,
    "kernel": 2922,
    "hdata": 2923,
    "524": 2924,
    "1cf": 2925,
    "f908": 2926,
    "d6964": 2927,
    "\u258175cd6964": 2928,
    "\u2581bd": 2929,
    "1600": 2930,
    "f08": 2931,
    "184": 2932,
    "\u2581f1": 2933,
    "\u2581icbcebankassistexe": 2934,
    "\u2581cachepath": 2935,
    "20c": 2936,
    "\u25813e5": 2937,
    "\u2581800": 2938,
    "325": 2939,
    "1726": 2940,
    "\u258112f83c": 2941,
    "11e6": 2942,
    "\u25814130": 2943,
    "erscom": 2944,
    "rbroth": 2945,
    "rbrotherscom": 2946,
    "miniexe": 2947,
    "cy": 2948,
    "6e": 2949,
    "limit": 2950,
    "tcim": 2951,
    "tcimv2": 2952,
    "205c": 2953,
    "sogou": 2954,
    "riliminiexe": 2955,
    "806d6": 2956,
    "35a11e6": 2957,
    "806d61726": 2958,
    "35a11e6babc": 2959,
    "35a11e6babc806d61726": 2960,
    "35a11e6babc806d6172696f": 2961,
    "\u2581cdocume1adminlocals1tempnsu": 2962,
    "205cfc94": 2963,
    "waremicrosoftwindowscurrentversionexplorermountpoints205cfc94": 2964,
    "358": 2965,
    "\u2581cwindowssystem32s": 2966,
    "oexe": 2967,
    "\u2581112": 2968,
    "\u2581cachelimit": 2969,
    "dcafeefac0017": 2970,
    "\u2581mwicbcukeyuiexe": 2971,
    "7d": 2972,
    "\u2581230": 2973,
    "\u25814e2": 2974,
    "randcode": 2975,
    "aspxmm": 2976,
    "aspxmm0000": 2977,
    "mmcountaspxmm0000": 2978,
    "410": 2979,
    "\u258112e9": 2980,
    "\u25811640": 2981,
    "lf": 2982,
    "\u258132c": 2983,
    "cquery": 2984,
    "\u2581wmiexe": 2985,
    "\u2581wmiexecquery": 2986,
    "ivrbrotherscom": 2987,
    "d44": 2988,
    "\u2581readerslexe": 2989,
    "\u2581wql": 2990,
    "\u2581toomanybehavior": 2991,
    "540": 2992,
    "\u2581201607": 2993,
    "\u2581ts": 2994,
    "58c": 2995,
    "\u258112d7": 2996,
    "\u2581195": 2997,
    "\u25817ffdc00c": 2998,
    "\u2581131600": 2999,
    "\u2581cautoexe": 3000,
    "\u258112d6": 3001,
    "\u2581200610": 3002,
    "\u2581cautoexecbat": 3003,
    "\u2581312": 3004,
    "\u25811e2": 3005,
    "\u2581b9": 3006,
    "\u2581296": 3007,
    "eml": 3008,
    "\u25817ffd800c": 3009,
    "50727": 3010,
    "\u2581tsopoolexe": 3011,
    "\u258112edc0": 3012,
    "\u2581backupexe": 3013,
    "fec": 3014,
    "\u258115e": 3015,
    "msi": 3016,
    "\u258113d4a0": 3017,
    "\u258113d43c": 3018,
    "msvc": 3019,
    "de6": 3020,
    "d40": 3021,
    "\u2581he": 3022,
    "\u25812b7": 3023,
    "\u25811002": 3024,
    "\u2581htt": 3025,
    "\u2581aliimexe": 3026,
    "imsc": 3027,
    "\u25811588": 3028,
    "\u25811d1e208": 3029,
    "\u25811d1e238": 3030,
    "\u2581win32": 3031,
    "cfgdll": 3032,
    "\u2581settingsadminmy": 3033,
    "\u25811e9": 3034,
    "ction": 3035,
    "\u25813f0": 3036,
    "\u2581crossfireexe": 3037,
    "\u25811b9": 3038,
    "wm": 3039,
    "\u25818f4ee0": 3040,
    "\u2581dnfexe": 3041,
    "\u25813e1f8b0": 3042,
    "\u25813e1f878": 3043,
    "f354": 3044,
    "installer": 3045,
    "998": 3046,
    "\u2581ksafeexe": 3047,
    "\u25811604": 3048,
    "\u25813d8": 3049,
    "readmeeml": 3050,
    "station": 3051,
    "access": 3052,
    "544": 3053,
    "\u2581cwindowssystem32ws232dll": 3054,
    "648": 3055,
    "\u25814081cf": 3056,
    "xi": 3057,
    "ffd8": 3058,
    "be8": 3059,
    "\u2581ksafesvcexe": 3060,
    "\u258112e974": 3061,
    "\u2581ms": 3062,
    "\u25811576": 3063,
    "\u2581rootcimv2": 3064,
    "datamicrosoft": 3065,
    "\u258112f81c": 3066,
    "\u2581ctfmonexe": 3067,
    "\u2581cwindowssystem32ws2helpdll": 3068,
    "\u2581work": 3069,
    "\u258132fe4": 3070,
    "\u2581lanman": 3071,
    "238": 3072,
    "basedll": 3073,
    "qhimg": 3074,
    "\u25815fd": 3075,
    "qhimgcom": 3076,
    "ified": 3077,
    "\u2581sm": 3078,
    "\u2581qqexe": 3079,
    "5b000": 3080,
    "\u25811564": 3081,
    "crypt": 3082,
    "\u2581qqpcrtpexe": 3083,
    "google": 3084,
    "\u2581155": 3085,
    "workstation": 3086,
    "\u2581select": 3087,
    "ntra": 3088,
    "\u258118313": 3089,
    "hnet": 3090,
    "\u25811ff8": 3091,
    "\u25811708": 3092,
    "isto": 3093,
    "324": 3094,
    "\u258123c": 3095,
    "970": 3096,
    "b20": 3097,
    "e48": 3098,
    "\u2581298": 3099,
    "nfhy": 3100,
    "vvnfhy": 3101,
    "\u2581from": 3102,
    "jjn": 3103,
    "\u2581filescontentie5vvnfhy": 3104,
    "7a5c": 3105,
    "hnetcfgdll": 3106,
    "full": 3107,
    "\u2581120c": 3108,
    "from": 3109,
    "rkjjn": 3110,
    "rkjjnkeexe": 3111,
    "\u2581reader80hrkjjnkeexe": 3112,
    "\u25811652": 3113,
    "\u2581wdcertmccbexe": 3114,
    "ebclient": 3115,
    "ebiesnrmkudrfcoiaamtykddadata": 3116,
    "mso": 3117,
    "b44": 3118,
    "\u258175ee": 3119,
    "2a": 3120,
    "\u2581webclient": 3121,
    "\u25811668": 3122,
    "fa0": 3123,
    "\u258175ee17c0": 3124,
    "\u2581j": 3125,
    "earch": 3126,
    "\u25813a": 3127,
    "fe58": 3128,
    "\u2581cwindowssystem32cscriptexelocal": 3129,
    "ntranet": 3130,
    "\u2581d9": 3131,
    "\u2581picture": 3132,
    "softcom": 3133,
    "\u25817ffe0000": 3134,
    "\u25814e25b000": 3135,
    "\u25811ff89000": 3136,
    "\u25812e": 3137,
    "\u25812dd": 3138,
    "\u2581ravmonexe": 3139,
    "wsoc": 3140,
    "\u258135": 3141,
    "270": 3142,
    "\u2581fe00": 3143,
    "erex": 3144,
    "sw": 3145,
    "\u25813cc": 3146,
    "exelocal": 3147,
    "\u2581lanmanworkstation": 3148,
    "onfig": 3149,
    "db614": 3150,
    "\u25815fddb614": 3151,
    "18120": 3152,
    "ids": 3153,
    "hao": 3154,
    "\u258112e650": 3155,
    "30c": 3156,
    "2d": 3157,
    "e18": 3158,
    "\u2581cdocume1adminlocals1temp39c": 3159,
    "\u258112f76c": 3160,
    "\u258122c": 3161,
    "\u258112ad": 3162,
    "\u25819be6ac": 3163,
    "\u25819be6d4": 3164,
    "87": 3165,
    "url": 3166,
    "\u258157": 3167,
    "ff4": 3168,
    "datamicrosoftrac": 3169,
    "fe9c": 3170,
    "classified": 3171,
    "\u258112f860": 3172,
    "\u258140000": 3173,
    "withprog": 3174,
    "withprogids": 3175,
    "\u258128e0000": 3176,
    "\u25811684": 3177,
    "stexe": 3178,
    "v4030319": 3179,
    "\u258114d7": 3180,
    "\u25811888": 3181,
    "tepad": 3182,
    "fonts": 3183,
    "\u2581help": 3184,
    "\u25811752": 3185,
    "\u2581238": 3186,
    "240": 3187,
    "istory": 3188,
    "exts": 3189,
    "\u25813f4": 3190,
    "fun": 3191,
    "\u25811740": 3192,
    "\u258112ed98": 3193,
    "erextension": 3194,
    "nw": 3195,
    "\u2581860": 3196,
    "\u2581404": 3197,
    "\u2581a7": 3198,
    "d1tmp": 3199,
    "924d2": 3200,
    "5i": 3201,
    "\u258112f794": 3202,
    "\u25812d4": 3203,
    "office120": 3204,
    "\u2581databaidu": 3205,
    "messeng": 3206,
    "\u258112e94c": 3207,
    "6c0": 3208,
    "messengerextension": 3209,
    "\u2581datamicrosoftmessengerextension": 3210,
    "ses": 3211,
    "\u258112e61c": 3212,
    "1934": 3213,
    "dextexe": 3214,
    "\u2581ntqueryfull": 3215,
    "\u2581ntqueryfullattributesfile": 3216,
    "\u25811764": 3217,
    "icon": 3218,
    "\u25811696": 3219,
    "\u2581proxy": 3220,
    "290a0": 3221,
    "\u25814ad290a0": 3222,
    "\u25811510": 3223,
    "adc": 3224,
    "\u2581aliworkbenchexe": 3225,
    "\u2581367": 3226,
    "sad": 3227,
    "\u2581cwindowssystem32xdccprogramsacrord": 3228,
    "waremicrosoftoffice120": 3229,
    "sp2": 3230,
    "\u2581alipaysecsvcexe": 3231,
    "\u25811728": 3232,
    "\u258112e678": 3233,
    "fd6c": 3234,
    "118": 3235,
    "randcode0000": 3236,
    "b19c": 3237,
    "\u2581cwindowssystem32com": 3238,
    "2c4": 3239,
    "shared": 3240,
    "608": 3241,
    "\u25812a8": 3242,
    "wdextexe": 3243,
    "\u25811880": 3244,
    "002": 3245,
    "ffc": 3246,
    "\u2581cprogra1": 3247,
    "\u2581certdbhdcicbcexe": 3248,
    "cert": 3249,
    "130": 3250,
    "28c": 3251,
    "\u2581274ef60": 3252,
    "pd": 3253,
    "\u2581certdnps3000icbcexe": 3254,
    "\u2581appdata": 3255,
    "\u25813c0": 3256,
    "5d": 3257,
    "51c": 3258,
    "\u25811784": 3259,
    "\u25817ffdcc00": 3260,
    "hx5": 3261,
    "\u258112f43c": 3262,
    "x86": 3263,
    "tu5i": 3264,
    "hx5tu5i": 3265,
    "\u25813f1": 3266,
    "\u2581filescontentie5hx5tu5i": 3267,
    "\u2581199": 3268,
    "\u25811804": 3269,
    "\u25812b0": 3270,
    "sp2resdll": 3271,
    "\u25811796": 3272,
    "\u25815924d2": 3273,
    "\u2581f20": 3274,
    "\u258112e7c4": 3275,
    "ngk": 3276,
    "\u25811868": 3277,
    "\u25811824": 3278,
    "updatem": 3279,
    "\u258130c": 3280,
    "\u2581datamicrosoftmessengerextensionwdextexe": 3281,
    "\u2581151a": 3282,
    "\u25811900": 3283,
    "\u25814e5f628": 3284,
    "6b24": 3285,
    "\u25811848": 3286,
    "fe0": 3287,
    "pass": 3288,
    "sapi32dll": 3289,
    "dc8": 3290,
    "wudr": 3291,
    "\u2581filescontentie5vvnfhy04": 3292,
    "wdll": 3293,
    "\u25812bc": 3294,
    "\u258111f": 3295,
    "edll": 3296,
    "yoj": 3297,
    "\u25812960000": 3298,
    "99c": 3299,
    "\u2581oz": 3300,
    "lrto": 3301,
    "d1qw": 3302,
    "p0baa": 3303,
    "\u2581ozngk": 3304,
    "yojd1qw": 3305,
    "lrtowudr": 3306,
    "p0baayojd1qw": 3307,
    "\u2581ozngklrtowudr": 3308,
    "p0baayojd1qwhdata": 3309,
    "\u2581ozngklrtowudrp0baayojd1qwhdata": 3310,
    "\u2581filejs": 3311,
    "\u2581systemexe": 3312,
    "\u2581114d2": 3313,
    "outlo": 3314,
    "\u2581a1c": 3315,
    "\u2581cclassified": 3316,
    "d624": 3317,
    "\u25811645": 3318,
    "708": 3319,
    "5c8": 3320,
    "macro": 3321,
    "\u2581sleep3": 3322,
    "\u25812e0": 3323,
    "\u258192": 3324,
    "\u258113f4": 3325,
    "\u25811816": 3326,
    "\u2581114d1b8": 3327,
    "adll": 3328,
    "icro": 3329,
    "\u258128a": 3330,
    "powers": 3331,
    "icrosoftcom": 3332,
    "updatemicrosoftcom": 3333,
    "\u2581314": 3334,
    "e089": 3335,
    "cd": 3336,
    "\u2581cdocume1adminlocals1tempsysq": 3337,
    "\u2581hkeylocalmachinesoftwareclassesinterfac": 3338,
    "2b8c": 3339,
    "el": 3340,
    "winrarexe": 3341,
    "\u2581shell32dll220": 3342,
    "561934": 3343,
    "b77a5c": 3344,
    "b77a5c561934": 3345,
    "\u2581cwindowssystem32drivers32": 3346,
    "\u2581300": 3347,
    "\u25813c8": 3348,
    "80c": 3349,
    "b77a5c561934e089": 3350,
    "gif": 3351,
    "70000": 3352,
    "\u2581fileswinrarwinrarexe": 3353,
    "nli": 3354,
    "\u2581rcx": 3355,
    "\u2581win32process": 3356,
    "extdll": 3357,
    "\u25819a": 3358,
    "apimswin": 3359,
    "lsdll": 3360,
    "ui": 3361,
    "\u2581517": 3362,
    "\u2581updatemicrosoftcom": 3363,
    "rome": 3364,
    "7c8": 3365,
    "\u2581dwindowssystem32r": 3366,
    "\u2581dprogram": 3367,
    "\u2581wdkeymonitorccbexe": 3368,
    "b6c": 3369,
    "\u2581126b24": 3370,
    "\u258153": 3371,
    "\u258112fce8": 3372,
    "\u258172c": 3373,
    "ams": 3374,
    "sf": 3375,
    "\u2581datasunjavadeploymentcache60": 3376,
    "upd1tmp": 3377,
    "dio": 3378,
    "\u2581171": 3379,
    "baidus": 3380,
    "\u25813dd": 3381,
    "regist": 3382,
    "tepadexe": 3383,
    "\u258112e7ec": 3384,
    "\u258112a5": 3385,
    "288": 3386,
    "\u2581zhudongfangyuexe": 3387,
    "36e": 3388,
    "\u2581kernel": 3389,
    "e88": 3390,
    "3cc": 3391,
    "790": 3392,
    "\u2581cdocume1adminlocals1tempupd1tmp": 3393,
    "\u2581778": 3394,
    "\u2581a6": 3395,
    "doc": 3396,
    "game": 3397,
    "\u2581fd": 3398,
    "\u2581f2": 3399,
    "\u2581216": 3400,
    "54c": 3401,
    "here": 3402,
    "\u25814239c0": 3403,
    "\u25812d8": 3404,
    "inetdll": 3405,
    "\u25813d0": 3406,
    "\u2581280f354": 3407,
    "\u25813b0": 3408,
    "d12": 3409,
    "rj": 3410,
    "\u2581234": 3411,
    "\u2581322": 3412,
    "384": 3413,
    "\u25817f36c": 3414,
    "\u2581sleep24": 3415,
    "\u2581where": 3416,
    "\u2581114d714": 3417,
    "d0c": 3418,
    "\u258146": 3419,
    "b50": 3420,
    "\u2581cdocume1adminlocals1tempnsutmp": 3421,
    "\u2581cwindowssystem32cryp": 3422,
    "\u2581224": 3423,
    "ff6": 3424,
    "\u2581333": 3425,
    "\u2581414": 3426,
    "1s": 3427,
    "\u25813ad": 3428,
    "\u2581dwindowssystem32ole": 3429,
    "sadhlpdll": 3430,
    "essionid": 3431,
    "\u25817fe20": 3432,
    "9e8": 3433,
    "df7c4": 3434,
    "e40": 3435,
    "5c0": 3436,
    "\u25811002b19c": 3437,
    "304": 3438,
    "ebfc": 3439,
    "\u2581c2": 3440,
    "\u2581ba": 3441,
    "\u258111523": 3442,
    "bf7c4": 3443,
    "\u25812fc": 3444,
    "20dll": 3445,
    "\u2581f94c8": 3446,
    "bc0": 3447,
    "\u2581b1e": 3448,
    "downloader": 3449,
    "pub": 3450,
    "\u2581127c8c": 3451,
    "\u25817edc4": 3452,
    "\u2581cwindowsfonts": 3453,
    "kg": 3454,
    "streams": 3455,
    "3f2c0": 3456,
    "\u2581reader80index": 3457,
    "f864": 3458,
    "\u258112f23c": 3459,
    "\u25812ec": 3460,
    "\u258140b0": 3461,
    "yx": 3462,
    "\u2581e6": 3463,
    "psapidll": 3464,
    "7c00": 3465,
    "b80": 3466,
    "\u2581filesjavajre7b": 3467,
    "\u25812950000": 3468,
    "rv": 3469,
    "\u2581127c50": 3470,
    "\u25814e5f620": 3471,
    "\u2581127cb4": 3472,
    "178": 3473,
    "e44": 3474,
    "\u25811e7e20c": 3475,
    "\u2581125": 3476,
    "\u258179": 3477,
    "fbf0": 3478,
    "ai": 3479,
    "\u2581cdocume1adminlocals1temptmp2tmp": 3480,
    "d69c": 3481,
    "uninstallctmp": 3482,
    "\u2581cwindowstempuninstallctmp": 3483,
    "988": 3484,
    "\u258112df": 3485,
    "0000004": 3486,
    "\u2581106": 3487,
    "\u2581sleep300s": 3488,
    "\u25817fb6c": 3489,
    "ac4": 3490,
    "\u25812f8": 3491,
    "\u2581cprogramv": 3492,
    "\u25817e5": 3493,
    "tatus": 3494,
    "13a": 3495,
    "size": 3496,
    "image": 3497,
    "\u2581filescontentie5hx5tu5i4": 3498,
    "\u25812c0": 3499,
    "fexe": 3500,
    "\u258127c2b8c": 3501,
    "\u25811831311": 3502,
    "uexe": 3503,
    "\u2581148198": 3504,
    "filesi": 3505,
    "\u258112f8c": 3506,
    "2html": 3507,
    "\u2581104de": 3508,
    "\u258112a514": 3509,
    "riched20dll": 3510,
    "00000045a": 3511,
    "dcafeefac001600000045a": 3512,
    "114": 3513,
    "\u258112d1": 3514,
    "a40": 3515,
    "servicepack": 3516,
    "\u2581c6": 3517,
    "aloc": 3518,
    "\u2581namedpipes": 3519,
    "688": 3520,
    "\u25812a0": 3521,
    "9s": 3522,
    "\u25817fb78": 3523,
    "\u2581d1": 3524,
    "\u2581464": 3525,
    "\u2581222": 3526,
    "waremicrosoftwindowscurrentversionexplorerstreams": 3527,
    "tar": 3528,
    "190": 3529,
    "\u258110a0": 3530,
    "\u25811636": 3531,
    "arent": 3532,
    "79a": 3533,
    "\u25811480c0": 3534,
    "c5c": 3535,
    "c9": 3536,
    "ingset": 3537,
    "\u2581qebiesnrmkudrfcoiaamtykddadata": 3538,
    "msil": 3539,
    "\u258186": 3540,
    "\u25817fe90": 3541,
    "\u25812b7ff34": 3542,
    "\u258112aa20": 3543,
    "help": 3544,
    "\u258112a940": 3545,
    "cdll": 3546,
    "\u2581111ffd8": 3547,
    "\u2581shareali": 3548,
    "fbf4": 3549,
    "vd": 3550,
    "\u25817fe94": 3551,
    "pt": 3552,
    "\u2581cwindowssystem32setupapidll": 3553,
    "\u258110fe47c": 3554,
    "\u2581processid": 3555,
    "\u2581usermodetime": 3556,
    "\u2581parent": 3557,
    "\u2581kernelmodetime": 3558,
    "\u2581sessionid": 3559,
    "ingsetsize": 3560,
    "\u2581workingsetsize": 3561,
    "\u2581threadcount": 3562,
    "\u2581csname": 3563,
    "a44": 3564,
    "processid": 3565,
    "\u2581parentprocessid": 3566,
    "\u258110a01d4": 3567,
    "\u25812aa": 3568,
    "f58": 3569,
    "kin": 3570,
    "yi": 3571,
    "\u2581e5": 3572,
    "ffffa": 3573,
    "nums": 3574,
    "ffffabcdeffedcba": 3575,
    "\u2581dd3d68": 3576,
    "\u25815000220": 3577,
    "ctf": 3578,
    "\u2581sleep27": 3579,
    "\u2581cwindowsservicepack": 3580,
    "dule": 3581,
    "cm": 3582,
    "ervicess": 3583,
    "00000079a": 3584,
    "dcafeefac001700000079a": 3585,
    "\u2581enums": 3586,
    "ervicesstatus": 3587,
    "\u2581enumservicesstatus": 3588,
    "\u258110fe504": 3589,
    "ervices": 3590,
    "\u2581notepadexe": 3591,
    "\u2581129": 3592,
    "ci": 3593,
    "ff7c4": 3594,
    "\u25812adff5c": 3595,
    "\u2581280e3d4": 3596,
    "\u25812adfe40": 3597,
    "ni": 3598,
    "\u25813c4": 3599,
    "5s": 3600,
    "\u2581dd3d28": 3601,
    "\u258114ea68": 3602,
    "\u2581dd3f90": 3603,
    "mmcount1htm": 3604,
    "\u258134de6": 3605,
    "\u2581cprogramu": 3606,
    "3c4": 3607,
    "one": 3608,
    "\u258180readerhowtoch": 3609,
    "go": 3610,
    "1a8": 3611,
    "ea8": 3612,
    "\u2581crac": 3613,
    "\u25815b23": 3614,
    "9exe": 3615,
    "ee8": 3616,
    "\u2581192": 3617,
    "sy": 3618,
    "exem1": 3619,
    "plus": 3620,
    "224": 3621,
    "be4": 3622,
    "\u25815b23a9": 3623,
    "\u2581329": 3624,
    "\u2581svchostexem": 3625,
    "f0c": 3626,
    "\u2581123c18": 3627,
    "\u2581123c70": 3628,
    "bdm": 3629,
    "990": 3630,
    "\u2581cprograme": 3631,
    "\u2581enumservicesstatusa": 3632,
    "\u25814015": 3633,
    "type": 3634,
    "\u25813fc": 3635,
    "\u258112d0": 3636,
    "\u2581202": 3637,
    "\u2581smssexe": 3638,
    "\u25815b4": 3639,
    "\u2581winlogon": 3640,
    "7s": 3641,
    "\u2581213": 3642,
    "\u2581280e4b4": 3643,
    "174": 3644,
    "powershell": 3645,
    "alocal": 3646,
    "fileexts": 3647,
    "waremicrosoftwindowscurrentversionexplorerfileexts": 3648,
    "\u2581147ac8": 3649,
    "ko": 3650,
    "\u2581cwindowsservicepackfilesi": 3651,
    "v2050727": 3652,
    "312": 3653,
    "ration": 3654,
    "\u2581116": 3655,
    "e4c8": 3656,
    "fc5c": 3657,
    "\u258114ec88": 3658,
    "\u2581avgntexe": 3659,
    "t0": 3660,
    "\u25812b8": 3661,
    "\u2581cc0010": 3662,
    "9c4": 3663,
    "\u2581b7": 3664,
    "gid": 3665,
    "e4a0": 3666,
    "\u25813ac": 3667,
    "\u2581usersdocuments": 3668,
    "dldll": 3669,
    "chrome": 3670,
    "\u2581458": 3671,
    "\u2581cwindowssystem32wininetdll": 3672,
    "\u25813b4": 3673,
    "ade": 3674,
    "\u2581httpp": 3675,
    "f74": 3676,
    "\u2581b1d4": 3677,
    "\u2581crackexe": 3678,
    "\u25817ffd7c00": 3679,
    "328": 3680,
    "ache": 3681,
    "datarac": 3682,
    "dnsapidll": 3683,
    "\u2581vi": 3684,
    "idt": 3685,
    "t01": 3686,
    "\u2581f7": 3687,
    "784": 3688,
    "\u2581op": 3689,
    "\u2581320": 3690,
    "584": 3691,
    "b4c": 3692,
    "228": 3693,
    "\u25811647": 3694,
    "\u2581aa388": 3695,
    "fd6": 3696,
    "tt": 3697,
    "\u2581filessogou": 3698,
    "af8": 3699,
    "\u2581c000013a": 3700,
    "de7c": 3701,
    "\u25811c5fce4": 3702,
    "\u25811c5fd04": 3703,
    "\u258116a0000": 3704,
    "\u2581418": 3705,
    "\u2581cwindowssystem32in": 3706,
    "act": 3707,
    "\u2581159": 3708,
    "\u25811d1e20c": 3709,
    "\u2581cprogramw": 3710,
    "6a0": 3711,
    "ebat": 3712,
    "d84": 3713,
    "pdb": 3714,
    "dbg": 3715,
    "\u2581services": 3716,
    "95d8": 3717,
    "\u2581filesjavajre7bin": 3718,
    "\u2581170e95c": 3719,
    "\u2581310": 3720,
    "\u2581cwindowssystem32netapi32dll": 3721,
    "fbdc": 3722,
    "\u2581680": 3723,
    "\u2581113": 3724,
    "\u25811e3": 3725,
    "181206": 3726,
    "adownload": 3727,
    "f8e8": 3728,
    "\u25812bd": 3729,
    "fd68": 3730,
    "self": 3731,
    "\u2581shared": 3732,
    "estart": 3733,
    "\u2581ae": 3734,
    "3c0": 3735,
    "lien": 3736,
    "\u2581stu": 3737,
    "\u2581datadownload": 3738,
    "lla": 3739,
    "\u2581analyzestart": 3740,
    "asn": 3741,
    "bin": 3742,
    "f48": 3743,
    "\u2581msctf": 3744,
    "asn1dll": 3745,
    "\u258112f760": 3746,
    "kies": 3747,
    "\u258112f430": 3748,
    "948": 3749,
    "\u25813625250217": 3750,
    "\u2581msctfshared": 3751,
    "sql": 3752,
    "model": 3753,
    "\u2581b2c": 3754,
    "\u2581com": 3755,
    "win7": 3756,
    "\u258112f788": 3757,
    "lsid": 3758,
    "303": 3759,
    "\u2581filescontentie57jxt46zlmmcount1htm": 3760,
    "\u2581145": 3761,
    "9cc": 3762,
    "ff50": 3763,
    "\u25814a4": 3764,
    "\u25814000410": 3765,
    "identi": 3766,
    "\u2581a8a84": 3767,
    "34c": 3768,
    "\u258113ef": 3769,
    "d8c": 3770,
    "704": 3771,
    "\u258113f2": 3772,
    "\u2581cprogramj": 3773,
    "\u25812f4": 3774,
    "\u2581cprogramg": 3775,
    "\u25814f4": 3776,
    "infodll": 3777,
    "\u2581ac0000": 3778,
    "002be": 3779,
    "\u2581211": 3780,
    "qm": 3781,
    "cts": 3782,
    "\u258128f0000": 3783,
    "24c": 3784,
    "\u258121769": 3785,
    "\u2581c0100080": 3786,
    "dk": 3787,
    "\u2581400000": 3788,
    "\u2581cwindowssystem32windows": 3789,
    "\u2581540": 3790,
    "a28": 3791,
    "b68": 3792,
    "60dll": 3793,
    "5f0": 3794,
    "\u25813f7": 3795,
    "9012": 3796,
    "71e0": 3797,
    "511": 3798,
    "1113": 3799,
    "\u2581734": 3800,
    "96c": 3801,
    "\u2581440": 3802,
    "\u2581738": 3803,
    "\u2581740": 3804,
    "\u2581unpack": 3805,
    "\u2581d2ff34": 3806,
    "qbat": 3807,
    "int": 3808,
    "\u2581152440": 3809,
    "6tmp": 3810,
    "\u2581unpackself": 3811,
    "210": 3812,
    "\u2581308": 3813,
    "\u258187": 3814,
    "\u25811722": 3815,
    "edf0": 3816,
    "3e8": 3817,
    "\u2581280ec34": 3818,
    "\u2581280ed14": 3819,
    "\u2581280ec58": 3820,
    "\u2581280ed38": 3821,
    "bdc": 3822,
    "\u25811be": 3823,
    "mprdll": 3824,
    "\u25811456": 3825,
    "e2tmp": 3826,
    "\u25814271e0": 3827,
    "\u25812ffff": 3828,
    "a00": 3829,
    "\u2581cwindowssystem32windowspowershell": 3830,
    "\u2581304": 3831,
    "\u258114fc30": 3832,
    "b04": 3833,
    "\u258120061113": 3834,
    "000ff1c": 3835,
    "\u25811da": 3836,
    "a38": 3837,
    "\u2581www": 3838,
    "lish": 3839,
    "lsass": 3840,
    "5html": 3841,
    "\u25811de": 3842,
    "bhtml": 3843,
    "v10": 3844,
    "\u258120160707": 3845,
    "\u258112e560": 3846,
    "b58": 3847,
    "53f000ff53f000ff": 3848,
    "\u25813b0000": 3849,
    "jexe": 3850,
    "hostexe": 3851,
    "\u2581of": 3852,
    "resi": 3853,
    "\u2581170e9e4": 3854,
    "\u2581b1d": 3855,
    "\u25811524": 3856,
    "templ": 3857,
    "\u25811ad": 3858,
    "d0d": 3859,
    "\u2581124f908": 3860,
    "\u2581124f918": 3861,
    "\u2581124f910": 3862,
    "\u258112d504": 3863,
    "e10": 3864,
    "b90": 3865,
    "\u2581280ec04": 3866,
    "\u25812008": 3867,
    "ec24": 3868,
    "\u258112d4e4": 3869,
    "\u2581databaidubaidu": 3870,
    "\u2581x4": 3871,
    "\u2581378": 3872,
    "ut": 3873,
    "openwithprogids": 3874,
    "\u2581cwindowssystem32windowspowershellv10": 3875,
    "\u2581181": 3876,
    "fb8c": 3877,
    "spe": 3878,
    "\u2581cwindowssystem32conimeexelocal": 3879,
    "\u2581aaff": 3880,
    "\u258112ff80": 3881,
    "\u2581al": 3882,
    "\u2581dff": 3883,
    "\u2581b2c250": 3884,
    "\u2581e9": 3885,
    "\u25812f0": 3886,
    "\u258137af2c8": 3887,
    "\u2581280ece4": 3888,
    "\u2581280ed20": 3889,
    "\u2581280ec40": 3890,
    "\u2581207ef60": 3891,
    "ae8": 3892,
    "\u25812a4": 3893,
    "f2c": 3894,
    "\u258125a": 3895,
    "f940": 3896,
    "\u2581filesjavajre6b": 3897,
    "xexe": 3898,
    "\u258137af2c0": 3899,
    "xpuser": 3900,
    "3f8": 3901,
    "\u2581x10": 3902,
    "144": 3903,
    "\u2581x20": 3904,
    "\u2581x30": 3905,
    "it": 3906,
    "\u2581x40": 3907,
    "bases": 3908,
    "\u2581cdocume1adminlocals1tempnsw": 3909,
    "b1d0": 3910,
    "d00": 3911,
    "\u258112e558": 3912,
    "\u2581162": 3913,
    "test": 3914,
    "\u2581f5": 3915,
    "resilien": 3916,
    "\u258112c4": 3917,
    "\u25813bc": 3918,
    "937": 3919,
    "\u25812860000": 3920,
    "hemes": 3921,
    "\u2581e1ff44": 3922,
    "10318": 3923,
    "32511c": 3924,
    "ebfc108": 3925,
    "002be10318": 3926,
    "32511cebfc108": 3927,
    "32511cebfc108002be10318": 3928,
    "\u25817ed3c": 3929,
    "\u2581fe": 3930,
    "\u25814e7f6e0": 3931,
    "\u25814e7f6b8": 3932,
    "\u25811d9": 3933,
    "f1f4": 3934,
    "ed0": 3935,
    "xpuser914": 3936,
    "\u2581pro": 3937,
    "bd8": 3938,
    "\u25811831311552": 3939,
    "waremicrosoftoffice120word": 3940,
    "lbcatqdll": 3941,
    "hexe": 3942,
    "put": 3943,
    "bl": 3944,
    "e60": 3945,
    "poo": 3946,
    "\u258168c": 3947,
    "\u258112edc4": 3948,
    "\u25817ed1c": 3949,
    "9012000000": 3950,
    "eula": 3951,
    "\u2581cwindowssystem32ws": 3952,
    "\u258114a": 3953,
    "\u2581560": 3954,
    "web": 3955,
    "\u2581748": 3956,
    "template": 3957,
    "vo": 3958,
    "\u258114eab0": 3959,
    "9c8": 3960,
    "dlg": 3961,
    "\u25812b4": 3962,
    "bc4": 3963,
    "kbat": 3964,
    "e7a8": 3965,
    "outlook": 3966,
    "\u2581cdocume1adminlocals1tempis": 3967,
    "\u2581496": 3968,
    "\u25811496": 3969,
    "\u2581519": 3970,
    "\u2581281": 3971,
    "f88c": 3972,
    "dof": 3973,
    "\u2581183131155223": 3974,
    "\u258121a": 3975,
    "basesdf": 3976,
    "\u2581151020": 3977,
    "\u258176d12": 3978,
    "wbat": 3979,
    "a08": 3980,
    "\u2581r": 3981,
    "history": 3982,
    "\u2581cwindowsservicepackfilesi386": 3983,
    "mutexe": 3984,
    "\u2581msctfsharedmutexe": 3985,
    "ybat": 3986,
    "usic": 3987,
    "\u25812b6": 3988,
    "\u258117d": 3989,
    "\u2581c3": 3990,
    "070fb": 3991,
    "\u2581329070fb": 3992,
    "a80": 3993,
    "\u25813f3": 3994,
    "\u2581avpexe": 3995,
    "img": 3996,
    "7tmp": 3997,
    "\u2581b6": 3998,
    "\u2581deff44": 3999,
    "\u2581sleep26": 4000,
    "\u2581340": 4001,
    "\u2581input": 4002,
    "\u2581inputdetect": 4003,
    "a18": 4004,
    "estop": 4005,
    "\u25811492": 4006,
    "\u258121b": 4007,
    "\u25812d5": 4008,
    "\u2581filesxi": 4009,
    "\u258114ecd0": 4010,
    "\u258191": 4011,
    "\u2581cwindowssystem32crypt32dll": 4012,
    "netget": 4013,
    "netgetinfodll": 4014,
    "\u2581127b50": 4015,
    "\u258141c": 4016,
    "\u258112faf8": 4017,
    "147": 4018,
    "text": 4019,
    "main": 4020,
    "gi": 4021,
    "\u2581analyzestop": 4022,
    "\u25811628": 4023,
    "\u2581205": 4024,
    "\u2581128cb8": 4025,
    "\u2581128ce0": 4026,
    "tilsdll": 4027,
    "\u2581f6": 4028,
    "\u258131c": 4029,
    "\u25811b1": 4030,
    "\u25813c2": 4031,
    "\u258112ed9c": 4032,
    "78c": 4033,
    "122": 4034,
    "\u258112f298": 4035,
    "58f": 4036,
    "004": 4037,
    "\u2581128c7c": 4038,
    "d50": 4039,
    "\u2581318": 4040,
    "\u2581798": 4041,
    "f18": 4042,
    "\u25813a8": 4043,
    "\u2581374": 4044,
    "\u2581128cc8": 4045,
    "\u2581wsasend": 4046,
    "\u258130fb8c": 4047,
    "\u258130fb48": 4048,
    "\u2581cwindowsdi": 4049,
    "\u258130fba0": 4050,
    "nat": 4051,
    "\u25813c6": 4052,
    "\u258180readerhowtochsreadmeeml": 4053,
    "e30": 4054,
    "met": 4055,
    "\u2581145694": 4056,
    "\u25815a4": 4057,
    "\u25813c0000": 4058,
    "ie": 4059,
    "dm": 4060,
    "\u25813d": 4061,
    "\u2581508": 4062,
    "d1d": 4063,
    "rjdownloader": 4064,
    "yq": 4065,
    "skinpg": 4066,
    "364": 4067,
    "\u258122f8e8": 4068,
    "\u258122f8b0": 4069,
    "\u258122f910": 4070,
    "\u2581f95d8": 4071,
    "menu": 4072,
    "\u2581152350": 4073,
    "\u25813d5ebb0": 4074,
    "\u25813d5ec04": 4075,
    "\u2581crar": 4076,
    "\u2581crarbat": 4077,
    "skinpgamebox": 4078,
    "\u2581f9": 4079,
    "\u25813b8": 4080,
    "e780": 4081,
    "\u2581cprogramz": 4082,
    "7html": 4083,
    "160": 4084,
    "\u2581b2": 4085,
    "spoold": 4086,
    "dlldll": 4087,
    "\u258112f7d0": 4088,
    "684": 4089,
    "3tmpdldll": 4090,
    "4000": 4091,
    "installexe": 4092,
    "c84": 4093,
    "\u2581cdocume1adminlocals1tempsysqem": 4094,
    "cfgfrom": 4095,
    "mscorlibresources": 4096,
    "38c": 4097,
    "\u2581nocd": 4098,
    "\u2581132": 4099,
    "\u25814cc": 4100,
    "\u258140f0": 4101,
    "\u2581cdocume1adminlocals1tempo": 4102,
    "\u25811616": 4103,
    "\u25816f6": 4104,
    "registration": 4105,
    "bdmnetgetinfodll": 4106,
    "4d36e": 4107,
    "3s": 4108,
    "tartu": 4109,
    "\u2581sleep18": 4110,
    "192": 4111,
    "enable": 4112,
    "\u2581cwindowssystem32msasn1dll": 4113,
    "7164": 4114,
    "wg": 4115,
    "\u2581324": 4116,
    "\u2581413040": 4117,
    "\u258114d1b8": 4118,
    "abat": 4119,
    "bg": 4120,
    "\u2581cwindowsregistration": 4121,
    "0080": 4122,
    "\u25819eeb58": 4123,
    "\u25819eebd8": 4124,
    "\u2581124c44": 4125,
    "deo": 4126,
    "\u2581124c9c": 4127,
    "gamebox": 4128,
    "xpsp2resdll": 4129,
    "\u25817f23c": 4130,
    "\u258112cf": 4131,
    "\u2581cwindowsdie2tmp": 4132,
    "d1f4": 4133,
    "exem17": 4134,
    "gdiplus": 4135,
    "ingmodel": 4136,
    "\u2581threadingmodel": 4137,
    "\u2581lsass": 4138,
    "fff": 4139,
    "fe4": 4140,
    "ecc": 4141,
    "pools": 4142,
    "\u258142c": 4143,
    "\u2581165": 4144,
    "fcc0": 4145,
    "\u25817f25c": 4146,
    "tools": 4147,
    "media": 4148,
    "\u258114d720": 4149,
    "\u2581a9": 4150,
    "\u2581339f2c0": 4151,
    "2e8": 4152,
    "\u25812b2": 4153,
    "\u258160ff80": 4154,
    "\u258160ff60": 4155,
    "anne": 4156,
    "90c": 4157,
    "\u25813e7": 4158,
    "adobeco": 4159,
    "dra": 4160,
    "micros1": 4161,
    "714": 4162,
    "\u2581f1d": 4163,
    "918": 4164,
    "dap": 4165,
    "\u2581339f2c8": 4166,
    "flash9exe": 4167,
    "connect": 4168,
    "1micros1": 4169,
    "\u2581330": 4170,
    "\u25817e94": 4171,
    "e504": 4172,
    "ef4": 4173,
    "bsyn": 4174,
    "\u25813f9": 4175,
    "\u2581388": 4176,
    "\u2581filesbaidu": 4177,
    "\u258161": 4178,
    "9b3": 4179,
    "\u2581e3": 4180,
    "\u2581setup": 4181,
    "\u2581common": 4182,
    "\u2581spools": 4183,
    "\u25811aa": 4184,
    "\u25811228": 4185,
    "\u25811ca": 4186,
    "imsc12": 4187,
    "\u258137c": 4188,
    "henli": 4189,
    "\u25816a": 4190,
    "dri": 4191,
    "\u2581410": 4192,
    "\u2581735": 4193,
    "00000000000": 4194,
    "fg": 4195,
    "onlin": 4196,
    "\u25811d6": 4197,
    "\u2581datamicrosoftimsc12": 4198,
    "\u2581winlogonexe": 4199,
    "e790": 4200,
    "\u2581cdocume1adminlocals1tempnsg": 4201,
    "\u258114e1": 4202,
    "\u2581module": 4203,
    "\u2581internetcrackurlw": 4204,
    "\u25812e4": 4205,
    "llabsyn": 4206,
    "vb": 4207,
    "\u2581comp": 4208,
    "1png": 4209,
    "\u2581module32firstw": 4210,
    "74c": 4211,
    "\u258117e": 4212,
    "\u258138c": 4213,
    "\u25813b2": 4214,
    "cs": 4215,
    "bf8": 4216,
    "\u2581172": 4217,
    "f008": 4218,
    "a70": 4219,
    "fa4": 4220,
    "de4": 4221,
    "\u258139c": 4222,
    "\u258112d3": 4223,
    "\u25811480b0": 4224,
    "\u258112df90": 4225,
    "ght": 4226,
    "sual": 4227,
    "\u25811c6": 4228,
    "xy": 4229,
    "\u2581cdocume1adminlocals1tempnsl": 4230,
    "22b8c": 4231,
    "lum": 4232,
    "\u25812822b8c": 4233,
    "new": 4234,
    "fcf0": 4235,
    "pri": 4236,
    "\u2581354": 4237,
    "\u2581cde": 4238,
    "\u25811537": 4239,
    "connection": 4240,
    "adobecollabsyn": 4241,
    "b3a": 4242,
    "\u2581xp": 4243,
    "e7b8": 4244,
    "ces": 4245,
    "\u2581172217": 4246,
    "\u2581700": 4247,
    "spbk": 4248,
    "and": 4249,
    "\u25811b0fce4": 4250,
    "\u25811b0fd04": 4251,
    "\u25814e6f6e0": 4252,
    "\u258120087164": 4253,
    "\u25814e6f6b8": 4254,
    "\u2581play": 4255,
    "\u258127b": 4256,
    "doffice": 4257,
    "\u2581sharedoffice": 4258,
    "98c": 4259,
    "\u2581758": 4260,
    "\u258112f0f4": 4261,
    "\u2581cprogramk": 4262,
    "lang": 4263,
    "\u25813c5": 4264,
    "\u25811e1": 4265,
    "publish": 4266,
    "534": 4267,
    "510": 4268,
    "locke": 4269,
    "5d4": 4270,
    "2t": 4271,
    "e28": 4272,
    "safe": 4273,
    "f914": 4274,
    "\u2581380": 4275,
    "728": 4276,
    "ldr": 4277,
    "\u2581indirect": 4278,
    "7a8": 4279,
    "nexe": 4280,
    "\u25811a0c": 4281,
    "\u2581cwindowssystem32mprdll": 4282,
    "\u2581cdocume1adminlocals1tempy": 4283,
    "d4c": 4284,
    "202": 4285,
    "\u2581f1d9c": 4286,
    "\u2581146": 4287,
    "ries": 4288,
    "\u2581390": 4289,
    "idth": 4290,
    "\u2581dwindowsmicrosoftnet": 4291,
    "f8c": 4292,
    "\u25812008716469": 4293,
    "f64": 4294,
    "\u2581ea": 4295,
    "\u2581hkeylocalmachinesoftwareclassesclsid8": 4296,
    "\u2581httph": 4297,
    "\u2581cdocume1adminlocals1tempsv": 4298,
    "channe": 4299,
    "\u2581msctfsharedmutexedf": 4300,
    "\u2581cprogramm": 4301,
    "dist": 4302,
    "k32dll": 4303,
    "\u2581cdocume1adminlocals1tempe": 4304,
    "ba8": 4305,
    "\u25811dcef60": 4306,
    "d48": 4307,
    "\u2581cdocume1adminlocals1tempp": 4308,
    "f9a0": 4309,
    "234": 4310,
    "\u25811f9": 4311,
    "idata": 4312,
    "\u2581picturesa": 4313,
    "\u2581csr": 4314,
    "\u2581cwindowsregistrationr": 4315,
    "\u2581c7": 4316,
    "6c8": 4317,
    "apimswincore": 4318,
    "\u2581398": 4319,
    "\u2581274fb": 4320,
    "172": 4321,
    "\u2581348": 4322,
    "\u2581166": 4323,
    "142": 4324,
    "\u2581b1d870": 4325,
    "\u25812900000": 4326,
    "\u258133c": 4327,
    "408": 4328,
    "wow": 4329,
    "\u2581a2e5": 4330,
    "b3b9": 4331,
    "378": 4332,
    "\u2581filessogousoftware": 4333,
    "a1e18": 4334,
    "686": 4335,
    "fc8b3b9": 4336,
    "fc8b3b9a1e18": 4337,
    "ak": 4338,
    "kernel32": 4339,
    "\u2581b1d89c": 4340,
    "svn": 4341,
    "\u258112c8": 4342,
    "filelist": 4343,
    "\u258112e66c": 4344,
    "\u258112d978": 4345,
    "\u2581ntcurrentversion": 4346,
    "\u2581jq": 4347,
    "colum": 4348,
    "\u2581420": 4349,
    "\u2581local": 4350,
    "134": 4351,
    "cryptnet": 4352,
    "\u2581820": 4353,
    "\u258112fb7c": 4354,
    "for": 4355,
    "native": 4356,
    "\u2581552": 4357,
    "f6c": 4358,
    "shion": 4359,
    "f8e4": 4360,
    "60c": 4361,
    "ivrbrotherscomxjl": 4362,
    "\u2581httphivrbrotherscomxjl": 4363,
    "\u2581httphivrbrotherscomxjlmmcountaspxmm0000": 4364,
    "\u2581126": 4365,
    "dfe": 4366,
    "cryptneturl": 4367,
    "\u2581177": 4368,
    "\u2581f3": 4369,
    "\u2581d0ff5c": 4370,
    "\u258197": 4371,
    "\u2581cdocume1adminlocals1tempg": 4372,
    "idths": 4373,
    "\u258112edec": 4374,
    "934": 4375,
    "\u2581dprogramdatamicrosoftrac": 4376,
    "e9c": 4377,
    "\u258156f8": 4378,
    "ldap": 4379,
    "15s": 4380,
    "1d0": 4381,
    "\u2581cdocume1adminlocals1tempc": 4382,
    "\u2581cwindowsregistrationr00000000000": 4383,
    "7clb": 4384,
    "ldap32dll": 4385,
    "3ef8": 4386,
    "c38": 4387,
    "\u258155": 4388,
    "\u2581cprogramx": 4389,
    "f880": 4390,
    "\u2581databaidubaidurjdownloader": 4391,
    "\u2581hkeylocalmachinesoftwaremicrosoftwindows": 4392,
    "nativeimages": 4393,
    "\u2581cwindowsregistrationr000000000007clb": 4394,
    "dcafeefac001600000045abcdeffedc": 4395,
    "\u2581ee": 4396,
    "\u2581424": 4397,
    "\u2581394": 4398,
    "\u258100000087": 4399,
    "bh": 4400,
    "cachecountermutex": 4401,
    "\u2581f000": 4402,
    "b03": 4403,
    "waremicrosoftoffice120wordresilien": 4404,
    "\u25813c9": 4405,
    "sto": 4406,
    "\u258112d9d0": 4407,
    "\u2581to": 4408,
    "pend": 4409,
    "fd54": 4410,
    "900": 4411,
    "9ec": 4412,
    "\u2581documentsmy": 4413,
    "dcache": 4414,
    "\u258112f71c": 4415,
    "\u258143c": 4416,
    "p60dll": 4417,
    "port": 4418,
    "\u2581154600": 4419,
    "assemblynativeimages": 4420,
    "tx": 4421,
    "\u258150c": 4422,
    "\u2581548": 4423,
    "clie": 4424,
    "pidll": 4425,
    "\u258111d": 4426,
    "6cc": 4427,
    "1001": 4428,
    "bile": 4429,
    "\u25813a0": 4430,
    "lockedcache": 4431,
    "lockedcachecountermutex": 4432,
    "\u2581107e47c": 4433,
    "310": 4434,
    "f834": 4435,
    "columnw": 4436,
    "\u258119bc": 4437,
    "columnwidths": 4438,
    "ages": 4439,
    "\u2581sharedoffice12": 4440,
    "filelistfile": 4441,
    "winrarfilelistfile": 4442,
    "winrarfilelistfilecolumnwidths": 4443,
    "mobile": 4444,
    "3tmpbd": 4445,
    "1fc8b3b9a1e18": 4446,
    "\u2581zonescountermutex": 4447,
    "lv": 4448,
    "\u2581658": 4449,
    "\u258145c": 4450,
    "\u2581zonescachecountermutex": 4451,
    "\u2581datawindows": 4452,
    "\u2581ce": 4453,
    "\u2581zoneslockedcachecountermutex": 4454,
    "e410": 4455,
    "\u2581filesjavajre6bin": 4456,
    "\u2581cdocume1adminlocals1tempv": 4457,
    "\u2581143": 4458,
    "\u2581444": 4459,
    "\u2581196": 4460,
    "\u25811000000": 4461,
    "\u2581iexploreexe": 4462,
    "bf0": 4463,
    "2435a11e6babc806d6172696f": 4464,
    "alog": 4465,
    "0000ffffabcdeffedcba": 4466,
    "32c": 4467,
    "\u258115a": 4468,
    "73c": 4469,
    "ks": 4470,
    "a88": 4471,
    "\u258119b3": 4472,
    "\u2581a5": 4473,
    "e38": 4474,
    "bt": 4475,
    "\u2581dcf": 4476,
    "\u2581exploreriexploreexelocal": 4477,
    "\u2581dfff44": 4478,
    "\u25812acff5c": 4479,
    "mini": 4480,
    "0435a11e6babc806d6172696f": 4481,
    "928": 4482,
    "\u2581cmso": 4483,
    "dcafeefac001700000079abcdeffedc": 4484,
    "\u2581864": 4485,
    "\u25812acfe40": 4486,
    "m1": 4487,
    "0002": 4488,
    "5072": 4489,
    "mac": 4490,
    "\u258112df98": 4491,
    "\u2581337": 4492,
    "\u2581774": 4493,
    "hao360": 4494,
    "fa98": 4495,
    "adobecollabsyncexe": 4496,
    "ahtml": 4497,
    "\u2581settingscachepathspath1": 4498,
    "dab": 4499,
    "\u258120181206": 4500,
    "stat": 4501,
    "112": 4502,
    "\u2581settingscachepathspath2": 4503,
    "\u2581settingscachepathspath3": 4504,
    "32info": 4505,
    "\u2581settingscachepathspath4": 4506,
    "\u2581cprograms": 4507,
    "\u25812fb": 4508,
    "onents": 4509,
    "\u258112b4": 4510,
    "\u25811e5": 4511,
    "9a0": 4512,
    "erver": 4513,
    "\u2581hkeylocalmachinesoftwareclassesclside": 4514,
    "page": 4515,
    "\u258100019b3": 4516,
    "\u2581cprogramwin": 4517,
    "mof": 4518,
    "\u258100019bc": 4519,
    "fcb8": 4520,
    "1c4": 4521,
    "hostdll": 4522,
    "\u2581cwindowssystem32wldap32dll": 4523,
    "\u258121658": 4524,
    "\u25811831": 4525,
    "\u2581dwindowssystem32spp": 4526,
    "124": 4527,
    "\u2581sleep15s": 4528,
    "dll32exe": 4529,
    "ype": 4530,
    "\u258169c": 4531,
    "pint": 4532,
    "\u258112cc": 4533,
    "a0c": 4534,
    "\u2581cd": 4535,
    "\u2581datamicrosoftcryptneturl": 4536,
    "scr": 4537,
    "\u25813ee": 4538,
    "\u25811e6": 4539,
    "auexe": 4540,
    "\u25813f5": 4541,
    "wsock32dll": 4542,
    "\u2581714": 4543,
    "clbcatqdll": 4544,
    "qi": 4545,
    "ed4": 4546,
    "100180": 4547,
    "\u2581468": 4548,
    "\u2581datab": 4549,
    "ale": 4550,
    "100180110": 4551,
    "\u258194100180110": 4552,
    "1100000000": 4553,
    "360trayexe": 4554,
    "\u2581215": 4555,
    "\u2581cprogramh": 4556,
    "\u2581dwindowssystem32w": 4557,
    "\u25811476": 4558,
    "\u2581107e504": 4559,
    "ties": 4560,
    "\u2581328": 4561,
    "\u2581cdocume1adminlocals1tempnsm": 4562,
    "lity": 4563,
    "browser": 4564,
    "\u2581cwindowssystem32wbemw": 4565,
    "client": 4566,
    "fd18": 4567,
    "\u2581cdocume1adminlocals1tempx": 4568,
    "\u258111e": 4569,
    "\u258112ac": 4570,
    "225": 4571,
    "rasadhlpdll": 4572,
    "lder": 4573,
    "\u2581au": 4574,
    "\u258140c": 4575,
    "wi": 4576,
    "da8": 4577,
    "\u2581crcx5tmp": 4578,
    "kernelbasedll": 4579,
    "9a8": 4580,
    "b00": 4581,
    "nh": 4582,
    "baidusd2": 4583,
    "\u258193ef8": 4584,
    "yk": 4585,
    "\u2581197": 4586,
    "1fc8b3b9a1e18e3": 4587,
    "hvexe": 4588,
    "\u258121be": 4589,
    "add": 4590,
    "\u258137fc": 4591,
    "aj": 4592,
    "f4c": 4593,
    "tcpi": 4594,
    "\u2581cdocume1adminlocals1tempj": 4595,
    "\u2581ed": 4596,
    "\u2581338": 4597,
    "\u25813e9": 4598,
    "362": 4599,
    "mscore": 4600,
    "\u2581b5c": 4601,
    "\u2581cmsocache": 4602,
    "0012": 4603,
    "map": 4604,
    "\u2581datamicrosoftimsc12di": 4605,
    "\u2581xjl": 4606,
    "\u2581xjlmmcountaspxmm0000": 4607,
    "ae4": 4608,
    "player": 4609,
    "\u2581cdocume1adminlocals1temph": 4610,
    "ir": 4611,
    "ft": 4612,
    "\u2581334": 4613,
    "peb": 4614,
    "\u2581fde": 4615,
    "\u258135c": 4616,
    "\u258112d2": 4617,
    "\u258184000000": 4618,
    "qk": 4619,
    "\u258171c": 4620,
    "\u25811d3": 4621,
    "lh": 4622,
    "\u2581102": 4623,
    "\u25816b0": 4624,
    "\u2581307": 4625,
    "9d8": 4626,
    "123": 4627,
    "\u2581hivrbrotherscom": 4628,
    "\u2581163": 4629,
    "back": 4630,
    "\u25811497": 4631,
    "\u2581fb": 4632,
    "e0c": 4633,
    "\u25811cfe": 4634,
    "\u25812baf878": 4635,
    "\u25812baf8b0": 4636,
    "\u2581usersdocumentsmy": 4637,
    "\u2581coo": 4638,
    "bypass": 4639,
    "\u258112fa44": 4640,
    "fa04": 4641,
    "etmp": 4642,
    "\u2581proxybypass": 4643,
    "mskin": 4644,
    "fd1c": 4645,
    "\u2581intranet": 4646,
    "\u2581intranetname": 4647,
    "mskindll": 4648,
    "funshion": 4649,
    "\u2581152640": 4650,
    "\u258112fe20": 4651,
    "322": 4652,
    "\u2581103": 4653,
    "\u2581dwindowssystem32kernelbasedll": 4654,
    "5e8": 4655,
    "\u2581b1e7": 4656,
    "db8": 4657,
    "mple": 4658,
    "\u2581sleep2400s": 4659,
    "\u2581n": 4660,
    "fa3c": 4661,
    "\u258134c": 4662,
    "dec04": 4663,
    "\u2581272": 4664,
    "\u2581924": 4665,
    "1jpg": 4666,
    "\u2581149c": 4667,
    "a98": 4668,
    "\u2581114d1f4": 4669,
    "\u2581114d21c": 4670,
    "\u2581114d204": 4671,
    "state": 4672,
    "\u2581cclassifieddoc": 4673,
    "edd8": 4674,
    "\u2581139": 4675,
    "\u2581b1d4e4": 4676,
    "\u2581156": 4677,
    "\u2581datasunjavadeploymentsystem": 4678,
    "echostdll": 4679,
    "\u258132fe4a0": 4680,
    "\u258132fe4c8": 4681,
    "casi": 4682,
    "\u2581dwindowssystem32msvcrtdll": 4683,
    "\u2581368": 4684,
    "232": 4685,
    "\u258195": 4686,
    "\u2581hkeylocalmachinesoftwareclassesclsidc": 4687,
    "\u2581uncasi": 4688,
    "\u2581uncasintranet": 4689,
    "5004c": 4690,
    "\u258112e83c": 4691,
    "\u2581f5004c": 4692,
    "1400": 4693,
    "f090": 4694,
    "\u2581dwindowssystem32rpcrt4dll": 4695,
    "gra": 4696,
    "\u2581364": 4697,
    "iexplore": 4698,
    "\u2581cdocume1adminlocals1tempdf": 4699,
    "\u258132fd": 4700,
    "\u2581323f2c0": 4701,
    "\u2581370": 4702,
    "6html": 4703,
    "\u258136c": 4704,
    "\u258194b20": 4705,
    "\u2581cwindowsinstaller": 4706,
    "\u2581b3": 4707,
    "\u258112fabc": 4708,
    "updateexe": 4709,
    "f30": 4710,
    "\u2581358": 4711,
    "\u2581cwindowssystem32psapidll": 4712,
    "\u258166": 4713,
    "edata": 4714,
    "\u2581cdocume1adminlocals1tempu": 4715,
    "412": 4716,
    "\u2581323f2c8": 4717,
    "\u258113dc": 4718,
    "fe54": 4719,
    "f900": 4720,
    "\u258113f3": 4721,
    "248": 4722,
    "\u2581cprogramf": 4723,
    "\u258110d": 4724,
    "x0": 4725,
    "\u2581189": 4726,
    "\u25811ce": 4727,
    "\u25817e338": 4728,
    "f5f0": 4729,
    "\u258113e6": 4730,
    "\u258147": 4731,
    "lbar": 4732,
    "994": 4733,
    "\u2581dwindowssystem32sechostdll": 4734,
    "\u258119b": 4735,
    "\u2581cprogra1common": 4736,
    "\u2581430": 4737,
    "ases": 4738,
    "tsapi32dll": 4739,
    "pintlg": 4740,
    "\u25811bb": 4741,
    "20exe": 4742,
    "syswow": 4743,
    "\u258144c": 4744,
    "\u25817df40": 4745,
    "\u2581filesk": 4746,
    "\u258113f8": 4747,
    "\u258118cfc8": 4748,
    "\u2581dwindowssystem32advapi32dll": 4749,
    "\u2581191": 4750,
    "gali": 4751,
    "wmidata": 4752,
    "dataracwmidata": 4753,
    "jx": 4754,
    "00a710b8a710b8": 4755,
    "\u2581cc0018": 4756,
    "galiases": 4757,
    "\u2581cprogra1common1micros1": 4758,
    "\u2581filesq": 4759,
    "mondll": 4760,
    "\u2581cprogramd": 4761,
    "debb0": 4762,
    "galiasesmof": 4763,
    "\u25812b6ff34": 4764,
    "\u258112e604": 4765,
    "\u25813b5": 4766,
    "cliegaliasesmof": 4767,
    "\u2581cwindowssystem32wbemcliegaliasesmof": 4768,
    "\u2581cwindowsnts": 4769,
    "\u25811b38": 4770,
    "f448": 4771,
    "\u2581170ff": 4772,
    "waremicrosoftwindowsshell": 4773,
    "\u2581music": 4774,
    "\u258177c": 4775,
    "b78": 4776,
    "fce0": 4777,
    "\u2581454": 4778,
    "\u2581fbe500": 4779,
    "\u2581127c4c": 4780,
    "\u2581efe500": 4781,
    "feng": 4782,
    "\u2581916": 4783,
    "zexe": 4784,
    "de74": 4785,
    "\u2581ex": 4786,
    "bc00": 4787,
    "\u2581da": 4788,
    "\u25811c7": 4789,
    "\u25811484": 4790,
    "xm": 4791,
    "tor": 4792,
    "adap": 4793,
    "\u2581cwindowssystem32xdccprogramsacrord32info": 4794,
    "coo": 4795,
    "light": 4796,
    "ervicepack": 4797,
    "\u258114a0": 4798,
    "\u2581filesxiao": 4799,
    "\u2581cwindowsntservicepack": 4800,
    "\u2581128c84": 4801,
    "datalocal": 4802,
    "\u2581a1f0": 4803,
    "\u2581109ff4c": 4804,
    "\u2581120c9c": 4805,
    "\u2581120c4c": 4806,
    "\u2581116211": 4807,
    "\u2581149d": 4808,
    "\u25813fd": 4809,
    "pdate": 4810,
    "a4c": 4811,
    "\u258112f644": 4812,
    "348": 4813,
    "\u25813d5ecf4": 4814,
    "fad4": 4815,
    "der": 4816,
    "\u2581104e2": 4817,
    "f000": 4818,
    "780": 4819,
    "\u2581sleep22": 4820,
    "downloaderexe": 4821,
    "\u2581756": 4822,
    "package": 4823,
    "ins": 4824,
    "\u2581135": 4825,
    "2cc": 4826,
    "\u2581405d0d": 4827,
    "\u2581405d1d": 4828,
    "\u2581cwindowsassemblynativeimages": 4829,
    "16s": 4830,
    "\u2581299": 4831,
    "\u2581cmy": 4832,
    "\u2581032": 4833,
    "atmp": 4834,
    "1b96": 4835,
    "\u25817feff4": 4836,
    "fae0": 4837,
    "5b188": 4838,
    "\u25817feff45b188": 4839,
    "\u258185": 4840,
    "\u2581164850": 4841,
    "\u2581223": 4842,
    "f990": 4843,
    "msilsystem": 4844,
    "\u2581493": 4845,
    "\u2581cwindowssystem32xdccprogramsa": 4846,
    "\u258112f8cc": 4847,
    "\u2581cdocume1adminlocals1tempz": 4848,
    "\u2581full": 4849,
    "5254": 4850,
    "\u258112bd": 4851,
    "\u2581peb": 4852,
    "\u2581pebiesnrmkudrfcoiaamtykddadata": 4853,
    "f91c": 4854,
    "\u25811491": 4855,
    "\u2581cdocume1adminlocals1tempa": 4856,
    "roam": 4857,
    "noroam": 4858,
    "\u2581shareav": 4859,
    "waremicrosoftwindowsshellnoroam": 4860,
    "\u25811254": 4861,
    "fb54": 4862,
    "e768": 4863,
    "e3bc": 4864,
    "\u2581cmsocacheall": 4865,
    "1f0": 4866,
    "\u2581115": 4867,
    "\u2581a1d4": 4868,
    "\u2581cwindowssystem32framedyndll": 4869,
    "\u258112fc0": 4870,
    "\u2581438": 4871,
    "\u25811c5e614": 4872,
    "\u25811c5e630": 4873,
    "\u25811c5e644": 4874,
    "\u25811c5e64c": 4875,
    "\u25811c5ea04": 4876,
    "9d1": 4877,
    "\u2581filesj": 4878,
    "e84": 4879,
    "154": 4880,
    "2020": 4881,
    "ingfeng": 4882,
    "\u25814ac": 4883,
    "ener": 4884,
    "apphelpdll": 4885,
    "\u2581cc0014": 4886,
    "m17": 4887,
    "\u258156c": 4888,
    "m18": 4889,
    "\u25814e0": 4890,
    "bd0": 4891,
    "166": 4892,
    "0048": 4893,
    "\u2581600": 4894,
    "\u258117a": 4895,
    "bdll": 4896,
    "978": 4897,
    "e9e0": 4898,
    "\u25812ddfe88": 4899,
    "\u2581cwindowssystem32clbcatqdll": 4900,
    "arp": 4901,
    "b10": 4902,
    "\u2581a3": 4903,
    "\u2581cwindowssystem32comresdll": 4904,
    "\u2581filesqingfeng": 4905,
    "\u258129d": 4906,
    "bb8": 4907,
    "eart": 4908,
    "11920": 4909,
    "9ea": 4910,
    "ebb4": 4911,
    "\u2581wu": 4912,
    "770": 4913,
    "published": 4914,
    "dataracwmidatabasesdf": 4915,
    "publisheddataracwmidatabasesdf": 4916,
    "6c4": 4917,
    "\u2581350": 4918,
    "\u2581datamicrosoftimsc12dicts": 4919,
    "\u2581gener": 4920,
    "b18": 4921,
    "\u2581settingsdefault": 4922,
    "\u258111f0": 4923,
    "e194": 4924,
    "\u2581cprogramp": 4925,
    "35c": 4926,
    "\u2581b1e0": 4927,
    "\u2581datamicrosoftimsc12dictspintlg": 4928,
    "af0": 4929,
    "e6d0": 4930,
    "fe2c": 4931,
    "tapi": 4932,
    "ym": 4933,
    "\u258112e638": 4934,
    "bds": 4935,
    "645": 4936,
    "exem16": 4937,
    "dhtml": 4938,
    "\u2581cdocume1adminlocals1tempsetupexe": 4939,
    "\u2581434": 4940,
    "\u2581cdocume1adminlocals1tempnsh": 4941,
    "f854": 4942,
    "exem18": 4943,
    "\u2581114d75c": 4944,
    "\u2581dwindowssystem32user32dll": 4945,
    "\u2581460": 4946,
    "\u25813ea": 4947,
    "\u2581712": 4948,
    "plugins": 4949,
    "down": 4950,
    "501": 4951,
    "dd0": 4952,
    "\u25819ef": 4953,
    "v404000": 4954,
    "\u258143": 4955,
    "3456": 4956,
    "\u2581cdocume1adminlocals1tempq": 4957,
    "ific": 4958,
    "ff58": 4959,
    "ctfdll": 4960,
    "\u2581cdocume1adminlocals1tempnsq": 4961,
    "wsockdll": 4962,
    "\u258112c424": 4963,
    "ee4": 4964,
    "e34": 4965,
    "\u25813e2": 4966,
    "\u258112e940": 4967,
    "\u258112e61a": 4968,
    "f7f": 4969,
    "\u2581e7fe": 4970,
    "\u2581cwindowsframedyndll": 4971,
    "\u25815c0": 4972,
    "\u25811f7": 4973,
    "\u2581114d778": 4974,
    "\u2581114d750": 4975,
    "cale": 4976,
    "930": 4977,
    "cg": 4978,
    "52540012": 4979,
    "f9e8": 4980,
    "\u25816fc": 4981,
    "\u2581428": 4982,
    "folder": 4983,
    "525400123456": 4984,
    "723": 4985,
    "\u258165": 4986,
    "de1c": 4987,
    "\u2581161": 4988,
    "\u25816e4": 4989,
    "stadll": 4990,
    "\u2581generat": 4991,
    "1406": 4992,
    "googleupdate": 4993,
    "\u2581proxyenable": 4994,
    "938": 4995,
    "hu": 4996,
    "hide": 4997,
    "f244": 4998,
    "\u258120011920": 4999,
    "\u2581114d760": 5000,
    "\u258120011920412": 5001,
    "ef7c4": 5002,
    "smandll": 5003,
    "syswow64": 5004,
    "\u2581cwindowssystem32dnsapidll": 5005,
    "\u25811fa": 5006,
    "imagehlpdll": 5007,
    "\u2581152528": 5008,
    "htcpi": 5009,
    "heart": 5010,
    "\u2581dwindowssystem32lpkdll": 5011,
    "\u2581dwindowssystem32usp10dll": 5012,
    "\u2581dwindowssystem32gdi32dll": 5013,
    "htcpipdll": 5014,
    "246": 5015,
    "\u25813c7": 5016,
    "\u258112e968": 5017,
    "\u2581cwindowsassemblygac32": 5018,
    "\u2581114d7c0": 5019,
    "\u258112efbc": 5020,
    "\u2581cprogramn": 5021,
    "45": 5022,
    "mss": 5023,
    "downloaddownload": 5024,
    "e3e4": 5025,
    "\u2581581b96": 5026,
    "\u2581187": 5027,
    "936": 5028,
    "tapi32dll": 5029,
    "\u2581448": 5030,
    "\u2581reader80ws0": 5031,
    "\u2581cdocume1adminlocals1tempnss": 5032,
    "bfc": 5033,
    "\u258114c1a8": 5034,
    "d78": 5035,
    "\u25811f5": 5036,
    "a99": 5037,
    "\u2581273": 5038,
    "\u2581dwindowssystem32imm32dll": 5039,
    "\u2581dwindowssystem32msctfdll": 5040,
    "audio": 5041,
    "document": 5042,
    "\u2581cwindowsfontshide": 5043,
    "review": 5044,
    "\u258112fe14": 5045,
    "f24": 5046,
    "docexe": 5047,
    "userdata": 5048,
    "b48": 5049,
    "\u2581cwindowsfontshidese": 5050,
    "e70": 5051,
    "\u25812c9": 5052,
    "\u25813c3": 5053,
    "\u2581dwindowssystem32ole32dll": 5054,
    "\u2581129c": 5055,
    "b28": 5056,
    "\u2581conver": 5057,
    "attxt": 5058,
    "\u25814b8": 5059,
    "734": 5060,
    "beat": 5061,
    "0000000ff1c": 5062,
    "90120000001100000000": 5063,
    "\u2581cwindowssystem32riched20dll": 5064,
    "901200000011000000000000000ff1c": 5065,
    "\u2581614": 5066,
    "\u2581728": 5067,
    "\u2581hkeylocalmachinesystemcontrolset001servic": 5068,
    "fcc": 5069,
    "\u258112e610": 5070,
    "mx": 5071,
    "3tmpbdmskindll": 5072,
    "cltexe": 5073,
    "aucltexe": 5074,
    "\u25815a8": 5075,
    "imesc": 5076,
    "\u25814ec": 5077,
    "\u2581shareo": 5078,
    "sus": 5079,
    "\u25812d50000": 5080,
    "\u2581cwindowssystem32shdo": 5081,
    "9e0": 5082,
    "\u25812d1400": 5083,
    "\u2581137": 5084,
    "\u25811a2": 5085,
    "\u2581dwindowssystem32oleaut32dll": 5086,
    "erro": 5087,
    "\u2581678": 5088,
    "\u258112efc0": 5089,
    "f4ac": 5090,
    "kt": 5091,
    "fa5c": 5092,
    "\u258113e604": 5093,
    "\u25814c8": 5094,
    "engin": 5095,
    "\u258113e61a": 5096,
    "2f0": 5097,
    "m16": 5098,
    "\u258112ce": 5099,
    "\u2581cdocume1adminlocals1tempw": 5100,
    "\u25813d4270": 5101,
    "\u2581494": 5102,
    "\u258132fdf78": 5103,
    "mei": 5104,
    "\u258112f480": 5105,
    "\u25812fbff34": 5106,
    "538": 5107,
    "\u2581lsassexe": 5108,
    "\u258167": 5109,
    "\u25813d9fe28": 5110,
    "\u25813d9fe50": 5111,
    "compattxt": 5112,
    "ff878": 5113,
    "1e8": 5114,
    "\u2581470": 5115,
    "\u258174c": 5116,
    "\u2581761": 5117,
    "mfc": 5118,
    "\u25817ffdbc00": 5119,
    "updater": 5120,
    "\u25811152392": 5121,
    "\u2581namedpipelsass": 5122,
    "jd": 5123,
    "sxsdll": 5124,
    "pic": 5125,
    "718": 5126,
    "\u25811b5": 5127,
    "1c8": 5128,
    "\u2581spoolsvexe": 5129,
    "\u2581wuaucltexe": 5130,
    "206": 5131,
    "10c": 5132,
    "135": 5133,
    "ff8b0": 5134,
    "\u25819b0000": 5135,
    "\u2581114d200": 5136,
    "d74": 5137,
    "inbox": 5138,
    "\u258114d8": 5139,
    "sg": 5140,
    "waremicrosoftwindowscurrentversionext": 5141,
    "\u25814e8f6e0": 5142,
    "ff680": 5143,
    "\u25814e8f6b8": 5144,
    "active": 5145,
    "fcc8": 5146,
    "\u2581cwindowssystem32xdccprograms360trayexe": 5147,
    "ef8": 5148,
    "\u2581net": 5149,
    "\u2581219": 5150,
    "\u2581cwindowssystem32xdccprogramsacrord32exe": 5151,
    "c88": 5152,
    "\u2581cwindowssystem32xdccprogramsacrord32infoexe": 5153,
    "\u25811312": 5154,
    "\u2581790": 5155,
    "ingcom": 5156,
    "\u2581algexe": 5157,
    "139110": 5158,
    "\u258121769139110": 5159,
    "tems": 5160,
    "\u2581cwindowssystem32xdccprogramsahvexe": 5161,
    "f470": 5162,
    "\u2581datasunjavadeploymentsystemcache60": 5163,
    "\u2581114d264": 5164,
    "\u25816e8": 5165,
    "2723": 5166,
    "530": 5167,
    "tsdll": 5168,
    "\u258165c": 5169,
    "9html": 5170,
    "\u2581filessogousoftwaredownloaddownload": 5171,
    "\u2581504": 5172,
    "\u2581450": 5173,
    "eae4": 5174,
    "ters": 5175,
    "\u2581servicesexe": 5176,
    "profile": 5177,
    "\u2581d7": 5178,
    "\u25811f2": 5179,
    "5fc": 5180,
    "afe50": 5181,
    "\u2581141": 5182,
    "\u2581157": 5183,
    "\u2581176": 5184,
    "11d0": 5185,
    "d760": 5186,
    "\u2581131": 5187,
    "0120": 5188,
    "150": 5189,
    "fe34": 5190,
    "\u258120061027": 5191,
    "\u258112ff7c": 5192,
    "\u25811e7fce4": 5193,
    "\u25811e7fd04": 5194,
    "106": 5195,
    "\u258113d": 5196,
    "\u258112be": 5197,
    "\u2581cdocume1adminlocals1tempnsn": 5198,
    "\u2581cwindowssystem32xdccprogramsinstallexe": 5199,
    "earchs": 5200,
    "\u2581cwindowssystem32zhcn": 5201,
    "809": 5202,
    "libdll": 5203,
    "\u25813ade8": 5204,
    "\u2581cprogramav": 5205,
    "yy": 5206,
    "zhchs": 5207,
    "\u258112efc4": 5208,
    "fba0": 5209,
    "352": 5210,
    "\u2581121": 5211,
    "\u258112b3": 5212,
    "\u2581cwindowssystem32hnetcfgdll": 5213,
    "\u258140f020": 5214,
    "9tmp": 5215,
    "\u2581cwindowswinsxsx86microsoftvc": 5216,
    "v205072": 5217,
    "a51": 5218,
    "\u2581cdocume1adminlocals1tempnsutmpauexe": 5219,
    "2000a": 5220,
    "68c": 5221,
    "\u2581cdownload": 5222,
    "life": 5223,
    "\u2581cprogramq": 5224,
    "\u2581cwindowssystem32url": 5225,
    "\u2581c000c": 5226,
    "\u2581c000c28c": 5227,
    "edwexe": 5228,
    "\u2581c0000225": 5229,
    "dab146": 5230,
    "\u258177dab146": 5231,
    "\u25812f9": 5232,
    "11d1": 5233,
    "dbc": 5234,
    "b94": 5235,
    "afe28": 5236,
    "\u258139dc0": 5237,
    "henliriliminiexe": 5238,
    "\u25817ec": 5239,
    "bf38": 5240,
    "\u2581ab": 5241,
    "amr": 5242,
    "8tmp": 5243,
    "\u2581for": 5244,
    "e1c8": 5245,
    "\u2581cwindowssystem32wbe": 5246,
    "\u25815b8": 5247,
    "utm": 5248,
    "cryptbasedll": 5249,
    "b2tmp": 5250,
    "\u25811292": 5251,
    "ebmp": 5252,
    "922": 5253,
    "bag": 5254,
    "212": 5255,
    "\u25813c6ef60": 5256,
    "\u2581164878": 5257,
    "\u25814fc": 5258,
    "\u25813f2": 5259,
    "\u25813ca": 5260,
    "44e": 5261,
    "\u2581cwindowssystem32xdccprogramsadobecollabsyncexe": 5262,
    "\u258119d": 5263,
    "fic": 5264,
    "nl": 5265,
    "bje": 5266,
    "7d2": 5267,
    "vm": 5268,
    "\u258112f6f4": 5269,
    "4428": 5270,
    "\u258125af928": 5271,
    "eee0": 5272,
    "\u258115ff": 5273,
    "\u258180readeradobe": 5274,
    "\u2581554": 5275,
    "\u2581dataadobe": 5276,
    "runtime": 5277,
    "\u2581filesqingfengrili": 5278,
    "\u25811008": 5279,
    "\u25814f0": 5280,
    "\u2581cwindowssystem32wshtcpipdll": 5281,
    "d20": 5282,
    "\u25811d2": 5283,
    "52c": 5284,
    "identities": 5285,
    "9b0": 5286,
    "\u2581cwindowssystem32mswsockdll": 5287,
    "\u2581sendarp": 5288,
    "2e30": 5289,
    "fd10": 5290,
    "\u2581151a10": 5291,
    "56ad": 5292,
    "\u258110022": 5293,
    "ibat": 5294,
    "rtutilsdll": 5295,
    "\u2581auto": 5296,
    "\u2581systemrootsystem32xpsp2resdll": 5297,
    "vwdll": 5298,
    "\u258112d414": 5299,
    "\u2581cdocume1adminlocals1tempnsb2tmp": 5300,
    "a48": 5301,
    "eb0": 5302,
    "f934": 5303,
    "\u2581d3": 5304,
    "\u2581adf6": 5305,
    "\u2581namedpipesamr": 5306,
    "\u2581280e4f0": 5307,
    "\u258112f3d0": 5308,
    "\u2581280e4cc": 5309,
    "\u25813fe": 5310,
    "ehtml": 5311,
    "\u2581280e410": 5312,
    "\u2581280e3ec": 5313,
    "dsapidll": 5314,
    "9d0": 5315,
    "e100": 5316,
    "\u25812cdf": 5317,
    "cent": 5318,
    "b30": 5319,
    "vs": 5320,
    "\u2581datamicrosoftnetwork": 5321,
    "128": 5322,
    "a94": 5323,
    "\u2581cdocume1adminlocals1tempnsc": 5324,
    "bb4": 5325,
    "\u25811eaead0": 5326,
    "\u2581cwindowssystem32k": 5327,
    "3html": 5328,
    "bb5": 5329,
    "\u258120061026": 5330,
    "\u2581cwindowsmicrosoftnetframeworkv4030319": 5331,
    "epic": 5332,
    "\u25811ee": 5333,
    "error": 5334,
    "364e3": 5335,
    "bf3856ad": 5336,
    "bf3856ad364e3": 5337,
    "101": 5338,
    "ystartu": 5339,
    "dlg32dll": 5340,
    "eq": 5341,
    "da0": 5342,
    "580": 5343,
    "\u2581sleep4": 5344,
    "suspend": 5345,
    "\u258115ef": 5346,
    "\u2581ntsuspend": 5347,
    "\u2581ntsuspendthread": 5348,
    "\u2581cwindowsmicrosoftnetframeworkv2050727": 5349,
    "decf4": 5350,
    "zone": 5351,
    "a22": 5352,
    "\u258112efa0": 5353,
    "\u2581datapackage": 5354,
    "\u25811539": 5355,
    "msvcp60dll": 5356,
    "7z": 5357,
    "\u25813c1": 5358,
    "scan": 5359,
    "\u2581filesqq": 5360,
    "394": 5361,
    "def": 5362,
    "\u2581322e": 5363,
    "950": 5364,
    "mac525400123456": 5365,
    "\u2581sleep16s": 5366,
    "\u25811eaea28": 5367,
    "\u25811eaea38": 5368,
    "\u2581sleep29s": 5369,
    "macromedi": 5370,
    "977": 5371,
    "ff9c": 5372,
    "\u2581332f2c0": 5373,
    "\u25814a": 5374,
    "e46c": 5375,
    "\u2581119": 5376,
    "\u2581cdocume1adminlocals1tempnsw2tmp": 5377,
    "\u25812c40000": 5378,
    "heartbeat": 5379,
    "cc4": 5380,
    "intrus": 5381,
    "intrustdll": 5382,
    "3f7": 5383,
    "eg": 5384,
    "\u25814f8": 5385,
    "\u2581150c38": 5386,
    "msg": 5387,
    "\u2581cwindowssystem32comdlg32dll": 5388,
    "\u258119e": 5389,
    "\u2581765": 5390,
    "tartdata": 5391,
    "\u2581jqsexe": 5392,
    "\u25813d46a0": 5393,
    "\u258112f908": 5394,
    "233": 5395,
    "b9b8": 5396,
    "blind": 5397,
    "ed8": 5398,
    "ler": 5399,
    "\u258112ec50": 5400,
    "\u258113e18c": 5401,
    "\u258140b020": 5402,
    "c040": 5403,
    "\u25811dfe": 5404,
    "comresdll": 5405,
    "etup": 5406,
    "\u25817d9": 5407,
    "ldrv": 5408,
    "flashplayer": 5409,
    "\u2581688": 5410,
    "\u25811cbe": 5411,
    "\u258113e194": 5412,
    "\u2581cdocume1adminlocals1tempnsr": 5413,
    "\u2581a2e530": 5414,
    "sq": 5415,
    "\u25811f6": 5416,
    "\u2581332f2c8": 5417,
    "\u25814d4": 5418,
    "ysys": 5419,
    "credist": 5420,
    "\u258118d": 5421,
    "904": 5422,
    "\u2581114d3ec": 5423,
    "\u2581csrssexe": 5424,
    "\u2581b1d6": 5425,
    "\u2581114d3f4": 5426,
    "f1cc": 5427,
    "googlechrome": 5428,
    "servicelocal": 5429,
    "kernel32pdb": 5430,
    "300": 5431,
    "\u2581544": 5432,
    "aco": 5433,
    "blindusers15211176097108381707525159678991003": 5434,
    "\u2581202000a": 5435,
    "\u25811434": 5436,
    "\u25818440": 5437,
    "2e3031": 5438,
    "\u2581322e32": 5439,
    "\u2581280e49c": 5440,
    "\u2581280e4d8": 5441,
    "2e302e3031": 5442,
    "\u2581322e322e302e3031": 5443,
    "fcd4": 5444,
    "installed": 5445,
    "\u2581280e3bc": 5446,
    "\u2581280e3f8": 5447,
    "\u258110b": 5448,
    "a3a": 5449,
    "dime": 5450,
    "niedwexe": 5451,
    "\u2581databniedwexe": 5452,
    "\u2581sleep17": 5453,
    "fd98": 5454,
    "\u2581252": 5455,
    "spooldrv": 5456,
    "\u258189d": 5457,
    "\u25814051": 5458,
    "win7pc": 5459,
    "ad6a": 5460,
    "\u258112e81c": 5461,
    "\u258142e1c8": 5462,
    "\u2581b1e8": 5463,
    "\u25818440c040": 5464,
    "qplug": 5465,
    "tputm": 5466,
    "686a04": 5467,
    "pcname": 5468,
    "b3aed": 5469,
    "gidp": 5470,
    "723f2": 5471,
    "gid52": 5472,
    "7d29d1": 5473,
    "bootid": 5474,
    "2723358": 5475,
    "idtgidp": 5476,
    "plugver": 5477,
    "937723f2": 5478,
    "qplugbds": 5479,
    "\u2581optputm": 5480,
    "ad6a686a04": 5481,
    "gid522723358": 5482,
    "pcnamewin7pc": 5483,
    "937723f2b3aed": 5484,
    "ad6a686a047d29d1": 5485,
    "\u2581optputmqplugbds": 5486,
    "pcnamewin7pcbootid": 5487,
    "gid522723358mac525400123456": 5488,
    "ad6a686a047d29d1937723f2b3aed": 5489,
    "gid522723358mac525400123456pcnamewin7pcbootid": 5490,
    "\u2581708": 5491,
    "186": 5492,
    "35s": 5493,
    "334": 5494,
    "\u2581402": 5495,
    "\u2581cwindowsntservicepackuninstall": 5496,
    "\u25819bb8": 5497,
    "zz": 5498,
    "\u258133a": 5499,
    "vercfg": 5500,
    "ccidtgidp": 5501,
    "nchcfgfrom": 5502,
    "vercfgupdate": 5503,
    "earchstartdata": 5504,
    "vercfgupdateplugver": 5505,
    "\u2581optputmqplugbdsearchstartdata": 5506,
    "ad6a686a047d29d1937723f2b3aedde1c": 5507,
    "attrib": 5508,
    "appcompattxt": 5509,
    "\u2581cprograma": 5510,
    "5f0a0": 5511,
    "\u2581cdocume1adminlocals1tempnsv": 5512,
    "\u25814a45f0a0": 5513,
    "idtnchcfgfrom": 5514,
    "ad6a686a047d29d1937723f2b3aedde1cidtnchcfgfrom": 5515,
    "ebcc": 5516,
    "\u2581cwindowssystem32urlmondll": 5517,
    "proxys": 5518,
    "\u258146c": 5519,
    "\u2581cprogramr": 5520,
    "bff": 5521,
    "sam": 5522,
    "\u2581ro": 5523,
    "explorerexe": 5524,
    "f54": 5525,
    "\u258112e2bc": 5526,
    "\u25811db": 5527,
    "\u25817f4": 5528,
    "fb50": 5529,
    "wwin": 5530,
    "heartbeatccidtgidp": 5531,
    "\u2581player": 5532,
    "e68": 5533,
    "proxystu": 5534,
    "\u2581206": 5535,
    "\u258112fb0c": 5536,
    "\u2581124f990": 5537,
    "\u2581124f998": 5538,
    "\u2581124f99c": 5539,
    "\u2581sharecert": 5540,
    "\u2581studio": 5541,
    "\u25814a8": 5542,
    "n2": 5543,
    "ba0": 5544,
    "\u2581sharesetupexe": 5545,
    "\u2581f8fc": 5546,
    "\u258122d": 5547,
    "\u25814dc": 5548,
    "arcdll": 5549,
    "adminarcdll": 5550,
    "identitiesadminarcdll": 5551,
    "\u2581datamicrosoftidentitiesadminarcdll": 5552,
    "\u25811494": 5553,
    "\u2581offic": 5554,
    "ssexem": 5555,
    "\u2581desktop": 5556,
    "\u25811044": 5557,
    "ics": 5558,
    "\u2581154c": 5559,
    "\u2581dd": 5560,
    "b38": 5561,
    "\u2581b1d50c": 5562,
    "\u2581780": 5563,
    "168": 5564,
    "\u2581cdocume1adminlocals1temptar": 5565,
    "\u2581255fe": 5566,
    "chtm": 5567,
    "\u258112e490": 5568,
    "\u2581setupinstalled": 5569,
    "\u2581hkeylocalmachinesoftwaremicrosoftactive": 5570,
    "f394": 5571,
    "\u2581610": 5572,
    "\u2581cprogramy": 5573,
    "141": 5574,
    "\u258151c": 5575,
    "\u2581cprogrami": 5576,
    "260": 5577,
    "msvcr": 5578,
    "3f7c4": 5579,
    "5dc": 5580,
    "\u25814e4": 5581,
    "produ": 5582,
    "bclsid": 5583,
    "proxystubclsid": 5584,
    "cookies": 5585,
    "\u2581dwindowssystem32cryptbasedll": 5586,
    "9f7c4": 5587,
    "\u25814d8": 5588,
    "che": 5589,
    "aa8": 5590,
    "\u258112ec78": 5591,
    "\u2581558": 5592,
    "\u2581164600": 5593,
    "seexe": 5594,
    "901": 5595,
    "\u2581fileslu": 5596,
    "eb30": 5597,
    "744": 5598,
    "f28": 5599,
    "\u25814c4": 5600,
    "\u25812c80000": 5601,
    "kk": 5602,
    "\u2581viewer": 5603,
    "\u2581668": 5604,
    "\u2581aafe": 5605,
    "31256": 5606,
    "d18": 5607,
    "\u258180readeradobeepic": 5608,
    "\u258114a058": 5609,
    "1d8": 5610,
    "fcd8": 5611,
    "\u2581filesadobeadobe": 5612,
    "l11": 5613,
    "ev": 5614,
    "\u2581480": 5615,
    "\u2581674": 5616,
    "\u258112f344": 5617,
    "orexe": 5618,
    "calend": 5619,
    "\u25811014": 5620,
    "\u2581498": 5621,
    "\u2581filesmei": 5622,
    "\u2581100080": 5623,
    "\u258112e6a4": 5624,
    "\u25812cdf0": 5625,
    "\u2581file": 5626,
    "\u25811b6": 5627,
    "230": 5628,
    "\u258158c": 5629,
    "\u25811231256": 5630,
    "\u2581cwindowssystem32imagehlpdll": 5631,
    "\u2581sleep35s": 5632,
    "stats": 5633,
    "\u25814051e4": 5634,
    "metadata": 5635,
    "\u2581458a18": 5636,
    "\u258141b9b8": 5637,
    "typelib": 5638,
    "a5c": 5639,
    "\u2581149f7": 5640,
    "910": 5641,
    "ernel32dll": 5642,
    "120dll": 5643,
    "hxn": 5644,
    "748": 5645,
    "\u2581cdocume1adminlocals1tempnsl2tmp": 5646,
    "bd4": 5647,
    "\u2581634": 5648,
    "ddc": 5649,
    "\u258114b0": 5650,
    "driver": 5651,
    "jz": 5652,
    "\u25811b3": 5653,
    "pitems": 5654,
    "cystartu": 5655,
    "cystartupitems": 5656,
    "980": 5657,
    "e80": 5658,
    "f97c": 5659,
    "ten": 5660,
    "f448c8": 5661,
    "testf448c8": 5662,
    "w32": 5663,
    "\u25812be": 5664,
    "ff08": 5665,
    "\u2581cdocume1adminlocals1tempnsx": 5666,
    "koeu": 5667,
    "\u2581dwindowssystem32cryp": 5668,
    "\u258112f7dc": 5669,
    "\u25811d7": 5670,
    "742": 5671,
    "elck": 5672,
    "mukoeu": 5673,
    "64exe": 5674,
    "spc": 5675,
    "lter": 5676,
    "f20": 5677,
    "\u2581id": 5678,
    "spooldrivers": 5679,
    "\u25817c92": 5680,
    "a78": 5681,
    "\u25817e940000": 5682,
    "rysys": 5683,
    "\u2581stub": 5684,
    "countrysys": 5685,
    "\u2581visual": 5686,
    "\u258112fb60": 5687,
    "ef0": 5688,
    "3f0": 5689,
    "\u25815d0": 5690,
    "\u258162": 5691,
    "f81c": 5692,
    "\u258112e4a6": 5693,
    "\u2581stubpath": 5694,
    "590": 5695,
    "\u258119018": 5696,
    "\u2581cwindowssystem32countrysys": 5697,
    "9b8": 5698,
    "saexe": 5699,
    "\u2581cwindowssystem32spooldrivers": 5700,
    "\u25811d1fce4": 5701,
    "\u25811d1fd04": 5702,
    "\u258112f468": 5703,
    "w32x86": 5704,
    "\u25812de": 5705,
    "f998": 5706,
    "750": 5707,
    "gb": 5708,
    "36c": 5709,
    "fdf0": 5710,
    "zi": 5711,
    "7e4": 5712,
    "\u2581e2c": 5713,
    "\u2581cclassifieddocexe": 5714,
    "\u258112eed8": 5715,
    "\u2581components": 5716,
    "645170": 5717,
    "\u258119018645170": 5718,
    "00c04": 5719,
    "\u2581cdocume1adminlocals1tempra": 5720,
    "ceselck": 5721,
    "5e0": 5722,
    "minidownload": 5723,
    "\u2581cwindowssystem32spooldriversw32x86": 5724,
    "\u2581video": 5725,
    "\u2581hkeylocalmachinesystemcontrolset001controlsafebootnetwork4d36e": 5726,
    "b77a5c561934e089system": 5727,
    "waremicrosoftwindowscurrentversionextstats": 5728,
    "\u258188b8": 5729,
    "\u258112db34": 5730,
    "535": 5731,
    "mineexe": 5732,
    "f190": 5733,
    "\u258112e16c": 5734,
    "cyc": 5735,
    "380": 5736,
    "han": 5737,
    "nk": 5738,
    "1f8": 5739,
    "\u258112fef0": 5740,
    "48c": 5741,
    "mbat": 5742,
    "\u258114b": 5743,
    "\u2581filesluos": 5744,
    "f0b8": 5745,
    "\u2581viewer10": 5746,
    "etfexe": 5747,
    "l111dll": 5748,
    "\u258112eef8": 5749,
    "\u258149c": 5750,
    "disk": 5751,
    "\u258112fc03": 5752,
    "\u2581generatorexe": 5753,
    "\u2581cdocume1adminlocals1temptmp3tmp": 5754,
    "\u25816d": 5755,
    "lock": 5756,
    "e480": 5757,
    "\u2581538": 5758,
    "\u25811f0f928": 5759,
    "ae0": 5760,
    "\u258147c": 5761,
    "alini": 5762,
    "\u2581cwindowssystem32xp": 5763,
    "\u2581sleep28s": 5764,
    "\u2581type": 5765,
    "\u25817a3": 5766,
    "verlight": 5767,
    "864": 5768,
    "\u2581cwindowssystem32spooldriversw32x863": 5769,
    "\u2581cwindowsmicrosoftnetframeworkv": 5770,
    "v2050727c": 5771,
    "javaplugin": 5772,
    "758": 5773,
    "f640": 5774,
    "\u25813d1ebb0": 5775,
    "\u25813d1ec04": 5776,
    "\u2581333f2c0": 5777,
    "\u258112ed5c": 5778,
    "testf448c8c9": 5779,
    "\u2581cookies": 5780,
    "\u2581218f878": 5781,
    "\u2581218f8b0": 5782,
    "l120dll": 5783,
    "\u258154c": 5784,
    "\u2581488": 5785,
    "\u2581sleep12": 5786,
    "waremicrosoftwindowsshellnoroambag": 5787,
    "f0048": 5788,
    "\u2581f100": 5789,
    "aa00": 5790,
    "31bf3856ad364e3": 5791,
    "318": 5792,
    "\u25811520": 5793,
    "\u2581510": 5794,
    "\u25812dcfe88": 5795,
    "\u2581490": 5796,
    "\u258112bc": 5797,
    "http": 5798,
    "e12": 5799,
    "\u25814bc": 5800,
    "\u258110023": 5801,
    "f56": 5802,
    "\u2581cwindowssystem32rasadhlpdll": 5803,
    "197": 5804,
    "ul": 5805,
    "rameters": 5806,
    "\u25815c4": 5807,
    "\u2581c1f": 5808,
    "668": 5809,
    "\u2581reader80ws58a04a822e3e50102bd615109794195ff7a": 5810,
    "ren": 5811,
    "\u2581cdocume1adminlocals1tempminidownload": 5812,
    "jh": 5813,
    "\u2581efd": 5814,
    "9a5": 5815,
    "38f": 5816,
    "\u25817ac": 5817,
    "\u2581settingsadminmukoeu": 5818,
    "3e0": 5819,
    "\u25814d": 5820,
    "\u2581183134": 5821,
    "\u2581c1ed": 5822,
    "\u2581920": 5823,
    "\u2581406b": 5824,
    "\u2581122816": 5825,
    "\u2581dwindowssyswow64": 5826,
    "0028": 5827,
    "\u2581del": 5828,
    "ogoumobile": 5829,
    "3b0": 5830,
    "\u25812f7": 5831,
    "\u258112fb14": 5832,
    "\u25811a1fe6c": 5833,
    "\u2581recvfrom": 5834,
    "\u258112f88": 5835,
    "\u2581333f2c8": 5836,
    "df4": 5837,
    "\u2581cdocume1adminlocals1tempf": 5838,
    "\u2581settingslocal": 5839,
    "\u25811a1fe94": 5840,
    "efc": 5841,
    "\u258112f888": 5842,
    "\u2581hkeycurrentusers1": 5843,
    "power": 5844,
    "\u2581478": 5845,
    "\u258112f1d8": 5846,
    "tent": 5847,
    "\u2581cwindowssystem32xdccprogramsreaderslexe": 5848,
    "\u2581filesjavajre6": 5849,
    "\u2581res": 5850,
    "194": 5851,
    "ned": 5852,
    "\u2581cdocume1adminlocals1tempminidownloadexe": 5853,
    "\u2581352": 5854,
    "d180": 5855,
    "\u25812d6": 5856,
    "\u2581f1004c": 5857,
    "\u2581cdocume1adminlocals1tempnsa": 5858,
    "\u2581dataaj": 5859,
    "1html": 5860,
    "\u2581573": 5861,
    "ificate": 5862,
    "\u2581httpwww": 5863,
    "\u2581dataajetfexe": 5864,
    "samlibdll": 5865,
    "\u25814c0": 5866,
    "1fc8b3b9a1e18e3b80": 5867,
    "\u2581684": 5868,
    "\u2581ffffffffff": 5869,
    "\u2581ffffffffffffff": 5870,
    "\u25811498": 5871,
    "\u2581ser": 5872,
    "\u2581filesav": 5873,
    "396": 5874,
    "\u2581247": 5875,
    "plan": 5876,
    "\u258112f3d8": 5877,
    "\u2581147e38": 5878,
    "\u2581sdk": 5879,
    "we": 5880,
    "\u2581run": 5881,
    "\u2581152340": 5882,
    "\u25817e5a0": 5883,
    "mxdw": 5884,
    "\u25815a0": 5885,
    "\u2581filesjavajre7": 5886,
    "\u258114e1e8": 5887,
    "draw": 5888,
    "\u25813e6": 5889,
    "\u2581hkeylocalmachinesoftwareclassesclsid0": 5890,
    "bec04": 5891,
    "\u25811293": 5892,
    "\u2581dwindowsmicrosoftnetframework": 5893,
    "hlpapidll": 5894,
    "\u258112ed54": 5895,
    "\u258112f42c": 5896,
    "00a710": 5897,
    "sample": 5898,
    "f534": 5899,
    "\u25816d8": 5900,
    "\u2581413038": 5901,
    "faa0": 5902,
    "074": 5903,
    "1088": 5904,
    "\u2581datamicrosoftnetworkconnection": 5905,
    "570": 5906,
    "\u25811544": 5907,
    "lli": 5908,
    "\u2581nul": 5909,
    "d58": 5910,
    "\u258180readeradobeepiceula": 5911,
    "\u2581db": 5912,
    "268": 5913,
    "ffa0": 5914,
    "\u2581dwindowssystem32clbcatqdll": 5915,
    "\u258120160712": 5916,
    "\u2581297": 5917,
    "\u2581sleep23": 5918,
    "\u2581bde": 5919,
    "\u2581cdocume1adminlocals1tempnsg2tmp": 5920,
    "\u258120060901": 5921,
    "\u2581cdocume1adminlocals1tempca": 5922,
    "non": 5923,
    "\u2581remote": 5924,
    "\u2581cwindowssystem32spooldriversw32x863mxdw": 5925,
    "82": 5926,
    "tions": 5927,
    "\u2581169": 5928,
    "\u25814a0": 5929,
    "\u2581cbe": 5930,
    "chtml": 5931,
    "\u2581sleep11": 5932,
    "f988": 5933,
    "fbe": 5934,
    "\u2581c1e": 5935,
    "\u2581fileswindows": 5936,
    "\u258159c": 5937,
    "bject": 5938,
    "\u2581cwindowssystem32wintrustdll": 5939,
    "\u2581474": 5940,
    "\u25814b4": 5941,
    "ay": 5942,
    "zhhan": 5943,
    "\u25811c9e": 5944,
    "\u2581237": 5945,
    "594": 5946,
    "\u2581bf0048": 5947,
    "\u2581remoteaccess": 5948,
    "9272": 5949,
    "v50": 5950,
    "\u2581578": 5951,
    "\u2581cwindowssystem32spooldriversw32x863mxdwdu": 5952,
    "assemblygacmsilsystem": 5953,
    "um": 5954,
    "fx": 5955,
    "proxy": 5956,
    "\u2581516": 5957,
    "win7user": 5958,
    "link": 5959,
    "eed": 5960,
    "\u2581bingcom": 5961,
    "\u2581484": 5962,
    "cachec": 5963,
    "gs": 5964,
    "\u258113f1": 5965,
    "\u25813b1": 5966,
    "ad7": 5967,
    "\u258112e168": 5968,
    "gr": 5969,
    "fe14": 5970,
    "\u25811dde": 5971,
    "\u2581router": 5972,
    "0e": 5973,
    "\u25817a": 5974,
    "\u258176d125d4": 5975,
    "fe98": 5976,
    "\u258148c": 5977,
    "jau": 5978,
    "ial": 5979,
    "fb8": 5980,
    "\u258112f21c": 5981,
    "identifi": 5982,
    "v205072732": 5983,
    "lidll": 5984,
    "verlightv50": 5985,
    "4c0": 5986,
    "1200": 5987,
    "folderdll": 5988,
    "fd8": 5989,
    "\u258176d125c4": 5990,
    "3e504": 5991,
    "\u2581cdocume1adminlocals1tempk": 5992,
    "ltexe": 5993,
    "\u2581playlist": 5994,
    "\u258146d": 5995,
    "helle": 5996,
    "6fe": 5997,
    "\u2581291": 5998,
    "65c": 5999,
    "3a8": 6000,
    "\u2581cwindowsmicrosoftnetframeworkv2050727c": 6001,
    "mutexblindusers15211176097108381707525159678991003": 6002,
    "7f8": 6003,
    "identifier": 6004,
    "\u25812ffff6c": 6005,
    "\u25812ffffb0": 6006,
    "vercfgupdateplugver200": 6007,
    "\u2581soft": 6008,
    "zew": 6009,
    "\u258157ff5c": 6010,
    "\u258157ff7c": 6011,
    "\u2581182": 6012,
    "\u2581svchostexem7": 6013,
    "forms": 6014,
    "fd78": 6015,
    "\u2581149c80": 6016,
    "191": 6017,
    "\u258112f8c0": 6018,
    "obat": 6019,
    "\u258112c0": 6020,
    "\u25817ffff": 6021,
    "df6": 6022,
    "f70": 6023,
    "\u258112e154": 6024,
    "fd2c": 6025,
    "calendar": 6026,
    "\u2581150008": 6027,
    "\u25815dc": 6028,
    "\u2581164628": 6029,
    "\u258132ef": 6030,
    "\u25819d": 6031,
    "\u2581dataexe": 6032,
    "appdatalocal": 6033,
    "ga": 6034,
    "b98": 6035,
    "\u25812850000": 6036,
    "\u258115f": 6037,
    "\u25817d5": 6038,
    "901200000011000000000000000ff1ce": 6039,
    "ef14": 6040,
    "6e0": 6041,
    "\u2581datamicrosoftwindows": 6042,
    "e484": 6043,
    "\u2581cdocume1adminlocals1tempnsi": 6044,
    "feed": 6045,
    "userswin7user": 6046,
    "\u25811540": 6047,
    "f95c": 6048,
    "2s": 6049,
    "\u258159": 6050,
    "db0": 6051,
    "\u258120016": 6052,
    "fa48": 6053,
    "fd7c": 6054,
    "parameters": 6055,
    "wq": 6056,
    "\u25816e0": 6057,
    "\u258112f1ee": 6058,
    "19s": 6059,
    "\u2581251e9c": 6060,
    "f8f0": 6061,
    "\u2581564": 6062,
    "\u2581cwindowssystem32xdccprogramssetupexe": 6063,
    "bcinprocserver32": 6064,
    "\u25814d0": 6065,
    "f9fc": 6066,
    "rvsvc": 6067,
    "becc": 6068,
    "927296": 6069,
    "520927296": 6070,
    "bet": 6071,
    "izer": 6072,
    "\u2581c1d0": 6073,
    "fda0": 6074,
    "\u25816a0": 6075,
    "a7c": 6076,
    "\u2581221": 6077,
    "e9c0": 6078,
    "erson": 6079,
    "\u258120016f2c": 6080,
    "\u2581cdocume1adminlocals1tempish": 6081,
    "\u258189e0": 6082,
    "\u258122f": 6083,
    "\u25813db": 6084,
    "\u25813e5f878": 6085,
    "\u25813e5f8b0": 6086,
    "\u2581500": 6087,
    "irplan": 6088,
    "irplanebmp": 6089,
    "\u2581picturesairplanebmp": 6090,
    "\u258116e": 6091,
    "bcdeffedcbainprocserver32": 6092,
    "cra": 6093,
    "ssil": 6094,
    "\u2581cprogramt": 6095,
    "hp": 6096,
    "\u2581520": 6097,
    "e7html": 6098,
    "nvs": 6099,
    "\u2581sleep25s": 6100,
    "91c": 6101,
    "960": 6102,
    "2052hxn": 6103,
    "password": 6104,
    "bbinprocserver32": 6105,
    "\u258112b5": 6106,
    "e714": 6107,
    "ynch": 6108,
    "\u25812ca": 6109,
    "\u25811dd": 6110,
    "\u2581filesali": 6111,
    "\u2581winmineexe": 6112,
    "fc98": 6113,
    "1pt": 6114,
    "uxthemedll": 6115,
    "\u2581filesw": 6116,
    "\u25811496b0": 6117,
    "\u2581cwindowssystem32xpsp2resdll": 6118,
    "\u2581frame": 6119,
    "\u25816f4": 6120,
    "5b8": 6121,
    "diag": 6122,
    "f5e8": 6123,
    "\u2581cwindowsexplorerexe": 6124,
    "firew": 6125,
    "sho": 6126,
    "\u2581sleep27s": 6127,
    "\u2581cwindowssystem32apphelpdll": 6128,
    "\u2581149d58": 6129,
    "cmq": 6130,
    "x86exe": 6131,
    "\u2581databaidubaidurjdownloader130": 6132,
    "207": 6133,
    "\u2581574": 6134,
    "\u2581sdkssil": 6135,
    "0elg": 6136,
    "\u25817e578": 6137,
    "fhtml": 6138,
    "iphlpapidll": 6139,
    "scexe": 6140,
    "0000ffffabcdeffedcbainprocserver32": 6141,
    "\u258110de": 6142,
    "\u258112fce0": 6143,
    "bef2": 6144,
    "\u258112f90c": 6145,
    "dime12": 6146,
    "ygamebox": 6147,
    "\u2581sharedime12": 6148,
    "\u2581filesnvs": 6149,
    "ceselck1": 6150,
    "helper": 6151,
    "138": 6152,
    "f47": 6153,
    "\u25819bbd": 6154,
    "\u2581cwindowssystem32dwwin": 6155,
    "5bc": 6156,
    "a23": 6157,
    "jdz": 6158,
    "\u25811eae208": 6159,
    "\u25811eae238": 6160,
    "setupfiles": 6161,
    "cachemetadata": 6162,
    "\u2581settingshistory": 6163,
    "4exe": 6164,
    "alth": 6165,
    "171": 6166,
    "gbim": 6167,
    "nhql": 6168,
    "\u2581550": 6169,
    "1m1pt": 6170,
    "2tjdz": 6171,
    "kugbim": 6172,
    "\u2581bnhql": 6173,
    "0elg1m1pt": 6174,
    "2tjdzedata": 6175,
    "\u2581bnhqlkugbim": 6176,
    "0elg1m1pt2tjdzedata": 6177,
    "\u2581bnhqlkugbim0elg1m1pt2tjdzedata": 6178,
    "butt": 6179,
    "\u258112cd": 6180,
    "windowsgdiplus": 6181,
    "\u2581604": 6182,
    "ge": 6183,
    "\u2581393": 6184,
    "\u2581playlists": 6185,
    "mt": 6186,
    "e58": 6187,
    "\u2581175": 6188,
    "\u25811535": 6189,
    "\u25812001": 6190,
    "ba4": 6191,
    "9d4": 6192,
    "278": 6193,
    "a58": 6194,
    "\u25814e9f6e0": 6195,
    "\u2581cfe": 6196,
    "button": 6197,
    "\u25814e9f6b8": 6198,
    "qhimgcomt0": 6199,
    "goo": 6200,
    "f438": 6201,
    "cdata": 6202,
    "\u2581ceula": 6203,
    "102": 6204,
    "\u2581software": 6205,
    "\u2581710": 6206,
    "\u2581cwindowssystem32xdccprogramsflash9exe": 6207,
    "\u25811eb": 6208,
    "health": 6209,
    "\u2581a1d3": 6210,
    "\u25815bc": 6211,
    "\u25813ff": 6212,
    "exce": 6213,
    "\u2581694": 6214,
    "ctiondll": 6215,
    "\u25815b1": 6216,
    "ntdsapidll": 6217,
    "day": 6218,
    "fr": 6219,
    "\u258122a": 6220,
    "\u2581514": 6221,
    "\u25812176913": 6222,
    "\u2581624": 6223,
    "\u258112fa74": 6224,
    "\u25812940000": 6225,
    "\u25817ffd6000": 6226,
    "\u258112f8ac": 6227,
    "okexe": 6228,
    "\u2581userlocal": 6229,
    "jk": 6230,
    "\u2581282": 6231,
    "n2q": 6232,
    "\u2581start": 6233,
    "\u258112e410": 6234,
    "\u2581598": 6235,
    "wbh": 6236,
    "\u258112e224": 6237,
    "a17": 6238,
    "\u2581654": 6239,
    "\u25811836192": 6240,
    "\u2581cprogramavg": 6241,
    "pca1": 6242,
    "3db": 6243,
    "\u2581shell32dll217": 6244,
    "\u2581filesjavajre6lib": 6245,
    "lk": 6246,
    "1438": 6247,
    "lvyx": 6248,
    "pdjx": 6249,
    "n2qzew": 6250,
    "\u2581cpdjx": 6251,
    "cmqpca1": 6252,
    "lvyxcdata": 6253,
    "wbhn2qzew": 6254,
    "\u2581cpdjxwbhn2qzew": 6255,
    "cmqpca1lvyxcdata": 6256,
    "\u2581cpdjxwbhn2qzewcmqpca1lvyxcdata": 6257,
    "btmp": 6258,
    "\u25819bc4": 6259,
    "330": 6260,
    "\u25811b2": 6261,
    "bac": 6262,
    "9fd04": 6263,
    "25c": 6264,
    "1fun": 6265,
    "\u25815f0": 6266,
    "1f7c4": 6267,
    "\u258112e408": 6268,
    "gg": 6269,
    "\u25811b9e2": 6270,
    "f750": 6271,
    "cvwdll": 6272,
    "\u258180readerhowtoenureadmeeml": 6273,
    "\u2581704": 6274,
    "f7f11": 6275,
    "b03f5": 6276,
    "f7f11d50": 6277,
    "b03f5f7f11d50": 6278,
    "pchealth": 6279,
    "680": 6280,
    "\u258160c": 6281,
    "\u2581sleep26s": 6282,
    "ab8": 6283,
    "\u25815d8": 6284,
    "ffffffff": 6285,
    "\u2581xptestf448c8c9": 6286,
    "\u2581164840": 6287,
    "\u2581abe": 6288,
    "\u258153c": 6289,
    "\u2581media": 6290,
    "custo": 6291,
    "\u258112f2c4": 6292,
    "\u2581b00000": 6293,
    "\u25811519c0": 6294,
    "dea38": 6295,
    "miadap": 6296,
    "\u25817ffde000": 6297,
    "miadapexe": 6298,
    "\u25812a2": 6299,
    "\u2581helpms": 6300,
    "\u2581120080": 6301,
    "shlwapidll": 6302,
    "\u2581cwindowssystem32si": 6303,
    "\u2581aebecc": 6304,
    "pif": 6305,
    "\u25818d": 6306,
    "\u25813ebe": 6307,
    "ji": 6308,
    "360safe": 6309,
    "\u25814b0": 6310,
    "\u2581namedpipesrvsvc": 6311,
    "\u258189e": 6312,
    "firewall": 6313,
    "\u2581148c": 6314,
    "14s": 6315,
    "rarreg": 6316,
    "search": 6317,
    "\u2581233": 6318,
    "7f7c4": 6319,
    "\u2581cprogramo": 6320,
    "f624": 6321,
    "hellext": 6322,
    "ibi": 6323,
    "\u25813beead0": 6324,
    "\u25813b9": 6325,
    "\u2581cwindowssystem32shdocvwdll": 6326,
    "css": 6327,
    "284": 6328,
    "\u258152dea": 6329,
    "122052hxn": 6330,
    "qhimgcomt01": 6331,
    "\u2581cdocume1adminlocals1tempnsm2tmp": 6332,
    "\u2581b1dc": 6333,
    "1js": 6334,
    "\u25815b0": 6335,
    "\u258112f868": 6336,
    "ort": 6337,
    "f888": 6338,
    "\u25815cc": 6339,
    "\u25811c5e1d0": 6340,
    "\u25811c5e1d4": 6341,
    "\u25811c5e200": 6342,
    "\u25813a3": 6343,
    "\u2581493e0": 6344,
    "\u25812870000": 6345,
    "\u2581datamicrosoftnetworkconnectionspbk": 6346,
    "\u258170c": 6347,
    "3b4": 6348,
    "888": 6349,
    "\u25813beea28": 6350,
    "\u2581580": 6351,
    "\u25813beea38": 6352,
    "ibility": 6353,
    "rsexe": 6354,
    "764": 6355,
    "ee08": 6356,
    "msh": 6357,
    "\u25818a": 6358,
    "fdd8": 6359,
    "\u25817f8": 6360,
    "\u25815ec": 6361,
    "\u2581590": 6362,
    "fc3c": 6363,
    "\u2581179": 6364,
    "\u258140e": 6365,
    "b9d": 6366,
    "\u2581100d3": 6367,
    "rc4exe": 6368,
    "\u258114d7e8": 6369,
    "\u2581cwindowssystem32sirc4exe": 6370,
    "2ac": 6371,
    "\u2581converter": 6372,
    "\u2581b1df": 6373,
    "bexem18": 6374,
    "\u2581d0ff": 6375,
    "\u258120a": 6376,
    "ee1": 6377,
    "5b0": 6378,
    "\u25812930000": 6379,
    "b45": 6380,
    "ris": 6381,
    "\u258114af": 6382,
    "vx": 6383,
    "aac": 6384,
    "\u2581sleep24s": 6385,
    "df78": 6386,
    "\u2581sdkssilverlightv50": 6387,
    "\u25812d1": 6388,
    "\u2581filesgame": 6389,
    "550": 6390,
    "\u2581270ecf4": 6391,
    "1f4": 6392,
    "\u2581670": 6393,
    "f3e4": 6394,
    "\u2581698": 6395,
    "d80": 6396,
    "\u25816ec": 6397,
    "\u2581588": 6398,
    "estation": 6399,
    "a20": 6400,
    "\u2581po": 6401,
    "\u2581shareime": 6402,
    "\u258112f9f0": 6403,
    "\u25815c8": 6404,
    "\u25816b4": 6405,
    "\u258137ae410": 6406,
    "\u2581datamicrosoftcryptneturlcachemetadata": 6407,
    "\u258112f9f4": 6408,
    "\u258169": 6409,
    "\u2581570": 6410,
    "1030": 6411,
    "\u258112f29c": 6412,
    "\u25814e7ff6c": 6413,
    "mutx": 6414,
    "\u258111ea": 6415,
    "\u2581153d": 6416,
    "fd30": 6417,
    "cprogram": 6418,
    "\u2581officestation": 6419,
    "216": 6420,
    "561": 6421,
    "qy": 6422,
    "\u258112ba": 6423,
    "\u2581officestationery": 6424,
    "1mutx": 6425,
    "\u2581cwindowsfontshidese1fun": 6426,
    "micros3": 6427,
    "riched32dll": 6428,
    "\u2581cprogra1micros3": 6429,
    "\u25811512": 6430,
    "298": 6431,
    "wz": 6432,
    "317": 6433,
    "ec08": 6434,
    "\u2581datade": 6435,
    "722": 6436,
    "\u2581143f": 6437,
    "\u25817b0": 6438,
    "functiondll": 6439,
    "upp": 6440,
    "\u258122e": 6441,
    "\u2581cdownloadflash9exe": 6442,
    "\u2581c8f": 6443,
    "\u2581528": 6444,
    "\u2581cprogra1micros3office12": 6445,
    "404": 6446,
    "\u258114ff": 6447,
    "7032": 6448,
    "\u2581sleep19s": 6449,
    "\u2581toolbar": 6450,
    "mscoreedll": 6451,
    "\u25815a": 6452,
    "reco": 6453,
    "baiducom": 6454,
    "13s": 6455,
    "fa60": 6456,
    "7470": 6457,
    "\u25817d3": 6458,
    "1a3": 6459,
    "\u2581version": 6460,
    "configurl": 6461,
    "\u2581autoconfigurl": 6462,
    "4950": 6463,
    "\u2581sleep23s": 6464,
    "mk": 6465,
    "314": 6466,
    "login": 6467,
    "\u2581name": 6468,
    "tspdll": 6469,
    "\u25811000002": 6470,
    "langu": 6471,
    "\u2581524": 6472,
    "bers": 6473,
    "\u25815ac": 6474,
    "\u2581cdocume1adminlocals1tempobdmnetgetinfodll": 6475,
    "renli": 6476,
    "\u25818e4": 6477,
    "imd": 6478,
    "very": 6479,
    "ctionexe": 6480,
    "a64": 6481,
    "99934": 6482,
    "7032122": 6483,
    "9361438": 6484,
    "52114428": 6485,
    "\u2581sleep21s": 6486,
    "93614384950": 6487,
    "703212299934": 6488,
    "52114428703212299934": 6489,
    "5211442870321229993493614384950": 6490,
    "9e4": 6491,
    "d10": 6492,
    "vh": 6493,
    "\u2581sleep22s": 6494,
    "spb": 6495,
    "\u2581164828": 6496,
    "statedatarac": 6497,
    "\u258118361925": 6498,
    "lsexe": 6499,
    "\u2581c00000": 6500,
    "softwaremicrosoftwindowscurrentversioninternet": 6501,
    "226": 6502,
    "\u25811488": 6503,
    "\u2581dwindowssystem32shlwapidll": 6504,
    "fcac": 6505,
    "f8b4": 6506,
    "\u2581filesmeirenli": 6507,
    "ctheartbeatccidtgidp": 6508,
    "7f0": 6509,
    "dtmp": 6510,
    "wav": 6511,
    "\u258122fc": 6512,
    "\u2581cdocume1adminlocals1temp1exe": 6513,
    "53f000ff53f000ff53f000ff": 6514,
    "book": 6515,
    "\u2581sleep18s": 6516,
    "tool": 6517,
    "netservice": 6518,
    "\u258112fe38": 6519,
    "ds": 6520,
    "\u2581cdocume1adminlocals1tempnst": 6521,
    "\u25816f8": 6522,
    "\u2581530": 6523,
    "vj": 6524,
    "pbk": 6525,
    "554": 6526,
    "f80": 6527,
    "\u258182": 6528,
    "\u2581cwindowsassemblynativeimagesv205072732": 6529,
    "\u2581cwindowssystem32wsock32dll": 6530,
    "\u258112f9e4": 6531,
    "gdiplusdll": 6532,
    "916": 6533,
    "5f7c4": 6534,
    "rarsf": 6535,
    "\u25813470": 6536,
    "\u2581cdocume1adminlocals1tempn": 6537,
    "\u2581reader80ws58a04a822e3e50102bd615109794195ff7d": 6538,
    "wy": 6539,
    "80crt": 6540,
    "qs": 6541,
    "ee30": 6542,
    "acrobat": 6543,
    "\u2581cprogramfunctiondll": 6544,
    "\u25815b2": 6545,
    "\u25811944": 6546,
    "\u258183": 6547,
    "\u25811b7": 6548,
    "\u2581376": 6549,
    "\u2581cwindowstempk": 6550,
    "\u25813f6": 6551,
    "\u258112f58f": 6552,
    "netserviceini": 6553,
    "b9f74": 6554,
    "\u2581cdocume1adminlocals1temp003": 6555,
    "d93": 6556,
    "a51bef2": 6557,
    "a51bef21088": 6558,
    "b9f74a51bef21088": 6559,
    "7b0": 6560,
    "\u25812800": 6561,
    "203": 6562,
    "ball": 6563,
    "f930": 6564,
    "a68": 6565,
    "\u2581cwindowsfontshidese1functionexe": 6566,
    "\u258152352": 6567,
    "\u2581104e": 6568,
    "\u2581serial": 6569,
    "migra": 6570,
    "cores": 6571,
    "7470b9f74a51bef21088": 6572,
    "yserver": 6573,
    "307": 6574,
    "becf4": 6575,
    "\u2581136": 6576,
    "1mutx9": 6577,
    "\u2581op1mutx9": 6578,
    "\u2581picturesc": 6579,
    "\u2581cprogramms": 6580,
    "4e8": 6581,
    "\u258112f020": 6582,
    "151": 6583,
    "4850": 6584,
    "\u258152c": 6585,
    "\u2581disable": 6586,
    "\u2581cprogramsetupapidll": 6587,
    "\u25812c70000": 6588,
    "\u2581115239210": 6589,
    "b03f5f7f11d50a3a": 6590,
    "3a0": 6591,
    "\u258112e500": 6592,
    "\u2581cdocume1adminlocals1temp8": 6593,
    "hao123": 6594,
    "913": 6595,
    "\u2581104700": 6596,
    "audiodll": 6597,
    "hi": 6598,
    "ede0": 6599,
    "\u2581datamicrosoftnetworkconnectionspbkpbk": 6600,
    "\u25812a9": 6601,
    "hip": 6602,
    "pr": 6603,
    "\u25811486": 6604,
    "ersonal": 6605,
    "\u2581170ead0": 6606,
    "\u258112e05c": 6607,
    "\u258111f7": 6608,
    "credistx86exe": 6609,
    "537": 6610,
    "0003": 6611,
    "\u2581af0000": 6612,
    "b3c": 6613,
    "\u2581cprogramra": 6614,
    "b56": 6615,
    "feac": 6616,
    "\u2581cwindowssystem32raspbk": 6617,
    "ypes": 6618,
    "\u258112d878": 6619,
    "obe": 6620,
    "\u2581cdocume1adminlocals1temprarsf": 6621,
    "\u25811233": 6622,
    "\u2581proxyserver": 6623,
    "\u2581128d00": 6624,
    "468": 6625,
    "certificate": 6626,
    "218": 6627,
    "\u258155c": 6628,
    "fibers": 6629,
    "\u258112e254": 6630,
    "fibersl111dll": 6631,
    "\u25811452": 6632,
    "sound": 6633,
    "coresynch": 6634,
    "\u2581170ea38": 6635,
    "\u25817fc": 6636,
    "\u258112d8a8": 6637,
    "\u258115a3": 6638,
    "\u2581170ea28": 6639,
    "00000000000ff1c": 6640,
    "\u258112fc44": 6641,
    "\u258112db90": 6642,
    "fd74": 6643,
    "215": 6644,
    "64v4030319": 6645,
    "\u25813b3": 6646,
    "bbc": 6647,
    "f838": 6648,
    "738": 6649,
    "fd14": 6650,
    "80400000000000ff1c": 6651,
    "\u2581datagooglechrome": 6652,
    "coresynchl120dll": 6653,
    "fa40": 6654,
    "\u258116fd6": 6655,
    "migrate": 6656,
    "readobe": 6657,
    "ba6": 6658,
    "\u258112b6": 6659,
    "\u25819be30c": 6660,
    "s1518": 6661,
    "a96": 6662,
    "\u2581163d": 6663,
    "df7cc": 6664,
    "\u2581proxyo": 6665,
    "\u2581proxyoverride": 6666,
    "\u25811527a0": 6667,
    "\u25811d5ead0": 6668,
    "\u2581bu": 6669,
    "\u25812a5": 6670,
    "\u258120cec04": 6671,
    "\u2581236": 6672,
    "ontent": 6673,
    "\u2581officestationery2052": 6674,
    "\u258120cebb0": 6675,
    "\u2581160ff08": 6676,
    "\u2581y": 6677,
    "\u2581365": 6678,
    "\u2581568": 6679,
    "\u2581adf7": 6680,
    "fc74": 6681,
    "\u258112ad70": 6682,
    "\u2581164870": 6683,
    "\u25811532": 6684,
    "\u2581128cd0": 6685,
    "\u2581images": 6686,
    "\u2581104dea4": 6687,
    "\u2581104deac": 6688,
    "rap": 6689,
    "dea28": 6690,
    "\u258112f4a4": 6691,
    "winlogon": 6692,
    "\u2581datamicrosoftcryp": 6693,
    "\u258128a0000": 6694,
    "tri": 6695,
    "\u2581sleep17s": 6696,
    "\u258112f224": 6697,
    "\u2581filesc": 6698,
    "channels": 6699,
    "\u258112b7": 6700,
    "\u25811470": 6701,
    "\u2581sha": 6702,
    "\u25817de": 6703,
    "\u2581690": 6704,
    "\u2581104deb0": 6705,
    "interfacet": 6706,
    "\u2581shareadobe": 6707,
    "\u25813ed": 6708,
    "pipe": 6709,
    "waremicrosoftoffice120wordresiliency": 6710,
    "\u25813d0000": 6711,
    "\u2581sleep11s": 6712,
    "\u25811c1": 6713,
    "e3c": 6714,
    "a010": 6715,
    "\u258112b8": 6716,
    "\u258171": 6717,
    "\u2581cdocume1adminlocals1tempnsq2tmp": 6718,
    "\u258127aec04": 6719,
    "use": 6720,
    "v110": 6721,
    "\u258128aebb0": 6722,
    "\u258128aec04": 6723,
    "e98": 6724,
    "\u25811d5ea28": 6725,
    "\u25811d5ea38": 6726,
    "2a0": 6727,
    "skinpgameboxis": 6728,
    "\u2581313": 6729,
    "rth": 6730,
    "\u2581inul": 6731,
    "\u2581shellext": 6732,
    "waremicrosoftoffice120wordresiliencystartupitems": 6733,
    "interfacethemes": 6734,
    "winrarinterfacethemes": 6735,
    "penwithprogids": 6736,
    "\u2581128ce8": 6737,
    "speci": 6738,
    "730": 6739,
    "sourc": 6740,
    "\u2581filesjavajre7lib": 6741,
    "\u258127aebb0": 6742,
    "\u2581wiz": 6743,
    "\u25812da": 6744,
    "timizer": 6745,
    "wordexe": 6746,
    "\u2581sleep12s": 6747,
    "\u25811694": 6748,
    "\u2581fileswinrarwinrarexelocal": 6749,
    "\u2581m5": 6750,
    "php": 6751,
    "\u2581downloaderexe": 6752,
    "955": 6753,
    "remotedll": 6754,
    "pcrtremotedll": 6755,
    "e1tmp": 6756,
    "\u258112e23c": 6757,
    "326": 6758,
    "\u2581filesjygamebox": 6759,
    "\u258114f9a0": 6760,
    "\u2581cdocume1adminlocals1tempt": 6761,
    "templates": 6762,
    "flashplayer29": 6763,
    "\u2581filesflashplayer29": 6764,
    "\u25811ae": 6765,
    "\u2581idp": 6766,
    "\u25817c948": 6767,
    "\u2581cwindowsassemblygacmicrosoft": 6768,
    "\u25817c9481a3": 6769,
    "goopdate": 6770,
    "ceyi": 6771,
    "\u2581raspb": 6772,
    "\u2581raspbfile": 6773,
    "526": 6774,
    "\u2581cwindowswinsxsx86microsoftwindowsgdiplus": 6775,
    "iospeci": 6776,
    "\u2581433": 6777,
    "\u258128c0000": 6778,
    "\u2581401": 6779,
    "\u25811536": 6780,
    "119": 6781,
    "\u258112f9d4": 6782,
    "548": 6783,
    "ad9c": 6784,
    "\u2581cwindowssystem32wbemntdsapidll": 6785,
    "bf7cc": 6786,
    "\u2581844": 6787,
    "\u2581770": 6788,
    "\u258180readerhowtochss": 6789,
    "\u2581596": 6790,
    "8400": 6791,
    "\u258112ef94": 6792,
    "a66": 6793,
    "zceyi": 6794,
    "zceyiau": 6795,
    "\u2581userszceyiau": 6796,
    "cq": 6797,
    "b3e9": 6798,
    "fa28": 6799,
    "f1d8": 6800,
    "\u2581928": 6801,
    "\u2581search": 6802,
    "ani": 6803,
    "\u2581settingsadminmukoeuwo": 6804,
    "\u2581sav": 6805,
    "svr": 6806,
    "iospecialini": 6807,
    "\u2581900": 6808,
    "directx": 6809,
    "800": 6810,
    "bak": 6811,
    "\u25811ed": 6812,
    "\u25817ff8": 6813,
    "br": 6814,
    "\u2581730": 6815,
    "\u25817ffda000": 6816,
    "f3b0": 6817,
    "\u258122b": 6818,
    "2411": 6819,
    "toreexe": 6820,
    "f5c": 6821,
    "f84": 6822,
    "\u2581d6ff34": 6823,
    "dbghelpdll": 6824,
    "\u258112c6": 6825,
    "\u2581cff": 6826,
    "\u2581cc0020": 6827,
    "\u2581804": 6828,
    "\u2581cdocume1adminlocals1temppft": 6829,
    "ebe": 6830,
    "daexe": 6831,
    "\u2581276": 6832,
    "bas": 6833,
    "\u258115b": 6834,
    "hared": 6835,
    "stro": 6836,
    "\u2581cprogra1common1micros1dw": 6837,
    "\u2581cprogramb": 6838,
    "5f499": 6839,
    "44e11d1": 6840,
    "5f499d93": 6841,
    "ad9c8400": 6842,
    "b3e90080": 6843,
    "44e11d1b3e90080": 6844,
    "\u2581settingsadmincookies": 6845,
    "44e11d1b3e900805f499d93": 6846,
    "ad9c840044e11d1b3e900805f499d93": 6847,
    "\u2581472": 6848,
    "\u25812b0ff34": 6849,
    "\u25813d1ecf4": 6850,
    "\u25813a5": 6851,
    "fa14": 6852,
    "\u2581paths": 6853,
    "dcafeefac": 6854,
    "dcafeefacffffffff": 6855,
    "dcafeefacffffffffffffabcdeffedcba": 6856,
    "zoneidentifier": 6857,
    "820": 6858,
    "6595b64144ccf1df10": 6859,
    "yag": 6860,
    "\u2581musicsample": 6861,
    "f5f4": 6862,
    "filter": 6863,
    "95c": 6864,
    "\u2581ddff": 6865,
    "\u25812b2ff34": 6866,
    "3e2": 6867,
    "a8c": 6868,
    "\u2581cdocume1adminlocals1tempr": 6869,
    "71a": 6870,
    "\u2581namedpipebrowser": 6871,
    "\u2581cconfig": 6872,
    "\u25812ae": 6873,
    "d60": 6874,
    "80dll": 6875,
    "5000": 6876,
    "\u2581cwindowswinsxsx86microsoftwindowsgdiplus6595b64144ccf1df10": 6877,
    "\u258116d": 6878,
    "\u258119afc2c": 6879,
    "\u258119afc30": 6880,
    "\u258119afc18": 6881,
    "\u25813a4918": 6882,
    "\u258112ae": 6883,
    "\u25811a9": 6884,
    "351": 6885,
    "\u258150d624": 6886,
    "\u258150d69c": 6887,
    "\u2581080": 6888,
    "bar": 6889,
    "\u2581settingsadminsigwwcokeqgkyoouexelocal": 6890,
    "b60": 6891,
    "report": 6892,
    "\u2581152c": 6893,
    "\u2581directory": 6894,
    "368": 6895,
    "f8a0": 6896,
    "\u2581b5d": 6897,
    "\u2581fb0000": 6898,
    "\u258112f77c": 6899,
    "\u258112f7f8": 6900,
    "gbat": 6901,
    "\u2581cdocume1adminlocals1tempnss2tmp": 6902,
    "\u2581235": 6903,
    "ine": 6904,
    "\u25816d4": 6905,
    "\u258112fae8": 6906,
    "\u2581rundll32exe": 6907,
    "\u25812ed": 6908,
    "\u2581sleep32": 6909,
    "\u2581explorerc": 6910,
    "\u25818e8": 6911,
    "\u25816f": 6912,
    "resourcesdll": 6913,
    "fa8c": 6914,
    "ond": 6915,
    "\u2581c0ff5c": 6916,
    "spooldtxt": 6917,
    "\u2581cwindowstempkspooldtxt": 6918,
    "\u2581hkeylocalmachinesoftwaremicrosoftwindowscurrentversioninstaller": 6919,
    "num": 6920,
    "\u2581globalcprogram": 6921,
    "ek": 6922,
    "\u25812b1": 6923,
    "context": 6924,
    "aff": 6925,
    "\u258112d43c": 6926,
    "hs": 6927,
    "\u258157c": 6928,
    "\u2581globalcprogramdatamicrosoftrac": 6929,
    "\u258163": 6930,
    "fb38": 6931,
    "\u2581432": 6932,
    "\u25815b2411": 6933,
    "\u2581317": 6934,
    "outlli": 6935,
    "f62c": 6936,
    "\u2581sleep13s": 6937,
    "560": 6938,
    "ttf": 6939,
    "fro": 6940,
    "\u258112fb00": 6941,
    "\u2581186": 6942,
    "wer": 6943,
    "5fe94": 6944,
    "iu": 6945,
    "132": 6946,
    "\u258133ff": 6947,
    "\u2581cdocume1adminlocals1temp39b": 6948,
    "d96": 6949,
    "\u258112eda0": 6950,
    "yst": 6951,
    "\u2581manager": 6952,
    "\u258119fe": 6953,
    "156": 6954,
    "e8bc": 6955,
    "\u25811035": 6956,
    "\u2581log": 6957,
    "atexe": 6958,
    "acec": 6959,
    "80400000000000ff1cec": 6960,
    "optimizer": 6961,
    "dialog": 6962,
    "fc38": 6963,
    "\u25815f8": 6964,
    "\u25818888": 6965,
    "2a8": 6966,
    "dfb54": 6967,
    "dload": 6968,
    "\u2581datamacromedi": 6969,
    "\u2581292": 6970,
    "vent": 6971,
    "\u25812fe": 6972,
    "26005512xwwdfb54": 6973,
    "\u25812cd": 6974,
    "\u2581cc0": 6975,
    "\u2581cdocume1adminlocals1tempnsk": 6976,
    "ark": 6977,
    "241": 6978,
    "\u2581filesflashplayer29saexe": 6979,
    "\u25819ec": 6980,
    "\u2581724": 6981,
    "\u25815f4": 6982,
    "26005512xwwdfb54e0c": 6983,
    "\u258112f2bc": 6984,
    "\u258112f414": 6985,
    "rex": 6986,
    "\u258115fe": 6987,
    "\u25813eb": 6988,
    "c8c": 6989,
    "\u25811844": 6990,
    "\u2581a26": 6991,
    "\u25811611": 6992,
    "laun": 6993,
    "\u2581193": 6994,
    "9fa": 6995,
    "\u25815d4": 6996,
    "\u2581history": 6997,
    "768": 6998,
    "\u258112fd04": 6999,
    "56c": 7000,
    "91gamebox": 7001,
    "\u2581808": 7002,
    "29c": 7003,
    "\u2581restoreexe": 7004,
    "\u2581hkeylocalmachinesystemcontrolset001servicess": 7005,
    "aq": 7006,
    "\u25817f": 7007,
    "bf2c0": 7008,
    "stex": 7009,
    "esexe": 7010,
    "\u2581cwindowssystem32macro": 7011,
    "ook": 7012,
    "7a4": 7013,
    "ffb0": 7014,
    "\u2581aliworkbench": 7015,
    "tv": 7016,
    "ab2": 7017,
    "\u258140738f": 7018,
    "\u258112fcfc": 7019,
    "360360safe": 7020,
    "\u2581certdbhdcicbc": 7021,
    "\u25813ddf878": 7022,
    "fee": 7023,
    "\u25813ddf8b0": 7024,
    "\u2581alipaysecsvc": 7025,
    "libra": 7026,
    "b24": 7027,
    "\u2581ede": 7028,
    "\u25812ccf0": 7029,
    "\u2581officeoffice12outlli": 7030,
    "\u2581594": 7031,
    "\u25812a1": 7032,
    "\u2581ea60": 7033,
    "\u2581114e1": 7034,
    "\u258112fcdc": 7035,
    "mages": 7036,
    "e4c": 7037,
    "\u2581584": 7038,
    "\u2581214f878": 7039,
    "\u2581214f8b0": 7040,
    "\u258116a": 7041,
    "\u2581257": 7042,
    "\u25815fc": 7043,
    "dbhdcicbcexe": 7044,
    "our": 7045,
    "\u2581filesqingfengriliriliminiexe": 7046,
    "280": 7047,
    "birth": 7048,
    "birthday": 7049,
    "fcfc": 7050,
    "\u2581cdocume1adminlocals1temprarsfx0": 7051,
    "\u25811453": 7052,
    "\u258112fd28": 7053,
    "\u2581sharedw": 7054,
    "\u258112f7c0": 7055,
    "\u258132cf": 7056,
    "7bc": 7057,
    "\u2581sharejau": 7058,
    "ot": 7059,
    "jp": 7060,
    "709c": 7061,
    "\u2581164818": 7062,
    "fb0": 7063,
    "fc90": 7064,
    "\u2581filesgamechannels": 7065,
    "haredaccess": 7066,
    "\u2581b8c": 7067,
    "\u258179c": 7068,
    "\u2581cwindowssystem32sensapidll": 7069,
    "e4e10": 7070,
    "\u2581cwindowshelp": 7071,
    "ie5": 7072,
    "e4e106d": 7073,
    "e70e4e106d": 7074,
    "e70e4e106d7470b9f74a51bef21088": 7075,
    "\u258112fb20": 7076,
    "svnbase": 7077,
    "ud": 7078,
    "\u258117221716": 7079,
    "3iexplore": 7080,
    "historyie5": 7081,
    "\u2581zhudongfangyu": 7082,
    "locale": 7083,
    "a1c": 7084,
    "eb50": 7085,
    "f550": 7086,
    "naut": 7087,
    "racing": 7088,
    "fc48": 7089,
    "stronaut": 7090,
    "\u2581picturesastronaut": 7091,
    "a60": 7092,
    "1baidusd2": 7093,
    "\u2581filesbaidusd2": 7094,
    "\u2581filesbaidusd21baidusd2": 7095,
    "\u25811530": 7096,
    "\u258115cf": 7097,
    "316": 7098,
    "f50": 7099,
    "\u25816ac": 7100,
    "fbb": 7101,
    "\u2581cinstall": 7102,
    "fa1c": 7103,
    "\u25811037": 7104,
    "\u2581sleep14s": 7105,
    "7d0": 7106,
    "\u258112f774": 7107,
    "\u2581142": 7108,
    "e4f4": 7109,
    "15440": 7110,
    "apimswincorefibersl111dll": 7111,
    "\u2581filesado": 7112,
    "f728": 7113,
    "\u258132cf2c0": 7114,
    "\u2581608": 7115,
    "haredaccessparameters": 7116,
    "b4e": 7117,
    "firewallpolic": 7118,
    "haredaccessparametersfirewallpolic": 7119,
    "\u258112fe24": 7120,
    "90000": 7121,
    "\u2581f8fe50": 7122,
    "\u25816c4": 7123,
    "ffe88": 7124,
    "kv": 7125,
    "mgr": 7126,
    "f488": 7127,
    "6d8": 7128,
    "131": 7129,
    "apimswincoresynchl120dll": 7130,
    "fe00": 7131,
    "2345": 7132,
    "\u258132cf2c8": 7133,
    "\u258113ef14": 7134,
    "\u25817dc": 7135,
    "\u258113ef34": 7136,
    "video": 7137,
    "\u2581152628": 7138,
    "\u2581205fe": 7139,
    "xs": 7140,
    "\u258176c": 7141,
    "\u2581cwindowsime": 7142,
    "rav": 7143,
    "\u258112fbb4": 7144,
    "iw": 7145,
    "aflash": 7146,
    "sym": 7147,
    "26005512xwwdfb54e0cgdiplusdll": 7148,
    "pf": 7149,
    "\u2581thread32first": 7150,
    "\u2581filescontentie57jxt46zlt": 7151,
    "aw": 7152,
    "\u2581152750": 7153,
    "andard": 7154,
    "\u2581key": 7155,
    "ef30": 7156,
    "\u2581dprogramdatamicrosoftracpublisheddataracwmidatabasesdf": 7157,
    "\u258122b2": 7158,
    "f8f4": 7159,
    "yw": 7160,
    "103086": 7161,
    "\u2581filesbaidusd21baidusd2103086": 7162,
    "\u2581152780": 7163,
    "173": 7164,
    "ramedll": 7165,
    "betypes": 7166,
    "\u2581filesadobetypes": 7167,
    "d9c": 7168,
    "e510": 7169,
    "\u25813d7": 7170,
    "\u25812628": 7171,
    "\u2581officeoffice12ms": 7172,
    "\u2581dwindowssystem32win": 7173,
    "\u2581122224": 7174,
    "\u2581z": 7175,
    "\u2581173": 7176,
    "\u2581sharealiimexe": 7177,
    "1e0": 7178,
    "btn": 7179,
    "bolsdll": 7180,
    "\u258163c": 7181,
    "\u2581datamacromediaflash": 7182,
    "\u25811495": 7183,
    "xk": 7184,
    "\u2581dde": 7185,
    "bf2": 7186,
    "\u25811cce": 7187,
    "\u2581125c": 7188,
    "\u2581filesadobetypespt": 7189,
    "\u258132fedd8": 7190,
    "\u25811fde": 7191,
    "\u2581hkeylocalmachinesystemcontrolset001controlsafebootminimal4d36e": 7192,
    "\u2581784": 7193,
    "eframedll": 7194,
    "hard": 7195,
    "tempi": 7196,
    "\u258153a": 7197,
    "inte": 7198,
    "\u2581b1df3c": 7199,
    "\u25813d5ef98": 7200,
    "\u2581908": 7201,
    "rsyag": 7202,
    "rsyagyq": 7203,
    "\u2581usersrsyagyq": 7204,
    "\u25811548": 7205,
    "\u2581cdocume1adminlocals1tempm": 7206,
    "a10": 7207,
    "json": 7208,
    "\u2581407b9d": 7209,
    "40c": 7210,
    "\u258112f5d8": 7211,
    "\u258112f738": 7212,
    "\u258122b2b8c": 7213,
    "\u258112f69c": 7214,
    "3f4": 7215,
    "nlz": 7216,
    "\u2581picturesball": 7217,
    "\u2581settingsadminsigwwcokshell32dll": 7218,
    "f958": 7219,
    "\u25812d3": 7220,
    "recovery": 7221,
    "f650": 7222,
    "libraries": 7223,
    "74html": 7224,
    "\u2581204fb": 7225,
    "tpspc": 7226,
    "\u258112f180": 7227,
    "\u2581service": 7228,
    "provi": 7229,
    "\u2581a0f": 7230,
    "home": 7231,
    "tpspcfg": 7232,
    "cfgfromtpspcfg": 7233,
    "ad6a686a047d29d1937723f2b3aedde1cidtnchcfgfromcfgfromtpspcfg": 7234,
    "\u2581164c": 7235,
    "ln": 7236,
    "\u25817b8": 7237,
    "9e1": 7238,
    "\u2581331": 7239,
    "localiz": 7240,
    "wsexe": 7241,
    "\u258194b18": 7242,
    "e8e70e4e106d7470b9f74a51bef21088": 7243,
    "fc28": 7244,
    "\u2581170ae8": 7245,
    "\u2581848": 7246,
    "\u2581cache8e70e4e106d7470b9f74a51bef21088": 7247,
    "\u2581cwindowssystem32macrome": 7248,
    "df680": 7249,
    "\u258112d87c": 7250,
    "\u258166c": 7251,
    "atethread": 7252,
    "bey": 7253,
    "\u2581ntterminatethread": 7254,
    "dl": 7255,
    "\u2581a1fa5c": 7256,
    "\u25813a44e8": 7257,
    "jo": 7258,
    "\u2581174850": 7259,
    "\u258112f3a0": 7260,
    "\u2581270ff": 7261,
    "\u25816b8": 7262,
    "\u2581c0000017": 7263,
    "systemcertificate": 7264,
    "b53": 7265,
    "f9ec": 7266,
    "7b3": 7267,
    "196": 7268,
    "\u2581files91gamebox": 7269,
    "\u2581cwindowssystem32cmdexelocal": 7270,
    "\u2581settingsnetwork": 7271,
    "\u2581ffffffffffffffff": 7272,
    "\u2581164990": 7273,
    "611": 7274,
    "1406f7": 7275,
    "userdatas1518": 7276,
    "ure": 7277,
    "370": 7278,
    "\u2581640": 7279,
    "\u25811c2": 7280,
    "nlzkt": 7281,
    "ystandard": 7282,
    "nlzktrsexe": 7283,
    "ystandardprofile": 7284,
    "\u2581reader80hnlzktrsexe": 7285,
    "haredaccessparametersfirewallpolicystandardprofile": 7286,
    "\u2581cprogramts": 7287,
    "\u258100000082": 7288,
    "\u2581settingsadmincookiesadmin": 7289,
    "installerexe": 7290,
    "outlookexe": 7291,
    "\u2581cwindowssystem32tapi32dll": 7292,
    "micros": 7293,
    "\u25812e6": 7294,
    "mshist": 7295,
    "\u2581cdocume1adminlocals1temps": 7296,
    "\u2581reader80ws2": 7297,
    "\u2581cdocume1adminlocals1tempyys": 7298,
    "\u25813aa": 7299,
    "dole": 7300,
    "icode": 7301,
    "\u2581cwindowstempscs5tmp": 7302,
    "\u258112fd2c": 7303,
    "ndll": 7304,
    "mshist0120": 7305,
    "\u258112f39c": 7306,
    "\u2581cwindowssystem32rasmandll": 7307,
    "\u25813d2": 7308,
    "\u258115ae": 7309,
    "444": 7310,
    "958": 7311,
    "\u2581cwindowssystem32pri": 7312,
    "\u25811116": 7313,
    "mgrexe": 7314,
    "\u2581cwindowssystem32rasapi32dll": 7315,
    "\u258112f2b4": 7316,
    "f860": 7317,
    "\u2581a1d": 7318,
    "\u2581764": 7319,
    "\u2581cwindowsexplorerexelocal": 7320,
    "b23": 7321,
    "\u258180readerplugins": 7322,
    "f93c": 7323,
    "\u2581https": 7324,
    "fd9c": 7325,
    "f850": 7326,
    "7b8": 7327,
    "mult": 7328,
    "datasql": 7329,
    "fe74": 7330,
    "sp3": 7331,
    "ivex": 7332,
    "datasqlxml": 7333,
    "eaf4": 7334,
    "\u25816bc": 7335,
    "faul": 7336,
    "svr32exe": 7337,
    "3a4": 7338,
    "\u2581319": 7339,
    "\u258118e": 7340,
    "policy": 7341,
    "mag": 7342,
    "dir": 7343,
    "\u25812aaf8b0": 7344,
    "\u25812aaf878": 7345,
    "720": 7346,
    "\u258115f988": 7347,
    "\u258112f3ec": 7348,
    "fdb8": 7349,
    "msinfo": 7350,
    "e824": 7351,
    "df2": 7352,
    "\u2581filesz": 7353,
    "\u258112fe68": 7354,
    "mys": 7355,
    "part": 7356,
    "\u258112f484": 7357,
    "ei": 7358,
    "1b8": 7359,
    "jueu520927296": 7360,
    "stdole": 7361,
    "les": 7362,
    "\u25819be26c": 7363,
    "gin": 7364,
    "9122": 7365,
    "e9a4": 7366,
    "\u258118097": 7367,
    "\u258112ef88": 7368,
    "microsoftwindows": 7369,
    "fd80": 7370,
    "\u258124024": 7371,
    "\u258122d008": 7372,
    "ens": 7373,
    "\u2581b1db": 7374,
    "\u2581114de": 7375,
    "\u258112efa8": 7376,
    "\u25812910": 7377,
    "beyond": 7378,
    "fw": 7379,
    "\u258194920": 7380,
    "\u25816d9": 7381,
    "\u25811a5": 7382,
    "bf680": 7383,
    "0004": 7384,
    "efdc": 7385,
    "2tlb": 7386,
    "\u2581cdocume1adminlocals1tempyysbdmnetgetinfodll": 7387,
    "\u258180readerbeyond": 7388,
    "\u2581cdocume1adminlocals1temppft3tmp": 7389,
    "\u2581cwindowswin": 7390,
    "fd2": 7391,
    "userswin7userappdatalocal": 7392,
    "eae8": 7393,
    "fd58": 7394,
    "\u25812910ce8": 7395,
    "\u2581406b27": 7396,
    "e5c": 7397,
    "qo": 7398,
    "f9c": 7399,
    "\u2581788": 7400,
    "\u2581239": 7401,
    "stdole2tlb": 7402,
    "\u2581cwindowssystem32rtutilsdll": 7403,
    "376": 7404,
    "9fd": 7405,
    "6s": 7406,
    "15aa": 7407,
    "578": 7408,
    "\u2581fffd": 7409,
    "3tmptmp": 7410,
    "ff57": 7411,
    "unicode": 7412,
    "a0d": 7413,
    "dfd04": 7414,
    "f99c": 7415,
    "\u258113200": 7416,
    "\u2581123": 7417,
    "f10": 7418,
    "rnrdll": 7419,
    "\u2581c1de": 7420,
    "\u258162c": 7421,
    "legac": 7422,
    "fc60": 7423,
    "ff2": 7424,
    "\u258113f2c4": 7425,
    "ax": 7426,
    "\u258112fb6c": 7427,
    "\u2581cwindowsinstaller901200000011000000000000000ff1ce": 7428,
    "\u25815e4": 7429,
    "\u258172": 7430,
    "f828": 7431,
    "attribexe": 7432,
    "b9e": 7433,
    "tensions": 7434,
    "5fa": 7435,
    "\u2581post": 7436,
    "140e8": 7437,
    "baiduan": 7438,
    "\u25812032": 7439,
    "\u25813d3": 7440,
    "mscorlibresourcesdll": 7441,
    "694": 7442,
    "\u2581618": 7443,
    "eb08": 7444,
    "1fc8b3b9a1e18e3b8050727": 7445,
    "aba": 7446,
    "\u2581342": 7447,
    "\u258113f2f4": 7448,
    "\u2581cdocume1adminlocals1tempnsj": 7449,
    "rows": 7450,
    "contextthread": 7451,
    "\u2581ntsetcontextthread": 7452,
    "\u2581225": 7453,
    "9b4": 7454,
    "9f7cc": 7455,
    "\u258110b8": 7456,
    "d98": 7457,
    "f6f0": 7458,
    "\u2581122818": 7459,
    "392": 7460,
    "\u2581sharedd": 7461,
    "\u25811648a0": 7462,
    "\u25812c10000": 7463,
    "pplication": 7464,
    "\u2581cwindowssystem32winrnrdll": 7465,
    "\u2581163b": 7466,
    "iconexe": 7467,
    "\u2581filesgoogleupdate": 7468,
    "isexe": 7469,
    "\u25814e6ff6c": 7470,
    "\u2581534": 7471,
    "\u2581mru": 7472,
    "\u2581filesadobetypesptunicode": 7473,
    "ntdll": 7474,
    "\u25811565": 7475,
    "\u258113a": 7476,
    "\u258112d7dc": 7477,
    "354": 7478,
    "e86c": 7479,
    "9f0": 7480,
    "\u258112f1a4": 7481,
    "jn": 7482,
    "\u2581a7b1d0": 7483,
    "\u258180readeracrord": 7484,
    "\u258112ec28": 7485,
    "\u258121769139122": 7486,
    "137": 7487,
    "\u258115d3": 7488,
    "\u2581filessogousoftwaredownloaddownloadsvn": 7489,
    "mfc42": 7490,
    "hardware": 7491,
    "\u2581ch": 7492,
    "visual": 7493,
    "fbb8": 7494,
    "\u25817c0": 7495,
    "ettings": 7496,
    "\u2581b000": 7497,
    "\u25811eae20c": 7498,
    "\u25812f6": 7499,
    "\u25811bd": 7500,
    "iphtm": 7501,
    "\u2581cwindowsassemblygacmsil": 7502,
    "saf": 7503,
    "ec5c": 7504,
    "\u258129a": 7505,
    "bf2c8": 7506,
    "5a8": 7507,
    "1txt": 7508,
    "\u2581datac": 7509,
    "documentrecovery": 7510,
    "b2c": 7511,
    "cep": 7512,
    "\u25816dc": 7513,
    "7004": 7514,
    "\u2581129a": 7515,
    "\u258111a": 7516,
    "deep": 7517,
    "dnps3000icbcexe": 7518,
    "175": 7519,
    "htmli": 7520,
    "\u2581cdocume1adminlocals1tempnsp": 7521,
    "\u2581113e47c": 7522,
    "11d2": 7523,
    "\u2581cwindowss": 7524,
    "f85c": 7525,
    "feren": 7526,
    "\u258193": 7527,
    "\u25813b7": 7528,
    "dde": 7529,
    "\u258112d7d4": 7530,
    "\u2581userszceyiaug": 7531,
    "\u258181": 7532,
    "\u2581filesra": 7533,
    "\u2581416": 7534,
    "\u258127e": 7535,
    "layerexe": 7536,
    "\u25811c5ed0c": 7537,
    "\u258112bb": 7538,
    "\u258115d2": 7539,
    "\u2581620": 7540,
    "lx": 7541,
    "\u258114e190": 7542,
    "\u25813dcecf4": 7543,
    "admp": 7544,
    "\u2581hkeycurrentuser": 7545,
    "\u258115de": 7546,
    "\u2581ne": 7547,
    "\u2581filesjavajava": 7548,
    "hw": 7549,
    "f8c8": 7550,
    "ea2": 7551,
    "f010": 7552,
    "games": 7553,
    "\u2581datamicrosoftcryptor": 7554,
    "\u258114f": 7555,
    "\u2581cdocume1adminlocals1temp2tmp": 7556,
    "iao": 7557,
    "\u2581crecyc": 7558,
    "glh": 7559,
    "\u2581760": 7560,
    "\u2581226": 7561,
    "\u2581cprograml": 7562,
    "dd4": 7563,
    "\u2581cdocume1adminlocals1tempnsa2tmp": 7564,
    "1188": 7565,
    "0000000000": 7566,
    "\u2581cdocume1adminlocals1tempb": 7567,
    "wordiconexe": 7568,
    "\u2581cwindowsinstaller901200000011000000000000000ff1cewordiconexe": 7569,
    "\u25817e0": 7570,
    "\u25813625250202": 7571,
    "ya": 7572,
    "574": 7573,
    "f5448": 7574,
    "\u2581sharealipaysecsvcexe": 7575,
    "778": 7576,
    "\u2581http11": 7577,
    "e45": 7578,
    "fde0": 7579,
    "\u2581usersrsyagyqc": 7580,
    "724": 7581,
    "760": 7582,
    "\u2581hkeylocalmachinesoftwareclassesclsid4": 7583,
    "\u2581cwindowssystem32wbemdnsapidll": 7584,
    "\u25819bb": 7585,
    "fd4": 7586,
    "\u2581113e504": 7587,
    "onnection": 7588,
    "mc": 7589,
    "edd0": 7590,
    "\u2581200064": 7591,
    "\u2581reader80ws58a04a822e3e50102bd615109794195ff7d1": 7592,
    "deplo": 7593,
    "\u258113f2e0": 7594,
    "\u25815e": 7595,
    "\u2581256": 7596,
    "\u258137ef": 7597,
    "\u25816c8": 7598,
    "\u258112ef04": 7599,
    "fd20": 7600,
    "9d6": 7601,
    "\u25816a8": 7602,
    "proxystubclsid32": 7603,
    "5147": 7604,
    "\u258112f3c8": 7605,
    "126": 7606,
    "7d8": 7607,
    "\u2581cwindowssystem32kernel32dll": 7608,
    "\u2581cache8e70e4e106d7470b9f74a51bef21088ev": 7609,
    "bec8": 7610,
    "\u25811556": 7611,
    "a90": 7612,
    "f874": 7613,
    "\u2581config": 7614,
    "deepscan": 7615,
    "\u25811296": 7616,
    "\u258114d858": 7617,
    "\u25811a0b78": 7618,
    "\u258113f358": 7619,
    "\u2581riliminiexe": 7620,
    "dextsdll": 7621,
    "3bc": 7622,
    "moment": 7623,
    "dataexe": 7624,
    "rph": 7625,
    "5k": 7626,
    "mart": 7627,
    "ec00": 7628,
    "\u25811913": 7629,
    "360360safedeepscan": 7630,
    "\u2581cdocume1adminlocals1tempsetupfiles": 7631,
    "311": 7632,
    "\u258112312565147": 7633,
    "\u2581users9012000000": 7634,
    "\u2581folder": 7635,
    "aal": 7636,
    "\u25811a7": 7637,
    "\u2581cwindowstempscs6tmp": 7638,
    "38a6": 7639,
    "\u25811213": 7640,
    "xyrph": 7641,
    "\u258112fc78": 7642,
    "\u25811d5e208": 7643,
    "xyrphwexe": 7644,
    "\u2581dataxyrphwexe": 7645,
    "\u25811d5e238": 7646,
    "afa": 7647,
    "a02": 7648,
    "\u2581cwindowssystemframedyndll": 7649,
    "598": 7650,
    "\u2581104c": 7651,
    "\u258140dd": 7652,
    "policiesexplorer": 7653,
    "srch": 7654,
    "lifemoment": 7655,
    "\u25811f1": 7656,
    "\u25817ffd3000": 7657,
    "\u25812f3": 7658,
    "zj": 7659,
    "d32": 7660,
    "bfd04": 7661,
    "\u25811a6": 7662,
    "\u2581164f08": 7663,
    "\u25816cc": 7664,
    "ournal": 7665,
    "\u2581208ebb0": 7666,
    "\u2581208ec04": 7667,
    "\u2581406": 7668,
    "\u25811431": 7669,
    "options": 7670,
    "\u2581cwindowssystem32macromedf": 7671,
    "331000": 7672,
    "\u258115f008": 7673,
    "\u2581cwindowssystem32wbemmsvcp60dll": 7674,
    "\u2581630": 7675,
    "\u2581dfe": 7676,
    "f96c": 7677,
    "5211442870321229993493614384950331000": 7678,
    "sp3resdll": 7679,
    "\u2581viewer10resources": 7680,
    "ator": 7681,
    "\u2581sharealiworkbenchexe": 7682,
    "\u2581framedyndll": 7683,
    "\u2581a6fd": 7684,
    "\u258115d4": 7685,
    "b22": 7686,
    "\u2581ceula10": 7687,
    "\u2581aaff18": 7688,
    "\u2581aaff8c": 7689,
    "\u25813ce": 7690,
    "\u2581aafecc": 7691,
    "waremicrosoftoffice120wordresiliencydocumentrecovery": 7692,
    "m1tmp": 7693,
    "connections": 7694,
    "\u258113f484": 7695,
    "\u2581bb": 7696,
    "\u25813f8f878": 7697,
    "\u25813f8f8b0": 7698,
    "\u2581cache8e70e4e106d7470b9f74a51bef21088evcredistx86exe": 7699,
    "\u25815e0": 7700,
    "yoexe": 7701,
    "fd34": 7702,
    "\u258113f46c": 7703,
    "\u25812a7": 7704,
    "\u258113f454": 7705,
    "3c8": 7706,
    "f89c": 7707,
    "\u2581cwindowsmicrosoftnetframeworkv2050727config": 7708,
    "v404000b77a5c561934e089system": 7709,
    "\u2581322f2c0": 7710,
    "\u2581filesd": 7711,
    "icu": 7712,
    "\u258115d0": 7713,
    "col": 7714,
    "\u2581149f": 7715,
    "lst": 7716,
    "\u2581104d7": 7717,
    "\u2581sleep1": 7718,
    "ning": 7719,
    "applic": 7720,
    "py": 7721,
    "ntsdextsdll": 7722,
    "statedataracdata": 7723,
    "\u2581settingsconnections": 7724,
    "\u2581dwindowssystem32shell32dll": 7725,
    "558": 7726,
    "\u258112f018": 7727,
    "223a": 7728,
    "\u2581systemrootsystem32inputdll5": 7729,
    "\u2581hkeylocalmachinesystemcontrolset001hardware": 7730,
    "\u2581profiles": 7731,
    "iont": 7732,
    "\u2581profiles0001": 7733,
    "f770": 7734,
    "mira": 7735,
    "\u2581386": 7736,
    "\u2581322f2c8": 7737,
    "9e60": 7738,
    "enus": 7739,
    "\u258112eb9c": 7740,
    "ysettings": 7741,
    "fec04": 7742,
    "496": 7743,
    "\u2581explorerconnection": 7744,
    "\u2581saved": 7745,
    "a30": 7746,
    "\u2581savedlegac": 7747,
    "\u2581savedlegacysettings": 7748,
    "\u2581611": 7749,
    "martadll": 7750,
    "\u2581hkeycurrentusers15211442870321229993493614384950331000": 7751,
    "mapp": 7752,
    "lldload": 7753,
    "\u25817e8": 7754,
    "38a6eb": 7755,
    "pq": 7756,
    "f758": 7757,
    "\u25816c0": 7758,
    "2exe": 7759,
    "ctivex": 7760,
    "\u2581systemrootsystem32inputdll504": 7761,
    "a3c": 7762,
    "gy": 7763,
    "56f5": 7764,
    "b47": 7765,
    "\u25811042": 7766,
    "tk": 7767,
    "9f4": 7768,
    "\u2581cmypassword": 7769,
    "\u258112e8f4": 7770,
    "\u2581profiles0001softwaremicrosoftwindowscurrentversioninternet": 7771,
    "trig": 7772,
    "\u25816a4": 7773,
    "67c": 7774,
    "rans": 7775,
    "\u258120060809": 7776,
    "fb60": 7777,
    "img32dll": 7778,
    "nus": 7779,
    "\u25812f": 7780,
    "\u25811557": 7781,
    "798": 7782,
    "\u2581datamicrosoftcryptneturlcachec": 7783,
    "\u2581126c": 7784,
    "\u2581officeoffice12outlookexe": 7785,
    "\u2581cdocume1adminlocals1temprarex": 7786,
    "\u2581cdocume1adminlocals1tempnsc2tmp": 7787,
    "\u2581cwindowstempscs8tmp": 7788,
    "f2tmp": 7789,
    "e0d8": 7790,
    "\u2581227": 7791,
    "fa78": 7792,
    "\u2581154fe6c": 7793,
    "chsdll": 7794,
    "imscmi": 7795,
    "\u25811cde": 7796,
    "\u258112fb44": 7797,
    "660": 7798,
    "1604": 7799,
    "f538": 7800,
    "\u2581426": 7801,
    "\u2581367f2c8": 7802,
    "\u2581b8ce8": 7803,
    "\u2581filesg": 7804,
    "ebf": 7805,
    "3080": 7806,
    "\u2581205f": 7807,
    "settings": 7808,
    "\u2581csystem": 7809,
    "350": 7810,
    "\u2581cprogramlldload": 7811,
    "ae5": 7812,
    "97dd": 7813,
    "\u2581fbec5c": 7814,
    "proxdll": 7815,
    "b8c4": 7816,
    "\u2581169428": 7817,
    "f210": 7818,
    "\u2581filesluoshenliriliminiexe": 7819,
    "37c": 7820,
    "f484": 7821,
    "\u2581migrate": 7822,
    "13c": 7823,
    "2bf68": 7824,
    "\u25813b6": 7825,
    "140922": 7826,
    "955504": 7827,
    "2bf68f47": 7828,
    "56f57004": 7829,
    "95550497dd": 7830,
    "\u2581migrateproxy": 7831,
    "2bf68f47140922": 7832,
    "95550497dd56f57004": 7833,
    "2bf68f4714092295550497dd56f57004": 7834,
    "tho": 7835,
    "19c": 7836,
    "\u25815b2188": 7837,
    "\u258112feb8": 7838,
    "\u2581167": 7839,
    "\u2581768": 7840,
    "595": 7841,
    "bjdll": 7842,
    "3tmpres": 7843,
    "4da0": 7844,
    "\u2581367f2c0": 7845,
    "\u258112f710": 7846,
    "\u2581cdocume1adminlocals1tempish378": 7847,
    "\u258112ff04": 7848,
    "nder": 7849,
    "\u2581143f10": 7850,
    "alocalserver32": 7851,
    "fa4c": 7852,
    "a95": 7853,
    "\u2581351": 7854,
    "00284da0": 7855,
    "\u2581playlists00284da0": 7856,
    "sss": 7857,
    "\u258128d": 7858,
    "\u258112f3d4": 7859,
    "care": 7860,
    "1736": 7861,
    "\u258112f700": 7862,
    "tuidll": 7863,
    "static": 7864,
    "b07": 7865,
    "\u2581cdocume1adminlocals1tempnsh2tmp": 7866,
    "\u2581cdocume1adminlocals1tempnsv2tmp": 7867,
    "b110": 7868,
    "esk": 7869,
    "wc": 7870,
    "de2": 7871,
    "\u2581afe": 7872,
    "\u2581122224238": 7873,
    "\u25813ba": 7874,
    "\u25811b0e9": 7875,
    "\u2581cwindows360360safedeepscan": 7876,
    "ubat": 7877,
    "\u25811a0b68": 7878,
    "\u25811a3": 7879,
    "\u2581471": 7880,
    "\u2581660": 7881,
    "\u2581650": 7882,
    "fe30": 7883,
    "sspic": 7884,
    "sspiclidll": 7885,
    "\u2581shareddw": 7886,
    "9f680": 7887,
    "\u2581sleep1800s": 7888,
    "sqlceselck1": 7889,
    "ftmp": 7890,
    "izip": 7891,
    "\u25813bd": 7892,
    "d70": 7893,
    "tech": 7894,
    "mq": 7895,
    "533": 7896,
    "f7dc": 7897,
    "f030": 7898,
    "\u258123a": 7899,
    "ffe28": 7900,
    "\u2581153c": 7901,
    "aad": 7902,
    "ffe50": 7903,
    "gvwdll": 7904,
    "mip": 7905,
    "avup": 7906,
    "avupdaexe": 7907,
    "\u2581shimgvwdll": 7908,
    "\u2581413": 7909,
    "\u258112e590": 7910,
    "f8c4": 7911,
    "\u25816d0": 7912,
    "\u258112f3fc": 7913,
    "b11": 7914,
    "\u2581cprogramri": 7915,
    "aliz": 7916,
    "ff7cc": 7917,
    "2018120": 7918,
    "\u2581cwindowsassemblygacmicrosoftdirectx": 7919,
    "\u2581dwindowssystem32cryptspdll": 7920,
    "\u2581databaidubaidurjdownloader13": 7921,
    "ee28": 7922,
    "xls": 7923,
    "\u258120920": 7924,
    "\u25813fb": 7925,
    "\u2581cwindowstempscs7tmp": 7926,
    "\u258112d8ec": 7927,
    "\u25812092022": 7928,
    "1f0000": 7929,
    "\u258161c": 7930,
    "\u258114a7": 7931,
    "zd": 7932,
    "5exe": 7933,
    "\u2581fff": 7934,
    "\u2581cwindowssystem32sxsdll": 7935,
    "\u2581sysq": 7936,
    "d5ab8": 7937,
    "abi": 7938,
    "\u258113eb": 7939,
    "\u258127d": 7940,
    "d56": 7941,
    "\u25816d9d5ab8": 7942,
    "wr": 7943,
    "win32": 7944,
    "jc": 7945,
    "\u2581dwindowssystem32rsaenhdll": 7946,
    "464": 7947,
    "\u25811afe": 7948,
    "\u2581750": 7949,
    "\u2581settingsadminsigwwcoklpkdll": 7950,
    "b2e0": 7951,
    "\u258189d50c": 7952,
    "\u25816fe": 7953,
    "lrdll": 7954,
    "\u25811cee": 7955,
    "\u258114a4": 7956,
    "\u2581104e4": 7957,
    "\u2581cdocume1adminlocals1tempnsi2tmp": 7958,
    "2fc": 7959,
    "\u25817fffffd": 7960,
    "dev": 7961,
    "org": 7962,
    "bf4": 7963,
    "e04": 7964,
    "channeldll": 7965,
    "9f8": 7966,
    "\u2581filescert": 7967,
    "791": 7968,
    "\u2581164868": 7969,
    "\u2581settingsadminsigwwcokusp10dll": 7970,
    "inew": 7971,
    "fb78": 7972,
    "947c": 7973,
    "b37": 7974,
    "\u25813d5fe28": 7975,
    "\u25813d5fe50": 7976,
    "d2tmp": 7977,
    "\u25812c30000": 7978,
    "\u2581datamicrosoftcryptorsa": 7979,
    "\u2581452": 7980,
    "\u2581b0f": 7981,
    "ewnd": 7982,
    "\u2581114d3f8": 7983,
    "56f64": 7984,
    "a6c": 7985,
    "\u2581cdocume1adminlocals1tempsf": 7986,
    "ba15aa": 7987,
    "56f64ba15aa": 7988,
    "\u2581ddraw": 7989,
    "ewndzip": 7990,
    "onlinewndzip": 7991,
    "statedataracdatabasesdf": 7992,
    "fd70": 7993,
    "\u2581904": 7994,
    "306": 7995,
    "f76c": 7996,
    "\u2581cwindowssystem32macromedflash": 7997,
    "localization": 7998,
    "\u2581cwindowssystem32rundll32exe": 7999,
    "ecec": 8000,
    "\u258112ec58": 8001,
    "fa5e": 8002,
    "\u258112fa3c": 8003,
    "\u2581476": 8004,
    "\u2581628": 8005,
    "s20": 8006,
    "\u25812f1": 8007,
    "68bec8": 8008,
    "vdmexe": 8009,
    "b14": 8010,
    "peg": 8011,
    "\u258112e218": 8012,
    "4p": 8013,
    "\u2581112ed": 8014,
    "\u25813dcf878": 8015,
    "\u25813dcf8b0": 8016,
    "\u25813f9f878": 8017,
    "\u25813f9f8b0": 8018,
    "\u2581152458": 8019,
    "scom": 8020,
    "\u25811c9fce4": 8021,
    "\u25811c9fd04": 8022,
    "1bc": 8023,
    "\u2581settingshistoryhistoryie5": 8024,
    "113": 8025,
    "1c00": 8026,
    "\u258112ff30": 8027,
    "\u2581cconfigmsi": 8028,
    "disk1": 8029,
    "5d8": 8030,
    "\u2581395": 8031,
    "mappings": 8032,
    "febb0": 8033,
    "710": 8034,
    "\u25815b1def": 8035,
    "664": 8036,
    "f11c": 8037,
    "\u25811534": 8038,
    "\u258112fc14": 8039,
    "\u2581shareavgntexe": 8040,
    "cns": 8041,
    "33c": 8042,
    "review0": 8043,
    "wiz": 8044,
    "d444": 8045,
    "\u2581cwindows360360safedeepscanzhudongfangyuexe": 8046,
    "e27c": 8047,
    "feec": 8048,
    "\u2581cdocume1adminlocals1tempnsf2tmp": 8049,
    "\u2581filesadobetypesptunicodemappings": 8050,
    "\u25811436": 8051,
    "\u258112a9": 8052,
    "\u25817da": 8053,
    "ebac": 8054,
    "\u258112eb68": 8055,
    "\u2581f1e": 8056,
    "microsof": 8057,
    "\u258112e0020": 8058,
    "\u2581datamicrosoftcryptneturlcachecontent": 8059,
    "\u258180readerhowtoenus": 8060,
    "2f8": 8061,
    "waremicrosoftwindowscurrentversionexplorerfileext": 8062,
    "\u25816667": 8063,
    "journal": 8064,
    "3f680": 8065,
    "ad6": 8066,
    "addin": 8067,
    "\u2581the": 8068,
    "\u258112ee70": 8069,
    "400": 8070,
    "53f000ff53f000ff53f000ff53f000ff": 8071,
    "\u2581datawinrar": 8072,
    "\u258112b2": 8073,
    "\u2581399": 8074,
    "23html": 8075,
    "3776": 8076,
    "\u2581picturesmy": 8077,
    "unins": 8078,
    "\u25811de00": 8079,
    "product": 8080,
    "kb": 8081,
    "\u2581so": 8082,
    "f358": 8083,
    "e78": 8084,
    "\u2581151c": 8085,
    "dec0": 8086,
    "\u25811554": 8087,
    "\u2581cwindowssystem32spooldriversw32x863mxdwdui": 8088,
    "chdll": 8089,
    "\u25819fe": 8090,
    "checkexe": 8091,
    "\u258112e5b8": 8092,
    "\u2581cdocume1adminlocals1tempnsd2tmp": 8093,
    "\u2581163e": 8094,
    "gum1tmp": 8095,
    "\u258112d5c0": 8096,
    "movi": 8097,
    "\u25813f7f8b0": 8098,
    "\u25813f7f878": 8099,
    "\u2581hkeylocalmachinesoftwareclassesclsid6": 8100,
    "\u2581b1c": 8101,
    "\u2581dll": 8102,
    "\u25812f5": 8103,
    "\u258112f62c": 8104,
    "\u258112f168": 8105,
    "\u2581153a10": 8106,
    "\u2581b1f": 8107,
    "3f9": 8108,
    "\u258180resourc": 8109,
    "\u2581filesgamechannelshare": 8110,
    "\u258112f8d8": 8111,
    "\u25813befce4": 8112,
    "\u25813befd04": 8113,
    "\u2581ebe": 8114,
    "\u258127be4": 8115,
    "\u25811012": 8116,
    "\u258140b040": 8117,
    "f7c": 8118,
    "f718": 8119,
    "\u25811162111188": 8120,
    "\u2581page": 8121,
    "\u25811473": 8122,
    "\u258111f4": 8123,
    "\u25811511": 8124,
    "enginedll": 8125,
    "906": 8126,
    "\u258153f": 8127,
    "ik": 8128,
    "\u25812ff": 8129,
    "fb00": 8130,
    "smart": 8131,
    "\u25811600": 8132,
    "\u258112ef9c": 8133,
    "quexe": 8134,
    "\u258120d": 8135,
    "\u2581settingsadminsigwwcokws232dll": 8136,
    "fly": 8137,
    "f8dc": 8138,
    "\u258112f2b8": 8139,
    "399": 8140,
    "af6": 8141,
    "\u25811ef": 8142,
    "ff60": 8143,
    "\u2581filesravmon": 8144,
    "1a4": 8145,
    "eec8": 8146,
    "\u2581cwindowsdriver": 8147,
    "2dll": 8148,
    "qh": 8149,
    "257": 8150,
    "\u2581718": 8151,
    "d94": 8152,
    "\u25813e29e8": 8153,
    "fish": 8154,
    "\u2581dwindowssystem32rpcrtremotedll": 8155,
    "21c": 8156,
    "\u25811720": 8157,
    "7e0": 8158,
    "\u2581settingsadminsigwwcokws2helpdll": 8159,
    "\u2581sdkssilverlightv50libraries": 8160,
    "cr": 8161,
    "\u2581164810": 8162,
    "5b5": 8163,
    "\u2581111ff4c": 8164,
    "let": 8165,
    "\u2581a1d47c": 8166,
    "\u258112ee50": 8167,
    "\u2581sleep864": 8168,
    "\u2581users90120000006e0": 8169,
    "d34": 8170,
    "\u2581sleep86400s": 8171,
    "\u2581cwindowssystem32wbemwbem": 8172,
    "vy": 8173,
    "\u2581cwindowspchealth": 8174,
    "f38": 8175,
    "aeea0": 8176,
    "\u2581cprogram1scr": 8177,
    "svcexe": 8178,
    "0016": 8179,
    "nidll": 8180,
    "\u2581129d": 8181,
    "\u258112f3c0": 8182,
    "\u258112f74c": 8183,
    "\u258115ee": 8184,
    "\u2581filesksaf": 8185,
    "db23": 8186,
    "fe9": 8187,
    "f15c": 8188,
    "\u2581b1e0d0": 8189,
    "miprv": 8190,
    "\u258112f720": 8191,
    "\u25811606": 8192,
    "\u2581cwindowssystem32winxp": 8193,
    "d24": 8194,
    "f55": 8195,
    "\u2581164890": 8196,
    "5a0": 8197,
    "\u25818e": 8198,
    "\u2581b1e058": 8199,
    "\u2581filesinbox": 8200,
    "5ac": 8201,
    "\u2581si": 8202,
    "bde": 8203,
    "3003": 8204,
    "ef00": 8205,
    "e590": 8206,
    "d38": 8207,
    "lng": 8208,
    "attle": 8209,
    "va": 8210,
    "e494": 8211,
    "\u2581cdocume1adminlocals1tempnsy": 8212,
    "\u2581f3ff": 8213,
    "t32": 8214,
    "\u2581cwindowssystem32winstadll": 8215,
    "prop": 8216,
    "\u25811440": 8217,
    "\u2581c1d": 8218,
    "b3tmp": 8219,
    "launch": 8220,
    "you": 8221,
    "\u258112f674": 8222,
    "\u2581a1d444": 8223,
    "\u258112fa58": 8224,
    "\u2581officeoffice12win": 8225,
    "\u258112f7d8": 8226,
    "mw": 8227,
    "63c": 8228,
    "1312": 8229,
    "99s": 8230,
    "\u258112e210": 8231,
    "f53": 8232,
    "\u2581hkeycurrentuserdefault": 8233,
    "\u25811533": 8234,
    "module": 8235,
    "\u2581d5ff34": 8236,
    "microsoftwindowscommoncontrols": 8237,
    "ff80": 8238,
    "l1": 8239,
    "\u2581741": 8240,
    "98s": 8241,
    "\u25811214": 8242,
    "ysexe": 8243,
    "\u258112eee4": 8244,
    "\u2581cprogramwinmmdll": 8245,
    "\u258113f050": 8246,
    "fd0": 8247,
    "hao3601": 8248,
    "f370": 8249,
    "f3e0": 8250,
    "ff65c": 8251,
    "53f000ff53f000ff53f000ff53f000ff53f000ff53f000ff53f000ff": 8252,
    "lsn": 8253,
    "off": 8254,
    "f7f4": 8255,
    "\u2581210fe28": 8256,
    "\u2581210fe50": 8257,
    "ff30": 8258,
    "ab3": 8259,
    "chin": 8260,
    "\u258112d5a8": 8261,
    "\u2581cprogram1pif": 8262,
    "\u258121bff48": 8263,
    "dccc": 8264,
    "\u25817e4": 8265,
    "\u25812a6": 8266,
    "\u258112ec40": 8267,
    "e9d0": 8268,
    "546": 8269,
    "\u258114b1": 8270,
    "inewani": 8271,
    "e9e8": 8272,
    "6f4": 8273,
    "\u258112dad8": 8274,
    "f904": 8275,
    "hc": 8276,
    "\u258112ff00": 8277,
    "eee4": 8278,
    "e980": 8279,
    "\u2581efec5c": 8280,
    "b70": 8281,
    "620": 8282,
    "a24": 8283,
    "1804": 8284,
    "\u25811a0b90": 8285,
    "an30": 8286,
    "\u25817df": 8287,
    "300397": 8288,
    "\u258112f60c": 8289,
    "an30baiduan": 8290,
    "an30baiduan300397": 8291,
    "\u2581filesbaiduan30baiduan300397": 8292,
    "excep": 8293,
    "\u2581cwindowssystem32msvc": 8294,
    "zy": 8295,
    "d23": 8296,
    "\u2581personal": 8297,
    "clcdll": 8298,
    "vk": 8299,
    "15c": 8300,
    "ech": 8301,
    "575": 8302,
    "icom": 8303,
    "\u258112fbec": 8304,
    "\u258129afe28": 8305,
    "\u258129afe50": 8306,
    "reli": 8307,
    "\u2581cwindowssystem32taskkillexelocal": 8308,
    "uextdll": 8309,
    "\u2581ddff44": 8310,
    "\u2581settingsnetworkservicelocal": 8311,
    "gmgr": 8312,
    "cmru": 8313,
    "pidllist": 8314,
    "cmrupidllist": 8315,
    "ical": 8316,
    "\u2581filesnvshenliriliminiexe": 8317,
    "\u2581users90120000006e080400000000000ff1cec": 8318,
    "e0dc": 8319,
    "\u2581164860": 8320,
    "htmlimages": 8321,
    "1cab": 8322,
    "e924": 8323,
    "\u2581148628": 8324,
    "31bf3856ad364e35": 8325,
    "d3e": 8326,
    "gmgr32dll": 8327,
    "javawexe": 8328,
    "f8c0": 8329,
    "\u258112f6cc": 8330,
    "\u2581cdocume1adminlocals1tempsft": 8331,
    "\u2581241": 8332,
    "\u2581b1e6": 8333,
    "\u2581cdocume1adminlocals1tempnsr2tmp": 8334,
    "\u258112eda4": 8335,
    "\u2581cwindowssystem32shfolderdll": 8336,
    "\u258129e": 8337,
    "tempsql": 8338,
    "bf9": 8339,
    "\u2581b1d620": 8340,
    "\u2581hkeylocalmachinesoftwareclassesclsid30": 8341,
    "0117": 8342,
    "\u25811549d0": 8343,
    "ability": 8344,
    "\u258112e4e4": 8345,
    "\u2581shellcmrupidllist": 8346,
    "fapidll": 8347,
    "ae3": 8348,
    "\u258122018": 8349,
    "7e8": 8350,
    "ocx": 8351,
    "fc80": 8352,
    "\u258112ed50": 8353,
    "reliability": 8354,
    "e444": 8355,
    "d628": 8356,
    "proto": 8357,
    "f754": 8358,
    "\u25811288": 8359,
    "tasks": 8360,
    "\u2581settingslocalservicelocal": 8361,
    "\u258112ed84": 8362,
    "d7c": 8363,
    "\u258112d430": 8364,
    "gk": 8365,
    "windowsforms": 8366,
    "f508": 8367,
    "68bec8b5": 8368,
    "1111": 8369,
    "fc88": 8370,
    "\u2581155fe6c": 8371,
    "systemexe": 8372,
    "\u2581155fe94": 8373,
    "profapidll": 8374,
    "b65": 8375,
    "ffeac": 8376,
    "f01": 8377,
    "2223": 8378,
    "alys": 8379,
    "\u2581146a": 8380,
    "\u258112f72c": 8381,
    "hk": 8382,
    "wa": 8383,
    "da6": 8384,
    "6ac": 8385,
    "\u25815e8": 8386,
    "\u25817530": 8387,
    "\u258112fb30": 8388,
    "7aa": 8389,
    "\u2581documentsdesktopini": 8390,
    "ia": 8391,
    "59b5": 8392,
    "\u258130ffeac": 8393,
    "\u258112f6f8": 8394,
    "mediap": 8395,
    "\u258112f8b8": 8396,
    "\u25819a0000": 8397,
    "stu": 8398,
    "27c": 8399,
    "c818": 8400,
    "\u25811d5f19c": 8401,
    "\u258134ffe88": 8402,
    "nc": 8403,
    "\u25819bb88c": 8404,
    "\u25819bb8c4": 8405,
    "\u25819bb8ec": 8406,
    "scdlldll": 8407,
    "himgvwdll": 8408,
    "heng": 8409,
    "\u2581437": 8410,
    "92015": 8411,
    "\u258112f1d0": 8412,
    "ec25": 8413,
    "e455b": 8414,
    "7b3142": 8415,
    "943080": 8416,
    "59b57b3142": 8417,
    "38a6eb92015": 8418,
    "59b57b3142e455b": 8419,
    "94308059b57b3142e455b": 8420,
    "94308059b57b3142e455b38a6eb92015": 8421,
    "skins": 8422,
    "2n": 8423,
    "a14": 8424,
    "ormal": 8425,
    "\u258112ef74": 8426,
    "d30": 8427,
    "\u258100032": 8428,
    "mail": 8429,
    "\u2581cce": 8430,
    "ync": 8431,
    "\u25811596": 8432,
    "ddll": 8433,
    "e24": 8434,
    "ply": 8435,
    "\u258120e": 8436,
    "3dll": 8437,
    "ingu": 8438,
    "af4": 8439,
    "199": 8440,
    "\u258164c": 8441,
    "\u2581inst": 8442,
    "5690": 8443,
    "1564": 8444,
    "inews": 8445,
    "running": 8446,
    "mininews": 8447,
    "\u2581settingsadminsigwwcokdnsapidll": 8448,
    "\u2581c038": 8449,
    "\u2581smssexem": 8450,
    "\u2581winrarexe": 8451,
    "\u25811f3": 8452,
    "\u2581foldertype": 8453,
    "d0a4": 8454,
    "esktop": 8455,
[...]
