{
    "<pad>": 0,
    "<unk>": 1,
    "er": 2,
    "ne": 3,
    "\u2581k": 4,
    "erne": 5,
    "ernel": 6,
    "\u2581kernel": 7,
    "et": 8,
    "ee": 9,
    "al": 10,
    "ti": 11,
    "get": 12,
    "ad": 13,
    "ec": 14,
    "re": 15,
    "xf": 16,
    "\u2581get": 17,
    "in": 18,
    "oc": 19,
    "iti": 20,
    "eee": 21,
    "xfeee": 22,
    "ss": 23,
    "pr": 24,
    "one": 25,
    "proc": 26,
    "st": 27,
    "\u2581getproc": 28,
    "sec": 29,
    "cal": 30,
    "dre": 31,
    "on": 32,
    "secti": 33,
    "addre": 34,
    "address": 35,
    "\u2581getprocaddress": 36,
    "riti": 37,
    "ritical": 38,
    "riticalsecti": 39,
    "le": 40,
    "ue": 41,
    "read": 42,
    "en": 43,
    "is": 44,
    "\u2581n": 45,
    "ecriticalsecti": 46,
    "val": 47,
    "\u2581none": 48,
    "tr": 49,
    "ls": 50,
    "value": 51,
    "\u2581is": 52,
    "\u2581in": 53,
    "ter": 54,
    "getvalue": 55,
    "lsgetvalue": 56,
    "readp": 57,
    "bad": 58,
    "\u2581isbad": 59,
    "readptr": 60,
    "\u2581isbadreadptr": 61,
    "ap": 62,
    "loc": 63,
    "or": 64,
    "de": 65,
    "iz": 66,
    "aliz": 67,
    "itializ": 68,
    "\u2581s": 69,
    "\u2581initializ": 70,
    "co": 71,
    "\u2581initializecriticalsecti": 72,
    "ff": 73,
    "\u2581t": 74,
    "\u2581f": 75,
    "ar": 76,
    "an": 77,
    "xfa": 78,
    "he": 79,
    "\u2581en": 80,
    "us": 81,
    "la": 82,
    "heap": 83,
    "\u2581heap": 84,
    "onex": 85,
    "err": 86,
    "error": 87,
    "\u2581tlsgetvalue": 88,
    "alloc": 89,
    "last": 90,
    "lasterror": 91,
    "\u2581initializecriticalsectionex": 92,
    "\u2581l": 93,
    "\u2581c": 94,
    "te": 95,
    "and": 96,
    "user": 97,
    "po": 98,
    "\u2581user": 99,
    "poin": 100,
    "dec": 101,
    "pointer": 102,
    "depointer": 103,
    "lea": 104,
    "str": 105,
    "ow": 106,
    "\u2581set": 107,
    "\u2581flsgetvalue": 108,
    "\u2581m": 109,
    "\u2581heapalloc": 110,
    "fi": 111,
    "\u2581w": 112,
    "nt": 113,
    "ex": 114,
    "ing": 115,
    "inf": 116,
    "string": 117,
    "em": 118,
    "ecriticalsection": 119,
    "leav": 120,
    "\u2581leav": 121,
    "\u2581leavecriticalsection": 122,
    "oad": 123,
    "\u2581enter": 124,
    "criticalsecti": 125,
    "criticalsection": 126,
    "\u2581entercriticalsection": 127,
    "\u2581load": 128,
    "har": 129,
    "\u2581d": 130,
    "li": 131,
    "\u2581enco": 132,
    "\u2581encodepointer": 133,
    "hand": 134,
    "ac": 135,
    "\u2581getlasterror": 136,
    "at": 137,
    "ent": 138,
    "\u2581setlasterror": 139,
    "xc": 140,
    "ab": 141,
    "by": 142,
    "unt": 143,
    "ess": 144,
    "\u2581getc": 145,
    "count": 146,
    "ul": 147,
    "rt": 148,
    "info": 149,
    "ffff": 150,
    "ind": 151,
    "\u2581initializecriticalsection": 152,
    "ur": 153,
    "ll": 154,
    "let": 155,
    "ate": 156,
    "handle": 157,
    "vi": 158,
    "mp": 159,
    "local": 160,
    "mo": 161,
    "it": 162,
    "ulti": 163,
    "idec": 164,
    "ultiby": 165,
    "idechar": 166,
    "file": 167,
    "du": 168,
    "tion": 169,
    "indow": 170,
    "yst": 171,
    "ed": 172,
    "dule": 173,
    "om": 174,
    "module": 175,
    "\u2581getmodule": 176,
    "ystem": 177,
    "\u2581cre": 178,
    "me": 179,
    "op": 180,
    "sp": 181,
    "\u2581dec": 182,
    "\u2581deco": 183,
    "\u2581decodepointer": 184,
    "spin": 185,
    "spincount": 186,
    "andspincount": 187,
    "\u2581initializecriticalsectionandspincount": 188,
    "\u2581dll": 189,
    "ment": 190,
    "\u2581ms": 191,
    "xt": 192,
    "process": 193,
    "yp": 194,
    "br": 195,
    "ri": 196,
    "locale": 197,
    "pinfo": 198,
    "exw": 199,
    "cc": 200,
    "\u2581g": 201,
    "\u2581create": 202,
    "ag": 203,
    "ary": 204,
    "fr": 205,
    "stringw": 206,
    "indows": 207,
    "brary": 208,
    "\u2581windows": 209,
    "next": 210,
    "id": 211,
    "lo": 212,
    "bc": 213,
    "tet": 214,
    "\u2581multiby": 215,
    "tetow": 216,
    "tetowidechar": 217,
    "\u2581multibytetowidechar": 218,
    "\u2581getcpinfo": 219,
    "age": 220,
    "lock": 221,
    "\u2581getst": 222,
    "leti": 223,
    "rent": 224,
    "urrent": 225,
    "\u2581char": 226,
    "ce": 227,
    "free": 228,
    "\u2581charnext": 229,
    "map": 230,
    "ect": 231,
    "xfffff": 232,
    "th": 233,
    "xff": 234,
    "xfffffff": 235,
    "\u2581getlocale": 236,
    "vc": 237,
    "\u2581system": 238,
    "di": 239,
    "ype": 240,
    "\u2581msvc": 241,
    "library": 242,
    "able": 243,
    "un": 244,
    "\u2581msvcrt": 245,
    "xa": 246,
    "\u2581lc": 247,
    "\u2581lcmap": 248,
    "\u2581inter": 249,
    "def": 250,
    "infow": 251,
    "ual": 252,
    "virt": 253,
    "virtual": 254,
    "\u2581ex": 255,
    "\u2581interlock": 256,
    "dc": 257,
    "hi": 258,
    "comp": 259,
    "\u2581interlocked": 260,
    "api": 261,
    "rement": 262,
    "\u2581getcurrent": 263,
    "\u2581re": 264,
    "\u2581p": 265,
    "ey": 266,
    "\u2581loadlibrary": 267,
    "\u2581init": 268,
    "ol": 269,
    "\u2581virtual": 270,
    "thread": 271,
    "ame": 272,
    "ans": 273,
    "rite": 274,
    "ers": 275,
    "open": 276,
    "trans": 277,
    "fc": 278,
    "rst": 279,
    "stat": 280,
    "status": 281,
    "atom": 282,
    "que": 283,
    "\u2581loadstringw": 284,
    "dd": 285,
    "lient": 286,
    "\u2581getcpinfoexw": 287,
    "table": 288,
    "action": 289,
    "queue": 290,
    "letion": 291,
    "dcomp": 292,
    "queuedcomp": 293,
    "letionstatus": 294,
    "queuedcompletionstatus": 295,
    "transaction": 296,
    "\u2581ddec": 297,
    "\u2581getqueuedcompletionstatus": 298,
    "\u2581ddeclient": 299,
    "\u2581ddeclienttransaction": 300,
    "atomtable": 301,
    "\u2581initatomtable": 302,
    "\u2581heapfree": 303,
    "handlew": 304,
    "so": 305,
    "\u2581getmodulehandlew": 306,
    "\u2581getti": 307,
    "name": 308,
    "\u2581getfi": 309,
    "var": 310,
    "emp": 311,
    "be": 312,
    "\u2581gets": 313,
    "key": 314,
    "abc": 315,
    "fe": 316,
    "\u2581temp": 317,
    "vw": 318,
    "\u2581read": 319,
    "opq": 320,
    "lm": 321,
    "ghi": 322,
    "xy": 323,
    "\u2581abc": 324,
    "xyz": 325,
    "klm": 326,
    "uvw": 327,
    "opqrst": 328,
    "uvwxyz": 329,
    "nopqrst": 330,
    "defghi": 331,
    "nopqrstuvwxyz": 332,
    "\u2581abcdefghi": 333,
    "klmnopqrstuvwxyz": 334,
    "da": 335,
    "ck": 336,
    "tom": 337,
    "ultibyte": 338,
    "\u2581widechar": 339,
    "tomultibyte": 340,
    "\u2581widechartomultibyte": 341,
    "ckcount": 342,
    "\u2581gettickcount": 343,
    "mm": 344,
    "ic": 345,
    "art": 346,
    "orm": 347,
    "los": 348,
    "cmp": 349,
    "\u2581reg": 350,
    "qu": 351,
    "db": 352,
    "\u2581getfilet": 353,
    "\u2581getfiletype": 354,
    "ch": 355,
    "up": 356,
    "\u2581co": 357,
    "rect": 358,
    "dhandle": 359,
    "sset": 360,
    "sw": 361,
    "\u2581charnextw": 362,
    "ute": 363,
    "lsset": 364,
    "lssetvalue": 365,
    "\u2581getstdhandle": 366,
    "inc": 367,
    "stringa": 368,
    "ron": 369,
    "\u2581getlocaleinfow": 370,
    "increment": 371,
    "\u2581interlockedincrement": 372,
    "viron": 373,
    "\u2581getsystem": 374,
    "lsalloc": 375,
    "vironment": 376,
    "vers": 377,
    "ba": 378,
    "xcd": 379,
    "lose": 380,
    "direct": 381,
    "\u2581getmodulehand": 382,
    "af": 383,
    "\u2581getmodulehandlea": 384,
    "filename": 385,
    "wa": 386,
    "\u2581loadstringa": 387,
    "\u2581open": 388,
    "director": 389,
    "quer": 390,
    "stringex": 391,
    "xffffffff": 392,
    "\u2581ap": 393,
    "bd": 394,
    "\u2581mem": 395,
    "\u2581getstart": 396,
    "window": 397,
    "dbc": 398,
    "\u2581charnexta": 399,
    "aa": 400,
    "fd": 401,
    "\u2581getlocaleinfo": 402,
    "versi": 403,
    "ool": 404,
    "\u2581local": 405,
    "\u2581lcmapstringw": 406,
    "\u2581memcmp": 407,
    "sle": 408,
    "\u2581se": 409,
    "\u2581flssetvalue": 410,
    "cf": 411,
    "\u2581lcmapstringex": 412,
    "stringsw": 413,
    "\u2581getmodulefilename": 414,
    "eco": 415,
    "ve": 416,
    "filew": 417,
    "byte": 418,
    "slead": 419,
    "\u2581isdbc": 420,
    "\u2581isdbcslead": 421,
    "\u2581loadlibrarya": 422,
    "\u2581isdbcsleadbyte": 423,
    "\u2581virtualalloc": 424,
    "\u2581flsalloc": 425,
    "comm": 426,
    "\u2581ad": 427,
    "\u2581getlocaleinfoa": 428,
    "line": 429,
    "\u2581getcurrentthread": 430,
    "vironmentstringsw": 431,
    "andline": 432,
    "\u2581getcomm": 433,
    "\u2581getcommandline": 434,
    "\u2581a": 435,
    "\u2581close": 436,
    "\u2581win": 437,
    "\u2581write": 438,
    "write": 439,
    "res": 440,
    "\u2581h": 441,
    "bf": 442,
    "of": 443,
    "\u2581de": 444,
    "\u2581apis": 445,
    "as": 446,
    "\u2581getcurrentthreadid": 447,
    "ut": 448,
    "form": 449,
    "\u2581var": 450,
    "\u2581adv": 451,
    "\u2581advapi": 452,
    "directory": 453,
    "sour": 454,
    "eex": 455,
    "valid": 456,
    "\u2581fr": 457,
    "readpool": 458,
    "arch": 459,
    "df": 460,
    "dll": 461,
    "time": 462,
    "ation": 463,
    "essage": 464,
    "\u2581api": 465,
    "processor": 466,
    "\u2581page": 467,
    "eth": 468,
    "um": 469,
    "\u2581loadlibraryexw": 470,
    "es": 471,
    "\u2581readwrite": 472,
    "\u2581closehandle": 473,
    "\u2581search": 474,
    "int": 475,
    "\u2581lstr": 476,
    "\u2581getversi": 477,
    "\u2581li": 478,
    "\u2581fi": 479,
    "fileti": 480,
    "ae": 481,
    "\u2581core": 482,
    "ption": 483,
    "source": 484,
    "eep": 485,
    "\u2581getprocess": 486,
    "\u2581sl": 487,
    "vari": 488,
    "ef": 489,
    "\u2581sleep": 490,
    "type": 491,
    "pres": 492,
    "present": 493,
    "filetime": 494,
    "og": 495,
    "message": 496,
    "\u2581creat": 497,
    "bb": 498,
    "\u2581geten": 499,
    "upinfow": 500,
    "\u2581getstartupinfow": 501,
    "urs": 502,
    "\u2581getprocessheap": 503,
    "list": 504,
    "\u2581library": 505,
    "decrement": 506,
    "\u2581interlockeddecrement": 507,
    "ecute": 508,
    "\u2581getstring": 509,
    "con": 510,
    "xce": 511,
    "\u2581getstringtype": 512,
    "lob": 513,
    "\u2581glob": 514,
    "ure": 515,
    "xception": 516,
    "tin": 517,
    "ai": 518,
    "\u2581getcurrentprocess": 519,
    "ursor": 520,
    "bo": 521,
    "\u2581x": 522,
    "icon": 523,
    "\u2581localalloc": 524,
    "ys": 525,
    "\u2581getstringtypew": 526,
    "ature": 527,
    "feature": 528,
    "\u2581isprocessor": 529,
    "featurepresent": 530,
    "\u2581isprocessorfeaturepresent": 531,
    "\u2581sh": 532,
    "\u2581b": 533,
    "xb": 534,
    "ction": 535,
    "\u2581quer": 536,
    "filea": 537,
    "ot": 538,
    "ware": 539,
    "cursor": 540,
    "erform": 541,
    "erforman": 542,
    "\u2581queryp": 543,
    "\u2581queryperforman": 544,
    "gin": 545,
    "\u2581hkey": 546,
    "directoryw": 547,
    "oft": 548,
    "ble": 549,
    "oftware": 550,
    "\u2581be": 551,
    "unter": 552,
    "fa": 553,
    "\u2581software": 554,
    "\u2581getsystemtime": 555,
    "\u2581getac": 556,
    "fil": 557,
    "\u2581loadcursor": 558,
    "eexw": 559,
    "ceco": 560,
    "cecounter": 561,
    "\u2581queryperformancecounter": 562,
    "rive": 563,
    "\u2581ws": 564,
    "\u2581nt": 565,
    "xd": 566,
    "ob": 567,
    "\u2581begin": 568,
    "filter": 569,
    "dexception": 570,
    "unhandle": 571,
    "dexceptionfilter": 572,
    "unhandledexceptionfilter": 573,
    "eric": 574,
    "asfiletime": 575,
    "\u2581delet": 576,
    "\u2581gdi": 577,
    "\u2581getacp": 578,
    "ting": 579,
    "tim": 580,
    "\u2581gen": 581,
    "\u2581execute": 582,
    "\u2581find": 583,
    "ra": 584,
    "temp": 585,
    "\u2581generic": 586,
    "\u2581getsystemtimeasfiletime": 587,
    "\u2581pf": 588,
    "ervi": 589,
    "\u2581gettemp": 590,
    "ca": 591,
    "cb": 592,
    "ition": 593,
    "inform": 594,
    "dition": 595,
    "\u2581getmodulefilenamew": 596,
    "\u2581regi": 597,
    "information": 598,
    "code": 599,
    "\u2581global": 600,
    "\u2581current": 601,
    "\u2581go": 602,
    "\u2581goog": 603,
    "\u2581google": 604,
    "xfff": 605,
    "ethreadpool": 606,
    "onso": 607,
    "print": 608,
    "\u2581createfilew": 609,
    "xe": 610,
    "\u2581writefile": 611,
    "cd": 612,
    "timer": 613,
    "\u2581ac": 614,
    "\u2581setunhandledexceptionfilter": 615,
    "eeen": 616,
    "\u2581freeen": 617,
    "stru": 618,
    "\u2581getcurrentprocessid": 619,
    "struction": 620,
    "\u2581getmodulefilenamea": 621,
    "\u2581getcommandlinea": 622,
    "eb": 623,
    "ack": 624,
    "onsole": 625,
    "\u2581getenvironmentstringsw": 626,
    "\u2581freeenvironmentstringsw": 627,
    "fb": 628,
    "\u2581getversionex": 629,
    "\u2581isvalid": 630,
    "\u2581o": 631,
    "query": 632,
    "exa": 633,
    "\u2581regopen": 634,
    "aila": 635,
    "vaila": 636,
    "vailable": 637,
    "\u2581regopenkey": 638,
    "tri": 639,
    "\u2581she": 640,
    "\u2581getcommandlinew": 641,
    "\u2581available": 642,
    "\u2581exe": 643,
    "lass": 644,
    "yn": 645,
    "locales": 646,
    "ock": 647,
    "\u2581instruction": 648,
    "\u2581i": 649,
    "\u2581instructions": 650,
    "mmi": 651,
    "\u2581xmmi": 652,
    "ity": 653,
    "\u2581loadicon": 654,
    "cre": 655,
    "to": 656,
    "ea": 657,
    "sc": 658,
    "from": 659,
    "servi": 660,
    "ult": 661,
    "lor": 662,
    "defa": 663,
    "\u2581regist": 664,
    "\u2581setfile": 665,
    "\u2581drive": 666,
    "handl": 667,
    "default": 668,
    "variable": 669,
    "end": 670,
    "condition": 671,
    "color": 672,
    "upinfo": 673,
    "\u2581getstartupinfo": 674,
    "\u2581getstartupinfoa": 675,
    "lus": 676,
    "\u2581exit": 677,
    "cess": 678,
    "\u2581wa": 679,
    "create": 680,
    "\u2581crt": 681,
    "ddd": 682,
    "resource": 683,
    "len": 684,
    "codep": 685,
    "xffa": 686,
    "\u2581virtualquery": 687,
    "met": 688,
    "\u2581getconsole": 689,
    "threadex": 690,
    "\u2581beginthreadex": 691,
    "xffb": 692,
    "bu": 693,
    "codepage": 694,
    "urity": 695,
    "\u2581locales": 696,
    "security": 697,
    "\u2581isvalidcodepage": 698,
    "\u2581access": 699,
    "\u2581free": 700,
    "messagea": 701,
    "\u2581register": 702,
    "\u2581loadcursorw": 703,
    "printf": 704,
    "threadpool": 705,
    "\u2581invalid": 706,
    "boar": 707,
    "\u2581setfilepointer": 708,
    "class": 709,
    "\u2581delete": 710,
    "olf": 711,
    "tor": 712,
    "set": 713,
    "ber": 714,
    "\u2581getuser": 715,
    "cec": 716,
    "\u2581process": 717,
    "mage": 718,
    "bute": 719,
    "tribute": 720,
    "section": 721,
    "lp": 722,
    "wait": 723,
    "dac": 724,
    "service": 725,
    "ro": 726,
    "\u2581lstrlen": 727,
    "ttribute": 728,
    "\u2581tmp": 729,
    "\u2581heapcreate": 730,
    "gu": 731,
    "\u2581ini": 732,
    "num": 733,
    "\u2581syn": 734,
    "\u2581tlssetvalue": 735,
    "\u2581golf": 736,
    "bers": 737,
    "\u2581synch": 738,
    "py": 739,
    "version": 740,
    "\u2581gettempw": 741,
    "men": 742,
    "lsfree": 743,
    "\u2581tlsalloc": 744,
    "\u2581exitprocess": 745,
    "ge": 746,
    "lip": 747,
    "\u2581shell": 748,
    "date": 749,
    "\u2581al": 750,
    "\u2581regopenkeyexw": 751,
    "rw": 752,
    "board": 753,
    "net": 754,
    "mode": 755,
    "\u2581getversion": 756,
    "realloc": 757,
    "\u2581r": 758,
    "ethread": 759,
    "xffe": 760,
    "cs": 761,
    "ew": 762,
    "menu": 763,
    "close": 764,
    "achi": 765,
    "achine": 766,
    "\u2581machine": 767,
    "ies": 768,
    "sa": 769,
    "gi": 770,
    "first": 771,
    "term": 772,
    "processlist": 773,
    "\u2581getconsoleprocesslist": 774,
    "\u2581crtdll": 775,
    "ecount": 776,
    "\u2581readfile": 777,
    "handlecount": 778,
    "\u2581sethandlecount": 779,
    "erw": 780,
    "\u2581key": 781,
    "raw": 782,
    "\u2581rt": 783,
    "lic": 784,
    "\u2581rtl": 785,
    "directories": 786,
    "\u2581setdefault": 787,
    "dlldirectories": 788,
    "\u2581setdefaultdlldirectories": 789,
    "\u2581map": 790,
    "day": 791,
    "\u2581getthread": 792,
    "isting": 793,
    "scri": 794,
    "\u2581loadicona": 795,
    "ating": 796,
    "\u2581creates": 797,
    "scrip": 798,
    "edc": 799,
    "aps": 800,
    "\u2581existing": 801,
    "\u2581freelibrary": 802,
    "scriptor": 803,
    "descriptor": 804,
    "securitydescriptor": 805,
    "\u2581lstrcmp": 806,
    "pri": 807,
    "\u2581fibers": 808,
    "ant": 809,
    "rwlock": 810,
    "\u2581virtualfree": 811,
    "directorya": 812,
    "for": 813,
    "\u2581clos": 814,
    "\u2581closethreadpool": 815,
    "\u2581createthreadpool": 816,
    "\u2581createdirectoryw": 817,
    "leas": 818,
    "yscolor": 819,
    "\u2581getsyscolor": 820,
    "view": 821,
    "ork": 822,
    "\u2581ntdll": 823,
    "call": 824,
    "\u2581heaprealloc": 825,
    "\u2581flsfree": 826,
    "ory": 827,
    "ttributesw": 828,
    "ffi": 829,
    "dfc": 830,
    "\u2581fin": 831,
    "\u2581registerclass": 832,
    "offi": 833,
    "\u2581findre": 834,
    "\u2581file": 835,
    "\u2581image": 836,
    "point": 837,
    "\u2581wait": 838,
    "\u2581getfile": 839,
    "offile": 840,
    "text": 841,
    "\u2581imagelist": 842,
    "pa": 843,
    "esource": 844,
    "\u2581loadcursora": 845,
    "prot": 846,
    "start": 847,
    "\u2581bor": 848,
    "loating": 849,
    "\u2581releas": 850,
    "\u2581getenvironment": 851,
    "protect": 852,
    "\u2581getversionexw": 853,
    "all": 854,
    "\u2581virtualprotect": 855,
    "back": 856,
    "dr": 857,
    "\u2581createfilea": 858,
    "ink": 859,
    "number": 860,
    "\u2581borl": 861,
    "mem": 862,
    "fromstr": 863,
    "\u2581golfinfo": 864,
    "xffc": 865,
    "initializ": 866,
    "\u2581borland": 867,
    "keyw": 868,
    "callback": 869,
    "dater": 870,
    "\u2581waitfor": 871,
    "metri": 872,
    "\u2581setthreadpool": 873,
    "\u2581app": 874,
    "metrics": 875,
    "\u2581wnet": 876,
    "ho": 877,
    "\u2581getsystemmetrics": 878,
    "ask": 879,
    "ive": 880,
    "dateresource": 881,
    "ata": 882,
    "lipboard": 883,
    "clus": 884,
    "ver": 885,
    "clusive": 886,
    "rwlockex": 887,
    "rwlockexclusive": 888,
    "qui": 889,
    "\u2581getthreadlocale": 890,
    "ft": 891,
    "work": 892,
    "ub": 893,
    "cp": 894,
    "und": 895,
    "\u2581mic": 896,
    "ename": 897,
    "paint": 898,
    "put": 899,
    "ke": 900,
    "soft": 901,
    "mask": 902,
    "not": 903,
    "\u2581str": 904,
    "oy": 905,
    "\u2581lstrcmpi": 906,
    "variab": 907,
    "ion": 908,
    "\u2581mapvirtual": 909,
    "\u2581floating": 910,
    "\u2581getversionexa": 911,
    "logi": 912,
    "logical": 913,
    "\u2581getlogical": 914,
    "rosoft": 915,
    "are": 916,
    "lush": 917,
    "\u2581mapvirtualkeyw": 918,
    "buff": 919,
    "\u2581tr": 920,
    "\u2581ole": 921,
    "\u2581microsoft": 922,
    "\u2581deletefilew": 923,
    "\u2581lstrlenw": 924,
    "\u2581createprocess": 925,
    "ways": 926,
    "\u2581comp": 927,
    "\u2581lstrcmpiw": 928,
    "\u2581createwindow": 929,
    "\u2581always": 930,
    "bit": 931,
    "\u2581initializes": 932,
    "lw": 933,
    "\u2581flush": 934,
    "\u2581pr": 935,
    "led": 936,
    "\u2581globalalloc": 937,
    "\u2581compare": 938,
    "econ": 939,
    "\u2581sprintf": 940,
    "\u2581getsystemdirectoryw": 941,
    "buffers": 942,
    "\u2581sha": 943,
    "valu": 944,
    "pro": 945,
    "\u2581con": 946,
    "\u2581loadiconw": 947,
    "drl": 948,
    "trac": 949,
    "link": 950,
    "\u2581vers": 951,
    "\u2581ch": 952,
    "\u2581getdc": 953,
    "\u2581verset": 954,
    "conditionmask": 955,
    "\u2581versetconditionmask": 956,
    "low": 957,
    "bug": 958,
    "ken": 959,
    "atex": 960,
    "token": 961,
    "\u2581getusername": 962,
    "ailed": 963,
    "quires": 964,
    "lan": 965,
    "stroy": 966,
    "servicew": 967,
    "quiresrwlockexclusive": 968,
    "\u2581currentversion": 969,
    "\u2581copy": 970,
    "lect": 971,
    "debug": 972,
    "een": 973,
    "\u2581up": 974,
    "devi": 975,
    "allock": 976,
    "\u2581getfilea": 977,
    "ockob": 978,
    "\u2581getstockob": 979,
    "printfw": 980,
    "ocket": 981,
    "\u2581wsprintfw": 982,
    "drive": 983,
    "messagew": 984,
    "emap": 985,
    "xcc": 986,
    "\u2581select": 987,
    "localename": 988,
    "\u2581setfilea": 989,
    "fac": 990,
    "\u2581extrac": 991,
    "xec": 992,
    "guage": 993,
    "\u2581globallock": 994,
    "language": 995,
    "\u2581findfirst": 996,
    "lwapi": 997,
    "\u2581shlwapi": 998,
    "trl": 999,
    "lle": 1000,
    "termin": 1001,
    "dis": 1002,
    "dateresourcea": 1003,
    "ilanguage": 1004,
    "\u2581draw": 1005,
    "fcc": 1006,
    "\u2581vari": 1007,
    "\u2581termin": 1008,
    "mute": 1009,
    "formatex": 1010,
    "\u2581shelle": 1011,
    "\u2581createsemap": 1012,
    "dcc": 1013,
    "ision": 1014,
    "system": 1015,
    "variablew": 1016,
    "rag": 1017,
    "ith": 1018,
    "\u2581gut": 1019,
    "\u2581gum": 1020,
    "\u2581findclose": 1021,
    "ero": 1022,
    "valueexw": 1023,
    "conditionvariable": 1024,
    "mutexa": 1025,
    "\u2581getm": 1026,
    "\u2581or": 1027,
    "flow": 1028,
    "\u2581e": 1029,
    "ct": 1030,
    "atch": 1031,
    "fo": 1032,
    "\u2581varb": 1033,
    "eck": 1034,
    "xffd": 1035,
    "clipboard": 1036,
    "\u2581king": 1037,
    "\u2581setmenu": 1038,
    "profile": 1039,
    "mapview": 1040,
    "help": 1041,
    "\u2581getfileattributesw": 1042,
    "\u2581getdevi": 1043,
    "cecaps": 1044,
    "\u2581getdevicecaps": 1045,
    "patch": 1046,
    "\u2581regopenkeyexa": 1047,
    "\u2581lstrlena": 1048,
    "filenamew": 1049,
    "div": 1050,
    "sub": 1051,
    "se": 1052,
    "informationby": 1053,
    "\u2581lock": 1054,
    "\u2581initialize": 1055,
    "\u2581deletecriticalsection": 1056,
    "dacl": 1057,
    "securitydescriptordacl": 1058,
    "kart": 1059,
    "karton": 1060,
    "\u2581kingkarton": 1061,
    "old": 1062,
    "eek": 1063,
    "\u2581out": 1064,
    "ush": 1065,
    "head": 1066,
    "ati": 1067,
    "brush": 1068,
    "memory": 1069,
    "listhead": 1070,
    "\u2581initializeslisthead": 1071,
    "\u2581th": 1072,
    "\u2581un": 1073,
    "\u2581send": 1074,
    "linkw": 1075,
    "\u2581createthread": 1076,
    "\u2581start": 1077,
    "\u2581failed": 1078,
    "ass": 1079,
    "\u2581gettime": 1080,
    "\u2581ntopen": 1081,
    "\u2581ntopensection": 1082,
    "\u2581createwindowexa": 1083,
    "oct": 1084,
    "sourc": 1085,
    "\u2581getenvironmentvariablew": 1086,
    "printfa": 1087,
    "hor": 1088,
    "ms": 1089,
    "sn": 1090,
    "\u2581loc": 1091,
    "\u2581wsprintfa": 1092,
    "\u2581localiz": 1093,
    "\u2581localization": 1094,
    "fold": 1095,
    "am": 1096,
    "\u2581dis": 1097,
    "\u2581findresource": 1098,
    "\u2581destroy": 1099,
    "sing": 1100,
    "\u2581end": 1101,
    "\u2581setmenuinfo": 1102,
    "\u2581initterm": 1103,
    "\u2581code": 1104,
    "\u2581gettempfilenamew": 1105,
    "\u2581getuserdefault": 1106,
    "\u2581com": 1107,
    "\u2581findfirstfilew": 1108,
    "\u2581initializesecuritydescriptor": 1109,
    "hot": 1110,
    "\u2581createw": 1111,
    "ton": 1112,
    "\u2581createt": 1113,
    "\u2581try": 1114,
    "\u2581setsecuritydescriptordacl": 1115,
    "pal": 1116,
    "palet": 1117,
    "gear": 1118,
    "\u2581codegear": 1119,
    "cel": 1120,
    "\u2581createa": 1121,
    "oper": 1122,
    "tries": 1123,
    "\u2581tryac": 1124,
    "\u2581tryacquiresrwlockexclusive": 1125,
    "ryp": 1126,
    "cectrl": 1127,
    "ym": 1128,
    "apshot": 1129,
    "oolhelp": 1130,
    "snapshot": 1131,
    "\u2581createtoolhelp": 1132,
    "pack": 1133,
    "pos": 1134,
    "stry": 1135,
    "tem": 1136,
    "closekey": 1137,
    "\u2581regclosekey": 1138,
    "\u2581enum": 1139,
    "ecomp": 1140,
    "\u2581po": 1141,
    "\u2581releasedc": 1142,
    "ain": 1143,
    "atible": 1144,
    "leob": 1145,
    "ecompatible": 1146,
    "\u2581createcompatible": 1147,
    "ont": 1148,
    "vol": 1149,
    "package": 1150,
    "\u2581findwindow": 1151,
    "inal": 1152,
    "\u2581peek": 1153,
    "packageid": 1154,
    "\u2581getcurrentpackageid": 1155,
    "wh": 1156,
    "dinal": 1157,
    "draw": 1158,
    "\u2581getlogicaldrive": 1159,
    "\u2581wake": 1160,
    "\u2581wakeall": 1161,
    "\u2581wakeallconditionvariable": 1162,
    "\u2581drag": 1163,
    "\u2581regset": 1164,
    "\u2581ordinal": 1165,
    "\u2581loadresource": 1166,
    "\u2581comparestringex": 1167,
    "xfde": 1168,
    "\u2581getlocaleinfoex": 1169,
    "efc": 1170,
    "ume": 1171,
    "\u2581append": 1172,
    "fec": 1173,
    "volume": 1174,
    "urn": 1175,
    "\u2581shget": 1176,
    "operation": 1177,
    "ymbo": 1178,
    "ymbolic": 1179,
    "\u2581wsock": 1180,
    "ymboliclinkw": 1181,
    "\u2581createsymboliclinkw": 1182,
    "\u2581of": 1183,
    "stack": 1184,
    "verflow": 1185,
    "iate": 1186,
    "vate": 1187,
    "\u2581lockresource": 1188,
    "\u2581error": 1189,
    "econdition": 1190,
    "econditionvariable": 1191,
    "\u2581cryp": 1192,
    "\u2581strn": 1193,
    "\u2581lread": 1194,
    "strfrom": 1195,
    "\u2581varbstrfrom": 1196,
    "ret": 1197,
    "\u2581createdirectorya": 1198,
    "\u2581appendw": 1199,
    "\u2581findresourc": 1200,
    "cdc": 1201,
    "\u2581ofresource": 1202,
    "\u2581findresourceexw": 1203,
    "nection": 1204,
    "\u2581message": 1205,
    "ace": 1206,
    "when": 1207,
    "return": 1208,
    "processornumber": 1209,
    "\u2581getcurrentprocessornumber": 1210,
    "processwrite": 1211,
    "\u2581flushprocesswrite": 1212,
    "\u2581closethreadpoolwait": 1213,
    "\u2581flushprocesswritebuffers": 1214,
    "returns": 1215,
    "callbacks": 1216,
    "whencallback": 1217,
    "timercallbacks": 1218,
    "\u2581setthreadpoolwait": 1219,
    "\u2581waitforthreadpool": 1220,
    "whencallbackreturns": 1221,
    "\u2581closethreadpooltimer": 1222,
    "\u2581createthreadpoolwait": 1223,
    "\u2581freelibrarywhencallbackreturns": 1224,
    "\u2581waitforthreadpooltimercallbacks": 1225,
    "horeexw": 1226,
    "\u2581createsemaphoreexw": 1227,
    "\u2581setthreadpooltimer": 1228,
    "\u2581createthreadpooltimer": 1229,
    "singleob": 1230,
    "init": 1231,
    "\u2581hton": 1232,
    "assoc": 1233,
    "\u2581the": 1234,
    "variablea": 1235,
    "\u2581extract": 1236,
    "\u2581waitforsingleob": 1237,
    "windowproc": 1238,
    "\u2581no": 1239,
    "utes": 1240,
    "\u2581strncmp": 1241,
    "\u2581getsysteminfo": 1242,
    "cy": 1243,
    "enum": 1244,
    "\u2581findresourcew": 1245,
    "associate": 1246,
    "dicon": 1247,
    "associatedicon": 1248,
    "\u2581extractassociatedicon": 1249,
    "ok": 1250,
    "\u2581peekmessagea": 1251,
    "\u2581messagebo": 1252,
    "sti": 1253,
    "\u2581beginup": 1254,
    "nal": 1255,
    "host": 1256,
    "\u2581createmutexa": 1257,
    "\u2581font": 1258,
    "\u2581hg": 1259,
    "ong": 1260,
    "stit": 1261,
    "\u2581hgdraw": 1262,
    "meto": 1263,
    "\u2581findnext": 1264,
    "\u2581mon": 1265,
    "trol": 1266,
    "substit": 1267,
    "substitutes": 1268,
    "\u2581fontsubstitutes": 1269,
    "private": 1270,
    "state": 1271,
    "windows": 1272,
    "privateprofile": 1273,
    "\u2581update": 1274,
    "\u2581def": 1275,
    "errormode": 1276,
    "\u2581seterrormode": 1277,
    "\u2581setthread": 1278,
    "\u2581getdate": 1279,
    "ddc": 1280,
    "sup": 1281,
    "\u2581seten": 1282,
    "xecute": 1283,
    "\u2581shellexecute": 1284,
    "\u2581show": 1285,
    "\u2581setwindow": 1286,
    "feba": 1287,
    "own": 1288,
    "cpyn": 1289,
    "\u2581lstrcpyn": 1290,
    "\u2581globalfree": 1291,
    "\u2581regsetvalueexw": 1292,
    "\u2581getcurrentdirectoryw": 1293,
    "spac": 1294,
    "\u2581post": 1295,
    "\u2581crypt": 1296,
    "\u2581with": 1297,
    "yo": 1298,
    "bfc": 1299,
    "\u2581loadlibraryw": 1300,
    "image": 1301,
    "\u2581setup": 1302,
    "\u2581beginpaint": 1303,
    "\u2581getusernamea": 1304,
    "\u2581endpaint": 1305,
    "tered": 1306,
    "\u2581altered": 1307,
    "ust": 1308,
    "ternal": 1309,
    "\u2581setc": 1310,
    "\u2581trans": 1311,
    "lec": 1312,
    "\u2581defwindowproc": 1313,
    "endoffile": 1314,
    "nextw": 1315,
    "\u2581getmessagea": 1316,
    "\u2581getmain": 1317,
    "\u2581golfset": 1318,
    "dl": 1319,
    "bitmap": 1320,
    "\u2581gettempa": 1321,
    "\u2581windowsnt": 1322,
    "volumeinformation": 1323,
    "\u2581getvolumeinformation": 1324,
    "\u2581transla": 1325,
    "cpy": 1326,
    "long": 1327,
    "\u2581setfileattributesw": 1328,
    "\u2581devi": 1329,
    "cfc": 1330,
    "\u2581deletefilea": 1331,
    "\u2581registry": 1332,
    "\u2581coinitializ": 1333,
    "lphi": 1334,
    "\u2581delphi": 1335,
    "quit": 1336,
    "cad": 1337,
    "ccc": 1338,
    "ator": 1339,
    "fer": 1340,
    "\u2581createprocessw": 1341,
    "\u2581wc": 1342,
    "unlock": 1343,
    "\u2581device": 1344,
    "\u2581ra": 1345,
    "\u2581getkey": 1346,
    "eexception": 1347,
    "\u2581rais": 1348,
    "\u2581raiseexception": 1349,
    "uni": 1350,
    "\u2581remo": 1351,
    "\u2581openprocess": 1352,
    "\u2581globalunlock": 1353,
    "untime": 1354,
    "out": 1355,
    "\u2581check": 1356,
    "\u2581showwindow": 1357,
    "\u2581registerclassexa": 1358,
    "refer": 1359,
    "ray": 1360,
    "erator": 1361,
    "ange": 1362,
    "\u2581rec": 1363,
    "\u2581getwindow": 1364,
    "\u2581translate": 1365,
    "ger": 1366,
    "privi": 1367,
    "localtime": 1368,
    "privile": 1369,
    "input": 1370,
    "\u2581getkeyboard": 1371,
    "mapviewof": 1372,
    "mapviewofsection": 1373,
    "unicode": 1374,
    "anag": 1375,
    "bce": 1376,
    "securityinfo": 1377,
    "\u2581messageboxa": 1378,
    "unicodestring": 1379,
    "\u2581rtlinit": 1380,
    "lecs": 1381,
    "variablecs": 1382,
    "\u2581sleepcondition": 1383,
    "\u2581sleepconditionvariablecs": 1384,
    "\u2581updatewindow": 1385,
    "\u2581rtlinitunicodestring": 1386,
    "stringsa": 1387,
    "os": 1388,
    "fdc": 1389,
    "disk": 1390,
    "\u2581getlocaltime": 1391,
    "diskfree": 1392,
    "diskfreespac": 1393,
    "\u2581getdiskfreespac": 1394,
    "allocate": 1395,
    "\u2581txt": 1396,
    "uter": 1397,
    "gro": 1398,
    "ysi": 1399,
    "iv": 1400,
    "sid": 1401,
    "ows": 1402,
    "computer": 1403,
    "redu": 1404,
    "referredu": 1405,
    "referreduilanguage": 1406,
    "threadp": 1407,
    "threadpreferreduilanguage": 1408,
    "\u2581postquit": 1409,
    "\u2581postquitmessage": 1410,
    "threadpreferreduilanguages": 1411,
    "hysi": 1412,
    "\u2581dispatch": 1413,
    "\u2581wi": 1414,
    "bits": 1415,
    "\u2581physi": 1416,
    "\u2581physical": 1417,
    "\u2581malloc": 1418,
    "arg": 1419,
    "zero": 1420,
    "\u2581registerclassexw": 1421,
    "new": 1422,
    "\u2581err": 1423,
    "\u2581recv": 1424,
    "\u2581unhandledexceptionfilter": 1425,
    "\u2581enumsystem": 1426,
    "fore": 1427,
    "ateprocess": 1428,
    "hlp": 1429,
    "manag": 1430,
    "\u2581variant": 1431,
    "debugger": 1432,
    "debuggerpresent": 1433,
    "\u2581ma": 1434,
    "lete": 1435,
    "\u2581isdebuggerpresent": 1436,
    "\u2581op": 1437,
    "\u2581terminateprocess": 1438,
    "if": 1439,
    "servicehandle": 1440,
    "\u2581closeservicehandle": 1441,
    "hlpapi": 1442,
    "ception": 1443,
    "folderw": 1444,
    "\u2581sat": 1445,
    "ttributesa": 1446,
    "array": 1447,
    "\u2581res": 1448,
    "pe": 1449,
    "rit": 1450,
    "base": 1451,
    "ddf": 1452,
    "\u2581au": 1453,
    "\u2581enumsystemlocales": 1454,
    "\u2581resum": 1455,
    "\u2581resumethread": 1456,
    "deb": 1457,
    "\u2581translatemessage": 1458,
    "\u2581point": 1459,
    "\u2581writ": 1460,
    "\u2581prec": 1461,
    "\u2581errata": 1462,
    "\u2581precision": 1463,
    "\u2581writec": 1464,
    "variant": 1465,
    "typ": 1466,
    "\u2581getuserdefaultlocalename": 1467,
    "\u2581getdateformatex": 1468,
    "\u2581isvalidlocalename": 1469,
    "\u2581gettimeformatex": 1470,
    "\u2581enumsystemlocalesex": 1471,
    "ogra": 1472,
    "hange": 1473,
    "\u2581registerwindow": 1474,
    "\u2581mo": 1475,
    "xchange": 1476,
    "\u2581nov": 1477,
    "\u2581sep": 1478,
    "dad": 1479,
    "\u2581q": 1480,
    "ede": 1481,
    "ull": 1482,
    "ecc": 1483,
    "\u2581exitthread": 1484,
    "ground": 1485,
    "\u2581oct": 1486,
    "alog": 1487,
    "ember": 1488,
    "\u2581getsystemdirectorya": 1489,
    "nect": 1490,
    "\u2581sun": 1491,
    "teen": 1492,
    "wind": 1493,
    "paletteen": 1494,
    "paletteentries": 1495,
    "\u2581wine": 1496,
    "\u2581msvcr": 1497,
    "xffff": 1498,
    "scmanag": 1499,
    "\u2581openscmanag": 1500,
    "ogram": 1501,
    "uary": 1502,
    "msg": 1503,
    "\u2581may": 1504,
    "\u2581copyfilew": 1505,
    "sday": 1506,
    "\u2581tue": 1507,
    "\u2581wed": 1508,
    "\u2581findnextfilew": 1509,
    "unwind": 1510,
    "\u2581rtlunwind": 1511,
    "texta": 1512,
    "\u2581fri": 1513,
    "\u2581olea": 1514,
    "\u2581createprocessa": 1515,
    "namew": 1516,
    "atethread": 1517,
    "foreground": 1518,
    "foregroundwindow": 1519,
    "\u2581initializeconditionvariable": 1520,
    "\u2581terminatethread": 1521,
    "\u2581output": 1522,
    "hread": 1523,
    "\u2581outputdebug": 1524,
    "suped": 1525,
    "\u2581getsystempaletteentries": 1526,
    "\u2581getenvironmentvariablea": 1527,
    "\u2581floatingpoint": 1528,
    "\u2581invalidvariant": 1529,
    "byzero": 1530,
    "isionbyzero": 1531,
    "\u2581getlogicalprocessor": 1532,
    "\u2581getlogicalprocessorinformation": 1533,
    "delete": 1534,
    "mapp": 1535,
    "\u2581winexec": 1536,
    "ffc": 1537,
    "guar": 1538,
    "mapping": 1539,
    "filemapping": 1540,
    "down": 1541,
    "antee": 1542,
    "guarantee": 1543,
    "stackguarantee": 1544,
    "\u2581setthreadstackguarantee": 1545,
    "\u2581varr": 1546,
    "add": 1547,
    "fearray": 1548,
    "\u2581getfileinformationby": 1549,
    "uilanguage": 1550,
    "ater": 1551,
    "dbd": 1552,
    "ty": 1553,
    "enthread": 1554,
    "\u2581openscmanagerw": 1555,
    "\u2581openthread": 1556,
    "antor": 1557,
    "antorsa": 1558,
    "antorsafearray": 1559,
    "\u2581getsyscolorbrush": 1560,
    "full": 1561,
    "oem": 1562,
    "\u2581createfilemapping": 1563,
    "spec": 1564,
    "\u2581getusernamew": 1565,
    "load": 1566,
    "\u2581dispatchmessagea": 1567,
    "log": 1568,
    "\u2581getoem": 1569,
    "\u2581getoemcp": 1570,
    "\u2581getfileinformationbyhandl": 1571,
    "\u2581regquery": 1572,
    "bk": 1573,
    "edi": 1574,
    "\u2581bat": 1575,
    "\u2581getcomputer": 1576,
    "\u2581msc": 1577,
    "bl": 1578,
    "\u2581san": 1579,
    "cep": 1580,
    "\u2581deleteob": 1581,
    "\u2581flushfile": 1582,
    "\u2581flushfilebuffers": 1583,
    "aac": 1584,
    "afc": 1585,
    "\u2581setfileinformationby": 1586,
    "\u2581createfilemappinga": 1587,
    "\u2581createexw": 1588,
    "bcb": 1589,
    "\u2581exed": 1590,
    "\u2581exedows": 1591,
    "dda": 1592,
    "fdr": 1593,
    "\u2581sanfdr": 1594,
    "\u2581registerwindowmessagew": 1595,
    "\u2581program": 1596,
    "namea": 1597,
    "\u2581setfileattributesa": 1598,
    "blt": 1599,
    "ystate": 1600,
    "\u2581setbk": 1601,
    "lid": 1602,
    "eto": 1603,
    "\u2581mul": 1604,
    "\u2581muldiv": 1605,
    "aterect": 1606,
    "\u2581setst": 1607,
    "\u2581setstdhandle": 1608,
    "\u2581copyfilea": 1609,
    "\u2581getforegroundwindow": 1610,
    "\u2581mapview": 1611,
    "\u2581form": 1612,
    "ioc": 1613,
    "\u2581defwindowproca": 1614,
    "cept": 1615,
    "\u2581mapviewoffile": 1616,
    "eca": 1617,
    "\u2581allocate": 1618,
    "uld": 1619,
    "\u2581selectob": 1620,
    "tout": 1621,
    "\u2581ver": 1622,
    "ded": 1623,
    "\u2581tex": 1624,
    "\u2581textout": 1625,
    "ated": 1626,
    "\u2581getprivateprofile": 1627,
    "\u2581getwindows": 1628,
    "\u2581comm": 1629,
    "\u2581setwindowpos": 1630,
    "\u2581setbkcolor": 1631,
    "\u2581settext": 1632,
    "tex": 1633,
    "\u2581oleaut": 1634,
    "fff": 1635,
    "ist": 1636,
    "privileg": 1637,
    "\u2581deletedc": 1638,
    "numberis": 1639,
    "ebc": 1640,
    "\u2581getke": 1641,
    "\u2581getkeystate": 1642,
    "\u2581registers": 1643,
    "versioninfow": 1644,
    "speci": 1645,
    "setinformation": 1646,
    "ify": 1647,
    "uldnot": 1648,
    "\u2581verify": 1649,
    "\u2581registerservi": 1650,
    "\u2581settextcolor": 1651,
    "cectrlhandl": 1652,
    "\u2581registerservicectrlhandl": 1653,
    "\u2581tlsfree": 1654,
    "ontin": 1655,
    "valuew": 1656,
    "internal": 1657,
    "\u2581fileti": 1658,
    "\u2581filetimeto": 1659,
    "errornumberis": 1660,
    "\u2581programinternal": 1661,
    "\u2581programinternalerrornumberis": 1662,
    "eab": 1663,
    "\u2581getmenu": 1664,
    "\u2581heapsetinformation": 1665,
    "\u2581geticon": 1666,
    "item": 1667,
    "\u2581accept": 1668,
    "\u2581wsa": 1669,
    "startup": 1670,
    "\u2581verifyversioninfow": 1671,
    "ctl": 1672,
    "\u2581comctl": 1673,
    "\u2581coinitializeex": 1674,
    "\u2581setendoffile": 1675,
    "\u2581sendmessagea": 1676,
    "files": 1677,
    "atw": 1678,
    "\u2581createdi": 1679,
    "\u2581getdi": 1680,
    "accel": 1681,
    "\u2581wsastartup": 1682,
    "utex": 1683,
    "\u2581bit": 1684,
    "\u2581interlockede": 1685,
    "\u2581interlockedexchange": 1686,
    "inthe": 1687,
    "dispatch": 1688,
    "servicectrl": 1689,
    "\u2581startservicectrl": 1690,
    "\u2581startservicectrldispatch": 1691,
    "\u2581createcompatibledc": 1692,
    "beloc": 1693,
    "\u2581bitblt": 1694,
    "belocated": 1695,
    "\u2581setservice": 1696,
    "\u2581setservicestatus": 1697,
    "dcon": 1698,
    "imagebase": 1699,
    "\u2581drawtexta": 1700,
    "\u2581getlogicaldrivestringsa": 1701,
    "\u2581shellexecutew": 1702,
    "lation": 1703,
    "longa": 1704,
    "emutex": 1705,
    "\u2581releasemutex": 1706,
    "\u2581unmapview": 1707,
    "\u2581unmapviewoffile": 1708,
    "uldnotbelocated": 1709,
    "uldnotbelocatedinthe": 1710,
    "firstw": 1711,
    "\u2581createcompatiblebitmap": 1712,
    "\u2581getob": 1713,
    "socket": 1714,
    "\u2581closesocket": 1715,
    "can": 1716,
    "\u2581setenvironment": 1717,
    "\u2581createf": 1718,
    "\u2581fill": 1719,
    "dup": 1720,
    "\u2581settimer": 1721,
    "\u2581invalidaterect": 1722,
    "usp": 1723,
    "esid": 1724,
    "andinitializ": 1725,
    "andinitializesid": 1726,
    "\u2581allocateandinitializesid": 1727,
    "\u2581u": 1728,
    "acb": 1729,
    "\u2581move": 1730,
    "\u2581mpr": 1731,
    "\u2581destroyicon": 1732,
    "\u2581textouta": 1733,
    "ene": 1734,
    "ontindirect": 1735,
    "\u2581createfontindirect": 1736,
    "lipboar": 1737,
    "\u2581isw": 1738,
    "accelerator": 1739,
    "\u2581openservicew": 1740,
    "\u2581theproc": 1741,
    "ffd": 1742,
    "ecd": 1743,
    "\u2581getdibits": 1744,
    "solid": 1745,
    "ons": 1746,
    "\u2581fillrect": 1747,
    "bar": 1748,
    "\u2581startservicew": 1749,
    "\u2581startservicectrldispatcherw": 1750,
    "\u2581susp": 1751,
    "ddata": 1752,
    "lipboarddata": 1753,
    "solidbrush": 1754,
    "\u2581createservicew": 1755,
    "\u2581createsolidbrush": 1756,
    "\u2581suspend": 1757,
    "\u2581suspendthread": 1758,
    "\u2581freesid": 1759,
    "rand": 1760,
    "\u2581getclass": 1761,
    "\u2581getkeyboardstate": 1762,
    "cef": 1763,
    "\u2581geticoninfo": 1764,
    "\u2581findwindowa": 1765,
    "\u2581setclass": 1766,
    "losec": 1767,
    "olec": 1768,
    "\u2581cb": 1769,
    "opene": 1770,
    "\u2581drawicon": 1771,
    "\u2581emp": 1772,
    "\u2581openclipboard": 1773,
    "\u2581closec": 1774,
    "\u2581closeclipboard": 1775,
    "yarg": 1776,
    "utdown": 1777,
    "ced": 1778,
    "\u2581setclipboarddata": 1779,
    "\u2581empty": 1780,
    "\u2581emptyclipboard": 1781,
    "\u2581registerclassa": 1782,
    "dab": 1783,
    "ecta": 1784,
    "\u2581htons": 1785,
    "hore": 1786,
    "\u2581socket": 1787,
    "\u2581createdib": 1788,
    "phlpapi": 1789,
    "hip": 1790,
    "\u2581createfontindirecta": 1791,
    "members": 1792,
    "\u2581connect": 1793,
    "bcf": 1794,
    "membership": 1795,
    "\u2581checktoken": 1796,
    "\u2581checktokenmembership": 1797,
    "\u2581net": 1798,
    "leex": 1799,
    "your": 1800,
    "\u2581getlogicaldrivestringsw": 1801,
    "\u2581createdibsection": 1802,
    "xecut": 1803,
    "\u2581gethost": 1804,
    "openenum": 1805,
    "\u2581wnetopenenum": 1806,
    "\u2581bind": 1807,
    "\u2581wnetopenenumw": 1808,
    "\u2581createwindowexw": 1809,
    "byname": 1810,
    "\u2581gethostbyname": 1811,
    "connection": 1812,
    "addcon": 1813,
    "\u2581wnetaddcon": 1814,
    "\u2581wnetaddconnection": 1815,
    "resourcew": 1816,
    "\u2581runtime": 1817,
    "\u2581wnetenum": 1818,
    "\u2581wnetenumresourcew": 1819,
    "cancel": 1820,
    "\u2581wnetcancel": 1821,
    "\u2581wnetcancelconnection": 1822,
    "\u2581shellexecut": 1823,
    "emory": 1824,
    "\u2581iswow": 1825,
    "tic": 1826,
    "\u2581setclasslonga": 1827,
    "xca": 1828,
    "zer": 1829,
    "\u2581z": 1830,
    "\u2581shellexecuteexw": 1831,
    "\u2581list": 1832,
    "xac": 1833,
    "\u2581type": 1834,
    "\u2581extractassociatedicona": 1835,
    "\u2581extractassociatediconw": 1836,
    "geo": 1837,
    "\u2581shutdown": 1838,
    "zerom": 1839,
    "\u2581rtlzerom": 1840,
    "\u2581rtlzeromemory": 1841,
    "\u2581comparestringw": 1842,
    "dateresourcew": 1843,
    "\u2581findwindowexa": 1844,
    "\u2581endup": 1845,
    "\u2581writeconsole": 1846,
    "\u2581registerservicectrlhandlerw": 1847,
    "aff": 1848,
    "\u2581updateresourcea": 1849,
    "\u2581endupdateresourcea": 1850,
    "\u2581beginupdateresourcea": 1851,
    "geoid": 1852,
    "\u2581getusergeoid": 1853,
    "\u2581beginupdateresourcew": 1854,
    "\u2581htonl": 1855,
    "ticonex": 1856,
    "\u2581extracticonex": 1857,
    "\u2581writeconsolew": 1858,
    "\u2581extracticonexw": 1859,
    "octls": 1860,
    "\u2581ioctls": 1861,
    "\u2581ioctlsocket": 1862,
    "edd": 1863,
    "\u2581listen": 1864,
    "onsolec": 1865,
    "\u2581getconsolec": 1866,
    "\u2581getconsolemode": 1867,
    "\u2581shgetfolderw": 1868,
    "\u2581getpe": 1869,
    "ername": 1870,
    "\u2581getpeername": 1871,
    "rectory": 1872,
    "eac": 1873,
    "\u2581iphlpapi": 1874,
    "\u2581getconsolecp": 1875,
    "\u2581ls": 1876,
    "once": 1877,
    "edu": 1878,
    "edure": 1879,
    "\u2581lstrcpy": 1880,
    "\u2581regdelete": 1881,
    "\u2581outputdebugstringa": 1882,
    "eec": 1883,
    "bcc": 1884,
    "\u2581regqueryvalueexw": 1885,
    "par": 1886,
    "\u2581control": 1887,
    "\u2581dup": 1888,
    "dos": 1889,
    "ang": 1890,
    "\u2581getthreadpreferreduilanguages": 1891,
    "\u2581to": 1892,
    "\u2581duplic": 1893,
    "ontrol": 1894,
    "vchost": 1895,
    "ebf": 1896,
    "\u2581svchost": 1897,
    "ofc": 1898,
    "formatw": 1899,
    "vio": 1900,
    "febf": 1901,
    "\u2581getcomputernamea": 1902,
    "\u2581getmess": 1903,
    "\u2581initializesrwlock": 1904,
    "fbc": 1905,
    "\u2581fmode": 1906,
    "\u2581acquiresrwlockexclusive": 1907,
    "\u2581format": 1908,
    "iocontrol": 1909,
    "\u2581he": 1910,
    "\u2581deviceiocontrol": 1911,
    "processmemory": 1912,
    "adm": 1913,
    "pla": 1914,
    "xab": 1915,
    "keyexw": 1916,
    "\u2581failedto": 1917,
    "\u2581srand": 1918,
    "app": 1919,
    "violation": 1920,
    "dff": 1921,
    "\u2581getdiskfreespaceexw": 1922,
    "ols": 1923,
    "\u2581work": 1924,
    "\u2581createsemaphore": 1925,
    "querys": 1926,
    "inki": 1927,
    "\u2581hels": 1928,
    "\u2581helsinki": 1929,
    "aaaa": 1930,
    "xad": 1931,
    "xcf": 1932,
    "\u2581st": 1933,
    "\u2581releases": 1934,
    "izn": 1935,
    "iznadm": 1936,
    "\u2581triznadm": 1937,
    "\u2581remov": 1938,
    "heck": 1939,
    "lication": 1940,
    "querysystem": 1941,
    "querysysteminformation": 1942,
    "ernet": 1943,
    "folder": 1944,
    "\u2581regenum": 1945,
    "eexa": 1946,
    "xaa": 1947,
    "\u2581mscms": 1948,
    "\u2581openmutexa": 1949,
    "\u2581di": 1950,
    "palette": 1951,
    "\u2581v": 1952,
    "slen": 1953,
    "hook": 1954,
    "\u2581getnumber": 1955,
    "ofconsole": 1956,
    "\u2581getnumberofconsole": 1957,
    "nex": 1958,
    "cac": 1959,
    "\u2581systemtim": 1960,
    "\u2581ntquerysysteminformation": 1961,
    "trols": 1962,
    "dbg": 1963,
    "\u2581wcslen": 1964,
    "\u2581pec": 1965,
    "dbgmsg": 1966,
    "any": 1967,
    "bdc": 1968,
    "edirectory": 1969,
    "unmapviewofsection": 1970,
    "\u2581ntunmapviewofsection": 1971,
    "inac": 1972,
    "triesinac": 1973,
    "\u2581setentriesinac": 1974,
    "initialize": 1975,
    "\u2581getsecurityinfo": 1976,
    "\u2581ntmapviewofsection": 1977,
    "\u2581gb": 1978,
    "metofiletime": 1979,
    "pi": 1980,
    "\u2581accessviolation": 1981,
    "\u2581setentriesinacla": 1982,
    "\u2581shellexecutea": 1983,
    "controls": 1984,
    "statust": 1985,
    "odos": 1986,
    "\u2581rtlnt": 1987,
    "odoserror": 1988,
    "\u2581rtlntstatust": 1989,
    "\u2581rtlntstatustodoserror": 1990,
    "\u2581fe": 1991,
    "inputs": 1992,
    "\u2581getnumberofconsoleinputs": 1993,
    "\u2581setsecurityinfo": 1994,
    "\u2581physicalmemory": 1995,
    "mod": 1996,
    "etofiletime": 1997,
    "\u2581systemtimetofiletime": 1998,
    "\u2581getthreaduilanguage": 1999,
    "\u2581inst": 2000,
    "gen": 2001,
    "\u2581remove": 2002,
    "destroy": 2003,
    "dlg": 2004,
    "\u2581mar": 2005,
    "ebe": 2006,
    "\u2581new": 2007,
    "\u2581lcmapstringa": 2008,
    "\u2581sn": 2009,
    "\u2581removedirectory": 2010,
    "instruction": 2011,
    "\u2581localfree": 2012,
    "under": 2013,
    "\u2581lstrcmpa": 2014,
    "\u2581exception": 2015,
    "\u2581lstrcpynw": 2016,
    "\u2581localfileti": 2017,
    "\u2581localfiletimetofiletime": 2018,
    "fbf": 2019,
    "\u2581getstringtypea": 2020,
    "tra": 2021,
    "\u2581physicaldrive": 2022,
    "\u2581ass": 2023,
    "\u2581writeprivateprofile": 2024,
    "cbc": 2025,
    "\u2581wcsc": 2026,
    "ecall": 2027,
    "faa": 2028,
    "echeck": 2029,
    "inst": 2030,
    "une": 2031,
    "no": 2032,
    "xae": 2033,
    "ceex": 2034,
    "\u2581wcscpy": 2035,
    "dex": 2036,
    "feb": 2037,
    "bec": 2038,
    "failed": 2039,
    "\u2581releasesrwlockexclusive": 2040,
    "exception": 2041,
    "\u2581theprocedure": 2042,
    "ins": 2043,
    "\u2581setcurrent": 2044,
    "xfffe": 2045,
    "gument": 2046,
    "ority": 2047,
    "\u2581snap": 2048,
    "argument": 2049,
    "\u2581septem": 2050,
    "eextra": 2051,
    "ied": 2052,
    "\u2581feb": 2053,
    "ccess": 2054,
    "creating": 2055,
    "infoa": 2056,
    "\u2581loadaccelerator": 2057,
    "ise": 2058,
    "\u2581febr": 2059,
    "xffba": 2060,
    "ssp": 2061,
    "xffbb": 2062,
    "ceffc": 2063,
    "ober": 2064,
    "gust": 2065,
    "pril": 2066,
    "\u2581apr": 2067,
    "\u2581aug": 2068,
    "\u2581april": 2069,
    "\u2581august": 2070,
    "\u2581november": 2071,
    "\u2581september": 2072,
    "\u2581div": 2073,
    "bound": 2074,
    "xffbe": 2075,
    "xffbd": 2076,
    "xfffd": 2077,
    "\u2581interfac": 2078,
    "xffbc": 2079,
    "anget": 2080,
    "xfffc": 2081,
    "xffbf": 2082,
    "\u2581outof": 2083,
    "\u2581outofmemory": 2084,
    "ash": 2085,
    "anuary": 2086,
    "\u2581march": 2087,
    "\u2581february": 2088,
    "uly": 2089,
    "index": 2090,
    "\u2581december": 2091,
    "\u2581october": 2092,
    "\u2581createsemaphorew": 2093,
    "\u2581thu": 2094,
    "nesday": 2095,
    "\u2581monday": 2096,
    "\u2581sunday": 2097,
    "\u2581tuesday": 2098,
    "\u2581wednesday": 2099,
    "ursday": 2100,
    "\u2581thursday": 2101,
    "\u2581createpalette": 2102,
    "urday": 2103,
    "\u2581friday": 2104,
    "\u2581saturday": 2105,
    "found": 2106,
    "adwork": 2107,
    "den": 2108,
    "textw": 2109,
    "afecall": 2110,
    "ffcb": 2111,
    "bbd": 2112,
    "ond": 2113,
    "\u2581sub": 2114,
    "xfffb": 2115,
    "\u2581interfacen": 2116,
    "\u2581inte": 2117,
    "\u2581asser": 2118,
    "changet": 2119,
    "\u2581variantchanget": 2120,
    "\u2581stack": 2121,
    "ageextra": 2122,
    "ageextrainfo": 2123,
    "\u2581getmessageextrainfo": 2124,
    "vis": 2125,
    "\u2581external": 2126,
    "xffcd": 2127,
    "\u2581assertion": 2128,
    "mit": 2129,
    "\u2581initon": 2130,
    "prec": 2131,
    "ceexecute": 2132,
    "ceexecuteonce": 2133,
    "\u2581initonceexecuteonce": 2134,
    "privileged": 2135,
    "insafecall": 2136,
    "\u2581exceptioninsafecall": 2137,
    "xffaa": 2138,
    "\u2581disk": 2139,
    "calls": 2140,
    "ecast": 2141,
    "underflow": 2142,
    "denied": 2143,
    "efd": 2144,
    "bool": 2145,
    "\u2581privileged": 2146,
    "\u2581chit": 2147,
    "bounds": 2148,
    "classtyp": 2149,
    "notsuped": 2150,
    "classtypecast": 2151,
    "leaccess": 2152,
    "overflow": 2153,
    "callsnotsuped": 2154,
    "\u2581errorcreating": 2155,
    "\u2581assertionfailed": 2156,
    "\u2581invalidclasstypecast": 2157,
    "\u2581variantcallsnotsuped": 2158,
    "\u2581floatingpointunderflow": 2159,
    "\u2581rang": 2160,
    "typecon": 2161,
    "\u2581rangecheck": 2162,
    "typeconversion": 2163,
    "\u2581stackoverflow": 2164,
    "pointeroperation": 2165,
    "\u2581privilegedinstruction": 2166,
    "\u2581invalidvariantoperation": 2167,
    "\u2581invalidvarianttypeconversion": 2168,
    "pointo": 2169,
    "\u2581integ": 2170,
    "otsuped": 2171,
    "indexout": 2172,
    "pointoverflow": 2173,
    "divisionbyzero": 2174,
    "\u2581externalexception": 2175,
    "\u2581interfacenotsuped": 2176,
    "\u2581floatingpointoverflow": 2177,
    "\u2581floatingpointdivisionbyzero": 2178,
    "floating": 2179,
    "ofbounds": 2180,
    "\u2581integero": 2181,
    "floatingpoint": 2182,
    "\u2581divisionbyzero": 2183,
    "indexoutofbounds": 2184,
    "\u2581integeroverflow": 2185,
    "\u2581rangecheckerror": 2186,
    "\u2581invalidfloatingpoint": 2187,
    "\u2581invalidpointeroperation": 2188,
    "\u2581invalidfloatingpointoperation": 2189,
    "bey": 2190,
    "omany": 2191,
    "xfffa": 2192,
    "beyond": 2193,
    "numeric": 2194,
    "\u2581toomany": 2195,
    "openfiles": 2196,
    "\u2581diskfull": 2197,
    "\u2581readbeyond": 2198,
    "numericinput": 2199,
    "\u2581invalidfilename": 2200,
    "\u2581toomanyopenfiles": 2201,
    "\u2581invalidnumericinput": 2202,
    "\u2581readbeyondendoffile": 2203,
    "\u2581fileaccess": 2204,
    "\u2581fileaccessdenied": 2205,
    "\u2581varbstrfrombool": 2206,
    "precise": 2207,
    "preciseasfiletime": 2208,
    "\u2581getsystemtimepreciseasfiletime": 2209,
    "ypeex": 2210,
    "\u2581variantchangetypeex": 2211,
    "special": 2212,
    "\u2581shgetspecial": 2213,
    "xffce": 2214,
    "\u2581getfileinformationbyhandleex": 2215,
    "neg": 2216,
    "xffcf": 2217,
    "\u2581varadd": 2218,
    "\u2581varneg": 2219,
    "\u2581varnot": 2220,
    "\u2581varsub": 2221,
    "mul": 2222,
    "xor": 2223,
    "idiv": 2224,
    "\u2581varcy": 2225,
    "\u2581varor": 2226,
    "\u2581varand": 2227,
    "\u2581varcmp": 2228,
    "\u2581vardiv": 2229,
    "\u2581varmod": 2230,
    "\u2581varmul": 2231,
    "\u2581varxor": 2232,
    "\u2581varbool": 2233,
    "\u2581vardate": 2234,
    "\u2581varidiv": 2235,
    "\u2581varcyfromstr": 2236,
    "\u2581varbstrfromcy": 2237,
    "\u2581varboolfromstr": 2238,
    "\u2581vardatefromstr": 2239,
    "\u2581varbstrfromdate": 2240,
    "srw": 2241,
    "cadwork": 2242,
    "\u2581gdip": 2243,
    "\u2581snapprocess": 2244,
    "aab": 2245,
    "conditionvariablesrw": 2246,
    "\u2581sleepconditionvariablesrw": 2247,
    "bbe": 2248,
    "dri": 2249,
    "tokeninformation": 2250,
    "variantorsafearray": 2251,
    "\u2581errorcreatingvariantorsafearray": 2252,
    "\u2581wak": 2253,
    "\u2581invalidargument": 2254,
    "\u2581variantorsafearray": 2255,
    "\u2581wakeconditionvariable": 2256,
    "\u2581variantorsafearrayindexoutofbounds": 2257,
    "reque": 2258,
    "\u2581regcreate": 2259,
    "\u2581gettokeninformation": 2260,
    "itor": 2261,
    "\u2581submit": 2262,
    "\u2581setfileinformationbyhandle": 2263,
    "threadpoolwork": 2264,
    "\u2581closethreadpoolwork": 2265,
    "\u2581createthreadpoolwork": 2266,
    "\u2581submitthreadpoolwork": 2267,
    "lasses": 2268,
    "\u2581loadacceleratorsw": 2269,
    "\u2581openprocesstoken": 2270,
    "ervice": 2271,
    "xcb": 2272,
    "eace": 2273,
    "bdf": 2274,
    "\u2581vc": 2275,
    "\u2581setthreadpreferreduilanguages": 2276,
    "\u2581lstrcpyna": 2277,
    "param": 2278,
    "\u2581int": 2279,
    "\u2581contr": 2280,
    "ffca": 2281,
    "regi": 2282,
    "baf": 2283,
    "olfp": 2284,
    "\u2581controlfp": 2285,
    "\u2581commode": 2286,
    "\u2581getprivateprofilesection": 2287,
    "\u2581kk": 2288,
    "userw": 2289,
    "daa": 2290,
    "\u2581setfilepointerex": 2291,
    "runtime": 2292,
    "xaf": 2293,
    "\u2581em": 2294,
    "\u2581log": 2295,
    "eedf": 2296,
    "afcdff": 2297,
    "sspace": 2298,
    "\u2581vcruntime": 2299,
    "\u2581isspace": 2300,
    "\u2581coinitialize": 2301,
    "roll": 2302,
    "\u2581getwindowsdirectorya": 2303,
    "ase": 2304,
    "\u2581getcursor": 2305,
    "logon": 2306,
    "ld": 2307,
    "xfc": 2308,
    "\u2581hd": 2309,
    "ffcbff": 2310,
    "ffcaffcbff": 2311,
    "afcdffceffc": 2312,
    "\u2581setenvironmentvariablea": 2313,
    "\u2581setfileinformationbyhandlew": 2314,
    "\u2581getfileinformationbyhandleexw": 2315,
    "box": 2316,
    "win": 2317,
    "\u2581formatmessagew": 2318,
    "with": 2319,
    "\u2581cd": 2320,
    "xfeedf": 2321,
    "\u2581defwindowprocw": 2322,
    "igin": 2323,
    "iginal": 2324,
    "\u2581internet": 2325,
    "dregen": 2326,
    "\u2581hddregen": 2327,
    "\u2581hddregenerator": 2328,
    "\u2581classes": 2329,
    "\u2581duplicate": 2330,
    "\u2581heapdestroy": 2331,
    "\u2581duplicatehandle": 2332,
    "xffab": 2333,
    "ctrl": 2334,
    "exit": 2335,
    "ncy": 2336,
    "barcad": 2337,
    "barcadero": 2338,
    "\u2581embarcadero": 2339,
    "atab": 2340,
    "common": 2341,
    "xffac": 2342,
    "requency": 2343,
    "\u2581initcommon": 2344,
    "\u2581initcommoncontrols": 2345,
    "atabase": 2346,
    "cefrequency": 2347,
    "\u2581queryperformancefrequency": 2348,
    "listmsg": 2349,
    "\u2581commctrl": 2350,
    "\u2581draglistmsg": 2351,
    "eaa": 2352,
    "search": 2353,
    "searchmode": 2354,
    "\u2581setsearchmode": 2355,
    "afd": 2356,
    "\u2581localrealloc": 2357,
    "serviced": 2358,
    "servicedatabase": 2359,
    "\u2581registerclipboard": 2360,
    "bca": 2361,
    "unction": 2362,
    "vet": 2363,
    "sh": 2364,
    "priority": 2365,
    "zone": 2366,
    "ned": 2367,
    "\u2581getfull": 2368,
    "zoneinformation": 2369,
    "\u2581gettimezoneinformation": 2370,
    "\u2581setprocess": 2371,
    "efe": 2372,
    "leexist": 2373,
    "\u2581fileexist": 2374,
    "ddb": 2375,
    "ts": 2376,
    "licen": 2377,
    "fad": 2378,
    "cid": 2379,
    "\u2581string": 2380,
    "\u2581globalf": 2381,
    "\u2581run": 2382,
    "\u2581rand": 2383,
    "\u2581getwindowsdirectoryw": 2384,
    "dfd": 2385,
    "\u2581getdri": 2386,
    "vetype": 2387,
    "\u2581getdrivetype": 2388,
    "longw": 2389,
    "the": 2390,
    "xffcc": 2391,
    "\u2581openw": 2392,
    "\u2581original": 2393,
    "newimagebase": 2394,
    "\u2581originalimagebase": 2395,
    "enter": 2396,
    "eed": 2397,
    "xffad": 2398,
    "formata": 2399,
    "\u2581destroywindow": 2400,
    "bbc": 2401,
    "fea": 2402,
    "afdi": 2403,
    "\u2581wsafdi": 2404,
    "\u2581wsafdisset": 2405,
    "\u2581y": 2406,
    "dep": 2407,
    "cff": 2408,
    "access": 2409,
    "xba": 2410,
    "atus": 2411,
    "\u2581dialog": 2412,
    "move": 2413,
    "aad": 2414,
    "ly": 2415,
    "\u2581findfirstfilea": 2416,
    "xit": 2417,
    "\u2581writeprocessmemory": 2418,
    "cbd": 2419,
    "systemtime": 2420,
    "licy": 2421,
    "aaa": 2422,
    "validate": 2423,
    "policy": 2424,
    "\u2581heapvalidate": 2425,
    "gine": 2426,
    "couldnotbelocatedinthe": 2427,
    "\u2581are": 2428,
    "output": 2429,
    "memor": 2430,
    "ystatus": 2431,
    "memorystatus": 2432,
    "\u2581globalmemorystatus": 2433,
    "faf": 2434,
    "\u2581ob": 2435,
    "leasec": 2436,
    "\u2581filetimetosystemtime": 2437,
    "meta": 2438,
    "dialog": 2439,
    "deppolicy": 2440,
    "prop": 2441,
    "\u2581loadlibraryexa": 2442,
    "localfiletime": 2443,
    "\u2581filetimetolocalfiletime": 2444,
    "\u2581initcommoncontrolsex": 2445,
    "xffae": 2446,
    "\u2581getkeyboardtype": 2447,
    "\u2581monitor": 2448,
    "\u2581memcpy": 2449,
    "outputcp": 2450,
    "\u2581getconsoleoutputcp": 2451,
    "xffaf": 2452,
    "\u2581setprocessdeppolicy": 2453,
    "hash": 2454,
    "vironmentstringsa": 2455,
    "ave": 2456,
    "ters": 2457,
    "adap": 2458,
    "adapters": 2459,
    "\u2581unlock": 2460,
    "wer": 2461,
    "\u2581corexit": 2462,
    "\u2581corexitprocess": 2463,
    "extex": 2464,
    "oyo": 2465,
    "fied": 2466,
    "ook": 2467,
    "cdd": 2468,
    "\u2581coun": 2469,
    "\u2581memset": 2470,
    "\u2581movefilea": 2471,
    "cba": 2472,
    "xffec": 2473,
    "\u2581lstrcmpw": 2474,
    "\u2581setfiletime": 2475,
    "ookup": 2476,
    "ansi": 2477,
    "data": 2478,
    "\u2581lookup": 2479,
    "apis": 2480,
    "\u2581virtualallocex": 2481,
    "xffef": 2482,
    "\u2581getexit": 2483,
    "apisansi": 2484,
    "\u2581arefile": 2485,
    "\u2581arefileapisansi": 2486,
    "\u2581couldnotbelocatedinthe": 2487,
    "onsolea": 2488,
    "\u2581writeconsolea": 2489,
    "cdf": 2490,
    "fed": 2491,
    "metafile": 2492,
    "\u2581lstrcpya": 2493,
    "bff": 2494,
    "dllip": 2495,
    "dlliphlpapi": 2496,
    "\u2581couldnotbelocatedinthedlliphlpapi": 2497,
    "des": 2498,
    "fae": 2499,
    "top": 2500,
    "bed": 2501,
    "ible": 2502,
    "owned": 2503,
    "\u2581shgetspecialfolderw": 2504,
    "snot": 2505,
    "privilege": 2506,
    "\u2581lstrcpyw": 2507,
    "\u2581fileexistsa": 2508,
    "\u2581couninitialize": 2509,
    "\u2581sq": 2510,
    "want": 2511,
    "lag": 2512,
    "\u2581setenvironmentvariablew": 2513,
    "amet": 2514,
    "\u2581globalmemorystatusex": 2515,
    "\u2581lookupprivilege": 2516,
    "\u2581outputdebugstringw": 2517,
    "function": 2518,
    "\u2581setcurrentdirectoryw": 2519,
    "der": 2520,
    "usttoken": 2521,
    "privileges": 2522,
    "usttokenprivileges": 2523,
    "licence": 2524,
    "ream": 2525,
    "strings": 2526,
    "bac": 2527,
    "\u2581getadapters": 2528,
    "\u2581failedtoinitializ": 2529,
    "eengine": 2530,
    "\u2581failedtoinitializeengine": 2531,
    "ill": 2532,
    "\u2581getenvironmentstrings": 2533,
    "bab": 2534,
    "xw": 2535,
    "lcid": 2536,
    "\u2581findnextfilea": 2537,
    "\u2581lstrc": 2538,
    "\u2581getvolumeinformationw": 2539,
    "\u2581getfullnamew": 2540,
    "wasnot": 2541,
    "inity": 2542,
    "\u2581iswindow": 2543,
    "caa": 2544,
    "atomw": 2545,
    "pipe": 2546,
    "affinity": 2547,
    "affinitymask": 2548,
    "bea": 2549,
    "desk": 2550,
    "\u2581regcreatekeyexw": 2551,
    "\u2581cs": 2552,
    "paramw": 2553,
    "\u2581movefilew": 2554,
    "pop": 2555,
    "\u2581getfileex": 2556,
    "beb": 2557,
    "\u2581enable": 2558,
    "\u2581sa": 2559,
    "efa": 2560,
    "propw": 2561,
    "oree": 2562,
    "\u2581mscoree": 2563,
    "place": 2564,
    "\u2581dialogbox": 2565,
    "xea": 2566,
    "valueexa": 2567,
    "\u2581getmenuitem": 2568,
    "freee": 2569,
    "notin": 2570,
    "trect": 2571,
    "freeex": 2572,
    "\u2581virtualfreeex": 2573,
    "\u2581getprocessaffinitymask": 2574,
    "gn": 2575,
    "xbd": 2576,
    "notinitializ": 2577,
    "ectlock": 2578,
    "notowned": 2579,
    "supfunction": 2580,
    "notinitialized": 2581,
    "ectlocknotowned": 2582,
    "\u2581monitorsupfunction": 2583,
    "\u2581monitorsupfunctionnotinitialized": 2584,
    "onexit": 2585,
    "myarg": 2586,
    "\u2581application": 2587,
    "dfe": 2588,
    "reen": 2589,
    "dca": 2590,
    "specified": 2591,
    "acc": 2592,
    "svc": 2593,
    "filewasnot": 2594,
    "\u2581thespecified": 2595,
    "filewasnotfound": 2596,
    "\u2581thespecifiedfilewasnotfound": 2597,
    "\u2581service": 2598,
    "application": 2599,
    "\u2581getcursorpos": 2600,
    "afb": 2601,
    "stream": 2602,
    "\u2581registerclipboardformata": 2603,
    "aec": 2604,
    "\u2581getuserdefaultuilanguage": 2605,
    "\u2581wcs": 2606,
    "\u2581comdlg": 2607,
    "ownload": 2608,
    "\u2581at": 2609,
    "hard": 2610,
    "\u2581dat": 2611,
    "xffdd": 2612,
    "ime": 2613,
    "\u2581loader": 2614,
    "connect": 2615,
    "\u2581call": 2616,
    "\u2581enddialog": 2617,
    "\u2581replace": 2618,
    "febd": 2619,
    "\u2581fre": 2620,
    "dcd": 2621,
    "menuitem": 2622,
    "\u2581initi": 2623,
    "xef": 2624,
    "\u2581regenumkeyexw": 2625,
    "leng": 2626,
    "length": 2627,
    "dee": 2628,
    "ynam": 2629,
    "tive": 2630,
    "dynam": 2631,
    "aba": 2632,
    "org": 2633,
    "\u2581regdeletekeyw": 2634,
    "aaaaaaaa": 2635,
    "\u2581removedirectoryw": 2636,
    "cfe": 2637,
    "orgex": 2638,
    "codeprocess": 2639,
    "\u2581getexitcodeprocess": 2640,
    "acd": 2641,
    "try": 2642,
    "bef": 2643,
    "metafilebits": 2644,
    "\u2581cq": 2645,
    "hardlinkw": 2646,
    "\u2581createhardlinkw": 2647,
    "\u2581regdeletevaluew": 2648,
    "\u2581noaccess": 2649,
    "red": 2650,
    "eaba": 2651,
    "abf": 2652,
    "\u2581removedirectorya": 2653,
    "ocus": 2654,
    "dynamic": 2655,
    "\u2581getdateformatw": 2656,
    "eresource": 2657,
    "dynamiclink": 2658,
    "dynamiclinklibrary": 2659,
    "ip": 2660,
    "quir": 2661,
    "acquir": 2662,
    "acquirecon": 2663,
    "\u2581cryptacquirecon": 2664,
    "cae": 2665,
    "focus": 2666,
    "bfd": 2667,
    "\u2581freeresource": 2668,
    "\u2581lookupprivilegevaluew": 2669,
    "\u2581asw": 2670,
    "ece": 2671,
    "look": 2672,
    "rec": 2673,
    "\u2581outlook": 2674,
    "ead": 2675,
    "\u2581dialogboxparamw": 2676,
    "daab": 2677,
    "registry": 2678,
    "\u2581fa": 2679,
    "\u2581findresourcea": 2680,
    "fig": 2681,
    "fbd": 2682,
    "\u2581sc": 2683,
    "\u2581endd": 2684,
    "hort": 2685,
    "windowshook": 2686,
    "\u2581getshort": 2687,
    "\u2581freeenvironmentstringsa": 2688,
    "\u2581aa": 2689,
    "chr": 2690,
    "\u2581getprivateprofilestringw": 2691,
    "afa": 2692,
    "popup": 2693,
    "\u2581cadwork": 2694,
    "fdd": 2695,
    "you": 2696,
    "dbf": 2697,
    "fcb": 2698,
    "\u2581getuserdefaultlcid": 2699,
    "lien": 2700,
    "cab": 2701,
    "drag": 2702,
    "resourc": 2703,
    "cde": 2704,
    "\u2581getdrivetypew": 2705,
    "core": 2706,
    "wantto": 2707,
    "\u2581applicationerror": 2708,
    "\u2581version": 2709,
    "dabd": 2710,
    "\u2581setdll": 2711,
    "\u2581createpipe": 2712,
    "ceb": 2713,
    "cfb": 2714,
    "\u2581beg": 2715,
    "leave": 2716,
    "\u2581begind": 2717,
    "apt": 2718,
    "\u2581begindrag": 2719,
    "\u2581dragleave": 2720,
    "\u2581enddrag": 2721,
    "\u2581dragmove": 2722,
    "\u2581dragenter": 2723,
    "mi": 2724,
    "\u2581gettimeformatw": 2725,
    "winmetafilebits": 2726,
    "\u2581getcomputernamew": 2727,
    "apture": 2728,
    "ecb": 2729,
    "ocre": 2730,
    "power": 2731,
    "inter": 2732,
    "im": 2733,
    "\u2581install": 2734,
    "bas": 2735,
    "\u2581wts": 2736,
    "\u2581readprocessmemory": 2737,
    "\u2581replaceicon": 2738,
    "\u2581setsystem": 2739,
    "powerstate": 2740,
    "\u2581setsystempowerstate": 2741,
    "\u2581getdiskfreespacew": 2742,
    "eea": 2743,
    "visible": 2744,
    "\u2581enumresourc": 2745,
    "\u2581getcurrentdirectorya": 2746,
    "\u2581getwinmetafilebits": 2747,
    "\u2581regenumvaluew": 2748,
    "eae": 2749,
    "ds": 2750,
    "dow": 2751,
    "download": 2752,
    "fromstream": 2753,
    "scroll": 2754,
    "\u2581regconnect": 2755,
    "\u2581enumresourcename": 2756,
    "\u2581regconnectregistry": 2757,
    "xbb": 2758,
    "ccf": 2759,
    "dea": 2760,
    "aed": 2761,
    "fbb": 2762,
    "\u2581scouldnotbelocatedinthe": 2763,
    "device": 2764,
    "\u2581getshortnamew": 2765,
    "\u2581regconnectregistryw": 2766,
    "\u2581qt": 2767,
    "\u2581services": 2768,
    "\u2581openthreadtoken": 2769,
    "\u2581shfolder": 2770,
    "olor": 2771,
    "edit": 2772,
    "\u2581sm": 2773,
    "\u2581writeprivateprofilestringw": 2774,
    "\u2581dw": 2775,
    "\u2581enumresourcenamesw": 2776,
    "\u2581beep": 2777,
    "ession": 2778,
    "eentry": 2779,
    "\u2581getsave": 2780,
    "\u2581setdlldirectoryw": 2781,
    "priorityclass": 2782,
    "\u2581exp": 2783,
    "\u2581dragob": 2784,
    "xbe": 2785,
    "dfb": 2786,
    "\u2581globaladd": 2787,
    "\u2581download": 2788,
    "tp": 2789,
    "fcf": 2790,
    "\u2581setthreadlocale": 2791,
    "eeb": 2792,
    "\u2581messageboxw": 2793,
    "\u2581createprocessas": 2794,
    "\u2581setpriorityclass": 2795,
    "labe": 2796,
    "xffde": 2797,
    "volumelabe": 2798,
    "\u2581setvolumelabe": 2799,
    "afe": 2800,
    "lsid": 2801,
    "lower": 2802,
    "\u2581setdrag": 2803,
    "cursorimage": 2804,
    "\u2581setdragcursorimage": 2805,
    "bde": 2806,
    "ateto": 2807,
    "\u2581duplicateto": 2808,
    "\u2581getclassinfoa": 2809,
    "bdb": 2810,
    "leasecon": 2811,
    "\u2581getmessagew": 2812,
    "\u2581isc": 2813,
    "edur": 2814,
    "created": 2815,
    "releasecon": 2816,
    "releasecontext": 2817,
    "\u2581myarg": 2818,
    "fba": 2819,
    "edureentry": 2820,
    "edureentrypoint": 2821,
    "\u2581theprocedureentrypoint": 2822,
    "ebb": 2823,
    "eef": 2824,
    "dace": 2825,
    "\u2581createprocessasuserw": 2826,
    "acl": 2827,
    "dfa": 2828,
    "textout": 2829,
    "\u2581oleinitialize": 2830,
    "\u2581getsystemtimes": 2831,
    "deleteatom": 2832,
    "\u2581globaldeleteatom": 2833,
    "ebd": 2834,
    "eaf": 2835,
    "screen": 2836,
    "ecf": 2837,
    "\u2581logon": 2838,
    "kenex": 2839,
    "\u2581duplicatetokenex": 2840,
    "compar": 2841,
    "comparee": 2842,
    "\u2581initiate": 2843,
    "\u2581interlockedcomparee": 2844,
    "\u2581getprivateprofilesectionname": 2845,
    "systemsh": 2846,
    "\u2581oleload": 2847,
    "\u2581initiatesystemsh": 2848,
    "\u2581oleloadfromstream": 2849,
    "\u2581setvolumelabelw": 2850,
    "\u2581interlockedcompareexchange": 2851,
    "nexw": 2852,
    "sion": 2853,
    "ioco": 2854,
    "\u2581regopenkeya": 2855,
    "utdow": 2856,
    "update": 2857,
    "utdownexw": 2858,
    "\u2581initiatesystemshutdownexw": 2859,
    "\u2581getvolumeinformationa": 2860,
    "\u2581doyo": 2861,
    "\u2581strcmp": 2862,
    "lengthsid": 2863,
    "\u2581getlengthsid": 2864,
    "\u2581initializeacl": 2865,
    "\u2581globalrealloc": 2866,
    "\u2581createprocesswith": 2867,
    "valuea": 2868,
    "\u2581writeprivateprofilesection": 2869,
    "fdf": 2870,
    "pys": 2871,
    "pysid": 2872,
    "\u2581getace": 2873,
    "\u2581copysid": 2874,
    "\u2581getprivateprofilesectionw": 2875,
    "\u2581getprivateprofilesectionnamesw": 2876,
    "\u2581getsecuritydescriptordacl": 2877,
    "\u2581writeprivateprofilesectionw": 2878,
    "adc": 2879,
    "\u2581addace": 2880,
    "\u2581getacl": 2881,
    "\u2581getaclinformation": 2882,
    "logonw": 2883,
    "unters": 2884,
    "iocounters": 2885,
    "\u2581getprocessiocounters": 2886,
    "\u2581createprocesswithlogonw": 2887,
    "\u2581logonuserw": 2888,
    "fab": 2889,
    "ecolor": 2890,
    "aae": 2891,
    "\u2581globalfind": 2892,
    "\u2581cryptreleasecontext": 2893,
    "ccd": 2894,
    "menuw": 2895,
    "dat": 2896,
    "bfb": 2897,
    "\u2581regedit": 2898,
    "desktop": 2899,
    "\u2581getdiskfreespaceexa": 2900,
    "\u2581clsid": 2901,
    "agnt": 2902,
    "agntsvc": 2903,
    "\u2581mso": 2904,
    "\u2581lsass": 2905,
    "\u2581getsystemdefault": 2906,
    "ocreate": 2907,
    "eba": 2908,
    "xfd": 2909,
    "bda": 2910,
    "rss": 2911,
    "\u2581smss": 2912,
    "\u2581csrss": 2913,
    "\u2581wininit": 2914,
    "\u2581winlogon": 2915,
    "heme": 2916,
    "\u2581uxt": 2917,
    "\u2581uxtheme": 2918,
    "\u2581formal": 2919,
    "env": 2920,
    "\u2581clsidfrom": 2921,
    "\u2581systemprocess": 2922,
    "fce": 2923,
    "bba": 2924,
    "quired": 2925,
    "xffcb": 2926,
    "\u2581pi": 2927,
    "ffe": 2928,
    "\u2581tw": 2929,
    "\u2581yo": 2930,
    "instal": 2931,
    "efb": 2932,
    "ah": 2933,
    "xbc": 2934,
    "\u2581getsavefilenamew": 2935,
    "\u2581unlockservicedatabase": 2936,
    "\u2581sys": 2937,
    "\u2581required": 2938,
    "pool": 2939,
    "\u2581globalhandle": 2940,
    "ffb": 2941,
    "\u2581lockservicedatabase": 2942,
    "aee": 2943,
    "ail": 2944,
    "printer": 2945,
    "edf": 2946,
    "\u2581lstrcata": 2947,
    "seek": 2948,
    "\u2581onexit": 2949,
    "adf": 2950,
    "transform": 2951,
    "fromlog": 2952,
    "oi": 2953,
    "\u2581getadaptersinfo": 2954,
    "dde": 2955,
    "\u2581shgetfile": 2956,
    "ffa": 2957,
    "lser": 2958,
    "emyarg": 2959,
    "\u2581exemyarg": 2960,
    "cfd": 2961,
    "ecolortransform": 2962,
    "aca": 2963,
    "bdd": 2964,
    "\u2581atoi": 2965,
    "\u2581createcolortransform": 2966,
    "sions": 2967,
    "\u2581filen": 2968,
    "spacew": 2969,
    "colorspacew": 2970,
    "\u2581checkcolor": 2971,
    "profilefromlog": 2972,
    "\u2581createprofilefromlog": 2973,
    "\u2581createcolortransformw": 2974,
    "\u2581createprofilefromlogcolorspacew": 2975,
    "amut": 2976,
    "singamut": 2977,
    "devicelink": 2978,
    "devicelinkprofile": 2979,
    "\u2581checkcolorsingamut": 2980,
    "\u2581createdevicelinkprofile": 2981,
    "baa": 2982,
    "processid": 2983,
    "bfe": 2984,
    "\u2581dl": 2985,
    "threadprocessid": 2986,
    "\u2581getwindowthreadprocessid": 2987,
    "edb": 2988,
    "nec": 2989,
    "\u2581reset": 2990,
    "\u2581pleas": 2991,
    "fee": 2992,
    "lientrect": 2993,
    "\u2581getclientrect": 2994,
    "ade": 2995,
    "utton": 2996,
    "textoutw": 2997,
    "\u2581xh": 2998,
    "su": 2999,
    "xbf": 3000,
    "inet": 3001,
    "xdc": 3002,
    "atoma": 3003,
    "\u2581db": 3004,
    "\u2581loaderstart": 3005,
    "otfound": 3006,
    "\u2581filenotfound": 3007,
    "rom": 3008,
    "lags": 3009,
    "abd": 3010,
    "bcd": 3011,
    "\u2581formatmessagea": 3012,
    "aaf": 3013,
    "\u2581wininet": 3014,
    "cbf": 3015,
    "mapi": 3016,
    "vie": 3017,
    "lu": 3018,
    "\u2581getmodulehandl": 3019,
    "xde": 3020,
    "\u2581security": 3021,
    "iserror": 3022,
    "aea": 3023,
    "only": 3024,
    "pre": 3025,
    "sto": 3026,
    "\u2581setcurrentdirectorya": 3027,
    "fy": 3028,
    "\u2581atex": 3029,
    "\u2581atexit": 3030,
    "\u2581dwmapi": 3031,
    "\u2581cryptbase": 3032,
    "acf": 3033,
    "cea": 3034,
    "eff": 3035,
    "\u2581af": 3036,
    "caf": 3037,
    "\u2581ps": 3038,
    "\u2581strlen": 3039,
    "daf": 3040,
    "ord": 3041,
    "fde": 3042,
    "eda": 3043,
    "\u2581getmodulehandleexw": 3044,
    "lorer": 3045,
    "cfa": 3046,
    "\u2581dispatchmessagew": 3047,
    "\u2581userenv": 3048,
    "au": 3049,
    "\u2581ext": 3050,
    "active": 3051,
    "dcf": 3052,
    "\u2581connec": 3053,
    "\u2581si": 3054,
    "ects": 3055,
    "parent": 3056,
    "aeb": 3057,
    "\u2581ea": 3058,
    "\u2581psapi": 3059,
    "dae": 3060,
    "\u2581lp": 3061,
    "feaac": 3062,
    "atalog": 3063,
    "handler": 3064,
    "fef": 3065,
    "\u2581stor": 3066,
    "\u2581qae": 3067,
    "\u2581storage": 3068,
    "\u2581connector": 3069,
    "ceff": 3070,
    "\u2581isvalidlocale": 3071,
    "\u2581tow": 3072,
    "fbe": 3073,
    "\u2581cocreate": 3074,
    "\u2581oleacc": 3075,
    "cem": 3076,
    "internet": 3077,
    "will": 3078,
    "instan": 3079,
    "viewextex": 3080,
    "\u2581el": 3081,
    "cdb": 3082,
    "\u2581globalflags": 3083,
    "ameters": 3084,
    "rn": 3085,
    "edia": 3086,
    "ta": 3087,
    "atalogs": 3088,
    "ere": 3089,
    "romedia": 3090,
    "rnl": 3091,
    "upp": 3092,
    "\u2581runonce": 3093,
    "\u2581micromedia": 3094,
    "\u2581cl": 3095,
    "xffca": 3096,
    "vieworgex": 3097,
    "ccb": 3098,
    "cca": 3099,
    "osk": 3100,
    "oskrnl": 3101,
    "\u2581ntoskrnl": 3102,
    "\u2581ns": 3103,
    "\u2581commandline": 3104,
    "\u2581loadbitmap": 3105,
    "\u2581getfileattributesa": 3106,
    "abe": 3107,
    "\u2581scouldnotbelocatedinthedll": 3108,
    "ffffc": 3109,
    "argvw": 3110,
    "toargvw": 3111,
    "\u2581commandlinetoargvw": 3112,
    "qa": 3113,
    "lay": 3114,
    "\u2581instal": 3115,
    "button": 3116,
    "dba": 3117,
    "\u2581setscroll": 3118,
    "cee": 3119,
    "bae": 3120,
    "xffed": 3121,
    "\u2581charpre": 3122,
    "\u2581task": 3123,
    "vip": 3124,
    "\u2581prvip": 3125,
    "\u2581nsiserror": 3126,
    "\u2581mys": 3127,
    "\u2581oc": 3128,
    "fcd": 3129,
    "\u2581cocreateinstan": 3130,
    "cement": 3131,
    "placement": 3132,
    "\u2581getwindowrect": 3133,
    "\u2581taskbar": 3134,
    "\u2581ldr": 3135,
    "xfe": 3136,
    "main": 3137,
    "bfa": 3138,
    "pass": 3139,
    "\u2581scal": 3140,
    "keya": 3141,
    "\u2581scale": 3142,
    "ada": 3143,
    "seekto": 3144,
    "\u2581failedtoseekto": 3145,
    "\u2581regsetvalueexa": 3146,
    "qld": 3147,
    "mensions": 3148,
    "\u2581mysqld": 3149,
    "\u2581agntsvc": 3150,
    "startoffile": 3151,
    "\u2581failedtoseektostartoffile": 3152,
    "parameters": 3153,
    "tag": 3154,
    "anden": 3155,
    "inmodule": 3156,
    "\u2581failedtoinitializeenginesection": 3157,
    "conso": 3158,
    "withtag": 3159,
    "poolwithtag": 3160,
    "\u2581exallocate": 3161,
    "\u2581exallocatepoolwithtag": 3162,
    "\u2581expanden": 3163,
    "\u2581ab": 3164,
    "\u2581my": 3165,
    "\u2581failedtoinitializeenginestate": 3166,
    "\u2581wm": 3167,
    "dlgi": 3168,
    "dlgitem": 3169,
    "fdb": 3170,
    "\u2581ndr": 3171,
    "\u2581systemparameters": 3172,
    "\u2581ndrd": 3173,
    "bee": 3174,
    "aget": 3175,
    "era": 3176,
    "\u2581lstrcmpia": 3177,
    "xdb": 3178,
    "dimensions": 3179,
    "xdf": 3180,
    "rap": 3181,
    "procedure": 3182,
    "\u2581mta": 3183,
    "xda": 3184,
    "\u2581ldrget": 3185,
    "procedureaddress": 3186,
    "\u2581ldrgetprocedureaddress": 3187,
    "toc": 3188,
    "agetime": 3189,
    "\u2581opena": 3190,
    "\u2581command": 3191,
    "check": 3192,
    "\u2581cryptacquirecontexta": 3193,
    "controlset": 3194,
    "\u2581currentcontrolset": 3195,
    "\u2581can": 3196,
    "\u2581getfocus": 3197,
    "croll": 3198,
    "\u2581getscroll": 3199,
    "eecb": 3200,
    "aef": 3201,
    "\u2581dlldll": 3202,
    "\u2581getcapture": 3203,
    "\u2581print": 3204,
    "\u2581shgetspecialfolder": 3205,
    "\u2581cp": 3206,
    "\u2581environ": 3207,
    "xeb": 3208,
    "dce": 3209,
    "\u2581oa": 3210,
    "nd": 3211,
    "\u2581pb": 3212,
    "ht": 3213,
    "\u2581globaladdatomw": 3214,
    "times": 3215,
    "eeca": 3216,
    "ready": 3217,
    "dbb": 3218,
    "exist": 3219,
    "codeptr": 3220,
    "\u2581isctype": 3221,
    "\u2581isbadcodeptr": 3222,
    "\u2581off": 3223,
    "\u2581back": 3224,
    "\u2581globalfindatomw": 3225,
    "sd": 3226,
    "\u2581youm": 3227,
    "bbb": 3228,
    "\u2581offset": 3229,
    "messagepos": 3230,
    "\u2581getmessagepos": 3231,
    "ser": 3232,
    "hild": 3233,
    "dcb": 3234,
    "mar": 3235,
    "xbcf": 3236,
    "\u2581getdlgitem": 3237,
    "abb": 3238,
    "brows": 3239,
    "ster": 3240,
    "\u2581getconsolewindow": 3241,
    "frompoint": 3242,
    "\u2581enablewindow": 3243,
    "\u2581getmessagetime": 3244,
    "laun": 3245,
    "\u2581getwindowdc": 3246,
    "points": 3247,
    "\u2581towlower": 3248,
    "xdd": 3249,
    "launch": 3250,
    "xffdf": 3251,
    "install": 3252,
    "this": 3253,
    "console": 3254,
    "che": 3255,
    "\u2581qa": 3256,
    "\u2581your": 3257,
    "mark": 3258,
    "run": 3259,
    "xfffffffe": 3260,
    "\u2581regqueryvalueexa": 3261,
    "cod": 3262,
    "cbb": 3263,
    "\u2581ri": 3264,
    "been": 3265,
    "client": 3266,
    "checkmark": 3267,
    "\u2581getmenucheckmark": 3268,
    "\u2581getmenucheckmarkdimensions": 3269,
    "\u2581bo": 3270,
    "\u2581mfc": 3271,
    "applet": 3272,
    "ph": 3273,
    "fda": 3274,
    "\u2581client": 3275,
    "\u2581comparestringa": 3276,
    "xed": 3277,
    "\u2581failedtoopen": 3278,
    "\u2581registerwindowmessagea": 3279,
    "\u2581failedtoopenapplication": 3280,
    "\u2581failedtoopenapplicationlog": 3281,
    "ning": 3282,
    "\u2581arg": 3283,
    "\u2581lib": 3284,
    "\u2581getclassinfo": 3285,
    "enable": 3286,
    "icmp": 3287,
    "plorer": 3288,
    "couldnotbelocatedinthedynamiclinklibrary": 3289,
    "enamew": 3290,
    "\u2581getparent": 3291,
    "ched": 3292,
    "\u2581riched": 3293,
    "\u2581cocreateinstance": 3294,
    "yd": 3295,
    "addresses": 3296,
    "\u2581setwindowshook": 3297,
    "cbe": 3298,
    "\u2581ptin": 3299,
    "fic": 3300,
    "onfig": 3301,
    "\u2581getdrivetypea": 3302,
    "\u2581shgetfileinfow": 3303,
    "ethe": 3304,
    "\u2581charupp": 3305,
    "ebfb": 3306,
    "cce": 3307,
    "\u2581line": 3308,
    "\u2581callwindowproc": 3309,
    "\u2581setforegroundwindow": 3310,
    "\u2581setupapi": 3311,
    "\u2581getmenuitemid": 3312,
    "\u2581doyou": 3313,
    "ptr": 3314,
    "\u2581logme": 3315,
    "vb": 3316,
    "nexplorer": 3317,
    "\u2581cryptdestroy": 3318,
    "sys": 3319,
    "keyexa": 3320,
    "\u2581getwindowtextw": 3321,
    "adb": 3322,
    "\u2581getlast": 3323,
    "activepopup": 3324,
    "\u2581getlastactivepopup": 3325,
    "xfb": 3326,
    "\u2581unhook": 3327,
    "windowshookex": 3328,
    "\u2581unhookwindowshookex": 3329,
    "xffea": 3330,
    "enabled": 3331,
    "row": 3332,
    "etime": 3333,
    "\u2581sendmessagew": 3334,
    "\u2581iswindowenabled": 3335,
    "\u2581setmenuitem": 3336,
    "\u2581ro": 3337,
    "hd": 3338,
    "luss": 3339,
    "xffeb": 3340,
    "\u2581prop": 3341,
    "fca": 3342,
    "hookex": 3343,
    "\u2581apphelp": 3344,
    "\u2581callnext": 3345,
    "\u2581callnexthookex": 3346,
    "\u2581winhelp": 3347,
    "bcat": 3348,
    "\u2581propsys": 3349,
    "bcatq": 3350,
    "\u2581clbcatq": 3351,
    "\u2581getsystemwindows": 3352,
    "ei": 3353,
    "iconic": 3354,
    "\u2581isiconic": 3355,
    "\u2581getsystemwindowsdirectoryw": 3356,
    "\u2581mame": 3357,
    "\u2581freeware": 3358,
    "rypt": 3359,
    "xffdc": 3360,
    "toscreen": 3361,
    "\u2581ol": 3362,
    "\u2581fast": 3363,
    "\u2581cryptget": 3364,
    "\u2581clienttoscreen": 3365,
    "ustwindow": 3366,
    "bi": 3367,
    "cue": 3368,
    "erun": 3369,
    "rescue": 3370,
    "ustwindowrec": 3371,
    "profil": 3372,
    "ustwindowrectex": 3373,
    "\u2581translateaccelerator": 3374,
    "inrescue": 3375,
    "\u2581mapwindow": 3376,
    "\u2581logmeinrescue": 3377,
    "\u2581enablemenuitem": 3378,
    "\u2581mapwindowpoints": 3379,
    "\u2581isbadwrite": 3380,
    "\u2581logmeinrescueapplet": 3381,
    "\u2581isbadwriteptr": 3382,
    "cdfc": 3383,
    "indi": 3384,
    "\u2581ptinrect": 3385,
    "\u2581getmodulebas": 3386,
    "\u2581getwindowlongw": 3387,
    "ubmenu": 3388,
    "\u2581getsubmenu": 3389,
    "\u2581setwindowlongw": 3390,
    "\u2581mb": 3391,
    "ultip": 3392,
    "formultip": 3393,
    "\u2581destroymenu": 3394,
    "\u2581getmenuitemcount": 3395,
    "formultipleob": 3396,
    "\u2581getmodulebasenamew": 3397,
    "buf": 3398,
    "\u2581setcursor": 3399,
    "\u2581getmenustate": 3400,
    "\u2581getwindowplacement": 3401,
    "\u2581registerclassw": 3402,
    "bbf": 3403,
    "\u2581memmove": 3404,
    "lead": 3405,
    "\u2581xz": 3406,
    "raphi": 3407,
    "xcccc": 3408,
    "\u2581getprofile": 3409,
    "thash": 3410,
    "idto": 3411,
    "\u2581getadaptersaddresses": 3412,
    "mt": 3413,
    "thashdata": 3414,
    "createhash": 3415,
    "\u2581cm": 3416,
    "xee": 3417,
    "\u2581drawtextw": 3418,
    "filespec": 3419,
    "\u2581registerclipboardformatw": 3420,
    "\u2581removefilespec": 3421,
    "\u2581postmessagew": 3422,
    "\u2581getthreadtimes": 3423,
    "ctr": 3424,
    "\u2581add": 3425,
    "aaaaaaaaaaaaaaaa": 3426,
    "nam": 3427,
    "\u2581crypthashdata": 3428,
    "\u2581setwindowtextw": 3429,
    "\u2581cryptcreatehash": 3430,
    "vm": 3431,
    "\u2581tab": 3432,
    "ctrlid": 3433,
    "\u2581getdlg": 3434,
    "\u2581getdlgctrlid": 3435,
    "\u2581removefilespecw": 3436,
    "gd": 3437,
    "\u2581gray": 3438,
    "\u2581cryptdestroyhash": 3439,
    "mbb": 3440,
    "\u2581rect": 3441,
    "\u2581translateacceleratorw": 3442,
    "\u2581strchr": 3443,
    "fami": 3444,
    "\u2581ismbb": 3445,
    "\u2581ismbblead": 3446,
    "\u2581launch": 3447,
    "\u2581cryptgen": 3448,
    "\u2581hi": 3449,
    "\u2581cryptacquirecontextw": 3450,
    "\u2581gettop": 3451,
    "\u2581gettopwindow": 3452,
    "\u2581checkmenuitem": 3453,
    "\u2581createsemaphorea": 3454,
    "cda": 3455,
    "program": 3456,
    "\u2581getclassnamew": 3457,
    "vr": 3458,
    "store": 3459,
    "dbe": 3460,
    "\u2581vf": 3461,
    "dify": 3462,
    "\u2581internetopen": 3463,
    "uti": 3464,
    "random": 3465,
    "\u2581copyrect": 3466,
    "option": 3467,
    "\u2581modify": 3468,
    "\u2581systemparametersinfoa": 3469,
    "hashparam": 3470,
    "\u2581cryptgethashparam": 3471,
    "\u2581tabbed": 3472,
    "\u2581appdata": 3473,
    "rgn": 3474,
    "\u2581ar": 3475,
    "famili": 3476,
    "\u2581callwindowprocw": 3477,
    "wc": 3478,
    "icen": 3479,
    "\u2581cryptgenrandom": 3480,
    "enu": 3481,
    "\u2581cal": 3482,
    "\u2581setwindowshookexw": 3483,
    "\u2581shgetspecialfoldera": 3484,
    "fn": 3485,
    "\u2581zip": 3486,
    "\u2581lstrcatw": 3487,
    "orn": 3488,
    "alse": 3489,
    "running": 3490,
    "our": 3491,
    "ower": 3492,
    "\u2581aaa": 3493,
    "\u2581doyouwantto": 3494,
    "false": 3495,
    "strue": 3496,
    "allyour": 3497,
    "onexist": 3498,
    "zeroorn": 3499,
    "\u2581istrue": 3500,
    "\u2581isexist": 3501,
    "\u2581isfalse": 3502,
    "\u2581iszeroorn": 3503,
    "\u2581getclassinfow": 3504,
    "\u2581openanexplorer": 3505,
    "\u2581iszeroornonexist": 3506,
    "\u2581winhelpw": 3507,
    "frominternet": 3508,
    "ted": 3509,
    "bat": 3510,
    "tes": 3511,
    "ongle": 3512,
    "ecadwork": 3513,
    "lang": 3514,
    "cap": 3515,
    "emo": 3516,
    "\u2581peekmessagew": 3517,
    "letime": 3518,
    "\u2581getcursorinfo": 3519,
    "\u2581getfiletime": 3520,
    "\u2581createbitmap": 3521,
    "prog": 3522,
    "\u2581valid": 3523,
    "\u2581getclassinfoexw": 3524,
    "\u2581waitformultipleob": 3525,
    "dio": 3526,
    "langid": 3527,
    "\u2581graystringw": 3528,
    "session": 3529,
    "\u2581cf": 3530,
    "bir": 3531,
    "\u2581validaterect": 3532,
    "\u2581getclasslongw": 3533,
    "lservr": 3534,
    "bitmaps": 3535,
    "\u2581thebat": 3536,
    "\u2581sqlservr": 3537,
    "\u2581setmenuitembitmaps": 3538,
    "ebfa": 3539,
    "\u2581for": 3540,
    "\u2581mfn": 3541,
    "\u2581elvis": 3542,
    "\u2581gender": 3543,
    "erwindow": 3544,
    "familiar": 3545,
    "\u2581formality": 3546,
    "\u2581formalfamiliar": 3547,
    "progid": 3548,
    "erwindowpos": 3549,
    "\u2581clsidfromprogid": 3550,
    "\u2581clsidfromstring": 3551,
    "acbc": 3552,
    "emaphore": 3553,
    "\u2581modifymenuw": 3554,
    "syd": 3555,
    "\u2581std": 3556,
    "register": 3557,
    "\u2581calloc": 3558,
    "\u2581strcpy": 3559,
    "\u2581tabbedtextoutw": 3560,
    "tsb": 3561,
    "coll": 3562,
    "latsb": 3563,
    "\u2581getsid": 3564,
    "ort": 3565,
    "\u2581this": 3566,
    "acceleratortable": 3567,
    "\u2581getprivateprofilestringa": 3568,
    "\u2581sen": 3569,
    "\u2581stdio": 3570,
    "\u2581olerun": 3571,
    "\u2581winmain": 3572,
    "thority": 3573,
    "act": 3574,
    "fox": 3575,
    "\u2581ht": 3576,
    "\u2581es": 3577,
    "\u2581mei": 3578,
    "\u2581setpropw": 3579,
    "\u2581regcreatekeyexa": 3580,
    "\u2581argc": 3581,
    "qstring": 3582,
    "ataddress": 3583,
    "\u2581fastf": 3584,
    "\u2581accessviolationataddress": 3585,
    "\u2581drawtex": 3586,
    "\u2581meipass": 3587,
    "\u2581fastfail": 3588,
    "\u2581loadbitmapw": 3589,
    "vider": 3590,
    "bau": 3591,
    "\u2581gro": 3592,
    "febc": 3593,
    "subau": 3594,
    "\u2581getpropw": 3595,
    "subauthority": 3596,
    "\u2581removepropw": 3597,
    "\u2581getsidsubauthority": 3598,
    "word": 3599,
    "onitor": 3600,
    "\u2581ba": 3601,
    "layo": 3602,
    "texw": 3603,
    "xffee": 3604,
    "layout": 3605,
    "provider": 3606,
    "\u2581drawtextexw": 3607,
    "\u2581ie": 3608,
    "vert": 3609,
    "ki": 3610,
    "closehandle": 3611,
    "\u2581expandenvironmentstringsa": 3612,
    "dbed": 3613,
    "\u2581charprevw": 3614,
    "\u2581rectvisible": 3615,
    "fecb": 3616,
    "ttributes": 3617,
    "\u2581getfileattributes": 3618,
    "hg": 3619,
    "filenamea": 3620,
    "omm": 3621,
    "istre": 3622,
    "\u2581bb": 3623,
    "pc": 3624,
    "xddf": 3625,
    "\u2581afx": 3626,
    "\u2581uh": 3627,
    "play": 3628,
    "raphic": 3629,
    "\u2581xf": 3630,
    "\u2581xnewimagebase": 3631,
    "\u2581cannot": 3632,
    "\u2581om": 3633,
    "\u2581oem": 3634,
    "dbef": 3635,
    "arta": 3636,
    "\u2581getsidsubauthoritycount": 3637,
    "\u2581winapp": 3638,
    "\u2581escap": 3639,
    "\u2581findwindoww": 3640,
    "rm": 3641,
    "enh": 3642,
    "\u2581winmm": 3643,
    "\u2581isvalidsid": 3644,
    "\u2581ntm": 3645,
    "\u2581ntmarta": 3646,
    "\u2581dllonexit": 3647,
    "lick": 3648,
    "img": 3649,
    "ssec": 3650,
    "\u2581ts": 3651,
    "older": 3652,
    "ryptog": 3653,
    "\u2581group": 3654,
    "providerv": 3655,
    "ryptographic": 3656,
    "ryptographicproviderv": 3657,
    "lash": 3658,
    "\u2581sav": 3659,
    "ualfox": 3660,
    "tinue": 3661,
    "ally": 3662,
    "secor": 3663,
    "lipbox": 3664,
    "\u2581omsecor": 3665,
    "\u2581restore": 3666,
    "\u2581getclipbox": 3667,
    "\u2581vie": 3668,
    "\u2581savedc": 3669,
    "\u2581restoredc": 3670,
    "already": 3671,
    "\u2581pleasec": 3672,
    "avebeen": 3673,
    "ureally": 3674,
    "\u2581internetclosehandle": 3675,
    "\u2581stem": 3676,
    "\u2581evie": 3677,
    "\u2581printf": 3678,
    "ahki": 3679,
    "dsgd": 3680,
    "\u2581psc": 3681,
    "whsyd": 3682,
    "\u2581gdsgd": 3683,
    "\u2581boahki": 3684,
    "\u2581network": 3685,
    "\u2581boahkilser": 3686,
    "\u2581gdsgdwhsyd": 3687,
    "hide": 3688,
    "network": 3689,
    "\u2581pt": 3690,
    "\u2581lmi": 3691,
    "tivate": 3692,
    "\u2581getsystemdefaultuilanguage": 3693,
    "\u2581setthreadpriority": 3694,
    "\u2581getfullnamea": 3695,
    "ails": 3696,
    "\u2581youmust": 3697,
    "ctx": 3698,
    "\u2581pc": 3699,
    "\u2581mail": 3700,
    "do": 3701,
    "\u2581exttextoutw": 3702,
    "gw": 3703,
    "eta": 3704,
    "splash": 3705,
    "aha": 3706,
    "rio": 3707,
    "\u2581inf": 3708,
    "rty": 3709,
    "eyrio": 3710,
    "fdrty": 3711,
    "\u2581hiaha": 3712,
    "eyrioere": 3713,
    "\u2581uhfdrty": 3714,
    "\u2581uhfdrtyeyrioere": 3715,
    "\u2581deallocate": 3716,
    "tochar": 3717,
    "\u2581oemtochar": 3718,
    "\u2581releasesemaphore": 3719,
    "\u2581nar": 3720,
    "\u2581please": 3721,
    "\u2581getdesktop": 3722,
    "kg": 3723,
    "defi": 3724,
    "basec": 3725,
    "\u2581narrow": 3726,
    "screenhide": 3727,
    "\u2581aswsplash": 3728,
    "buttoncreated": 3729,
    "\u2581microsoftbasec": 3730,
    "\u2581aswsplashscreenhide": 3731,
    "\u2581taskbarbuttoncreated": 3732,
    "\u2581microsoftbasecryptographicproviderv": 3733,
    "ldrl": 3734,
    "\u2581tsldrl": 3735,
    "\u2581lpservice": 3736,
    "indirect": 3737,
    "\u2581escape": 3738,
    "\u2581flatsb": 3739,
    "emenu": 3740,
    "ups": 3741,
    "\u2581ptvisible": 3742,
    "\u2581session": 3743,
    "mapmode": 3744,
    "\u2581getdesktopwindow": 3745,
    "\u2581ff": 3746,
    "layer": 3747,
    "faac": 3748,
    "\u2581charlower": 3749,
    "ediac": 3750,
    "\u2581from": 3751,
    "\u2581textoutw": 3752,
    "cli": 3753,
    "\u2581mediac": 3754,
    "popupmenu": 3755,
    "\u2581getactive": 3756,
    "\u2581mediacenter": 3757,
    "\u2581fput": 3758,
    "av": 3759,
    "\u2581getclipboard": 3760,
    "ofaddress": 3761,
    "sert": 3762,
    "\u2581date": 3763,
    "\u2581insert": 3764,
    "\u2581getactivewindow": 3765,
    "xabc": 3766,
    "\u2581module": 3767,
    "\u2581setmapmode": 3768,
    "browser": 3769,
    "wit": 3770,
    "\u2581setvieworgex": 3771,
    "\u2581cqa": 3772,
    "xffda": 3773,
    "\u2581scqa": 3774,
    "tempty": 3775,
    "\u2581pscqa": 3776,
    "rectempty": 3777,
    "mb": 3778,
    "installed": 3779,
    "\u2581oemtochara": 3780,
    "copy": 3781,
    "aler": 3782,
    "virtu": 3783,
    "\u2581files": 3784,
    "\u2581virtu": 3785,
    "\u2581window": 3786,
    "\u2581virtuallock": 3787,
    "amo": 3788,
    "\u2581ur": 3789,
    "\u2581globaladdatoma": 3790,
    "\u2581tol": 3791,
    "\u2581tolower": 3792,
    "dp": 3793,
    "\u2581wtsapi": 3794,
    "gnal": 3795,
    "guid": 3796,
    "\u2581setwindowextex": 3797,
    "xffdb": 3798,
    "\u2581setviewextex": 3799,
    "trace": 3800,
    "\u2581lmir": 3801,
    "ext": 3802,
    "servicea": 3803,
    "\u2581creater": 3804,
    "fs": 3805,
    "its": 3806,
    "\u2581ww": 3807,
    "\u2581userprofil": 3808,
    "etw": 3809,
    "det": 3810,
    "\u2581offsetvieworgex": 3811,
    "\u2581vis": 3812,
    "windowextex": 3813,
    "\u2581scaleviewextex": 3814,
    "\u2581scalewindowextex": 3815,
    "\u2581getthreadpriority": 3816,
    "\u2581meta": 3817,
    "rv": 3818,
    "lot": 3819,
    "\u2581ta": 3820,
    "viewer": 3821,
    "range": 3822,
    "driver": 3823,
    "\u2581wcsn": 3824,
    "block": 3825,
    "\u2581signal": 3826,
    "dln": 3827,
    "cons": 3828,
    "mdln": 3829,
    "has": 3830,
    "idistre": 3831,
    "idistreamo": 3832,
    "quest": 3833,
    "llow": 3834,
    "ative": 3835,
    "\u2581readconsole": 3836,
    "fication": 3837,
    "fecc": 3838,
    "getatom": 3839,
    "\u2581globalgetatom": 3840,
    "lity": 3841,
    "vbvm": 3842,
    "\u2581flag": 3843,
    "\u2581pro": 3844,
    "\u2581info": 3845,
    "quo": 3846,
    "ci": 3847,
    "oka": 3848,
    "andar": 3849,
    "child": 3850,
    "\u2581msvbvm": 3851,
    "\u2581sldrl": 3852,
    "xffffe": 3853,
    "\u2581fd": 3854,
    "ress": 3855,
    "va": 3856,
    "format": 3857,
    "proper": 3858,
    "\u2581ftp": 3859,
    "\u2581http": 3860,
    "\u2581lockfile": 3861,
    "\u2581unlockfile": 3862,
    "mple": 3863,
    "\u2581mssec": 3864,
    "\u2581metaquo": 3865,
    "\u2581mssecsvc": 3866,
    "mutexw": 3867,
    "\u2581setfocus": 3868,
    "idistreamout": 3869,
    "\u2581iob": 3870,
    "\u2581taskbarcreated": 3871,
    "son": 3872,
    "eabc": 3873,
    "lear": 3874,
    "\u2581loadererror": 3875,
    "\u2581charlowerbuff": 3876,
    "\u2581xa": 3877,
    "lack": 3878,
    "\u2581lcidto": 3879,
    "\u2581lcidtolocalename": 3880,
    "ache": 3881,
    "\u2581cif": 3882,
    "othe": 3883,
    "\u2581stricmp": 3884,
    "\u2581cifmod": 3885,
    "\u2581writeprivateprofilestringa": 3886,
    "ivq": 3887,
    "\u2581wh": 3888,
    "doub": 3889,
    "doublec": 3890,
    "licktime": 3891,
    "\u2581directory": 3892,
    "\u2581getdoublec": 3893,
    "\u2581getdoubleclicktime": 3894,
    "his": 3895,
    "thi": 3896,
    "wares": 3897,
    "rey": 3898,
    "days": 3899,
    "dealer": 3900,
    "lowerw": 3901,
    "\u2581interm": 3902,
    "catalogs": 3903,
    "continue": 3904,
    "havebeen": 3905,
    "allcadwork": 3906,
    "\u2581doyoureally": 3907,
    "\u2581openanexploreron": 3908,
    "named": 3909,
    "aut": 3910,
    "\u2581cv": 3911,
    "\u2581cpp": 3912,
    "sessionid": 3913,
    "etch": 3914,
    "cache": 3915,
    "olcid": 3916,
    "enamet": 3917,
    "\u2581power": 3918,
    "enametolcid": 3919,
    "\u2581fileexistsw": 3920,
    "\u2581localenametolcid": 3921,
    "ish": 3922,
    "\u2581if": 3923,
    "result": 3924,
    "endar": 3925,
    "\u2581libg": 3926,
    "\u2581aroka": 3927,
    "calendar": 3928,
    "\u2581xc": 3929,
    "\u2581libgcc": 3930,
    "debughook": 3931,
    "\u2581gdipluss": 3932,
    "\u2581cppdebughook": 3933,
    "\u2581readconsolew": 3934,
    "isation": 3935,
    "scrollbar": 3936,
    "\u2581acmdln": 3937,
    "\u2581id": 3938,
    "\u2581users": 3939,
    "context": 3940,
    "\u2581uc": 3941,
    "\u2581getnext": 3942,
    "attribute": 3943,
    "\u2581common": 3944,
    "\u2581getnextdlg": 3945,
    "\u2581pa": 3946,
    "ftime": 3947,
    "afceff": 3948,
    "ffceffc": 3949,
    "lgi": 3950,
    "tify": 3951,
    "\u2581os": 3952,
    "\u2581gdiplus": 3953,
    "deferwindowpos": 3954,
    "\u2581cx": 3955,
    "\u2581gdipget": 3956,
    "hf": 3957,
    "pixe": 3958,
    "cdffd": 3959,
    "ceffcdffd": 3960,
    "afceffceffcdffd": 3961,
    "\u2581windowfrompoint": 3962,
    "\u2581globalfindatoma": 3963,
    "\u2581registerservicectrlhandler": 3964,
    "bin": 3965,
    "\u2581loadbitmapa": 3966,
    "gb": 3967,
    "xfrm": 3968,
    "\u2581ucrt": 3969,
    "\u2581unget": 3970,
    "visualfox": 3971,
    "xo": 3972,
    "\u2581vfp": 3973,
    "defined": 3974,
    "\u2581handler": 3975,
    "\u2581undefined": 3976,
    "visualfoxpro": 3977,
    "\u2581wide": 3978,
    "ablend": 3979,
    "phablend": 3980,
    "\u2581stea": 3981,
    "based": 3982,
    "\u2581charpreva": 3983,
    "\u2581ucrtbased": 3984,
    "dddc": 3985,
    "\u2581track": 3986,
    "\u2581openservicea": 3987,
    "installation": 3988,
    "codethread": 3989,
    "\u2581loadimage": 3990,
    "\u2581getexitcodethread": 3991,
    "\u2581pol": 3992,
    "ervicec": 3993,
    "traceguid": 3994,
    "erviceconfig": 3995,
    "queryinformation": 3996,
    "okhd": 3997,
    "\u2581cau": 3998,
    "gistry": 3999,
    "\u2581caution": 4000,
    "ks": 4001,
    "\u2581scouldnotbelocatedinthedynamiclinklibrary": 4002,
    "erf": 4003,
    "threads": 4004,
    "\u2581charupperw": 4005,
    "\u2581processthreads": 4006,
    "\u2581shgetfileinfoa": 4007,
    "rchr": 4008,
    "lib": 4009,
    "remo": 4010,
    "afca": 4011,
    "temm": 4012,
    "ddlgi": 4013,
    "ddlgitemm": 4014,
    "\u2581senddlgitemm": 4015,
    "\u2581senddlgitemmessage": 4016,
    "aret": 4017,
    "\u2581cho": 4018,
    "roniz": 4019,
    "\u2581default": 4020,
    "forcadwork": 4021,
    "ou": 4022,
    "imag": 4023,
    "\u2581synchroniz": 4024,
    "procw": 4025,
    "codeex": 4026,
    "\u2581br": 4027,
    "\u2581ni": 4028,
    "\u2581steam": 4029,
    "\u2581intersec": 4030,
    "ecode": 4031,
    "\u2581licen": 4032,
    "frame": 4033,
    "cbea": 4034,
    "etween": 4035,
    "\u2581www": 4036,
    "xebad": 4037,
    "acceleratortablew": 4038,
    "wi": 4039,
    "ssoftware": 4040,
    "ax": 4041,
    "\u2581dx": 4042,
    "\u2581fire": 4043,
    "\u2581getlong": 4044,
    "\u2581obso": 4045,
    "defaulti": 4046,
    "\u2581datetime": 4047,
    "\u2581obsolete": 4048,
    "defaultitem": 4049,
    "\u2581environment": 4050,
    "\u2581winht": 4051,
    "\u2581sfc": 4052,
    "ongles": 4053,
    "\u2581chang": 4054,
    "\u2581strcpyw": 4055,
    "qual": 4056,
    "\u2581getsystemdefaultlangid": 4057,
    "util": 4058,
    "datetime": 4059,
    "\u2581iu": 4060,
    "icli": 4061,
    "rame": 4062,
    "\u2581ssp": 4063,
    "\u2581sspicli": 4064,
    "\u2581convert": 4065,
    "config": 4066,
    "imer": 4067,
    "actctx": 4068,
    "\u2581excel": 4069,
    "\u2581memchr": 4070,
    "anew": 4071,
    "tivateactctx": 4072,
    "ght": 4073,
    "uri": 4074,
    "aram": 4075,
    "io": 4076,
    "ocu": 4077,
    "\u2581kill": 4078,
    "ablet": 4079,
    "ocument": 4080,
    "\u2581gettempfilenamea": 4081,
    "ga": 4082,
    "\u2581all": 4083,
    "orary": 4084,
    "dosdatetime": 4085,
    "\u2581movewindow": 4086,
    "\u2581filetimetodosdatetime": 4087,
    "ustment": 4088,
    "traceguidsw": 4089,
    "\u2581gdipcreate": 4090,
    "\u2581registertraceguidsw": 4091,
    "\u2581getfileattributesexw": 4092,
    "wrw": 4093,
    "ergw": 4094,
    "hgos": 4095,
    "faewrw": 4096,
    "hgosuri": 4097,
    "faewrwergw": 4098,
    "\u2581rsa": 4099,
    "\u2581dxgi": 4100,
    "\u2581rsaenh": 4101,
    "apos": 4102,
    "qerf": 4103,
    "sodp": 4104,
    "aposdf": 4105,
    "\u2581iuqerf": 4106,
    "\u2581dxgidebug": 4107,
    "\u2581iuqerfsodp": 4108,
    "\u2581equal": 4109,
    "\u2581killtimer": 4110,
    "\u2581installonly": 4111,
    "\u2581sofaddress": 4112,
    "ssd": 4113,
    "layered": 4114,
    "\u2581document": 4115,
    "layeredwindow": 4116,
    "\u2581expandenvironmentstringsw": 4117,
    "xfffffffc": 4118,
    "yourpc": 4119,
    "qd": 4120,
    "\u2581bc": 4121,
    "ffcc": 4122,
    "xabb": 4123,
    "calling": 4124,
    "afunction": 4125,
    "byt": 4126,
    "flush": 4127,
    "\u2581getsystemdefaultlcid": 4128,
    "\u2581sp": 4129,
    "\u2581max": 4130,
    "\u2581full": 4131,
    "byteex": 4132,
    "\u2581cexit": 4133,
    "fileexw": 4134,
    "\u2581gdipgetimage": 4135,
    "\u2581regdeletekeya": 4136,
    "\u2581isdbcsleadbyteex": 4137,
    "ql": 4138,
    "drawing": 4139,
    "\u2581querys": 4140,
    "\u2581getsystemtimead": 4141,
    "foreyou": 4142,
    "entr": 4143,
    "faec": 4144,
    "namet": 4145,
    "\u2581createmutexw": 4146,
    "\u2581getprofileint": 4147,
    "\u2581qq": 4148,
    "binary": 4149,
    "cke": 4150,
    "now": 4151,
    "asyn": 4152,
    "lotter": 4153,
    "asyncke": 4154,
    "\u2581getasyncke": 4155,
    "\u2581regqueryvaluea": 4156,
    "\u2581getasynckeystate": 4157,
    "web": 4158,
    "\u2581updat": 4159,
    "etchblt": 4160,
    "\u2581setscrollpos": 4161,
    "ree": 4162,
    "clear": 4163,
    "ableto": 4164,
    "git": 4165,
    "vec": 4166,
    "\u2581getinput": 4167,
    "instructioncache": 4168,
    "\u2581dir": 4169,
    "lparam": 4170,
    "\u2581ef": 4171,
    "clipr": 4172,
    "ssetup": 4173,
    "\u2581enumcalendar": 4174,
    "\u2581iswindowvisible": 4175,
    "pad": 4176,
    "\u2581ed": 4177,
    "\u2581getscrollpos": 4178,
    "ert": 4179,
    "\u2581opt": 4180,
    "ectex": 4181,
    "follow": 4182,
    "following": 4183,
    "getversion": 4184,
    "zip": 4185,
    "acle": 4186,
    "hs": 4187,
    "\u2581folder": 4188,
    "informati": 4189,
    "pen": 4190,
    "\u2581initial": 4191,
    "\u2581thisprogram": 4192,
    "\u2581flushinstructioncache": 4193,
    "\u2581uti": 4194,
    "lientin": 4195,
    "edownload": 4196,
    "\u2581variantclear": 4197,
    "ntoc": 4198,
    "leaset": 4199,
    "\u2581scree": 4200,
    "\u2581youma": 4201,
    "\u2581sysinfo": 4202,
    "ntoclient": 4203,
    "\u2581installation": 4204,
    "\u2581screentoclient": 4205,
    "pkg": 4206,
    "tab": 4207,
    "\u2581cod": 4208,
    "onthe": 4209,
    "manager": 4210,
    "downloaded": 4211,
    "tification": 4212,
    "applications": 4213,
    "yourcomputer": 4214,
    "itis": 4215,
    "\u2581demo": 4216,
    "beforeyou": 4217,
    "\u2581lookupprivilegevaluea": 4218,
    "\u2581us": 4219,
    "artn": 4220,
    "grey": 4221,
    "succ": 4222,
    "undb": 4223,
    "\u2581sql": 4224,
    "acode": 4225,
    "advis": 4226,
    "codes": 4227,
    "oyour": 4228,
    "\u2581itis": 4229,
    "ediate": 4230,
    "fromth": 4231,
    "inting": 4232,
    "stries": 4233,
    "\u2581strto": 4234,
    "between": 4235,
    "edfiles": 4236,
    "groundb": 4237,
    "ontinue": 4238,
    "standar": 4239,
    "withthi": 4240,
    "\u2581prints": 4241,
    "binaryto": 4242,
    "swindows": 4243,
    "isalready": 4244,
    "ofcadwork": 4245,
    "softwares": 4246,
    "\u2581clientin": 4247,
    "abletoquit": 4248,
    "informatik": 4249,
    "\u2581itisadvis": 4250,
    "\u2581startfile": 4251,
    "groundblack": 4252,
    "\u2581pleasecheck": 4253,
    "withthissetup": 4254,
    "\u2581intermediate": 4255,
    "allyourrunning": 4256,
    "\u2581cryptbinaryto": 4257,
    "\u2581doyouwanttore": 4258,
    "\u2581dialogswindows": 4259,
    "\u2581backgroundblack": 4260,
    "beforeyoucontinue": 4261,
    "\u2581doyoureallywantto": 4262,
    "\u2581itisadvisabletoquit": 4263,
    "allyourrunningapplications": 4264,
    "beforeyoucontinuewiththissetup": 4265,
    "\u2581itisadvisabletoquitallyourrunningapplications": 4266,
    "eng": 4267,
    "\u2581msvcp": 4268,
    "namedpipe": 4269,
    "\u2581msf": 4270,
    "filesfrom": 4271,
    "deee": 4272,
    "\u2581one": 4273,
    "\u2581fopen": 4274,
    "available": 4275,
    "\u2581loadimagew": 4276,
    "\u2581unregister": 4277,
    "\u2581fil": 4278,
    "ln": 4279,
    "cfdd": 4280,
    "riter": 4281,
    "\u2581firefo": 4282,
    "\u2581getopen": 4283,
    "vironmentblock": 4284,
    "\u2581openscmanagera": 4285,
    "thiscomputer": 4286,
    "sen": 4287,
    "note": 4288,
    "page": 4289,
    "laser": 4290,
    "\u2581sync": 4291,
    "reated": 4292,
    "\u2581msp": 4293,
    "erbuff": 4294,
    "\u2581charupperbuff": 4295,
    "\u2581getscrollinfo": 4296,
    "aace": 4297,
    "sand": 4298,
    "native": 4299,
    "\u2581setscrollinfo": 4300,
    "\u2581regdeletevaluea": 4301,
    "oup": 4302,
    "bird": 4303,
    "cores": 4304,
    "coreservice": 4305,
    "\u2581getprofilestringa": 4306,
    "kw": 4307,
    "isq": 4308,
    "pnt": 4309,
    "ssv": 4310,
    "ccon": 4311,
    "csvc": 4312,
    "fram": 4313,
    "snmp": 4314,
    "topq": 4315,
    "\u2581sqb": 4316,
    "isqlp": 4317,
    "oupds": 4318,
    "tesql": 4319,
    "\u2581sqlw": 4320,
    "\u2581tbir": 4321,
    "\u2581word": 4322,
    "cename": 4323,
    "dified": 4324,
    "lagent": 4325,
    "lussvc": 4326,
    "topqos": 4327,
    "\u2581dbeng": 4328,
    "\u2581exeen": 4329,
    "\u2581mspub": 4330,
    "\u2581ocaut": 4331,
    "\u2581ocomm": 4332,
    "\u2581ocssd": 4333,
    "\u2581visio": 4334,
    "\u2581xfssv": 4335,
    "dconfig": 4336,
    "xconfig": 4337,
    "\u2581dbsnmp": 4338,
    "\u2581except": 4339,
    "\u2581mydesk": 4340,
    "\u2581oracle": 4341,
    "\u2581onenote": 4342,
    "\u2581thunder": 4343,
    "\u2581winword": 4344,
    "\u2581wordpad": 4345,
    "\u2581exeisqlp": 4346,
    "\u2581msaccess": 4347,
    "\u2581msftesql": 4348,
    "\u2581powerpnt": 4349,
    "\u2581sqlagent": 4350,
    "\u2581synctime": 4351,
    "\u2581exeencsvc": 4352,
    "\u2581mydesktop": 4353,
    "\u2581sqlwriter": 4354,
    "\u2581xfssvccon": 4355,
    "\u2581exeagntsvc": 4356,
    "\u2581ocautoupds": 4357,
    "\u2581sqlbrowser": 4358,
    "\u2581tbirdconfig": 4359,
    "\u2581thunderbird": 4360,
    "\u2581mydesktopqos": 4361,
    "\u2581firefoxconfig": 4362,
    "\u2581exeisqlplussvc": 4363,
    "\u2581sqbcoreservice": 4364,
    "\u2581mydesktopservice": 4365,
    "omo": 4366,
    "lean": 4367,
    "orrect": 4368,
    "\u2581readonly": 4369,
    "textext": 4370,
    "stringlen": 4371,
    "\u2581setcursorpos": 4372,
    "\u2581getkeyboardlayout": 4373,
    "gs": 4374,
    "\u2581clean": 4375,
    "licenceson": 4376,
    "\u2581gettextext": 4377,
    "\u2581dd": 4378,
    "\u2581fmt": 4379,
    "\u2581msimg": 4380,
    "\u2581cc": 4381,
    "xafc": 4382,
    "request": 4383,
    "hy": 4384,
    "xadc": 4385,
    "\u2581pbd": 4386,
    "\u2581change": 4387,
    "textlength": 4388,
    "\u2581internetopena": 4389,
    "\u2581getwindowtextlength": 4390,
    "ik": 4391,
    "later": 4392,
    "\u2581changes": 4393,
    "\u2581getsystemmenu": 4394,
    "\u2581changeserviceconfig": 4395,
    "beae": 4396,
    "ial": 4397,
    "per": 4398,
    "pixel": 4399,
    "\u2581redraw": 4400,
    "\u2581getmonitor": 4401,
    "\u2581redrawwindow": 4402,
    "ffdc": 4403,
    "\u2581url": 4404,
    "eservice": 4405,
    "\u2581deleteservice": 4406,
    "bcac": 4407,
    "xaeb": 4408,
    "xafb": 4409,
    "\u2581pass": 4410,
    "anager": 4411,
    "\u2581ifyou": 4412,
    "entpoint": 4413,
    "willinstall": 4414,
    "\u2581strncpy": 4415,
    "\u2581gettextextentpoint": 4416,
    "station": 4417,
    "\u2581regcreatekeya": 4418,
    "toyour": 4419,
    "lection": 4420,
    "gl": 4421,
    "\u2581isdialog": 4422,
    "\u2581urldownload": 4423,
    "windowstation": 4424,
    "rl": 4425,
    "dfab": 4426,
    "xoqd": 4427,
    "\u2581sin": 4428,
    "lighi": 4429,
    "\u2581ellighi": 4430,
    "\u2581ellighixoqd": 4431,
    "oom": 4432,
    "stow": 4433,
    "ethis": 4434,
    "fromid": 4435,
    "fromidlist": 4436,
    "ry": 4437,
    "omob": 4438,
    "fromob": 4439,
    "\u2581deletemenu": 4440,
    "resultfromob": 4441,
    "thor": 4442,
    "tings": 4443,
    "\u2581xb": 4444,
    "\u2581iym": 4445,
    "bfcc": 4446,
    "cbcc": 4447,
    "\u2581par": 4448,
    "ention": 4449,
    "\u2581shgetfromidlist": 4450,
    "mtz": 4451,
    "\u2581dc": 4452,
    "lnik": 4453,
    "yivq": 4454,
    "yivqsw": 4455,
    "mtzlnik": 4456,
    "\u2581iymyivqsw": 4457,
    "\u2581fmtmtzlnik": 4458,
    "\u2581lresultfromob": 4459,
    "sel": 4460,
    "xacc": 4461,
    "cedri": 4462,
    "lease": 4463,
    "ibleob": 4464,
    "\u2581globalgetatomnamea": 4465,
    "inish": 4466,
    "\u2581getprocessversion": 4467,
    "efdc": 4468,
    "\u2581burn": 4469,
    "\u2581room": 4470,
    "\u2581offsetrect": 4471,
    "\u2581regqueryinfo": 4472,
    "dfdc": 4473,
    "xabf": 4474,
    "\u2581choos": 4475,
    "\u2581releasec": 4476,
    "\u2581releasecapture": 4477,
    "\u2581createpopupmenu": 4478,
    "\u2581df": 4479,
    "\u2581du": 4480,
    "afcb": 4481,
    "egistry": 4482,
    "\u2581setcapture": 4483,
    "activewindow": 4484,
    "efde": 4485,
    "winmm": 4486,
    "\u2581eb": 4487,
    "bdbc": 4488,
    "\u2581play": 4489,
    "cedrivers": 4490,
    "\u2581enumdevi": 4491,
    "\u2581explorer": 4492,
    "\u2581enumdevicedrivers": 4493,
    "bfba": 4494,
    "trgn": 4495,
    "ansom": 4496,
    "author": 4497,
    "\u2581ransom": 4498,
    "econtrol": 4499,
    "\u2581winhttp": 4500,
    "\u2581setactivewindow": 4501,
    "\u2581bf": 4502,
    "\u2581ok": 4503,
    "\u2581realloc": 4504,
    "\u2581setrect": 4505,
    "rc": 4506,
    "ebad": 4507,
    "edge": 4508,
    "urla": 4509,
    "basic": 4510,
    "\u2581ischild": 4511,
    "\u2581tra": 4512,
    "\u2581drawedge": 4513,
    "midistreamout": 4514,
    "\u2581postmessagea": 4515,
    "\u2581theprocedureentrypointmidistreamout": 4516,
    "uldnotbelocatedinthedynamiclinklibrary": 4517,
    "couldnotbelocatedinthedynamiclinklibrarywinmm": 4518,
    "xade": 4519,
    "anual": 4520,
    "\u2581cancel": 4521,
    "\u2581createdialog": 4522,
    "\u2581getdiskfreespacea": 4523,
    "adi": 4524,
    "xdfd": 4525,
    "\u2581sdl": 4526,
    "river": 4527,
    "zoom": 4528,
    "alicen": 4529,
    "zoomed": 4530,
    "\u2581excep": 4531,
    "\u2581traits": 4532,
    "\u2581iszoomed": 4533,
    "pp": 4534,
    "\u2581ec": 4535,
    "scan": 4536,
    "order": 4537,
    "\u2581abort": 4538,
    "\u2581notify": 4539,
    "\u2581getprofileintw": 4540,
    "xaca": 4541,
    "laterect": 4542,
    "\u2581enumdis": 4543,
    "\u2581licence": 4544,
    "\u2581release": 4545,
    "\u2581inflaterect": 4546,
    "iconex": 4547,
    "hmetafile": 4548,
    "imagecount": 4549,
    "\u2581drawiconex": 4550,
    "\u2581internetopenurla": 4551,
    "formation": 4552,
    "daccess": 4553,
    "\u2581fwrite": 4554,
    "\u2581intersectrect": 4555,
    "\u2581getdateformata": 4556,
    "propa": 4557,
    "accd": 4558,
    "chto": 4559,
    "\u2581swit": 4560,
    "\u2581openlog": 4561,
    "\u2581drawfram": 4562,
    "\u2581switchto": 4563,
    "\u2581setparent": 4564,
    "\u2581drawframecontrol": 4565,
    "\u2581eh": 4566,
    "caec": 4567,
    "\u2581wins": 4568,
    "\u2581rtlgetversion": 4569,
    "\u2581equalrect": 4570,
    "\u2581av": 4571,
    "alle": 4572,
    "\u2581selectan": 4573,
    "nel": 4574,
    "\u2581da": 4575,
    "hell": 4576,
    "xaab": 4577,
    "hasbeen": 4578,
    "\u2581excepti": 4579,
    "\u2581openlogw": 4580,
    "\u2581metaquote": 4581,
    "\u2581metaquotessoftware": 4582,
    "\u2581charlowerw": 4583,
    "xafd": 4584,
    "ection": 4585,
    "\u2581query": 4586,
    "\u2581sample": 4587,
    "\u2581isrectempty": 4588,
    "\u2581getfileinformationbyhandle": 4589,
    "efor": 4590,
    "\u2581updater": 4591,
    "nn": 4592,
    "\u2581ae": 4593,
    "current": 4594,
    "\u2581vs": 4595,
    "mous": 4596,
    "\u2581winspool": 4597,
    "\u2581getuserdefaultlangid": 4598,
    "aceb": 4599,
    "ectrgn": 4600,
    "\u2581thefile": 4601,
    "starttable": 4602,
    "\u2581setlocale": 4603,
    "\u2581lpservicestarttable": 4604,
    "mdi": 4605,
    "affic": 4606,
    "model": 4607,
    "tination": 4608,
    "\u2581manager": 4609,
    "\u2581traffic": 4610,
    "\u2581appmodel": 4611,
    "\u2581ck": 4612,
    "\u2581imm": 4613,
    "\u2581pack": 4614,
    "\u2581lpservi": 4615,
    "\u2581lpservicename": 4616,
    "\u2581lpserviceproc": 4617,
    "\u2581sessionmanager": 4618,
    "ight": 4619,
    "tart": 4620,
    "\u2581tim": 4621,
    "tartup": 4622,
    "\u2581screen": 4623,
    "\u2581gdiplusstartup": 4624,
    "pt": 4625,
    "cat": 4626,
    "\u2581drv": 4627,
    "\u2581yap": 4628,
    "\u2581setmode": 4629,
    "\u2581loadacceleratorsa": 4630,
    "ndmm": 4631,
    "\u2581sup": 4632,
    "\u2581borlndmm": 4633,
    "\u2581setinformation": 4634,
    "bs": 4635,
    "ui": 4636,
    "drb": 4637,
    "dvb": 4638,
    "\u2581cont": 4639,
    "\u2581next": 4640,
    "blem": 4641,
    "\u2581bak": 4642,
    "\u2581when": 4643,
    "problem": 4644,
    "tabitem": 4645,
    "dlgbutton": 4646,
    "\u2581enumdispla": 4647,
    "\u2581switchtothread": 4648,
    "\u2581getnextdlgtabitem": 4649,
    "\u2581setwindowplacement": 4650,
    "\u2581registerservicectrlhandlerexw": 4651,
    "ustom": 4652,
    "\u2581processidto": 4653,
    "\u2581queryservice": 4654,
    "\u2581setwindowrgn": 4655,
    "\u2581processidtosessionid": 4656,
    "\u2581systemparametersinfow": 4657,
    "cadc": 4658,
    "debc": 4659,
    "\u2581ee": 4660,
    "\u2581put": 4661,
    "\u2581wcst": 4662,
    "\u2581openprinter": 4663,
    "xabd": 4664,
    "cccc": 4665,
    "accessviolation": 4666,
    "\u2581queryservicestatus": 4667,
    "dcw": 4668,
    "bbbb": 4669,
    "ccdec": 4670,
    "\u2581wget": 4671,
    "consolec": 4672,
    "stdaccess": 4673,
    "\u2581pinmodule": 4674,
    "\u2581exceptione": 4675,
    "stdaccessibleob": 4676,
    "\u2581createstdaccessibleob": 4677,
    "\u2581exceptioneaccessviolation": 4678,
    "caae": 4679,
    "\u2581cache": 4680,
    "location": 4681,
    "attributes": 4682,
    "\u2581sinmodule": 4683,
    "\u2581setconsolec": 4684,
    "sdf": 4685,
    "\u2581debug": 4686,
    "uration": 4687,
    "\u2581scroll": 4688,
    "\u2581createdcw": 4689,
    "cut": 4690,
    "unc": 4691,
    "wen": 4692,
    "\u2581ca": 4693,
    "amer": 4694,
    "\u2581short": 4695,
    "\u2581fclose": 4696,
    "\u2581framer": 4697,
    "\u2581unpack": 4698,
    "\u2581getstringtyp": 4699,
    "\u2581charlowerbuffa": 4700,
    "dy": 4701,
    "hich": 4702,
    "\u2581uni": 4703,
    "select": 4704,
    "\u2581backup": 4705,
    "\u2581shortcut": 4706,
    "caaf": 4707,
    "glti": 4708,
    "ingw": 4709,
    "entrys": 4710,
    "tomati": 4711,
    "xdeadc": 4712,
    "entryslist": 4713,
    "ofa": 4714,
    "xaaf": 4715,
    "ration": 4716,
    "\u2581vfprintf": 4717,
    "\u2581insertmenuitem": 4718,
    "\u2581xe": 4719,
    "beep": 4720,
    "xafa": 4721,
    "msimg": 4722,
    "alphablend": 4723,
    "faewrwergwea": 4724,
    "\u2581messagebeep": 4725,
    "\u2581destroycursor": 4726,
    "xten": 4727,
    "\u2581abv": 4728,
    "\u2581fflush": 4729,
    "\u2581startservicectrldispatchera": 4730,
    "yr": 4731,
    "vbuf": 4732,
    "upper": 4733,
    "\u2581strtod": 4734,
    "properti": 4735,
    "\u2581setvbuf": 4736,
    "\u2581shbrows": 4737,
    "\u2581getnative": 4738,
    "\u2581setbkmode": 4739,
    "\u2581shbrowsefor": 4740,
    "\u2581getnativesystem": 4741,
    "\u2581getwindowtextlengthw": 4742,
    "\u2581theprocedureentrypointalphablend": 4743,
    "couldnotbelocatedinthedynamiclinklibrarymsimg": 4744,
    "\u2581sk": 4745,
    "aead": 4746,
    "\u2581deff": 4747,
    "\u2581wgetmain": 4748,
    "\u2581createmenu": 4749,
    "\u2581getmenuiteminfow": 4750,
    "ini": 4751,
    "tell": 4752,
    "xcfc": 4753,
    "xedc": 4754,
    "\u2581fread": 4755,
    "\u2581fseek": 4756,
    "drawings": 4757,
    "\u2581wcsncpy": 4758,
    "\u2581defframe": 4759,
    "\u2581pleasewait": 4760,
    "\u2581scrollwindow": 4761,
    "\u2581registerservicectrlhandlera": 4762,
    "oo": 4763,
    "tob": 4764,
    "\u2581fc": 4765,
    "conv": 4766,
    "\u2581uga": 4767,
    "hfdre": 4768,
    "\u2581niol": 4769,
    "okhdfr": 4770,
    "stowcs": 4771,
    "\u2581ftell": 4772,
    "\u2581mbstowcs": 4773,
    "\u2581siokhdfr": 4774,
    "\u2581getscrollrange": 4775,
    "\u2581setscrollrange": 4776,
    "\u2581getprocesswindowstation": 4777,
    "bffa": 4778,
    "xbca": 4779,
    "volum": 4780,
    "\u2581defmdi": 4781,
    "focusrect": 4782,
    "\u2581defmdichild": 4783,
    "\u2581getkeynamet": 4784,
    "\u2581drawfocusrect": 4785,
    "\u2581getmenustringw": 4786,
    "caed": 4787,
    "ccbc": 4788,
    "\u2581polk": 4789,
    "flushkey": 4790,
    "\u2581devicec": 4791,
    "\u2581utility": 4792,
    "\u2581regflushkey": 4793,
    "\u2581getnativesysteminfo": 4794,
    "\u2581destroyacceleratortable": 4795,
    "\u2581qqr": 4796,
    "decla": 4797,
    "onitors": 4798,
    "localesw": 4799,
    "ymonitors": 4800,
    "\u2581deviceclasses": 4801,
    "\u2581enumdisplaymonitors": 4802,
    "\u2581bd": 4803,
    "\u2581le": 4804,
    "fffd": 4805,
    "anies": 4806,
    "swith": 4807,
    "redwith": 4808,
    "updated": 4809,
    "convention": 4810,
    "declaredwith": 4811,
    "configuration": 4812,
    "\u2581charupperbuffw": 4813,
    "callingconvention": 4814,
    "dw": 4815,
    "ign": 4816,
    "ore": 4817,
    "atal": 4818,
    "dcce": 4819,
    "find": 4820,
    "enumer": 4821,
    "\u2581mingw": 4822,
    "working": 4823,
    "\u2581translation": 4824,
    "\u2581setrectempty": 4825,
    "\u2581aaaaaaaaaaaaaaaa": 4826,
    "\u2581aaaaaaaaaaaaaaaaaaaaaaaaaaaaaaaa": 4827,
    "mic": 4828,
    "exten": 4829,
    "\u2581tool": 4830,
    "xfffffc": 4831,
    "\u2581getmonitorinfow": 4832,
    "edec": 4833,
    "herr": 4834,
    "node": 4835,
    "\u2581couldnot": 4836,
    "\u2581shgetspecialfolderlocation": 4837,
    "ofi": 4838,
    "\u2581fatal": 4839,
    "\u2581vsprintf": 4840,
    "\u2581shgetfromidlistw": 4841,
    "\u2581enumsystemlocalesw": 4842,
    "fx": 4843,
    "deac": 4844,
    "\u2581dont": 4845,
    "\u2581errno": 4846,
    "loading": 4847,
    "trlhandler": 4848,
    "\u2581setconsolectrlhandler": 4849,
    "\u2581xd": 4850,
    "abfc": 4851,
    "\u2581lis": 4852,
    "\u2581old": 4853,
    "ctype": 4854,
    "\u2581getbk": 4855,
    "\u2581reload": 4856,
    "versioninfoa": 4857,
    "\u2581closeprinter": 4858,
    "\u2581virtualqueryex": 4859,
    "rosoftvisualfoxpro": 4860,
    "\u2581createfilemappingw": 4861,
    "\u2581dg": 4862,
    "acca": 4863,
    "bcfc": 4864,
    "resp": 4865,
    "xaee": 4866,
    "\u2581stri": 4867,
    "indirectparamw": 4868,
    "networklicence": 4869,
    "argv": 4870,
    "aved": 4871,
    "ddad": 4872,
    "\u2581sleepex": 4873,
    "\u2581documentproperti": 4874,
    "deda": 4875,
    "dows": 4876,
    "xecc": 4877,
    "disys": 4878,
    "\u2581assoc": 4879,
    "temdisys": 4880,
    "todownload": 4881,
    "temdisysaccel": 4882,
    "\u2581translatemdisysaccel": 4883,
    "aper": 4884,
    "hite": 4885,
    "\u2581inet": 4886,
    "\u2581skip": 4887,
    "\u2581strdup": 4888,
    "microsoftvisualfoxpro": 4889,
    "pdf": 4890,
    "tot": 4891,
    "\u2581ld": 4892,
    "bbbd": 4893,
    "deca": 4894,
    "totop": 4895,
    "\u2581gettext": 4896,
    "bitmapbits": 4897,
    "fromwindow": 4898,
    "\u2581appendmenuw": 4899,
    "\u2581cur": 4900,
    "wille": 4901,
    "\u2581bring": 4902,
    "cliprgn": 4903,
    "display": 4904,
    "\u2581framerect": 4905,
    "windowtotop": 4906,
    "\u2581getmenuinfo": 4907,
    "\u2581comparefiletime": 4908,
    "\u2581bringwindowtotop": 4909,
    "gy": 4910,
    "sch": 4911,
    "\u2581you": 4912,
    "emotet": 4913,
    "\u2581getnum": 4914,
    "istingfile": 4915,
    "emotethread": 4916,
    "installedon": 4917,
    "\u2581isdialogmessagew": 4918,
    "\u2581createremotethread": 4919,
    "cccf": 4920,
    "ustbe": 4921,
    "dfiles": 4922,
    "details": 4923,
    "\u2581unglti": 4924,
    "iphlpapi": 4925,
    "registered": 4926,
    "getadapters": 4927,
    "windowfrompoint": 4928,
    "\u2581setwindowtexta": 4929,
    "\u2581theprocedureentrypointgetadapters": 4930,
    "\u2581ci": 4931,
    "\u2581not": 4932,
    "enthe": 4933,
    "remov": 4934,
    "helpdesk": 4935,
    "\u2581gdipset": 4936,
    "\u2581setuser": 4937,
    "installer": 4938,
    "\u2581temporary": 4939,
    "\u2581insertmenuw": 4940,
    "\u2581getbitmapbits": 4941,
    "\u2581senddlgitemmessagea": 4942,
    "dxf": 4943,
    "edp": 4944,
    "mat": 4945,
    "xpi": 4946,
    "damm": 4947,
    "derw": 4948,
    "doyo": 4949,
    "duet": 4950,
    "edby": 4951,
    "etoc": 4952,
    "expi": 4953,
    "faff": 4954,
    "fbcb": 4955,
    "hisp": 4956,
    "ofit": 4957,
    "rein": 4958,
    "alize": 4959,
    "befor": 4960,
    "beren": 4961,
    "elect": 4962,
    "eyour": 4963,
    "fully": 4964,
    "phone": 4965,
    "pires": 4966,
    "swill": 4967,
    "texts": 4968,
    "\u2581clic": 4969,
    "\u2581zipp": 4970,
    "allzip": 4971,
    "andall": 4972,
    "arenot": 4973,
    "custom": 4974,
    "forany": 4975,
    "licenc": 4976,
    "orutil": 4977,
    "setthe": 4978,
    "stothe": 4979,
    "succes": 4980,
    "willbe": 4981,
    "\u2581yours": 4982,
    "ageduet": 4983,
    "artners": 4984,
    "backups": 4985,
    "dergrey": 4986,
    "ecodeis": 4987,
    "efolder": 4988,
    "hotline": 4989,
    "ingyour": 4990,
    "leaseto": 4991,
    "matherr": 4992,
    "onsible": 4993,
    "piresin": 4994,
    "ressthe": 4995,
    "stoyour": 4996,
    "xpirein": 4997,
    "customer": 4998,
    "inyourpc": 4999,
    "ldongles": 5000,
    "original": 5001,
    "validfor": 5002,
    "verwrite": 5003,
    "yourcode": 5004,
    "\u2581allregi": 5005,
    "\u2581already": 5006,
    "\u2581borderw": 5007,
    "\u2581pleases": 5008,
    "ecatalogs": 5009,
    "fromthere": 5010,
    "incadwork": 5011,
    "releaseto": 5012,
    "\u2581printing": 5013,
    "\u2581tocreate": 5014,
    "\u2581unsetthe": 5015,
    "andallhisp": 5016,
    "arenotresp": 5017,
    "foranydamm": 5018,
    "laserframe": 5019,
    "licencefor": 5020,
    "userprofil": 5021,
    "ageduetothe": 5022,
    "andcatalogs": 5023,
    "etocontinue": 5024,
    "isationofit": 5025,
    "succesfully": 5026,
    "xistingfile": 5027,
    "yourcadwork": 5028,
    "\u2581bordergrey": 5029,
    "\u2581clientinfo": 5030,
    "clientnumber": 5031,
    "licencewille": 5032,
    "originalfile": 5033,
    "\u2581zippedfiles": 5034,
    "allregistered": 5035,
    "codeexpiresin": 5036,
    "stothedefault": 5037,
    "\u2581sinformation": 5038,
    "customernumber": 5039,
    "\u2581allregistries": 5040,
    "\u2581borderwindows": 5041,
    "\u2581pleasecallyour": 5042,
    "\u2581setusermatherr": 5043,
    "\u2581trackpopupmenu": 5044,
    "\u2581installationfor": 5045,
    "andallhispartners": 5046,
    "arenotresponsible": 5047,
    "orutilisationofit": 5048,
    "yourcadworkdealer": 5049,
    "\u2581printslaserframe": 5050,
    "\u2581unsetthedownload": 5051,
    "allregisteredcodes": 5052,
    "forcadworkhavebeen": 5053,
    "\u2581cadworkinformatik": 5054,
    "allcadworksoftwares": 5055,
    "andcatalogsinyourpc": 5056,
    "licencewillexpirein": 5057,
    "foranydammageduetothe": 5058,
    "\u2581downloadfrominternet": 5059,
    "\u2581temporarycodeexpiresin": 5060,
    "\u2581thisprogramwillinstall": 5061,
    "\u2581createacceleratortablew": 5062,
    "installationorutilisationofit": 5063,
    "\u2581allregistriesforcadworkhavebeen": 5064,
    "andallhispartnersarenotresponsible": 5065,
    "allcadworksoftwaresandcatalogsinyourpc": 5066,
    "\u2581downloadfrominternetallregisteredcodes": 5067,
    "foranydammageduetotheinstallationorutilisationofit": 5068,
    "\u2581cadworkinformatikandallhispartnersarenotresponsible": 5069,
    "\u2581thisprogramwillinstallallcadworksoftwaresandcatalogsinyourpc": 5070,
    "dfce": 5071,
    "brushorgex": 5072,
    "yg": 5073,
    "vel": 5074,
    "edfe": 5075,
    "\u2581fls": 5076,
    "\u2581alloc": 5077,
    "options": 5078,
    "\u2581flsbuf": 5079,
    "\u2581copyimage": 5080,
    "\u2581rb": 5081,
    "cabc": 5082,
    "tocre": 5083,
    "popups": 5084,
    "tocreat": 5085,
    "\u2581showowned": 5086,
    "\u2581showscrollbar": 5087,
    "\u2581showownedpopups": 5088,
    "\u2581getfileattributesexa": 5089,
    "esw": 5090,
    "abcc": 5091,
    "edde": 5092,
    "\u2581igb": 5093,
    "\u2581basic": 5094,
    "\u2581fputc": 5095,
    "menubar": 5096,
    "\u2581strftime": 5097,
    "\u2581loadmenuw": 5098,
    "\u2581drawmenubar": 5099,
    "wow": 5100,
    "aada": 5101,
    "\u2581lseek": 5102,
    "utility": 5103,
    "\u2581removemenu": 5104,
    "deab": 5105,
    "\u2581cap": 5106,
    "\u2581lls": 5107,
    "\u2581fputs": 5108,
    "\u2581llseek": 5109,
    "\u2581copyicon": 5110,
    "\u2581createrectrgn": 5111,
    "ffeb": 5112,
    "ombs": 5113,
    "utor": 5114,
    "utorial": 5115,
    "\u2581qstring": 5116,
    "\u2581launcher": 5117,
    "\u2581wcstombs": 5118,
    "ingcadwork": 5119,
    "\u2581waitmessage": 5120,
    "\u2581setclasslongw": 5121,
    "\u2581checkdlgbutton": 5122,
    "\u2581enablescrollbar": 5123,
    "\u2581monitorfrompoint": 5124,
    "dcac": 5125,
    "xbdb": 5126,
    "\u2581trace": 5127,
    "\u2581setmenudefaultitem": 5128,
    "save": 5129,
    "\u2581pur": 5130,
    "chang": 5131,
    "econv": 5132,
    "letim": 5133,
    "waitab": 5134,
    "\u2581ismenu": 5135,
    "\u2581wcsicmp": 5136,
    "\u2581iswctype": 5137,
    "waitabletim": 5138,
    "\u2581localeconv": 5139,
    "\u2581enddeferwindowpos": 5140,
    "\u2581cg": 5141,
    "dfor": 5142,
    "\u2581dac": 5143,
    "febcc": 5144,
    "\u2581deac": 5145,
    "\u2581strerror": 5146,
    "yourauthor": 5147,
    "\u2581notifywin": 5148,
    "\u2581deferwindowpos": 5149,
    "yourauthorisation": 5150,
    "\u2581begindeferwindowpos": 5151,
    "cl": 5152,
    "aacf": 5153,
    "acad": 5154,
    "\u2581sink": 5155,
    "\u2581fdopen": 5156,
    "emodified": 5157,
    "\u2581showrunning": 5158,
    "\u2581showrunninglicenceson": 5159,
    "eno": 5160,
    "setup": 5161,
    "\u2581fstat": 5162,
    "\u2581getwc": 5163,
    "\u2581putwc": 5164,
    "\u2581filbuf": 5165,
    "\u2581ungetc": 5166,
    "\u2581strcoll": 5167,
    "\u2581strxfrm": 5168,
    "\u2581ungetwc": 5169,
    "\u2581wcscoll": 5170,
    "\u2581wcsxfrm": 5171,
    "\u2581stricoll": 5172,
    "\u2581towupper": 5173,
    "\u2581wcsftime": 5174,
    "\u2581getlogicaldrives": 5175,
    "hl": 5176,
    "deba": 5177,
    "atethe": 5178,
    "\u2581union": 5179,
    "\u2581unionrect": 5180,
    "xz": 5181,
    "aedc": 5182,
    "owno": 5183,
    "tpop": 5184,
    "showno": 5185,
    "tpopen": 5186,
    "shownolock": 5187,
    "\u2581openprinterw": 5188,
    "\u2581dragshownolock": 5189,
    "\u2581documentpropertiesw": 5190,
    "\u2581hu": 5191,
    "ffer": 5192,
    "ffcdd": 5193,
    "\u2581qqrp": 5194,
    "sources": 5195,
    "\u2581openfilemapping": 5196,
    "mc": 5197,
    "\u2581yw": 5198,
    "untof": 5199,
    "adiffer": 5200,
    "\u2581searchw": 5201,
    "adifferent": 5202,
    "\u2581getlongnamew": 5203,
    "\u2581deactivateactctx": 5204,
    "\u2581fb": 5205,
    "efab": 5206,
    "\u2581wargv": 5207,
    "dresources": 5208,
    "\u2581recreated": 5209,
    "notification": 5210,
    "\u2581shbrowseforfolderw": 5211,
    "kh": 5212,
    "dacb": 5213,
    "\u2581des": 5214,
    "sters": 5215,
    "\u2581exceptioneaccessviolationinmodule": 5216,
    "afab": 5217,
    "fddc": 5218,
    "\u2581func": 5219,
    "axi": 5220,
    "\u2581ce": 5221,
    "aaff": 5222,
    "\u2581amo": 5223,
    "\u2581amountof": 5224,
    "\u2581createpen": 5225,
    "uf": 5226,
    "\u2581zw": 5227,
    "\u2581lopen": 5228,
    "\u2581as": 5229,
    "adcf": 5230,
    "dedc": 5231,
    "\u2581getbkcolor": 5232,
    "\u2581getclipboardviewer": 5233,
    "youwantto": 5234,
    "\u2581charlowerbuffw": 5235,
    "cfbc": 5236,
    "dafd": 5237,
    "dedb": 5238,
    "extw": 5239,
    "xfcc": 5240,
    "\u2581getkeynametextw": 5241,
    "cbcb": 5242,
    "xffffff": 5243,
    "dt": 5244,
    "eti": 5245,
    "aaeb": 5246,
    "aefa": 5247,
    "ante": 5248,
    "suplibrary": 5249,
    "\u2581defframeprocw": 5250,
    "\u2581defmdichildprocw": 5251,
    "ode": 5252,
    "acac": 5253,
    "ddac": 5254,
    "eabf": 5255,
    "\u2581atl": 5256,
    "\u2581msg": 5257,
    "\u2581quest": 5258,
    "cdfd": 5259,
    "daea": 5260,
    "etimer": 5261,
    "xccccc": 5262,
    "\u2581sysalloc": 5263,
    "localdrive": 5264,
    "protection": 5265,
    "toyourlocaldrive": 5266,
    "chi": 5267,
    "\u2581dos": 5268,
    "anced": 5269,
    "\u2581huid": 5270,
    "mcw": 5271,
    "bacf": 5272,
    "bwen": 5273,
    "corem": 5274,
    "mcwkw": 5275,
    "\u2581pbvm": 5276,
    "\u2581time": 5277,
    "\u2581winc": 5278,
    "\u2581ywgb": 5279,
    "\u2581gener": 5280,
    "\u2581libif": 5281,
    "bwenmcwkw": 5282,
    "xcccccccc": 5283,
    "\u2581libifcorem": 5284,
    "asd": 5285,
    "cdbc": 5286,
    "edda": 5287,
    "\u2581backups": 5288,
    "freememory": 5289,
    "\u2581mr": 5290,
    "aabd": 5291,
    "group": 5292,
    "usethis": 5293,
    "\u2581postthread": 5294,
    "\u2581winappfirst": 5295,
    "\u2581heapqueryinformation": 5296,
    "zs": 5297,
    "adce": 5298,
    "cbee": 5299,
    "eeda": 5300,
    "\u2581yapaxi": 5301,
    "password": 5302,
    "\u2581display": 5303,
    "\u2581general": 5304,
    "tracatalogs": 5305,
    "grt": 5306,
    "beea": 5307,
    "push": 5308,
    "xbac": 5309,
    "ource": 5310,
    "fileex": 5311,
    "\u2581programdata": 5312,
    "\u2581libifcoremdd": 5313,
    "pushentryslist": 5314,
    "clipboardwindow": 5315,
    "\u2581getopenclipboardwindow": 5316,
    "\u2581interlockedpushentryslist": 5317,
    "mfc": 5318,
    "ung": 5319,
    "demo": 5320,
    "\u2581wow": 5321,
    "\u2581wave": 5322,
    "\u2581createen": 5323,
    "\u2581cocreateinstanceex": 5324,
    "aming": 5325,
    "ouble": 5326,
    "\u2581roaming": 5327,
    "\u2581sysfree": 5328,
    "\u2581attribute": 5329,
    "ws": 5330,
    "dir": 5331,
    "\u2581cn": 5332,
    "acdd": 5333,
    "bfdc": 5334,
    "ecdcc": 5335,
    "units": 5336,
    "dateti": 5337,
    "enumber": 5338,
    "xffffee": 5339,
    "alogbase": 5340,
    "dcatalogs": 5341,
    "\u2581getcaret": 5342,
    "\u2581dosdateti": 5343,
    "alogbaseunits": 5344,
    "standardcatalogs": 5345,
    "\u2581getdialogbaseunits": 5346,
    "\u2581ntqueryinformation": 5347,
    "\u2581dosdatetimetofiletime": 5348,
    "sin": 5349,
    "\u2581ya": 5350,
    "acti": 5351,
    "aedb": 5352,
    "ccec": 5353,
    "defd": 5354,
    "feac": 5355,
    "updat": 5356,
    "\u2581checking": 5357,
    "stretchblt": 5358,
    "\u2581utilityto": 5359,
    "stretchbltmode": 5360,
    "\u2581selectpalette": 5361,
    "ccdd": 5362,
    "ffab": 5363,
    "finish": 5364,
    "xbbbab": 5365,
    "xdbdad": 5366,
    "activec": 5367,
    "\u2581double": 5368,
    "\u2581ischar": 5369,
    "indirectory": 5370,
    "updatecadwork": 5371,
    "war": 5372,
    "zef": 5373,
    "bcdb": 5374,
    "xaea": 5375,
    "align": 5376,
    "xbfbe": 5377,
    "aeadac": 5378,
    "xabaaa": 5379,
    "xcbcac": 5380,
    "\u2581space": 5381,
    "xafaeadac": 5382,
    "xbfbebdbc": 5383,
    "xcfcecdcc": 5384,
    "\u2581postthreadmessagew": 5385,
    "layeredwindowattributes": 5386,
    "\u2581tlib": 5387,
    "\u2581wtsget": 5388,
    "\u2581winclass": 5389,
    "\u2581wtsenumer": 5390,
    "\u2581tlibmodule": 5391,
    "activeconsole": 5392,
    "\u2581registermodule": 5393,
    "\u2581monitorfromwindow": 5394,
    "\u2581wtsgetactiveconsole": 5395,
    "\u2581wtsgetactiveconsolesessionid": 5396,
    "anti": 5397,
    "bcee": 5398,
    "dacf": 5399,
    "edbe": 5400,
    "redi": 5401,
    "digit": 5402,
    "eddca": 5403,
    "rection": 5404,
    "\u2581setcomm": 5405,
    "\u2581waveout": 5406,
    "dialogrect": 5407,
    "\u2581metaquotes": 5408,
    "\u2581mapdialogrect": 5409,
    "\u2581updateregistry": 5410,
    "zca": 5411,
    "zcf": 5412,
    "zda": 5413,
    "zea": 5414,
    "zfe": 5415,
    "abde": 5416,
    "eeab": 5417,
    "font": 5418,
    "owner": 5419,
    "zffeb": 5420,
    "\u2581drawstate": 5421,
    "tinationdrive": 5422,
    "\u2581setwindowlonga": 5423,
    "\u2581getthreadcontext": 5424,
    "gt": 5425,
    "thr": 5426,
    "cbcf": 5427,
    "archi": 5428,
    "ccfae": 5429,
    "ffcba": 5430,
    "\u2581argv": 5431,
    "fsredi": 5432,
    "\u2581regre": 5433,
    "\u2581dragquery": 5434,
    "ma": 5435,
    "allp": 5436,
    "dfbc": 5437,
    "ectw": 5438,
    "fcdf": 5439,
    "ccaec": 5440,
    "eaacd": 5441,
    "gineer": 5442,
    "fileexa": 5443,
    "updater": 5444,
    "\u2581insertmenuitemw": 5445,
    "berform": 5446,
    "textouta": 5447,
    "veupdate": 5448,
    "\u2581profile": 5449,
    "\u2581dragfinish": 5450,
    "desktopfolder": 5451,
    "\u2581getnumberform": 5452,
    "\u2581setwindoworgex": 5453,
    "\u2581shgetdesktopfolder": 5454,
    "bre": 5455,
    "bbed": 5456,
    "fccf": 5457,
    "ffac": 5458,
    "menua": 5459,
    "fsredirection": 5460,
    "\u2581getlongnamea": 5461,
    "\u2581senddlgitemmessagew": 5462,
    "cadd": 5463,
    "cadaa": 5464,
    "sendre": 5465,
    "settings": 5466,
    "sendrequest": 5467,
    "\u2581isclipboard": 5468,
    "tpopenrequest": 5469,
    "\u2581getimagecount": 5470,
    "formatavailable": 5471,
    "\u2581unregisterclass": 5472,
    "\u2581updatelayeredwindow": 5473,
    "\u2581isclipboardformatavailable": 5474,
    "xu": 5475,
    "\u2581te": 5476,
    "efff": 5477,
    "facd": 5478,
    "ools": 5479,
    "xaec": 5480,
    "\u2581xcpt": 5481,
    "deeaff": 5482,
    "\u2581hidec": 5483,
    "\u2581touni": 5484,
    "optionw": 5485,
    "selection": 5486,
    "\u2581hidecaret": 5487,
    "\u2581xcptfilter": 5488,
    "\u2581tounicodeex": 5489,
    "\u2581getinputstate": 5490,
    "\u2581sysfreestring": 5491,
    "eacb": 5492,
    "fafe": 5493,
    "poly": 5494,
    "afbdc": 5495,
    "header": 5496,
    "hutdown": 5497,
    "scription": 5498,
    "\u2581enumcalendarinfow": 5499,
    "\u2581cryptbinarytostringa": 5500,
    "fill": 5501,
    "unct": 5502,
    "xbdc": 5503,
    "fdfdc": 5504,
    "\u2581clar": 5505,
    "\u2581inver": 5506,
    "\u2581shmem": 5507,
    "\u2581manual": 5508,
    "\u2581manualselection": 5509,
    "\u2581createdialogindirectparamw": 5510,
    "\u2581setlayeredwindowattributes": 5511,
    "cn": 5512,
    "cbfc": 5513,
    "dfcb": 5514,
    "efac": 5515,
    "hier": 5516,
    "\u2581mer": 5517,
    "aining": 5518,
    "eright": 5519,
    "\u2581lower": 5520,
    "\u2581driver": 5521,
    "updaterect": 5522,
    "\u2581getupdaterect": 5523,
    "\u2581wtsfreememory": 5524,
    "\u2581gdiplusshutdown": 5525,
    "\u2581getclipboardowner": 5526,
    "\u2581globalgetatomnamew": 5527,
    "\u2581data": 5528,
    "\u2581reus": 5529,
    "ddelparam": 5530,
    "\u2581getshell": 5531,
    "\u2581reusedde": 5532,
    "\u2581installthe": 5533,
    "\u2581lockwindow": 5534,
    "\u2581ischarlowerw": 5535,
    "\u2581peeknamedpipe": 5536,
    "\u2581dragqueryfilew": 5537,
    "\u2581getshellwindow": 5538,
    "\u2581reuseddelparam": 5539,
    "\u2581unpackddelparam": 5540,
    "\u2581lockwindowupdate": 5541,
    "\u2581mapvirtualkeyexw": 5542,
    "networklicenceservice": 5543,
    "oe": 5544,
    "vcs": 5545,
    "bbbf": 5546,
    "cefe": 5547,
    "over": 5548,
    "tern": 5549,
    "\u2581gthr": 5550,
    "\u2581pavcs": 5551,
    "\u2581punct": 5552,
    "\u2581upper": 5553,
    "\u2581drawex": 5554,
    "\u2581runtim": 5555,
    "\u2581xdigit": 5556,
    "utorials": 5557,
    "groupitem": 5558,
    "\u2581errorcode": 5559,
    "\u2581drawstatew": 5560,
    "\u2581invertrect": 5561,
    "allocateheap": 5562,
    "\u2581rtlallocateheap": 5563,
    "\u2581gdipcreatebitmap": 5564,
    "\u2581sysallocstringlen": 5565,
    "\u2581getmenudefaultitem": 5566,
    "\u2581getnextdlggroupitem": 5567,
    "dbda": 5568,
    "\u2581gdipdraw": 5569,
    "\u2581snapmodule": 5570,
    "\u2581getinputdesktop": 5571,
    "omp": 5572,
    "wid": 5573,
    "ccaf": 5574,
    "cdbf": 5575,
    "\u2581real": 5576,
    "appbar": 5577,
    "kernel": 5578,
    "\u2581atlget": 5579,
    "fxstring": 5580,
    "\u2581subtrac": 5581,
    "\u2581shappbar": 5582,
    "\u2581realchild": 5583,
    "\u2581alphablend": 5584,
    "\u2581getwindowrgn": 5585,
    "\u2581internetread": 5586,
    "\u2581subtractrect": 5587,
    "\u2581shappbarmessage": 5588,
    "\u2581copyacceleratortablew": 5589,
    "\u2581realchildwindowfrompoint": 5590,
    "aadc": 5591,
    "fbff": 5592,
    "sstr": 5593,
    "malloc": 5594,
    "\u2581getatom": 5595,
    "\u2581frominternet": 5596,
    "\u2581activateactctx": 5597,
    "\u2581getnumberformatw": 5598,
    "\u2581getstringtypeexa": 5599,
    "\u2581internetreadfile": 5600,
    "\u2581enumcalendarinfoa": 5601,
    "wor": 5602,
    "eact": 5603,
    "blink": 5604,
    "eactctx": 5605,
    "\u2581seticon": 5606,
    "blinktime": 5607,
    "\u2581runtimecheck": 5608,
    "\u2581midistreamout": 5609,
    "\u2581releaseactctx": 5610,
    "ach": 5611,
    "gui": 5612,
    "yru": 5613,
    "fadc": 5614,
    "fdcc": 5615,
    "gtdy": 5616,
    "lipr": 5617,
    "\u2581mid": 5618,
    "\u2581okhf": 5619,
    "\u2581iokhd": 5620,
    "gtdyyru": 5621,
    "\u2581getdrag": 5622,
    "\u2581iokhdgrt": 5623,
    "\u2581fatalerror": 5624,
    "\u2581okhfgtdyyru": 5625,
    "\u2581getclassinfoexa": 5626,
    "hiu": 5627,
    "ksd": 5628,
    "pha": 5629,
    "rop": 5630,
    "aaec": 5631,
    "\u2581sec": 5632,
    "lhandler": 5633,
    "strument": 5634,
    "\u2581getdragimage": 5635,
    "\u2581getcaretblinktime": 5636,
    "lmon": 5637,
    "sound": 5638,
    "tions": 5639,
    "\u2581root": 5640,
    "ccfaefc": 5641,
    "wprintf": 5642,
    "\u2581urlmon": 5643,
    "\u2581destroyen": 5644,
    "\u2581networklicence": 5645,
    "\u2581createenvironmentblock": 5646,
    "\u2581destroyenvironmentblock": 5647,
    "nc": 5648,
    "cop": 5649,
    "dfn": 5650,
    "nfs": 5651,
    "aaba": 5652,
    "cnsd": 5653,
    "ksff": 5654,
    "deedd": 5655,
    "ksdks": 5656,
    "sdfoe": 5657,
    "filein": 5658,
    "nfsdfn": 5659,
    "changeno": 5660,
    "\u2581boksdks": 5661,
    "sdfoeksff": 5662,
    "cnsdnfsdfn": 5663,
    "initfilein": 5664,
    "\u2581getwindowlonga": 5665,
    "cnsdnfsdfnsdfoeksff": 5666,
    "\u2581selectaninitfilein": 5667,
    "\u2581registerservicectrlhandlerexa": 5668,
    "gh": 5669,
    "ner": 5670,
    "afaa": 5671,
    "veto": 5672,
    "afile": 5673,
    "adcfdb": 5674,
    "vetoex": 5675,
    "\u2581lineto": 5676,
    "fedccdec": 5677,
    "arguments": 5678,
    "\u2581movetoex": 5679,
    "\u2581sysrealloc": 5680,
    "\u2581det": 5681,
    "allel": 5682,
    "dcfcc": 5683,
    "copies": 5684,
    "\u2581digit": 5685,
    "bdongles": 5686,
    "loadkeyw": 5687,
    "\u2581getpixel": 5688,
    "\u2581stretchblt": 5689,
    "eld": 5690,
    "abdf": 5691,
    "dafc": 5692,
    "eaca": 5693,
    "show": 5694,
    "thon": 5695,
    "\u2581efa": 5696,
    "inder": 5697,
    "\u2581sock": 5698,
    "getshow": 5699,
    "windowmode": 5700,
    "\u2581crtgetshow": 5701,
    "\u2581getenhmetafile": 5702,
    "\u2581crtgetshowwindowmode": 5703,
    "abdc": 5704,
    "\u2581sirc": 5705,
    "\u2581function": 5706,
    "demolicence": 5707,
    "\u2581findfirstfileexw": 5708,
    "\u2581getsavefilenamea": 5709,
    "\u2581createfontindirectw": 5710,
    "\u2581gs": 5711,
    "cdaa": 5712,
    "onhg": 5713,
    "adccc": 5714,
    "dcfccace": 5715,
    "\u2581cryptbinarytostringw": 5716,
    "fcac": 5717,
    "xbbe": 5718,
    "inutes": 5719,
    "\u2581setstretchbltmode": 5720,
    "kb": 5721,
    "lsc": 5722,
    "pat": 5723,
    "aabb": 5724,
    "eecd": 5725,
    "fadf": 5726,
    "bcccb": 5727,
    "ullsc": 5728,
    "dddcbc": 5729,
    "\u2581alpha": 5730,
    "\u2581cntrl": 5731,
    "ingthis": 5732,
    "pattern": 5733,
    "\u2581libgccw": 5734,
    "ullscreen": 5735,
    "aadd": 5736,
    "ddcd": 5737,
    "\u2581iss": 5738,
    "ected": 5739,
    "\u2581regenumkeyexa": 5740,
    "\u2581getfileversioninfoa": 5741,
    "ecu": 5742,
    "\u2581lz": 5743,
    "\u2581np": 5744,
    "\u2581zn": 5745,
    "fier": 5746,
    "xceee": 5747,
    "\u2581details": 5748,
    "\u2581wcsrchr": 5749,
    "patternbrush": 5750,
    "\u2581readofaddress": 5751,
    "\u2581regqueryinfokeyw": 5752,
    "\u2581ntqueryinformationprocess": 5753,
    "arec": 5754,
    "\u2581main": 5755,
    "\u2581filename": 5756,
    "hang": 5757,
    "yset": 5758,
    "xdfde": 5759,
    "ordinal": 5760,
    "\u2581options": 5761,
    "xdfdedddc": 5762,
    "\u2581urldownloadto": 5763,
    "cis": 5764,
    "acaa": 5765,
    "erte": 5766,
    "leco": 5767,
    "mouse": 5768,
    "tocache": 5769,
    "\u2581searcha": 5770,
    "registers": 5771,
    "\u2581recorder": 5772,
    "tocachefilew": 5773,
    "registersession": 5774,
    "\u2581urldownloadtofilew": 5775,
    "\u2581urldownloadtocachefilew": 5776,
    "registersessionnotification": 5777,
    "abdd": 5778,
    "bdcf": 5779,
    "dcad": 5780,
    "fcbf": 5781,
    "isal": 5782,
    "self": 5783,
    "cdefd": 5784,
    "ecomm": 5785,
    "ograms": 5786,
    "dccebdf": 5787,
    "\u2581packag": 5788,
    "facbcccb": 5789,
    "\u2581regenumvaluea": 5790,
    "\u2581queryservicestatusex": 5791,
    "pip": 5792,
    "\u2581xp": 5793,
    "acdb": 5794,
    "fdec": 5795,
    "queu": 5796,
    "\u2581poly": 5797,
    "ectsex": 5798,
    "\u2581getkb": 5799,
    "thename": 5800,
    "dosdevice": 5801,
    "queuetimer": 5802,
    "\u2581getkbcodepage": 5803,
    "\u2581internetconnect": 5804,
    "\u2581sysreallocstringlen": 5805,
    "ahi": 5806,
    "xacd": 5807,
    "xeac": 5808,
    "\u2581dde": 5809,
    "ecaus": 5810,
    "\u2581fdiv": 5811,
    "script": 5812,
    "\u2581acopy": 5813,
    "ingafile": 5814,
    "isalways": 5815,
    "\u2581cannotopen": 5816,
    "\u2581acopyisalways": 5817,
    "\u2581acopyisalwayscreated": 5818,
    "eaac": 5819,
    "eccd": 5820,
    "xdec": 5821,
    "ivqxu": 5822,
    "\u2581ldla": 5823,
    "backup": 5824,
    "bceedac": 5825,
    "\u2581bbccdd": 5826,
    "\u2581wcsstr": 5827,
    "locatethe": 5828,
    "\u2581ldlaivqxu": 5829,
    "argumentsaction": 5830,
    "\u2581cannotlocatethe": 5831,
    "microsoftvisualfoxprosuplibrary": 5832,
    "\u2581cannotlocatethemicrosoftvisualfoxprosuplibrary": 5833,
    "atec": 5834,
    "angle": 5835,
    "baefd": 5836,
    "\u2581acrt": 5837,
    "\u2581lclose": 5838,
    "\u2581safearray": 5839,
    "ana": 5840,
    "\u2581xt": 5841,
    "afcf": 5842,
    "cdfa": 5843,
    "fefc": 5844,
    "\u2581num": 5845,
    "\u2581pbdh": 5846,
    "setend": 5847,
    "\u2581explo": 5848,
    "offileco": 5849,
    "\u2581tryenter": 5850,
    "setendoffileco": 5851,
    "\u2581tryentercriticalsection": 5852,
    "\u2581theprocedureentrypointsetendoffileco": 5853,
    "uldnotbelocatedinthedynamiclinklibrarykernel": 5854,
    "oco": 5855,
    "ddca": 5856,
    "erson": 5857,
    "associ": 5858,
    "specific": 5859,
    "\u2581sinimage": 5860,
    "\u2581httpopenrequest": 5861,
    "\u2581httpsendrequest": 5862,
    "daac": 5863,
    "dabc": 5864,
    "ercis": 5865,
    "selfc": 5866,
    "\u2581after": 5867,
    "archivec": 5868,
    "\u2581cannotopenselfc": 5869,
    "ep": 5870,
    "ccef": 5871,
    "ebdc": 5872,
    "\u2581yax": 5873,
    "delet": 5874,
    "\u2581realize": 5875,
    "zspecific": 5876,
    "\u2581trackmouse": 5877,
    "\u2581realizepalette": 5878,
    "clu": 5879,
    "hal": 5880,
    "\u2581td": 5881,
    "fafd": 5882,
    "\u2581and": 5883,
    "\u2581hid": 5884,
    "etemp": 5885,
    "letit": 5886,
    "standard": 5887,
    "associative": 5888,
    "\u2581fo": 5889,
    "arge": 5890,
    "\u2581don": 5891,
    "dedcbd": 5892,
    "parama": 5893,
    "\u2581exclu": 5894,
    "facdedcbd": 5895,
    "\u2581shgetmalloc": 5896,
    "\u2581getshortnamea": 5897,
    "adfc": 5898,
    "cead": 5899,
    "fine": 5900,
    "fire": 5901,
    "pror": 5902,
    "xacb": 5903,
    "efeea": 5904,
    "quenc": 5905,
    "eeedec": 5906,
    "infoco": 5907,
    "sequenc": 5908,
    "\u2581define": 5909,
    "\u2581wcscmp": 5910,
    "xefeeedec": 5911,
    "proruntime": 5912,
    "\u2581visualfox": 5913,
    "sequencenumber": 5914,
    "\u2581regqueryinfokeya": 5915,
    "\u2581visualfoxproruntime": 5916,
    "\u2581getclipboardsequencenumber": 5917,
    "\u2581theprocedureentrypointgetadaptersinfoco": 5918,
    "uldnotbelocatedinthedynamiclinklibraryiphlpapi": 5919,
    "ple": 5920,
    "\u2581sy": 5921,
    "bcolor": 5922,
    "declipr": 5923,
    "\u2581direct": 5924,
    "decliprect": 5925,
    "bcolortable": 5926,
    "\u2581theordinal": 5927,
    "\u2581excludecliprect": 5928,
    "pd": 5929,
    "udi": 5930,
    "ance": 5931,
    "wall": 5932,
    "amedi": 5933,
    "ffbfc": 5934,
    "ercises": 5935,
    "fbfddac": 5936,
    "raphics": 5937,
    "orarchivec": 5938,
    "\u2581createicon": 5939,
    "\u2581settextalign": 5940,
    "\u2581selectcliprgn": 5941,
    "\u2581microsoftvisualfoxpro": 5942,
    "gle": 5943,
    "firm": 5944,
    "test": 5945,
    "\u2581pre": 5946,
    "icons": 5947,
    "ingto": 5948,
    "\u2581cxxf": 5949,
    "\u2581last": 5950,
    "\u2581cxxframe": 5951,
    "\u2581internetset": 5952,
    "\u2581cxxframehandler": 5953,
    "lui": 5954,
    "like": 5955,
    "ubip": 5956,
    "\u2581xtp": 5957,
    "edafd": 5958,
    "xebeae": 5959,
    "\u2581aclui": 5960,
    "\u2581pubip": 5961,
    "modules": 5962,
    "\u2581setrop": 5963,
    "firewall": 5964,
    "onyourpc": 5965,
    "orrectly": 5966,
    "thiserror": 5967,
    "\u2581allocator": 5968,
    "userprofile": 5969,
    "\u2581selectaninitfileinuserprofile": 5970,
    "bem": 5971,
    "befc": 5972,
    "\u2581aec": 5973,
    "\u2581mbs": 5974,
    "abdacf": 5975,
    "cedccd": 5976,
    "within": 5977,
    "\u2581prefer": 5978,
    "orcadwork": 5979,
    "we": 5980,
    "gds": 5981,
    "bbec": 5982,
    "edfd": 5983,
    "fcdd": 5984,
    "foun": 5985,
    "xbce": 5986,
    "\u2581pat": 5987,
    "bafcb": 5988,
    "begin": 5989,
    "fromh": 5990,
    "lassob": 5991,
    "\u2581patblt": 5992,
    "xtension": 5993,
    "cbbf": 5994,
    "eedc": 5995,
    "decomp": 5996,
    "ecaceb": 5997,
    "logger": 5998,
    "plotter": 5999,
    "\u2581mbsrchr": 6000,
    "\u2581gdipdelete": 6001,
    "\u2581unregisterclassa": 6002,
    "\u2581cr": 6003,
    "bbcf": 6004,
    "\u2581help": 6005,
    "\u2581strcat": 6006,
    "graphics": 6007,
    "\u2581interne": 6008,
    "stringformat": 6009,
    "\u2581setdlldirectorya": 6010,
    "ome": 6011,
    "\u2581wu": 6012,
    "acdf": 6013,
    "dbfc": 6014,
    "\u2581pdf": 6015,
    "ablea": 6016,
    "again": 6017,
    "cbaaf": 6018,
    "ofthe": 6019,
    "\u2581name": 6020,
    "\u2581sets": 6021,
    "ectand": 6022,
    "\u2581sendinput": 6023,
    "\u2581information": 6024,
    "ude": 6025,
    "\u2581cmd": 6026,
    "\u2581lok": 6027,
    "andre": 6028,
    "hasbeenfoun": 6029,
    "ecef": 6030,
    "ther": 6031,
    "\u2581kso": 6032,
    "\u2581tor": 6033,
    "fdccd": 6034,
    "\u2581tele": 6035,
    "cffcdd": 6036,
    "installe": 6037,
    "\u2581findfilenamew": 6038,
    "asy": 6039,
    "ram": 6040,
    "\u2581ao": 6041,
    "\u2581ga": 6042,
    "\u2581ti": 6043,
    "aeff": 6044,
    "xaac": 6045,
    "\u2581mai": 6046,
    "thela": 6047,
    "\u2581exel": 6048,
    "thelatest": 6049,
    "zi": 6050,
    "cse": 6051,
    "char": 6052,
    "ffbc": 6053,
    "xfca": 6054,
    "orrec": 6055,
    "\u2581alnum": 6056,
    "orrecte": 6057,
    "tomaticse": 6058,
    "\u2581automaticse": 6059,
    "\u2581exttextouta": 6060,
    "\u2581automaticselection": 6061,
    "lit": 6062,
    "lys": 6063,
    "cbad": 6064,
    "bytes": 6065,
    "\u2581wayset": 6066,
    "software": 6067,
    "waitabletimer": 6068,
    "\u2581setwindowshookexa": 6069,
    "\u2581waysetassociative": 6070,
    "ao": 6071,
    "iot": 6072,
    "cbec": 6073,
    "fada": 6074,
    "\u2581nto": 6075,
    "\u2581best": 6076,
    "canwork": 6077,
    "\u2581clariot": 6078,
    "\u2581verquery": 6079,
    "\u2581companies": 6080,
    "\u2581bestapplication": 6081,
    "acfc": 6082,
    "eaae": 6083,
    "xfcb": 6084,
    "andard": 6085,
    "streamw": 6086,
    "\u2581number": 6087,
    "\u2581wtsenumerate": 6088,
    "\u2581getwindowtexta": 6089,
    "\u2581setthreadcontext": 6090,
    "obe": 6091,
    "\u2581py": 6092,
    "\u2581zp": 6093,
    "etot": 6094,
    "edccc": 6095,
    "\u2581found": 6096,
    "extended": 6097,
    "ofcopies": 6098,
    "etotzspecific": 6099,
    "\u2581numberofcopies": 6100,
    "\u2581openfilemappinga": 6101,
    "etotzspecificlocaltime": 6102,
    "\u2581systemtimetotzspecificlocaltime": 6103,
    "asa": 6104,
    "\u2581sd": 6105,
    "afda": 6106,
    "bdbe": 6107,
    "dfte": 6108,
    "ving": 6109,
    "xaae": 6110,
    "\u2581hut": 6111,
    "\u2581srv": 6112,
    "entin": 6113,
    "ffile": 6114,
    "hatch": 6115,
    "khdfte": 6116,
    "\u2581child": 6117,
    "\u2581becaus": 6118,
    "\u2581hutdre": 6119,
    "\u2581thread": 6120,
    "\u2581becausethe": 6121,
    "\u2581polkkhdfte": 6122,
    "hmetafilebits": 6123,
    "\u2581getprocessid": 6124,
    "installationwill": 6125,
    "\u2581becausetheinstallationwill": 6126,
    "beh": 6127,
    "man": 6128,
    "babf": 6129,
    "cows": 6130,
    "deaa": 6131,
    "eddc": 6132,
    "ross": 6133,
    "unda": 6134,
    "stall": 6135,
    "python": 6136,
    "\u2581dgram": 6137,
    "\u2581unicows": 6138,
    "\u2581addatoma": 6139,
    "\u2581settings": 6140,
    "bn": 6141,
    "orp": 6142,
    "rar": 6143,
    "ccab": 6144,
    "debe": 6145,
    "ftys": 6146,
    "kgyd": 6147,
    "stdc": 6148,
    "uret": 6149,
    "\u2581seq": 6150,
    "dadad": 6151,
    "\u2581dows": 6152,
    "kgydter": 6153,
    "ftysuret": 6154,
    "\u2581libstdc": 6155,
    "queryuser": 6156,
    "\u2581lokkgydter": 6157,
    "\u2581hidftysuret": 6158,
    "aga": 6159,
    "lex": 6160,
    "lls": 6161,
    "faebb": 6162,
    "\u2581hide": 6163,
    "answer": 6164,
    "eddaaf": 6165,
    "layers": 6166,
    "logfile": 6167,
    "eenhmetafile": 6168,
    "\u2581getatomnamea": 6169,
    "\u2581querydosdevice": 6170,
    "od": 6171,
    "hyt": 6172,
    "\u2581gd": 6173,
    "\u2581im": 6174,
    "\u2581wt": 6175,
    "aily": 6176,
    "uana": 6177,
    "\u2581woo": 6178,
    "namee": 6179,
    "stdre": 6180,
    "\u2581mari": 6181,
    "hytdre": 6182,
    "tingto": 6183,
    "\u2581daily": 6184,
    "\u2581ddegw": 6185,
    "\u2581sonhg": 6186,
    "thefile": 6187,
    "\u2581winrar": 6188,
    "\u2581installs": 6189,
    "\u2581uninstal": 6190,
    "\u2581findatoma": 6191,
    "\u2581woohytdre": 6192,
    "\u2581sonhgstdre": 6193,
    "faewrwergwff": 6194,
    "adv": 6195,
    "cii": 6196,
    "del": 6197,
    "lya": 6198,
    "ofe": 6199,
    "vir": 6200,
    "\u2581mi": 6201,
    "\u2581zu": 6202,
    "affb": 6203,
    "enda": 6204,
    "hrow": 6205,
    "isus": 6206,
    "that": 6207,
    "very": 6208,
    "\u2581vsn": 6209,
    "acdfe": 6210,
    "ascii": 6211,
    "cbaca": 6212,
    "ofesp": 6213,
    "across": 6214,
    "uallya": 6215,
    "lysaved": 6216,
    "automati": 6217,
    "detected": 6218,
    "interval": 6219,
    "resultof": 6220,
    "tinstall": 6221,
    "\u2581console": 6222,
    "\u2581thisisus": 6223,
    "valueofesp": 6224,
    "\u2581theprogram": 6225,
    "wasnotproper": 6226,
    "afunctioncall": 6227,
    "lysavedacross": 6228,
    "withafunction": 6229,
    "\u2581errorloading": 6230,
    "uallyaresultof": 6231,
    "declaredwithone": 6232,
    "callingafunction": 6233,
    "pointerdeclaredwith": 6234,
    "valueofespwasnotproper": 6235,
    "\u2581thisisusuallyaresultof": 6236,
    "lysavedacrossafunctioncall": 6237,
    "adifferentcallingconvention": 6238,
    "callingconventionwithafunction": 6239,
    "callingafunctiondeclaredwithone": 6240,
    "pointerdeclaredwithadifferentcallingconvention": 6241,
    "valueofespwasnotproperlysavedacrossafunctioncall": 6242,
    "\u2581thisisusuallyaresultofcallingafunctiondeclaredwithone": 6243,
    "dun": 6244,
    "baae": 6245,
    "dbeb": 6246,
    "fddb": 6247,
    "keys": 6248,
    "\u2581thi": 6249,
    "panel": 6250,
    "which": 6251,
    "\u2581cxxt": 6252,
    "release": 6253,
    "pythondll": 6254,
    "\u2581cxxthrow": 6255,
    "\u2581printwindow": 6256,
    "\u2581couldnotload": 6257,
    "\u2581programfiles": 6258,
    "\u2581cxxthrowexception": 6259,
    "\u2581errorloadingpythondll": 6260,
    "ud": 6261,
    "bbcc": 6262,
    "ddec": 6263,
    "hout": 6264,
    "tice": 6265,
    "xfcd": 6266,
    "xfce": 6267,
    "ynch": 6268,
    "vious": 6269,
    "\u2581node": 6270,
    "\u2581quit": 6271,
    "dcadca": 6272,
    "tclipr": 6273,
    "tcliprect": 6274,
    "\u2581standard": 6275,
    "workingset": 6276,
    "\u2581getclassnamea": 6277,
    "\u2581getwindoworgex": 6278,
    "\u2581intersectcliprect": 6279,
    "iw": 6280,
    "ets": 6281,
    "ftp": 6282,
    "lik": 6283,
    "eebe": 6284,
    "reco": 6285,
    "seis": 6286,
    "sthe": 6287,
    "clone": 6288,
    "emode": 6289,
    "\u2581conc": 6290,
    "\u2581will": 6291,
    "\u2581click": 6292,
    "\u2581merge": 6293,
    "\u2581playenh": 6294,
    "sessionsa": 6295,
    "\u2581continue": 6296,
    "\u2581connection": 6297,
    "\u2581wtsqueryuser": 6298,
    "\u2581playenhmetafile": 6299,
    "\u2581wtsqueryusertoken": 6300,
    "\u2581getfileversioninfow": 6301,
    "\u2581wtsenumeratesessionsa": 6302,
    "eak": 6303,
    "ich": 6304,
    "oto": 6305,
    "stw": 6306,
    "appe": 6307,
    "bcdc": 6308,
    "each": 6309,
    "ffee": 6310,
    "task": 6311,
    "team": 6312,
    "tinu": 6313,
    "\u2581sem": 6314,
    "cbcef": 6315,
    "dcbac": 6316,
    "fcddd": 6317,
    "initi": 6318,
    "ities": 6319,
    "mouseb": 6320,
    "uttons": 6321,
    "\u2581level": 6322,
    "\u2581conver": 6323,
    "ecutable": 6324,
    "tousethis": 6325,
    "\u2581isrunning": 6326,
    "oraryfolder": 6327,
    "\u2581synchronize": 6328,
    "\u2581setbrushorgex": 6329,
    "dhy": 6330,
    "iat": 6331,
    "toa": 6332,
    "\u2581ep": 6333,
    "dfed": 6334,
    "gert": 6335,
    "komm": 6336,
    "mote": 6337,
    "tyus": 6338,
    "\u2581led": 6339,
    "\u2581snd": 6340,
    "indic": 6341,
    "mited": 6342,
    "ories": 6343,
    "ronis": 6344,
    "xccaa": 6345,
    "\u2581base": 6346,
    "\u2581edit": 6347,
    "\u2581goto": 6348,
    "buffer": 6349,
    "dhyude": 6350,
    "ersist": 6351,
    "releas": 6352,
    "tyusre": 6353,
    "\u2581extra": 6354,
    "\u2581field": 6355,
    "\u2581ntice": 6356,
    "managem": 6357,
    "motesup": 6358,
    "wanttoc": 6359,
    "\u2581youmay": 6360,
    "assistre": 6361,
    "leasetry": 6362,
    "\u2581package": 6363,
    "\u2581restart": 6364,
    "\u2581strrchr": 6365,
    "incontrol": 6366,
    "\u2581associat": 6367,
    "\u2581imagehlp": 6368,
    "\u2581pleasere": 6369,
    "\u2581gdipclone": 6370,
    "\u2581pleasetry": 6371,
    "\u2581cannotfind": 6372,
    "\u2581huidtyusre": 6373,
    "\u2581polkdhyude": 6374,
    "errormessage": 6375,
    "mousebuttons": 6376,
    "\u2581gotoassistre": 6377,
    "\u2581internetquery": 6378,
    "\u2581createdibitmap": 6379,
    "\u2581fatalerrordetected": 6380,
    "\u2581gotoassistremotesup": 6381,
    "\u2581pleasetrytodownload": 6382,
    "\u2581getnumberofconsolemousebuttons": 6383,
    "ml": 6384,
    "yt": 6385,
    "kso": 6386,
    "xto": 6387,
    "dede": 6388,
    "ffdd": 6389,
    "vect": 6390,
    "xaba": 6391,
    "\u2581gcc": 6392,
    "\u2581vsw": 6393,
    "ester": 6394,
    "selec": 6395,
    "tinel": 6396,
    "arecon": 6397,
    "define": 6398,
    "mustbe": 6399,
    "office": 6400,
    "opened": 6401,
    "playso": 6402,
    "\u2581black": 6403,
    "\u2581opene": 6404,
    "\u2581thist": 6405,
    "\u2581white": 6406,
    "execute": 6407,
    "setting": 6408,
    "\u2581person": 6409,
    "letitlea": 6410,
    "\u2581updaten": 6411,
    "\u2581installm": 6412,
    "\u2581interval": 6413,
    "\u2581varianti": 6414,
    "playsounda": 6415,
    "\u2581movefileexa": 6416,
    "printerdriver": 6417,
    "\u2581sndplaysounda": 6418,
    "\u2581interlockedexchangeadd": 6419,
    "wo": 6420,
    "eem": 6421,
    "noc": 6422,
    "into": 6423,
    "modi": 6424,
    "more": 6425,
    "orry": 6426,
    "ourc": 6427,
    "step": 6428,
    "umbn": 6429,
    "xdfc": 6430,
    "\u2581env": 6431,
    "eeded": 6432,
    "eexpi": 6433,
    "ftone": 6434,
    "xthis": 6435,
    "accord": 6436,
    "exists": 6437,
    "groups": 6438,
    "manual": 6439,
    "necess": 6440,
    "\u2581large": 6441,
    "\u2581other": 6442,
    "\u2581sorry": 6443,
    "\u2581sourc": 6444,
    "actyour": 6445,
    "ecolors": 6446,
    "foreach": 6447,
    "fromthe": 6448,
    "openthe": 6449,
    "removed": 6450,
    "removet": 6451,
    "vectore": 6452,
    "\u2581getenv": 6453,
    "\u2581ledger": 6454,
    "\u2581locale": 6455,
    "advanced": 6456,
    "halftone": 6457,
    "manually": 6458,
    "selected": 6459,
    "\u2581limited": 6460,
    "selectall": 6461,
    "utilities": 6462,
    "\u2581ungltige": 6463,
    "\u2581associate": 6464,
    "halftonepalette": 6465,
    "\u2581sourcedirectory": 6466,
    "vectoredexception": 6467,
    "ingthisapplication": 6468,
    "\u2581createhalftonepalette": 6469,
    "aem": 6470,
    "bye": 6471,
    "hen": 6472,
    "ifc": 6473,
    "isa": 6474,
    "lwh": 6475,
    "ofd": 6476,
    "woo": 6477,
    "abou": 6478,
    "actp": 6479,
    "adob": 6480,
    "alli": 6481,
    "arag": 6482,
    "asac": 6483,
    "civi": 6484,
    "easy": 6485,
    "edvi": 6486,
    "exew": 6487,
    "extr": 6488,
    "faxo": 6489,
    "gniz": 6490,
    "inci": 6491,
    "inda": 6492,
    "ived": 6493,
    "lauf": 6494,
    "ldxf": 6495,
    "nexe": 6496,
    "none": 6497,
    "ofor": 6498,
    "ofyo": 6499,
    "onab": 6500,
    "oold": 6501,
    "orby": 6502,
    "orfa": 6503,
    "owse": 6504,
    "oyou": 6505,
    "rete": 6506,
    "sare": 6507,
    "seem": 6508,
    "till": 6509,
    "tine": 6510,
    "tobe": 6511,
    "usho": 6512,
    "utno": 6513,
    "ynow": 6514,
    "\u2581dxf": 6515,
    "\u2581fax": 6516,
    "\u2581nob": 6517,
    "\u2581now": 6518,
    "\u2581tof": 6519,
    "\u2581tog": 6520,
    "\u2581usb": 6521,
    "\u2581viz": 6522,
    "aemai": 6523,
    "alarg": 6524,
    "andth": 6525,
    "aninf": 6526,
    "autoc": 6527,
    "becop": 6528,
    "bitsw": 6529,
    "cefde": 6530,
    "chool": 6531,
    "coder": 6532,
    "dcadd": 6533,
    "dfory": 6534,
    "doyou": 6535,
    "dvbor": 6536,
    "eakui": 6537,
    "ecebf": 6538,
    "eclos": 6539,
    "edbya": 6540,
    "faxit": 6541,
    "formp": 6542,
    "getoc": 6543,
    "guide": 6544,
    "inany": 6545,
    "inite": 6546,
    "isins": 6547,
    "links": 6548,
    "lpdfd": 6549,
    "mbtob": 6550,
    "newit": 6551,
    "ommen": 6552,
    "opies": 6553,
    "orpur": 6554,
    "pleus": 6555,
    "raphs": 6556,
    "sgrey": 6557,
    "since": 6558,
    "snode": 6559,
    "ssoft": 6560,
    "studi": 6561,
    "synch": 6562,
    "thome": 6563,
    "tocon": 6564,
    "trati": 6565,
    "useth": 6566,
    "white": 6567,
    "wills": 6568,
    "withe": 6569,
    "would": 6570,
    "\u2581adef": 6571,
    "\u2581anew": 6572,
    "\u2581ares": 6573,
    "\u2581city": 6574,
    "\u2581duet": 6575,
    "\u2581grey": 6576,
    "\u2581lets": 6577,
    "\u2581lpdf": 6578,
    "\u2581oldd": 6579,
    "\u2581road": 6580,
    "\u2581runt": 6581,
    "\u2581save": 6582,
    "\u2581usef": 6583,
    "abatch": 6584,
    "allthe": 6585,
    "andthe": 6586,
    "andyou": 6587,
    "arebeh": 6588,
    "artner": 6589,
    "aryinc": 6590,
    "aseofa": 6591,
    "blocks": 6592,
    "byeach": 6593,
    "dongle": 6594,
    "eceive": 6595,
    "electa": 6596,
    "ertedc": 6597,
    "ewhich": 6598,
    "faxore": 6599,
    "fileif": 6600,
    "filled": 6601,
    "forthe": 6602,
    "foryou": 6603,
    "hatchs": 6604,
    "hefile": 6605,
    "houtsa": 6606,
    "initiv": 6607,
    "itself": 6608,
    "itwill": 6609,
    "letter": 6610,
    "letyou": 6611,
    "ofazip": 6612,
    "ofdate": 6613,
    "ornode": 6614,
    "pixels": 6615,
    "sample": 6616,
    "saveas": 6617,
    "school": 6618,
    "sionsb": 6619,
    "spaper": 6620,
    "swillb": 6621,
    "ticons": 6622,
    "upteam": 6623,
    "ustill": 6624,
    "wantci": 6625,
    "warded": 6626,
    "\u2581brows": 6627,
    "\u2581butno": 6628,
    "\u2581donot": 6629,
    "\u2581exeto": 6630,
    "\u2581oldor": 6631,
    "\u2581onthe": 6632,
    "\u2581sende": 6633,
    "\u2581sview": 6634,
    "\u2581userp": 6635,
    "adongle": 6636,
    "againci": 6637,
    "alicenc": 6638,
    "alizedp": 6639,
    "andnode": 6640,
    "andreco": 6641,
    "andrema": 6642,
    "anymore": 6643,
    "askwill": 6644,
    "ateyour": 6645,
    "ationto": 6646,
    "bechang": 6647,
    "bemanag": 6648,
    "ccceecd": 6649,
    "civilen": 6650,
    "codehas": 6651,
    "confirm": 6652,
    "datnext": 6653,
    "dforpar": 6654,
    "eceived": 6655,
    "ediatec": 6656,
    "edpleas": 6657,
    "eedwith": 6658,
    "entasac": 6659,
    "exewill": 6660,
    "expired": 6661,
    "filesto": 6662,
    "foranew": 6663,
    "formdxf": 6664,
    "foryour": 6665,
    "gineers": 6666,
    "heckbox": 6667,
    "illorby": 6668,
    "istoold": 6669,
    "ivemode": 6670,
    "namethe": 6671,
    "ofyoure": 6672,
    "onlythe": 6673,
    "openisa": 6674,
    "orfaxto": 6675,
    "pagetoc": 6676,
    "passive": 6677,
    "pdffile": 6678,
    "quitwit": 6679,
    "renamee": 6680,
    "ronised": 6681,
    "schools": 6682,
    "seemsto": 6683,
    "studies": 6684,
    "success": 6685,
    "swithan": 6686,
    "thecomp": 6687,
    "thissec": 6688,
    "tivated": 6689,
    "toenter": 6690,
    "uldcopy": 6691,
    "viewthe": 6692,
    "withthe": 6693,
    "woodcon": 6694,
    "yprefer": 6695,
    "\u2581alldxf": 6696,
    "\u2581belong": 6697,
    "\u2581borrow": 6698,
    "\u2581browse": 6699,
    "\u2581mustbe": 6700,
    "\u2581nobeep": 6701,
    "\u2581sclock": 6702,
    "\u2581smalli": 6703,
    "\u2581thesen": 6704,
    "\u2581thumbn": 6705,
    "\u2581toggle": 6706,
    "\u2581uncomp": 6707,
    "\u2581youcan": 6708,
    "\u2581yousho": 6709,
    "aemailwh": 6710,
    "alicense": 6711,
    "andbegin": 6712,
    "anetwork": 6713,
    "backupso": 6714,
    "becopied": 6715,
    "bitswhen": 6716,
    "deleteit": 6717,
    "deleteth": 6718,
    "dforyour": 6719,
    "directly": 6720,
    "efaxthis": 6721,
    "filesare": 6722,
    "findyour": 6723,
    "foracode": 6724,
    "gistries": 6725,
    "gnizedby": 6726,
    "inishthe": 6727,
    "keyisins": 6728,
    "lastmodi": 6729,
    "linesand": 6730,
    "modified": 6731,
    "newcodes": 6732,
    "nexttime": 6733,
    "notvalid": 6734,
    "numberof": 6735,
    "ofallzip": 6736,
    "ommended": 6737,
    "printing": 6738,
    "releases": 6739,
    "spersist": 6740,
    "stepwill": 6741,
    "stweakui": 6742,
    "thisfile": 6743,
    "tobedeac": 6744,
    "updateit": 6745,
    "usertype": 6746,
    "versions": 6747,
    "whichare": 6748,
    "wouldlik": 6749,
    "\u2581address": 6750,
    "\u2581checkif": 6751,
    "\u2581company": 6752,
    "\u2581copyall": 6753,
    "\u2581country": 6754,
    "\u2581explode": 6755,
    "\u2581foundin": 6756,
    "\u2581getanew": 6757,
    "\u2581getinfo": 6758,
    "\u2581letsyou": 6759,
    "\u2581loaddxf": 6760,
    "\u2581mailnow": 6761,
    "\u2581minutes": 6762,
    "\u2581opening": 6763,
    "\u2581playthe": 6764,
    "\u2581pleaser": 6765,
    "\u2581remover": 6766,
    "\u2581removes": 6767,
    "\u2581runthis": 6768,
    "\u2581samples": 6769,
    "\u2581sendbye": 6770,
    "\u2581sentine": 6771,
    "\u2581setupth": 6772,
    "\u2581skipdow": 6773,
    "\u2581supfrom": 6774,
    "\u2581thecode": 6775,
    "\u2581toorder": 6776,
    "\u2581touseth": 6777,
    "\u2581whennoc": 6778,
    "\u2581withnet": 6779,
    "\u2581xchange": 6780,
    "\u2581yourweb": 6781,
    "afloating": 6782,
    "amedinexe": 6783,
    "andthenew": 6784,
    "andupdate": 6785,
    "aragraphs": 6786,
    "autocadob": 6787,
    "avedwithe": 6788,
    "browseron": 6789,
    "bycadwork": 6790,
    "companies": 6791,
    "dfilescon": 6792,
    "electable": 6793,
    "endavalid": 6794,
    "ethisfile": 6795,
    "etoanswer": 6796,
    "extralarg": 6797,
    "fications": 6798,
    "filesnode": 6799,
    "fromthecd": 6800,
    "ifcorrect": 6801,
    "intotexts": 6802,
    "lautility": 6803,
    "letefiles": 6804,
    "licenseis": 6805,
    "licensing": 6806,
    "opiesarec": 6807,
    "oyourlast": 6808,
    "perfaxore": 6809,
    "phonewith": 6810,
    "removethe": 6811,
    "renamethe": 6812,
    "sandfaxit": 6813,
    "succeeded": 6814,
    "thebutton": 6815,
    "thomepage": 6816,
    "toconvert": 6817,
    "tratiofor": 6818,
    "validcode": 6819,
    "viewerfor": 6820,
    "\u2581andwrite": 6821,
    "\u2581arelease": 6822,
    "\u2581codeexpi": 6823,
    "\u2581concrete": 6824,
    "\u2581contactp": 6825,
    "\u2581havebeen": 6826,
    "\u2581inpixels": 6827,
    "\u2581notvalid": 6828,
    "\u2581olddoyou": 6829,
    "\u2581parallel": 6830,
    "\u2581previous": 6831,
    "\u2581sdetails": 6832,
    "\u2581semester": 6833,
    "\u2581timberen": 6834,
    "\u2581training": 6835,
    "\u2581usereasy": 6836,
    "\u2581whenopen": 6837,
    "abatchfile": 6838,
    "acodebefor": 6839,
    "allplotter": 6840,
    "allthekeys": 6841,
    "andinstall": 6842,
    "aninfinite": 6843,
    "arebehinda": 6844,
    "arecontinu": 6845,
    "aredisplay": 6846,
    "backwarded": 6847,
    "beforeclos": 6848,
    "computerid": 6849,
    "defaultpdf": 6850,
    "expiration": 6851,
    "extensions": 6852,
    "formations": 6853,
    "formatlike": 6854,
    "houtsaving": 6855,
    "informedvi": 6856,
    "lpdfdriver": 6857,
    "orpurpleus": 6858,
    "pointingto": 6859,
    "setcadwork": 6860,
    "ssoftwares": 6861,
    "stoyourkey": 6862,
    "swithinany": 6863,
    "thisupdate": 6864,
    "toaprinter": 6865,
    "updateyour": 6866,
    "xtensionsb": 6867,
    "\u2581cadworkis": 6868,
    "\u2581cancelthe": 6869,
    "\u2581codornode": 6870,
    "\u2581converter": 6871,
    "\u2581deletethe": 6872,
    "\u2581exefolder": 6873,
    "\u2581fileright": 6874,
    "\u2581forlicenc": 6875,
    "\u2581ifproblem": 6876,
    "\u2581inrelease": 6877,
    "\u2581installit": 6878,
    "\u2581installto": 6879,
    "\u2581lastfiles": 6880,
    "\u2581launchweb": 6881,
    "\u2581listicons": 6882,
    "\u2581outofdate": 6883,
    "\u2581overwrite": 6884,
    "\u2581samplesto": 6885,
    "\u2581selectall": 6886,
    "\u2581telephone": 6887,
    "\u2581toreceive": 6888,
    "\u2581tutorials": 6889,
    "\u2581updatenow": 6890,
    "\u2581vswprintf": 6891,
    "\u2581willberen": 6892,
    "\u2581youmaynow": 6893,
    "\u2581youwillbe": 6894,
    "\u2581zipitwill": 6895,
    "accordingto": 6896,
    "alizedpaper": 6897,
    "andbeginner": 6898,
    "anewcadwork": 6899,
    "automaticli": 6900,
    "dforparalle": 6901,
    "directoryto": 6902,
    "doyoureally": 6903,
    "doyouwantto": 6904,
    "eceivedfrom": 6905,
    "edpleaserun": 6906,
    "ethelicence": 6907,
    "fileifexist": 6908,
    "foranewcode": 6909,
    "forcreating": 6910,
    "ftpdownload": 6911,
    "groundwhite": 6912,
    "isalreadyup": 6913,
    "isavailable": 6914,
    "licencescan": 6915,
    "noneofyoure": 6916,
    "onabillorby": 6917,
    "onexercises": 6918,
    "proceedwith": 6919,
    "renameevery": 6920,
    "softwaresin": 6921,
    "thecatalogs": 6922,
    "timebetween": 6923,
    "tineldriver": 6924,
    "tinstalling": 6925,
    "wantthissec": 6926,
    "willselecta": 6927,
    "withcadwork": 6928,
    "\u2581adefinitiv": 6929,
    "\u2581browseyour": 6930,
    "\u2581cadworkweb": 6931,
    "\u2581codandnode": 6932,
    "\u2581convertnow": 6933,
    "\u2581defaultpdf": 6934,
    "\u2581doyoustill": 6935,
    "\u2581dxfoptions": 6936,
    "\u2581ftppassive": 6937,
    "\u2581largeicons": 6938,
    "\u2581mycomputer": 6939,
    "\u2581pleasesend": 6940,
    "\u2581smallicons": 6941,
    "\u2581systeminfo": 6942,
    "\u2581thisclient": 6943,
    "\u2581thumbnails": 6944,
    "\u2581transformp": 6945,
    "\u2581updateonly": 6946,
    "\u2581usersguide": 6947,
    "\u2581yourschool": 6948,
    "andremainder": 6949,
    "andthecodeis": 6950,
    "aryincaseofa": 6951,
    "bemanagedbya": 6952,
    "byeachsaveas": 6953,
    "cadworklayer": 6954,
    "cadworkstart": 6955,
    "computertime": 6956,
    "demolicences": 6957,
    "ecadworkwith": 6958,
    "ecallingyour": 6959,
    "edinexplorer": 6960,
    "expiredsince": 6961,
    "filesalready": 6962,
    "foracodefile": 6963,
    "forthelicenc": 6964,
    "hotlinefirst": 6965,
    "indicateyour": 6966,
    "letyoudecomp": 6967,
    "loadingfiles": 6968,
    "managementin": 6969,
    "securitycopy": 6970,
    "swillbechang": 6971,
    "synchronised": 6972,
    "toyourdealer": 6973,
    "willbeupdate": 6974,
    "\u2581anewversion": 6975,
    "\u2581bakfilesare": 6976,
    "\u2581callcadwork": 6977,
    "\u2581choosewhich": 6978,
    "\u2581contactyour": 6979,
    "\u2581dateseemsto": 6980,
    "\u2581demoversion": 6981,
    "\u2581deselectall": 6982,
    "\u2581dialogsgrey": 6983,
    "\u2581directories": 6984,
    "\u2581downloadnow": 6985,
    "\u2581doyouwantci": 6986,
    "\u2581newversions": 6987,
    "\u2581notvalidfor": 6988,
    "\u2581ontheitself": 6989,
    "\u2581passivemode": 6990,
    "\u2581recommended": 6991,
    "\u2581setsforeach": 6992,
    "\u2581showdetails": 6993,
    "\u2581tofinishthe": 6994,
    "\u2581youmustquit": 6995,
    "\u2581yourrequest": 6996,
    "\u2581yoursupteam": 6997,
    "aemailwhenthe": 6998,
    "allzipfilesto": 6999,
    "anduserprofil": 7000,
    "anetworkdrive": 7001,
    "bitsreleaseto": 7002,
    "currentschool": 7003,
    "datnextlaunch": 7004,
    "driveristoold": 7005,
    "ecatalogsfrom": 7006,
    "ectsdirectory": 7007,
    "entasacadwork": 7008,
    "errormessages": 7009,
    "foryouroffice": 7010,
    "linesandtexts": 7011,
    "ontheinternet": 7012,
    "optiontoenter": 7013,
    "pagetocadwork": 7014,
    "printerspaper": 7015,
    "protectionasa": 7016,
    "removecadwork": 7017,
    "selectedsound": 7018,
    "sondefaultpdf": 7019,
    "stoyourdealer": 7020,
    "strumentation": 7021,
    "updateprocess": 7022,
    "uritytobedeac": 7023,
    "wanttoquitwit": 7024,
    "\u2581alldxflayers": 7025,
    "\u2581choosefolder": 7026,
    "\u2581dirdirectory": 7027,
    "\u2581directoryfor": 7028,
    "\u2581displayagain": 7029,
    "\u2581donotdisplay": 7030,
    "\u2581downloadfrom": 7031,
    "\u2581downloadsthe": 7032,
    "\u2581editthisfile": 7033,
    "\u2581fieldswithan": 7034,
    "\u2581generalsetup": 7035,
    "\u2581isselectable": 7036,
    "\u2581mustbefilled": 7037,
    "\u2581nextstepwill": 7038,
    "\u2581oldandthenew": 7039,
    "\u2581saveinterval": 7040,
    "\u2581skipdownload": 7041,
    "\u2581starttocreat": 7042,
    "\u2581thedirectory": 7043,
    "\u2581thistaskwill": 7044,
    "\u2581transformdxf": 7045,
    "\u2581unitratiofor": 7046,
    "\u2581youcandelete": 7047,
    "\u2581youmayprefer": 7048,
    "\u2581youmustclose": 7049,
    "\u2581yourkeyisins": 7050,
    "andyouwouldlik": 7051,
    "cadworkmodules": 7052,
    "catalogsfolder": 7053,
    "civilengineers": 7054,
    "codehasalready": 7055,
    "confirmationto": 7056,
    "ertedcorrectly": 7057,
    "executebetween": 7058,
    "incontrolpanel": 7059,
    "ingyourstudies": 7060,
    "mbtobedownload": 7061,
    "mustbeinstalle": 7062,
    "numberofpoints": 7063,
    "problemwiththe": 7064,
    "setcadworkcode": 7065,
    "thiscomputerid": 7066,
    "thiscomputerin": 7067,
    "viewthelogfile": 7068,
    "wanttocontinue": 7069,
    "wanttodeleteit": 7070,
    "\u2581alreadyexists": 7071,
    "\u2581aresavedwithe": 7072,
    "\u2581backupedfiles": 7073,
    "\u2581borrowlicence": 7074,
    "\u2581cadworkconfig": 7075,
    "\u2581cannotopenthe": 7076,
    "\u2581convertblocks": 7077,
    "\u2581createthefile": 7078,
    "\u2581directorywith": 7079,
    "\u2581duetoyourlast": 7080,
    "\u2581enteryourcode": 7081,
    "\u2581extraprinting": 7082,
    "\u2581installdongle": 7083,
    "\u2581intermediatec": 7084,
    "\u2581internetlinks": 7085,
    "\u2581letsyoudefine": 7086,
    "\u2581loaddxfhatchs": 7087,
    "\u2581pleasecheckit": 7088,
    "\u2581pleasefaxthis": 7089,
    "\u2581pleaserestart": 7090,
    "\u2581sclocksetting": 7091,
    "\u2581selectadongle": 7092,
    "\u2581selectalicenc": 7093,
    "\u2581togglebetween": 7094,
    "\u2581tooltoconvert": 7095,
    "\u2581uncompressthe": 7096,
    "\u2581updatesuccess": 7097,
    "\u2581usefullscreen": 7098,
    "\u2581withnetviewer": 7099,
    "\u2581youshouldcopy": 7100,
    "aboutinstalling": 7101,
    "allplotterframe": 7102,
    "allyourdrawings": 7103,
    "andrecognizedby": 7104,
    "canworkdirectly": 7105,
    "ecodeisvalidfor": 7106,
    "ethisfileforyou": 7107,
    "exewillbecopied": 7108,
    "fromtheinternet": 7109,
    "fromtheregistry": 7110,
    "hasbeenmodified": 7111,
    "incadworkgroups": 7112,
    "messagenexttime": 7113,
    "onlythelastmodi": 7114,
    "opiesarecreated": 7115,
    "printerdriverif": 7116,
    "readytodownload": 7117,
    "samplefilesfrom": 7118,
    "swillbemodified": 7119,
    "temporaryfolder": 7120,
    "tousethisoption": 7121,
    "\u2581alllicencescan": 7122,
    "\u2581butnovalidcode": 7123,
    "\u2581changepassword": 7124,
    "\u2581checkifservice": 7125,
    "\u2581clickthebutton": 7126,
    "\u2581codeexpiration": 7127,
    "\u2581contactpartner": 7128,
    "\u2581defaultprinter": 7129,
    "\u2581defineusertype": 7130,
    "\u2581filesattribute": 7131,
    "\u2581getanewlicence": 7132,
    "\u2581initialization": 7133,
    "\u2581mycomputername": 7134,
    "\u2581openingthefile": 7135,
    "\u2581printingwithin": 7136,
    "\u2581releaselicence": 7137,
    "\u2581removeregistry": 7138,
    "\u2581runthisprogram": 7139,
    "\u2581setupthecolors": 7140,
    "\u2581timberengineer": 7141,
    "\u2581toreceiveacode": 7142,
    "\u2581whennocheckbox": 7143,
    "\u2581youmayfindyour": 7144,
    "\u2581yourdownloaded": 7145,
    "backupsoverwrite": 7146,
    "codereceivedfrom": 7147,
    "createdbycadwork": 7148,
    "deletethecadwork": 7149,
    "dfilesconversion": 7150,
    "formatlikeletter": 7151,
    "numberisnotvalid": 7152,
    "thecompletefiles": 7153,
    "userprofilfolder": 7154,
    "woodconstruction": 7155,
    "youwanttoopenisa": 7156,
    "\u2581afterexpiration": 7157,
    "\u2581backgroundwhite": 7158,
    "\u2581filerightbutton": 7159,
    "\u2581ifyouarebehinda": 7160,
    "\u2581ifyouarecontinu": 7161,
    "\u2581installautility": 7162,
    "\u2581lastfilesopened": 7163,
    "\u2581pleasecheckthat": 7164,
    "\u2581sentineldongles": 7165,
    "\u2581standardversion": 7166,
    "\u2581synchronization": 7167,
    "\u2581synchronizeyour": 7168,
    "\u2581toorderalicense": 7169,
    "allcadworkdrawing": 7170,
    "anduserprofilfrom": 7171,
    "bitswhenavailable": 7172,
    "downloadandupdate": 7173,
    "edownloadnewcodes": 7174,
    "forcadworkwindows": 7175,
    "fromtheregistries": 7176,
    "licenceforschools": 7177,
    "licenseisextended": 7178,
    "onexercisesfolder": 7179,
    "pdffileswithinany": 7180,
    "stweakuiutilities": 7181,
    "thelatestreleases": 7182,
    "\u2581alreadyinstalled": 7183,
    "\u2581belongstoyourkey": 7184,
    "\u2581cadworkinstaller": 7185,
    "\u2581checkforanewcode": 7186,
    "\u2581copyallfilesfrom": 7187,
    "\u2581dailyautomaticli": 7188,
    "\u2581installpdfdriver": 7189,
    "\u2581internethomepage": 7190,
    "\u2581mailyourcomputer": 7191,
    "\u2581openexistingfile": 7192,
    "\u2581pleasesendavalid": 7193,
    "\u2581whenopeningafile": 7194,
    "\u2581xchangeisalready": 7195,
    "\u2581yourclientnumber": 7196,
    "\u2581yourcomputertime": 7197,
    "allcadworkdrawings": 7198,
    "aragraphsintotexts": 7199,
    "backupsaccordingto": 7200,
    "dforyourcomputerid": 7201,
    "edpleaserunagainci": 7202,
    "etocontinueworking": 7203,
    "havebeenbackwarded": 7204,
    "ldonglesorpurpleus": 7205,
    "necessaryincaseofa": 7206,
    "ofcadworkisalready": 7207,
    "renamethedirectory": 7208,
    "succesfullycreated": 7209,
    "succesfullyupdated": 7210,
    "timebetweenbackups": 7211,
    "updateyourcatalogs": 7212,
    "whicharedownloaded": 7213,
    "\u2581downloadsucceeded": 7214,
    "\u2581doyouwanttodelete": 7215,
    "\u2581hideerrormessages": 7216,
    "\u2581ifproblemspersist": 7217,
    "\u2581launchanewcadwork": 7218,
    "\u2581personalizedpaper": 7219,
    "\u2581printslaserframes": 7220,
    "\u2581printyourcomputer": 7221,
    "\u2581sdetailsperfaxore": 7222,
    "\u2581thesentineldriver": 7223,
    "\u2581tocreateafloating": 7224,
    "advancedandbeginner": 7225,
    "bemanagedbyawindows": 7226,
    "cadworkhotlinefirst": 7227,
    "dimensionsincadwork": 7228,
    "directorieshavebeen": 7229,
    "doyouwanttoupdateit": 7230,
    "followingextensions": 7231,
    "letyoudecompressthe": 7232,
    "licenceforcompanies": 7233,
    "ofcadworkaredisplay": 7234,
    "willselectastandard": 7235,
    "\u2581browseyourcomputer": 7236,
    "\u2581cadworkftpdownload": 7237,
    "\u2581clientinformations": 7238,
    "\u2581downloadandinstall": 7239,
    "\u2581doyouwanttorenewit": 7240,
    "\u2581installationfailed": 7241,
    "\u2581launchwebbrowseron": 7242,
    "\u2581pleaseindicateyour": 7243,
    "\u2581shortcutpointingto": 7244,
    "\u2581tocreateaninfinite": 7245,
    "\u2581willberenamedinexe": 7246,
    "\u2581yourcustomernumber": 7247,
    "ecallingyourhelpdesk": 7248,
    "ofcadworkisavailable": 7249,
    "onabillorbyphonewith": 7250,
    "sondefaultpdfprinter": 7251,
    "stothedefaultplotter": 7252,
    "stothedefaultprinter": 7253,
    "uritytobedeactivated": 7254,
    "\u2581cannotfindfilesnode": 7255,
    "\u2581contactyourhelpdesk": 7256,
    "\u2581donotdisplayanymore": 7257,
    "\u2581forlicencingcadwork": 7258,
    "\u2581installtheviewerfor": 7259,
    "\u2581openanexploreronthe": 7260,
    "\u2581skipdowloadingfiles": 7261,
    "\u2581windowsmanagementin": 7262,
    "\u2581youwillbeinformedvi": 7263,
    "forthelicencetoanswer": 7264,
    "optiontoenteryourcode": 7265,
    "proceedwiththisupdate": 7266,
    "sandfaxittoyourdealer": 7267,
    "\u2581associatecadworkwith": 7268,
    "\u2581cadworkisinstalledon": 7269,
    "\u2581cadworkprinterspaper": 7270,
    "\u2581choosewhichreleaseto": 7271,
    "\u2581connectiontoaprinter": 7272,
    "\u2581initializethelicence": 7273,
    "\u2581installprotectionasa": 7274,
    "\u2581launchcadworkmodules": 7275,
    "\u2581overwritefileifexist": 7276,
    "\u2581playtheselectedsound": 7277,
    "\u2581pleasecheckifcorrect": 7278,
    "\u2581tousethentasacadwork": 7279,
    "\u2581zipitwillrenameevery": 7280,
    "extralargecatalogsfrom": 7281,
    "filesalreadydownloaded": 7282,
    "noneofyourexistingfile": 7283,
    "\u2581attributeswillbechang": 7284,
    "\u2581displayagainthiserror": 7285,
    "\u2581duetoyourlastcomputer": 7286,
    "\u2581enteryourcodemanually": 7287,
    "\u2581intermediatedirectory": 7288,
    "\u2581limitednumberofpoints": 7289,
    "\u2581pleasecallyourhotline": 7290,
    "\u2581printsallplotterframe": 7291,
    "\u2581unitratioforautocadob": 7292,
    "canworkdirectlyonyourpc": 7293,
    "pagetocadworkinformatik": 7294,
    "wanttoquitwithoutsaving": 7295,
    "\u2581amountofmbtobedownload": 7296,
    "\u2581cannotopenthedirectory": 7297,
    "\u2581doyoureallywantthissec": 7298,
    "\u2581olddoyouwanttocontinue": 7299,
    "\u2581pleasesendyourcomputer": 7300,
    "\u2581removesfromtheregistry": 7301,
    "\u2581semesterconfirmationto": 7302,
    "\u2581theprogramwillbeupdate": 7303,
    "\u2581thisprogramisalreadyup": 7304,
    "\u2581trainingandyouwouldlik": 7305,
    "\u2581unsetthedownloadofazip": 7306,
    "exewillbecopiedfromthecd": 7307,
    "onlythelastmodifications": 7308,
    "updatecadworksoftwaresin": 7309,
    "\u2581aresavedwithextensionsb": 7310,
    "\u2581ifyouarebehindafirewall": 7311,
    "\u2581notvalidfordemolicences": 7312,
    "\u2581thefileyouwanttoopenisa": 7313,
    "\u2581utilitytosetcadworkcode": 7314,
    "installedonthiscomputerin": 7315,
    "mustbeinstalledforparalle": 7316,
    "\u2581dailyautomaticliveupdate": 7317,
    "\u2581downloadthecompletefiles": 7318,
    "\u2581doyoustillwanttodeleteit": 7319,
    "\u2581pleaseredownloadnewcodes": 7320,
    "\u2581printingwithinabatchfile": 7321,
    "\u2581selectalicencetocontinue": 7322,
    "\u2581tofinishtheupdateprocess": 7323,
    "\u2581unsetthedownloadofallzip": 7324,
    "allthekeyscreatedbycadwork": 7325,
    "codehasalreadyexpiredsince": 7326,
    "ldonglesorpurpleusbdongles": 7327,
    "problemwiththeoriginalfile": 7328,
    "\u2581adefinitivecodeisvalidfor": 7329,
    "\u2581butnovalidcodehasbeenfoun": 7330,
    "\u2581filesattributeindirectory": 7331,
    "\u2581installmstweakuiutilities": 7332,
    "\u2581sinformationstoyourdealer": 7333,
    "\u2581xchangeisalreadyinstalled": 7334,
    "\u2581youmaynowdeletethecadwork": 7335,
    "allcadworkdrawingbeforeclos": 7336,
    "andrecognizedbycadworkstart": 7337,
    "andthecodeisreadytodownload": 7338,
    "opiesarecreatedbyeachsaveas": 7339,
    "\u2581areleaseofcadworkisalready": 7340,
    "\u2581cadworkwillselectastandard": 7341,
    "\u2581callcadworktousethisoption": 7342,
    "\u2581couldnotrenamethedirectory": 7343,
    "\u2581doyoureallywanttoremovethe": 7344,
    "\u2581extraprintingconfiguration": 7345,
    "\u2581getanewlicencefrominternet": 7346,
    "\u2581havebeensuccesfullyupdated": 7347,
    "\u2581informationaboutinstalling": 7348,
    "\u2581installautilityforcreating": 7349,
    "\u2581intervaltimebetweenbackups": 7350,
    "\u2581setsforeachprinterdriverif": 7351,
    "\u2581thisclientnumberisnotvalid": 7352,
    "\u2581youmayfindyourclientnumber": 7353,
    "\u2581yourkeyisinsertedcorrectly": 7354,
    "\u2581yourweblicencewillexpirein": 7355,
    "\u2581youshouldcopyallzipfilesto": 7356,
    "backupsoverwriteoriginalfile": 7357,
    "pdffileswithinanyapplication": 7358,
    "thecatalogsanduserprofilfrom": 7359,
    "\u2581doyouwanttoreviewthelogfile": 7360,
    "\u2581starttocreatethisfileforyou": 7361,
    "etocontinueworkingwithcadwork": 7362,
    "ingthisapplicationdoyoureally": 7363,
    "thelatestreleasesfrominternet": 7364,
    "\u2581convertblocksincadworkgroups": 7365,
    "\u2581sentineldonglesdriveristoold": 7366,
    "\u2581transformparagraphsintotexts": 7367,
    "acodebeforecallingyourhelpdesk": 7368,
    "aemailwhenthelicenseisextended": 7369,
    "removecadworkfromtheregistries": 7370,
    "\u2581bakfilesarenecessaryincaseofa": 7371,
    "\u2581dateseemstohavebeenbackwarded": 7372,
    "\u2581doyouwanttoupdateyourcatalogs": 7373,
    "\u2581ifyouarecontinuingyourstudies": 7374,
    "\u2581installationforcivilengineers": 7375,
    "\u2581pleasesendavalidcurrentschool": 7376,
    "\u2581selectanoptiontoenteryourcode": 7377,
    "\u2581thumbnailsofcadworkaredisplay": 7378,
    "\u2581tousethentasacadworklicensing": 7379,
    "\u2581userprofildirectorieshavebeen": 7380,
    "\u2581youmustquitallcadworkdrawings": 7381,
    "\u2581yourschoollicencewillexpirein": 7382,
    "\u2581browseyourcomputerforacodefile": 7383,
    "\u2581intermediatebackupsaccordingto": 7384,
    "\u2581letsyoudefineyourauthorisation": 7385,
    "\u2581openanexploreroncatalogsfolder": 7386,
    "andremainderstothedefaultprinter": 7387,
    "dimensionsincadworklinesandtexts": 7388,
    "\u2581anewversionofcadworkisavailable": 7389,
    "\u2581installationforwoodconstruction": 7390,
    "\u2581nextstepwillletyoudecompressthe": 7391,
    "\u2581openanexploreronexercisesfolder": 7392,
    "\u2581openanexplorerontemporaryfolder": 7393,
    "\u2581pleasewaitforthelicencetoanswer": 7394,
    "\u2581setupthecolorsforcadworkwindows": 7395,
    "\u2581skipdowloadingfilesfrominternet": 7396,
    "\u2581yourclientnumberhasbeenmodified": 7397,
    "\u2581zipitwillrenameeverydirectoryto": 7398,
    "codereceivedfromyourcadworkdealer": 7399,
    "whicharedownloadedfromtheinternet": 7400,
    "\u2581downloadonlythelastmodifications": 7401,
    "\u2581doyouwanttoproceedwiththisupdate": 7402,
    "\u2581openanexploreronuserprofilfolder": 7403,
    "\u2581pleaseindicateyourcustomernumber": 7404,
    "\u2581togglebetweenadvancedandbeginner": 7405,
    "\u2581windowsmanagementinstrumentation": 7406,
    "\u2581alllicencescanbemanagedbyawindows": 7407,
    "\u2581cadworkisinstalledonanetworkdrive": 7408,
    "\u2581cadworkprinterspaperconfiguration": 7409,
    "\u2581pleasecallyourcadworkhotlinefirst": 7410,
    "\u2581sinformationsandfaxittoyourdealer": 7411,
    "\u2581choosewhichreleasetoexecutebetween": 7412,
    "\u2581doyoureallywanttodownloadandupdate": 7413,
    "\u2581yoursupteamcanworkdirectlyonyourpc": 7414,
    "\u2581thefileyouwanttoopenisasecuritycopy": 7415,
    "\u2581theprogramwillbeupdatedatnextlaunch": 7416,
    "\u2581tocreateaninfinitelicenceforschools": 7417,
    "noneofyourexistingfileswillbemodified": 7418,
    "onabillorbyphonewithyourcadworkdealer": 7419,
    "\u2581displayagainthiserrormessagenexttime": 7420,
    "\u2581oldandthenewexewillbecopiedfromthecd": 7421,
    "\u2581pleasefaxthispagetocadworkinformatik": 7422,
    "\u2581printslaserframesondefaultpdfprinter": 7423,
    "\u2581thistaskwillupdatecadworksoftwaresin": 7424,
    "\u2581tocreateafloatinglicenceforcompanies": 7425,
    "wanttoquitwithoutsavingallyourdrawings": 7426,
    "\u2581allregistriesforcadworkhavebeenremoved": 7427,
    "\u2581allregistriesforcadworkhavebeenupdated": 7428,
    "\u2581adefinitivecodeisvalidforthiscomputerid": 7429,
    "\u2581associatecadworkwithfollowingextensions": 7430,
    "\u2581attributeswillbechangedpleaserunagainci": 7431,
    "\u2581installmstweakuiutilitiesincontrolpanel": 7432,
    "\u2581youmustcloseallcadworkdrawingbeforeclos": 7433,
    "\u2581intermediatebackupsoverwriteoriginalfile": 7434,
    "\u2581intermediatecopiesarecreatedbyeachsaveas": 7435,
    "\u2581yourdownloadedcodehasalreadyexpiredsince": 7436,
    "\u2581printsallplotterframestothedefaultplotter": 7437,
    "\u2581thumbnailsofcadworkaredisplayedinexplorer": 7438,
    "\u2581userprofildirectorieshavebeensynchronised": 7439,
    "\u2581cadworkwillselectastandardformatlikeletter": 7440,
    "\u2581doyoureallywantthissecuritytobedeactivated": 7441,
    "\u2581thesentineldrivermustbeinstalledforparalle": 7442,
    "\u2581butnovalidcodehasbeenfoundforyourcomputerid": 7443,
    "\u2581anewversionofcadworkisavailableontheinternet": 7444,
    "\u2581transformdxfdimensionsincadworklinesandtexts": 7445,
    "\u2581downloadandinstallthelatestreleasesfrominternet": 7446,
    "\u2581doyoureallywanttoremovecadworkfromtheregistries": 7447,
    "\u2581informationaboutinstallingnetworklicenceservice": 7448,
    "\u2581removesfromtheregistryallthekeyscreatedbycadwork": 7449,
    "\u2581pleasetrytodownloadacodebeforecallingyourhelpdesk": 7450,
    "\u2581youwillbeinformedviaemailwhenthelicenseisextended": 7451,
    "\u2581areleaseofcadworkisalreadyinstalledonthiscomputerin": 7452,
    "\u2581downloadfrominternetallregisteredcodesforyouroffice": 7453,
    "\u2581trainingandyouwouldliketocontinueworkingwithcadwork": 7454,
    "\u2581nextstepwillletyoudecompressthefilesalreadydownloaded": 7455,
    "\u2581yourkeyisinsertedcorrectlyandrecognizedbycadworkstart": 7456,
    "\u2581installautilityforcreatingpdffileswithinanyapplication": 7457,
    "\u2581bakfilesarenecessaryincaseofaproblemwiththeoriginalfile": 7458,
    "foranydammageduetotheinstallationorutilisationofitssoftware": 7459,
    "foranydammageduetotheinstallationorutilisationofitssoftwares": 7460,
    "\u2581letsyoudefineyourauthorisationcodereceivedfromyourcadworkdealer": 7461,
    "\u2581youmayfindyourclientnumberonabillorbyphonewithyourcadworkdealer": 7462,
    "fffc": 7463,
    "cebec": 7464,
    "\u2581cert": 7465,
    "dibits": 7466,
    "\u2581strcmpiw": 7467,
    "\u2581executable": 7468,
    "\u2581gdipbitmap": 7469,
    "\u2581downloadfolder": 7470,
    "\u2581createpatternbrush": 7471,
    "hp": 7472,
    "dpi": 7473,
    "xbbc": 7474,
    "\u2581strl": 7475,
    "bafedc": 7476,
    "\u2581adobe": 7477,
    "\u2581ntohl": 7478,
    "corekso": 7479,
    "\u2581conout": 7480,
    "\u2581rectangle": 7481,
    "\u2581zipfilesfrom": 7482,
    "etempdirectory": 7483,
    "vectoredexceptionhandler": 7484,
    "tz": 7485,
    "ild": 7486,
    "acea": 7487,
    "badd": 7488,
    "timeout": 7489,
    "\u2581wcsnicmp": 7490,
    "\u2581failedtocreat": 7491,
    "\u2581downloadcadwork": 7492,
    "frominternettoyourlocaldrive": 7493,
    "\u2581failedtocreatetempdirectory": 7494,
    "\u2581downloadcadworkfrominternettoyourlocaldrive": 7495,
    "caad": 7496,
    "efca": 7497,
    "accff": 7498,
    "cadbc": 7499,
    "caffc": 7500,
    "fcdbe": 7501,
    "licies": 7502,
    "snotan": 7503,
    "\u2581times": 7504,
    "\u2581policies": 7505,
    "snotanarray": 7506,
    "variantarray": 7507,
    "\u2581variantarray": 7508,
    "\u2581showavailable": 7509,
    "\u2581variantisnotanarray": 7510,
    "\u2581getprivateprofileint": 7511,
    "\u2581showavailablelicenceson": 7512,
    "\u2581errorcreatingvariantarray": 7513,
    "\u2581variantarrayindexoutofbounds": 7514,
    "ia": 7515,
    "gon": 7516,
    "lla": 7517,
    "\u2581it": 7518,
    "icht": 7519,
    "sidl": 7520,
    "build": 7521,
    "\u2581purg": 7522,
    "itkomm": 7523,
    "disable": 7524,
    "thisnetwork": 7525,
    "\u2581getbrushorgex": 7526,
    "\u2581gettimeformata": 7527,
    "\u2581showrunninglicencesonthisnetwork": 7528,
    "til": 7529,
    "\u2581qu": 7530,
    "aefb": 7531,
    "bcaa": 7532,
    "vali": 7533,
    "febcb": 7534,
    "isher": 7535,
    "\u2581choo": 7536,
    "keyboard": 7537,
    "\u2581createtimer": 7538,
    "\u2581movefileexw": 7539,
    "\u2581callwindowproca": 7540,
    "\u2581setprocessworkingset": 7541,
    "\u2581showrunninglicencesonthiscomputer": 7542,
    "hsd": 7543,
    "\u2581mt": 7544,
    "fcae": 7545,
    "\u2581war": 7546,
    "cbccd": 7547,
    "slist": 7548,
    "\u2581startup": 7549,
    "\u2581toolbar": 7550,
    "\u2581purgecomm": 7551,
    "\u2581setmessage": 7552,
    "\u2581setimagecount": 7553,
    "coreapplication": 7554,
    "\u2581loadingcadwork": 7555,
    "\u2581setmessagequeue": 7556,
    "debd": 7557,
    "icher": 7558,
    "duntil": 7559,
    "eflatsb": 7560,
    "\u2581indows": 7561,
    "\u2581codevali": 7562,
    "\u2581openmutexw": 7563,
    "\u2581codevaliduntil": 7564,
    "gyu": 7565,
    "gzs": 7566,
    "ppp": 7567,
    "weh": 7568,
    "acce": 7569,
    "aced": 7570,
    "ahda": 7571,
    "babc": 7572,
    "defc": 7573,
    "duyg": 7574,
    "lott": 7575,
    "orde": 7576,
    "xadf": 7577,
    "xfec": 7578,
    "gaise": 7579,
    "gdgyu": 7580,
    "hsdhe": 7581,
    "width": 7582,
    "\u2581gert": 7583,
    "\u2581pppp": 7584,
    "gzsduyg": 7585,
    "secolor": 7586,
    "taskmem": 7587,
    "\u2581dborde": 7588,
    "\u2581hisher": 7589,
    "\u2581strstr": 7590,
    "gdgyuweh": 7591,
    "ahdahsdhe": 7592,
    "protectex": 7593,
    "semaphore": 7594,
    "ingwindows": 7595,
    "\u2581checkcode": 7596,
    "\u2581cotaskmem": 7597,
    "\u2581sfxstring": 7598,
    "\u2581gsgdgyuweh": 7599,
    "\u2581choosecolor": 7600,
    "\u2581hishergaise": 7601,
    "gzsduygahdahsdhe": 7602,
    "\u2581virtualprotectex": 7603,
    "ak": 7604,
    "\u2581tdm": 7605,
    "\u2581helper": 7606,
    "\u2581warning": 7607,
    "xtensionw": 7608,
    "\u2581initializeflatsb": 7609,
    "\u2581deleteenhmetafile": 7610,
    "yourauthorisationcode": 7611,
    "\u2581enteryourauthorisationcode": 7612,
    "cdce": 7613,
    "fcdc": 7614,
    "\u2581ele": 7615,
    "\u2581capau": 7616,
    "\u2581fileor": 7617,
    "timeouts": 7618,
    "\u2581fromascii": 7619,
    "\u2581gdipalloc": 7620,
    "directorytob": 7621,
    "sandsettings": 7622,
    "\u2581setscrollprop": 7623,
    "\u2581applicationdata": 7624,
    "\u2581fileordirectorytob": 7625,
    "\u2581documentsandsettings": 7626,
    "\u2581fileordirectorytobemodified": 7627,
    "bcad": 7628,
    "cefd": 7629,
    "eccc": 7630,
    "xbdf": 7631,
    "\u2581ows": 7632,
    "\u2581tcp": 7633,
    "\u2581tem": 7634,
    "antin": 7635,
    "\u2581wink": 7636,
    "dbccef": 7637,
    "prefer": 7638,
    "\u2581ystem": 7639,
    "\u2581choosecolora": 7640,
    "\u2581readonlyfile": 7641,
    "keyboardlayout": 7642,
    "\u2581opensemaphore": 7643,
    "ois": 7644,
    "tol": 7645,
    "cedc": 7646,
    "fdfc": 7647,
    "xdac": 7648,
    "\u2581att": 7649,
    "\u2581som": 7650,
    "fecbd": 7651,
    "proca": 7652,
    "stoyo": 7653,
    "\u2581past": 7654,
    "entral": 7655,
    "\u2581ndows": 7656,
    "stoyoure": 7657,
    "\u2581pastethe": 7658,
    "\u2581pastethefollowing": 7659,
    "informationstoyoure": 7660,
    "\u2581pastethefollowinginformationstoyoure": 7661,
    "orr": 7662,
    "daeb": 7663,
    "ddsd": 7664,
    "eacc": 7665,
    "xaaa": 7666,
    "ameter": 7667,
    "\u2581class": 7668,
    "prefered": 7669,
    "\u2581rtlcomp": 7670,
    "\u2581getvolum": 7671,
    "\u2581selectyour": 7672,
    "preferedlanguage": 7673,
    "\u2581getopenfilenamew": 7674,
    "\u2581selectyourpreferedlanguage": 7675,
    "aav": 7676,
    "dwp": 7677,
    "eey": 7678,
    "oot": 7679,
    "sof": 7680,
    "afee": 7681,
    "ecrc": 7682,
    "erti": 7683,
    "hiuk": 7684,
    "kwds": 7685,
    "\u2581yhi": 7686,
    "bbdec": 7687,
    "eeedc": 7688,
    "flags": 7689,
    "level": 7690,
    "orrup": 7691,
    "\u2581eled": 7692,
    "oisdwp": 7693,
    "struct": 7694,
    "utecrc": 7695,
    "\u2581aotes": 7696,
    "orrupted": 7697,
    "\u2581regsave": 7698,
    "\u2581yhihiuk": 7699,
    "bainmodule": 7700,
    "oisdwpkwds": 7701,
    "\u2581enumthread": 7702,
    "uninitialize": 7703,
    "\u2581microsofthelp": 7704,
    "\u2581rtlcomputecrc": 7705,
    "\u2581enumthreadwindows": 7706,
    "\u2581gdipgetimagepalette": 7707,
    "vs": 7708,
    "dgs": 7709,
    "acbd": 7710,
    "bcbc": 7711,
    "cbdc": 7712,
    "dfbb": 7713,
    "cebdb": 7714,
    "efbff": 7715,
    "\u2581hard": 7716,
    "\u2581login": 7717,
    "account": 7718,
    "getvaluew": 7719,
    "\u2581hardware": 7720,
    "\u2581updateex": 7721,
    "\u2581httpquery": 7722,
    "\u2581description": 7723,
    "\u2581updateextracatalogs": 7724,
    "\u2581addvectoredexceptionhandler": 7725,
    "xbaa": 7726,
    "fcecd": 7727,
    "flott": 7728,
    "\u2581aaal": 7729,
    "metric": 7730,
    "\u2581csidl": 7731,
    "\u2581qaeaav": 7732,
    "\u2581purecall": 7733,
    "\u2581installex": 7734,
    "\u2581safearrayget": 7735,
    "\u2581querydosdevicew": 7736,
    "\u2581queryserviceconfig": 7737,
    "\u2581installextracatalogs": 7738,
    "\u2581zwquerysysteminformation": 7739,
    "hao": 7740,
    "\u2581ka": 7741,
    "acef": 7742,
    "afed": 7743,
    "ftsd": 7744,
    "aware": 7745,
    "eturn": 7746,
    "ffede": 7747,
    "\u2581gong": 7748,
    "aeaceb": 7749,
    "\u2581tcpip": 7750,
    "dgsftsd": 7751,
    "\u2581prolog": 7752,
    "fillmode": 7753,
    "\u2581gonghao": 7754,
    "imageinfo": 7755,
    "\u2581regrestore": 7756,
    "\u2581setconsole": 7757,
    "polyfillmode": 7758,
    "\u2581getimageinfo": 7759,
    "\u2581getclasslonga": 7760,
    "\u2581internetopenw": 7761,
    "\u2581updatestandardcatalogs": 7762,
    "air": 7763,
    "tre": 7764,
    "\u2581hp": 7765,
    "\u2581mp": 7766,
    "cbcd": 7767,
    "eeaf": 7768,
    "xadb": 7769,
    "\u2581cli": 7770,
    "adfcfea": 7771,
    "control": 7772,
    "eenable": 7773,
    "\u2581immget": 7774,
    "dpiaware": 7775,
    "\u2581gettrac": 7776,
    "\u2581getpropa": 7777,
    "\u2581parameter": 7778,
    "\u2581removepropa": 7779,
    "\u2581reggetvaluew": 7780,
    "\u2581gettraceenable": 7781,
    "\u2581installstandardcatalogs": 7782,
    "couldnotbelocatedinthedynamiclinklibrarymfc": 7783,
    "mbf": 7784,
    "acbb": 7785,
    "aebd": 7786,
    "bcacf": 7787,
    "intal": 7788,
    "\u2581imag": 7789,
    "cfabcc": 7790,
    "\u2581frame": 7791,
    "\u2581sybase": 7792,
    "metricsw": 7793,
    "arraydata": 7794,
    "\u2581setpropa": 7795,
    "\u2581shcreate": 7796,
    "intallation": 7797,
    "mbforcadwork": 7798,
    "\u2581regenumkeya": 7799,
    "\u2581internetconnectw": 7800,
    "\u2581qcoreapplication": 7801,
    "\u2581amountofmbforcadwork": 7802,
    "\u2581amountofmbforcadworkintallation": 7803,
    "adab": 7804,
    "xace": 7805,
    "\u2581kop": 7806,
    "\u2581uae": 7807,
    "fdece": 7808,
    "ffice": 7809,
    "ondes": 7810,
    "\u2581aaag": 7811,
    "emount": 7812,
    "\u2581round": 7813,
    "\u2581office": 7814,
    "byteline": 7815,
    "\u2581initenv": 7816,
    "colhandler": 7817,
    "\u2581roundrect": 7818,
    "emountpoint": 7819,
    "\u2581xtpcalendar": 7820,
    "\u2581availableondes": 7821,
    "volumemountpoint": 7822,
    "\u2581oleuninitialize": 7823,
    "\u2581availableondestinationdrive": 7824,
    "tye": 7825,
    "\u2581cy": 7826,
    "dbff": 7827,
    "icst": 7828,
    "pare": 7829,
    "raph": 7830,
    "entry": 7831,
    "typed": 7832,
    "\u2581chrom": 7833,
    "\u2581finde": 7834,
    "prepare": 7835,
    "\u2581qtyped": 7836,
    "\u2581winhelpa": 7837,
    "\u2581gettextmetricsw": 7838,
    "\u2581qtypedarraydata": 7839,
    "\u2581destinationdrive": 7840,
    "\u2581internetsetoptionw": 7841,
    "\u2581qd": 7842,
    "acbf": 7843,
    "xbdd": 7844,
    "\u2581sch": 7845,
    "adasd": 7846,
    "dttre": 7847,
    "hdtye": 7848,
    "tooem": 7849,
    "todata": 7850,
    "theextra": 7851,
    "\u2581kopdttre": 7852,
    "\u2581chartooem": 7853,
    "entrytodata": 7854,
    "uninstaller": 7855,
    "\u2581copyfileexw": 7856,
    "theextraoptions": 7857,
    "\u2581imagedirectory": 7858,
    "youwanttoinstall": 7859,
    "\u2581selecttheextraoptions": 7860,
    "\u2581imagedirectoryentrytodata": 7861,
    "\u2581selecttheextraoptionsyouwanttoinstall": 7862,
    "est": 7863,
    "sep": 7864,
    "bbce": 7865,
    "eecdb": 7866,
    "ffcea": 7867,
    "\u2581astr": 7868,
    "\u2581ldrl": 7869,
    "\u2581util": 7870,
    "bellow": 7871,
    "oaddll": 7872,
    "region": 7873,
    "ccbcfea": 7874,
    "driveor": 7875,
    "ccdecfab": 7876,
    "\u2581stretch": 7877,
    "\u2581ifyouwant": 7878,
    "\u2581setlayout": 7879,
    "ofthefolder": 7880,
    "\u2581ldrloaddll": 7881,
    "cadworkinthe": 7882,
    "\u2581enumwindows": 7883,
    "driveorfolder": 7884,
    "\u2581enterthename": 7885,
    "\u2581getvolumename": 7886,
    "\u2581stretchdibits": 7887,
    "followingfolder": 7888,
    "\u2581charupperbuffa": 7889,
    "\u2581httpqueryinfow": 7890,
    "ofthefolderbellow": 7891,
    "\u2581httpopenrequestw": 7892,
    "\u2581httpsendrequestw": 7893,
    "\u2581setupwillinstall": 7894,
    "\u2581ifyouwantadifferent": 7895,
    "cadworkinthefollowingfolder": 7896,
    "\u2581enterthenameofthefolderbellow": 7897,
    "\u2581ifyouwantadifferentdriveorfolder": 7898,
    "\u2581setupwillinstallcadworkinthefollowingfolder": 7899,
    "gr": 7900,
    "dtu": 7901,
    "hdy": 7902,
    "ytu": 7903,
    "\u2581va": 7904,
    "bebc": 7905,
    "dres": 7906,
    "eeye": 7907,
    "gugu": 7908,
    "ohdy": 7909,
    "cfcac": 7910,
    "dtugu": 7911,
    "lappe": 7912,
    "onser": 7913,
    "\u2581gsdf": 7914,
    "febccb": 7915,
    "dresult": 7916,
    "fromhdc": 7917,
    "\u2581honser": 7918,
    "\u2581siohdy": 7919,
    "dtuguytu": 7920,
    "\u2581getover": 7921,
    "ornetwork": 7922,
    "\u2581gsdfgugu": 7923,
    "\u2581extselect": 7924,
    "\u2581getlayout": 7925,
    "lappedresult": 7926,
    "\u2581copycadwork": 7927,
    "\u2581installsource": 7928,
    "\u2581systemfunction": 7929,
    "\u2581extselectcliprgn": 7930,
    "\u2581gsdfgugudtuguytu": 7931,
    "\u2581gdipcreatefromhdc": 7932,
    "\u2581setprocessdpiaware": 7933,
    "\u2581getoverlappedresult": 7934,
    "\u2581copycadworkdirectory": 7935,
    "toyourlocaldriveornetwork": 7936,
    "\u2581copycadworkdirectorytoyourlocaldriveornetwork": 7937,
    "ng": 7938,
    "esa": 7939,
    "inv": 7940,
    "\u2581la": 7941,
    "aebf": 7942,
    "baac": 7943,
    "baeb": 7944,
    "bccd": 7945,
    "pose": 7946,
    "xafe": 7947,
    "fccfa": 7948,
    "connec": 7949,
    "ebfade": 7950,
    "\u2581mutex": 7951,
    "\u2581value": 7952,
    "\u2581equalsid": 7953,
    "\u2581signalob": 7954,
    "ectandwait": 7955,
    "\u2581regreplace": 7956,
    "prepareheader": 7957,
    "changenotification": 7958,
    "\u2581createwaitabletim": 7959,
    "gyf": 7960,
    "ufh": 7961,
    "\u2581bu": 7962,
    "addc": 7963,
    "buer": 7964,
    "cont": 7965,
    "ddus": 7966,
    "faee": 7967,
    "rtet": 7968,
    "xada": 7969,
    "xebc": 7970,
    "gsffd": 7971,
    "\u2581ggds": 7972,
    "\u2581yufh": 7973,
    "gyfenu": 7974,
    "\u2581graph": 7975,
    "\u2581satbuer": 7976,
    "ddusdadad": 7977,
    "gsffdrtet": 7978,
    "\u2581password": 7979,
    "\u2581yufhgert": 7980,
    "\u2581ggdsgyfenu": 7981,
    "ddusdadadadasd": 7982,
    "\u2581internetqueryoptionw": 7983,
    "\u2581gotoassistremotesupapplet": 7984,
    "llg": 7985,
    "ysd": 7986,
    "\u2581qbe": 7987,
    "\u2581typ": 7988,
    "lipse": 7989,
    "pipew": 7990,
    "\u2581conf": 7991,
    "fileus": 7992,
    "dispose": 7993,
    "\u2581astrum": 7994,
    "\u2581central": 7995,
    "\u2581controls": 7996,
    "\u2581atlgethost": 7997,
    "\u2581dbordement": 7998,
[...]
