{
    "<pad>": 0,
    "<unk>": 1,
    "<mask>": 2,
    "\u25810": 3,
    "\u25810x": 4,
    "\u2581a": 5,
    "et": 6,
    "al": 7,
    "in": 8,
    "er": 9,
    "00": 10,
    "ne": 11,
    "val": 12,
    "etval": 13,
    "me": 14,
    "pin": 15,
    "32": 16,
    "ame": 17,
    "\u2581r": 18,
    "gs": 19,
    "rgs": 20,
    "\u2581apin": 21,
    "\u2581args": 22,
    "\u2581apiname": 23,
    "\u2581retval": 24,
    "l32": 25,
    "\u2581k": 26,
    "erne": 27,
    "ernel32": 28,
    "\u2581kernel32": 29,
    "\u25810x1": 30,
    "\u25810x0": 31,
    "ad": 32,
    "ti": 33,
    "000": 34,
    "\u25810x7": 35,
    "re": 36,
    "ec": 37,
    "\u25810x4": 38,
    "\u25810xf": 39,
    "get": 40,
    "\u2581kernel32get": 41,
    "oc": 42,
    "\u25810x77": 43,
    "iti": 44,
    "ee": 45,
    "\u25810xfee": 46,
    "\u25810xfeee": 47,
    "ss": 48,
    "pr": 49,
    "one": 50,
    "tr": 51,
    "0000": 52,
    "proc": 53,
    "ter": 54,
    "\u2581kernel32getproc": 55,
    "sec": 56,
    "dre": 57,
    "cal": 58,
    "secti": 59,
    "addre": 60,
    "address": 61,
    "on": 62,
    "\u2581kernel32getprocaddress": 63,
    "riti": 64,
    "ritical": 65,
    "riticalsecti": 66,
    "is": 67,
    "le": 68,
    "read": 69,
    "000000": 70,
    "ue": 71,
    "\u25810x1000": 72,
    "\u2581kernel32is": 73,
    "ls": 74,
    "\u2581n": 75,
    "readp": 76,
    "ecriticalsecti": 77,
    "\u2581none": 78,
    "\u25810x77000000": 79,
    "bad": 80,
    "readptr": 81,
    "badreadptr": 82,
    "\u2581kernel32isbadreadptr": 83,
    "etvalue": 84,
    "en": 85,
    "\u25810xfeee00": 86,
    "getvalue": 87,
    "lsgetvalue": 88,
    "\u25810xfeee000": 89,
    "\u2581kernel32in": 90,
    "iz": 91,
    "loc": 92,
    "\u25810x12": 93,
    "or": 94,
    "11": 95,
    "de": 96,
    "ap": 97,
    "a0": 98,
    "aliz": 99,
    "itializ": 100,
    "co": 101,
    "itializecriticalsecti": 102,
    "te": 103,
    "\u2581kernel32initializecriticalsecti": 104,
    "\u25810x46": 105,
    "f0": 106,
    "\u25810x1211": 107,
    "\u25810x2": 108,
    "ar": 109,
    "an": 110,
    "\u25810xfa0": 111,
    "\u25810x8": 112,
    "he": 113,
    "us": 114,
    "as": 115,
    "heap": 116,
    "\u2581kernel32t": 117,
    "\u25810xfeee0001": 118,
    "onex": 119,
    "\u2581kernel32en": 120,
    "ror": 121,
    "\u25810x770": 122,
    "\u2581kernel32tlsgetvalue": 123,
    "\u2581kernel32heap": 124,
    "alloc": 125,
    "las": 126,
    "terror": 127,
    "lasterror": 128,
    "nt": 129,
    "\u2581kernel32initializecriticalsectionex": 130,
    "and": 131,
    "user": 132,
    "po": 133,
    "inter": 134,
    "\u2581kernel32f": 135,
    "dec": 136,
    "\u2581user": 137,
    "\u2581user32": 138,
    "pointer": 139,
    "set": 140,
    "lo": 141,
    "depointer": 142,
    "lea": 143,
    "ow": 144,
    "\u25810x771": 145,
    "48": 146,
    "fi": 147,
    "39": 148,
    "d0": 149,
    "\u25810x5": 150,
    "\u2581kernel32flsgetvalue": 151,
    "str": 152,
    "at": 153,
    "90": 154,
    "10": 155,
    "\u2581kernel32heapalloc": 156,
    "\u25810x100": 157,
    "ff": 158,
    "\u25810x10": 159,
    "strin": 160,
    "\u25810x41": 161,
    "\u25810x42": 162,
    "terc": 163,
    "st": 164,
    "ecriticalsection": 165,
    "\u25810x24": 166,
    "load": 167,
    "leav": 168,
    "leavecriticalsection": 169,
    "\u25810x2439": 170,
    "ex": 171,
    "\u25810x243948": 172,
    "\u2581kernel32leavecriticalsection": 173,
    "riticalsection": 174,
    "tercriticalsection": 175,
    "00000": 176,
    "\u2581kernel32entercriticalsection": 177,
    "\u2581kernel32set": 178,
    "har": 179,
    "\u25810x45": 180,
    "\u2581c": 181,
    "hand": 182,
    "codepointer": 183,
    "mp": 184,
    "\u2581get": 185,
    "string": 186,
    "\u25810x40": 187,
    "ab": 188,
    "e4": 189,
    "\u2581kernel32getlasterror": 190,
    "\u25810x46f0": 191,
    "ac": 192,
    "\u2581kernel32setlasterror": 193,
    "\u25810x3": 194,
    "\u25810x45f0": 195,
    "\u2581kernel32encodepointer": 196,
    "by": 197,
    "\u25810x78": 198,
    "\u25810xff": 199,
    "li": 200,
    "\u25810x46d0": 201,
    "10000": 202,
    "unt": 203,
    "ys": 204,
    "win": 205,
    "fo": 206,
    "let": 207,
    "count": 208,
    "ul": 209,
    "20": 210,
    "40": 211,
    "\u25810x4e4": 212,
    "\u25810xc": 213,
    "ur": 214,
    "\u2581kernel32initializecriticalsection": 215,
    "handle": 216,
    "rt": 217,
    "vi": 218,
    "mo": 219,
    "\u25810x43": 220,
    "c0": 221,
    "dl": 222,
    "ate": 223,
    "local": 224,
    "file": 225,
    "ess": 226,
    "\u25810x7d": 227,
    "mul": 228,
    "dow": 229,
    "\u2581kernel32getc": 230,
    "it": 231,
    "du": 232,
    "multi": 233,
    "idec": 234,
    "multiby": 235,
    "idechar": 236,
    "ke": 237,
    "window": 238,
    "\u25810x6": 239,
    "dll": 240,
    "tion": 241,
    "ent": 242,
    "78": 243,
    "modu": 244,
    "module": 245,
    "tem": 246,
    "\u2581user32load": 247,
    "30": 248,
    "\u25810x400000": 249,
    "50": 250,
    "ystem": 251,
    "\u25810xfeee001": 252,
    "d10000": 253,
    "\u25810x77d10000": 254,
    "op": 255,
    "f8": 256,
    "deco": 257,
    "decodepointer": 258,
    "spin": 259,
    "spincount": 260,
    "andspincount": 261,
    "ree": 262,
    "\u2581kernel32getmodule": 263,
    "ms": 264,
    "70": 265,
    "\u2581kernel32initializecriticalsectionandspincount": 266,
    "ment": 267,
    "d8": 268,
    "ce": 269,
    "process": 270,
    "reate": 271,
    "18": 272,
    "xt": 273,
    "b0": 274,
    "exw": 275,
    "\u25810x1211f": 276,
    "\u25810x10c": 277,
    "ri": 278,
    "yp": 279,
    "\u2581f": 280,
    "br": 281,
    "locale": 282,
    "pinfo": 283,
    "\u2581kernel32decodepointer": 284,
    "ag": 285,
    "stringw": 286,
    "libr": 287,
    "librar": 288,
    "map": 289,
    "38": 290,
    "next": 291,
    "id": 292,
    "60": 293,
    "cc": 294,
    "e0": 295,
    "\u25810xf00": 296,
    "tet": 297,
    "tetow": 298,
    "multibytetow": 299,
    "multibytetowidechar": 300,
    "able": 301,
    "\u25810x9": 302,
    "loadlibrar": 303,
    "\u2581user32c": 304,
    "\u2581p": 305,
    "\u2581kernel32getcpinfo": 306,
    "\u2581kernel32multibytetowidechar": 307,
    "80": 308,
    "free": 309,
    "leti": 310,
    "rent": 311,
    "urrent": 312,
    "\u25810xffff": 313,
    "th": 314,
    "\u2581user32char": 315,
    "\u25810xc000": 316,
    "26": 317,
    "\u2581user32charnext": 318,
    "a5": 319,
    "di": 320,
    "ddec": 321,
    "\u25810x70": 322,
    "\u25810xffffff": 323,
    "98": 324,
    "localein": 325,
    "bc": 326,
    "\u25810x7e": 327,
    "lc": 328,
    "28": 329,
    "64": 330,
    "vc": 331,
    "\u2581ms": 332,
    "so": 333,
    "c4": 334,
    "34": 335,
    "ystem32": 336,
    "om": 337,
    "\u2581kernel32getst": 338,
    "ype": 339,
    "\u2581msvc": 340,
    "\u2581kernel32getlocalein": 341,
    "\u2581set": 342,
    "to": 343,
    "\u2581cwindow": 344,
    "68": 345,
    "un": 346,
    "lcmap": 347,
    "\u2581g": 348,
    "ual": 349,
    "fow": 350,
    "virt": 351,
    "def": 352,
    "virtual": 353,
    "\u25810x78000000": 354,
    "\u2581msvcrt": 355,
    "locke": 356,
    "\u25810x1211c": 357,
    "siz": 358,
    "\u25810xfeee002": 359,
    "size": 360,
    "comp": 361,
    "rement": 362,
    "\u2581s": 363,
    "\u25810xfeee005": 364,
    "key": 365,
    "\u2581kernel32dll": 366,
    "loadlibrary": 367,
    "wri": 368,
    "write": 369,
    "\u25810x90": 370,
    "terlocke": 371,
    "\u2581kernel32interlocke": 372,
    "thread": 373,
    "\u25810xfeee007": 374,
    "\u25810x88": 375,
    "stat": 376,
    "status": 377,
    "a8": 378,
    "ans": 379,
    "\u2581create": 380,
    "age": 381,
    "rst": 382,
    "trans": 383,
    "temp": 384,
    "ath": 385,
    "\u25810xfeee004": 386,
    "69": 387,
    "b8": 388,
    "atom": 389,
    "\u2581ap": 390,
    "1000": 391,
    "\u2581kernel32lcmap": 392,
    "que": 393,
    "lient": 394,
    "hi": 395,
    "14": 396,
    "dcomp": 397,
    "\u25810x243948c": 398,
    "\u2581kernel32getcpinfoexw": 399,
    "\u2581user32loadstringw": 400,
    "table": 401,
    "58": 402,
    "\u25810x4690": 403,
    "ol": 404,
    "action": 405,
    "dc": 406,
    "queue": 407,
    "3000": 408,
    "\u2581kernel32init": 409,
    "letion": 410,
    "queuedcomp": 411,
    "letionstatus": 412,
    "queuedcompletionstatus": 413,
    "transaction": 414,
    "\u2581user32ddec": 415,
    "lienttransaction": 416,
    "\u2581kernel32getqueuedcompletionstatus": 417,
    "atomtable": 418,
    "\u25810x2439480": 419,
    "\u25810x2439484": 420,
    "\u25810x2439488": 421,
    "\u2581kernel32initatomtable": 422,
    "\u2581user32ddeclienttransaction": 423,
    "\u2581kernel32loadlibrary": 424,
    "handlew": 425,
    "name": 426,
    "12": 427,
    "\u2581kernel32heapsize": 428,
    "for": 429,
    "var": 430,
    "rec": 431,
    "\u2581kernel32heapfree": 432,
    "a4": 433,
    "\u2581kernel32c": 434,
    "ers": 435,
    "a000": 436,
    "56": 437,
    "se": 438,
    "lm": 439,
    "tic": 440,
    "ssystem32": 441,
    "\u25810x1210": 442,
    "abc": 443,
    "vw": 444,
    "tor": 445,
    "fe": 446,
    "d4": 447,
    "wa": 448,
    "opq": 449,
    "ghi": 450,
    "5000": 451,
    "xy": 452,
    "\u25810xfeee008": 453,
    "xyz": 454,
    "klm": 455,
    "nopq": 456,
    "uvw": 457,
    "uvwxyz": 458,
    "nopqrst": 459,
    "nopqrstuvwxyz": 460,
    "defghi": 461,
    "klmnopqrstuvwxyz": 462,
    "abcdefghi": 463,
    "open": 464,
    "\u25810x40a5": 465,
    "\u2581kernel32getmodulehandlew": 466,
    "\u25810x12117": 467,
    "ic": 468,
    "multibyte": 469,
    "widechar": 470,
    "widecharto": 471,
    "widechartomultibyte": 472,
    "tick": 473,
    "tickcount": 474,
    "\u25810x12119": 475,
    "mm": 476,
    "ch": 477,
    "din": 478,
    "\u25810xfeee006": 479,
    "art": 480,
    "\u25810x80": 481,
    "f4": 482,
    "b000": 483,
    "\u2581kernel32virtual": 484,
    "2000": 485,
    "cmp": 486,
    "7000": 487,
    "c8": 488,
    "\u2581kernel32widechartomultibyte": 489,
    "\u25810x79": 490,
    "qu": 491,
    "f000": 492,
    "d000": 493,
    "filet": 494,
    "filetype": 495,
    "\u2581re": 496,
    "\u25810xfeee003": 497,
    "eex": 498,
    "vent": 499,
    "form": 500,
    "be": 501,
    "7c": 502,
    "\u25810x526": 503,
    "mem": 504,
    "\u25810x3f": 505,
    "dhandle": 506,
    "\u2581cwindowssystem32": 507,
    "\u2581user32charnextw": 508,
    "\u2581kernel32getfiletype": 509,
    "6000": 510,
    "\u25810x47": 511,
    "lss": 512,
    "lssetvalue": 513,
    "fc": 514,
    "\u2581kernel32getcurrent": 515,
    "\u25810xfeee0004": 516,
    "\u2581kernel32gettickcount": 517,
    "f5": 518,
    "9000": 519,
    "system": 520,
    "dinc": 521,
    "dincrement": 522,
    "vir": 523,
    "viron": 524,
    "lsalloc": 525,
    "environ": 526,
    "\u2581kernel32getlocaleinfow": 527,
    "ine": 528,
    "environment": 529,
    "\u25810x20": 530,
    "direc": 531,
    "stringa": 532,
    "\u25810x78c": 533,
    "\u25810x78c00000": 534,
    "res": 535,
    "\u2581kernel32getstdhandle": 536,
    "lose": 537,
    "\u25810x70cc": 538,
    "\u25810xcd": 539,
    "\u25810x200": 540,
    "\u2581kernel32interlockedincrement": 541,
    "handlea": 542,
    "\u25810x7d90": 543,
    "filename": 544,
    "director": 545,
    "api": 546,
    "artu": 547,
    "current": 548,
    "\u2581user32loadstringa": 549,
    "\u2581en": 550,
    "\u25810x409": 551,
    "\u2581in": 552,
    "e000": 553,
    "quer": 554,
    "5c": 555,
    "\u25810x44": 556,
    "\u25810xfeee0002": 557,
    "stringex": 558,
    "\u25810xffffffff": 559,
    "\u25810x18": 560,
    "\u25810x77e": 561,
    "\u25810x77e10000": 562,
    "strings": 563,
    "ad0": 564,
    "b4": 565,
    "e8": 566,
    "\u25810x4c4": 567,
    "\u25810xfeee009": 568,
    "\u25810x4610": 569,
    "\u2581user32charnexta": 570,
    "stemp": 571,
    "vers": 572,
    "\u25810xfeee0000": 573,
    "74": 574,
    "versi": 575,
    "\u25810xa": 576,
    "dd": 577,
    "\u2581kernel32getmodulehandlea": 578,
    "\u25810x1211d": 579,
    "filea": 580,
    "event": 581,
    "ist": 582,
    "ool": 583,
    "\u25810x5f8": 584,
    "\u2581msvcrtmem": 585,
    "\u25810x5f800000": 586,
    "\u25810x7b": 587,
    "e6": 588,
    "comm": 589,
    "\u2581msvcrtmemcmp": 590,
    "sle": 591,
    "\u25810x104": 592,
    "dbc": 593,
    "ve": 594,
    "filew": 595,
    "\u25810x41de": 596,
    "\u25810x41f0": 597,
    "\u2581kernel32getstartu": 598,
    "24": 599,
    "\u25810xf001": 600,
    "91": 601,
    "\u25810x41f040": 602,
    "stringsw": 603,
    "54": 604,
    "foa": 605,
    "eco": 606,
    "f6": 607,
    "\u2581path": 608,
    "reat": 609,
    "byte": 610,
    "slead": 611,
    "dbcslead": 612,
    "dbcsleadbyte": 613,
    "2c": 614,
    "\u2581kernel32isdbcsleadbyte": 615,
    "\u25810xfeee0003": 616,
    "\u2581kernel32lcmapstringw": 617,
    "time": 618,
    "command": 619,
    "commandl": 620,
    "int": 621,
    "\u2581event": 622,
    "3c": 623,
    "\u2581ad": 624,
    "commandline": 625,
    "environmentstringsw": 626,
    "b9": 627,
    "\u25810x7de": 628,
    "\u25810x54": 629,
    "\u2581kernel32getlocaleinfoa": 630,
    "ect": 631,
    "ing": 632,
    "da": 633,
    "api32": 634,
    "directory": 635,
    "vapi32": 636,
    "\u2581advapi32": 637,
    "\u25810x1211e": 638,
    "\u2581apis": 639,
    "\u25810x800": 640,
    "\u25810x7c": 641,
    "threadid": 642,
    "\u2581var": 643,
    "71": 644,
    "sour": 645,
    "\u25810xfeee0005": 646,
    "tere": 647,
    "mess": 648,
    "cep": 649,
    "readpool": 650,
    "\u25810x7ec": 651,
    "valid": 652,
    "\u25810x8ad0": 653,
    "arch": 654,
    "ation": 655,
    "\u2581kernel32loadlibrarya": 656,
    "lete": 657,
    "ute": 658,
    "\u25810x12115": 659,
    "\u2581kernel32virtualalloc": 660,
    "\u2581pag": 661,
    "mswin": 662,
    "\u25810xf003": 663,
    "imswin": 664,
    "\u25810xf002": 665,
    "message": 666,
    "\u2581w": 667,
    "\u2581apimswin": 668,
    "processor": 669,
    "fileti": 670,
    "1c": 671,
    "9c": 672,
    "adwrite": 673,
    "losehandle": 674,
    "path": 675,
    "\u25810x7700": 676,
    "ft": 677,
    "\u25810x8a": 678,
    "789": 679,
    "\u25810x7708": 680,
    "\u25810x7711": 681,
    "\u25810x7718": 682,
    "94": 683,
    "soft": 684,
    "\u2581encodepointer": 685,
    "\u2581open": 686,
    "\u2581kernel32lcmapstringex": 687,
    "75": 688,
    "\u2581h": 689,
    "\u2581kernel32getmodulefilename": 690,
    "type": 691,
    "\u25810x120": 692,
    "lstr": 693,
    "\u2581kernel32create": 694,
    "e5": 695,
    "3456": 696,
    "\u25810x7a": 697,
    "\u2581kernel32loadlibraryexw": 698,
    "es": 699,
    "klmnopqrstuvwxyzabcdefghi": 700,
    "123456": 701,
    "123456789": 702,
    "123456789abcdefghi": 703,
    "\u2581kernel32getcurrentthreadid": 704,
    "\u25810123456789abcdefghi": 705,
    "ut": 706,
    "source": 707,
    "\u2581kernel32getcommandline": 708,
    "3d": 709,
    "\u25810x7710": 710,
    "ception": 711,
    "\u2581creat": 712,
    "\u25810x4c": 713,
    "\u25810x7714": 714,
    "\u25810x7704": 715,
    "\u2581cwindowstemp": 716,
    "eep": 717,
    "urs": 718,
    "b7": 719,
    "list": 720,
    "reg": 721,
    "\u2581d": 722,
    "fa": 723,
    "sa": 724,
    "vari": 725,
    "e2": 726,
    "\u25810x73": 727,
    "dex": 728,
    "\u25810x76": 729,
    "\u2581kernel32getsystem": 730,
    "leep": 731,
    "filetime": 732,
    "\u2581reg": 733,
    "pres": 734,
    "present": 735,
    "pinfow": 736,
    "\u25810x102": 737,
    "info": 738,
    "\u2581apimswinco": 739,
    "\u25810x8810": 740,
    "ursor": 741,
    "cursor": 742,
    "\u25810x400": 743,
    "\u2581user32get": 744,
    "a9": 745,
    "\u25810xfeee0": 746,
    "a1": 747,
    "earch": 748,
    "a2": 749,
    "um": 750,
    "\u25810x75": 751,
    "ysearch": 752,
    "loadlibrarysearch": 753,
    "ddecrement": 754,
    "\u2581loadlibrarysearch": 755,
    "system32": 756,
    "fil": 757,
    "\u2581loadlibrarysearchsystem32": 758,
    "db": 759,
    "con": 760,
    "35": 761,
    "stringtype": 762,
    "\u25810x4600": 763,
    "lob": 764,
    "icon": 765,
    "ab0": 766,
    "\u2581kernel32getversi": 767,
    "il": 768,
    "ure": 769,
    "36": 770,
    "\u2581kernel32getstartupinfow": 771,
    "3b": 772,
    "a6": 773,
    "bo": 774,
    "\u25810x8c": 775,
    "\u25810x7706": 776,
    "\u25810x7716": 777,
    "\u25810x7717": 778,
    "\u25810x7707": 779,
    "\u25810x7709": 780,
    "\u25810x7719": 781,
    "localalloc": 782,
    "\u2581kernel32getprocess": 783,
    "og": 784,
    "\u2581kernel32closehandle": 785,
    "ature": 786,
    "\u25810x1c": 787,
    "stringtypew": 788,
    "feature": 789,
    "featurepresent": 790,
    "processorfeaturepresent": 791,
    "\u25810xfeee0006": 792,
    "directoryw": 793,
    "gin": 794,
    "4c": 795,
    "code": 796,
    "ction": 797,
    "ot": 798,
    "\u25810x220": 799,
    "\u2581getcurrent": 800,
    "\u25810x7000": 801,
    "erform": 802,
    "\u2581kernel32getprocessheap": 803,
    "eth": 804,
    "queryp": 805,
    "390": 806,
    "erforman": 807,
    "queryperforman": 808,
    "\u2581hkey": 809,
    "\u25810x71": 810,
    "\u2581de": 811,
    "\u25810x7f": 812,
    "\u2581kernel32interlockeddecrement": 813,
    "\u25810x72": 814,
    "\u25810x14": 815,
    "\u25810x4c42": 816,
    "\u25810x9000": 817,
    "unter": 818,
    "\u2581kernel32lstr": 819,
    "\u25810x7d91": 820,
    "hel": 821,
    "softwa": 822,
    "\u25810x48": 823,
    "f1": 824,
    "begin": 825,
    "eexec": 826,
    "\u25810x8000": 827,
    "\u25810x770c": 828,
    "\u25810x7702": 829,
    "\u25810x770b": 830,
    "\u25810x7705": 831,
    "\u25810x770d": 832,
    "\u25810x770e": 833,
    "\u25810x7712": 834,
    "\u25810x7715": 835,
    "ass": 836,
    "\u25810x771b": 837,
    "f9": 838,
    "ceco": 839,
    "\u25810x74": 840,
    "cecounter": 841,
    "queryperformancecounter": 842,
    "filter": 843,
    "eric": 844,
    "b2": 845,
    "dexception": 846,
    "unhandle": 847,
    "dexceptionfilter": 848,
    "unhandledexceptionfilter": 849,
    "\u2581kernel32localalloc": 850,
    "asfiletime": 851,
    "\u2581kernel32getstringtypew": 852,
    "\u2581gdi": 853,
    "b5": 854,
    "wait": 855,
    "eexecu": 856,
    "eexecutere": 857,
    "\u2581pageexecutere": 858,
    "\u2581pageexecutereadwrite": 859,
    "15": 860,
    "76": 861,
    "acp": 862,
    "\u2581user32loadcursor": 863,
    "ser": 864,
    "\u25810x4093": 865,
    "d5": 866,
    "tdll": 867,
    "\u25810x4378": 868,
    "lock": 869,
    "\u25810x7703": 870,
    "\u25810x770f": 871,
    "\u25810x7713": 872,
    "dr": 873,
    "\u25810xfeee0007": 874,
    "up": 875,
    "eneric": 876,
    "tim": 877,
    "rive": 878,
    "software": 879,
    "a7": 880,
    "\u2581gdi32": 881,
    "timeasfiletime": 882,
    "\u2581kernel32isprocessorfeaturepresent": 883,
    "\u25810x42c": 884,
    "writefile": 885,
    "\u2581kernel32queryperformancecounter": 886,
    "\u25810x7e70": 887,
    "\u25810x41dd": 888,
    "print": 889,
    "ition": 890,
    "dition": 891,
    "d2": 892,
    "19": 893,
    "\u2581kernel32flssetvalue": 894,
    "formation": 895,
    "information": 896,
    "\u25810x437": 897,
    "\u2581ex": 898,
    "lobal": 899,
    "d6": 900,
    "processid": 901,
    "\u25810x1211c98": 902,
    "\u2581go": 903,
    "\u2581goog": 904,
    "\u2581flsalloc": 905,
    "cl": 906,
    "\u2581flssetvalue": 907,
    "\u25810x7701": 908,
    "\u25810x770a": 909,
    "\u25810x771a": 910,
    "\u25810x69": 911,
    "timer": 912,
    "\u2581getmodule": 913,
    "c000": 914,
    "b6": 915,
    "stru": 916,
    "servi": 917,
    "b3": 918,
    "struction": 919,
    "\u25810x416": 920,
    "\u2581kernel32getacp": 921,
    "\u2581fin": 922,
    "\u2581generic": 923,
    "\u2581t": 924,
    "sole": 925,
    "ob": 926,
    "create": 927,
    "\u2581kernel32flsalloc": 928,
    "sh": 929,
    "\u25810x82": 930,
    "reeenvironmentstringsw": 931,
    "\u2581initializecriticalsecti": 932,
    "exa": 933,
    "query": 934,
    "\u2581decodepointer": 935,
    "\u25810x5265c": 936,
    "\u2581is": 937,
    "va": 938,
    "bd": 939,
    "openkey": 940,
    "\u2581kernel32s": 941,
    "\u2581kernel32sleep": 942,
    "tri": 943,
    "fx": 944,
    "f7": 945,
    "ack": 946,
    "16": 947,
    "508": 948,
    "\u25810x169": 949,
    "vail": 950,
    "\u25810x42d": 951,
    "vailable": 952,
    "sc": 953,
    "\u25810x420": 954,
    "\u25810x5266": 955,
    "ock": 956,
    "\u25810x47b0": 957,
    "ity": 958,
    "locales": 959,
    "instruction": 960,
    "i64": 961,
    "savailable": 962,
    "instructionsavailable": 963,
    "fxmm": 964,
    "\u2581pfxmm": 965,
    "\u2581pfxmmi64": 966,
    "\u2581pfxmmi64instructionsavailable": 967,
    "29": 968,
    "\u25810x3000": 969,
    "yn": 970,
    "b1": 971,
    "of": 972,
    "66": 973,
    "37": 974,
    "3e": 975,
    "handl": 976,
    "\u25810x7de0": 977,
    "end": 978,
    "readpooltimer": 979,
    "\u25810x4e": 980,
    "\u25810x7810": 981,
    "fr": 982,
    "8c": 983,
    "\u2581kernel32setunhandledexceptionfilter": 984,
    "\u25810x7c000000": 985,
    "\u2581kernel32getsystemtimeasfiletime": 986,
    "\u25810x69000000": 987,
    "\u2581drive": 988,
    "\u25810x1210e": 989,
    "\u25810x7ec0": 990,
    "col": 991,
    "\u25810x12116": 992,
    "\u2581m": 993,
    "defa": 994,
    "variable": 995,
    "defaul": 996,
    "\u2581drivewindow": 997,
    "\u2581shel": 998,
    "\u2581kernel32getcurrentprocessid": 999,
    "bf": 1000,
    "\u2581virtual": 1001,
    "eexw": 1002,
    "\u25810xfffffff6": 1003,
    "aa": 1004,
    "27": 1005,
    "\u25810xfffffff5": 1006,
    "\u25810xfffffff4": 1007,
    "\u25810x30": 1008,
    "\u2581global": 1009,
    "\u2581kernel32getmodulefilenamew": 1010,
    "color": 1011,
    "\u25810x8d": 1012,
    "from": 1013,
    "pinfoa": 1014,
    "31": 1015,
    "\u2581kernel32getenvironmentstringsw": 1016,
    "\u2581kernel32freeenvironmentstringsw": 1017,
    "\u2581kernel32getcommandlinea": 1018,
    "\u25810x4b": 1019,
    "\u25810x50": 1020,
    "\u2581kernel32gettemp": 1021,
    "\u25810x7f00": 1022,
    "\u25810x56": 1023,
    "25": 1024,
    "\u2581apimswincore": 1025,
    "\u2581load": 1026,
    "\u25810x430": 1027,
    "onsole": 1028,
    "\u2581gdi32get": 1029,
    "\u2581kernel32getversionex": 1030,
    "\u25810x19": 1031,
    "164": 1032,
    "l11": 1033,
    "resource": 1034,
    "\u25810x7890": 1035,
    "ed": 1036,
    "printf": 1037,
    "4000": 1038,
    "120": 1039,
    "\u2581kernel32createfilew": 1040,
    "a40": 1041,
    "pathw": 1042,
    "804": 1043,
    "79": 1044,
    "codep": 1045,
    "\u2581heap": 1046,
    "ver": 1047,
    "\u2581flsgetvalue": 1048,
    "met": 1049,
    "\u25810x4ab0": 1050,
    "\u25810x1211b": 1051,
    "secur": 1052,
    "\u2581user32loadicon": 1053,
    "security": 1054,
    "\u25810x49": 1055,
    "\u25810x4078": 1056,
    "55": 1057,
    "bu": 1058,
    "threadex": 1059,
    "\u2581kernel32writefile": 1060,
    "beginthreadex": 1061,
    "\u2581msvcrtbeginthreadex": 1062,
    "ber": 1063,
    "\u25810xe": 1064,
    "\u2581initializecriticalsectionex": 1065,
    "codepage": 1066,
    "\u25810x407840": 1067,
    "len": 1068,
    "validcodepage": 1069,
    "\u2581kernel32getmodulefilenamea": 1070,
    "section": 1071,
    "ae": 1072,
    "\u2581op": 1073,
    "\u2581user32loadcursorw": 1074,
    "messagea": 1075,
    "\u2581createth": 1076,
    "\u25810x1211dc0": 1077,
    "f2": 1078,
    "\u2581i": 1079,
    "\u25810x41de20": 1080,
    "filepointer": 1081,
    "\u2581kernel32virtualquery": 1082,
    "\u25810x28": 1083,
    "\u2581advapi32reg": 1084,
    "\u25810x1211e0": 1085,
    "service": 1086,
    "\u25810x41ddd8": 1087,
    "error": 1088,
    "1646": 1089,
    "\u25810x4670": 1090,
    "\u25810x435": 1091,
    "utes": 1092,
    "boar": 1093,
    "\u2581kernel32getstartupinfoa": 1094,
    "\u2581invalid": 1095,
    "ene": 1096,
    "letemp": 1097,
    "\u2581googletemp": 1098,
    "olf": 1099,
    "\u25810x2a": 1100,
    "\u2581kernel32getcommandlinew": 1101,
    "\u25810xb": 1102,
    "d9": 1103,
    "d1": 1104,
    "\u25810x1210f": 1105,
    "d7": 1106,
    "\u25810x1804": 1107,
    "\u25810x12116d8": 1108,
    "\u25810x11": 1109,
    "\u2581lcmap": 1110,
    "sys": 1111,
    "\u2581advapi32regopenkey": 1112,
    "ini": 1113,
    "\u25810x1211918": 1114,
    "f10000": 1115,
    "\u25810xa4": 1116,
    "\u2581o": 1117,
    "308": 1118,
    "\u2581getsystem": 1119,
    "\u25810x77f10000": 1120,
    "mage": 1121,
    "f3": 1122,
    "8000": 1123,
    "ra": 1124,
    "\u2581sh": 1125,
    "trib": 1126,
    "ge": 1127,
    "\u2581ws": 1128,
    "\u25810x1211c18": 1129,
    "currentuser": 1130,
    "\u2581delete": 1131,
    "\u2581hkeycurrentuser": 1132,
    "itprocess": 1133,
    "ttrib": 1134,
    "fileattrib": 1135,
    "84": 1136,
    "tmp": 1137,
    "ush": 1138,
    "17": 1139,
    "readpoolwait": 1140,
    "process32": 1141,
    "\u2581find": 1142,
    "version": 1143,
    "\u2581crt": 1144,
    "\u25810x5f5": 1145,
    "\u25810x4d": 1146,
    "\u2581kernel32isvalidcodepage": 1147,
    "\u25810x3f30": 1148,
    "golf": 1149,
    "\u25810xfeee0008": 1150,
    "2e": 1151,
    "bers": 1152,
    "l120": 1153,
    "\u25810x1211f38": 1154,
    "af": 1155,
    "6c": 1156,
    "\u2581genericread": 1157,
    "\u25810x7ee": 1158,
    "num": 1159,
    "ccess": 1160,
    "ynch": 1161,
    "resynch": 1162,
    "resynchl120": 1163,
    "95": 1164,
    "\u2581co": 1165,
    "\u2581clo": 1166,
    "106": 1167,
    "ro": 1168,
    "men": 1169,
    "7e": 1170,
    "\u25810x4fe": 1171,
    "\u25810x4c42c0": 1172,
    "lip": 1173,
    "\u2581apimswincoresynchl120": 1174,
    "\u2581free": 1175,
    "\u2581googletempg": 1176,
    "lsfree": 1177,
    "a3": 1178,
    "cp": 1179,
    "\u25810xfeee0009": 1180,
    "\u25810x5265c14": 1181,
    "\u2581software": 1182,
    "\u25810x771c": 1183,
    "\u25810xfeee000a": 1184,
    "\u25810x5f500000": 1185,
    "\u25810xfeee000b": 1186,
    "rw": 1187,
    "\u25810xfeee000c": 1188,
    "ew": 1189,
    "ho": 1190,
    "\u25810xd": 1191,
    "\u25810xfeee000e": 1192,
    "\u25810xfeee000d": 1193,
    "\u25810xfeee0014": 1194,
    "initializ": 1195,
    "\u2581read": 1196,
    "\u25810xfeee000f": 1197,
    "mode": 1198,
    "\u2581opene": 1199,
    "condition": 1200,
    "fb": 1201,
    "\u2581shell32": 1202,
    "\u2581kernel32getconsole": 1203,
    "\u25810xfeee0010": 1204,
    "realloc": 1205,
    "b00": 1206,
    "908": 1207,
    "text": 1208,
    "\u25810x7910": 1209,
    "\u25810xfeee0015": 1210,
    "\u25810xfeee0012": 1211,
    "\u25810xfeee0011": 1212,
    "\u25810xfeee0013": 1213,
    "\u25810xfeee0016": 1214,
    "log": 1215,
    "board": 1216,
    "\u25810x8af0": 1217,
    "\u25810x42e5": 1218,
    "99": 1219,
    "\u25810x4238": 1220,
    "\u25810x8a40": 1221,
    "ach": 1222,
    "1e": 1223,
    "cec": 1224,
    "mach": 1225,
    "machine": 1226,
    "localmachine": 1227,
    "\u2581hkeylocalmachine": 1228,
    "lass": 1229,
    "\u25810x1211518": 1230,
    "\u25810x1211e04": 1231,
    "db10": 1232,
    "\u25810xfeee00c": 1233,
    "ere": 1234,
    "library": 1235,
    "gu": 1236,
    "first": 1237,
    "\u25810x12114": 1238,
    "processlist": 1239,
    "\u2581kernel32getconsoleprocesslist": 1240,
    "directorya": 1241,
    "exe": 1242,
    "ical": 1243,
    "regis": 1244,
    "\u25810x4cf": 1245,
    "windows": 1246,
    "menu": 1247,
    "00c": 1248,
    "ecount": 1249,
    "db10106": 1250,
    "\u25810x1db10106": 1251,
    "\u2581kernel32getversion": 1252,
    "\u2581ntdll": 1253,
    "\u2581kernel32fin": 1254,
    "\u25810xfeee0017": 1255,
    "\u25810x1211748": 1256,
    "\u25810xfeee0018": 1257,
    "\u25810x13": 1258,
    "\u2581getuser": 1259,
    "date": 1260,
    "\u25810xfeee0019": 1261,
    "handlecount": 1262,
    "\u25810x7e71": 1263,
    "\u2581kernel32lstrlen": 1264,
    "\u2581openkey": 1265,
    "fd": 1266,
    "08": 1267,
    "\u25810xffc": 1268,
    "\u25810x436": 1269,
    "\u25810x5265": 1270,
    "ies": 1271,
    "defaultdll": 1272,
    "directories": 1273,
    "defaultdlldirectories": 1274,
    "\u25810x8811": 1275,
    "fileaccess": 1276,
    "\u2581fileaccess": 1277,
    "ba": 1278,
    "rip": 1279,
    "780": 1280,
    "scrip": 1281,
    "\u25810x34": 1282,
    "\u25810x418": 1283,
    "day": 1284,
    "descrip": 1285,
    "xist": 1286,
    "xisting": 1287,
    "\u2581openexisting": 1288,
    "\u25810xfeee001c": 1289,
    "dlls": 1290,
    "descriptor": 1291,
    "securitydescriptor": 1292,
    "\u2581regis": 1293,
    "44": 1294,
    "\u25810x41e2": 1295,
    "\u25810xfeee001a": 1296,
    "\u2581sleep": 1297,
    "\u25810x423d": 1298,
    "\u25810x7d0": 1299,
    "fibers": 1300,
    "fibersl11": 1301,
    "tex": 1302,
    "\u2581nt": 1303,
    "3f": 1304,
    "e9": 1305,
    "\u2581kernel32heapcreate": 1306,
    "e7": 1307,
    "term": 1308,
    "\u25810x50000": 1309,
    "rwlock": 1310,
    "\u25810x40934": 1311,
    "view": 1312,
    "xa": 1313,
    "try": 1314,
    "\u2581apimswincorefibersl11": 1315,
    "\u25810x120e6": 1316,
    "filenamew": 1317,
    "\u25810x32": 1318,
    "\u25810x41e218": 1319,
    "1a": 1320,
    "\u2581pagere": 1321,
    "\u2581pagereadwrite": 1322,
    "\u25810xfeee001b": 1323,
    "\u25810x79f0": 1324,
    "\u2581closet": 1325,
    "\u2581closeth": 1326,
    "\u25810x1211958": 1327,
    "net": 1328,
    "\u2581setth": 1329,
    "\u2581kernel32gettemppathw": 1330,
    "\u2581crtdlls": 1331,
    "syscolor": 1332,
    "cs": 1333,
    "eevent": 1334,
    "fileattributes": 1335,
    "terclass": 1336,
    "22": 1337,
    "\u2581advapi32regopenkeyexw": 1338,
    "\u2581kernel32tlssetvalue": 1339,
    "\u2581user32regis": 1340,
    "call": 1341,
    "ase": 1342,
    "\u2581flsfree": 1343,
    "\u25810x678": 1344,
    "\u25810x417": 1345,
    "fileattributesw": 1346,
    "tl": 1347,
    "\u25810x84": 1348,
    "bit": 1349,
    "pa": 1350,
    "\u25810x80c0": 1351,
    "\u2581apimswincorefibersl111": 1352,
    "ant": 1353,
    "ws": 1354,
    "\u25810xfeee001d": 1355,
    "\u25810x419": 1356,
    "\u25810x1211c7c": 1357,
    "\u2581user32loadicona": 1358,
    "\u2581image": 1359,
    "point": 1360,
    "\u2581kernel32tlsalloc": 1361,
    "init": 1362,
    "\u25810x1211908": 1363,
    "\u2581inter": 1364,
    "\u2581lcmapstringex": 1365,
    "\u25810x94": 1366,
    "e1": 1367,
    "not": 1368,
    "\u2581imagelist": 1369,
    "88": 1370,
    "\u2581rtl": 1371,
    "prot": 1372,
    "97": 1373,
    "mute": 1374,
    "\u2581user32getsyscolor": 1375,
    "\u25810x1211718": 1376,
    "ink": 1377,
    "\u25810x1f": 1378,
    "bor": 1379,
    "\u25810x12114b8": 1380,
    "\u2581kernel32ver": 1381,
    "acl": 1382,
    "loat": 1383,
    "loating": 1384,
    "waitfor": 1385,
    "\u2581freelibrary": 1386,
    "ondition": 1387,
    "onditionvariable": 1388,
    "\u25810xfeee0071": 1389,
    "67": 1390,
    "protect": 1391,
    "\u25810x7de1": 1392,
    "threadlocale": 1393,
    "\u25810x4305": 1394,
    "viewof": 1395,
    "mapviewof": 1396,
    "pri": 1397,
    "33": 1398,
    "ory": 1399,
    "bb": 1400,
    "borl": 1401,
    "21": 1402,
    "memory": 1403,
    "\u2581drivewindowstemp": 1404,
    "fromstr": 1405,
    "infoini": 1406,
    "golfinfoini": 1407,
    "\u25810x8b": 1408,
    "borland": 1409,
    "keyw": 1410,
    "back": 1411,
    "\u25810x7ec1": 1412,
    "\u2581user32ws": 1413,
    "callback": 1414,
    "are": 1415,
    "metri": 1416,
    "\u25810x64": 1417,
    "ee0": 1418,
    "\u25810x53b": 1419,
    "metrics": 1420,
    "\u25810xfeee001e": 1421,
    "\u2581loadlibrary": 1422,
    "tryac": 1423,
    "\u25810x58": 1424,
    "\u25810x4a": 1425,
    "app": 1426,
    "\u2581wnet": 1427,
    "\u2581kernel32sethandlecount": 1428,
    "\u2581kernel32setfilepointer": 1429,
    "\u25810x42d4": 1430,
    "mic": 1431,
    "number": 1432,
    "\u25810x1211738": 1433,
    "lec": 1434,
    "\u25810x8f": 1435,
    "\u2581waitfor": 1436,
    "\u25810xfeee01": 1437,
    "\u25810x4750": 1438,
    "ask": 1439,
    "\u25810x43b7": 1440,
    "\u2581getfile": 1441,
    "\u2581process32": 1442,
    "datere": 1443,
    "dateresource": 1444,
    "d3": 1445,
    "\u2581write": 1446,
    "\u25810x41de50": 1447,
    "ive": 1448,
    "clus": 1449,
    "clusive": 1450,
    "rwlockex": 1451,
    "rwlockexclusive": 1452,
    "py": 1453,
    "qui": 1454,
    "lipboard": 1455,
    "\u25810x7850": 1456,
    "\u25810x2c": 1457,
    "\u2581kernel32lstrcmp": 1458,
    "\u25810xfeee001f": 1459,
    "\u25810x83": 1460,
    "\u25810xfeee0020": 1461,
    "ero": 1462,
    "\u25810x7930": 1463,
    "\u25810xfeee007e": 1464,
    "45": 1465,
    "\u25810x6781": 1466,
    "ata": 1467,
    "\u25810x1211dfc": 1468,
    "180": 1469,
    "lp": 1470,
    "2f8": 1471,
    "ub": 1472,
    "\u25810x428": 1473,
    "\u2581kernel32getthreadlocale": 1474,
    "\u25810x15": 1475,
    "\u25810x89": 1476,
    "\u25810x411": 1477,
    "paint": 1478,
    "394": 1479,
    "eb": 1480,
    "\u2581crtdllsprintf": 1481,
    "\u25810x4feb": 1482,
    "\u2581se": 1483,
    "ld": 1484,
    "mask": 1485,
    "ename": 1486,
    "c6": 1487,
    "72": 1488,
    "erw": 1489,
    "und": 1490,
    "\u2581gettickcount": 1491,
    "\u25810x1e": 1492,
    "variab": 1493,
    "\u25810x198": 1494,
    "\u2581begin": 1495,
    "\u25810x700c": 1496,
    "micro": 1497,
    "df": 1498,
    "c1": 1499,
    "\u2581getst": 1500,
    "mapvirtual": 1501,
    "\u25810x429": 1502,
    "\u2581getcommandline": 1503,
    "ion": 1504,
    "loatingpoint": 1505,
    "alwa": 1506,
    "logical": 1507,
    "lease": 1508,
    "always": 1509,
    "windowexa": 1510,
    "\u2581getlogical": 1511,
    "\u25810x704c": 1512,
    "\u25810x92": 1513,
    "\u2581kernel32creat": 1514,
    "lush": 1515,
    "\u25810x708c": 1516,
    "mapvirtualkeyw": 1517,
    "buff": 1518,
    "\u25810x19a": 1519,
    "\u25810x414": 1520,
    "\u2581user32loadcursora": 1521,
    "\u2581user32mapvirtualkeyw": 1522,
    "\u25810x8cc0": 1523,
    "\u25810x4e50": 1524,
    "iw": 1525,
    "\u25810x7f8": 1526,
    "ace": 1527,
    "\u25810x7ab0": 1528,
    "32dll": 1529,
    "51": 1530,
    "\u2581createprocess": 1531,
    "\u2581initializ": 1532,
    "low": 1533,
    "\u25810x42c4": 1534,
    "\u2581drivewindowssystem32": 1535,
    "\u25810xf0019": 1536,
    "div": 1537,
    "\u25810x53": 1538,
    "compare": 1539,
    "namea": 1540,
    "lex": 1541,
    "\u2581kernel32findre": 1542,
    "\u25810x8260": 1543,
    "\u2581flush": 1544,
    "\u25810x410": 1545,
    "\u25810x1211758": 1546,
    "fd0": 1547,
    "ethread": 1548,
    "7d": 1549,
    "microsoft": 1550,
    "sp": 1551,
    "buffers": 1552,
    "\u25810xa3": 1553,
    "lw": 1554,
    "2a": 1555,
    "\u2581kernel32g": 1556,
    "l66": 1557,
    "\u25810x99": 1558,
    "\u25810x12112f8": 1559,
    "onne": 1560,
    "\u25810x1211f64": 1561,
    "class": 1562,
    "\u25810x105": 1563,
    "\u25810x4f": 1564,
    "\u2581genericwrite": 1565,
    "a256": 1566,
    "\u25810xcc": 1567,
    "\u25810xfeee0021": 1568,
    "\u2581kernel32getversionexw": 1569,
    "\u2581interlocke": 1570,
    "\u25810x1075": 1571,
    "sha256": 1572,
    "\u25810xfeee0022": 1573,
    "96": 1574,
    "\u2581kernel32heaprealloc": 1575,
    "ockob": 1576,
    "\u25810x7e8": 1577,
    "\u25810x42a1": 1578,
    "1d": 1579,
    "setcondition": 1580,
    "setconditionmask": 1581,
    "atex": 1582,
    "\u25810xfeee0024": 1583,
    "drl66": 1584,
    "\u25810x1211cf8": 1585,
    "\u25810xfeee0025": 1586,
    "\u25810xfeee0023": 1587,
    "ken": 1588,
    "\u2581setdefaultdlldirectories": 1589,
    "\u25810x41bc": 1590,
    "1f": 1591,
    "devi": 1592,
    "debu": 1593,
    "\u25810x1211528": 1594,
    "ont": 1595,
    "token": 1596,
    "\u2581drivewindowssystem32sha256": 1597,
    "move": 1598,
    "oy": 1599,
    "\u2581kernel32versetconditionmask": 1600,
    "\u25810x17": 1601,
    "\u25810xfeee0027": 1602,
    "\u2581virtualalloc": 1603,
    "servicew": 1604,
    "quires": 1605,
    "microsoftwindows": 1606,
    "\u25810x12119c0": 1607,
    "quiresrwlockexclusive": 1608,
    "\u25810x4350": 1609,
    "stroy": 1610,
    "led": 1611,
    "\u2581msvcr": 1612,
    "currentversion": 1613,
    "\u25810xfeee0026": 1614,
    "77": 1615,
    "\u25810x6781d8": 1616,
    "\u2581kernel32createdirectoryw": 1617,
    "480": 1618,
    "iled": 1619,
    "\u2581kernel32getversionexa": 1620,
    "allock": 1621,
    "\u25810x42a190": 1622,
    "messagew": 1623,
    "out": 1624,
    "font": 1625,
    "printfw": 1626,
    "\u2581lstr": 1627,
    "ocket": 1628,
    "pro": 1629,
    "drl6660": 1630,
    "\u25810xa0": 1631,
    "\u25810x4c4308": 1632,
    "f00": 1633,
    "\u2581closehandle": 1634,
    "stockob": 1635,
    "\u2581gdi32getstockob": 1636,
    "ork": 1637,
    "\u2581kernel32initializ": 1638,
    "\u2581exitprocess": 1639,
    "mutexa": 1640,
    "trac": 1641,
    "hore": 1642,
    "semap": 1643,
    "semaphore": 1644,
    "\u2581kernel32lstrcmpiw": 1645,
    "delete": 1646,
    "\u2581virtualfree": 1647,
    "localename": 1648,
    "59": 1649,
    "\u2581kernel32virtualprotect": 1650,
    "kart": 1651,
    "karton": 1652,
    "\u25810x1211780": 1653,
    "\u2581getenvironment": 1654,
    "state": 1655,
    "\u2581king": 1656,
    "\u2581kingkarton": 1657,
    "c7": 1658,
    "\u25810x4000": 1659,
    "\u25810x4bd0": 1660,
    "\u25810x7ad0": 1661,
    "loballock": 1662,
    "\u25810xfeee005f": 1663,
    "\u25810x1211a": 1664,
    "c08": 1665,
    "nap": 1666,
    "\u2581copy": 1667,
    "\u2581shlw": 1668,
    "angu": 1669,
    "\u2581extrac": 1670,
    "anguage": 1671,
    "termin": 1672,
    "\u25810x41de08": 1673,
    "updateresource": 1674,
    "ilanguage": 1675,
    "ce0": 1676,
    "9d": 1677,
    "3a": 1678,
    "formatex": 1679,
    "\u2581compare": 1680,
    "\u2581shlwapi": 1681,
    "1b": 1682,
    "put": 1683,
    "lexec": 1684,
    "\u2581advapi32set": 1685,
    "\u25810x1211728": 1686,
    "\u2581getlocalein": 1687,
    "\u25810x67": 1688,
    "ision": 1689,
    "\u2581st": 1690,
    "variablew": 1691,
    "\u2581vari": 1692,
    "\u2581ole": 1693,
    "dclose": 1694,
    "\u25810x78a0": 1695,
    "ut1646": 1696,
    "\u2581hkeycurrentusersoftware": 1697,
    "\u25810xfeee0028": 1698,
    "\u2581kernel32lstrlenw": 1699,
    "um1646": 1700,
    "ueexw": 1701,
    "\u2581google": 1702,
    "\u2581writefile": 1703,
    "\u25810x38": 1704,
    "\u25810x2e": 1705,
    "\u2581googletempgut1646": 1706,
    "\u25810x1210f35": 1707,
    "sub": 1708,
    "\u2581googletempgum1646": 1709,
    "\u2581createsemaphore": 1710,
    "pat": 1711,
    "\u2581user32registerclass": 1712,
    "300": 1713,
    "\u25810xfeee008b": 1714,
    "ct": 1715,
    "\u25810x364": 1716,
    "opensection": 1717,
    "\u2581user32getsystem": 1718,
    "flow": 1719,
    "devicec": 1720,
    "\u2581ss": 1721,
    "\u25810x53ba40": 1722,
    "\u2581user32getsystemmetrics": 1723,
    "\u2581win": 1724,
    "\u2581termin": 1725,
    "\u2581varb": 1726,
    "\u25810x7f800": 1727,
    "\u2581setfilepointer": 1728,
    "\u25810x1211fd8": 1729,
    "namew": 1730,
    "profile": 1731,
    "3d8": 1732,
    "drag": 1733,
    "aps": 1734,
    "\u25810x7a80": 1735,
    "\u2581kernel32ex": 1736,
    "\u25810xfeee0040": 1737,
    "\u25810x7830": 1738,
    "raw": 1739,
    "\u25810xfeee0029": 1740,
    "devicecaps": 1741,
    "\u25810x1211c90": 1742,
    "\u25810x42d8": 1743,
    "\u2581draw": 1744,
    "\u2581user32loadiconw": 1745,
    "patch": 1746,
    "\u2581loadlibrarya": 1747,
    "ispatch": 1748,
    "\u25810x16": 1749,
    "\u25810x1211f8": 1750,
    "9e": 1751,
    "\u25810x4630": 1752,
    "\u2581kernel32initializes": 1753,
    "\u25810xfeee0072": 1754,
    "\u25810x169b": 1755,
    "\u25810xfeee002a": 1756,
    "\u25810x42b0": 1757,
    "dc8": 1758,
    "d04": 1759,
    "\u25810x60": 1760,
    "\u25810x97": 1761,
    "\u25810x4c46": 1762,
    "121": 1763,
    "\u25810x42e5b0": 1764,
    "\u25810x7540": 1765,
    "\u25810x1211f7c": 1766,
    "help": 1767,
    "readfile": 1768,
    "\u25810xfeee005d": 1769,
    "\u25810x1211f20": 1770,
    "informationby": 1771,
    "ble": 1772,
    "202": 1773,
    "\u25810x41d": 1774,
    "\u25810x4014": 1775,
    "\u2581readfile": 1776,
    "letecriticalsection": 1777,
    "\u2581kernel32readfile": 1778,
    "\u25810x28fd0": 1779,
    "dacl": 1780,
    "securitydescriptordacl": 1781,
    "\u25810x7aa0": 1782,
    "ga": 1783,
    "\u25810x23": 1784,
    "\u2581kernel32exitprocess": 1785,
    "wit": 1786,
    "\u25810xfeee0046": 1787,
    "61": 1788,
    "\u25810x44f8": 1789,
    "close": 1790,
    "\u25810x1b": 1791,
    "23": 1792,
    "eek": 1793,
    "\u25810xfeee002c": 1794,
    "\u2581user32wsprintfw": 1795,
    "\u2581gdi32getdevicecaps": 1796,
    "\u25810x1211cc0": 1797,
    "\u25810x1a": 1798,
    "\u25810x401468": 1799,
    "\u25810x569": 1800,
    "head": 1801,
    "zero": 1802,
    "\u25810xfeee002d": 1803,
    "\u2581ole32": 1804,
    "\u25810xfeee002b": 1805,
    "ea": 1806,
    "\u2581msvcrtstr": 1807,
    "\u25810xfeee002f": 1808,
    "\u25810x1211fd0": 1809,
    "ati": 1810,
    "\u25810xfeee00f1": 1811,
    "\u25810x439": 1812,
    "cess": 1813,
    "cy": 1814,
    "\u25810xfeee002e": 1815,
    "eck": 1816,
    "em": 1817,
    "\u25810x88a0": 1818,
    "65": 1819,
    "\u25810x22": 1820,
    "a04": 1821,
    "brush": 1822,
    "\u25810x8d00": 1823,
    "\u2581user32dll": 1824,
    "rect": 1825,
    "\u25810x2000": 1826,
    "c04": 1827,
    "with": 1828,
    "\u2581getlasterror": 1829,
    "default": 1830,
    "\u25810x4d70": 1831,
    "\u2581advapi32dll": 1832,
    "listhead": 1833,
    "failed": 1834,
    "ef": 1835,
    "32s": 1836,
    "\u25810x78c0": 1837,
    "\u25810xd0": 1838,
    "\u25810xfeee007c": 1839,
    "por": 1840,
    "\u2581getmodulehandlea": 1841,
    "\u2581kernel32createevent": 1842,
    "inkw": 1843,
    "\u25810x214": 1844,
    "\u25810xfeee0030": 1845,
    "\u25810x43b": 1846,
    "\u25810x4336": 1847,
    "\u25810xfeee0074": 1848,
    "\u2581getcon": 1849,
    "\u25810xfeee006b": 1850,
    "\u25810xfeee0045": 1851,
    "\u25810x3394": 1852,
    "\u25810x9010": 1853,
    "de9": 1854,
    "\u25810x4790": 1855,
    "\u25810xfeee0031": 1856,
    "\u25810xa000": 1857,
    "\u25810xfeee006d": 1858,
    "2d": 1859,
    "\u2581kernel32initializeslisthead": 1860,
    "\u25810xfeee0044": 1861,
    "search": 1862,
    "searchpath": 1863,
    "initialize": 1864,
    "\u2581process32next": 1865,
    "\u2581user32set": 1866,
    "\u25810xfeee0034": 1867,
    "64000": 1868,
    "\u25810x42c508": 1869,
    "\u25810xfeee005e": 1870,
    "\u25810xfeee0032": 1871,
    "\u2581drivewindowstempgolfinfoini": 1872,
    "\u25810xfeee0033": 1873,
    "sourc": 1874,
    "filenamea": 1875,
    "\u25810xfeee0043": 1876,
    "\u25810x7bd0": 1877,
    "\u25810xfeee0035": 1878,
    "\u2581close": 1879,
    "\u25810xfeee0047": 1880,
    "printfa": 1881,
    "\u25810xfeee0036": 1882,
    "\u25810xfeee0048": 1883,
    "\u25810xfeee003b": 1884,
    "\u25810xfeee0037": 1885,
    "\u25810xfeee0049": 1886,
    "\u25810xfeee0038": 1887,
    "\u25810xfeee0039": 1888,
    "\u2581getcurrentthreadid": 1889,
    "\u25810xfeee0041": 1890,
    "tries": 1891,
    "\u25810x7990": 1892,
    "\u25810xfeee003f": 1893,
    "\u25810xfeee0042": 1894,
    "menuinfo": 1895,
    "localiz": 1896,
    "\u25810x21": 1897,
    "localization": 1898,
    "\u25810xfeee003a": 1899,
    "\u25810xfeee003d": 1900,
    "\u25810x1211fcc": 1901,
    "ma": 1902,
    "\u25810xfeee003e": 1903,
    "\u25810xfeee003c": 1904,
    "\u2581gettime": 1905,
    "6f": 1906,
    "\u25810x1211fc0": 1907,
    "\u25810xfeee0062": 1908,
    "dra": 1909,
    "\u25810x7150": 1910,
    "\u25810x1211948": 1911,
    "\u2581send": 1912,
    "\u25810xfeee0053": 1913,
    "\u25810xfeee004a": 1914,
    "\u2581wa": 1915,
    "0000000": 1916,
    "\u25810xfeee0060": 1917,
    "\u2581gettemp": 1918,
    "\u25810xfeee005c": 1919,
    "\u25810x72a0": 1920,
    "\u25810xfeee004b": 1921,
    "\u25810xfeee004d": 1922,
    "\u25810xfeee004c": 1923,
    "\u2581getkey": 1924,
    "\u25810x73f0": 1925,
    "\u25810xfeee005a": 1926,
    "\u25810xfeee0050": 1927,
    "\u25810xfeee004e": 1928,
    "\u25810xfeee0055": 1929,
    "\u25810xfeee005b": 1930,
    "\u25810x7d10": 1931,
    "\u25810xfeee0051": 1932,
    "\u25810xfeee0052": 1933,
    "\u25810xfeee004f": 1934,
    "\u25810xfeee0054": 1935,
    "\u25810xfeee0061": 1936,
    "\u25810xfeee0057": 1937,
    "\u25810xfeee0056": 1938,
    "\u25810xfeee0065": 1939,
    "\u25810xfeee0063": 1940,
    "\u25810xfeee0058": 1941,
    "\u25810x1211568": 1942,
    "\u25810xfeee0066": 1943,
    "\u2581apimswincorelocalization": 1944,
    "\u25810xfeee0059": 1945,
    "\u25810xfeee0067": 1946,
    "\u2581user32setmenuinfo": 1947,
    "\u25810x7690": 1948,
    "\u25810x42c4d8": 1949,
    "\u25810x43780": 1950,
    "\u2581advapi32get": 1951,
    "e40": 1952,
    "\u25810x77e0": 1953,
    "\u25810xfeee0068": 1954,
    "\u2581kernel32lstrlena": 1955,
    "\u25810xfeee0064": 1956,
    "f04": 1957,
    "52": 1958,
    "draw": 1959,
    "sing": 1960,
    "\u25810xfeee0073": 1961,
    "110": 1962,
    "isk": 1963,
    "\u2581sleepcondition": 1964,
    "l121": 1965,
    "firstfilew": 1966,
    "mapviewoffile": 1967,
    "\u2581createfilea": 1968,
    "\u25810x1211fc8": 1969,
    "ffc": 1970,
    "borlandlocales": 1971,
    "chan": 1972,
    "\u25810xfeee0070": 1973,
    "\u25810xfeee0075": 1974,
    "\u25810xfeee006c": 1975,
    "alet": 1976,
    "l110": 1977,
    "\u25810x4169": 1978,
    "\u25810xfeee006a": 1979,
    "5d": 1980,
    "\u2581getmodulefilenamea": 1981,
    "\u25810x3c": 1982,
    "57": 1983,
    "pack": 1984,
    "\u25810xfeee006f": 1985,
    "gear": 1986,
    "codegear": 1987,
    "codegearlocales": 1988,
    "\u25810x7d50": 1989,
    "\u2581regopenkey": 1990,
    "\u25810xfeee006e": 1991,
    "\u25810xfeee0069": 1992,
    "\u25810x436390": 1993,
    "\u2581kernel32getsystemdirectoryw": 1994,
    "ryp": 1995,
    "\u25810x1f4": 1996,
    "\u2581th": 1997,
    "\u25810x423": 1998,
    "servicec": 1999,
    "servicectr": 2000,
    "tryacquiresrwlockexclusive": 2001,
    "c2": 2002,
    "etool": 2003,
    "\u25810x51": 2004,
    "clipboard": 2005,
    "shot": 2006,
    "napshot": 2007,
    "help32s": 2008,
    "etoolhelp32s": 2009,
    "etoolhelp32snapshot": 2010,
    "ym": 2011,
    "\u25810x4c46d0": 2012,
    "oper": 2013,
    "ton": 2014,
    "\u2581apimswincorelocalizationl121": 2015,
    "pos": 2016,
    "\u25810x9c": 2017,
    "closekey": 2018,
    "\u25810x42d508": 2019,
    "\u25810x437b": 2020,
    "unlock": 2021,
    "leasedc": 2022,
    "\u2581shellexec": 2023,
    "wh": 2024,
    "\u25810x42c5": 2025,
    "92": 2026,
    "d0a": 2027,
    "\u2581shlwapipath": 2028,
    "drive": 2029,
    "e3": 2030,
    "ecomp": 2031,
    "atible": 2032,
    "\u25810x1211ee0": 2033,
    "leob": 2034,
    "ume": 2035,
    "\u25810x1211bc0": 2036,
    "ecompatible": 2037,
    "main": 2038,
    "9f": 2039,
    "2020": 2040,
    "\u25810x188": 2041,
    "696": 2042,
    "een": 2043,
    "package": 2044,
    "vol": 2045,
    "268": 2046,
    "\u25810x12118": 2047,
    "fold": 2048,
    "7z": 2049,
    "\u2581kernel32virtualfree": 2050,
    "volume": 2051,
    "dinal": 2052,
    "packageid": 2053,
    "\u25810x4305b0": 2054,
    "\u25810x40a5ce": 2055,
    "\u25810x40a5d0": 2056,
    "\u25810x40a5d2": 2057,
    "\u25810x40a5d4": 2058,
    "\u25810x40a5d6": 2059,
    "\u25810x40a5d8": 2060,
    "\u25810x40a5da": 2061,
    "prec": 2062,
    "\u25810xfeee0077": 2063,
    "ordinal": 2064,
    "\u25810xfeee0079": 2065,
    "\u2581createfilew": 2066,
    "locate": 2067,
    "\u25810xfeee0078": 2068,
    "\u25810xfeee0076": 2069,
    "708": 2070,
    "\u25810xfeee007a": 2071,
    "\u2581getlogicaldrive": 2072,
    "ec0": 2073,
    "\u25810x25": 2074,
    "\u2581createcompatible": 2075,
    "allc": 2076,
    "keallc": 2077,
    "keallconditionvariable": 2078,
    "\u2581po": 2079,
    "\u2581createthread": 2080,
    "\u25810xfeee0081": 2081,
    "\u2581getfilesize": 2082,
    "\u25810x12119ac": 2083,
    "\u2581start": 2084,
    "gsetval": 2085,
    "\u25810x52": 2086,
    "\u25810x42d4d8": 2087,
    "\u2581getlocaleinfo": 2088,
    "\u2581comparestringex": 2089,
    "\u2581getlocaleinfoex": 2090,
    "320": 2091,
    "\u25810x68": 2092,
    "\u25810xfde9": 2093,
    "ns": 2094,
    "\u25810xfeee009a": 2095,
    "operation": 2096,
    "folder": 2097,
    "\u2581kernel32process32": 2098,
    "hg": 2099,
    "\u2581getmodulehandlew": 2100,
    "ec8": 2101,
    "\u2581deletefilew": 2102,
    "sym": 2103,
    "\u2581kernel32l": 2104,
    "boli": 2105,
    "bolicl": 2106,
    "\u2581wsock": 2107,
    "\u2581regclosekey": 2108,
    "692": 2109,
    "symbolicl": 2110,
    "\u2581softwaremicrosoftwindows": 2111,
    "symboliclinkw": 2112,
    "\u2581createsymboliclinkw": 2113,
    "588": 2114,
    "\u25810x53000": 2115,
    "verflow": 2116,
    "\u2581createevent": 2117,
    "lockresource": 2118,
    "\u25810x434": 2119,
    "econditionvariable": 2120,
    "\u2581getd": 2121,
    "2030": 2122,
    "\u2581getmodulefilenamew": 2123,
    "strfrom": 2124,
    "\u2581setwindow": 2125,
    "append": 2126,
    "\u2581varbstrfrom": 2127,
    "work": 2128,
    "meto": 2129,
    "\u25810x4239": 2130,
    "\u25810x21000": 2131,
    "\u25810x1211e14": 2132,
    "enum": 2133,
    "\u2581kernel32lread": 2134,
    "\u2581apimswinc": 2135,
    "\u2581regsetval": 2136,
    "vate": 2137,
    "appendw": 2138,
    "sizeof": 2139,
    "sizeofresource": 2140,
    "\u2581b": 2141,
    "\u25810x8e": 2142,
    "\u2581end": 2143,
    "sourceexw": 2144,
    "etur": 2145,
    "\u25810x1211f2c": 2146,
    "e66": 2147,
    "\u25810x4c32": 2148,
    "\u25810x1f400": 2149,
    "7b": 2150,
    "\u25810xfeee007b": 2151,
    "\u25810x3f34": 2152,
    "\u2581getstartu": 2153,
    "retur": 2154,
    "\u2581getcurrentpackageid": 2155,
    "\u2581getcommandlinew": 2156,
    "when": 2157,
    "processornumber": 2158,
    "\u2581getcurrentprocessornumber": 2159,
    "returns": 2160,
    "processwrite": 2161,
    "whencallback": 2162,
    "\u2581flushprocesswrite": 2163,
    "\u2581setthreadpoolwait": 2164,
    "whencallbackreturns": 2165,
    "\u2581closethreadpoolwait": 2166,
    "\u2581closethreadpooltimer": 2167,
    "\u2581createthreadpoolwait": 2168,
    "\u2581flushprocesswritebuffers": 2169,
    "\u2581freelibrarywhencallbackreturns": 2170,
    "callbacks": 2171,
    "\u2581waitforth": 2172,
    "\u2581setthreadpooltimer": 2173,
    "readpooltimercallbacks": 2174,
    "\u2581createthreadpooltimer": 2175,
    "\u2581waitforthreadpooltimercallbacks": 2176,
    "\u2581createsemaphoreexw": 2177,
    "singleob": 2178,
    "\u2581temp": 2179,
    "\u2581getsystemtimeasfiletime": 2180,
    "\u2581user32getdc": 2181,
    "\u25810x1211fc4": 2182,
    "\u25810x42b": 2183,
    "releasedc": 2184,
    "oci": 2185,
    "windowproc": 2186,
    "\u2581user32releasedc": 2187,
    "associ": 2188,
    "dup": 2189,
    "\u25810x79d0": 2190,
    "variablea": 2191,
    "\u2581kernel32createfilea": 2192,
    "39000": 2193,
    "2w": 2194,
    "onnection": 2195,
    "ncmp": 2196,
    "\u25810x435390": 2197,
    "args": 2198,
    "onnection2w": 2199,
    "\u25810x121194c": 2200,
    "mainargs": 2201,
    "\u25810x98": 2202,
    "\u25810x12117a4": 2203,
    "378": 2204,
    "\u25810x121157c": 2205,
    "\u25810xfeee0089": 2206,
    "\u2581ntdlldll": 2207,
    "patha": 2208,
    "readpoolwork": 2209,
    "e6b": 2210,
    "sourcew": 2211,
    "ac6": 2212,
    "d80": 2213,
    "ast": 2214,
    "\u25810xfeee008a": 2215,
    "b8000": 2216,
    "\u25810xfeee007f": 2217,
    "7f": 2218,
    "\u2581kernel32lstrcp": 2219,
    "\u2581extract": 2220,
    "associate": 2221,
    "\u2581msvcrtstrncmp": 2222,
    "dicon": 2223,
    "associatedicon": 2224,
    "\u2581extractassociatedicon": 2225,
    "messagebo": 2226,
    "\u2581isprocessorfeaturepresent": 2227,
    "eekmessagea": 2228,
    "\u25810xfeee010": 2229,
    "\u2581hton": 2230,
    "\u2581user32create": 2231,
    "\u2581wsock32": 2232,
    "ac000": 2233,
    "tit": 2234,
    "\u25810x1211dcc": 2235,
    "\u2581getfileattributesw": 2236,
    "updateresourcea": 2237,
    "nal": 2238,
    "688": 2239,
    "uni": 2240,
    "\u2581kernel32global": 2241,
    "stit": 2242,
    "\u2581kernel32findresourceexw": 2243,
    "hgdraw": 2244,
    "hgdrawdll": 2245,
    "\u25810x460": 2246,
    "\u2581shlwapipathappendw": 2247,
    "heck": 2248,
    "\u2581mon": 2249,
    "fontsub": 2250,
    "private": 2251,
    "stitutes": 2252,
    "fontsubstitutes": 2253,
    "currentversionfontsubstitutes": 2254,
    "3c000": 2255,
    "\u2581findclose": 2256,
    "onexw": 2257,
    "privateprofile": 2258,
    "procaddress": 2259,
    "\u25810x422": 2260,
    "\u2581getprocaddress": 2261,
    "86": 2262,
    "13": 2263,
    "\u2581destroy": 2264,
    "\u25810xfeee0080": 2265,
    "sw": 2266,
    "de0": 2267,
    "ad000": 2268,
    "uppor": 2269,
    "\u2581kernel32gettempfilenamew": 2270,
    "54000": 2271,
    "rypt": 2272,
    "errormode": 2273,
    "\u25810x7b40": 2274,
    "\u25810x101": 2275,
    "suppor": 2276,
    "\u25810xfeee007d": 2277,
    "\u25810x3f75": 2278,
    "\u2581findnext": 2279,
    "69000": 2280,
    "\u2581getdate": 2281,
    "\u25810x1211f00": 2282,
    "a5000": 2283,
    "getmainargs": 2284,
    "\u25810x3e": 2285,
    "380": 2286,
    "24000": 2287,
    "\u2581getc": 2288,
    "\u25810x33": 2289,
    "\u25810x1211fd4": 2290,
    "b4000": 2291,
    "bc000": 2292,
    "\u2581regsetvalueexw": 2293,
    "28000": 2294,
    "\u25810x412": 2295,
    "32000": 2296,
    "\u2581openalways": 2297,
    "\u2581ntdllnt": 2298,
    "7c000": 2299,
    "\u25810xa9": 2300,
    "be000": 2301,
    "\u25810x4371": 2302,
    "\u25810xa429": 2303,
    "5c000": 2304,
    "\u2581shell32dll": 2305,
    "\u25810xc00": 2306,
    "mapviewofsection": 2307,
    "\u25810x44f9": 2308,
    "unicode": 2309,
    "2c000": 2310,
    "\u25810x7f0": 2311,
    "58000": 2312,
    "26000": 2313,
    "\u25810xfeee0082": 2314,
    "c5": 2315,
    "94000": 2316,
    "34000": 2317,
    "ab000": 2318,
    "\u2581initializecriticalsection": 2319,
    "\u25810x59": 2320,
    "\u2581getprocess": 2321,
    "\u25810x42e": 2322,
    "6d": 2323,
    "7a": 2324,
    "48000": 2325,
    "\u2581post": 2326,
    "securityinfo": 2327,
    "770": 2328,
    "a8000": 2329,
    "38000": 2330,
    "\u25810x4feba8": 2331,
    "\u25810x7090": 2332,
    "74000": 2333,
    "56000": 2334,
    "a4000": 2335,
    "unicodestring": 2336,
    "9c000": 2337,
    "c4000": 2338,
    "78000": 2339,
    "98000": 2340,
    "initunicodestring": 2341,
    "62": 2342,
    "68000": 2343,
    "73": 2344,
    "\u25810x120e": 2345,
    "\u2581ntdllntopensection": 2346,
    "004": 2347,
    "image": 2348,
    "\u25810x4100": 2349,
    "\u2581ole32co": 2350,
    "3696": 2351,
    "update": 2352,
    "\u25810x29": 2353,
    "\u2581the": 2354,
    "\u25810x8230": 2355,
    "endof": 2356,
    "\u25810x1211e2c": 2357,
    "tered": 2358,
    "e6669": 2359,
    "e6b692": 2360,
    "3696e6b692": 2361,
    "3696e6b692e6669": 2362,
    "withal": 2363,
    "withaltered": 2364,
    "\u2581loadwithaltered": 2365,
    "\u2581loadwithalteredsearchpath": 2366,
    "f4000": 2367,
    "\u25810xfeee0084": 2368,
    "\u2581ssdll": 2369,
    "6e": 2370,
    "ok": 2371,
    "lon": 2372,
    "\u2581kernel32setdefaultdlldirectories": 2373,
    "\u25810x2f": 2374,
    "filetimeto": 2375,
    "5e": 2376,
    "\u2581getuserdefault": 2377,
    "\u25810x169bf": 2378,
    "\u25810x7ae0": 2379,
    "\u25810x96": 2380,
    "delp": 2381,
    "\u2581devi": 2382,
    "\u25810x438": 2383,
    "defwindowproc": 2384,
    "\u25810x46b0": 2385,
    "\u2581getcurrentdirectoryw": 2386,
    "lic": 2387,
    "spac": 2388,
    "\u25810xfeee0095": 2389,
    "endoffile": 2390,
    "\u25810xfeee0087": 2391,
    "\u25810xfeee008e": 2392,
    "\u2581waitforsingleob": 2393,
    "\u25810xfeee0088": 2394,
    "\u25810x5a": 2395,
    "bitmap": 2396,
    "setini": 2397,
    "\u25810x1211d04": 2398,
    "golfsetini": 2399,
    "\u25810xfeee0083": 2400,
    "\u25810xfeee008c": 2401,
    "\u2581ac": 2402,
    "2022030": 2403,
    "\u25810x7300": 2404,
    "\u25810xfeee0085": 2405,
    "\u25810x7390": 2406,
    "\u25810xfeee0086": 2407,
    "initterm": 2408,
    "188": 2409,
    "\u25810x1211a04": 2410,
    "debug": 2411,
    "\u25810x1211c04": 2412,
    "contr": 2413,
    "\u2581softwaremicrosoftwindowsnt": 2414,
    "208": 2415,
    "\u25810x7900": 2416,
    "volumeinformation": 2417,
    "\u25810xfeee008d": 2418,
    "\u2581globalalloc": 2419,
    "tryaccess": 2420,
    "\u2581registryaccess": 2421,
    "ay": 2422,
    "\u25810x7b80": 2423,
    "\u25810x8920": 2424,
    "\u2581kernel32getcurrentprocess": 2425,
    "338": 2426,
    "\u2581globalfree": 2427,
    "\u2581registerclass": 2428,
    "\u25810x4967": 2429,
    "e6c": 2430,
    "\u25810xb8": 2431,
    "\u25810x7db0": 2432,
    "ab8": 2433,
    "\u25810x78d0": 2434,
    "infow": 2435,
    "delphi": 2436,
    "borlanddelphi": 2437,
    "\u25810x1d": 2438,
    "\u25810x437880": 2439,
    "borlanddelphilocales": 2440,
    "\u25810x569b00": 2441,
    "408": 2442,
    "\u2581setfileattributesw": 2443,
    "2b": 2444,
    "\u2581error": 2445,
    "\u25810x66": 2446,
    "\u25810x7270": 2447,
    "ator": 2448,
    "owwindow": 2449,
    "untime": 2450,
    "\u25810x7060": 2451,
    "transl": 2452,
    "12000": 2453,
    "wc": 2454,
    "\u25810x6d": 2455,
    "\u25810x571": 2456,
    "\u25810x6b": 2457,
    "\u25810x85": 2458,
    "\u2581transl": 2459,
    "\u25810xfeee008f": 2460,
    "\u25810x71b0": 2461,
    "\u25810xfeee0090": 2462,
    "\u25810x1211dd4": 2463,
    "ysical": 2464,
    "\u25810x75d0": 2465,
    "\u2581translate": 2466,
    "\u25810x39": 2467,
    "tof": 2468,
    "\u25810x42b9": 2469,
    "\u25810x7870": 2470,
    "oct": 2471,
    "hysical": 2472,
    "\u25810x1211efc": 2473,
    "f30": 2474,
    "sid": 2475,
    "\u2581cwindowstempgolfinfoini": 2476,
    "eexception": 2477,
    "iseexception": 2478,
    "68c": 2479,
    "\u25810x7030": 2480,
    "\u2581user32p": 2481,
    "\u2581user32peekmessagea": 2482,
    "\u25810x7d95": 2483,
    "ray": 2484,
    "\u25810x7d94": 2485,
    "\u25810x416b": 2486,
    "ust": 2487,
    "\u25810xfeee0092": 2488,
    "\u25810x9a": 2489,
    "\u25810x94c0": 2490,
    "\u25810x42dac6": 2491,
    "\u2581ws2": 2492,
    "\u25810x7b10": 2493,
    "ontr": 2494,
    "erator": 2495,
    "\u25810x71e0": 2496,
    "\u25810x79c0": 2497,
    "\u2581un": 2498,
    "\u2581globallock": 2499,
    "\u2581globalunlock": 2500,
    "\u25810xfeee0094": 2501,
    "\u25810x7210": 2502,
    "\u2581createalways": 2503,
    "\u25810x74e0": 2504,
    "\u25810x7240": 2505,
    "\u25810x72d0": 2506,
    "\u25810x7750": 2507,
    "\u25810x7a50": 2508,
    "\u25810xfeee0091": 2509,
    "privi": 2510,
    "localtime": 2511,
    "\u25810x70c0": 2512,
    "\u25810x7120": 2513,
    "\u25810x7180": 2514,
    "b9c": 2515,
    "fer": 2516,
    "\u25810x8090": 2517,
    "\u25810x7600": 2518,
    "\u25810x7cf0": 2519,
    "118": 2520,
    "privile": 2521,
    "\u25810x70f0": 2522,
    "\u25810x7480": 2523,
    "\u25810x7330": 2524,
    "\u2581wakeallconditionvariable": 2525,
    "lect": 2526,
    "\u25810x75a0": 2527,
    "\u25810xfeee0093": 2528,
    "\u25810x7360": 2529,
    "\u25810x7570": 2530,
    "\u25810x7660": 2531,
    "\u25810x7720": 2532,
    "5b": 2533,
    "\u25810xe0": 2534,
    "\u25810x73c0": 2535,
    "\u25810x7a20": 2536,
    "\u25810x7ba0": 2537,
    "\u25810x7450": 2538,
    "\u25810x7840": 2539,
    "updatewindow": 2540,
    "\u25810x76f0": 2541,
    "\u25810x74b0": 2542,
    "\u25810x76c0": 2543,
    "\u25810x7420": 2544,
    "\u25810x7510": 2545,
    "\u25810xfeee0098": 2546,
    "ger": 2547,
    "messageboxa": 2548,
    "\u25810x77b0": 2549,
    "\u25810xfeee0097": 2550,
    "\u25810xfeee0096": 2551,
    "\u25810xfeee0099": 2552,
    "\u25810x7630": 2553,
    "\u2581loadicon": 2554,
    "\u25810x1211fac": 2555,
    "\u25810x7960": 2556,
    "\u25810x7780": 2557,
    "\u25810x7b70": 2558,
    "\u2581initialize": 2559,
    "\u25810x86": 2560,
    "\u25810x1211f28": 2561,
    "\u2581loadcursor": 2562,
    "lecs": 2563,
    "variablecs": 2564,
    "\u2581sleepconditionvariablecs": 2565,
    "53": 2566,
    "stringsa": 2567,
    "\u2581pff": 2568,
    "\u25810x41b": 2569,
    "\u25810x36": 2570,
    "\u2581defwindowproc": 2571,
    "\u25810x42a": 2572,
    "\u25810x78f0": 2573,
    "\u25810x9030": 2574,
    "\u25810x121193c": 2575,
    "\u25810x7be0": 2576,
    "iskfree": 2577,
    "e44": 2578,
    "refer": 2579,
    "err": 2580,
    "\u2581kernel32globalalloc": 2581,
    "\u25810xfeee009b": 2582,
    "\u2581shell32sh": 2583,
    "\u25810xfeee009c": 2584,
    "\u2581kernel32delete": 2585,
    "\u2581shell32shget": 2586,
    "\u2581local": 2587,
    "\u2581kernel32tryacquiresrwlockexclusive": 2588,
    "redu": 2589,
    "referredu": 2590,
    "referreduilanguage": 2591,
    "quit": 2592,
    "\u25810x419c": 2593,
    "readpreferreduilanguage": 2594,
    "quitmessage": 2595,
    "\u25810x42a9": 2596,
    "readpreferreduilanguages": 2597,
    "\u2581postquitmessage": 2598,
    "\u2581kernel32lstrcpyn": 2599,
    "\u2581hkeylocalmachinesoftware": 2600,
    "anag": 2601,
    "\u2581pr": 2602,
    "\u2581endpaint": 2603,
    "\u2581beginpaint": 2604,
    "am": 2605,
    "\u2581createdirectoryw": 2606,
    "\u2581setthread": 2607,
    "\u25810x3f2000": 2608,
    "texe": 2609,
    "\u2581dispatch": 2610,
    "\u2581isvalid": 2611,
    "\u2581e": 2612,
    "\u2581deletefilea": 2613,
    "\u25810x48f8": 2614,
    "ums": 2615,
    "e00": 2616,
    "variant": 2617,
    "\u2581enums": 2618,
    "\u2581com": 2619,
    "388": 2620,
    "bits": 2621,
    "\u25810x44f8e0": 2622,
    "environmentvariablew": 2623,
    "\u2581no": 2624,
    "\u25810x42a9a0": 2625,
    "\u2581getcommandlinea": 2626,
    "\u25810x1211508": 2627,
    "\u2581getversi": 2628,
    "hlp": 2629,
    "debugger": 2630,
    "ateprocess": 2631,
    "\u2581enumsystem": 2632,
    "iskfreespac": 2633,
    "\u2581exit": 2634,
    "setup": 2635,
    "\u25810x410090": 2636,
    "656": 2637,
    "txt": 2638,
    "\u25810x95": 2639,
    "debuggerpresent": 2640,
    "cb": 2641,
    "ary": 2642,
    "\u25810x7bf0": 2643,
    "\u25810x7b90": 2644,
    "\u25810x1211cdc": 2645,
    "\u2581createtoolhelp32snapshot": 2646,
    "\u25810xa3a7": 2647,
    "malloc": 2648,
    "\u2581enumsystemlocales": 2649,
    "arg": 2650,
    "textout": 2651,
    "ind": 2652,
    "\u2581getwindow": 2653,
    "ted": 2654,
    "hlpapi": 2655,
    "\u2581advapi32regopenkeyexa": 2656,
    "\u25810x1211928": 2657,
    "servicehandle": 2658,
    "manag": 2659,
    "\u2581process32first": 2660,
    "value": 2661,
    "\u2581msvcrtp": 2662,
    "f00d0a": 2663,
    "\u2581user32wsprintfa": 2664,
    "\u2581kingkarton10": 2665,
    "\u2581getconsole": 2666,
    "\u2581ws232dll": 2667,
    "array": 2668,
    "utesa": 2669,
    "fileattributesa": 2670,
    "tring": 2671,
    "\u2581heapalloc": 2672,
    "\u2581user32createwindowexa": 2673,
    "808": 2674,
    "\u25810x1211f04": 2675,
    "\u25810x655": 2676,
    "\u25810x6c": 2677,
    "failedtxt": 2678,
    "setup2022030": 2679,
    "\u2581res": 2680,
    "ug": 2681,
    "rit": 2682,
    "\u25810x12117f8": 2683,
    "pe": 2684,
    "\u25810x47c0": 2685,
    "a58": 2686,
    "\u25810x80000000": 2687,
    "\u2581setevent": 2688,
    "umethread": 2689,
    "\u25810x404": 2690,
    "\u2581resumethread": 2691,
    "\u2581translatemessage": 2692,
    "\u25810x1211578": 2693,
    "\u2581variant": 2694,
    "\u25810x52660": 2695,
    "ritec": 2696,
    "errata": 2697,
    "precision": 2698,
    "precisionerrata": 2699,
    "\u2581pffloatingpoint": 2700,
    "\u2581pffloatingpointprecisionerrata": 2701,
    "ed8": 2702,
    "ifi": 2703,
    "\u2581openprocess": 2704,
    "\u25810xa2": 2705,
    "002": 2706,
    "\u2581writec": 2707,
    "\u2581msvcrtwc": 2708,
    "3c0": 2709,
    "\u25810x1211308": 2710,
    "\u25810x65500000": 2711,
    "\u25810x41b9": 2712,
    "\u25810x41bc20": 2713,
    "\u2581heapfree": 2714,
    "\u2581getuserdefaultlocalename": 2715,
    "eto": 2716,
    "drl6660drl6660": 2717,
    "od": 2718,
    "\u2581multibytetowidechar": 2719,
    "\u2581softwaremicrosoftwindowsntcurrentversionfontsubstitutes": 2720,
    "\u2581getdateformatex": 2721,
    "\u2581gettimeformatex": 2722,
    "\u2581isvalidlocalename": 2723,
    "\u2581enumsystemlocalesex": 2724,
    "c9": 2725,
    "terwindow": 2726,
    "\u2581findfirstfilew": 2727,
    "typ": 2728,
    "item": 2729,
    "\u2581sep": 2730,
    "folderpathw": 2731,
    "\u25810x424": 2732,
    "nextw": 2733,
    "\u2581kernel32getsysteminfo": 2734,
    "change": 2735,
    "\u25810x3bc": 2736,
    "\u2581kernel32seterrormode": 2737,
    "\u2581sat": 2738,
    "oem": 2739,
    "\u25810xd000": 2740,
    "\u2581cwindowstemp7z": 2741,
    "\u25810x10000": 2742,
    "\u2581dec": 2743,
    "\u25810x4fec": 2744,
    "\u2581apr": 2745,
    "\u2581aug": 2746,
    "\u2581sun": 2747,
    "\u2581widechartomultibyte": 2748,
    "bas": 2749,
    "\u25810x1211f4c": 2750,
    "\u25810x1211f34": 2751,
    "\u2581exitthread": 2752,
    "\u2581getprocessheap": 2753,
    "teen": 2754,
    "aletteen": 2755,
    "aletteentries": 2756,
    "\u25810x420c": 2757,
    "\u25810x7cd0": 2758,
    "if": 2759,
    "systemp": 2760,
    "unwin": 2761,
    "ac0": 2762,
    "msg": 2763,
    "\u2581may": 2764,
    "uary": 2765,
    "uter": 2766,
    "scmanag": 2767,
    "computer": 2768,
    "\u25810x42a40": 2769,
    "sday": 2770,
    "\u2581tue": 2771,
    "\u2581wed": 2772,
    "round": 2773,
    "unwind": 2774,
    "\u25810x2d": 2775,
    "\u2581fri": 2776,
    "\u25810x169b9": 2777,
    "texta": 2778,
    "\u2581olea": 2779,
    "\u25810xa1": 2780,
    "atethread": 2781,
    "texw": 2782,
    "f8000": 2783,
    "cel": 2784,
    "fe8": 2785,
    "\u2581findnextfilew": 2786,
    "be8": 2787,
    "hread": 2788,
    "utof": 2789,
    "ethod": 2790,
    "\u25810x31": 2791,
    "d50": 2792,
    "\u2581getdiskfreespac": 2793,
    "foreg": 2794,
    "division": 2795,
    "foreground": 2796,
    "foregroundwindow": 2797,
    "\u25810x42b9a0": 2798,
    "\u2581createprocessa": 2799,
    "debugs": 2800,
    "putdebugs": 2801,
    "putdebugstring": 2802,
    "\u2581terminatethread": 2803,
    "\u2581copyfilew": 2804,
    "supported": 2805,
    "\u25810x42e0": 2806,
    "\u25810x408": 2807,
    "5f": 2808,
    "\u2581localalloc": 2809,
    "\u25810x7df0": 2810,
    "cc8": 2811,
    "systempaletteentries": 2812,
    "9a": 2813,
    "\u25810x7ee0": 2814,
    "\u25810xa8": 2815,
    "\u2581createdirectorya": 2816,
    "\u2581getstdhandle": 2817,
    "\u25810x27": 2818,
    "\u2581kernel32process32nextw": 2819,
    "exec": 2820,
    "\u2581entercriticalsection": 2821,
    "typec": 2822,
    "\u2581floatingpoint": 2823,
    "\u25810x4340": 2824,
    "\u2581leavecriticalsection": 2825,
    "byzero": 2826,
    "divisionbyzero": 2827,
    "\u2581invalidvariant": 2828,
    "processorinformation": 2829,
    "\u2581deletecriticalsection": 2830,
    "63": 2831,
    "\u2581getcurrentprocess": 2832,
    "\u2581kernel32deletefilew": 2833,
    "\u2581getlogicalprocessorinformation": 2834,
    "ta": 2835,
    "stack": 2836,
    "ater": 2837,
    "guar": 2838,
    "mappin": 2839,
    "filemappin": 2840,
    "antee": 2841,
    "guarantee": 2842,
    "stackguarantee": 2843,
    "\u2581varr": 2844,
    "4fromstr": 2845,
    "9b": 2846,
    "fearray": 2847,
    "\u2581createprocessw": 2848,
    "\u2581gdi32getsystempaletteentries": 2849,
    "bat": 2850,
    "\u2581setthreadstackguarantee": 2851,
    "32c": 2852,
    "\u25810x37": 2853,
    "\u25810x5265c28": 2854,
    "\u2581getcurrentprocessid": 2855,
    "ull": 2856,
    "\u25810x423b": 2857,
    "\u25810x409340": 2858,
    "\u25810x40933d": 2859,
    "\u25810x40933e": 2860,
    "\u25810x40933f": 2861,
    "\u25810x409341": 2862,
    "\u25810x409342": 2863,
    "\u25810x409343": 2864,
    "\u2581isdebuggerpresent": 2865,
    "uilanguage": 2866,
    "\u2581openscmanag": 2867,
    "ccc": 2868,
    "e4000": 2869,
    "\u2581getcpinfo": 2870,
    "\u25810x67000000": 2871,
    "\u2581getacp": 2872,
    "\u25810x3f3000": 2873,
    "\u25810x5265d": 2874,
    "\u25810x1211ef0": 2875,
    "\u2581closeservicehandle": 2876,
    "114": 2877,
    "ram": 2878,
    "utdow": 2879,
    "\u25810x3f34c0": 2880,
    "680": 2881,
    "enthread": 2882,
    "\u25810x527": 2883,
    "ven": 2884,
    "\u25810x1211f88": 2885,
    "\u2581tlsgetvalue": 2886,
    "\u2581terminateprocess": 2887,
    "\u2581tlssetvalue": 2888,
    "\u2581openscmanagerw": 2889,
    "\u2581getfileinformationby": 2890,
    "\u2581unhandledexceptionfilter": 2891,
    "\u2581getenvironmentvariablea": 2892,
    "antor": 2893,
    "antorsa": 2894,
    "antorsafearray": 2895,
    "b04": 2896,
    "\u25810x52662": 2897,
    "\u2581rtlunwind": 2898,
    "\u2581kernel32createeventw": 2899,
    "bl": 2900,
    "\u25810x3d": 2901,
    "\u2581setlasterror": 2902,
    "\u2581cwindowstempsetup2022030": 2903,
    "\u2581openthread": 2904,
    "\u2581kernel32globallock": 2905,
    "\u25810x107568": 2906,
    "\u25810x42d8c6": 2907,
    "f40": 2908,
    "add": 2909,
    "\u2581getenvironmentvariablew": 2910,
    "\u25810x4c42d8": 2911,
    "\u25810x4c42f0": 2912,
    "\u25810x2b": 2913,
    "hlpapidll": 2914,
    "\u25810x7af0": 2915,
    "spec": 2916,
    "\u2581getfiletype": 2917,
    "cpy": 2918,
    "\u25810x5f": 2919,
    "\u2581getusernamew": 2920,
    "riv": 2921,
    "\u2581dispatchmessagea": 2922,
    "008": 2923,
    "\u25810x43b390": 2924,
    "\u25810x8f20": 2925,
    "\u2581initializesecuritydescriptor": 2926,
    "oemcp": 2927,
    "\u2581heaprealloc": 2928,
    "\u2581setsecuritydescriptordacl": 2929,
    "\u25810x8a80": 2930,
    "ce8": 2931,
    "filemappinga": 2932,
    "bk": 2933,
    "\u25810x40a9": 2934,
    "new": 2935,
    "\u2581crtdll": 2936,
    "\u25810x35": 2937,
    "\u25810x40a": 2938,
    "fileinformationby": 2939,
    "\u2581interlockedincrement": 2940,
    "\u2581getmessagea": 2941,
    "\u2581interlockeddecrement": 2942,
    "aterect": 2943,
    "\u25810x1211f3c": 2944,
    "\u25810x60000": 2945,
    "\u2581getfileinformationbyhandl": 2946,
    "full": 2947,
    "\u2581system": 2948,
    "san": 2949,
    "\u2581setunhandledexceptionfilter": 2950,
    "\u2581tlsalloc": 2951,
    "\u2581ra": 2952,
    "\u25810x42a0": 2953,
    "\u2581raiseexception": 2954,
    "\u25810x4208": 2955,
    "\u25810x433648": 2956,
    "\u2581createe": 2957,
    "\u25810x1211bfc": 2958,
    "\u2581gettickcount64": 2959,
    "5a": 2960,
    "edu": 2961,
    "procedu": 2962,
    "ty": 2963,
    "\u2581getstringtypew": 2964,
    "\u2581getoemcp": 2965,
    "e08": 2966,
    "filebuffers": 2967,
    "dat": 2968,
    "\u2581setfileinformationby": 2969,
    "ventexw": 2970,
    "\u2581createeventexw": 2971,
    "dowstemp": 2972,
    "328": 2973,
    "\u25810x8814": 2974,
    "\u25810x26": 2975,
    "\u25810x7d98": 2976,
    "\u2581regquery": 2977,
    "\u2581flushfilebuffers": 2978,
    "\u25810x7d99": 2979,
    "\u25810x4620": 2980,
    "\u2581user32registerwindow": 2981,
    "dowstemphgdrawdll": 2982,
    "\u2581lcmapstringw": 2983,
    "fdr": 2984,
    "\u25810x1211768": 2985,
    "ogram": 2986,
    "fdrbat": 2987,
    "sanfdrbat": 2988,
    "\u2581kernel32getsystemdirectorya": 2989,
    "2f": 2990,
    "\u25810x1211dc8": 2991,
    "ance": 2992,
    "saf": 2993,
    "\u25810x120e6d4": 2994,
    "\u25810x9020": 2995,
    "blt": 2996,
    "e04": 2997,
    "\u25810x1211cfc": 2998,
    "\u2581heapcreate": 2999,
    "\u2581gdi32dll": 3000,
    "\u25810x8280": 3001,
    "\u2581getenvironmentstringsw": 3002,
    "\u2581freeenvironmentstringsw": 3003,
    "178": 3004,
    "\u2581check": 3005,
    "\u2581crypt": 3006,
    "\u25810x7de4": 3007,
    "\u25810x7da0": 3008,
    "280": 3009,
    "\u2581setfileattributesa": 3010,
    "\u2581release": 3011,
    "lid": 3012,
    "\u25810x7de5": 3013,
    "\u2581kernel32de": 3014,
    "\u25810x8815": 3015,
    "\u25810x80c4": 3016,
    "\u25810x7d9c": 3017,
    "muldiv": 3018,
    "\u2581kernel32deletecriticalsection": 3019,
    "\u25810x7d9d": 3020,
    "\u25810x120e6d0": 3021,
    "d08": 3022,
    "\u25810x42ce": 3023,
    "\u25810x423e": 3024,
    "\u25810x7da1": 3025,
    "\u2581getsystemmetrics": 3026,
    "93": 3027,
    "bkcolor": 3028,
    "stdhandle": 3029,
    "\u25810x12117e8": 3030,
    "\u25810x12117fc": 3031,
    "\u2581setstdhandle": 3032,
    "mutex": 3033,
    "a18": 3034,
    "classlon": 3035,
    "\u25810x7db4": 3036,
    "\u2581shellexecute": 3037,
    "\u25810x7da4": 3038,
    "\u25810x8a60": 3039,
    "\u25810x7db5": 3040,
    "ioc": 3041,
    "tob": 3042,
    "\u25810x5b": 3043,
    "\u25810x4800": 3044,
    "\u25810x410770": 3045,
    "726": 3046,
    "140": 3047,
    "cept": 3048,
    "400": 3049,
    "\u2581initializecriticalsectionandspincount": 3050,
    "\u25810x1211fdc": 3051,
    "\u2581getdc": 3052,
    "\u25810x7da5": 3053,
    "\u25810x43b8": 3054,
    "artup": 3055,
    "destroy": 3056,
    "setinformation": 3057,
    "\u2581copyfilea": 3058,
    "lectob": 3059,
    "lhandl": 3060,
    "\u25810x4330": 3061,
    "\u25810x1211e08": 3062,
    "b08": 3063,
    "rand": 3064,
    "bc8": 3065,
    "\u25810x527ed8": 3066,
    "\u25810x7da8": 3067,
    "\u25810x1211f48": 3068,
    "\u25810x45fc": 3069,
    "e68": 3070,
    "\u25810x7e74": 3071,
    "indirec": 3072,
    "\u2581regopenkeyexa": 3073,
    "3f8": 3074,
    "\u25810x7e75": 3075,
    "\u25810x42c0": 3076,
    "\u25810x7e78": 3077,
    "\u25810x7da9": 3078,
    "\u25810x7e79": 3079,
    "\u25810x42d5": 3080,
    "\u25810x7e7c": 3081,
    "\u2581settext": 3082,
    "\u25810x7e7d": 3083,
    "\u2581kernel32getvolumeinformation": 3084,
    "loadresource": 3085,
    "\u25810x1211e40": 3086,
    "\u2581kernel32loadresource": 3087,
    "\u25810x55": 3088,
    "\u2581virtualprotect": 3089,
    "\u25810x7e80": 3090,
    "\u2581setwindowpos": 3091,
    "a0000": 3092,
    "\u2581oleaut": 3093,
    "\u2581deleteob": 3094,
    "46": 3095,
    "privilege": 3096,
    "\u2581getforegroundwindow": 3097,
    "\u25810x8cf0": 3098,
    "\u2581selectob": 3099,
    "\u2581crtdllgetmainargs": 3100,
    "\u2581deletedc": 3101,
    "do": 3102,
    "\u2581getkeystate": 3103,
    "\u2581kernel32findresourcew": 3104,
    "\u25810x40a2": 3105,
    "\u2581sethandlecount": 3106,
    "\u25810x2d4": 3107,
    "\u25810x7dac": 3108,
    "\u25810x7dad": 3109,
    "the": 3110,
    "\u25810xa7": 3111,
    "\u25810x7e81": 3112,
    "\u2581softwareborlandlocales": 3113,
    "\u25810x7e84": 3114,
    "\u25810x7e85": 3115,
    "\u2581kernel32createeventa": 3116,
    "\u2581user32getsyscolorbrush": 3117,
    "\u2581init": 3118,
    "\u2581queryperformancecounter": 3119,
    "a10": 3120,
    "\u25810x8d80": 3121,
    "\u2581kernel32sizeofresource": 3122,
    "ify": 3123,
    "42": 3124,
    "ifyversion": 3125,
    "\u2581settextcolor": 3126,
    "terservicectr": 3127,
    "terservicectrlhandl": 3128,
    "\u2581softwarecodegearlocales": 3129,
    "\u25810x42fc": 3130,
    "internal": 3131,
    "368": 3132,
    "\u2581program": 3133,
    "\u25810x8410": 3134,
    "\u25810x4255": 3135,
    "\u2581tlsfree": 3136,
    "\u25810x7db1": 3137,
    "rtl": 3138,
    "\u2581setbkcolor": 3139,
    "\u25810x61": 3140,
    "valuew": 3141,
    "\u2581kernel32loadlibraryw": 3142,
    "numberis": 3143,
    "errornumberis": 3144,
    "\u2581programinternal": 3145,
    "\u2581programinternalerrornumberis": 3146,
    "\u25810x4340c8": 3147,
    "\u2581textout": 3148,
    "\u25810x3f3": 3149,
    "\u25810x8330": 3150,
    "\u2581apimswincrt": 3151,
    "\u2581kernel32getlocaltime": 3152,
    "10c": 3153,
    "uld": 3154,
    "\u25810x120e69": 3155,
    "\u2581kernel32lockresource": 3156,
    "\u25810x41f3": 3157,
    "\u2581regqueryval": 3158,
    "ifyversioninfow": 3159,
    "uldnot": 3160,
    "\u2581fil": 3161,
    "\u25810x3f31": 3162,
    "initializeex": 3163,
    "\u2581user32registerclassa": 3164,
    "ctl32": 3165,
    "\u2581setendoffile": 3166,
    "pl": 3167,
    "\u25810x57": 3168,
    "atw": 3169,
    "\u2581createeventa": 3170,
    "\u2581comctl32": 3171,
    "\u2581showwindow": 3172,
    "\u25810x8340": 3173,
    "\u25810xfeee011": 3174,
    "\u25810x4bc": 3175,
    "astartup": 3176,
    "accel": 3177,
    "dexchange": 3178,
    "776": 3179,
    "belocate": 3180,
    "\u25810x42c588": 3181,
    "\u2581createdi": 3182,
    "\u25810x4e5": 3183,
    "\u25810x1e5": 3184,
    "ldispatch": 3185,
    "servicectrldispatch": 3186,
    "\u25810x5265e": 3187,
    "6a": 3188,
    "pend": 3189,
    "\u25810xa5": 3190,
    "bitblt": 3191,
    "\u25810x3e6c": 3192,
    "\u25810x9b": 3193,
    "\u25810x41db": 3194,
    "\u2581winexec": 3195,
    "servicestatus": 3196,
    "imagebas": 3197,
    "dlg": 3198,
    "\u2581setc": 3199,
    "fac": 3200,
    "\u25810x40e": 3201,
    "lipboar": 3202,
    "\u25810x52661": 3203,
    "\u2581al": 3204,
    "\u2581getlogicaldrivestringsa": 3205,
    "350": 3206,
    "\u25810x571b00": 3207,
    "\u25810x7db9": 3208,
    "\u25810x7db8": 3209,
    "\u2581user32registerwindowmessagew": 3210,
    "\u25810x40b3": 3211,
    "\u2581msvcrtinitterm": 3212,
    "ec2": 3213,
    "dinthe": 3214,
    "\u25810x4710": 3215,
    "uldnotbelocate": 3216,
    "uldnotbelocatedinthe": 3217,
    "\u25810x20000": 3218,
    "ow64": 3219,
    "\u2581updatewindow": 3220,
    "opene": 3221,
    "\u2581cwindowssystem320": 3222,
    "\u25810x6a6": 3223,
    "\u25810x7dbc": 3224,
    "\u25810x1211ec8": 3225,
    "900": 3226,
    "\u25810x7dbd": 3227,
    "\u25810x431f": 3228,
    "\u2581registerservicectrlhandl": 3229,
    "\u25810x40a5dc": 3230,
    "\u25810x40a5cc": 3231,
    "\u25810x1210d": 3232,
    "\u2581mapviewoffile": 3233,
    "\u2581imagelistdrag": 3234,
    "querys": 3235,
    "\u25810x4298": 3236,
    "\u25810x8d10": 3237,
    "\u2581createcompatibledc": 3238,
    "\u2581kernel32getenvironmentvariablew": 3239,
    "\u2581lstrcmp": 3240,
    "dibits": 3241,
    "socket": 3242,
    "\u2581kernel32verifyversioninfow": 3243,
    "\u2581bitblt": 3244,
    "\u25810x4169c0": 3245,
    "\u25810x4169c1": 3246,
    "\u2581tr": 3247,
    "\u2581loadicona": 3248,
    "\u25810x3a": 3249,
    "\u2581heapsize": 3250,
    "\u25810x3f30b0": 3251,
    "esid": 3252,
    "\u25810x3f30e0": 3253,
    "\u25810x52000": 3254,
    "\u25810x3f3030": 3255,
    "\u2581ole32coinitializeex": 3256,
    "initializesid": 3257,
    "\u2581getob": 3258,
    "\u25810x3f3110": 3259,
    "\u25810x1211ccc": 3260,
    "\u25810x3f3140": 3261,
    "andinitializesid": 3262,
    "\u2581findre": 3263,
    "\u25810x3b": 3264,
    "\u2581sendmessagea": 3265,
    "\u25810x4015": 3266,
    "\u2581releasemutex": 3267,
    "\u2581unmapviewoffile": 3268,
    "\u2581createmutexa": 3269,
    "\u2581fill": 3270,
    "\u25810x41d8": 3271,
    "prdll": 3272,
    "\u2581invalidaterect": 3273,
    "\u2581destroyicon": 3274,
    "\u2581mprdll": 3275,
    "\u2581getkeyboard": 3276,
    "\u2581createcompatiblebitmap": 3277,
    "a44": 3278,
    "398": 3279,
    "\u2581createwindowexa": 3280,
    "\u2581defwindowproca": 3281,
    "\u25810x9230": 3282,
    "fontindirec": 3283,
    "\u25810x46a0": 3284,
    "\u2581filetimeto": 3285,
    "\u2581createfilemappinga": 3286,
    "f08": 3287,
    "accelerator": 3288,
    "wow64": 3289,
    "\u2581msvcrtmalloc": 3290,
    "\u2581theprocedu": 3291,
    "c3": 3292,
    "\u2581select": 3293,
    "\u2581getprivateprofile": 3294,
    "\u2581findwindow": 3295,
    "\u2581settimer": 3296,
    "ad4": 3297,
    "\u25810x51000": 3298,
    "solid": 3299,
    "\u25810x2ac": 3300,
    "988": 3301,
    "\u2581getdibits": 3302,
    "bar": 3303,
    "\u25810x4c32c0": 3304,
    "\u2581fillrect": 3305,
    "\u2581openservicew": 3306,
    "\u2581createfontindirec": 3307,
    "alog": 3308,
    "\u25810x41f": 3309,
    "servicectrldispatcherw": 3310,
    "ddata": 3311,
    "\u25810x9d": 3312,
    "lipboarddata": 3313,
    "host": 3314,
    "uspend": 3315,
    "\u25810x41de80": 3316,
    "solidbrush": 3317,
    "\u2581startservicew": 3318,
    "\u2581loadcursora": 3319,
    "\u2581createservicew": 3320,
    "uspendthread": 3321,
    "\u2581allocate": 3322,
    "\u2581allocateandinitializesid": 3323,
    "\u2581suspendthread": 3324,
    "\u2581getsystemdirectoryw": 3325,
    "orm": 3326,
    "\u2581setservicestatus": 3327,
    "ee8": 3328,
    "\u2581getkeyboardstate": 3329,
    "iconinfo": 3330,
    "\u2581geticoninfo": 3331,
    "\u2581startservicectrldispatcherw": 3332,
    "\u25810x480": 3333,
    "7c3": 3334,
    "\u2581setclasslon": 3335,
    "\u25810x7dc0": 3336,
    "\u2581createsolidbrush": 3337,
    "solec": 3338,
    "\u2581registerclassexa": 3339,
    "a08": 3340,
    "\u25810x4094": 3341,
    "dec8": 3342,
    "\u25810x41678": 3343,
    "ordinal680": 3344,
    "\u2581shell32ordinal680": 3345,
    "\u25810x9240": 3346,
    "\u2581initializeconditionvariable": 3347,
    "\u25810xf0": 3348,
    "\u25810x4428": 3349,
    "\u2581drawicon": 3350,
    "\u2581getusernamea": 3351,
    "creat": 3352,
    "\u25810x1211c14": 3353,
    "\u2581emp": 3354,
    "addc": 3355,
    "\u25810x48f898": 3356,
    "seclipboard": 3357,
    "yarg": 3358,
    "d8000": 3359,
    "utdown": 3360,
    "computernamea": 3361,
    "\u2581openclipboard": 3362,
    "\u2581closeclipboard": 3363,
    "\u2581setclipboarddata": 3364,
    "\u2581empty": 3365,
    "\u25810x415": 3366,
    "\u2581emptyclipboard": 3367,
    "ecta": 3368,
    "\u2581kernel32heapsetinformation": 3369,
    "cd": 3370,
    "324": 3371,
    "b88": 3372,
    "\u25810x567": 3373,
    "\u2581freesid": 3374,
    "\u25810x41d6": 3375,
    "couldnotbelocatedinthe": 3376,
    "\u2581ntdllrtl": 3377,
    "\u2581createdib": 3378,
    "788": 3379,
    "6b": 3380,
    "\u25810xfeee014": 3381,
    "\u2581getstartupinfow": 3382,
    "generic": 3383,
    "a88": 3384,
    "hip": 3385,
    "members": 3386,
    "membership": 3387,
    "onnect": 3388,
    "\u2581kernel32open": 3389,
    "tokenmembership": 3390,
    "\u25810x4227": 3391,
    "\u25810x7dc1": 3392,
    "287e": 3393,
    "genericwrite": 3394,
    "\u2581genericreadgenericwrite": 3395,
    "\u25810x4170": 3396,
    "\u2581kernel32createmutexa": 3397,
    "cc000": 3398,
    "\u2581user32registerclassexw": 3399,
    "\u25810x9460": 3400,
    "\u2581createdibsection": 3401,
    "49": 3402,
    "\u2581form": 3403,
    "\u2581getlogicaldrivestringsw": 3404,
    "\u2581createfontindirecta": 3405,
    "\u25810x44f928": 3406,
    "\u25810x1f000": 3407,
    "menuitem": 3408,
    "xe": 3409,
    "\u25810x42a7": 3410,
    "\u2581checktokenmembership": 3411,
    "\u2581textouta": 3412,
    "openenum": 3413,
    "\u2581wnetopenenum": 3414,
    "\u25810x4054": 3415,
    "\u2581connect": 3416,
    "windowexw": 3417,
    "\u2581wnetopenenumw": 3418,
    "\u2581out": 3419,
    "\u2581drawtexta": 3420,
    "byname": 3421,
    "\u25810x4960": 3422,
    "hostbyname": 3423,
    "\u25810x405d": 3424,
    "\u2581wnetaddc": 3425,
    "\u2581regopenkeyexw": 3426,
    "41": 3427,
    "resourcew": 3428,
    "\u2581wnetaddconnection2w": 3429,
    "\u2581wnetenum": 3430,
    "\u2581wnetenumresourcew": 3431,
    "ca": 3432,
    "\u2581getstartupinfoa": 3433,
    "\u25810x801000": 3434,
    "\u25810x43d": 3435,
    "\u2581findwindowa": 3436,
    "\u25810x1211bd0": 3437,
    "\u25810x1211f30": 3438,
    "\u2581gethostbyname": 3439,
    "\u25810x7b000": 3440,
    "\u25810x41d7": 3441,
    "\u25810x800000": 3442,
    "\u25810x120fb": 3443,
    "\u25810x4330c8": 3444,
    "cance": 3445,
    "cancelc": 3446,
    "\u25810x4e80": 3447,
    "\u2581wnetcancelc": 3448,
    "\u2581wnetcancelconnection2w": 3449,
    "\u25810x7b00": 3450,
    "d4000": 3451,
    "\u2581gettemppathw": 3452,
    "\u25810x5d": 3453,
    "\u25810xfeee012": 3454,
    "\u25810x41dda8": 3455,
    "wow64process": 3456,
    "\u2581advapi32initialize": 3457,
    "\u25810x6f": 3458,
    "\u25810x41ddc0": 3459,
    "\u2581advapi32initializesecuritydescriptor": 3460,
    "\u2581rec": 3461,
    "\u2581lstrlen": 3462,
    "hels": 3463,
    "inkifi": 3464,
    "helsinkifi": 3465,
    "\u2581work": 3466,
    "\u2581remove": 3467,
    "\u2581shellexecut": 3468,
    "\u25810x41ddf0": 3469,
    "\u25810x41db74": 3470,
    "\u25810x41db9c": 3471,
    "\u2581workhelsinkifi": 3472,
    "dialog": 3473,
    "\u25810x418a": 3474,
    "\u25810x41de38": 3475,
    "\u2581htons": 3476,
    "\u25810x41de68": 3477,
    "\u25810x405d54": 3478,
    "\u2581setclasslonga": 3479,
    "\u2581socket": 3480,
    "apptype": 3481,
    "\u25810x41de98": 3482,
    "\u25810x41deb0": 3483,
    "\u25810x41dec8": 3484,
    "\u2581recv": 3485,
    "\u2581closesocket": 3486,
    "f828": 3487,
    "\u2581extractic": 3488,
    "e88": 3489,
    "\u2581list": 3490,
    "geo": 3491,
    "\u2581extractassociatedicona": 3492,
    "\u2581extractassociatediconw": 3493,
    "\u2581wsastartup": 3494,
    "\u25810x58de": 3495,
    "\u2581shellexecuteexw": 3496,
    "zeromemory": 3497,
    "\u2581shutdown": 3498,
    "\u25810x40a2d5": 3499,
    "\u2581findwindowexa": 3500,
    "\u2581endup": 3501,
    "updateresourcew": 3502,
    "\u2581endupdateresource": 3503,
    "cef": 3504,
    "\u2581updateresourcea": 3505,
    "\u2581endupdateresourcea": 3506,
    "\u2581beginupdateresourcea": 3507,
    "izn": 3508,
    "c8000": 3509,
    "geoid": 3510,
    "iznad": 3511,
    "\u2581getusergeoid": 3512,
    "\u2581rtlzeromemory": 3513,
    "\u2581registerservicectrlhandlerw": 3514,
    "\u2581cb": 3515,
    "\u2581beginupdateresourcew": 3516,
    "\u2581advapi32setsecuritydescriptordacl": 3517,
    "onsolew": 3518,
    "\u25810xb0000": 3519,
    "lsocket": 3520,
    "octlsocket": 3521,
    "\u2581extracticonexw": 3522,
    "\u2581ioctlsocket": 3523,
    "querysystem": 3524,
    "\u2581htonl": 3525,
    "querysysteminformation": 3526,
    "\u25810x1e00000": 3527,
    "\u25810x1e50000": 3528,
    "\u2581listen": 3529,
    "\u25810x80e0": 3530,
    "\u25810x1211938": 3531,
    "\u2581bind": 3532,
    "\u2581accept": 3533,
    "\u2581kernel32find": 3534,
    "\u2581writeconsolew": 3535,
    "\u2581getpe": 3536,
    "ols": 3537,
    "ername": 3538,
    "\u2581getpeername": 3539,
    "11000": 3540,
    "b48": 3541,
    "\u25810x1211fb8": 3542,
    "\u25810x2ac45": 3543,
    "\u2581getconsolemode": 3544,
    "\u2581ip": 3545,
    "\u2581shell32shgetfolderpathw": 3546,
    "\u25810x40287e": 3547,
    "\u25810x423818": 3548,
    "\u2581kernel32getcomputernamea": 3549,
    "ce000": 3550,
    "\u25810x1211f10": 3551,
    "\u25810x84b0": 3552,
    "\u2581getversionexw": 3553,
    "108": 3554,
    "\u25810xb0": 3555,
    "\u25810x8310": 3556,
    "solecp": 3557,
    "ff000": 3558,
    "\u2581getconsolecp": 3559,
    "\u2581oleaut32dll": 3560,
    "\u25810x438c": 3561,
    "de000": 3562,
    "\u2581createeventw": 3563,
    "3a8": 3564,
    "fc000": 3565,
    "ec000": 3566,
    "\u2581loadresource": 3567,
    "\u25810x152": 3568,
    "\u25810xa6": 3569,
    "18000": 3570,
    "\u2581lockresource": 3571,
    "once": 3572,
    "\u25810x4229": 3573,
    "e8000": 3574,
    "\u25810x4189": 3575,
    "\u25810x8d2": 3576,
    "\u25810x12110": 3577,
    "1c000": 3578,
    "entries": 3579,
    "\u25810x1211af0": 3580,
    "xx": 3581,
    "\u25810x1076": 3582,
    "\u2581kernel32openmutexa": 3583,
    "dc000": 3584,
    "controls": 3585,
    "\u25810x41d838": 3586,
    "\u25810x81": 3587,
    "\u25810x8026": 3588,
    "\u25810x7f03": 3589,
    "\u2581msvcrti": 3590,
    "\u2581regdelete": 3591,
    "\u2581oc": 3592,
    "iznadm": 3593,
    "\u25810x41d6d0": 3594,
    "a6e6": 3595,
    "\u25810x41d740": 3596,
    "\u2581ntquerysysteminformation": 3597,
    "\u25810x41d708": 3598,
    "\u25810x42bd": 3599,
    "26b2": 3600,
    "\u25810x405461": 3601,
    "\u2581triznadm": 3602,
    "unmapviewofsection": 3603,
    "\u25810x97a0": 3604,
    "\u25810x41b910": 3605,
    "\u25810x41f828": 3606,
    "\u2581ntunmapviewofsection": 3607,
    "putdebugstringa": 3608,
    "14000": 3609,
    "ang": 3610,
    "\u25810x525": 3611,
    "\u25810x1f0001": 3612,
    "\u2581advapi32getuser": 3613,
    "fe000": 3614,
    "\u2581isvalidcodepage": 3615,
    "\u2581advapi32getusernamea": 3616,
    "inacl": 3617,
    "entriesinacl": 3618,
    "488": 3619,
    "\u2581ntmapviewofsection": 3620,
    "duplic": 3621,
    "ee000": 3622,
    "todo": 3623,
    "\u25810xb4": 3624,
    "e4c": 3625,
    "\u2581regqueryvalueexw": 3626,
    "entriesinacla": 3627,
    "\u2581user32messageboxa": 3628,
    "serror": 3629,
    "\u25810x43b3": 3630,
    "ntstatus": 3631,
    "\u25810xab": 3632,
    "todoserror": 3633,
    "\u2581rtlntstatus": 3634,
    "\u2581rtlntstatustodoserror": 3635,
    "330": 3636,
    "\u2581crtdllsrand": 3637,
    "a17": 3638,
    "windowstemp": 3639,
    "\u25810x40f6": 3640,
    "\u2581rtlinitunicodestring": 3641,
    "threadpreferreduilanguages": 3642,
    "\u2581ntdllrtlinitunicodestring": 3643,
    "\u2581advapi32setentriesinacla": 3644,
    "\u25810xca0000": 3645,
    "\u2581devicep": 3646,
    "\u25810x77001000": 3647,
    "\u25810x77002000": 3648,
    "\u25810x77003000": 3649,
    "\u25810x77004000": 3650,
    "\u25810x77005000": 3651,
    "\u25810x77006000": 3652,
    "\u25810x77007000": 3653,
    "\u25810x77008000": 3654,
    "\u25810x77009000": 3655,
    "\u25810x7700a000": 3656,
    "\u25810x7700b000": 3657,
    "\u25810x7700c000": 3658,
    "\u25810x7700d000": 3659,
    "\u25810x7700e000": 3660,
    "\u25810x7700f000": 3661,
    "\u25810x77010000": 3662,
    "\u25810x77011000": 3663,
    "\u25810x77012000": 3664,
    "\u25810x77013000": 3665,
    "\u25810x77014000": 3666,
    "\u25810x77015000": 3667,
    "\u25810x77016000": 3668,
    "\u25810x77017000": 3669,
    "\u25810x77018000": 3670,
    "\u25810x77019000": 3671,
    "\u25810x7701a000": 3672,
    "\u25810x7701b000": 3673,
    "\u25810x7701c000": 3674,
    "\u25810x7701d000": 3675,
    "\u25810x7701e000": 3676,
    "\u25810x7701f000": 3677,
    "\u25810x77020000": 3678,
    "\u25810x77021000": 3679,
    "\u25810x77022000": 3680,
    "\u25810x77023000": 3681,
    "\u25810x77024000": 3682,
    "\u25810x77025000": 3683,
    "\u25810x77026000": 3684,
    "\u25810x77027000": 3685,
    "\u25810x77028000": 3686,
    "\u25810x77029000": 3687,
    "\u25810x7702a000": 3688,
    "\u25810x7702b000": 3689,
    "\u25810x7702c000": 3690,
    "\u25810x7702d000": 3691,
    "\u25810x7702e000": 3692,
    "\u25810x7702f000": 3693,
    "\u25810x77030000": 3694,
    "\u25810x77031000": 3695,
    "\u25810x77032000": 3696,
    "\u25810x77033000": 3697,
    "\u25810x77034000": 3698,
    "\u25810x77035000": 3699,
    "\u25810x77036000": 3700,
    "\u25810x77037000": 3701,
    "\u25810x77038000": 3702,
    "\u25810x77039000": 3703,
    "\u25810x7703a000": 3704,
    "\u25810x7703b000": 3705,
    "\u25810x7703c000": 3706,
    "\u25810x7703d000": 3707,
    "\u25810x7703e000": 3708,
    "\u25810x7703f000": 3709,
    "\u25810x77040000": 3710,
    "\u25810x77041000": 3711,
    "\u25810x77042000": 3712,
    "\u25810x77043000": 3713,
    "\u25810x77044000": 3714,
    "\u25810x77045000": 3715,
    "\u25810x77046000": 3716,
    "\u25810x77047000": 3717,
    "\u25810x77048000": 3718,
    "\u25810x77049000": 3719,
    "\u25810x7704a000": 3720,
    "\u25810x7704b000": 3721,
    "\u25810x7704c000": 3722,
    "\u25810x7704d000": 3723,
    "\u25810x7704e000": 3724,
    "\u25810x7704f000": 3725,
    "\u25810x77050000": 3726,
    "\u25810x77051000": 3727,
    "\u25810x77052000": 3728,
    "\u25810x77053000": 3729,
    "\u25810x77054000": 3730,
    "\u25810x77055000": 3731,
    "\u25810x77056000": 3732,
    "\u25810x77057000": 3733,
    "\u25810x77058000": 3734,
    "\u25810x77059000": 3735,
    "\u25810x7705a000": 3736,
    "\u25810x7705b000": 3737,
    "\u25810x7705c000": 3738,
    "\u25810x7705d000": 3739,
    "\u25810x7705e000": 3740,
    "\u25810x7705f000": 3741,
    "\u25810x77060000": 3742,
    "\u25810x77061000": 3743,
    "\u25810x77062000": 3744,
    "\u25810x77063000": 3745,
    "\u25810x77064000": 3746,
    "\u25810x77065000": 3747,
    "\u25810x77066000": 3748,
    "\u25810x77067000": 3749,
    "\u25810x77068000": 3750,
    "\u25810x77069000": 3751,
    "\u25810x7706a000": 3752,
    "\u25810x7706b000": 3753,
    "\u25810x7706c000": 3754,
    "\u25810x7706d000": 3755,
    "\u25810x7706e000": 3756,
    "\u25810x7706f000": 3757,
    "\u25810x77070000": 3758,
    "\u25810x77071000": 3759,
    "\u25810x77072000": 3760,
    "\u25810x77073000": 3761,
    "\u25810x77074000": 3762,
    "\u25810x77075000": 3763,
    "\u25810x77076000": 3764,
    "\u25810x77077000": 3765,
    "\u25810x77078000": 3766,
    "\u25810x77079000": 3767,
    "\u25810x7707a000": 3768,
    "\u25810x7707b000": 3769,
    "\u25810x7707c000": 3770,
    "\u25810x7707d000": 3771,
    "\u25810x7707e000": 3772,
    "\u25810x7707f000": 3773,
    "\u25810x77080000": 3774,
    "\u25810x77081000": 3775,
    "\u25810x77082000": 3776,
    "\u25810x77083000": 3777,
    "\u25810x77084000": 3778,
    "\u25810x77085000": 3779,
    "\u25810x77086000": 3780,
    "\u25810x77087000": 3781,
    "\u25810x77088000": 3782,
    "\u25810x77089000": 3783,
    "\u25810x7708a000": 3784,
    "\u25810x7708b000": 3785,
    "\u25810x7708c000": 3786,
    "\u25810x7708d000": 3787,
    "\u25810x7708e000": 3788,
    "\u25810x7708f000": 3789,
    "\u25810x77090000": 3790,
    "\u25810x77091000": 3791,
    "\u25810x77092000": 3792,
    "\u25810x77093000": 3793,
    "\u25810x77094000": 3794,
    "\u25810x77095000": 3795,
    "\u25810x77096000": 3796,
    "\u25810x77097000": 3797,
    "\u25810x77098000": 3798,
    "\u25810x77099000": 3799,
    "\u25810x7709a000": 3800,
    "\u25810x7709b000": 3801,
    "\u25810x7709c000": 3802,
    "\u25810x7709d000": 3803,
    "\u25810x7709e000": 3804,
    "\u25810x7709f000": 3805,
    "\u25810x770a0000": 3806,
    "\u25810x770a1000": 3807,
    "\u25810x770a2000": 3808,
    "\u25810x770a3000": 3809,
    "\u25810x770a4000": 3810,
    "\u25810x770a5000": 3811,
    "\u25810x770a6000": 3812,
    "\u25810x770a7000": 3813,
    "\u25810x770a8000": 3814,
    "\u25810x770a9000": 3815,
    "\u25810x770aa000": 3816,
    "\u25810x770ab000": 3817,
    "\u25810x770ac000": 3818,
    "\u25810x770ad000": 3819,
    "\u25810x770ae000": 3820,
    "\u25810x770af000": 3821,
    "\u25810x770b0000": 3822,
    "\u25810x770b1000": 3823,
    "\u25810x770b2000": 3824,
    "\u25810x770b3000": 3825,
    "\u25810x770b4000": 3826,
    "\u25810x770b5000": 3827,
    "\u25810x770b6000": 3828,
    "\u25810x770b7000": 3829,
    "\u25810x770b8000": 3830,
    "\u25810x770b9000": 3831,
    "\u25810x770ba000": 3832,
    "\u25810x770bb000": 3833,
    "\u25810x770bc000": 3834,
    "\u25810x770bd000": 3835,
    "\u25810x770be000": 3836,
    "\u25810x770bf000": 3837,
    "\u25810x770c0000": 3838,
    "\u25810x770c1000": 3839,
    "\u25810x770c2000": 3840,
    "\u25810x770c3000": 3841,
    "\u25810x770c4000": 3842,
    "\u25810x770c5000": 3843,
    "\u25810x770c6000": 3844,
    "\u25810x770c7000": 3845,
    "\u25810x770c8000": 3846,
    "\u25810x770c9000": 3847,
    "\u25810x770ca000": 3848,
    "\u25810x770cb000": 3849,
    "\u25810x770cc000": 3850,
    "\u25810x770cd000": 3851,
    "\u25810x770ce000": 3852,
    "\u25810x770cf000": 3853,
    "\u25810x770d0000": 3854,
    "\u25810x770d1000": 3855,
    "\u25810x770d2000": 3856,
    "\u25810x770d3000": 3857,
    "\u25810x770d4000": 3858,
    "\u25810x770d5000": 3859,
    "\u25810x770d6000": 3860,
    "\u25810x770d7000": 3861,
    "\u25810x770d8000": 3862,
    "\u25810x770d9000": 3863,
    "\u25810x770da000": 3864,
    "\u25810x770db000": 3865,
    "\u25810x770dc000": 3866,
    "\u25810x770dd000": 3867,
    "\u25810x770de000": 3868,
    "\u25810x770df000": 3869,
    "\u25810x770e0000": 3870,
    "\u25810x770e1000": 3871,
    "\u25810x770e2000": 3872,
    "\u25810x770e3000": 3873,
    "\u25810x770e4000": 3874,
    "\u25810x770e5000": 3875,
    "\u25810x770e6000": 3876,
    "\u25810x770e7000": 3877,
    "\u25810x770e8000": 3878,
    "\u25810x770e9000": 3879,
    "\u25810x770ea000": 3880,
    "\u25810x770eb000": 3881,
    "\u25810x770ec000": 3882,
    "\u25810x770ed000": 3883,
    "\u25810x770ee000": 3884,
    "\u25810x770ef000": 3885,
    "\u25810x770f0000": 3886,
    "\u25810x770f1000": 3887,
    "\u25810x770f2000": 3888,
    "\u25810x770f3000": 3889,
    "\u25810x770f4000": 3890,
    "\u25810x770f5000": 3891,
    "\u25810x770f6000": 3892,
    "\u25810x770f7000": 3893,
    "\u25810x770f8000": 3894,
    "\u25810x770f9000": 3895,
    "\u25810x770fa000": 3896,
    "\u25810x770fb000": 3897,
    "\u25810x770fc000": 3898,
    "\u25810x770fd000": 3899,
    "\u25810x770fe000": 3900,
    "\u25810x770ff000": 3901,
    "\u25810x77100000": 3902,
    "\u25810x77101000": 3903,
    "\u25810x77102000": 3904,
    "\u25810x77103000": 3905,
    "\u25810x77104000": 3906,
    "\u25810x77105000": 3907,
    "\u25810x77106000": 3908,
    "\u25810x77107000": 3909,
    "\u25810x77108000": 3910,
    "\u25810x77109000": 3911,
    "\u25810x7710a000": 3912,
    "\u25810x7710b000": 3913,
    "\u25810x7710c000": 3914,
    "\u25810x7710d000": 3915,
    "\u25810x7710e000": 3916,
    "\u25810x7710f000": 3917,
    "\u25810x77110000": 3918,
    "\u25810x77111000": 3919,
    "\u25810x77112000": 3920,
    "\u25810x77113000": 3921,
    "\u25810x77114000": 3922,
    "\u25810x77115000": 3923,
    "\u25810x77116000": 3924,
    "\u25810x77117000": 3925,
    "\u25810x77118000": 3926,
    "\u25810x77119000": 3927,
    "\u25810x7711a000": 3928,
    "\u25810x7711b000": 3929,
    "\u25810x7711c000": 3930,
    "\u25810x7711d000": 3931,
    "\u25810x7711e000": 3932,
    "\u25810x7711f000": 3933,
    "\u25810x77120000": 3934,
    "\u25810x77121000": 3935,
    "\u25810x77122000": 3936,
    "\u25810x77123000": 3937,
    "\u25810x77124000": 3938,
    "\u25810x77125000": 3939,
    "\u25810x77126000": 3940,
    "\u25810x77127000": 3941,
    "\u25810x77128000": 3942,
    "\u25810x77129000": 3943,
    "\u25810x7712a000": 3944,
    "\u25810x7712b000": 3945,
    "\u25810x7712c000": 3946,
    "\u25810x7712d000": 3947,
    "\u25810x7712e000": 3948,
    "\u25810x7712f000": 3949,
    "\u25810x77130000": 3950,
    "\u25810x77131000": 3951,
    "\u25810x77132000": 3952,
    "\u25810x77133000": 3953,
    "\u25810x77134000": 3954,
    "\u25810x77135000": 3955,
    "\u25810x77136000": 3956,
    "\u25810x77137000": 3957,
    "\u25810x77138000": 3958,
    "\u25810x77139000": 3959,
    "\u25810x7713a000": 3960,
    "\u25810x7713b000": 3961,
    "\u25810x7713c000": 3962,
    "\u25810x7713d000": 3963,
    "\u25810x7713e000": 3964,
    "\u25810x7713f000": 3965,
    "\u25810x77140000": 3966,
    "\u25810x77141000": 3967,
    "\u25810x77142000": 3968,
    "\u25810x77143000": 3969,
    "\u25810x77144000": 3970,
    "\u25810x77145000": 3971,
    "\u25810x77146000": 3972,
    "\u25810x77147000": 3973,
    "\u25810x77148000": 3974,
    "\u25810x77149000": 3975,
    "\u25810x7714a000": 3976,
    "\u25810x7714b000": 3977,
    "\u25810x7714c000": 3978,
    "\u25810x7714d000": 3979,
    "\u25810x7714e000": 3980,
    "\u25810x7714f000": 3981,
    "\u25810x77150000": 3982,
    "\u25810x77151000": 3983,
    "\u25810x77152000": 3984,
    "\u25810x77153000": 3985,
    "\u25810x77154000": 3986,
    "\u25810x77155000": 3987,
    "\u25810x77156000": 3988,
    "\u25810x77157000": 3989,
    "\u25810x77158000": 3990,
    "\u25810x77159000": 3991,
    "\u25810x7715a000": 3992,
    "\u25810x7715b000": 3993,
    "\u25810x7715c000": 3994,
    "\u25810x7715d000": 3995,
    "\u25810x7715e000": 3996,
    "\u25810x7715f000": 3997,
    "\u25810x77160000": 3998,
    "\u25810x77161000": 3999,
    "\u25810x77162000": 4000,
    "\u25810x77163000": 4001,
    "\u25810x77164000": 4002,
    "\u25810x77165000": 4003,
    "\u25810x77166000": 4004,
    "\u25810x77167000": 4005,
    "\u25810x77168000": 4006,
    "\u25810x77169000": 4007,
    "\u25810x7716a000": 4008,
    "\u25810x7716b000": 4009,
    "\u25810x7716c000": 4010,
    "\u25810x7716d000": 4011,
    "\u25810x7716e000": 4012,
    "\u25810x7716f000": 4013,
    "\u25810x77170000": 4014,
    "\u25810x77171000": 4015,
    "\u25810x77172000": 4016,
    "\u25810x77173000": 4017,
    "\u25810x77174000": 4018,
    "\u25810x77175000": 4019,
    "\u25810x77176000": 4020,
    "\u25810x77177000": 4021,
    "\u25810x77178000": 4022,
    "\u25810x77179000": 4023,
    "\u25810x7717a000": 4024,
    "\u25810x7717b000": 4025,
    "\u25810x7717c000": 4026,
    "\u25810x7717d000": 4027,
    "\u25810x7717e000": 4028,
    "\u25810x7717f000": 4029,
    "\u25810x77180000": 4030,
    "\u25810x77181000": 4031,
    "\u25810x77182000": 4032,
    "\u25810x77183000": 4033,
    "\u25810x77184000": 4034,
    "\u25810x77185000": 4035,
    "hysicalmemory": 4036,
    "\u2581ntopensection": 4037,
    "\u2581devicephysicalmemory": 4038,
    "\u2581advapi32getsecurityinfo": 4039,
    "\u2581advapi32setsecurityinfo": 4040,
    "\u25810x77186000": 4041,
    "ac4": 4042,
    "\u25810x77187000": 4043,
    "\u25810x77188000": 4044,
    "\u25810x77189000": 4045,
    "\u25810x7718a000": 4046,
    "\u25810x7718b000": 4047,
    "\u25810x7718c000": 4048,
    "\u25810x7718d000": 4049,
    "\u25810x7718e000": 4050,
    "\u25810x7718f000": 4051,
    "\u25810x77190000": 4052,
    "\u25810x77191000": 4053,
    "\u25810x77192000": 4054,
    "\u25810x77193000": 4055,
    "\u25810x77194000": 4056,
    "\u25810x77195000": 4057,
    "\u25810x77196000": 4058,
    "\u25810x77197000": 4059,
    "\u25810x77198000": 4060,
    "\u25810x77199000": 4061,
    "\u25810x7719a000": 4062,
    "\u25810x7719b000": 4063,
    "\u25810x7719c000": 4064,
    "\u25810x7719d000": 4065,
    "\u25810x7719e000": 4066,
    "\u25810x7719f000": 4067,
    "\u25810x771a0000": 4068,
    "\u25810x771a1000": 4069,
    "\u25810x771a2000": 4070,
    "\u25810x771a3000": 4071,
    "\u25810x771a4000": 4072,
    "\u25810x771a5000": 4073,
    "\u25810x771a6000": 4074,
    "\u25810x771a7000": 4075,
    "\u25810x771a8000": 4076,
    "\u25810x771a9000": 4077,
    "\u25810x771aa000": 4078,
    "\u25810x771ab000": 4079,
    "\u25810x771ac000": 4080,
    "\u25810x771ad000": 4081,
    "\u25810x771ae000": 4082,
    "\u25810x771af000": 4083,
    "\u25810x771b0000": 4084,
    "\u25810x771b1000": 4085,
    "\u25810x771b2000": 4086,
    "\u25810x771b3000": 4087,
    "\u25810x771b4000": 4088,
    "\u25810x771b5000": 4089,
    "\u25810x771b6000": 4090,
    "\u25810x771b7000": 4091,
    "\u25810x771b8000": 4092,
    "\u25810x771b9000": 4093,
    "\u25810x11cc": 4094,
    "\u25810x771ba000": 4095,
    "\u25810x771bb000": 4096,
    "\u25810x771bc000": 4097,
    "\u25810x771bd000": 4098,
    "\u25810x771be000": 4099,
    "\u25810x771bf000": 4100,
    "\u25810x771c0000": 4101,
    "\u25810x771c1000": 4102,
    "\u25810x771c2000": 4103,
    "\u25810x771c3000": 4104,
    "\u25810x771c4000": 4105,
    "\u25810x771c5000": 4106,
    "\u25810x771c6000": 4107,
    "rtr": 4108,
    "\u25810x4317": 4109,
    "rtruntime": 4110,
    "rtruntimel110": 4111,
    "\u2581apimswincrtruntimel110": 4112,
    "72697": 4113,
    "\u2581str": 4114,
    "776f7": 4115,
    "656c7": 4116,
    "1646d7": 4117,
    "26b2e68": 4118,
    "7472697": 4119,
    "a6e61646d7": 4120,
    "26b2e68656c7": 4121,
    "\u25810x1210f35776f7": 4122,
    "7472697a6e61646d7": 4123,
    "26b2e68656c73696e6b692e6669": 4124,
    "\u25810x1210f357472697a6e61646d7": 4125,
    "\u25810x1210f357472697a6e61646d73696e6b692e6669": 4126,
    "\u25810x1210f35776f726b2e68656c73696e6b692e6669": 4127,
    "\u25810x437a": 4128,
    "\u25810x70b8": 4129,
    "\u25810x12113": 4130,
    "\u25810x4270": 4131,
    "hos": 4132,
    "\u25810x40152c": 4133,
    "\u25810x7de8": 4134,
    "formatw": 4135,
    "\u25810x58c0": 4136,
    "vchos": 4137,
    "\u25810x1525000": 4138,
    "\u25810x7dc8": 4139,
    "\u25810x7de9": 4140,
    "ff8": 4141,
    "dexe": 4142,
    "\u25810x11cc4c": 4143,
    "\u25810x43d390": 4144,
    "\u25810x70b86f": 4145,
    "00a": 4146,
    "\u25810x519": 4147,
    "500000": 4148,
    "\u25810x120f8": 4149,
    "\u25810x3f22": 4150,
    "\u2581sizeofresource": 4151,
    "\u2581gettemppatha": 4152,
    "b4e8": 4153,
    "\u25810x42e5f8": 4154,
    "\u2581kernel32findclose": 4155,
    "\u25810x3f4000": 4156,
    "fmode": 4157,
    "\u2581cwindowstempgolfsetini": 4158,
    "\u2581drivewindowstempgolfsetini": 4159,
    "f0000": 4160,
    "\u2581svchos": 4161,
    "363": 4162,
    "f60": 4163,
    "ontrol": 4164,
    "\u25810x99e0": 4165,
    "\u25810x4febf0": 4166,
    "ceioc": 4167,
    "ceiocontrol": 4168,
    "\u25810x42d3d8": 4169,
    "setapptype": 4170,
    "\u2581deviceiocontrol": 4171,
    "bff": 4172,
    "\u25810x411b": 4173,
    "\u25810x7d00": 4174,
    "3b5": 4175,
    "processmemory": 4176,
    "\u2581wsprintfa": 4177,
    "afc": 4178,
    "\u25810x7f10": 4179,
    "47": 4180,
    "\u25810x421": 4181,
    "viol": 4182,
    "keyexw": 4183,
    "\u2581cwindowssystem328": 4184,
    "\u25810x42d390": 4185,
    "\u25810x42e2": 4186,
    "\u25810x5c": 4187,
    "\u25810x40a58": 4188,
    "violation": 4189,
    "\u2581kernel32gettemppatha": 4190,
    "ab4": 4191,
    "\u2581getwindows": 4192,
    "\u2581apimswincoresynchl120dll": 4193,
    "\u25810x4308": 4194,
    "\u25810x4315": 4195,
    "ffce": 4196,
    "\u25810x437ad": 4197,
    "\u25810x437c4": 4198,
    "\u25810x4371e6": 4199,
    "\u25810x4371e7": 4200,
    "\u2581softwareborlanddelphilocales": 4201,
    "look": 4202,
    "\u25810x6b9": 4203,
    "\u25810x43b7b9": 4204,
    "\u25810x43b7c3": 4205,
    "\u2581hkeycurrentusersoftwareborlanddelphilocales": 4206,
    "104": 4207,
    "\u25810x91": 4208,
    "f80": 4209,
    "\u25810x1211f18": 4210,
    "\u25810x42cd": 4211,
    "\u2581hkeycurrentusersoftwareborlandlocales": 4212,
    "\u2581net": 4213,
    "\u25810x5265f": 4214,
    "\u2581format": 4215,
    "klmnopqrstuvwxyz8": 4216,
    "\u25810x42da": 4217,
    "\u25810x120ff": 4218,
    "\u2581regenum": 4219,
    "\u25810x4319": 4220,
    "cms": 4221,
    "\u2581mscms": 4222,
    "\u2581kernel32findfirstfilew": 4223,
    "\u25810x7dec": 4224,
    "\u25810x567a40": 4225,
    "palet": 4226,
    "palette": 4227,
    "\u2581to": 4228,
    "\u25810x1211f74": 4229,
    "eexa": 4230,
    "\u25810x63": 4231,
    "\u25810x53b4e8": 4232,
    "\u25810x20019": 4233,
    "\u25810xac": 4234,
    "\u25810x7c70": 4235,
    "288": 4236,
    "ecc": 4237,
    "e400000": 4238,
    "\u25810x42ca": 4239,
    "slen": 4240,
    "pathnamew": 4241,
    "\u25810x42e2f00d0a": 4242,
    "ofc": 4243,
    "\u25810x431998": 4244,
    "\u25810x1211e28": 4245,
    "numberofc": 4246,
    "numberofconsole": 4247,
    "\u25810x1211b04": 4248,
    "\u25810x4bb0": 4249,
    "\u25810x46b3": 4250,
    "\u25810x7ded": 4251,
    "dbg": 4252,
    "\u25810xad": 4253,
    "\u2581systemtim": 4254,
    "gen": 4255,
    "\u2581kernel32getnumberofconsole": 4256,
    "\u25810x79a0": 4257,
    "\u25810xfeee016": 4258,
    "\u25810x41c8": 4259,
    "\u2581pec2": 4260,
    "dbgmsg": 4261,
    "\u2581pec2dbgmsg": 4262,
    "imagebase400000": 4263,
    "\u25810x181b": 4264,
    "\u25810x7a10": 4265,
    "\u25810x4168": 4266,
    "\u2581getsystemtime": 4267,
    "inp": 4268,
    "\u25810xc0": 4269,
    "\u25810x4275": 4270,
    "\u2581findresourcew": 4271,
    "cf": 4272,
    "iv": 4273,
    "\u25810x42e8": 4274,
    "gb": 4275,
    "\u25810x47a0": 4276,
    "\u25810x28c": 4277,
    "mod": 4278,
    "\u25810x40935": 4279,
    "a81": 4280,
    "\u25810x210": 4281,
    "\u25810x90f0": 4282,
    "\u2581theprocedure": 4283,
    "f88": 4284,
    "vents": 4285,
    "inpute": 4286,
    "inputevents": 4287,
    "\u25810x4730": 4288,
    "threaduilanguage": 4289,
    "input": 4290,
    "etofiletime": 4291,
    "584": 4292,
    "\u25810x3f3060": 4293,
    "\u2581kernel32getnumberofconsoleinputevents": 4294,
    "\u2581systemtimetofiletime": 4295,
    "\u25810x3f3010": 4296,
    "\u25810x8830": 4297,
    "filesize": 4298,
    "\u2581move": 4299,
    "\u2581kernel32getfilesize": 4300,
    "gw": 4301,
    "\u2581msvcrtsetapptype": 4302,
    "9020": 4303,
    "\u25810x1211cec": 4304,
    "\u25810x7ef0": 4305,
    "\u25810x169b7": 4306,
    "\u25810x43540": 4307,
    "\u25810x7df1": 4308,
    "d88": 4309,
    "\u25810x51a": 4310,
    "\u25810xa42a": 4311,
    "\u25810x1211e34": 4312,
    "\u25810x42c520": 4313,
    "\u2581iphlpapidll": 4314,
    "\u25810x41bcb0": 4315,
    "\u25810x41bce0": 4316,
    "\u25810x4548": 4317,
    "f74": 4318,
    "\u25810xfeee015": 4319,
    "\u2581lcmapstringa": 4320,
    "\u2581kernel32out": 4321,
    "tra": 4322,
    "\u25810x4f5": 4323,
    "\u25810x8c60": 4324,
    "exedowstemphgdrawdll": 4325,
    "shel": 4326,
    "\u2581cwindowstempsanfdrbat": 4327,
    "ctr": 4328,
    "\u25810x4237": 4329,
    "\u2581duplic": 4330,
    "\u25810x7cc0": 4331,
    "under": 4332,
    "\u25810x7230": 4333,
    "\u25810x3410c": 4334,
    "driv": 4335,
    "\u25810x70a8": 4336,
    "filetimetofiletime": 4337,
    "\u2581localfiletimetofiletime": 4338,
    "files": 4339,
    "com": 4340,
    "\u2581getstringtype": 4341,
    "\u25810x788": 4342,
    "\u2581getstringtypea": 4343,
    "\u2581access": 4344,
    "core": 4345,
    "\u25810x491": 4346,
    "544": 4347,
    "\u25810x7070": 4348,
    "\u25810xaa": 4349,
    "\u25810x56b": 4350,
    "\u25810x406": 4351,
    "\u25810x1210e8": 4352,
    "\u2581exception": 4353,
    "b44": 4354,
    "aff": 4355,
    "\u25810x12119f0": 4356,
    "\u25810x448": 4357,
    "\u2581kernel32free": 4358,
    "\u25810x41a5": 4359,
    "leas": 4360,
    "\u25810x432": 4361,
    "c88": 4362,
    "\u2581contr": 4363,
    "de8": 4364,
    "\u25810x417b": 4365,
    "\u25810x438b": 4366,
    "\u25810x1211f78": 4367,
    "\u2581mar": 4368,
    "\u2581accessviolation": 4369,
    "\u25810x4238a8": 4370,
    "\u25810x4238d8": 4371,
    "de4": 4372,
    "ee4": 4373,
    "\u25810x65": 4374,
    "\u25810x419d50": 4375,
    "\u25810x8250": 4376,
    "\u2581getdiskfreespaceexw": 4377,
    "\u2581kernel32getfileattributesw": 4378,
    "\u25810x409020": 4379,
    "\u25810x419e00": 4380,
    "\u25810x42b020": 4381,
    "une": 4382,
    "\u25810x419f40": 4383,
    "\u25810x42a070": 4384,
    "hysicaldriv": 4385,
    "leases": 4386,
    "\u25810x42b024": 4387,
    "\u25810x42b028": 4388,
    "\u25810x7c40": 4389,
    "hysicaldrive0": 4390,
    "ec4": 4391,
    "\u25810x1212000": 4392,
    "\u2581fe": 4393,
    "\u2581gdi32create": 4394,
    "a84": 4395,
    "\u2581writeprivateprofile": 4396,
    "\u25810x8420": 4397,
    "360": 4398,
    "\u25810xa429c8": 4399,
    "\u25810x1211e44": 4400,
    "\u25810x71c0": 4401,
    "acb2": 4402,
    "\u2581kernel32iswow64process": 4403,
    "\u2581kernel32outputdebugstringa": 4404,
    "ort": 4405,
    "5088": 4406,
    "vis": 4407,
    "\u25810x416a17": 4408,
    "\u25810x416a18": 4409,
    "cad": 4410,
    "\u25810x40a3": 4411,
    "\u2581msvcrtwcslen": 4412,
    "ffd1": 4413,
    "\u25810x4ec0": 4414,
    "\u2581user32getmess": 4415,
    "f0c": 4416,
    "scpy": 4417,
    "exception": 4418,
    "\u25810x4b80": 4419,
    "\u25810x7d20": 4420,
    "\u25817z": 4421,
    "558": 4422,
    "504": 4423,
    "\u25810xffe1": 4424,
    "a41": 4425,
    "leasesrwlockexclusive": 4426,
    "gument": 4427,
    "\u25810x1009": 4428,
    "\u2581cwindowssystem324": 4429,
    "\u2581imagelistre": 4430,
    "\u25810xffe0": 4431,
    "\u2581cwindows": 4432,
    "\u2581kernel32lstrcpynw": 4433,
    "\u2581acquiresrwlockexclusive": 4434,
    "access": 4435,
    "\u25810xffe4": 4436,
    "\u25810xfffe": 4437,
    "ority": 4438,
    "b2acb2": 4439,
    "\u2581ssexe": 4440,
    "\u2581loadlibraryw": 4441,
    "e20": 4442,
    "e2c": 4443,
    "\u2581nov": 4444,
    "\u25810x7460": 4445,
    "640": 4446,
    "vem": 4447,
    "\u25810x3e8": 4448,
    "\u2581novem": 4449,
    "\u25810x4ee0": 4450,
    "\u2581kernel32local": 4451,
    "32css": 4452,
    "\u25810x164": 4453,
    "32cssnap": 4454,
    "\u25810x42d520": 4455,
    "\u25810xa42": 4456,
    "\u25810x1005": 4457,
    "\u25810x46e0": 4458,
    "\u25810x43b880": 4459,
    "\u2581releasesrwlockexclusive": 4460,
    "\u25810xe00": 4461,
    "argument": 4462,
    "\u2581msvcrtwcscpy": 4463,
    "\u2581septem": 4464,
    "\u25810x7ee00": 4465,
    "\u25810x74d0": 4466,
    "\u25810x4393f8": 4467,
    "\u2581th32cssnap": 4468,
    "\u2581kernel32createtoolhelp32snapshot": 4469,
    "\u25810x70e0": 4470,
    "ise": 4471,
    "\u2581feb": 4472,
    "ageex": 4473,
    "\u2581febr": 4474,
    "\u2581oct": 4475,
    "\u25810xffba": 4476,
    "\u25810xffb7": 4477,
    "\u25810xffbb": 4478,
    "\u25810x7038": 4479,
    "\u25810x7cb0": 4480,
    "ember": 4481,
    "index": 4482,
    "tober": 4483,
    "\u2581april": 4484,
    "\u25810xffb8": 4485,
    "\u2581august": 4486,
    "\u2581november": 4487,
    "\u2581september": 4488,
    "bound": 4489,
    "\u25810x4141": 4490,
    "\u25810x72d8": 4491,
    "\u25810xffbe": 4492,
    "\u25810xffbd": 4493,
    "sser": 4494,
    "\u25810x4615": 4495,
    "\u25810xffb9": 4496,
    "\u25810xffbc": 4497,
    "par": 4498,
    "\u25810xfffd": 4499,
    "\u2581initializes": 4500,
    "ssp": 4501,
    "poin": 4502,
    "ffceff": 4503,
    "\u25810xfffc": 4504,
    "\u25810x7620": 4505,
    "\u25810xffbf": 4506,
    "\u25810x1211c80": 4507,
    "\u25810x5265c3c": 4508,
    "\u2581outof": 4509,
    "ond": 4510,
    "\u25810x8820": 4511,
    "\u2581outofmemory": 4512,
    "\u25810x71f8": 4513,
    "den": 4514,
    "b190": 4515,
    "\u25810x7498": 4516,
    "\u25810x435088": 4517,
    "\u2581kernel32freelibrary": 4518,
    "\u25810x1210900": 4519,
    "\u25810x8b50": 4520,
    "\u25810x7310": 4521,
    "ash": 4522,
    "anuary": 4523,
    "\u2581march": 4524,
    "\u25810xffa0": 4525,
    "\u25810xffb6": 4526,
    "\u2581february": 4527,
    "uly": 4528,
    "\u25810x7380": 4529,
    "\u2581december": 4530,
    "\u25810xffa2": 4531,
    "\u2581october": 4532,
    "ecal": 4533,
    "\u2581thu": 4534,
    "nesday": 4535,
    "\u2581monday": 4536,
    "\u2581sunday": 4537,
    "\u2581tuesday": 4538,
    "\u2581wednesday": 4539,
    "ursday": 4540,
    "\u25810x7b60": 4541,
    "\u2581thursday": 4542,
    "\u25810xffa1": 4543,
    "method": 4544,
    "\u25810xffa3": 4545,
    "urday": 4546,
    "\u2581friday": 4547,
    "\u25810x52666": 4548,
    "\u2581saturday": 4549,
    "\u25810xffa4": 4550,
    "\u2581msvcrtpfmode": 4551,
    "textw": 4552,
    "\u25810x7188": 4553,
    "\u25810x75b0": 4554,
    "\u25810x7118": 4555,
    "\u25810x7770": 4556,
    "\u25810xffa7": 4557,
    "\u25810x120fa": 4558,
    "\u25810xffa6": 4559,
    "\u25810xffa5": 4560,
    "\u25810x46b4": 4561,
    "\u25810x7428": 4562,
    "drl6660drl6660drl6660drl6660": 4563,
    "found": 4564,
    "\u2581interfac": 4565,
    "onc": 4566,
    "\u25810x7268": 4567,
    "\u25810xfffb": 4568,
    "\u2581interfacen": 4569,
    "\u25810x7a48": 4570,
    "angec": 4571,
    "\u25810x7348": 4572,
    "ternal": 4573,
    "\u2581createnew": 4574,
    "safecal": 4575,
    "\u2581sub": 4576,
    "infoa": 4577,
    "changet": 4578,
    "\u25810x73b8": 4579,
    "\u25810xffb5": 4580,
    "\u2581variantchanget": 4581,
    "\u25810x7b98": 4582,
    "\u2581contro": 4583,
    "oman": 4584,
    "\u25810xffa8": 4585,
    "\u25810x7508": 4586,
    "\u2581stack": 4587,
    "\u25810x7578": 4588,
    "\u25810x75e8": 4589,
    "\u25810xffa9": 4590,
    "trainfo": 4591,
    "ageextrainfo": 4592,
    "\u2581external": 4593,
    "\u2581inte": 4594,
    "\u25810x7658": 4595,
    "exceptionx": 4596,
    "\u25810xffcd": 4597,
    "\u25810x76c8": 4598,
    "\u25810x7888": 4599,
    "\u25810x7818": 4600,
    "\u25810x78f8": 4601,
    "\u2581variantmethod": 4602,
    "\u2581user32getmessageextrainfo": 4603,
    "\u25810x7738": 4604,
    "onversion": 4605,
    "318": 4606,
    "uteonce": 4607,
    "\u25810x77a8": 4608,
    "ial": 4609,
    "onceexec": 4610,
    "onceexecuteonce": 4611,
    "ed2": 4612,
    "firstw": 4613,
    "\u25810x7968": 4614,
    "\u25810x7ab8": 4615,
    "\u2581asser": 4616,
    "\u25810x79d8": 4617,
    "\u25810x7c08": 4618,
    "\u25810x7ce8": 4619,
    "insafecal": 4620,
    "\u25810x1211f6c": 4621,
    "insafecallm": 4622,
    "\u2581exceptioninsafecallm": 4623,
    "\u25810x7b28": 4624,
    "\u25810x7d58": 4625,
    "\u25810xffaa": 4626,
    "\u2581shell32shel": 4627,
    "calls": 4628,
    "\u25810xffe6": 4629,
    "d1c": 4630,
    "ied": 4631,
    "\u2581disk": 4632,
    "\u25810x7c78": 4633,
    "\u2581controlc": 4634,
    "\u25810xcf0000": 4635,
    "notfound": 4636,
    "\u2581assertion": 4637,
    "e2b": 4638,
    "\u2581messageboxa": 4639,
    "underflow": 4640,
    "bool": 4641,
    "denied": 4642,
    "runtime": 4643,
    "\u25810x58c01c": 4644,
    "\u2581shell32shellexec": 4645,
    "f62": 4646,
    "overflow": 4647,
    "bounds": 4648,
    "\u25810xffb4": 4649,
    "special": 4650,
    "\u2581assertionfailed": 4651,
    "\u2581rangec": 4652,
    "typecast": 4653,
    "classtypecast": 4654,
    "hit": 4655,
    "gero": 4656,
    "outof": 4657,
    "\u25810x7ec4": 4658,
    "\u2581rangecheck": 4659,
    "notsupported": 4660,
    "floatingpoint": 4661,
    "pointeroperation": 4662,
    "\u2581externalexceptionx": 4663,
    "\u2581invalidclasstypecast": 4664,
    "\u2581floatingpointunderflow": 4665,
    "creating": 4666,
    "indexoutof": 4667,
    "otsupported": 4668,
    "privilegedin": 4669,
    "\u2581controlchit": 4670,
    "\u2581kernel32muldiv": 4671,
    "indexoutofbounds": 4672,
    "callsnotsupported": 4673,
    "\u2581shell32shellexecute": 4674,
    "\u2581interfacenotsupported": 4675,
    "\u2581floatingpointdivisionbyzero": 4676,
    "yopen": 4677,
    "pointo": 4678,
    "\u2581floating": 4679,
    "\u2581integero": 4680,
    "pointoverflow": 4681,
    "\u2581privilegedin": 4682,
    "typeconversion": 4683,
    "\u2581errorcreating": 4684,
    "\u2581stackoverflow": 4685,
    "\u2581divisionbyzero": 4686,
    "\u2581integeroverflow": 4687,
    "\u2581rangecheckerror": 4688,
    "\u2581invalidfloatingpoint": 4689,
    "\u2581floatingpointoverflow": 4690,
    "\u2581privilegedinstruction": 4691,
    "\u2581invalidpointeroperation": 4692,
    "\u2581invalidvariantoperation": 4693,
    "\u2581invalidvarianttypeconversion": 4694,
    "\u2581invalidfloatingpointoperation": 4695,
    "\u2581variantmethodcallsnotsupported": 4696,
    "bey": 4697,
    "beyond": 4698,
    "numeric": 4699,
    "\u25810xfffa": 4700,
    "\u2581tooman": 4701,
    "\u2581diskfull": 4702,
    "yopenfiles": 4703,
    "\u2581readbeyond": 4704,
    "numericinput": 4705,
    "\u2581invalidfilename": 4706,
    "\u2581toomanyopenfiles": 4707,
    "\u2581invalidnumericinput": 4708,
    "\u2581readbeyondendoffile": 4709,
    "\u25810x7e0": 4710,
    "\u2581fileaccessdenied": 4711,
    "\u25810x7ec5": 4712,
    "ypeex": 4713,
    "precise": 4714,
    "preciseasfiletime": 4715,
    "\u2581variantchangetypeex": 4716,
    "\u2581exceptioninsafecallmethod": 4717,
    "\u2581getsystemtimepreciseasfiletime": 4718,
    "f20": 4719,
    "mit": 4720,
    "\u25810x42b190": 4721,
    "\u25810x42eace": 4722,
    "344": 4723,
    "\u2581kk": 4724,
    "ed1": 4725,
    "\u25810xffce": 4726,
    "\u25810x40933c": 4727,
    "\u2581cwindowstemphgdrawdll": 4728,
    "neg": 4729,
    "\u25810xffcf": 4730,
    "\u25810xffe5": 4731,
    "\u2581varadd": 4732,
    "\u2581varneg": 4733,
    "\u2581varnot": 4734,
    "\u2581varsub": 4735,
    "xor": 4736,
    "idiv": 4737,
    "\u2581varcy": 4738,
    "\u2581varor": 4739,
    "\u2581varr8": 4740,
    "\u2581varand": 4741,
    "\u2581varcmp": 4742,
    "\u2581vardiv": 4743,
    "\u2581varmod": 4744,
    "\u2581varmul": 4745,
    "\u2581varxor": 4746,
    "\u2581varbool": 4747,
    "\u2581vardate": 4748,
    "\u2581varidiv": 4749,
    "\u2581varcyfromstr": 4750,
    "\u2581vari4fromstr": 4751,
    "\u2581varr4fromstr": 4752,
    "\u2581varr8fromstr": 4753,
    "\u2581varbstrfromcy": 4754,
    "\u2581varboolfromstr": 4755,
    "\u2581vardatefromstr": 4756,
    "\u2581varbstrfrombool": 4757,
    "\u2581varbstrfromdate": 4758,
    "\u25810x140": 4759,
    "\u25810x1211ed4": 4760,
    "\u25810x100300": 4761,
    "\u2581gdi32createpalette": 4762,
    "srw": 4763,
    "\u25810x4317e0": 4764,
    "\u25810x6b9c08": 4765,
    "\u25810x40a5a0": 4766,
    "\u25810x409344": 4767,
    "variablesrw": 4768,
    "\u2581sleepconditionvariablesrw": 4769,
    "\u2581th32cssnapprocess": 4770,
    "\u2581app": 4771,
    "\u25810x1211e1c": 4772,
    "\u25810x4c4178": 4773,
    "a5c": 4774,
    "\u2581getfileinformationbyhandleex": 4775,
    "exit": 4776,
    "\u25810x8c30": 4777,
    "\u25810x41a0": 4778,
    "\u2581initonceexecuteonce": 4779,
    "\u25810x4284": 4780,
    "\u25810x8d20": 4781,
    "\u25810xffb0": 4782,
    "\u25810x413": 4783,
    "\u25810xfff9": 4784,
    "abd": 4785,
    "\u2581createsemaphorew": 4786,
    "c8c": 4787,
    "\u25810x1210f8": 4788,
    "\u25810x8001": 4789,
    "\u25810xffb3": 4790,
    "\u25810x30000": 4791,
    "\u25810x8bd0": 4792,
    "aac": 4793,
    "\u2581kernel32process32firstw": 4794,
    "fff0": 4795,
    "\u25810xffb2": 4796,
    "\u25810x4c3": 4797,
    "\u25810x4305f8": 4798,
    "\u25810x7ec8": 4799,
    "\u25810xffb1": 4800,
    "\u25810x9000b2acb2": 4801,
    "6e8": 4802,
    "\u25810x71a0": 4803,
    "\u25810x7ec9": 4804,
    "tokeninformation": 4805,
    "\u25810x169be04": 4806,
    "3f0": 4807,
    "\u25810xfeee009d": 4808,
    "d3c": 4809,
    "\u2581invalidargument": 4810,
    "\u25810x566": 4811,
    "variantorsafearray": 4812,
    "\u2581variantorsafearray": 4813,
    "\u2581variantorsafearrayindexoutofbounds": 4814,
    "\u2581errorcreatingvariantorsafearray": 4815,
    "\u2581wak": 4816,
    "\u2581wakeconditionvariable": 4817,
    "\u25810x7ed0": 4818,
    "xw": 4819,
    "\u25810x4390": 4820,
    "\u25810x8c10": 4821,
    "9c1": 4822,
    "environmentvariablea": 4823,
    "\u25810x422e": 4824,
    "\u25810x1211f24": 4825,
    "\u2581initializesrwlock": 4826,
    "\u25810x496760": 4827,
    "\u25810x42e0f00d0a": 4828,
    "sk": 4829,
    "place": 4830,
    "\u25810x1211690": 4831,
    "\u25810x169bc": 4832,
    "lcid": 4833,
    "\u2581tryacquiresrwlockexclusive": 4834,
    "itor": 4835,
    "\u25810x40a59e": 4836,
    "\u2581setfileinformationbyhandle": 4837,
    "\u25810x118": 4838,
    "\u25810x40a5a2": 4839,
    "\u25810x40a5a4": 4840,
    "\u25810x40a5a6": 4841,
    "\u25810x40a5a8": 4842,
    "\u25810x40a5aa": 4843,
    "mitth": 4844,
    "\u2581submitth": 4845,
    "\u2581closethreadpoolwork": 4846,
    "\u2581createthreadpoolwork": 4847,
    "\u2581submitthreadpoolwork": 4848,
    "\u25810x43b6": 4849,
    "\u25810x13fff0": 4850,
    "\u2581kernel32createdirectorya": 4851,
    "\u25810x7edc": 4852,
    "\u25810x8be0": 4853,
    "\u25810x7ecc": 4854,
    "\u25810x41568c": 4855,
    "\u25810x7ecd": 4856,
    "acceleratorsw": 4857,
    "\u2581getthreaduilanguage": 4858,
    "7e0": 4859,
    "d44": 4860,
    "\u2581getthreadpreferreduilanguages": 4861,
    "\u25810x46b5": 4862,
    "\u25810x8c70": 4863,
    "\u25810x8c40": 4864,
    "\u2581hkeylocalmachinesoftwaremicrosoftwindows": 4865,
    "\u25810x100000": 4866,
    "\u25810x4390c8": 4867,
    "\u25810x4400": 4868,
    "\u25810xfff8": 4869,
    "common": 4870,
    "\u25810x1210f6": 4871,
    "\u2581user32registerclassexa": 4872,
    "\u25810x8f50": 4873,
    "20202020": 4874,
    "\u25810x85d0": 4875,
    "358": 4876,
    "\u25810x8c00": 4877,
    "\u25810x7e89": 4878,
    "74c": 4879,
    "\u25810x52664": 4880,
    "\u25810x7e88": 4881,
    "\u2581setthreadpreferreduilanguages": 4882,
    "\u25810x4418": 4883,
    "e8c": 4884,
    "\u25810x5e": 4885,
    "740": 4886,
    "\u25810x4237d8": 4887,
    "affc": 4888,
    "\u25810x3f34e0": 4889,
    "\u25810x508": 4890,
    "\u2581softwa": 4891,
    "olfp": 4892,
    "\u25810x7ed4": 4893,
    "reque": 4894,
    "\u25810x7ed5": 4895,
    "\u25810x7ed1": 4896,
    "\u25810x12110d8": 4897,
    "ole": 4898,
    "\u25810x416c": 4899,
    "\u25810x7ed8": 4900,
    "\u2581lstrlenw": 4901,
    "commode": 4902,
    "\u25810x1211338": 4903,
    "\u25810x43d3": 4904,
    "\u25810x7ed9": 4905,
    "\u25810x1211ef8": 4906,
    "\u25810x8aa0": 4907,
    "\u25810xfff7": 4908,
    "\u25810x423d18": 4909,
    "\u25810x4528": 4910,
    "\u25810x7edd": 4911,
    "\u2581getprivateprofilesection": 4912,
    "meta": 4913,
    "\u25810x8d60": 4914,
    "\u25810x1211c50": 4915,
    "\u25810x41e": 4916,
    "\u2581ser": 4917,
    "\u25810x401": 4918,
    "\u25810x1211d14": 4919,
    "userw": 4920,
    "logon": 4921,
    "\u25810x8c90": 4922,
    "ac8": 4923,
    "b7b": 4924,
    "\u25810x7f02": 4925,
    "\u2581shellexecutew": 4926,
    "\u2581ole32ole": 4927,
    "afcd": 4928,
    "fileex": 4929,
    "ffd1ffc": 4930,
    "\u25810x7ee4": 4931,
    "\u2581kernel32getcurrentthread": 4932,
    "\u2581vc": 4933,
    "56f": 4934,
    "oll": 4935,
    "\u25810x7ee5": 4936,
    "\u25810x8ab0": 4937,
    "\u25810x20a": 4938,
    "\u25810x41c": 4939,
    "\u25810x4228": 4940,
    "\u25810xfff6": 4941,
    "sspace": 4942,
    "\u2581msvcr71": 4943,
    "\u2581fa": 4944,
    "runtime140": 4945,
    "\u25810x7ee1": 4946,
    "\u2581vcruntime140": 4947,
    "roll": 4948,
    "ffff": 4949,
    "\u25810x41e1": 4950,
    "\u25810x202": 4951,
    "\u25810x1211a00": 4952,
    "\u2581failed": 4953,
    "lasses": 4954,
    "\u25810x4299": 4955,
    "\u2581svchostexe": 4956,
    "\u25810x120e6d8": 4957,
    "\u25810x8d90": 4958,
    "ffceffc7": 4959,
    "ffceffc7ffd1ffc": 4960,
    "affcbff": 4961,
    "\u25810x11000": 4962,
    "afcdffceffc7ffd1ffc": 4963,
    "afcdffceffc7ffd1ffcaffcbff": 4964,
    "4d5": 4965,
    "param": 4966,
    "\u25810x1211a14": 4967,
    "264": 4968,
    "\u2581getlocaleinfoa": 4969,
    "904": 4970,
    "\u25810xfeee009e": 4971,
    "\u25810x431d": 4972,
    "207": 4973,
    "showwindow": 4974,
    "1211": 4975,
    "\u25810x9f": 4976,
    "\u25810x8d50": 4977,
    "\u25810x4363d8": 4978,
    "\u2581setfileinformationbyhandlew": 4979,
    "3e8": 4980,
    "\u25810x426": 4981,
    "\u2581getfileinformationbyhandleexw": 4982,
    "\u25810x4ad4": 4983,
    "pi": 4984,
    "dc0": 4985,
    "\u25810x8ba0": 4986,
    "ssexe": 4987,
    "\u25810x56bb00": 4988,
    "\u25810x1211f84": 4989,
    "controlfp": 4990,
    "\u2581regcreate": 4991,
    "\u25810x405": 4992,
    "b84": 4993,
    "\u25810xfeee00a0": 4994,
    "\u2581comm": 4995,
    "684": 4996,
    "\u25810x423da8": 4997,
    "\u25810x423dd8": 4998,
    "\u25810x8d30": 4999,
    "\u2581hd": 5000,
    "dregen": 5001,
    "\u2581hddregen": 5002,
    "\u2581hddregenerator": 5003,
    "\u2581findfirst": 5004,
    "608": 5005,
    "228": 5006,
    "currentversionwindows": 5007,
    "\u25810xfeee009f": 5008,
    "\u2581getvolumeinformation": 5009,
    "\u25810x423df8": 5010,
    "atehandle": 5011,
    "\u25810x8cd0": 5012,
    "\u25810x678208": 5013,
    "\u25810x8ca0": 5014,
    "\u2581msvcrtgetmainargs": 5015,
    "184": 5016,
    "\u25810x8fc0": 5017,
    "\u25810xffab": 5018,
    "384": 5019,
    "datab": 5020,
    "744": 5021,
    "\u25810x169b958": 5022,
    "240": 5023,
    "ncy": 5024,
    "ctrl": 5025,
    "\u25810x8bb0": 5026,
    "\u2581failedto": 5027,
    "mbar": 5028,
    "cadero": 5029,
    "reembar": 5030,
    "requency": 5031,
    "caderolocales": 5032,
    "reembarcaderolocales": 5033,
    "crypt": 5034,
    "cc4": 5035,
    "\u25810x40c": 5036,
    "\u25810x52665": 5037,
    "\u25810xffac": 5038,
    "\u25810x1211c08": 5039,
    "cefrequency": 5040,
    "queryperformancefrequency": 5041,
    "204": 5042,
    "768": 5043,
    "commoncontrols": 5044,
    "listmsg": 5045,
    "ctrldrag": 5046,
    "\u2581commctrldrag": 5047,
    "searchpathmode": 5048,
    "\u2581commctrldraglistmsg": 5049,
    "database": 5050,
    "\u25810xfeee00a1": 5051,
    "\u25810x169b780": 5052,
    "\u2581comparestringw": 5053,
    "\u25810x1211f80": 5054,
    "\u25810xfeee00a2": 5055,
    "zone": 5056,
    "0xx": 5057,
    "f84": 5058,
    "0xxls": 5059,
    "\u2581error0xxls": 5060,
    "\u2581formatmessagew": 5061,
    "b40": 5062,
    "\u2581shellexecutea": 5063,
    "\u25810x431e": 5064,
    "unction": 5065,
    "terclipboard": 5066,
    "servicedatabase": 5067,
    "\u25810x80c410": 5068,
    "\u25810x53000000": 5069,
    "c44": 5070,
    "\u25810x401000": 5071,
    "\u2581cbexedowstemphgdrawdll": 5072,
    "\u25810x714": 5073,
    "aa4": 5074,
    "\u25810x43640": 5075,
    "a80": 5076,
    "priority": 5077,
    "e24": 5078,
    "\u25810xffc5": 5079,
    "\u25810xfeee00a3": 5080,
    "\u25810xfeee00a4": 5081,
    "\u25810xfeee00a5": 5082,
    "\u2581enum": 5083,
    "484": 5084,
    "\u25810x2012": 5085,
    "\u25810x1210f4": 5086,
    "\u25810xfeee00a6": 5087,
    "zoneinformation": 5088,
    "ll": 5089,
    "ffff0000": 5090,
    "rex": 5091,
    "\u25810x42ae": 5092,
    "\u25810xffd3": 5093,
    "\u25810x8ce0": 5094,
    "\u2581msvcrtisspace": 5095,
    "a90000": 5096,
    "\u25810xffc6": 5097,
    "\u25810xfeee00a7": 5098,
    "000000ffff0000": 5099,
    "onexa": 5100,
    "select": 5101,
    "\u25810xfeee00a8": 5102,
    "\u2581loadcursorw": 5103,
    "e10": 5104,
    "\u25810xfeee00a9": 5105,
    "\u25810xfff5": 5106,
    "327": 5107,
    "\u2581user32showwindow": 5108,
    "fileexist": 5109,
    "\u2581openevent": 5110,
    "bcf": 5111,
    "\u25810x416b50": 5112,
    "\u25810x4c3308": 5113,
    "\u25810xfeee00aa": 5114,
    "\u25810xfeee00ab": 5115,
    "\u25810x82c0": 5116,
    "\u2581getversionexa": 5117,
    "4000000ffff0000": 5118,
    "\u25810xfeee00ac": 5119,
    "\u25810xfeee00ae": 5120,
    "\u25810x88e0": 5121,
    "\u25810x41cb": 5122,
    "\u25810xfeed": 5123,
    "\u25810xfeee00ad": 5124,
    "5c8": 5125,
    "\u25810x418970": 5126,
    "\u25810x437808": 5127,
    "etype": 5128,
    "\u25810x4338": 5129,
    "\u25810x4398": 5130,
    "\u25810xb5": 5131,
    "\u25810x3f24": 5132,
    "\u25810x42b40": 5133,
    "\u2581hkeycurrentusersoftwarecodegearlocales": 5134,
    "\u2581hkeylocalmachinesoftwarecodegearlocales": 5135,
    "\u25810x58de20": 5136,
    "check": 5137,
    "\u2581mscmscreate": 5138,
    "\u25810x120e694": 5139,
    "\u25810x120e69c": 5140,
    "a900003": 5141,
    "\u25810x1211f40": 5142,
    "\u25810xfeee00af": 5143,
    "a9000030000000": 5144,
    "a90000300000004000000ffff0000": 5145,
    "\u25810x4245": 5146,
    "scroll": 5147,
    "\u25810xfeee00b0": 5148,
    "\u25810xfeee00b1": 5149,
    "\u25810xb000": 5150,
    "heapl110": 5151,
    "\u2581cwindowssystem325": 5152,
    "\u2581globalf": 5153,
    "\u2581getfull": 5154,
    "\u2581apimswincrtheapl110": 5155,
    "\u25810x8818": 5156,
    "\u25810x95d0": 5157,
    "\u25810xff8": 5158,
    "\u25810x8819": 5159,
    "\u25810x42990": 5160,
    "\u25810x9000b2acb2afcdffceffc7ffd1ffcaffcbff": 5161,
    "\u2581kernel32interlockedexchange": 5162,
    "\u2581lstrcpy": 5163,
    "ts": 5164,
    "\u25810x4394": 5165,
    "box": 5166,
    "\u25810x7340": 5167,
    "da0": 5168,
    "ori": 5169,
    "864000": 5170,
    "\u25810x75500000": 5171,
    "\u25810xfeee00b3": 5172,
    "\u25810xfeee00b4": 5173,
    "\u25810xfeee00b2": 5174,
    "\u25810x881c": 5175,
    "\u25810xfeee00b5": 5176,
    "\u2581interlockedexchange": 5177,
    "a00": 5178,
    "\u25810x881d": 5179,
    "\u25810x8821": 5180,
    "\u25810xffcc": 5181,
    "reclasses": 5182,
    "sset": 5183,
    "\u25810x420e": 5184,
    "\u25810xfeee00bc": 5185,
    "704": 5186,
    "ginal": 5187,
    "original": 5188,
    "ad8": 5189,
    "recv": 5190,
    "\u2581pec2dbgmsg0": 5191,
    "\u25810x3410c60": 5192,
    "\u2581vcruntime140mem": 5193,
    "\u25810xffad": 5194,
    "apis": 5195,
    "f21": 5196,
    "\u2581loadiconw": 5197,
    "4d5a90000300000004000000ffff0000": 5198,
    "ae3": 5199,
    "36c": 5200,
    "\u25810xfc": 5201,
    "formata": 5202,
    "\u2581defwindowprocw": 5203,
    "f50": 5204,
    "\u25810x7e90": 5205,
    "\u2581openeventw": 5206,
    "348": 5207,
    "\u25810x40a3d": 5208,
    "safdi": 5209,
    "safdisset": 5210,
    "ters": 5211,
    "dep": 5212,
    "wsafdisset": 5213,
    "\u2581wsock32wsafdisset": 5214,
    "\u25810x4295": 5215,
    "\u2581wsock32recv": 5216,
    "\u2581cdexe": 5217,
    "\u25810x4a20": 5218,
    "\u25810x1210f5": 5219,
    "\u25810xfeee00b7": 5220,
    "\u25810xfeee00b8": 5221,
    "bc0": 5222,
    "60x": 5223,
    "yarg1": 5224,
    "\u25810xfeee00b6": 5225,
    "\u25810xfeee00b9": 5226,
    "\u2581createwindowexw": 5227,
    "b60": 5228,
    "rivetype": 5229,
    "\u2581getdrivetype": 5230,
    "\u2581user32updatewindow": 5231,
    "\u25810xa9b0": 5232,
    "\u25810xfeee00bb": 5233,
    "\u25810x1210e0": 5234,
    "\u25810xfeee00ba": 5235,
    "top": 5236,
    "\u25810x4224": 5237,
    "\u2581programinternalerrornumberis60x": 5238,
    "b5c": 5239,
    "run": 5240,
    "\u2581wsock32select": 5241,
    "\u25810x1211e30": 5242,
    "\u25810x110": 5243,
    "\u25810xfeee00bd": 5244,
    "\u25810x3f3080": 5245,
    "\u25810xfeee00be": 5246,
    "\u25810x4353d8": 5247,
    "\u25810xfeee00bf": 5248,
    "\u25810xfeee00c0": 5249,
    "\u2581destroywindow": 5250,
    "\u2581muldiv": 5251,
    "b20": 5252,
    "\u25810xfeee00c1": 5253,
    "\u2581getsysteminfo": 5254,
    "86400040": 5255,
    "\u25810xfeee00c2": 5256,
    "\u25810x3f3040": 5257,
    "\u2581writeprocessmemory": 5258,
    "\u25810xfeee00c3": 5259,
    "\u2581cwindowstemp86400040": 5260,
    "\u25810xffd0": 5261,
    "\u25810x46b5d4": 5262,
    "licy": 5263,
    "systemtime": 5264,
    "policy": 5265,
    "\u25810x7df4": 5266,
    "validate": 5267,
    "\u25810xfeee00c4": 5268,
    "bb8": 5269,
    "\u25810x181c": 5270,
    "f30h": 5271,
    "\u25810x42e6": 5272,
    "1211f30h": 5273,
    "\u25810xfeee00c6": 5274,
    "\u2581programinternalerrornumberis60x1211f30h": 5275,
    "\u25810xfeee00c7": 5276,
    "\u25810x42fb": 5277,
    "\u25810x7d40": 5278,
    "\u25810xfeee00c5": 5279,
    "\u25810xfeee00ca": 5280,
    "\u25810x7df5": 5281,
    "\u25810xfeee00c8": 5282,
    "\u25810xfeee017": 5283,
    "b63": 5284,
    "\u2581wsprintfw": 5285,
    "\u2581registerclassexw": 5286,
    "ges": 5287,
    "\u25810xfeee00c9": 5288,
    "\u25810xfeee00cb": 5289,
    "la": 5290,
    "\u25810x4318": 5291,
    "528": 5292,
    "160": 5293,
    "100": 5294,
    "lication": 5295,
    "984": 5296,
    "output": 5297,
    "\u25810xffc4": 5298,
    "98c": 5299,
    "\u25810x41c4": 5300,
    "\u25810x51c": 5301,
    "\u2581user32getcursor": 5302,
    "\u25810x190": 5303,
    "\u25810xfeee0108": 5304,
    "\u25810x1211f70": 5305,
    "times": 5306,
    "\u25810x107": 5307,
    "memorystatus": 5308,
    "\u2581user32getmessagea": 5309,
    "\u25810x4df0": 5310,
    "deppolicy": 5311,
    "\u2581shget": 5312,
    "766": 5313,
    "\u25810x1211f5c": 5314,
    "prop": 5315,
    "a28": 5316,
    "3868": 5317,
    "\u25810x42d408": 5318,
    "\u2581gettimezoneinformation": 5319,
    "\u25810x500": 5320,
    "\u25810x100b": 5321,
    "\u25810x1211e00": 5322,
    "localfiletime": 5323,
    "commoncontrolsex": 5324,
    "3c8": 5325,
    "\u2581kernel32heapvalidate": 5326,
    "\u25810xffae": 5327,
    "\u2581user32registerclipboard": 5328,
    "\u25810x9e": 5329,
    "\u2581msvcrtdll": 5330,
    "\u2581loadstringw": 5331,
    "yna": 5332,
    "outputcp": 5333,
    "\u2581kernel32lstrcpyna": 5334,
    "hash": 5335,
    "\u25810x343b5": 5336,
    "b30": 5337,
    "\u2581monitor": 5338,
    "\u2581getclass": 5339,
    "\u2581getconsoleoutputcp": 5340,
    "\u25810xffaf": 5341,
    "a69": 5342,
    "processdeppolicy": 5343,
    "\u25810x6e": 5344,
    "\u25810x41678c": 5345,
    "\u25810x41678d": 5346,
    "\u2581comctl32dll": 5347,
    "\u25810x27dc": 5348,
    "\u25810x3f20": 5349,
    "\u25810xbc": 5350,
    "trand": 5351,
    "\u2581msvcrtrand": 5352,
    "ff4": 5353,
    "\u25810x3f5000": 5354,
    "\u25810x48f894": 5355,
    "\u25810x4fec20": 5356,
    "\u25810x120fd": 5357,
    "\u25810xffc2": 5358,
    "326": 5359,
    "\u25810x8430": 5360,
    "\u25810xff90": 5361,
    "d68": 5362,
    "\u25810x40f9": 5363,
    "\u25810x48400": 5364,
    "c4c": 5365,
    "d4c": 5366,
    "b0c8": 5367,
    "environmentstringsa": 5368,
    "\u25810x19c": 5369,
    "\u25810x1211f98": 5370,
    "\u25810xa39": 5371,
    "f8c": 5372,
    "\u2581msvcrtcontrolfp": 5373,
    "\u2581cwindowssystem322": 5374,
    "adap": 5375,
    "currentversionrun": 5376,
    "\u25810x9cc0": 5377,
    "adapters": 5378,
    "\u2581u": 5379,
    "\u25810x524": 5380,
    "\u25810x12117f4": 5381,
    "7b0": 5382,
    "\u2581user32getkey": 5383,
    "d98": 5384,
    "\u25810x488": 5385,
    "f70": 5386,
    "\u25810x107598": 5387,
    "\u2581cwindowssystem326": 5388,
    "3a5": 5389,
    "\u2581msvcrtpcommode": 5390,
    "a4c": 5391,
    "\u25810x42f": 5392,
    "\u25810x4225": 5393,
    "\u25810x8650": 5394,
    "\u25810x107658": 5395,
    "\u25810xa42a10": 5396,
    "\u25810x429570": 5397,
    "\u2581kernel32wa": 5398,
    "\u2581kernel32wakeallconditionvariable": 5399,
    "\u25810x42956f": 5400,
    "\u25810xffd2": 5401,
    "abe": 5402,
    "d40": 5403,
    "fc4": 5404,
    "support": 5405,
    "\u25810x109": 5406,
    "\u25810x103": 5407,
    "\u25810x7c10": 5408,
    "\u25810xffe3": 5409,
    "\u2581getwindowsdirectoryw": 5410,
    "a70": 5411,
    "\u2581cwindowssystem329": 5412,
    "\u2581filetimetolocalfiletime": 5413,
    "sexe": 5414,
    "boardtype": 5415,
    "\u2581user32getkeyboardtype": 5416,
    "\u25810x8660": 5417,
    "\u25810x431d00": 5418,
    "\u25810x20009": 5419,
    "3d0": 5420,
    "\u25810x1b2": 5421,
    "\u25810x41c0": 5422,
    "viewpor": 5423,
    "function": 5424,
    "rexitprocess": 5425,
    "\u25810x437806": 5426,
    "\u25810x43780a": 5427,
    "\u25810x43780c": 5428,
    "\u25810x43780e": 5429,
    "\u25810x437810": 5430,
    "\u25810x437812": 5431,
    "\u25810x437814": 5432,
    "\u25810x437816": 5433,
    "\u25810x437818": 5434,
    "\u25810x43781a": 5435,
    "\u25810x43781c": 5436,
    "\u25810x43781e": 5437,
    "\u25810x490": 5438,
    "onso": 5439,
    "f44": 5440,
    "\u25810x1210e4": 5441,
    "\u2581advapi32crypt": 5442,
    "\u2581setcurrent": 5443,
    "\u25810x107538": 5444,
    "d84": 5445,
    "\u25810x42eb": 5446,
    "784": 5447,
    "\u25810xffec": 5448,
    "\u25810x40f937": 5449,
    "stringl110": 5450,
    "terme": 5451,
    "\u25810x1210ee": 5452,
    "\u25810x1210f0": 5453,
    "fileapis": 5454,
    "\u25810xfeee018": 5455,
    "\u2581gdip": 5456,
    "\u25810x51af": 5457,
    "a0f": 5458,
    "\u25810x41d114": 5459,
    "\u25810x563868": 5460,
    "\u25810x120f8c2": 5461,
    "bc4": 5462,
    "\u25810x417c": 5463,
    "\u25810xffef": 5464,
    "\u2581setfiletime": 5465,
    "\u2581filetimetosystemtime": 5466,
    "\u2581setenvironmentvariablea": 5467,
    "\u2581cwindowssystem32c": 5468,
    "26c": 5469,
    "\u25810x1211dd0": 5470,
    "adll": 5471,
    "uninitialize": 5472,
    "\u25810x4010": 5473,
    "lookup": 5474,
    "acti": 5475,
    "928": 5476,
    "ansi": 5477,
    "362": 5478,
    "b8c": 5479,
    "b24": 5480,
    "\u25810x1211df4": 5481,
    "\u2581theprocedurecouldnotbelocatedinthe": 5482,
    "enter": 5483,
    "\u25810x4300": 5484,
    "onsolea": 5485,
    "\u25810xffc3": 5486,
    "lower": 5487,
    "\u25810x7eab": 5488,
    "fileapisansi": 5489,
    "310": 5490,
    "\u25810x43500": 5491,
    "\u2581ntcurrentversionfontsubstitutes": 5492,
    "\u2581writeconsolea": 5493,
    "\u2581loadlibraryexw": 5494,
    "metafile": 5495,
    "\u2581drivewindowstempsanfdrbat": 5496,
    "\u25810x59bf": 5497,
    "d6c": 5498,
    "\u25810x4196": 5499,
    "\u2581getexit": 5500,
    "\u25810x4f62": 5501,
    "yarg2": 5502,
    "\u25810x97b0": 5503,
    "340": 5504,
    "\u2581kernel32lstrcmpa": 5505,
    "\u25810xec": 5506,
    "718": 5507,
    "\u25810x99d0": 5508,
    "\u2581cwindowssystem32d": 5509,
    "\u25810xfeee00f4": 5510,
    "12c": 5511,
    "dllip": 5512,
    "dlliphlpapidll": 5513,
    "\u2581theprocedurecouldnotbelocatedinthedlliphlpapidll": 5514,
    "wer": 5515,
    "\u25810x416ed1": 5516,
    "\u2581getlocaltime": 5517,
    "556": 5518,
    "\u25810x416ed2": 5519,
    "qadll": 5520,
    "\u2581lookup": 5521,
    "\u25810x42be": 5522,
    "\u25810x107688": 5523,
    "initterme": 5524,
    "\u2581virtualallocex": 5525,
    "\u25810x598": 5526,
    "ned": 5527,
    "39c": 5528,
    "klmnopqrstuvwxyza": 5529,
    "fb0": 5530,
    "644": 5531,
    "\u2581openprocesstoken": 5532,
    "\u25810x7ee9": 5533,
    "owned": 5534,
    "\u2581seterrormode": 5535,
    "\u2581aa": 5536,
    "\u25810x1211fbc": 5537,
    "specialfolderpathw": 5538,
    "f5c": 5539,
    "\u25810x454840": 5540,
    "260": 5541,
    "36f": 5542,
    "hook": 5543,
    "ae8": 5544,
    "\u25810x4378c8": 5545,
    "\u2581findfirstfilea": 5546,
    "124": 5547,
    "\u25810x4332": 5548,
    "758": 5549,
    "\u25810x437390": 5550,
    "\u25810x120fb48": 5551,
    "\u2581shell32shellexecutew": 5552,
    "144": 5553,
    "fileexistsa": 5554,
    "\u25810xffe7": 5555,
    "\u25810x4c51": 5556,
    "\u25810x7ee8": 5557,
    "\u25810xc4": 5558,
    "\u25810x130": 5559,
    "\u25810x44280": 5560,
    "\u25810xff91": 5561,
    "\u2581user32createwindowexw": 5562,
    "\u25810x1210c": 5563,
    "\u2581kernel32getuser": 5564,
    "\u25810x1210e6": 5565,
    "gine": 5566,
    "\u2581sq": 5567,
    "putdebugstringw": 5568,
    "200": 5569,
    "\u25810x509": 5570,
    "memorystatusex": 5571,
    "\u2581getcurrentthread": 5572,
    "\u25810x8824": 5573,
    "53f": 5574,
    "700": 5575,
    "usttoken": 5576,
    "\u25810x8828": 5577,
    "\u25810x8a41": 5578,
    "privileges": 5579,
    "usttokenprivileges": 5580,
    "\u25810x8825": 5581,
    "361": 5582,
    "\u25810x288": 5583,
    "\u25810x77b000": 5584,
    "\u25810x43b0c8": 5585,
    "db0": 5586,
    "\u25810x44d4": 5587,
    "\u25810x1210e5": 5588,
    "\u2581lock": 5589,
    "eengine": 5590,
    "\u25810x1210ec": 5591,
    "specifi": 5592,
    "\u25810x169b5": 5593,
    "initializeengine": 5594,
    "d28": 5595,
    "f4c": 5596,
    "\u25810x41624": 5597,
    "defaultuilanguage": 5598,
    "\u25810xae": 5599,
    "6d7": 5600,
    "\u25810x3f6000": 5601,
    "fa8": 5602,
    "\u25810xffe2": 5603,
    "\u2581ole32coinitialize": 5604,
    "\u25810x882c": 5605,
    "\u2581lookupprivilege": 5606,
    "00210": 5607,
    "\u25810x8829": 5608,
    "\u25810x1210f9": 5609,
    "ya": 5610,
    "b94": 5611,
    "stre": 5612,
    "\u2581duplicatehandle": 5613,
    "218": 5614,
    "\u25810x12118f8": 5615,
    "\u25810x882d": 5616,
    "\u25810x8834": 5617,
    "\u25810x4140": 5618,
    "3d1": 5619,
    "\u25810x51c4": 5620,
    "570": 5621,
    "\u25810x8831": 5622,
    "rag": 5623,
    "inity": 5624,
    "\u25810x42ce10": 5625,
    "\u25810x8835": 5626,
    "\u2581imagelistset": 5627,
    "atomw": 5628,
    "c0c": 5629,
    "\u25810x41688": 5630,
    "\u25810x62": 5631,
    "pipe": 5632,
    "affinity": 5633,
    "affinitymask": 5634,
    "\u2581kernel32compare": 5635,
    "\u25810x3f7000": 5636,
    "1e8": 5637,
    "start": 5638,
    "\u2581hkeylocalmachinesoftwa": 5639,
    "91c": 5640,
    "bf0": 5641,
    "\u25810x4289": 5642,
    "\u25810x4c4230": 5643,
    "\u25810x4c4260": 5644,
    "\u25810x4c42a8": 5645,
    "\u25810x42a730": 5646,
    "\u25810x42a731": 5647,
    "\u25810x4c4248": 5648,
    "\u25810x4c4278": 5649,
    "\u25810x4c4290": 5650,
    "\u25810x4c4320": 5651,
    "\u25810x4c4338": 5652,
    "\u25810x4c4350": 5653,
    "\u25810x4c4368": 5654,
    "\u25810x1211d08": 5655,
    "\u2581googletempgum16463": 5656,
    "40c": 5657,
    "f7c": 5658,
    "\u2581googletempgut16463": 5659,
    "a6c": 5660,
    "\u25810x1211968": 5661,
    "\u25810x433618": 5662,
    "pop": 5663,
    "\u25810x539": 5664,
    "\u25810x1211fa0": 5665,
    "b4c": 5666,
    "\u25810x3f8000": 5667,
    "\u25810x3fb000": 5668,
    "\u25810x429a81": 5669,
    "278": 5670,
    "\u25810x438c18": 5671,
    "\u25810x120e68c": 5672,
    "\u25810x120f9": 5673,
    "\u25810x423d38": 5674,
    "conne": 5675,
    "\u25810x1075c8": 5676,
    "\u25810x438be8": 5677,
    "paramw": 5678,
    "\u25810x4155": 5679,
    "\u25810x437ae4": 5680,
    "\u2581getfullpathnamew": 5681,
    "\u25810xa41e": 5682,
    "\u25810x437207": 5683,
    "\u25810x437208": 5684,
    "\u25810x437ad2": 5685,
    "\u25810x437ad3": 5686,
    "\u25810x437ae3": 5687,
    "\u25810x437b63": 5688,
    "\u25810x437b64": 5689,
    "\u25810x437b7b": 5690,
    "\u25810x437b7c": 5691,
    "\u25810x437bbd": 5692,
    "\u25810x437bbe": 5693,
    "\u25810x437bce": 5694,
    "\u25810x437bcf": 5695,
    "\u25810x437c42": 5696,
    "\u25810x437c43": 5697,
    "\u25810x442": 5698,
    "\u25810x40a584": 5699,
    "\u25810x3f9000": 5700,
    "\u25810x40a582": 5701,
    "\u25810x40a586": 5702,
    "\u25810x40a588": 5703,
    "\u2581iswindow": 5704,
    "\u25810x3fa000": 5705,
    "\u25810x40a58a": 5706,
    "\u25810x4c5158": 5707,
    "\u25810x120f7": 5708,
    "\u25810x40a580": 5709,
    "\u25810x429e2b": 5710,
    "\u25810x429e2c": 5711,
    "\u25810x434d1c": 5712,
    "\u25810x43b7a9": 5713,
    "\u25810x43b7aa": 5714,
    "\u2581movefilew": 5715,
    "gth": 5716,
    "\u25810x1210e2": 5717,
    "\u25810x43b7b8": 5718,
    "\u25810x4614": 5719,
    "\u25810x40a57e": 5720,
    "\u25810x44f910": 5721,
    "\u25810x1075f8": 5722,
    "\u25810x107628": 5723,
    "\u25810x422ebe": 5724,
    "\u25810x43b7b3": 5725,
    "\u25810x43b7b4": 5726,
    "\u25810x43b7ba": 5727,
    "\u25810x43b7c4": 5728,
    "\u25810x188e00": 5729,
    "b18": 5730,
    "\u25810x4050": 5731,
    "bd0": 5732,
    "propw": 5733,
    "304": 5734,
    "\u25810x430880": 5735,
    "fc8": 5736,
    "ueexa": 5737,
    "\u25810x4315b0": 5738,
    "sizeex": 5739,
    "\u2581cwindowssystem32e": 5740,
    "visi": 5741,
    "409": 5742,
    "klmnopqrstuvwxyzp": 5743,
    "\u2581getfilesizeex": 5744,
    "aa5": 5745,
    "onexit": 5746,
    "\u2581ob": 5747,
    "\u25810x3f75f60": 5748,
    "\u25810x7e3000": 5749,
    "\u25810x43ff": 5750,
    "\u2581virtualfreeex": 5751,
    "\u25810xfff4": 5752,
    "\u25810x181": 5753,
    "initialized": 5754,
    "fe0": 5755,
    "ectlock": 5756,
    "notowned": 5757,
    "\u25810x7e4000": 5758,
    "functionnot": 5759,
    "ectlocknotowned": 5760,
    "\u2581monitorsupport": 5761,
    "functionnotinitialized": 5762,
    "\u2581monitorsupportfunctionnotinitialized": 5763,
    "\u25810x40b8": 5764,
    "\u2581findnextfilea": 5765,
    "\u25810x4967a8": 5766,
    "545": 5767,
    "\u25810x3f25": 5768,
    "myarg2": 5769,
    "\u25810x46c0": 5770,
    "\u25810x4306": 5771,
    "d20": 5772,
    "\u2581enable": 5773,
    "\u25810x4290": 5774,
    "190": 5775,
    "\u2581invalidfilenames": 5776,
    "\u2581outputdebugstringw": 5777,
    "a45": 5778,
    "gn": 5779,
    "\u25810x180": 5780,
    "specified": 5781,
    "filewas": 5782,
    "\u25810x1211e24": 5783,
    "\u2581kernel32loadlibraryexa": 5784,
    "svc": 5785,
    "\u2581setfilepointerex": 5786,
    "\u2581thespecified": 5787,
    "filewasnotfound": 5788,
    "\u2581thespecifiedfilewasnotfound": 5789,
    "foc": 5790,
    "\u25810x42daa2": 5791,
    "\u25810x42daab": 5792,
    "\u25810x42dab4": 5793,
    "\u25810x42dabd": 5794,
    "stream": 5795,
    "\u25810x101c": 5796,
    "\u25810x4470": 5797,
    "\u25810x4554": 5798,
    "2e0": 5799,
    "e84": 5800,
    "\u2581unlock": 5801,
    "\u25810x8900": 5802,
    "\u2581cwindowssystem327": 5803,
    "\u2581getmenuitem": 5804,
    "34c": 5805,
    "\u25810x160": 5806,
    "b14": 5807,
    "\u25810x188d3c": 5808,
    "\u25810x423b20": 5809,
    "yarg1myarg2": 5810,
    "connect": 5811,
    "\u25810x423b1f": 5812,
    "\u25810x42fc38": 5813,
    "\u25810x3f75f30": 5814,
    "vice": 5815,
    "\u25810x235": 5816,
    "imagebase400000new": 5817,
    "originalimagebase400000new": 5818,
    "originalimagebase400000newimagebase400000": 5819,
    "7f0": 5820,
    "\u2581regcreatekeyexw": 5821,
    "9c2": 5822,
    "aaaa": 5823,
    "1d0": 5824,
    "569": 5825,
    "918": 5826,
    "fd8": 5827,
    "\u25810x10e9": 5828,
    "f6c": 5829,
    "ime": 5830,
    "\u25810x41d1": 5831,
    "\u25810x1210f1": 5832,
    "f48": 5833,
    "d00": 5834,
    "\u25810xffdd": 5835,
    "888": 5836,
    "fa2": 5837,
    "\u25810x40a5ac": 5838,
    "\u25810xffc1": 5839,
    "dac": 5840,
    "\u2581comdlg": 5841,
    "\u25810x423868": 5842,
    "\u25810x423898": 5843,
    "284": 5844,
    "541": 5845,
    "778": 5846,
    "\u2581kernel32ra": 5847,
    "\u2581kernel32raiseexception": 5848,
    "\u25810x419c20": 5849,
    "\u2581comdlg32dll": 5850,
    "\u2581isbadreadptr": 5851,
    "\u2581comctl32ordinal": 5852,
    "550": 5853,
    "\u2581comctl32ordinal17": 5854,
    "382": 5855,
    "fec": 5856,
    "\u25810x425": 5857,
    "\u25810x41bd": 5858,
    "b7d8": 5859,
    "\u25810x42fbf0": 5860,
    "\u25810x40eec": 5861,
    "b78": 5862,
    "\u25810x4e30": 5863,
    "\u25810x4de": 5864,
    "\u25810x40b": 5865,
    "bad8": 5866,
    "\u2581imagelistdestroy": 5867,
    "dialogbox": 5868,
    "\u25810x58000": 5869,
    "\u25810x1211e18": 5870,
    "\u2581enddialog": 5871,
    "290": 5872,
    "38c": 5873,
    "54c": 5874,
    "\u25810x7bc": 5875,
    "\u2581apimswincrtstringl110": 5876,
    "\u25810x40ef1": 5877,
    "404": 5878,
    "data": 5879,
    "\u2581user32registerclipboardformata": 5880,
    "tw": 5881,
    "eno": 5882,
    "\u2581cwindowssystem321": 5883,
    "\u2581lstrcpyw": 5884,
    "\u25810x1211f44": 5885,
    "\u25810x4130": 5886,
    "\u25810x437820": 5887,
    "ae0": 5888,
    "\u25810x4076": 5889,
    "b10": 5890,
    "\u2581getversion": 5891,
    "\u2581hkeycurrentusersoftwaremicrosoftwindows": 5892,
    "\u2581ch": 5893,
    "\u25810x7e5000": 5894,
    "\u2581regenumkeyexw": 5895,
    "555": 5896,
    "a90": 5897,
    "edll": 5898,
    "\u2581kernel32comparestringw": 5899,
    "\u25810x4254": 5900,
    "a8a8": 5901,
    "inst": 5902,
    "794": 5903,
    "\u2581shlwapidll": 5904,
    "\u2581initcommoncontrolsex": 5905,
    "f68": 5906,
    "length": 5907,
    "\u25810x486d": 5908,
    "\u2581apimswincrtheapl110malloc": 5909,
    "b90": 5910,
    "link": 5911,
    "\u2581cs": 5912,
    "\u25810x59c": 5913,
    "\u2581localfree": 5914,
    "f28": 5915,
    "desk": 5916,
    "leasec": 5917,
    "\u2581kernel32getprocessaffinitymask": 5918,
    "70c": 5919,
    "\u25810x41c856": 5920,
    "\u25810x41c857": 5921,
    "\u25810x433": 5922,
    "\u25810x4244": 5923,
    "gex": 5924,
    "\u25810x43f0": 5925,
    "\u2581regdeletekeyw": 5926,
    "aa0": 5927,
    "dbe": 5928,
    "\u25810x169b7a4": 5929,
    "\u2581queryperformancefrequency": 5930,
    "f18": 5931,
    "1tmp": 5932,
    "\u25810x1b1": 5933,
    "\u25810x1211e8c": 5934,
    "f90": 5935,
    "active": 5936,
    "\u25810x169b57c": 5937,
    "\u25810x8930": 5938,
    "\u25810x169b94c": 5939,
    "\u25810x47e0": 5940,
    "codeprocess": 5941,
    "798": 5942,
    "e2e": 5943,
    "\u25810x4febd8": 5944,
    "\u25810x431f38": 5945,
    "\u25810x2100210": 5946,
    "ynamic": 5947,
    "dynamic": 5948,
    "\u2581dialogbox": 5949,
    "metafilebits": 5950,
    "\u25810x56b8": 5951,
    "\u2581getexitcodeprocess": 5952,
    "a48": 5953,
    "dynamiclink": 5954,
    "\u2581gettempfilenamew": 5955,
    "ff0": 5956,
    "eresource": 5957,
    "hardl": 5958,
    "hardlinkw": 5959,
    "\u25810x188e24": 5960,
    "\u25810x42e5c8": 5961,
    "\u25810x42e5e0": 5962,
    "\u2581createhardlinkw": 5963,
    "\u25810x42d3c0": 5964,
    "370": 5965,
    "recon": 5966,
    "\u2581pageno": 5967,
    "\u2581application": 5968,
    "\u2581pagenoaccess": 5969,
    "\u25810x41a6": 5970,
    "\u25810x1211f1c": 5971,
    "\u2581lstrcmpiw": 5972,
    "\u2581regdeletevaluew": 5973,
    "2c8": 5974,
    "\u25810x41af": 5975,
    "\u25810x4084": 5976,
    "base": 5977,
    "\u2581getvolumeinformationw": 5978,
    "\u2581getdateformatw": 5979,
    "sourcea": 5980,
    "\u25810x12106": 5981,
    "210": 5982,
    "e28": 5983,
    "\u25810x42bf": 5984,
    "\u25810x4030": 5985,
    "\u25810x88b0": 5986,
    "\u2581process32nextw": 5987,
    "\u25810x1211de4": 5988,
    "\u25810x343b570": 5989,
    "\u2581process32firstw": 5990,
    "\u2581removedirectoryw": 5991,
    "316": 5992,
    "focus": 5993,
    "acqui": 5994,
    "\u25810x42c1": 5995,
    "\u25810x431ef0": 5996,
    "acquirecon": 5997,
    "d8c": 5998,
    "reeresource": 5999,
    "f78": 6000,
    "\u25810x42e598": 6001,
    "\u2581imagelistreplace": 6002,
    "\u2581kernel32localfree": 6003,
    "748": 6004,
    "990": 6005,
    "\u25810x99a0": 6006,
    "power": 6007,
    "3b0": 6008,
    "onexe": 6009,
    "\u25810x10e9bc": 6010,
    "\u2581getsyscolor": 6011,
    "11c": 6012,
    "lookexe": 6013,
    "\u2581outlookexe": 6014,
    "\u25810x4fe2": 6015,
    "948": 6016,
    "\u2581add": 6017,
    "b50": 6018,
    "f24": 6019,
    "\u25810x1211d00": 6020,
    "3b8": 6021,
    "\u2581netp": 6022,
    "\u2581heapdestroy": 6023,
    "2dc": 6024,
    "6d7363": 6025,
    "\u25810xe06d7363": 6026,
    "\u2581getwindowsdirectorya": 6027,
    "\u25810x3f21": 6028,
    "\u2581dialogboxparamw": 6029,
    "\u25810x42b3": 6030,
    "\u2581setcurrentdirectoryw": 6031,
    "b68": 6032,
    "\u25810x5004": 6033,
    "720": 6034,
    "\u2581lookupprivilegevaluew": 6035,
    "\u2581physicaldrive0": 6036,
    "d60": 6037,
    "\u2581call": 6038,
    "\u2581kernel32initializeconditionvariable": 6039,
    "ook": 6040,
    "\u25810x45f1": 6041,
    "\u25810x423dc8": 6042,
    "\u2581netphysicaldrive0": 6043,
    "f46": 6044,
    "\u2581ls": 6045,
    "\u2581netc": 6046,
    "\u25810x7bc00000": 6047,
    "\u25810x41681a": 6048,
    "4005": 6049,
    "\u25810x41681b": 6050,
    "short": 6051,
    "shook": 6052,
    "\u25810x3f2": 6053,
    "popup": 6054,
    "\u25810x8ec0": 6055,
    "\u25810x1211808": 6056,
    "chr": 6057,
    "\u2581getdlg": 6058,
    "\u2581getshort": 6059,
    "aad": 6060,
    "\u25810x4fe6e8": 6061,
    "a54": 6062,
    "\u25810x1210f7": 6063,
    "ef0": 6064,
    "aa8": 6065,
    "\u25810xc8": 6066,
    "\u25810x56bad8": 6067,
    "\u2581getcomputer": 6068,
    "322": 6069,
    "\u25810x42f3": 6070,
    "\u2581wts": 6071,
    "c8d": 6072,
    "\u2581getmenu": 6073,
    "\u25810x1211ad0": 6074,
    "\u25810x4cb0": 6075,
    "560": 6076,
    "\u2581imagelistcreate": 6077,
    "0x": 6078,
    "468": 6079,
    "\u25810x42af": 6080,
    "\u25810x40b3de": 6081,
    "\u25810x46b3d0": 6082,
    "\u25810x418a00": 6083,
    "\u25810x418a30": 6084,
    "\u25810x1211e20": 6085,
    "3e0": 6086,
    "d0c": 6087,
    "\u25810x5398": 6088,
    "\u25810xa429f8": 6089,
    "klmnopqrstuvwxyzb": 6090,
    "dd4": 6091,
    "b008": 6092,
    "\u25810x49c8": 6093,
    "300b": 6094,
    "\u25810x3f26": 6095,
    "\u25810x4395c8": 6096,
    "ds": 6097,
    "a38": 6098,
    "apt": 6099,
    "18c": 6100,
    "f54": 6101,
    "\u25810x120e690": 6102,
    "\u25810x120e698": 6103,
    "\u2581gettimeformatw": 6104,
    "\u25810x53b640": 6105,
    "\u25810x53b7d8": 6106,
    "\u25810x53ba10": 6107,
    "resourc": 6108,
    "a0c": 6109,
    "leave": 6110,
    "b80": 6111,
    "c84": 6112,
    "endd": 6113,
    "\u2581removedirectorya": 6114,
    "enddrag": 6115,
    "begindrag": 6116,
    "\u2581imagelistdragmove": 6117,
    "\u2581imagelistbegindrag": 6118,
    "\u2581imagelistdragleave": 6119,
    "reen": 6120,
    "winmetafilebits": 6121,
    "\u2581imagelistenddrag": 6122,
    "\u2581imagelistdragenter": 6123,
    "f58": 6124,
    "apture": 6125,
    "\u2581createpipe": 6126,
    "\u2581getdrivetypew": 6127,
    "3c4": 6128,
    "\u25810x7d51": 6129,
    "dc1": 6130,
    "\u25810x87": 6131,
    "2b0": 6132,
    "\u25810x144": 6133,
    "\u25810x120f": 6134,
    "bd4": 6135,
    "fc0": 6136,
    "\u25810x97c0": 6137,
    "b70": 6138,
    "d90": 6139,
    "\u2581pathfileexistsa": 6140,
    "hexe": 6141,
    "\u25810x54000": 6142,
    "\u2581setenvironmentvariablew": 6143,
    "\u25810x5199": 6144,
    "985": 6145,
    "bcc": 6146,
    "acc": 6147,
    "f65": 6148,
    "716": 6149,
    "940": 6150,
    "\u25810x5219": 6151,
    "944": 6152,
    "\u25810x42bd38": 6153,
    "301": 6154,
    "\u25810x4096": 6155,
    "\u25810x40b3dd": 6156,
    "a9c": 6157,
    "\u25810x412e": 6158,
    "\u25810x43b3d8": 6159,
    "298": 6160,
    "\u2581lstrlena": 6161,
    "b0c": 6162,
    "\u25810x120e6cc": 6163,
    "53f1c": 6164,
    "\u25810x1253f1c": 6165,
    "env": 6166,
    "\u25810xcb000": 6167,
    "\u2581getcomputernamew": 6168,
    "d18": 6169,
    "116": 6170,
    "\u25810x9a90": 6171,
    "\u25810x42b36f": 6172,
    "\u25810x42b370": 6173,
    "longw": 6174,
    "\u25810xa3a8": 6175,
    "ba8": 6176,
    "\u25810x3f27": 6177,
    "\u2581user32getclass": 6178,
    "\u2581imagelistremove": 6179,
    "\u25810x4aa0": 6180,
    "\u25810x4307e0": 6181,
    "a30": 6182,
    "\u2581setsystem": 6183,
    "\u2581gettokeninformation": 6184,
    "\u25810x1019": 6185,
    "\u2581imagelistreplaceicon": 6186,
    "\u25810xffc7": 6187,
    "powerstate": 6188,
    "\u2581setsystempowerstate": 6189,
    "386": 6190,
    "im": 6191,
    "visible": 6192,
    "604": 6193,
    "\u25810x80c": 6194,
    "\u25810x40ab": 6195,
    "\u2581getdiskfreespacew": 6196,
    "\u2581readprocessmemory": 6197,
    "f39": 6198,
    "\u25810x455": 6199,
    "7a8": 6200,
    "f34": 6201,
    "\u25810x42900": 6202,
    "b28": 6203,
    "entry": 6204,
    "\u25810x644": 6205,
    "\u25810x4d50": 6206,
    "ir": 6207,
    "180d0a": 6208,
    "\u25810x42f3180d0a": 6209,
    "70e": 6210,
    "d30": 6211,
    "\u2581kk11": 6212,
    "\u25810x45f2": 6213,
    "\u25810x60c6": 6214,
    "\u2581enumresourc": 6215,
    "\u25810x42aa58": 6216,
    "\u25810x1211ef4": 6217,
    "\u2581regenumvaluew": 6218,
    "\u25810x47f0": 6219,
    "\u2581kernel32localrealloc": 6220,
    "\u25810x9210": 6221,
    "\u25810x44d4b8": 6222,
    "eexe": 6223,
    "\u25810x4efd": 6224,
    "registry": 6225,
    "\u2581shell32shgetspecialfolderpathw": 6226,
    "\u25810x484": 6227,
    "\u2581loadacceleratorsw": 6228,
    "\u25810xd2": 6229,
    "\u25810x428000": 6230,
    "b58": 6231,
    "\u2581regconnect": 6232,
    "\u2581enumresourcename": 6233,
    "\u2581regconnectregistry": 6234,
    "ba0": 6235,
    "\u2581applicationerror": 6236,
    "\u2581getenvironmentstrings": 6237,
    "\u25810x4179": 6238,
    "69c": 6239,
    "\u25810x1074": 6240,
    "\u25810x4126": 6241,
    "381": 6242,
    "\u25810x1211d2c": 6243,
    "248": 6244,
    "958": 6245,
    "e58": 6246,
    "qt": 6247,
    "fromstream": 6248,
    "366": 6249,
    "\u25810x2825": 6250,
    "\u25810x3f23": 6251,
    "\u2581user32getcursorpos": 6252,
    "694": 6253,
    "\u2581getshortpathnamew": 6254,
    "\u25810x42c4f0": 6255,
    "1cc": 6256,
    "dlldirectoryw": 6257,
    "e50": 6258,
    "\u25810x41a8a8": 6259,
    "\u25810x41bc98": 6260,
    "\u25810x41bcc8": 6261,
    "\u25810x4088": 6262,
    "\u25810x4200": 6263,
    "\u2581regconnectregistryw": 6264,
    "\u25810x88f0": 6265,
    "\u25810x42ae20": 6266,
    "9c0": 6267,
    "\u2581msvcrtfree": 6268,
    "ip": 6269,
    "3tmp": 6270,
    "\u2581shfolder": 6271,
    "\u2581apimswincorefibersl110": 6272,
    "a0e": 6273,
    "\u25810x82f0": 6274,
    "\u2581getprivateprofilestringw": 6275,
    "\u2581writeprivateprofilestringw": 6276,
    "\u25810x53e4": 6277,
    "\u25810x1211f54": 6278,
    "\u2581enumresourcenamesw": 6279,
    "\u25810x6a": 6280,
    "\u25810xe8": 6281,
    "\u25810x3b7": 6282,
    "3a4": 6283,
    "save": 6284,
    "\u2581beep": 6285,
    "ession": 6286,
    "\u25810x8ef0": 6287,
    "\u25810x42d8a2": 6288,
    "\u25810x42d8ab": 6289,
    "\u25810x42d8b4": 6290,
    "\u25810x42d8bd": 6291,
    "\u25810x169bf64": 6292,
    "\u2581openthreadtoken": 6293,
    "566": 6294,
    "994": 6295,
    "306": 6296,
    "fad": 6297,
    "amet": 6298,
    "\u25810x437804": 6299,
    "56c": 6300,
    "\u25810x40a59c": 6301,
    "d48": 6302,
    "\u25810x9810": 6303,
    "\u2581setvolume": 6304,
    "\u25810x63000000": 6305,
    "\u25810x41cc": 6306,
    "\u2581getsave": 6307,
    "priorityclass": 6308,
    "dragob": 6309,
    "\u25810x1211f97": 6310,
    "\u2581user32dragob": 6311,
    "\u2581gdi32getwinmetafilebits": 6312,
    "\u25810xf8": 6313,
    "e48": 6314,
    "a50": 6315,
    "f35": 6316,
    "\u25810x79b0": 6317,
    "\u25810x6781c0": 6318,
    "\u25810x6781f0": 6319,
    "\u25810x50850": 6320,
    "\u25810x40a6": 6321,
    "\u25810x45f4": 6322,
    "\u25810x52667": 6323,
    "ontext": 6324,
    "\u25810x12119d0": 6325,
    "messageboxw": 6326,
    "\u2581globalmemorystatusex": 6327,
    "fa0": 6328,
    "\u2581virtualquery": 6329,
    "978": 6330,
    "\u2581server": 6331,
    "\u25810x120faa8": 6332,
    "\u25810x12115bc": 6333,
    "505": 6334,
    "\u25810xffde": 6335,
    "\u25810x42b8": 6336,
    "\u25810x41300b": 6337,
    "\u2581kernel32lstrcpya": 6338,
    "\u2581hddregeneratordll": 6339,
    "dcc": 6340,
    "nex": 6341,
    "\u25810x9630": 6342,
    "\u25810x1fa": 6343,
    "\u25810x41f7": 6344,
    "\u25810x408478": 6345,
    "\u2581port": 6346,
    "\u25810x12115d0": 6347,
    "f98": 6348,
    "labe": 6349,
    "\u25810x208": 6350,
    "\u2581setvolumelabe": 6351,
    "\u2581advapi32open": 6352,
    "\u2581createprocessas": 6353,
    "\u25810x1210fa": 6354,
    "\u2581freeenvironmentstringsa": 6355,
    "lsid": 6356,
    "\u25810x4310": 6357,
    "d10": 6358,
    "\u2581setpriorityclass": 6359,
    "321": 6360,
    "\u25810xa16": 6361,
    "dragcursor": 6362,
    "dragcursorimage": 6363,
    "\u2581imagelistsetdragcursorimage": 6364,
    "\u25810x417b50": 6365,
    "\u25810x1211c40": 6366,
    "3bc": 6367,
    "\u25810x28800": 6368,
    "ateto": 6369,
    "entrypoint": 6370,
    "50c": 6371,
    "releasec": 6372,
    "\u25810x422798": 6373,
    "\u25810x423890": 6374,
    "\u25810x4238c0": 6375,
    "\u2581duplicateto": 6376,
    "releasecontext": 6377,
    "\u2581theprocedureentrypoint": 6378,
    "\u25810x1211900": 6379,
    "\u2581kernel32getuserdefaultuilanguage": 6380,
    "\u25810x4dd": 6381,
    "\u25810x566a40": 6382,
    "\u2581mem": 6383,
    "\u25810x7e00": 6384,
    "\u25810x439880": 6385,
    "deleteatom": 6386,
    "\u25810x1211ecc": 6387,
    "31c": 6388,
    "\u2581kernel32createthread": 6389,
    "\u2581initi": 6390,
    "\u25810x1211ee8": 6391,
    "pys": 6392,
    "\u2581lstrcp": 6393,
    "\u2581createprocessasuserw": 6394,
    "738": 6395,
    "quire": 6396,
    "565": 6397,
    "screen": 6398,
    "\u25810x7ff": 6399,
    "inet": 6400,
    "\u25810x4176": 6401,
    "require": 6402,
    "areex": 6403,
    "\u25810x41c044": 6404,
    "\u25810x42c5d0": 6405,
    "dcompareex": 6406,
    "dcompareexchange": 6407,
    "\u2581getprivateprofilesectionname": 6408,
    "5e8": 6409,
    "\u2581logon": 6410,
    "\u25810x4201": 6411,
    "\u25810x5658": 6412,
    "\u2581ole32oleload": 6413,
    "\u2581ole32oleloadfromstream": 6414,
    "1e4": 6415,
    "a20": 6416,
    "a99": 6417,
    "kenex": 6418,
    "\u2581setvolumelabelw": 6419,
    "5c0": 6420,
    "\u25810x5c000": 6421,
    "\u2581duplicatetokenex": 6422,
    "ioco": 6423,
    "\u2581globaladd": 6424,
    "\u2581initiate": 6425,
    "d5c": 6426,
    "\u25810xbd": 6427,
    "systemsh": 6428,
    "\u2581initiatesystemsh": 6429,
    "\u25810x8ed0": 6430,
    "\u2581pt": 6431,
    "nexw": 6432,
    "a98": 6433,
    "\u25810x4a40": 6434,
    "\u2581globaldeleteatom": 6435,
    "a09": 6436,
    "\u25810x40a3e": 6437,
    "utdownexw": 6438,
    "\u2581initiatesystemshutdownexw": 6439,
    "\u25810x422c": 6440,
    "\u25810x4280": 6441,
    "\u25810x433660": 6442,
    "lengthsid": 6443,
    "\u2581writeprivateprofilesection": 6444,
    "\u2581advapi32gettokeninformation": 6445,
    "loader": 6446,
    "\u2581kernel32getsystemtimes": 6447,
    "\u2581getprivateprofilesectionw": 6448,
    "\u2581getprivateprofilesectionnamesw": 6449,
    "\u25810x421d": 6450,
    "\u25810x42d4f0": 6451,
    "\u2581user32loadacceleratorsw": 6452,
    "\u2581writeprivateprofilesectionw": 6453,
    "938": 6454,
    "\u2581getlengthsid": 6455,
    "\u2581initializeacl": 6456,
    "unters": 6457,
    "\u25810x181b70": 6458,
    "\u2581createprocesswith": 6459,
    "244": 6460,
    "pysid": 6461,
    "\u2581copysid": 6462,
    "\u2581freeresource": 6463,
    "\u2581getace": 6464,
    "iocounters": 6465,
    "\u2581getprocessiocounters": 6466,
    "\u2581getsecuritydescriptordacl": 6467,
    "a64": 6468,
    "\u25810x4a80": 6469,
    "\u25810x438bd0": 6470,
    "71c": 6471,
    "af0": 6472,
    "960": 6473,
    "desktop": 6474,
    "\u2581addace": 6475,
    "\u25810x4614d0": 6476,
    "2c5": 6477,
    "f51": 6478,
    "\u2581getacl": 6479,
    "\u2581getaclinformation": 6480,
    "logonw": 6481,
    "\u2581createprocesswithlogonw": 6482,
    "\u2581logonuserw": 6483,
    "\u25810x3200a": 6484,
    "\u25810x56b868": 6485,
    "\u25810x4990": 6486,
    "menuw": 6487,
    "7tmp": 6488,
    "\u25810x1210e78": 6489,
    "\u25810x1210e7c": 6490,
    "\u2581kernel32lstrc": 6491,
    "294": 6492,
    "bed": 6493,
    "medi": 6494,
    "\u25810x42be20": 6495,
    "\u25810x80be": 6496,
    "olor": 6497,
    "\u25810x423e08": 6498,
    "tt": 6499,
    "\u2581globalfind": 6500,
    "\u25810x4912": 6501,
    "af8": 6502,
    "a32": 6503,
    "\u25810x45fe": 6504,
    "220": 6505,
    "b98": 6506,
    "\u25810x4828": 6507,
    "ef8": 6508,
    "\u25810x150": 6509,
    "\u25810x420a0f": 6510,
    "\u25810x420a10": 6511,
    "\u25810x45f6": 6512,
    "\u2581getdiskfreespaceexa": 6513,
    "heme": 6514,
    "\u25810xd8": 6515,
    "\u25810x416be0": 6516,
    "\u25810x1211db8": 6517,
    "16c": 6518,
    "730": 6519,
    "rege": 6520,
    "\u25810xc94": 6521,
    "\u25810x416c10": 6522,
    "101": 6523,
    "f17": 6524,
    "\u25810xa42a40": 6525,
    "\u25810x169bf74": 6526,
    "ditexe": 6527,
    "\u25810x4160": 6528,
    "\u25810x45f5": 6529,
    "regeditexe": 6530,
    "\u25810x42a6": 6531,
    "ntsvc": 6532,
    "\u25810x4f60": 6533,
    "\u2581mso": 6534,
    "\u25810x2002": 6535,
    "\u25810x45f3": 6536,
    "\u25810x45f8": 6537,
    "\u25810x425590": 6538,
    "a78": 6539,
    "\u25810x45f7": 6540,
    "\u25810x45fa": 6541,
    "\u25810x41b0": 6542,
    "3a0": 6543,
    "\u2581sm": 6544,
    "\u2581service": 6545,
    "\u25810x42ba58": 6546,
    "xtheme": 6547,
    "\u25810x40a0": 6548,
    "\u25810x1211fe0": 6549,
    "2e2": 6550,
    "\u2581csr": 6551,
    "assexe": 6552,
    "valuea": 6553,
    "\u2581clsid": 6554,
    "\u2581isbad": 6555,
    "initexe": 6556,
    "\u2581winlog": 6557,
    "\u2581smssexe": 6558,
    "\u2581csrssexe": 6559,
    "\u2581lsassexe": 6560,
    "\u2581wininitexe": 6561,
    "\u2581servicesexe": 6562,
    "\u2581winlogonexe": 6563,
    "710": 6564,
    "\u2581kernel32getwindows": 6565,
    "fb8": 6566,
    "\u25810xdd": 6567,
    "728": 6568,
    "7c8": 6569,
    "e80": 6570,
    "\u25810x431": 6571,
    "\u2581failedtoinitializeengine": 6572,
    "af4": 6573,
    "\u25810x45f9": 6574,
    "\u2581systemprocess": 6575,
    "\u2581softwareembarcaderolocales": 6576,
    "334": 6577,
    "\u25810x4c24": 6578,
    "130": 6579,
    "\u25810x68000": 6580,
    "d24": 6581,
    "\u25810x4086": 6582,
    "\u25810xffcb": 6583,
    "\u25810x1211e54": 6584,
    "\u25810x4fc": 6585,
    "\u2581user32getclassinfoa": 6586,
    "\u2581softwaremicrosoftwindowsntcurrentversionwindows": 6587,
    "3d4": 6588,
    "\u2581clsidfrom": 6589,
    "506": 6590,
    "1b8": 6591,
    "\u25810x8190": 6592,
    "required": 6593,
    "e0c": 6594,
    "\u2581msvcr90": 6595,
    "580": 6596,
    "a7c": 6597,
    "\u2581ole32couninitialize": 6598,
    "d38": 6599,
    "f3f": 6600,
    "\u2581ole32oleinitialize": 6601,
    "ware": 6602,
    "202e": 6603,
    "\u2581sys": 6604,
    "\u25810x4232": 6605,
    "\u25810x4233": 6606,
    "klmnopqrstuvwxyzh": 6607,
    "fdd": 6608,
    "\u25810x8f70": 6609,
    "fd4": 6610,
    "\u25810x4601": 6611,
    "3b6": 6612,
    "\u25810x407": 6613,
    "\u25810x45fd": 6614,
    "\u2581ntcurrentversionwindows": 6615,
    "14c": 6616,
    "df8": 6617,
    "allocate": 6618,
    "558f": 6619,
    "\u2581getsystemdirectorya": 6620,
    "\u25810x5000": 6621,
    "\u25810x9640": 6622,
    "\u25810x45ff": 6623,
    "\u25810x402": 6624,
    "\u25810x42558f": 6625,
    "\u2581globalrealloc": 6626,
    "\u25810x5617": 6627,
    "ab5": 6628,
    "\u25810x4184": 6629,
    "\u25810x1860": 6630,
    "\u25810x169bc5c": 6631,
    "d2c": 6632,
    "os": 6633,
    "failedto": 6634,
    "\u2581setsearchpathmode": 6635,
    "9e0": 6636,
    "10428": 6637,
    "a8c": 6638,
    "dc9": 6639,
    "\u25810x44000": 6640,
    "\u25810x71000000": 6641,
    "\u2581kernel32setsearchpathmode": 6642,
    "\u25810x9af0": 6643,
    "\u25810x44180": 6644,
    "c01": 6645,
    "\u2581getsavefilenamew": 6646,
    "\u25810x4a7": 6647,
    "\u2581qt": 6648,
    "tw10428": 6649,
    "tw10428dat": 6650,
    "requiredtw10428dat": 6651,
    "\u2581unlockservicedatabase": 6652,
    "0x8000": 6653,
    "0x80004005": 6654,
    "\u25810xa4a0": 6655,
    "\u25810x9d10": 6656,
    "\u25810x42efe8": 6657,
    "beginpaint": 6658,
    "\u2581user32beginpaint": 6659,
    "ce1": 6660,
    "a87": 6661,
    "\u25810x4c42d0": 6662,
    "error0x80004005": 6663,
    "error0x80004005failedto": 6664,
    "\u25810x4134": 6665,
    "\u25810x4c4468": 6666,
    "\u25810x4c46a0": 6667,
    "\u2581lockservicedatabase": 6668,
    "e000error0x80004005failedto": 6669,
    "\u25810xb3": 6670,
    "\u25810xfff3": 6671,
    "\u2581globalhandle": 6672,
    "couldnotbelocatedinthedynamiclink": 6673,
    "158": 6674,
    "78c": 6675,
    "pre": 6676,
    "internet": 6677,
    "\u25810x2439f74": 6678,
    "pool": 6679,
    "\u25810x40e7": 6680,
    "\u25810xfff2": 6681,
    "\u2581lstrcmpa": 6682,
    "\u25810x427": 6683,
    "715": 6684,
    "\u25810x4efd98": 6685,
    "a60": 6686,
    "\u2581l": 6687,
    "aae": 6688,
    "\u25810x440": 6689,
    "\u25810x4305c8": 6690,
    "\u25810x4305e0": 6691,
    "\u25810x22e": 6692,
    "ad9": 6693,
    "seek": 6694,
    "\u25810x8de0": 6695,
    "\u25810x9ad0": 6696,
    "\u25810x1210f2": 6697,
    "upp": 6698,
    "\u25810x41ab": 6699,
    "396": 6700,
    "\u25810x8f40": 6701,
    "48c": 6702,
    "bd8": 6703,
    "erv": 6704,
    "pen": 6705,
    "\u25810x9a70": 6706,
    "toi": 6707,
    "\u25810x42b964": 6708,
    "adaptersinfo": 6709,
    "374": 6710,
    "\u25810xbe": 6711,
    "\u25810x40f": 6712,
    "\u2581internet": 6713,
    "dd0": 6714,
    "dee": 6715,
    "fromlog": 6716,
    "transform": 6717,
    "\u25810x3f2210": 6718,
    "7b8": 6719,
    "\u2581user32end": 6720,
    "xs": 6721,
    "ah": 6722,
    "1c0": 6723,
    "7e8": 6724,
    "\u25810x9c30": 6725,
    "ecolor": 6726,
    "\u2581user32endpaint": 6727,
    "7d0": 6728,
    "\u25810x521": 6729,
    "\u25810x430598": 6730,
    "\u2581ole32dll": 6731,
    "\u25810x42ebc0": 6732,
    "\u25810xa3a7b0": 6733,
    "\u25810x4179c": 6734,
    "520": 6735,
    "\u25810x120fb30": 6736,
    "\u25810x169bf94": 6737,
    "60c": 6738,
    "\u25810x51b": 6739,
    "\u25810xa42980": 6740,
    "\u25810xfeee019": 6741,
    "emyarg1myarg2": 6742,
    "a86": 6743,
    "bfc": 6744,
    "a94": 6745,
    "ineto": 6746,
    "\u25810x4df00": 6747,
    "ecolortransform": 6748,
    "texemyarg1myarg2": 6749,
    "\u25810x84b": 6750,
    "\u25810x1211c00": 6751,
    "bb4": 6752,
    "dd6": 6753,
    "\u2581peekmessagea": 6754,
    "3cc": 6755,
    "7a0": 6756,
    "\u25810xb2": 6757,
    "974": 6758,
    "\u25810x534": 6759,
    "\u25810xa3a768": 6760,
    "10e": 6761,
    "64c": 6762,
    "celink": 6763,
    "spacew": 6764,
    "colorspacew": 6765,
    "profilefromlog": 6766,
    "ecolortransformw": 6767,
    "profilefromlogcolorspacew": 6768,
    "\u25810xa210": 6769,
    "ce6": 6770,
    "amut": 6771,
    "\u2581dll": 6772,
    "singamut": 6773,
    "\u25810x423326": 6774,
    "\u25810x423327": 6775,
    "checkcolor": 6776,
    "devicelink": 6777,
    "\u2581mscmscreat": 6778,
    "\u2581gdi32checkcolor": 6779,
    "devicelinkprofile": 6780,
    "\u2581svchostexemyarg1myarg2": 6781,
    "\u2581gdi32checkcolorsingamut": 6782,
    "\u2581mscmscreatecolortransformw": 6783,
    "\u2581mscmscreatedevicelinkprofile": 6784,
    "\u2581mscmscreateprofilefromlogcolorspacew": 6785,
    "\u25810x70000": 6786,
    "\u25810x4650": 6787,
    "textoutw": 6788,
    "\u25810x46b400": 6789,
    "klmnopqrstuvwxyzq": 6790,
    "970": 6791,
    "\u25810x4199": 6792,
    "\u25810x4240": 6793,
    "eb8": 6794,
    "\u25810x46b": 6795,
    "threadprocessid": 6796,
    "\u2581getwindowthreadprocessid": 6797,
    "lientrect": 6798,
    "f16": 6799,
    "\u2581softwareclasses": 6800,
    "\u2581sc": 6801,
    "\u25810x43a4": 6802,
    "\u2581hkeylocalmachinesoftwareborlandlocales": 6803,
    "\u25810x42759f": 6804,
    "\u25810x4275a0": 6805,
    "\u25810xfeee00f3": 6806,
    "\u25810xb7": 6807,
    "\u25810x40b4": 6808,
    "\u2581file": 6809,
    "\u25810x423d90": 6810,
    "\u25810x423dc0": 6811,
    "\u25810xfeee00f2": 6812,
    "3d6": 6813,
    "\u25810x80c458": 6814,
    "bf8": 6815,
    "winexec": 6816,
    "\u2581kernel32winexec": 6817,
    "bbc": 6818,
    "\u25810x40d8": 6819,
    "\u2581cwindowstempsetup202203040": 6820,
    "f3e": 6821,
    "920": 6822,
    "\u2581atoi": 6823,
    "atoma": 6824,
    "\u25810x50e10": 6825,
    "9c24": 6826,
    "\u2581wcs": 6827,
    "\u25810x5218": 6828,
    "\u2581chexe": 6829,
    "\u2581hddregeneratordl": 6830,
    "3da": 6831,
    "imagebasex": 6832,
    "loaderstart": 6833,
    "\u2581pec2dbgmsgxs": 6834,
    "\u2581pec2dbgmsg0loaderstart": 6835,
    "\u2581pec2dbgmsg0originalimagebase400000newimagebase400000": 6836,
    "910": 6837,
    "\u25810x9730": 6838,
    "\u25810x42bdc8": 6839,
    "\u25810x42bdf8": 6840,
    "325": 6841,
    "lags": 6842,
    "\u25810x5f6": 6843,
    "\u25810x1211f50": 6844,
    "3e4": 6845,
    "\u25810x4ff": 6846,
    "\u2581setup": 6847,
    "\u25810x60c690": 6848,
    "\u2581filenotfound": 6849,
    "\u25810x431828": 6850,
    "\u25810x500000": 6851,
    "148": 6852,
    "b46": 6853,
    "f38": 6854,
    "\u25810x435000": 6855,
    "\u2581hkeylocalmachinesoftwareclasses": 6856,
    "a24": 6857,
    "\u2581wininet": 6858,
    "mapi": 6859,
    "\u25810x1211d30": 6860,
    "a43": 6861,
    "\u25810x52668": 6862,
    "\u25810x427f": 6863,
    "\u25810x411555": 6864,
    "\u25810x411556": 6865,
    "\u2581getuserdefaultlcid": 6866,
    "\u25810x9c80": 6867,
    "307": 6868,
    "314": 6869,
    "a66": 6870,
    "\u25810xf000": 6871,
    "\u2581kernel32getthreadpreferreduilanguages": 6872,
    "\u2581kernel32interlockedcompareexchange": 6873,
    "270": 6874,
    "\u25810x433860": 6875,
    "d78": 6876,
    "\u25810x22002": 6877,
    "\u2581kernel32move": 6878,
    "\u25810x4606": 6879,
    "\u25810xffd4": 6880,
    "xxh": 6881,
    "d0xxh": 6882,
    "\u2581programinternalerrornumberisd0xxh": 6883,
    "\u2581softwaremicrosoftwindowscurrentversionrun": 6884,
    "ec9": 6885,
    "atec": 6886,
    "\u25810x9850": 6887,
    "setevent": 6888,
    "\u25810x120fe": 6889,
    "\u2581kernel32are": 6890,
    "\u2581formatmessagea": 6891,
    "\u2581kernel32arefileapisansi": 6892,
    "\u25810x4139": 6893,
    "\u25810x4c97": 6894,
    "\u2581kernel32movefilea": 6895,
    "df0": 6896,
    "\u2581cq": 6897,
    "parent": 6898,
    "\u25810x40300": 6899,
    "502": 6900,
    "\u25810x40ac": 6901,
    "klmnopqrstuvwxyzgb": 6902,
    "\u2581qt5": 6903,
    "\u25810x464": 6904,
    "397": 6905,
    "\u25810x99c0": 6906,
    "\u2581pimswin": 6907,
    "drl6660drl6660drl6660drl6660drl6660drl6660drl6660drl6660": 6908,
    "7978": 6909,
    "\u2581char": 6910,
    "dp": 6911,
    "fy": 6912,
    "2c4": 6913,
    "bfb": 6914,
    "\u25810x454": 6915,
    "315": 6916,
    "adc": 6917,
    "wmapi": 6918,
    "\u25810x1211ce0": 6919,
    "90c": 6920,
    "600": 6921,
    "\u25810x1808": 6922,
    "dd7": 6923,
    "a74": 6924,
    "bb0": 6925,
    "\u25810x4079": 6926,
    "311": 6927,
    "ab9": 6928,
    "db8": 6929,
    "950": 6930,
    "\u25810x11dbe": 6931,
    "\u2581chwindowstemp": 6932,
    "ia": 6933,
    "sd": 6934,
    "\u25810xffd1": 6935,
    "33a": 6936,
    "\u25810xffc8": 6937,
    "\u25810x4316": 6938,
    "\u25810x9600": 6939,
    "\u25810xb6": 6940,
    "345": 6941,
    "690": 6942,
    "d70": 6943,
    "viedll": 6944,
    "\u25810x42b6": 6945,
    "handleexw": 6946,
    "58c": 6947,
    "7ac": 6948,
    "\u25810x434280": 6949,
    "\u25810x4363c0": 6950,
    "texit": 6951,
    "\u25810x433378": 6952,
    "\u25810x434268": 6953,
    "\u25810x1211b74": 6954,
    "\u2581setprocessdeppolicy": 6955,
    "\u25810x423baf": 6956,
    "\u25810x423bb0": 6957,
    "aba": 6958,
    "\u25810x616": 6959,
    "\u25810x40b7": 6960,
    "\u25810x41cbd0": 6961,
    "741": 6962,
    "998": 6963,
    "\u2581ps": 6964,
    "\u25810x1a0": 6965,
    "\u25810x4020": 6966,
    "\u25810xa6b0": 6967,
    "b7c": 6968,
    "\u25810x560": 6969,
    "a02": 6970,
    "f85": 6971,
    "ef4": 6972,
    "\u2581userenv": 6973,
    "\u2581lstrcmpw": 6974,
    "\u2581version": 6975,
    "\u25810x4093e8": 6976,
    "647": 6977,
    "2tmp": 6978,
    "ventlog": 6979,
    "\u25810x4093e5": 6980,
    "\u25810x4093e6": 6981,
    "\u25810x4093e7": 6982,
    "20c": 6983,
    "\u25810x4cf0": 6984,
    "\u25810x40000": 6985,
    "2c6": 6986,
    "37c": 6987,
    "onnec": 6988,
    "\u25810x468": 6989,
    "379": 6990,
    "stor": 6991,
    "\u25810x427000": 6992,
    "\u2581kernel32setprocessdeppolicy": 6993,
    "001": 6994,
    "a65": 6995,
    "\u25810x423de0": 6996,
    "\u25810x599": 6997,
    "\u25810xff86": 6998,
    "\u25810x41a044": 6999,
    "\u25810x134": 7000,
    "\u25810x1211b50": 7001,
    "\u2581vcruntime140memset": 7002,
    "nd": 7003,
    "\u2581v": 7004,
    "305": 7005,
    "c1b": 7006,
    "chi": 7007,
    "\u2581asw": 7008,
    "\u2581advapi32regopenkeya": 7009,
    "646": 7010,
    "\u2581psapi": 7011,
    "pra": 7012,
    "\u2581security": 7013,
    "\u2581kernel32setthreadlocale": 7014,
    "3d2": 7015,
    "\u2581mscore": 7016,
    "ac2": 7017,
    "storage": 7018,
    "onnector": 7019,
    "allocatec": 7020,
    "\u2581aswprocess": 7021,
    "allocateconnector": 7022,
    "\u2581aswprocessstorage": 7023,
    "era": 7024,
    "\u25810x4feaac": 7025,
    "textex": 7026,
    "\u25810x417b1": 7027,
    "\u25810x4170d4": 7028,
    "\u25810x4170d5": 7029,
    "rn": 7030,
    "510": 7031,
    "9f8": 7032,
    "c8e": 7033,
    "\u25810x41b8": 7034,
    "\u25810x4364": 7035,
    "\u25810x42c0a4": 7036,
    "\u25810xa260": 7037,
    "acd": 7038,
    "bc6": 7039,
    "317": 7040,
    "\u25810x42f1": 7041,
    "\u25810x1211b54": 7042,
    "ore": 7043,
    "extex": 7044,
    "ocreate": 7045,
    "\u25810xd4": 7046,
    "a68": 7047,
    "be0": 7048,
    "df5": 7049,
    "\u25810x9a60": 7050,
    "\u25810x41e1d8": 7051,
    "viewportextex": 7052,
    "da8": 7053,
    "\u25810x8490": 7054,
    "\u25810x940000": 7055,
    "\u2581iswow64process": 7056,
    "1740": 7057,
    "\u2581oleacc": 7058,
    "\u25810x52669": 7059,
    "\u25810x422470": 7060,
    "\u25810x4d7978": 7061,
    "\u2581globalflags": 7062,
    "dd8": 7063,
    "\u25810xff69": 7064,
    "346": 7065,
    "\u2581mscoreeco": 7066,
    "\u2581corexitprocess": 7067,
    "\u2581mscoreecorexitprocess": 7068,
    "d58": 7069,
    "e100": 7070,
    "\u25810x56bb": 7071,
    "\u25810x66000": 7072,
    "6d8": 7073,
    "122": 7074,
    "375": 7075,
    "a9b": 7076,
    "\u25810x409c": 7077,
    "ameters": 7078,
    "\u25810x5937": 7079,
    "\u25810x188e4c": 7080,
    "\u25810x422788": 7081,
    "\u2581dispatchmessagew": 7082,
    "\u25810x450": 7083,
    "\u25810x4259": 7084,
    "\u2581securitydll": 7085,
    "torgex": 7086,
    "\u25810x4ddb24": 7087,
    "viewportorgex": 7088,
    "\u25810x42ea": 7089,
    "\u25810x414168": 7090,
    "\u25810x500410": 7091,
    "\u2581kernel32getwindowsdirectorya": 7092,
    "150": 7093,
    "354": 7094,
    "\u25810x10e": 7095,
    "\u25810xffca": 7096,
    "\u2581qt5core": 7097,
    "2e8": 7098,
    "3ac": 7099,
    "\u25810x1211370": 7100,
    "\u2581nto": 7101,
    "\u25810x42aa": 7102,
    "\u25810x461518": 7103,
    "15c": 7104,
    "68b": 7105,
    "\u25810x40f1": 7106,
    "\u25810x43d3d8": 7107,
    "\u2581cl": 7108,
    "\u25810x4093e9": 7109,
    "\u25810x4093ea": 7110,
    "\u25810x4093eb": 7111,
    "\u25810x120e6dc": 7112,
    "7d8": 7113,
    "e49": 7114,
    "skrn": 7115,
    "\u2581ntoskrn": 7116,
    "fig": 7117,
    "micromedi": 7118,
    "605": 7119,
    "76c": 7120,
    "bc9": 7121,
    "\u25810x423d78": 7122,
    "\u25810x423e38": 7123,
    "\u25810x1211e80": 7124,
    "klmnopqrstuvwxyzk": 7125,
    "klmnopqrstuvwxyzz": 7126,
    "\u25810x131": 7127,
    "\u25810x4c33": 7128,
    "61c": 7129,
    "\u25810x94f0": 7130,
    "\u25810x74000": 7131,
    "\u2581theprocedures": 7132,
    "couldnotbelocatedinthedlls": 7133,
    "\u2581theprocedurescouldnotbelocatedinthedlls": 7134,
    "\u25810x414138": 7135,
    "\u2581localrealloc": 7136,
    "d9f": 7137,
    "\u25810x4c32d8": 7138,
    "\u25810x4c32f0": 7139,
    "e69": 7140,
    "\u25810x59c1": 7141,
    "\u25810xfeee00cc": 7142,
    "e4f": 7143,
    "9f0": 7144,
    "b6c": 7145,
    "argvw": 7146,
    "iserror": 7147,
    "\u25810x414c": 7148,
    "inetoargvw": 7149,
    "commandlinetoargvw": 7150,
    "\u25810xb1": 7151,
    "\u25810x599b5c": 7152,
    "\u25810x599c24": 7153,
    "\u25810x59bf3c": 7154,
    "\u25810x59bf7c": 7155,
    "\u25810x59c120": 7156,
    "\u25810x59c138": 7157,
    "\u25810xfeee00cd": 7158,
    "534": 7159,
    "\u25810x45fb": 7160,
    "\u25810x7920": 7161,
    "\u25810x8000000": 7162,
    "\u25810xfeee00ce": 7163,
    "\u25810xfeee00cf": 7164,
    "\u25810x4040": 7165,
    "star": 7166,
    "\u25810x4ffffc": 7167,
    "\u25810x1211d44": 7168,
    "\u2581cwindowssystem32b": 7169,
    "9tmp": 7170,
    "klmnopqrstuvwxyzn": 7171,
    "\u25810x170": 7172,
    "\u2581mo": 7173,
    "\u25810xa010": 7174,
    "\u2581getmen": 7175,
    "\u25810x4b5": 7176,
    "365": 7177,
    "\u2581ns": 7178,
    "\u25810xa9a0": 7179,
    "7d5": 7180,
    "3a20": 7181,
    "\u25810x429818": 7182,
    "\u25810x5617a8": 7183,
    "\u25810x40935d": 7184,
    "\u25810x40935e": 7185,
    "\u25810x40935f": 7186,
    "\u25810x409360": 7187,
    "\u25810x409361": 7188,
    "\u25810x409362": 7189,
    "\u25810x409363": 7190,
    "754": 7191,
    "\u2581kernel32initializesrwlock": 7192,
    "22c": 7193,
    "9a8": 7194,
    "\u25810xffed": 7195,
    "\u25810x1211ebc": 7196,
    "\u2581shell32shgetfile": 7197,
    "312": 7198,
    "\u25810x16000": 7199,
    "vip": 7200,
    "\u2581prvip": 7201,
    "\u25810xfeee00d7": 7202,
    "\u25810xfeee00f0": 7203,
    "\u2581user32charpre": 7204,
    "1a0": 7205,
    "mar": 7206,
    "\u25810x4ac": 7207,
    "790": 7208,
    "9d0": 7209,
    "\u25810xdc": 7210,
    "\u2581kernel32lstrcmpw": 7211,
    "\u2581nsiserror": 7212,
    "\u25810xfeee00f5": 7213,
    "7ce": 7214,
    "sion": 7215,
    "\u2581mys": 7216,
    "\u25810x1bf9": 7217,
    "9d8": 7218,
    "\u25810x4c0": 7219,
    "\u25810x42fc68": 7220,
    "f45": 7221,
    "20202e": 7222,
    "\u25810xffc9": 7223,
    "355": 7224,
    "7c5": 7225,
    "\u25810x518": 7226,
    "\u25810x8838": 7227,
    "645": 7228,
    "ed0": 7229,
    "created": 7230,
    "\u25810x7dc4": 7231,
    "fa4": 7232,
    "lib": 7233,
    "\u2581ag": 7234,
    "ocreateinst": 7235,
    "fa6": 7236,
    "placement": 7237,
    "\u25810x423d68": 7238,
    "\u25810x438378": 7239,
    "\u25810x598740": 7240,
    "a5b": 7241,
    "\u25810x423e28": 7242,
    "\u2581task": 7243,
    "\u25810x4219": 7244,
    "9bc": 7245,
    "f69": 7246,
    "\u25810x7dd9": 7247,
    "\u25810x8839": 7248,
    "\u2581ntoskrnlex": 7249,
    "\u2581kernel32setcurrent": 7250,
    "fc6": 7251,
    "fdc": 7252,
    "\u25810x41aa": 7253,
    "\u25810xa420": 7254,
    "\u25810x409aa4": 7255,
    "e74": 7256,
    "\u25810x409aa5": 7257,
    "\u25810x4350c8": 7258,
    "\u25810x4ec": 7259,
    "\u25810x1210e80": 7260,
    "\u25810x467": 7261,
    "\u2581taskbar": 7262,
    "\u25810x7dd0": 7263,
    "\u25810x40a7": 7264,
    "\u2581kernel32getcurrentdirectorya": 7265,
    "f3c": 7266,
    "\u25810x4c10": 7267,
    "\u25810x7dc5": 7268,
    "cale": 7269,
    "keya": 7270,
    "\u2581scale": 7271,
    "\u25810x44c2": 7272,
    "\u25810x419ce0": 7273,
    "\u2581kernel32getthread": 7274,
    "\u25810x26000": 7275,
    "\u25810x432378": 7276,
    "f2c": 7277,
    "tag": 7278,
    "\u25810x1211ed8": 7279,
    "\u2581sql": 7280,
    "\u25810x403": 7281,
    "\u25810x4012": 7282,
    "\u25810x9940": 7283,
    "\u25810x1b0": 7284,
    "\u25810x5f3b": 7285,
    "\u25810x4353c0": 7286,
    "\u25810x53e498": 7287,
    "\u25810xe4": 7288,
    "\u25810x41cc54": 7289,
    "\u25810x120f8a6": 7290,
    "seekto": 7291,
    "\u25810x4604": 7292,
    "register": 7293,
    "\u25810x433268": 7294,
    "\u25810x433280": 7295,
    "\u25810x3200a48": 7296,
    "klmnopqrstuvwxyzd": 7297,
    "2d0": 7298,
    "94c": 7299,
    "\u25810x569b48": 7300,
    "\u25810x169bf28": 7301,
    "\u2581mysq": 7302,
    "startof": 7303,
    "ntsvcexe": 7304,
    "startoffile": 7305,
    "\u2581getwindowrect": 7306,
    "seektostartoffile": 7307,
    "\u2581shell32commandlinetoargvw": 7308,
    "3ad": 7309,
    "746": 7310,
    "115": 7311,
    "\u2581ext": 7312,
    "351": 7313,
    "ab6": 7314,
    "\u25810x4335": 7315,
    "\u2581apimswincrtruntimel110initterm": 7316,
    "b888": 7317,
    "\u25810x430828": 7318,
    "\u25810xfeee00d5": 7319,
    "utton": 7320,
    "\u25810xfeee00d6": 7321,
    "750": 7322,
    "pand": 7323,
    "\u25810x7dd": 7324,
    "afe": 7325,
    "fox": 7326,
    "\u25810x524a40": 7327,
    "controlset": 7328,
    "currentcontrolset": 7329,
    "198": 7330,
    "f10": 7331,
    "ldr": 7332,
    "\u25810xde": 7333,
    "withtag": 7334,
    "\u25810x5266c": 7335,
    "\u25810x4208e0": 7336,
    "poolwithtag": 7337,
    "allocatepoolwithtag": 7338,
    "\u2581ntoskrnlexallocatepoolwithtag": 7339,
    "\u25810x411bc0": 7340,
    "datet": 7341,
    "\u25810x41a": 7342,
    "\u25810x4217": 7343,
    "2f5": 7344,
    "a06": 7345,
    "\u2581wininetinternet": 7346,
    "\u2581shell32shellexecutea": 7347,
    "30c": 7348,
    "ee9": 7349,
    "35c": 7350,
    "arameters": 7351,
    "a9a": 7352,
    "\u2581ndr": 7353,
    "\u25810x401324": 7354,
    "\u25810x424470": 7355,
    "\u2581imagelistget": 7356,
    "bd7": 7357,
    "656c": 7358,
    "\u2581ndrd": 7359,
    "\u25810x4060": 7360,
    "\u25810x169ba04": 7361,
    "\u2581apimswincrtruntimel110initterme": 7362,
    "no": 7363,
    "d05": 7364,
    "d34": 7365,
    "709": 7366,
    "aget": 7367,
    "\u25810x9290": 7368,
    "\u25810x1210e84": 7369,
    "\u2581movefilea": 7370,
    "3ec": 7371,
    "\u25810x7df9": 7372,
    "\u25810x39569": 7373,
    "006": 7374,
    "\u25810x4127": 7375,
    "\u25810x431f68": 7376,
    "ad5": 7377,
    "\u25810x7df8": 7378,
    "\u25810x169bc04": 7379,
    "\u25810x169bd04": 7380,
    "3de": 7381,
    "mta": 7382,
    "9c4": 7383,
    "d46": 7384,
    "\u25810x41688a": 7385,
    "\u25810x41688b": 7386,
    "\u25810x4208df": 7387,
    "\u2581ntdllldr": 7388,
    "\u25810x4324": 7389,
    "\u25810x7eaba8": 7390,
    "\u25810xfeee00d8": 7391,
    "aec": 7392,
    "\u2581drivewindows": 7393,
    "\u25810x41d2": 7394,
    "\u25810x419cb0": 7395,
    "\u2581kernel32heapdestroy": 7396,
    "\u25810xfeee00d9": 7397,
    "\u25810x2b4": 7398,
    "\u25810x2010": 7399,
    "\u25810x4540": 7400,
    "\u25810x416b2": 7401,
    "\u25810x416c0": 7402,
    "\u25810x416242": 7403,
    "\u25810x416243": 7404,
    "\u25810x42a0a0": 7405,
    "\u25810xfeee00d0": 7406,
    "932": 7407,
    "a34": 7408,
    "\u25810x1211e38": 7409,
    "bc5": 7410,
    "procedure": 7411,
    "\u25810xfeee00d1": 7412,
    "128": 7413,
    "bdc": 7414,
    "\u25810xfeee00d2": 7415,
    "117": 7416,
    "1a4": 7417,
    "\u25810x4175": 7418,
    "\u25810x4258": 7419,
    "7c7": 7420,
    "\u25810x413f": 7421,
    "745": 7422,
    "agetime": 7423,
    "getprocedure": 7424,
    "getprocedureaddress": 7425,
    "\u2581map": 7426,
    "\u25810x7eec": 7427,
    "\u2581kernel32findresourcea": 7428,
    "26570": 7429,
    "\u2581setmenu": 7430,
    "\u25810x2200220": 7431,
    "\u25810xfeee00da": 7432,
    "765": 7433,
    "ba9": 7434,
    "\u25810x7dc9": 7435,
    "\u25810xa427": 7436,
    "\u25810xfeee00d3": 7437,
    "134": 7438,
    "1c4": 7439,
    "7a7": 7440,
    "f96": 7441,
    "\u2581kernel32waitfor": 7442,
    "klmnopqrstuvwxyzx": 7443,
    "20224": 7444,
    "bf1": 7445,
    "fbc": 7446,
    "d0a64": 7447,
    "\u25810x4700": 7448,
    "\u25810x40a58c": 7449,
    "\u25810xfeee00d4": 7450,
    "\u2581are": 7451,
    "6561740": 7452,
    "2022433a": 7453,
    "3a526570": 7454,
    "\u25810x64000": 7455,
    "d0a64656c": 7456,
    "\u25810x200020": 7457,
    "3a5265706561740": 7458,
    "acquirecontexta": 7459,
    "d0a64656c2022433a": 7460,
    "3a5265706561740d0a64656c2022433a": 7461,
    "a1c": 7462,
    "a85": 7463,
    "f49": 7464,
    "\u25810xffe8": 7465,
    "\u25810x3f2420": 7466,
    "b3c": 7467,
    "\u25810x47ee": 7468,
    "\u25810x40a57c": 7469,
    "50000": 7470,
    "\u25810x522": 7471,
    "\u2581arefileapisansi": 7472,
    "\u25810x4718": 7473,
    "\u25810x7f8003": 7474,
    "\u25810x7f8004": 7475,
    "\u25810x7f8005": 7476,
    "\u25810x7f8006": 7477,
    "\u25810x7f8007": 7478,
    "\u25810x7f8008": 7479,
    "\u25810x7f8009": 7480,
    "\u25810x7f800a": 7481,
    "\u25810x7f800b": 7482,
    "\u25810x7f800c": 7483,
    "\u25810x7f800d": 7484,
    "\u25810x7eed": 7485,
    "9b4": 7486,
    "\u25810xcccc": 7487,
    "\u2581uxtheme": 7488,
    "a49": 7489,
    "\u25810x7f800e": 7490,
    "\u25810x1211f68": 7491,
    "546": 7492,
    "\u25810x4011": 7493,
    "\u25810x43f6": 7494,
    "3fc": 7495,
    "fcc": 7496,
    "00e": 7497,
    "7ea": 7498,
    "dlldll": 7499,
    "\u25810x7f800f": 7500,
    "\u25810x3f20003a5265706561740d0a64656c2022433a": 7501,
    "2d8": 7502,
    "\u25810x42b4": 7503,
    "\u25810x41cba4": 7504,
    "specialfolder": 7505,
    "\u2581cqwindowstemp": 7506,
    "\u25810x428e": 7507,
    "2c0": 7508,
    "\u25810x5676": 7509,
    "bec": 7510,
    "6dlldll": 7511,
    "\u25810x4354": 7512,
    "\u25810x1211b08": 7513,
    "\u2581programinternalerrornumberis6dlldll": 7514,
    "266": 7515,
    "66c": 7516,
    "\u25810x1211dbc": 7517,
    "a39": 7518,
    "fae": 7519,
    "mexe": 7520,
    "\u25810x7dcc": 7521,
    "\u25810x1210cf0": 7522,
    "19e": 7523,
    "33c4": 7524,
    "a56": 7525,
    "75c8": 7526,
    "\u25810x41d0": 7527,
    "\u25810x169b9c0": 7528,
    "\u25810xfeee00db": 7529,
    "80c": 7530,
    "\u25810xa41": 7531,
    "\u25810x7dd4": 7532,
    "\u2581ntdllldrgetprocedureaddress": 7533,
    "\u25810x600": 7534,
    "codeptr": 7535,
    "\u2581isbadcodeptr": 7536,
    "\u2581kernel32createfilemappinga": 7537,
    "\u25810x12117ec": 7538,
    "\u2581msvcrtstrcmp": 7539,
    "\u2581globaladdatomw": 7540,
    "\u25810x44b7": 7541,
    "\u25810x7dd8": 7542,
    "\u25810x1211bf4": 7543,
    "\u25810x1211cf4": 7544,
    "\u2581getvolumeinformationa": 7545,
    "\u2581kernel32setfilepointerex": 7546,
    "f71": 7547,
    "\u25810x7dd1": 7548,
    "\u25810x4607": 7549,
    "\u25810x7e30": 7550,
    "\u25810x58de50": 7551,
    "727": 7552,
    "\u25810x7dcd": 7553,
    "\u25810x1211cb8": 7554,
    "\u25810x7ac0": 7555,
    "\u25810x7ddc": 7556,
    "\u2581globalfindatomw": 7557,
    "\u2581apimswincrtruntimel110get": 7558,
    "146": 7559,
    "std": 7560,
    "\u25810x4d5": 7561,
    "\u25810x1211438": 7562,
    "\u2581cwindowssystem32s": 7563,
    "a0d": 7564,
    "ache": 7565,
    "\u25810x4605": 7566,
    "\u25810x4608": 7567,
    "\u2581user32defwindowproc": 7568,
    "296": 7569,
    "844": 7570,
    "\u25810x422778": 7571,
    "335": 7572,
    "7e9": 7573,
    "\u25810x7dd5": 7574,
    "\u25810x1211e4c": 7575,
    "ordinal4": 7576,
    "\u25810x4298a8": 7577,
    "\u25810x4298d8": 7578,
    "\u25810x4f6200": 7579,
    "119": 7580,
    "d49": 7581,
    "ee2": 7582,
    "\u25810xe9": 7583,
    "\u25810x48ec": 7584,
    "\u25810x1211fb4": 7585,
    "klmnopqrstuvwxyzr": 7586,
    "fc42": 7587,
    "ffset": 7588,
    "\u25810x80000": 7589,
    "\u2581user32getc": 7590,
    "\u2581offset": 7591,
    "336": 7592,
    "339": 7593,
    "dfc": 7594,
    "\u25810x7ddd": 7595,
    "705": 7596,
    "bd5": 7597,
    "remove": 7598,
    "messagepos": 7599,
    "\u25810x4dc": 7600,
    "\u25810x427f70": 7601,
    "\u2581cbwindowstemp": 7602,
    "\u2581shgetspecialfolder": 7603,
    "\u25810x426f": 7604,
    "\u25810xb9": 7605,
    "a3c": 7606,
    "ae2": 7607,
    "\u25810xf4": 7608,
    "33c": 7609,
    "\u25810x41ba": 7610,
    "\u25810xff92": 7611,
    "\u25810x169bec8": 7612,
    "atexit": 7613,
    "control": 7614,
    "695": 7615,
    "b66": 7616,
    "icro": 7617,
    "enable": 7618,
    "2ec": 7619,
    "enh": 7620,
    "sctype": 7621,
    "\u2581msvcrtisctype": 7622,
    "332": 7623,
    "916": 7624,
    "\u25810x8554": 7625,
    "181": 7626,
    "\u2581wc": 7627,
    "ects": 7628,
    "frompoint": 7629,
    "pathnamea": 7630,
    "\u25810x3010": 7631,
    "\u25810x4190": 7632,
    "klmnopqrstuvwxyzw": 7633,
    "385": 7634,
    "\u25810x1b5": 7635,
    "\u25810xfeee01c": 7636,
    "\u2581cocreateinst": 7637,
    "\u25810x40d9": 7638,
    "\u25810x43b4": 7639,
    "\u2581messageboxw": 7640,
    "f14": 7641,
    "dimen": 7642,
    "klmnopqrstuvwxyzv": 7643,
    "3e5": 7644,
    "ec6": 7645,
    "sions": 7646,
    "\u25810x108": 7647,
    "\u25810xa3a0": 7648,
    "dimensions": 7649,
    "\u25810x169bf04": 7650,
    "\u25810xbb": 7651,
    "376": 7652,
    "\u2581x": 7653,
    "7dc": 7654,
    "\u25810x1211f0c": 7655,
    "\u2581cwindowstem": 7656,
    "005": 7657,
    "b42": 7658,
    "\u25810x41ac": 7659,
    "\u25810x169bf2c": 7660,
    "f64": 7661,
    "\u2581oleaut32": 7662,
    "\u25810x1211e0c": 7663,
    "\u2581kernel32deletefilea": 7664,
    "3d28": 7665,
    "\u2581getdlgitem": 7666,
    "eab": 7667,
    "7f8": 7668,
    "\u25810xfeee00dc": 7669,
    "\u2581drivewindowsregeditexe": 7670,
    "ae00": 7671,
    "\u25810x502dc": 7672,
    "\u25810x400108": 7673,
    "2b8": 7674,
    "395": 7675,
    "7f4": 7676,
    "\u25810x40eeca": 7677,
    "\u25810x40eecb": 7678,
    "\u25810xd7": 7679,
    "owlower": 7680,
    "\u25810x417da0": 7681,
    "15f": 7682,
    "212": 7683,
    "\u2581my": 7684,
    "\u25810xffdf": 7685,
    "\u25810x420f2": 7686,
    "\u25810x42b0a0": 7687,
    "klmnopqrstuvwxyzo": 7688,
    "gr": 7689,
    "3ff": 7690,
    "\u25810x4366": 7691,
    "\u25810x417d9f": 7692,
    "pinst": 7693,
    "\u2581peek": 7694,
    "\u25810x42390": 7695,
    "\u2581msvcrtexit": 7696,
    "ba4": 7697,
    "poa": 7698,
    "\u25810x115": 7699,
    "\u25810x4378b0": 7700,
    "\u25810xfeee00dd": 7701,
    "\u25810x40ef1b": 7702,
    "\u2581outputdebugstringa": 7703,
    "\u25810x478": 7704,
    "\u25810x740": 7705,
    "handler": 7706,
    "b2c": 7707,
    "\u25810x2357b": 7708,
    "\u25810x1211584": 7709,
    "\u2581releasedc": 7710,
    "\u25810x40ef1a": 7711,
    "\u25810xfeee00de": 7712,
    "\u2581cwindowstempinst": 7713,
    "485": 7714,
    "919": 7715,
    "mark": 7716,
    "b74": 7717,
    "\u25810xa710": 7718,
    "\u2581msvcrtstrlen": 7719,
    "7c0": 7720,
    "\u2581kernel32getconsolewindow": 7721,
    "atione": 7722,
    "\u25810x4602": 7723,
    "3b4": 7724,
    "\u25810x41e9": 7725,
    "\u25810x6940": 7726,
    "\u2581vcruntime140memcpy": 7727,
    "f99": 7728,
    "rea": 7729,
    "202020": 7730,
    "\u25810x4b7": 7731,
    "\u25810x58c034": 7732,
    "2020202020202020": 7733,
    "\u2581kernel32queryperformancefrequency": 7734,
    "ats": 7735,
    "\u25810x40b0": 7736,
    "\u25810x4218": 7737,
    "364": 7738,
    "3b9": 7739,
    "\u25810x504": 7740,
    "\u25810x40c8": 7741,
    "755": 7742,
    "df4": 7743,
    "ervi": 7744,
    "\u25810xba": 7745,
    "\u25810x42a4": 7746,
    "\u25810x4c30": 7747,
    "\u25810xfffffffe": 7748,
    "d14": 7749,
    "e46": 7750,
    "\u25810x4066": 7751,
    "mt": 7752,
    "214": 7753,
    "fee": 7754,
    "\u25810x40e5": 7755,
    "klmnopqrstuvwxyzs": 7756,
    "265": 7757,
    "9e8": 7758,
    "\u25810x88d0": 7759,
    "\u2581systemp": 7760,
    "checkmark": 7761,
    "\u25810x1211888": 7762,
    "\u2581systemparameters": 7763,
    "checkmarkdimensions": 7764,
    "319": 7765,
    "767": 7766,
    "76e": 7767,
    "lay": 7768,
    "applet": 7769,
    "\u25810x4c27": 7770,
    "icrosoft": 7771,
    "3f4": 7772,
    "\u25810xc2": 7773,
    "\u25810xa41f": 7774,
    "71f": 7775,
    "klmnopqrstuvwxyzu": 7776,
    "\u2581kernel32waitforsingleob": 7777,
    "\u2581kernel32unhandledexceptionfilter": 7778,
    "f95": 7779,
    "last": 7780,
    "\u25810x4251": 7781,
    "\u25810x43b8c8": 7782,
    "\u2581chexedowstemphgdrawdll": 7783,
    "3a2": 7784,
    "79c": 7785,
    "\u25810x491288": 7786,
    "\u2581microsoft": 7787,
    "klmnopqrstuvwxyzy": 7788,
    "a46": 7789,
    "\u25810xe6": 7790,
    "\u25810x43b5": 7791,
    "e14": 7792,
    "applic": 7793,
    "\u25810x414f20": 7794,
    "mi": 7795,
    "\u25810x2100": 7796,
    "\u25810x6970": 7797,
    "\u25810x48ec3c": 7798,
    "ly": 7799,
    "161": 7800,
    "5b0": 7801,
    "ea0": 7802,
    "\u25810x3f29": 7803,
    "\u25810x40f6a8": 7804,
    "icmp": 7805,
    "\u25810x80be54": 7806,
    "\u25810x414f21": 7807,
    "230": 7808,
    "9c8": 7809,
    "a14": 7810,
    "eb6": 7811,
    "\u2581sa": 7812,
    "\u25810x42ec": 7813,
    "\u25810x4760": 7814,
    "\u25810x565868": 7815,
    "applicatione": 7816,
    "\u25810x5b5": 7817,
    "\u25810x4212": 7818,
    "\u25810xffe9": 7819,
    "\u2581enablewindow": 7820,
    "\u2581getclientrect": 7821,
    "openapplicatione": 7822,
    "openapplicationeventlog": 7823,
    "toc": 7824,
    "\u25810x2804": 7825,
    "\u25810x7ce0": 7826,
    "\u25810x10a": 7827,
    "\u25810x40a4": 7828,
    "\u25810x598758": 7829,
    "\u25810x1210e30": 7830,
    "\u25810x500010": 7831,
    "\u25810x6b9c": 7832,
    "\u25810xa429b0": 7833,
    "e60": 7834,
    "0060": 7835,
    "\u25810x458": 7836,
    "\u25810x40e9": 7837,
    "\u25810x1906000": 7838,
    "activewindow": 7839,
    "235": 7840,
    "\u25810x6b6": 7841,
    "klmnopqrstuvwxyzg": 7842,
    "\u25810xa0e6": 7843,
    "2fc": 7844,
    "3f2": 7845,
    "\u25810xffd8": 7846,
    "\u25810x3fd00": 7847,
    "\u2581lstrcpyn": 7848,
    "ad50": 7849,
    "\u25810x640000": 7850,
    "24c": 7851,
    "addresses": 7852,
    "\u25810x411b90": 7853,
    "adaptersaddresses": 7854,
    "77c": 7855,
    "a55": 7856,
    "7170": 7857,
    "\u2581msvcrtatexit": 7858,
    "ad6": 7859,
    "e81": 7860,
    "\u2581ptin": 7861,
    "\u2581cocreateinstance": 7862,
    "bf4": 7863,
    "button": 7864,
    "\u25810x5052": 7865,
    "3be": 7866,
    "d26": 7867,
    "\u2581getparent": 7868,
    "\u25810xfeee00df": 7869,
    "dc6": 7870,
    "dd5": 7871,
    "295": 7872,
    "686": 7873,
    "\u25810x1211790": 7874,
    "\u25810x1211fb0": 7875,
    "392": 7876,
    "klmnopqrstuvwxyzt": 7877,
    "\u2581regqueryvalueexa": 7878,
    "166": 7879,
    "389": 7880,
    "\u25810x7f4": 7881,
    "\u25810x9110": 7882,
    "\u25810x42e0a4": 7883,
    "\u25810x46b3b8": 7884,
    "\u2581registerwindow": 7885,
    "905": 7886,
    "d94": 7887,
    "\u25810x4366e0": 7888,
    "\u25810x438c00": 7889,
    "\u25810x438b58": 7890,
    "\u25810xfeedf000": 7891,
    "\u2581loadbitmap": 7892,
    "klmnopqrstuvwxyzm": 7893,
    "e4b8": 7894,
    "\u25810x181b48": 7895,
    "\u25810x1211cac": 7896,
    "\u25810x1211f14": 7897,
    "\u25810xdb": 7898,
    "\u25810x419c54": 7899,
    "\u2581setforegroundwindow": 7900,
    "fl": 7901,
    "yd": 7902,
    "\u25810x2d4d9": 7903,
[...]
