{
    "<pad>": 0,
    "<unk>": 1,
    "<mask>": 2,
    "\u25810": 3,
    "\u25810x": 4,
    "\u2581a": 5,
    "et": 6,
    "al": 7,
    "00": 8,
    "in": 9,
    "er": 10,
    "val": 11,
    "etval": 12,
    "ne": 13,
    "me": 14,
    "pin": 15,
    "\u2581r": 16,
    "32": 17,
    "ame": 18,
    "gs": 19,
    "rgs": 20,
    "\u2581apin": 21,
    "\u2581args": 22,
    "\u2581retval": 23,
    "\u2581apiname": 24,
    "l32": 25,
    "\u2581k": 26,
    "erne": 27,
    "ernel32": 28,
    "\u2581kernel32": 29,
    "\u25810x1": 30,
    "ad": 31,
    "000": 32,
    "\u25810x7": 33,
    "re": 34,
    "\u25810x0": 35,
    "ti": 36,
    "get": 37,
    "\u25810xf": 38,
    "\u25810x4": 39,
    "ec": 40,
    "\u25810x77": 41,
    "oc": 42,
    "\u2581kernel32get": 43,
    "ee": 44,
    "\u25810xfee": 45,
    "\u25810xfeee": 46,
    "ss": 47,
    "pr": 48,
    "proc": 49,
    "tr": 50,
    "iti": 51,
    "0000": 52,
    "dre": 53,
    "\u2581kernel32getproc": 54,
    "addre": 55,
    "address": 56,
    "\u2581kernel32getprocaddress": 57,
    "is": 58,
    "read": 59,
    "ter": 60,
    "\u25810x1000": 61,
    "\u2581kernel32is": 62,
    "000000": 63,
    "one": 64,
    "readp": 65,
    "bad": 66,
    "readptr": 67,
    "badreadptr": 68,
    "\u2581kernel32isbadreadptr": 69,
    "sec": 70,
    "\u25810xfeee00": 71,
    "cal": 72,
    "on": 73,
    "secti": 74,
    "\u25810x77000000": 75,
    "le": 76,
    "riti": 77,
    "ritical": 78,
    "riticalsecti": 79,
    "ls": 80,
    "\u25810x12": 81,
    "\u2581n": 82,
    "ue": 83,
    "etvalue": 84,
    "en": 85,
    "\u2581none": 86,
    "\u25810xfeee000": 87,
    "lsg": 88,
    "lsgetvalue": 89,
    "ecriticalsecti": 90,
    "de": 91,
    "loc": 92,
    "\u25810x121": 93,
    "co": 94,
    "or": 95,
    "ap": 96,
    "te": 97,
    "iz": 98,
    "\u25810x46": 99,
    "\u25810x770": 100,
    "\u25810x1211": 101,
    "f0": 102,
    "\u2581kernel32in": 103,
    "a0": 104,
    "ar": 105,
    "aliz": 106,
    "itializ": 107,
    "an": 108,
    "itializecriticalsecti": 109,
    "\u25810x8": 110,
    "nt": 111,
    "\u2581kernel32initializecriticalsecti": 112,
    "\u2581kernel32en": 113,
    "\u25810x771": 114,
    "\u25810xfeee0001": 115,
    "po": 116,
    "he": 117,
    "\u2581kernel32t": 118,
    "inter": 119,
    "\u2581kernel32tlsgetvalue": 120,
    "pointer": 121,
    "\u25810xfa0": 122,
    "depointer": 123,
    "and": 124,
    "heap": 125,
    "as": 126,
    "us": 127,
    "alloc": 128,
    "lo": 129,
    "\u2581kernel32heap": 130,
    "ror": 131,
    "user": 132,
    "\u25810x5": 133,
    "las": 134,
    "laster": 135,
    "lasterror": 136,
    "fi": 137,
    "\u2581kernel32f": 138,
    "d0": 139,
    "onex": 140,
    "set": 141,
    "\u2581user": 142,
    "\u2581user32": 143,
    "str": 144,
    "lea": 145,
    "90": 146,
    "dec": 147,
    "\u25810x42": 148,
    "\u25810x41": 149,
    "ow": 150,
    "\u2581kernel32initializecriticalsectionex": 151,
    "\u2581kernel32flsgetvalue": 152,
    "strin": 153,
    "00000": 154,
    "\u25810x100": 155,
    "\u25810x2": 156,
    "\u2581get": 157,
    "codepointer": 158,
    "\u25810x10": 159,
    "rt": 160,
    "load": 161,
    "\u2581kernel32heapalloc": 162,
    "string": 163,
    "\u25810x46d0": 164,
    "terc": 165,
    "ecriticalsection": 166,
    "leav": 167,
    "riticalsection": 168,
    "tercriticalsection": 169,
    "\u2581kernel32encodepointer": 170,
    "40": 171,
    "unt": 172,
    "leavecriticalsection": 173,
    "\u2581c": 174,
    "hand": 175,
    "ff": 176,
    "\u2581kernel32entercriticalsection": 177,
    "\u2581kernel32leavecriticalsection": 178,
    "har": 179,
    "count": 180,
    "\u25810x43": 181,
    "\u25810x46f0": 182,
    "10": 183,
    "\u25810x78": 184,
    "\u25810xff": 185,
    "10000": 186,
    "\u25810x40": 187,
    "e4": 188,
    "\u25810x7d": 189,
    "mp": 190,
    "\u2581kernel32set": 191,
    "ess": 192,
    "ms": 193,
    "local": 194,
    "st": 195,
    "by": 196,
    "vi": 197,
    "c000": 198,
    "ys": 199,
    "at": 200,
    "\u25810xfeee001": 201,
    "ex": 202,
    "handle": 203,
    "ur": 204,
    "\u2581kernel32getlasterror": 205,
    "ul": 206,
    "\u25810x4e4": 207,
    "win": 208,
    "ate": 209,
    "\u25810x3": 210,
    "dl": 211,
    "file": 212,
    "mo": 213,
    "process": 214,
    "\u2581kernel32initializecriticalsection": 215,
    "\u2581kernel32setlasterror": 216,
    "inf": 217,
    "d10000": 218,
    "\u25810x77d10000": 219,
    "\u25810x400000": 220,
    "c0": 221,
    "vc": 222,
    "\u2581ms": 223,
    "ke": 224,
    "\u2581msvc": 225,
    "\u2581msvcrt": 226,
    "du": 227,
    "\u2581user32load": 228,
    "dll": 229,
    "mul": 230,
    "ab": 231,
    "multi": 232,
    "idec": 233,
    "idechar": 234,
    "multiby": 235,
    "deco": 236,
    "decodepointer": 237,
    "locale": 238,
    "dule": 239,
    "module": 240,
    "dow": 241,
    "tem": 242,
    "op": 243,
    "\u2581user32loadstring": 244,
    "26": 245,
    "20": 246,
    "window": 247,
    "78": 248,
    "ce": 249,
    "\u25810x6": 250,
    "ystem": 251,
    "\u2581kernel32decodepointer": 252,
    "ag": 253,
    "\u25810x1210": 254,
    "f8": 255,
    "ri": 256,
    "\u25810x45": 257,
    "li": 258,
    "mem": 259,
    "ac": 260,
    "ands": 261,
    "andspin": 262,
    "andspincount": 263,
    "70": 264,
    "\u2581kernel32initializecriticalsectionandspincount": 265,
    "ment": 266,
    "\u2581kernel32getmodule": 267,
    "th": 268,
    "id": 269,
    "\u2581f": 270,
    "yp": 271,
    "reate": 272,
    "let": 273,
    "\u25810xc000": 274,
    "cur": 275,
    "cmp": 276,
    "\u25810x1211f": 277,
    "30": 278,
    "\u25810x7e": 279,
    "ree": 280,
    "xt": 281,
    "b0": 282,
    "50": 283,
    "localeinf": 284,
    "map": 285,
    "\u2581msvcrtmem": 286,
    "\u25810x41f0": 287,
    "d8": 288,
    "c4": 289,
    "\u25810x41f040": 290,
    "\u2581msvcrtmemcmp": 291,
    "\u25810x10c": 292,
    "br": 293,
    "\u2581kernel32getlocaleinf": 294,
    "tic": 295,
    "rent": 296,
    "current": 297,
    "next": 298,
    "\u25810x45f0": 299,
    "18": 300,
    "so": 301,
    "tick": 302,
    "tickcount": 303,
    "brar": 304,
    "librar": 305,
    "it": 306,
    "\u25810x78000000": 307,
    "\u2581set": 308,
    "un": 309,
    "\u25810x526": 310,
    "38": 311,
    "\u2581p": 312,
    "\u25810xfeee007": 313,
    "28": 314,
    "98": 315,
    "tion": 316,
    "\u25810xfeee006": 317,
    "34": 318,
    "\u2581kernel32gettickcount": 319,
    "di": 320,
    "\u25810xf00": 321,
    "\u2581user32c": 322,
    "\u25810xfeee004": 323,
    "\u25810x1211c": 324,
    "\u25810xfeee002": 325,
    "e0": 326,
    "ual": 327,
    "thread": 328,
    "\u25810xfeee005": 329,
    "virt": 330,
    "virtual": 331,
    "loadlibrar": 332,
    "filet": 333,
    "9000": 334,
    "to": 335,
    "ol": 336,
    "\u2581user32char": 337,
    "cc": 338,
    "a5": 339,
    "\u2581user32charnext": 340,
    "con": 341,
    "tet": 342,
    "tetow": 343,
    "multibytetow": 344,
    "multibytetowidechar": 345,
    "free": 346,
    "\u25810xffff": 347,
    "key": 348,
    "64": 349,
    "age": 350,
    "\u2581kernel32multibytetowidechar": 351,
    "a4": 352,
    "a8": 353,
    "wri": 354,
    "\u2581g": 355,
    "siz": 356,
    "\u25810xffffff": 357,
    "ype": 358,
    "3000": 359,
    "size": 360,
    "\u25810xfeee008": 361,
    "1000": 362,
    "write": 363,
    "\u25810x70": 364,
    "\u2581create": 365,
    "\u25810x90": 366,
    "ent": 367,
    "system": 368,
    "lc": 369,
    "lcmap": 370,
    "lcmapstring": 371,
    "locke": 372,
    "\u2581kernel32getst": 373,
    "\u2581ap": 374,
    "bc": 375,
    "se": 376,
    "def": 377,
    "\u25810xfeee003": 378,
    "locked": 379,
    "2000": 380,
    "\u2581user32loadstringw": 381,
    "loadlibrary": 382,
    "rement": 383,
    "oa": 384,
    "a000": 385,
    "\u2581kernel32dll": 386,
    "\u25810x4c4": 387,
    "f000": 388,
    "5000": 389,
    "6000": 390,
    "7000": 391,
    "handlew": 392,
    "orm": 393,
    "d4": 394,
    "pinf": 395,
    "b000": 396,
    "var": 397,
    "name": 398,
    "\u25810x88": 399,
    "\u2581user32loadstringa": 400,
    "\u2581kernel32inter": 401,
    "\u2581cwindow": 402,
    "\u2581kernel32interlocked": 403,
    "open": 404,
    "\u2581kernel32heapsize": 405,
    "b8": 406,
    "rst": 407,
    "d000": 408,
    "widechar": 409,
    "multibyte": 410,
    "widecharto": 411,
    "widechartomultibyte": 412,
    "\u2581re": 413,
    "\u25810x7d90": 414,
    "\u2581kernel32loadlibrary": 415,
    "\u25810xc": 416,
    "14": 417,
    "60": 418,
    "ath": 419,
    "\u25810x78c": 420,
    "\u2581kernel32getmodulehandlew": 421,
    "68": 422,
    "e000": 423,
    "\u25810x78c00000": 424,
    "\u2581kernel32widechartomultibyte": 425,
    "hi": 426,
    "c8": 427,
    "\u2581kernel32c": 428,
    "\u2581kernel32lcmapstring": 429,
    "\u2581s": 430,
    "tor": 431,
    "ist": 432,
    "dc": 433,
    "wa": 434,
    "ers": 435,
    "94": 436,
    "\u25810x44": 437,
    "b3": 438,
    "lm": 439,
    "\u25810x437": 440,
    "mm": 441,
    "rec": 442,
    "\u2581kernel32getlocaleinfoa": 443,
    "art": 444,
    "temp": 445,
    "\u2581kernel32getlocaleinfow": 446,
    "\u25810x18": 447,
    "\u25810xfeee0004": 448,
    "91": 449,
    "\u25810x40a5": 450,
    "ssystem": 451,
    "ssystem32": 452,
    "\u2581kernel32virtual": 453,
    "\u2581kernel32getcurrent": 454,
    "be": 455,
    "58": 456,
    "vw": 457,
    "abc": 458,
    "xy": 459,
    "ghi": 460,
    "klm": 461,
    "nop": 462,
    "uvw": 463,
    "xyz": 464,
    "abcdef": 465,
    "klmnop": 466,
    "rstuvw": 467,
    "abcdefghi": 468,
    "rstuvwxyz": 469,
    "f4": 470,
    "ool": 471,
    "lose": 472,
    "eex": 473,
    "e5": 474,
    "vent": 475,
    "ron": 476,
    "viron": 477,
    "environ": 478,
    "environment": 479,
    "\u25810x12117": 480,
    "filetype": 481,
    "56": 482,
    "fe": 483,
    "dhandle": 484,
    "reat": 485,
    "f5": 486,
    "\u25810x79": 487,
    "\u2581en": 488,
    "12": 489,
    "inc": 490,
    "increment": 491,
    "\u2581cwindowssystem32": 492,
    "list": 493,
    "e6": 494,
    "\u25810x7ec": 495,
    "\u2581in": 496,
    "7c": 497,
    "eco": 498,
    "\u25810x12119": 499,
    "lin": 500,
    "api": 501,
    "\u2581kernel32getfiletype": 502,
    "int": 503,
    "mess": 504,
    "\u25810xfeee009": 505,
    "lss": 506,
    "direc": 507,
    "lssetvalue": 508,
    "exw": 509,
    "\u25810x5265": 510,
    "\u25810x5f8": 511,
    "\u25810x5f800000": 512,
    "\u2581kernel32interlockedincrement": 513,
    "message": 514,
    "filename": 515,
    "e10000": 516,
    "\u25810x77e10000": 517,
    "\u2581user32charnexta": 518,
    "ch": 519,
    "filea": 520,
    "lsalloc": 521,
    "\u25810x4c42": 522,
    "\u25810x4690": 523,
    "\u2581user32charnextw": 524,
    "form": 525,
    "\u25810x200": 526,
    "\u25810xfeee0002": 527,
    "strings": 528,
    "\u25810x20": 529,
    "director": 530,
    "\u2581kernel32getstdhandle": 531,
    "\u25810x5266": 532,
    "e8": 533,
    "4000": 534,
    "\u2581var": 535,
    "\u25810xfeee0000": 536,
    "e2": 537,
    "handlea": 538,
    "time": 539,
    "\u25810x1210f": 540,
    "res": 541,
    "ersi": 542,
    "versi": 543,
    "\u25810x70cc": 544,
    "readpool": 545,
    "\u25810x8c": 546,
    "\u2581apis": 547,
    "artu": 548,
    "\u2581kernel32loadlibrarya": 549,
    "ead": 550,
    "valid": 551,
    "71": 552,
    "fileti": 553,
    "uer": 554,
    "\u2581kernel32heapfree": 555,
    "69": 556,
    "\u2581pag": 557,
    "\u25810x7704": 558,
    "\u25810x7708": 559,
    "\u25810x7714": 560,
    "\u25810x7718": 561,
    "threadid": 562,
    "\u2581kernel32virtualalloc": 563,
    "\u25810xfeee0003": 564,
    "\u2581ad": 565,
    "\u25810x7700": 566,
    "cep": 567,
    "eadwrite": 568,
    "event": 569,
    "ect": 570,
    "\u25810xffffffff": 571,
    "\u25810x80": 572,
    "filew": 573,
    "da": 574,
    "eep": 575,
    "stringsw": 576,
    "comm": 577,
    "artupinf": 578,
    "ation": 579,
    "\u25810x7705": 580,
    "\u25810x7707": 581,
    "\u25810x770b": 582,
    "\u25810x7710": 583,
    "\u25810x7715": 584,
    "\u25810x7717": 585,
    "\u25810x771b": 586,
    "api32": 587,
    "\u25810x7c": 588,
    "leep": 589,
    "b7": 590,
    "sour": 591,
    "\u25810x9": 592,
    "\u2581creat": 593,
    "vapi32": 594,
    "\u25810xa4": 595,
    "\u2581advapi32": 596,
    "\u25810xf001": 597,
    "ad0": 598,
    "ing": 599,
    "\u2581path": 600,
    "\u2581kernel32getmodulehandlea": 601,
    "\u2581open": 602,
    "sole": 603,
    "a40": 604,
    "losehandle": 605,
    "\u25810x1210e": 606,
    "environmentstringsw": 607,
    "ve": 608,
    "lob": 609,
    "\u25810x104": 610,
    "\u25810x423": 611,
    "filetime": 612,
    "\u25810x120": 613,
    "\u25810x7702": 614,
    "\u25810x7706": 615,
    "\u25810x7709": 616,
    "\u25810x7712": 617,
    "\u25810x7716": 618,
    "\u25810x7719": 619,
    "ute": 620,
    "48": 621,
    "\u2581reg": 622,
    "andlin": 623,
    "directory": 624,
    "commandlin": 625,
    "commandline": 626,
    "\u2581event": 627,
    "mswin": 628,
    "\u25810xfeee0005": 629,
    "imswin": 630,
    "\u25810x1211d": 631,
    "ception": 632,
    "\u25810x7e70": 633,
    "\u25810x47": 634,
    "\u2581apimswin": 635,
    "cpinf": 636,
    "cpinfo": 637,
    "source": 638,
    "console": 639,
    "11": 640,
    "dbc": 641,
    "\u25810x4610": 642,
    "yper": 643,
    "forman": 644,
    "ueryper": 645,
    "ueryperforman": 646,
    "\u25810x3f": 647,
    "able": 648,
    "\u25810x7d91": 649,
    "\u2581kernel32lcmapstringw": 650,
    "\u2581kernel32getstartupinf": 651,
    "\u25810x7701": 652,
    "\u25810x7703": 653,
    "\u25810x770c": 654,
    "\u25810x770d": 655,
    "\u25810x770f": 656,
    "\u25810x7711": 657,
    "\u25810x7713": 658,
    "unter": 659,
    "\u25810x409": 660,
    "\u25810xcd": 661,
    "\u2581encodepointer": 662,
    "fc": 663,
    "sle": 664,
    "adby": 665,
    "adbyte": 666,
    "dbcsle": 667,
    "processor": 668,
    "dbcsleadbyte": 669,
    "\u2581kernel32isdbcsleadbyte": 670,
    "\u2581kernel32getcurrentthreadid": 671,
    "\u25810x800": 672,
    "\u2581user32get": 673,
    "\u25810x54": 674,
    "\u2581w": 675,
    "ceco": 676,
    "type": 677,
    "cecounter": 678,
    "ueryperformancecounter": 679,
    "a1": 680,
    "eth": 681,
    "ot": 682,
    "\u2581h": 683,
    "dex": 684,
    "fil": 685,
    "bo": 686,
    "\u25810x770e": 687,
    "\u2581getcurrent": 688,
    "stemp": 689,
    "\u2581kernel32getcpinfo": 690,
    "ab0": 691,
    "\u2581glob": 692,
    "3c": 693,
    "b4": 694,
    "sa": 695,
    "\u2581kernel32getconsole": 696,
    "\u2581kernel32lcmapstringex": 697,
    "dd": 698,
    "\u25810x1211e": 699,
    "systemtime": 700,
    "\u2581apimswinco": 701,
    "f6": 702,
    "lete": 703,
    "\u25810xf003": 704,
    "sof": 705,
    "9c": 706,
    "\u25810xf002": 707,
    "a2": 708,
    "soft": 709,
    "processlist": 710,
    "\u2581kernel32getconsoleprocesslist": 711,
    "gin": 712,
    "es": 713,
    "\u2581de": 714,
    "a7": 715,
    "\u25810x7b": 716,
    "\u25810x8810": 717,
    "ser": 718,
    "\u25810x40b3": 719,
    "66": 720,
    "80": 721,
    "\u25810x14": 722,
    "\u2581cwindowssystem3200": 723,
    "vari": 724,
    "789": 725,
    "path": 726,
    "begin": 727,
    "\u25810x420": 728,
    "\u2581kernel32closehandle": 729,
    "la": 730,
    "\u25810x770a": 731,
    "\u25810x771a": 732,
    "\u2581kernel32getmodulefilename": 733,
    "\u2581d": 734,
    "1234": 735,
    "56789": 736,
    "\u258101234": 737,
    "\u25810123456789": 738,
    "rstuvwxyzabcdefghi": 739,
    "\u25810123456789abcdefghi": 740,
    "um": 741,
    "b9": 742,
    "ic": 743,
    "reg": 744,
    "\u25810xa42": 745,
    "\u2581kernel32s": 746,
    "ro": 747,
    "wait": 748,
    "asfiletime": 749,
    "\u2581kernel32sleep": 750,
    "hel": 751,
    "tim": 752,
    "\u25810x8ad0": 753,
    "35": 754,
    "ut": 755,
    "filter": 756,
    "unhandle": 757,
    "dexception": 758,
    "dexceptionfilter": 759,
    "unhandledexceptionfilter": 760,
    "code": 761,
    "\u2581kernel32getversi": 762,
    "\u2581gdi": 763,
    "\u25810x400": 764,
    "systemtimeasfiletime": 765,
    "servi": 766,
    "\u25810x42c": 767,
    "\u25810x5265c": 768,
    "directoryw": 769,
    "stringtype": 770,
    "\u2581ex": 771,
    "decrement": 772,
    "\u2581kernel32getcommandline": 773,
    "\u2581nt": 774,
    "ction": 775,
    "inform": 776,
    "\u25810x7de": 777,
    "information": 778,
    "pres": 779,
    "\u2581gdi32": 780,
    "present": 781,
    "\u2581global": 782,
    "\u25810x12115": 783,
    "a6": 784,
    "\u25810x430": 785,
    "24": 786,
    "timer": 787,
    "uter": 788,
    "a9": 789,
    "b5": 790,
    "il": 791,
    "lstr": 792,
    "\u25810x7ec0": 793,
    "\u2581hkey": 794,
    "\u25810x41de": 795,
    "messagea": 796,
    "process32": 797,
    "\u25810x1211c90": 798,
    "icon": 799,
    "\u25810x1211c98": 800,
    "\u25810xfeee0006": 801,
    "\u2581kernel32create": 802,
    "\u25810x4c42c0": 803,
    "\u25810x8000": 804,
    "74": 805,
    "processid": 806,
    "softwa": 807,
    "8000": 808,
    "stringtypew": 809,
    "info": 810,
    "b1": 811,
    "d5": 812,
    "ed": 813,
    "localalloc": 814,
    "ack": 815,
    "exa": 816,
    "ure": 817,
    "\u2581fin": 818,
    "\u2581t": 819,
    "arch": 820,
    "\u2581getmodule": 821,
    "intf": 822,
    "printf": 823,
    "\u25810x4378": 824,
    "\u2581kernel32interlockeddecrement": 825,
    "\u2581co": 826,
    "ature": 827,
    "\u25810x4c": 828,
    "feature": 829,
    "featurepresent": 830,
    "processorfeaturepresent": 831,
    "ity": 832,
    "eexec": 833,
    "\u25810xfeee0071": 834,
    "tri": 835,
    "readpooltimer": 836,
    "75": 837,
    "ob": 838,
    "sh": 839,
    "software": 840,
    "\u25810x7c000000": 841,
    "\u2581kernel32getstartupinfow": 842,
    "db": 843,
    "lock": 844,
    "lass": 845,
    "\u25810x69": 846,
    "\u2581virtual": 847,
    "eexecuter": 848,
    "\u2581pageexecuter": 849,
    "\u2581pageexecutereadwrite": 850,
    "of": 851,
    "\u25810x8d": 852,
    "\u25810x220": 853,
    "\u25810x4000": 854,
    "l1": 855,
    "508": 856,
    "\u25810xfeee0007": 857,
    "\u2581kernel32loadlibraryexw": 858,
    "locales": 859,
    "\u2581kernel32getstringtypew": 860,
    "1c": 861,
    "up": 862,
    "\u25810x7000": 863,
    "writefile": 864,
    "\u25810x69000000": 865,
    "390": 866,
    "acp": 867,
    "rive": 868,
    "\u25810x4ab0": 869,
    "\u25810x9000": 870,
    "308": 871,
    "secur": 872,
    "security": 873,
    "col": 874,
    "color": 875,
    "\u2581heap": 876,
    "\u2581cwindowstemp": 877,
    "4c": 878,
    "f9": 879,
    "sc": 880,
    "openkey": 881,
    "\u2581gdi32get": 882,
    "service": 883,
    "stru": 884,
    "\u25810xe": 885,
    "\u2581kernel32localalloc": 886,
    "19": 887,
    "instru": 888,
    "\u25810x102": 889,
    "\u2581invalid": 890,
    "instruction": 891,
    "eric": 892,
    "\u2581free": 893,
    "\u2581pager": 894,
    "\u2581pagereadwrite": 895,
    "15": 896,
    "\u25810x435": 897,
    "\u2581kernel32setunhandledexceptionfilter": 898,
    "sys": 899,
    "section": 900,
    "\u2581kernel32isprocessorfeaturepresent": 901,
    "\u25810x566": 902,
    "\u2581load": 903,
    "\u25810x7ee": 904,
    "aa": 905,
    "\u25810x4e5": 906,
    "\u2581createth": 907,
    "\u2581kernel32getsystemtimeasfiletime": 908,
    "end": 909,
    "f00": 910,
    "eexw": 911,
    "handl": 912,
    "\u25810x7e71": 913,
    "\u2581m": 914,
    "\u2581is": 915,
    "\u25810x76": 916,
    "create": 917,
    "\u25810x418": 918,
    "\u25810x1211b": 919,
    "\u2581kernel32getcurrentprocessid": 920,
    "filepointer": 921,
    "va": 922,
    "fro": 923,
    "met": 924,
    "from": 925,
    "\u25810x73": 926,
    "\u2581apimswincore": 927,
    "\u2581kernel32flssetvalue": 928,
    "b2": 929,
    "ra": 930,
    "\u2581i": 931,
    "\u25810x419": 932,
    "\u2581flsalloc": 933,
    "\u2581flssetvalue": 934,
    "ock": 935,
    "yse": 936,
    "\u25810x48": 937,
    "\u25810x7e8": 938,
    "ysearch": 939,
    "system32": 940,
    "\u25810x5265c14": 941,
    "\u2581loadlibrar": 942,
    "ysearchsystem32": 943,
    "\u2581loadlibrarysearchsystem32": 944,
    "76": 945,
    "\u2581kernel32getversionex": 946,
    "\u2581pf": 947,
    "mode": 948,
    "vail": 949,
    "vailable": 950,
    "bd": 951,
    "i64": 952,
    "xmm": 953,
    "7840": 954,
    "\u25810x21": 955,
    "eneric": 956,
    "xmmi64": 957,
    "\u2581pfxmmi64": 958,
    "savailable": 959,
    "\u2581pfxmmi64instruction": 960,
    "\u2581pfxmmi64instructionsavailable": 961,
    "\u25810x19": 962,
    "resource": 963,
    "b6": 964,
    "\u25810x43b7": 965,
    "2c": 966,
    "olf": 967,
    "\u25810x416": 968,
    "\u25810x5f5": 969,
    "\u25810x4305": 970,
    "threadex": 971,
    "\u25810x1211f38": 972,
    "readpoolwait": 973,
    "\u2581msvcrtbegin": 974,
    "\u2581kernel32getacp": 975,
    "\u2581msvcrtbeginthreadex": 976,
    "\u2581initializecriticalsecti": 977,
    "keyw": 978,
    "\u25810x407840": 979,
    "54": 980,
    "\u25810x32": 981,
    "\u25810x75": 982,
    "\u25810x429": 983,
    "\u2581kernel32flsalloc": 984,
    "33": 985,
    "og": 986,
    "ber": 987,
    "\u25810x71": 988,
    "\u25810x120e6": 989,
    "\u2581kernel32getmodulefilenamew": 990,
    "f1": 991,
    "ush": 992,
    "boar": 993,
    "\u25810x4238": 994,
    "\u2581delete": 995,
    "\u2581crt": 996,
    "\u2581kernel32free": 997,
    "aul": 998,
    "ault": 999,
    "\u25810x13": 1000,
    "\u2581shel": 1001,
    "default": 1002,
    "\u25810x42e5": 1003,
    "process32next": 1004,
    "d3": 1005,
    "sw": 1006,
    "bute": 1007,
    "ttri": 1008,
    "codep": 1009,
    "ttribute": 1010,
    "\u2581generic": 1011,
    "\u25810x5f500000": 1012,
    "fileattribute": 1013,
    "\u25810xa": 1014,
    "\u2581find": 1015,
    "\u2581decodepointer": 1016,
    "\u2581kernel32getprocess": 1017,
    "f3": 1018,
    "mpa": 1019,
    "term": 1020,
    "\u25810x771c": 1021,
    "mapvirtual": 1022,
    "mapvirtualkeyw": 1023,
    "\u2581user32mapvirtualkeyw": 1024,
    "\u25810xd": 1025,
    "\u25810x72": 1026,
    "\u25810x434": 1027,
    "8c": 1028,
    "mage": 1029,
    "\u2581clo": 1030,
    "temppath": 1031,
    "\u25810xfeee0008": 1032,
    "e1": 1033,
    "sor": 1034,
    "cursor": 1035,
    "\u25810xffc": 1036,
    "itprocess": 1037,
    "04": 1038,
    "bu": 1039,
    "\u25810x8a": 1040,
    "\u25810x47b0": 1041,
    "\u25810x1211e0": 1042,
    "\u25810xfeee00c": 1043,
    "\u25810xfffffff5": 1044,
    "\u25810xfffffff6": 1045,
    "py": 1046,
    "ical": 1047,
    "\u25810x74": 1048,
    "codepage": 1049,
    "\u25810xfffffff4": 1050,
    "\u2581lcmapstring": 1051,
    "validcodepage": 1052,
    "\u2581getuser": 1053,
    "\u25810xfeee0009": 1054,
    "\u25810xfeee000a": 1055,
    "\u25810xfeee000b": 1056,
    "\u25810xfeee000c": 1057,
    "\u25810xfeee000d": 1058,
    "\u25810xfeee000e": 1059,
    "\u25810xfeee000f": 1060,
    "\u2581kernel32getenvironmentstringsw": 1061,
    "\u2581kernel32freeenvironmentstringsw": 1062,
    "6c": 1063,
    "96": 1064,
    "e2c": 1065,
    "1e": 1066,
    "d7": 1067,
    "day": 1068,
    "rip": 1069,
    "desc": 1070,
    "descrip": 1071,
    "\u25810xfeee0010": 1072,
    "\u25810xfeee0011": 1073,
    "\u25810xfeee0012": 1074,
    "\u25810xfeee0013": 1075,
    "\u25810xfeee0014": 1076,
    "\u25810xfeee0015": 1077,
    "\u25810xfeee0016": 1078,
    "\u2581flsgetvalue": 1079,
    "\u2581drive": 1080,
    "\u25810x7910": 1081,
    "variable": 1082,
    "\u2581drivewindow": 1083,
    "\u2581kernel32getprocessheap": 1084,
    "cec": 1085,
    "error": 1086,
    "\u25810x3000": 1087,
    "\u25810x7890": 1088,
    "descriptor": 1089,
    "securitydescriptor": 1090,
    "ene": 1091,
    "opene": 1092,
    "\u25810x42e": 1093,
    "library": 1094,
    "6d8": 1095,
    "log": 1096,
    "\u25810x8b": 1097,
    "lsfree": 1098,
    "\u2581kernel32lstr": 1099,
    "55": 1100,
    "ae": 1101,
    "dlls": 1102,
    "first": 1103,
    "\u25810x2a": 1104,
    "\u25810x7a": 1105,
    "\u2581ntdll": 1106,
    "syscolor": 1107,
    "\u25810x566a40": 1108,
    "\u25810xfeee0017": 1109,
    "\u25810xfeee0018": 1110,
    "\u25810xfeee001c": 1111,
    "d1": 1112,
    "\u25810x42d4": 1113,
    "\u25810x4c4308": 1114,
    "\u25810x1211dc0": 1115,
    "\u25810xfeee0019": 1116,
    "\u2581advapi32reg": 1117,
    "\u25810x518": 1118,
    "\u25810x1804": 1119,
    "\u2581advapi32regopenkey": 1120,
    "29": 1121,
    "36": 1122,
    "xa": 1123,
    "eek": 1124,
    "date": 1125,
    "31": 1126,
    "nap": 1127,
    "board": 1128,
    "\u2581read": 1129,
    "\u25810x42d": 1130,
    "\u25810x8a40": 1131,
    "currentuser": 1132,
    "\u2581hkeycurrentuser": 1133,
    "\u2581kernel32getcommandlinew": 1134,
    "text": 1135,
    "\u2581kernel32getcommandlinea": 1136,
    "b04": 1137,
    "num": 1138,
    "\u2581sh": 1139,
    "diti": 1140,
    "dition": 1141,
    "\u25810x41dd": 1142,
    "\u25810x4670": 1143,
    "\u25810x7ec1": 1144,
    "\u2581crtdlls": 1145,
    "\u2581kernel32writefile": 1146,
    "08": 1147,
    "ant": 1148,
    "\u25810x12116d8": 1149,
    "\u25810x1211918": 1150,
    "eekmessagea": 1151,
    "df": 1152,
    "ho": 1153,
    "not": 1154,
    "ccess": 1155,
    "\u25810x40934": 1156,
    "\u25810xfeee001a": 1157,
    "\u25810xfeee001b": 1158,
    "ase": 1159,
    "ini": 1160,
    "vie": 1161,
    "l110": 1162,
    "\u2581apimswincores": 1163,
    "\u2581user32getsyscolor": 1164,
    "\u2581kernel32isvalidcodepage": 1165,
    "44": 1166,
    "af": 1167,
    "pa": 1168,
    "seth": 1169,
    "\u25810x11": 1170,
    "\u2581setth": 1171,
    "sprintf": 1172,
    "\u2581closeth": 1173,
    "\u25810x1211e04": 1174,
    "\u2581initializecriticalsectionex": 1175,
    "len": 1176,
    "net": 1177,
    "ver": 1178,
    "\u2581regis": 1179,
    "esource": 1180,
    "\u25810x1211b04": 1181,
    "79": 1182,
    "cs": 1183,
    "lip": 1184,
    "call": 1185,
    "golf": 1186,
    "\u25810x8f": 1187,
    "eevent": 1188,
    "\u25810x50000": 1189,
    "\u2581user32p": 1190,
    "\u25810x1211e2c": 1191,
    "\u25810xfeee001d": 1192,
    "\u2581user32peekmessagea": 1193,
    "\u2581kernel32createfilew": 1194,
    "\u2581kernel32getmodulefilenamea": 1195,
    "bf": 1196,
    "view": 1197,
    "\u2581image": 1198,
    "\u25810xa429": 1199,
    "\u2581software": 1200,
    "\u2581imagelist": 1201,
    "164": 1202,
    "\u25810x7810": 1203,
    "00c": 1204,
    "\u25810x7d9": 1205,
    "temppathw": 1206,
    "\u25810x1211fcc": 1207,
    "\u2581kernel32getstartupinfoa": 1208,
    "oog": 1209,
    "ory": 1210,
    "pri": 1211,
    "\u25810x30": 1212,
    "\u2581goog": 1213,
    "memory": 1214,
    "offile": 1215,
    "\u25810x428": 1216,
    "version": 1217,
    "1a": 1218,
    "gu": 1219,
    "ach": 1220,
    "ine": 1221,
    "\u2581rt": 1222,
    "mach": 1223,
    "\u25810x53": 1224,
    "machine": 1225,
    "mapview": 1226,
    "terclass": 1227,
    "\u2581hkeylocal": 1228,
    "\u2581freelibrary": 1229,
    "\u2581hkeylocalmachine": 1230,
    "21": 1231,
    "b00": 1232,
    "rics": 1233,
    "dater": 1234,
    "\u2581wnet": 1235,
    "metrics": 1236,
    "\u25810x8cc0": 1237,
    "dateresource": 1238,
    "systemmetrics": 1239,
    "for": 1240,
    "point": 1241,
    "\u25810x7f8": 1242,
    "\u2581opene": 1243,
    "\u25810x4428": 1244,
    "\u2581openkey": 1245,
    "\u2581kernel32creat": 1246,
    "fileattributesw": 1247,
    "\u2581kernel32getsystem": 1248,
    "908": 1249,
    "orl": 1250,
    "back": 1251,
    "mute": 1252,
    "\u2581wait": 1253,
    "\u25810x43b3": 1254,
    "\u25810x7f00": 1255,
    "callback": 1256,
    "\u2581waitfor": 1257,
    "\u2581getmodulefilename": 1258,
    "d2": 1259,
    "d6": 1260,
    "\u2581lstr": 1261,
    "initializ": 1262,
    "borl": 1263,
    "\u25810x4e": 1264,
    "\u25810x422": 1265,
    "fromstr": 1266,
    "\u25810x40933": 1267,
    "\u2581flsfree": 1268,
    "\u25810x121194": 1269,
    "\u25810xfeee001e": 1270,
    "threadlocale": 1271,
    "39": 1272,
    "ge": 1273,
    "\u25810x22": 1274,
    "ecount": 1275,
    "borland": 1276,
    "logical": 1277,
    "\u2581getfile": 1278,
    "handlecount": 1279,
    "\u25810xfeee001f": 1280,
    "\u25810xfeee0020": 1281,
    "16": 1282,
    "22": 1283,
    "7c8": 1284,
    "bit": 1285,
    "\u25810x4a7": 1286,
    "\u2581sleep": 1287,
    "\u25810x7de0": 1288,
    "\u25810x43440": 1289,
    "\u25810x1211fd4": 1290,
    "\u2581getlogical": 1291,
    "\u2581genericread": 1292,
    "loat": 1293,
    "\u2581filea": 1294,
    "loating": 1295,
    "\u25810x46b0": 1296,
    "\u25810x4c32": 1297,
    "\u2581fileaccess": 1298,
    "106": 1299,
    "und": 1300,
    "\u25810x7d0": 1301,
    "\u25810x423d": 1302,
    "\u25810x12114": 1303,
    "condition": 1304,
    "\u2581gettickcount": 1305,
    "\u2581crtdllsprintf": 1306,
    "\u2581kernel32setfilepointer": 1307,
    "\u2581kernel32getthreadlocale": 1308,
    "7e": 1309,
    "lic": 1310,
    "regis": 1311,
    "\u2581inter": 1312,
    "\u2581loadlibrary": 1313,
    "yn": 1314,
    "\u2581o": 1315,
    "a80": 1316,
    "b80": 1317,
    "ero": 1318,
    "erw": 1319,
    "pro": 1320,
    "\u2581se": 1321,
    "help": 1322,
    "ename": 1323,
    "\u25810x17": 1324,
    "\u25810x8811": 1325,
    "\u2581shell32": 1326,
    "\u2581createprocess": 1327,
    "d9": 1328,
    "\u25810xb": 1329,
    "lease": 1330,
    "\u2581begin": 1331,
    "\u25810x437b": 1332,
    "div": 1333,
    "xist": 1334,
    "\u25810x2c": 1335,
    "\u25810x571": 1336,
    "xisting": 1337,
    "\u25810x79f0": 1338,
    "\u25810x7f800": 1339,
    "\u25810x1211c7c": 1340,
    "\u2581openexisting": 1341,
    "\u2581kernel32virtualfree": 1342,
    "acl": 1343,
    "raw": 1344,
    "bers": 1345,
    "namea": 1346,
    "\u25810x7850": 1347,
    "process32nextw": 1348,
    "\u2581user32loadicon": 1349,
    "f7": 1350,
    "lp": 1351,
    "ta": 1352,
    "1646": 1353,
    "db10": 1354,
    "paint": 1355,
    "\u25810x169": 1356,
    "profile": 1357,
    "windowexa": 1358,
    "directorya": 1359,
    "\u2581getcommandline": 1360,
    "ies": 1361,
    "buff": 1362,
    "lush": 1363,
    "mpare": 1364,
    "\u25810x1e": 1365,
    "db10106": 1366,
    "\u2581msvcrtp": 1367,
    "\u25810x1db10106": 1368,
    "\u2581kernel32getversion": 1369,
    "fd": 1370,
    "\u25810x15": 1371,
    "\u2581write": 1372,
    "ethread": 1373,
    "\u25810x44f8": 1374,
    "servicew": 1375,
    "\u25810x1211908": 1376,
    "\u2581virtualalloc": 1377,
    "\u2581kernel32gettemppathw": 1378,
    "17": 1379,
    "37": 1380,
    "3e": 1381,
    "45": 1382,
    "\u25810x4b": 1383,
    "\u25810x417": 1384,
    "\u2581flush": 1385,
    "\u2581getst": 1386,
    "buffers": 1387,
    "\u25810x8af0": 1388,
    "\u25810x1211518": 1389,
    "\u25810x4190000": 1390,
    "\u2581virtualfree": 1391,
    "\u2581user32loadcursor": 1392,
    "init": 1393,
    "class": 1394,
    "\u25810x50": 1395,
    "lipboard": 1396,
    "\u25810x41ddd8": 1397,
    "\u25810x41de20": 1398,
    "\u2581kernel32tlssetvalue": 1399,
    "348": 1400,
    "app": 1401,
    "econ": 1402,
    "\u2581rtl": 1403,
    "ockob": 1404,
    "windows": 1405,
    "\u25810x4305b0": 1406,
    "\u25810x4a77c8": 1407,
    "defaultdll": 1408,
    "\u25810x1211718": 1409,
    "\u25810x1211958": 1410,
    "directories": 1411,
    "mparestring": 1412,
    "\u2581user32regis": 1413,
    "\u2581lcmapstringex": 1414,
    "\u2581getenvironment": 1415,
    "defaultdlldirectories": 1416,
    "300": 1417,
    "\u2581th": 1418,
    "atex": 1419,
    "\u25810x101": 1420,
    "\u25810x3f34": 1421,
    "\u25810x700c": 1422,
    "\u25810x704c": 1423,
    "\u25810x708c": 1424,
    "\u25810x7930": 1425,
    "\u25810x1211728": 1426,
    "process32first": 1427,
    "oy": 1428,
    "260": 1429,
    "32s": 1430,
    "ee0": 1431,
    "shot": 1432,
    "32dll": 1433,
    "etool": 1434,
    "stroy": 1435,
    "\u25810x1c": 1436,
    "\u25810x4d": 1437,
    "32snap": 1438,
    "\u25810x198": 1439,
    "\u25810x19a": 1440,
    "stockob": 1441,
    "etoolhelp": 1442,
    "32snapshot": 1443,
    "localename": 1444,
    "\u2581gdi32getstockob": 1445,
    "\u2581kernel32tlsalloc": 1446,
    "etoolhelp32snapshot": 1447,
    "\u2581advapi32regopenkeyexw": 1448,
    "\u2581kernel32process32nextw": 1449,
    "ba": 1450,
    "c1": 1451,
    "rag": 1452,
    "prot": 1453,
    "trac": 1454,
    "ocket": 1455,
    "\u25810x28": 1456,
    "infoini": 1457,
    "protect": 1458,
    "\u25810x3f30": 1459,
    "\u2581extrac": 1460,
    "formatex": 1461,
    "\u25810x12114b8": 1462,
    "golfinfoini": 1463,
    "\u2581exitprocess": 1464,
    "dateresourcea": 1465,
    "low": 1466,
    "hore": 1467,
    "semap": 1468,
    "\u25810x1f": 1469,
    "\u25810x82": 1470,
    "\u25810x1075": 1471,
    "semaphore": 1472,
    "\u25810xfeee0074": 1473,
    "loatingpoint": 1474,
    "\u2581kernel32getversionexw": 1475,
    "d88": 1476,
    "lec": 1477,
    "tmp": 1478,
    "trl": 1479,
    "\u2581st": 1480,
    "\u2581tr": 1481,
    "a190": 1482,
    "flow": 1483,
    "ingk": 1484,
    "arton": 1485,
    "\u25810x4a": 1486,
    "termin": 1487,
    "\u2581kingk": 1488,
    "\u25810x4e5e": 1489,
    "wsprintf": 1490,
    "\u25810x42a190": 1491,
    "\u25810x1211cf8": 1492,
    "\u25810xfeee0021": 1493,
    "\u25810xfeee0022": 1494,
    "\u25810xfeee0023": 1495,
    "\u25810xfeee0024": 1496,
    "\u25810xfeee0025": 1497,
    "\u2581kingkarton": 1498,
    "\u2581user32wsprintf": 1499,
    "\u2581kernel32heapcreate": 1500,
    "rw": 1501,
    "dis": 1502,
    "chl1": 1503,
    "chl120": 1504,
    "letemp": 1505,
    "mutexa": 1506,
    "variab": 1507,
    "ynchl120": 1508,
    "\u25810x42e5b0": 1509,
    "\u2581googletemp": 1510,
    "a3": 1511,
    "ion": 1512,
    "namew": 1513,
    "ueexw": 1514,
    "\u2581vari": 1515,
    "\u25810x42c4": 1516,
    "\u25810x5188": 1517,
    "\u25810x1210f35": 1518,
    "\u2581advapi32set": 1519,
    "\u2581comparestring": 1520,
    "9e": 1521,
    "111": 1522,
    "967": 1523,
    "number": 1524,
    "\u2581termin": 1525,
    "\u25810xf0019": 1526,
    "variablew": 1527,
    "\u25810x1211758": 1528,
    "\u25810xfeee0026": 1529,
    "\u25810xfeee0027": 1530,
    "\u2581apimswincoresynchl120": 1531,
    "\u2581user32getsystemmetrics": 1532,
    "f2": 1533,
    "ub": 1534,
    "\u25810x16": 1535,
    "\u25810x1211948": 1536,
    "opensection": 1537,
    "\u2581closehandle": 1538,
    "\u2581kernel32lstrlen": 1539,
    "5c": 1540,
    "7d": 1541,
    "c6": 1542,
    "ken": 1543,
    "mic": 1544,
    "pat": 1545,
    "dacl": 1546,
    "link": 1547,
    "patch": 1548,
    "state": 1549,
    "token": 1550,
    "\u25810x4350": 1551,
    "\u2581initializ": 1552,
    "\u2581setfilepointer": 1553,
    "\u2581drivewindowstemp": 1554,
    "securitydescriptordacl": 1555,
    "fb": 1556,
    "aps": 1557,
    "devi": 1558,
    "\u2581copy": 1559,
    "allock": 1560,
    "\u25810x4967": 1561,
    "\u25810x1211f7c": 1562,
    "informationby": 1563,
    "\u2581loadlibrarya": 1564,
    "\u2581createsemaphore": 1565,
    "97": 1566,
    "\u2581b": 1567,
    "cpy": 1568,
    "men": 1569,
    "tex": 1570,
    "drag": 1571,
    "cecaps": 1572,
    "realloc": 1573,
    "\u25810x41bc": 1574,
    "\u25810x7ad0": 1575,
    "messagew": 1576,
    "devicecaps": 1577,
    "\u25810x1211738": 1578,
    "\u2581writefile": 1579,
    "fa": 1580,
    "ont": 1581,
    "\u2581ws": 1582,
    "contr": 1583,
    "\u2581varb": 1584,
    "locate": 1585,
    "\u25810x42b0": 1586,
    "\u25810x42d8": 1587,
    "\u2581user32dll": 1588,
    "\u2581getlocaleinf": 1589,
    "\u2581gdi32getdevicecaps": 1590,
    "\u2581kernel32sethandlecount": 1591,
    "59": 1592,
    "6f": 1593,
    "ct": 1594,
    "lex": 1595,
    "atus": 1596,
    "move": 1597,
    "\u25810x67": 1598,
    "status": 1599,
    "\u25810x2d4": 1600,
    "initterm": 1601,
    "\u2581gettime": 1602,
    "\u25810x1211cec": 1603,
    "\u25810xfeee0072": 1604,
    "\u25810xfeee0073": 1605,
    "c7": 1606,
    "e9": 1607,
    "ata": 1608,
    "font": 1609,
    "zero": 1610,
    "conne": 1611,
    "\u2581close": 1612,
    "\u2581googletempg": 1613,
    "acc": 1614,
    "try": 1615,
    "fibers": 1616,
    "unlock": 1617,
    "\u25810x560": 1618,
    "eeventa": 1619,
    "\u25810x571b00": 1620,
    "\u2581readfile": 1621,
    "\u25810x1211f64": 1622,
    "\u25810xfeee0028": 1623,
    "\u25810xfeee0029": 1624,
    "\u25810xfeee0070": 1625,
    "\u25810xfeee0075": 1626,
    "51": 1627,
    "fo": 1628,
    "ga": 1629,
    "om": 1630,
    "ork": 1631,
    "brush": 1632,
    "\u2581draw": 1633,
    "\u25810x44f9": 1634,
    "\u25810x4710": 1635,
    "\u25810x435390": 1636,
    "\u25810x437390": 1637,
    "\u25810x437880": 1638,
    "\u25810x43b390": 1639,
    "ssystem32sh": 1640,
    "\u25810xfeee002a": 1641,
    "\u2581advapi32dll": 1642,
    "\u2581interlocked": 1643,
    "\u2581drivewindowssystem32sh": 1644,
    "em": 1645,
    "sp": 1646,
    "fe8": 1647,
    "a256": 1648,
    "l111": 1649,
    "\u2581dis": 1650,
    "lexec": 1651,
    "\u25810x34": 1652,
    "\u25810x59": 1653,
    "cectrl": 1654,
    "rwlock": 1655,
    "\u25810x678": 1656,
    "\u25810x41e2": 1657,
    "\u25810x48f8": 1658,
    "\u25810x7ab0": 1659,
    "servicectrl": 1660,
    "\u25810xfeee002b": 1661,
    "\u25810xfeee002c": 1662,
    "\u25810xfeee002d": 1663,
    "\u25810xfeee002e": 1664,
    "\u25810xfeee002f": 1665,
    "\u25810xfeee0030": 1666,
    "\u25810xfeee0031": 1667,
    "\u25810xfeee006b": 1668,
    "esecuritydescriptor": 1669,
    "\u2581apimswincorefibers": 1670,
    "\u2581user32registerclass": 1671,
    "\u2581setdefaultdlldirectories": 1672,
    "\u2581drivewindowssystem32sha256": 1673,
    "27": 1674,
    "sub": 1675,
    "alwa": 1676,
    "close": 1677,
    "tries": 1678,
    "\u2581send": 1679,
    "always": 1680,
    "\u25810x1211748": 1681,
    "\u25810xfeee0032": 1682,
    "\u25810xfeee0033": 1683,
    "\u25810xfeee0034": 1684,
    "\u25810xfeee0035": 1685,
    "\u25810xfeee0036": 1686,
    "\u25810xfeee0037": 1687,
    "\u25810xfeee0038": 1688,
    "\u25810xfeee0039": 1689,
    "\u25810xfeee003a": 1690,
    "\u25810xfeee003b": 1691,
    "\u25810xfeee003c": 1692,
    "\u25810xfeee003d": 1693,
    "\u25810xfeee003e": 1694,
    "\u25810xfeee003f": 1695,
    "\u25810xfeee0040": 1696,
    "\u25810xfeee0041": 1697,
    "\u25810xfeee0042": 1698,
    "\u25810xfeee0043": 1699,
    "\u25810xfeee0044": 1700,
    "\u25810xfeee0045": 1701,
    "\u25810xfeee0046": 1702,
    "\u25810xfeee0047": 1703,
    "\u25810xfeee0048": 1704,
    "\u25810xfeee0049": 1705,
    "\u25810xfeee004a": 1706,
    "\u25810xfeee004b": 1707,
    "\u25810xfeee004c": 1708,
    "\u25810xfeee004d": 1709,
    "\u2581getlasterror": 1710,
    "\u2581getmodulehandlea": 1711,
    "e3": 1712,
    "669": 1713,
    "7ec": 1714,
    "ble": 1715,
    "oper": 1716,
    "ision": 1717,
    "\u25810x105": 1718,
    "leasedc": 1719,
    "\u2581getkey": 1720,
    "\u25810xfeee004e": 1721,
    "\u25810xfeee004f": 1722,
    "\u25810xfeee0050": 1723,
    "\u25810xfeee0051": 1724,
    "\u25810xfeee0052": 1725,
    "\u25810xfeee0053": 1726,
    "\u25810xfeee0054": 1727,
    "\u25810xfeee0055": 1728,
    "\u25810xfeee0056": 1729,
    "\u25810xfeee0057": 1730,
    "\u25810xfeee0058": 1731,
    "\u25810xfeee0059": 1732,
    "\u25810xfeee005a": 1733,
    "\u25810xfeee005b": 1734,
    "\u25810xfeee005c": 1735,
    "\u25810xfeee005d": 1736,
    "\u25810xfeee005e": 1737,
    "\u25810xfeee005f": 1738,
    "\u25810xfeee0060": 1739,
    "\u25810xfeee0061": 1740,
    "\u25810xfeee0062": 1741,
    "\u25810xfeee0063": 1742,
    "\u25810xfeee0064": 1743,
    "\u25810xfeee0065": 1744,
    "\u25810xfeee0066": 1745,
    "\u25810xfeee0067": 1746,
    "\u25810xfeee0068": 1747,
    "\u25810xfeee0069": 1748,
    "\u25810xfeee006a": 1749,
    "\u25810xfeee006c": 1750,
    "\u25810xfeee006d": 1751,
    "\u25810xfeee006e": 1752,
    "\u25810xfeee006f": 1753,
    "\u2581regopenkey": 1754,
    "mapviewoffile": 1755,
    "\u2581getcurrentthreadid": 1756,
    "\u2581hkeycurrentusersoftware": 1757,
    "13": 1758,
    "1f": 1759,
    "ui": 1760,
    "340": 1761,
    "692": 1762,
    "dat": 1763,
    "eck": 1764,
    "ton": 1765,
    "sday": 1766,
    "\u25810x1a": 1767,
    "\u25810x84": 1768,
    "\u25810x89": 1769,
    "apidll": 1770,
    "\u2581start": 1771,
    "verflow": 1772,
    "\u25810x10000": 1773,
    "\u25810x52660": 1774,
    "messagebo": 1775,
    "operation": 1776,
    "\u25810x41e218": 1777,
    "borlandlocales": 1778,
    "\u2581up": 1779,
    "priv": 1780,
    "mpati": 1781,
    "\u25810x52": 1782,
    "\u2581regs": 1783,
    "private": 1784,
    "closekey": 1785,
    "mpatible": 1786,
    "\u25810x12119c0": 1787,
    "\u2581regsetval": 1788,
    "\u25810xfeee0076": 1789,
    "\u25810xfeee0077": 1790,
    "\u25810xfeee0078": 1791,
    "\u25810xfeee0079": 1792,
    "\u25810xfeee007a": 1793,
    "\u2581getprocess": 1794,
    "\u2581createfilea": 1795,
    "\u2581regclosekey": 1796,
    "\u2581createthread": 1797,
    "privateprofile": 1798,
    "\u2581kernel32getversionexa": 1799,
    "sy": 1800,
    "wh": 1801,
    "wi": 1802,
    "696": 1803,
    "pack": 1804,
    "\u2581win": 1805,
    "64000": 1806,
    "delete": 1807,
    "\u25810x4c0": 1808,
    "\u25810x12112": 1809,
    "\u25810x53000": 1810,
    "\u25810x3f34c0": 1811,
    "\u25810x1211fd8": 1812,
    "ecompatible": 1813,
    "\u2581user32getdc": 1814,
    "lw": 1815,
    "780": 1816,
    "out": 1817,
    "\u2581po": 1818,
    "alet": 1819,
    "meto": 1820,
    "ageid": 1821,
    "b8000": 1822,
    "drive": 1823,
    "\u25810x2e": 1824,
    "\u25810x64": 1825,
    "rosoft": 1826,
    "\u25810x414": 1827,
    "\u25810x4630": 1828,
    "\u25810x4c43": 1829,
    "readfile": 1830,
    "clipboard": 1831,
    "packageid": 1832,
    "releasedc": 1833,
    "\u25810x4c42d8": 1834,
    "\u25810x4c42f0": 1835,
    "connection": 1836,
    "filetimeto": 1837,
    "exitprocess": 1838,
    "\u25810xfeee007b": 1839,
    "\u25810xfeee007c": 1840,
    "\u2581getlogicaldrive": 1841,
    "\u2581user32releasedc": 1842,
    "\u2581kernel32readfile": 1843,
    "\u2581kernel32exitprocess": 1844,
    "\u2581kernel32virtualprotect": 1845,
    "2w": 1846,
    "bb": 1847,
    "ef": 1848,
    "oci": 1849,
    "por": 1850,
    "ume": 1851,
    "heck": 1852,
    "tass": 1853,
    "atedi": 1854,
    "\u25810xa1": 1855,
    "\u2581hton": 1856,
    "\u25810x4fe": 1857,
    "tassoci": 1858,
    "\u25810x42c5": 1859,
    "\u25810x6781": 1860,
    "\u25810x80c0": 1861,
    "atedicon": 1862,
    "\u25810x52661": 1863,
    "\u25810x52662": 1864,
    "\u2581beginup": 1865,
    "microsoft": 1866,
    "\u25810x42c508": 1867,
    "\u25810x42d508": 1868,
    "\u25810x44f8e0": 1869,
    "\u2581shellexec": 1870,
    "connection2w": 1871,
    "\u2581createfilew": 1872,
    "\u2581deletefilew": 1873,
    "currentversion": 1874,
    "\u2581extractassoci": 1875,
    "\u2581process32next": 1876,
    "microsoftwindows": 1877,
    "\u2581createcompatible": 1878,
    "\u2581getmodulefilenamea": 1879,
    "\u2581extractassociatedicon": 1880,
    "\u2581apimswincorefibersl111": 1881,
    "c5": 1882,
    "ns": 1883,
    "ph": 1884,
    "ast": 1885,
    "dup": 1886,
    "e6b": 1887,
    "mbo": 1888,
    "oex": 1889,
    "ret": 1890,
    "vol": 1891,
    "glob": 1892,
    "leob": 1893,
    "urns": 1894,
    "when": 1895,
    "linkw": 1896,
    "symbo": 1897,
    "volume": 1898,
    "\u25810x214": 1899,
    "\u25810x44d": 1900,
    "returns": 1901,
    "\u25810x4239": 1902,
    "\u25810x4330": 1903,
    "\u25810x8a80": 1904,
    "liclinkw": 1905,
    "callbacks": 1906,
    "variablea": 1907,
    "\u25810x4e5d88": 1908,
    "\u2581ntdlldll": 1909,
    "\u25810x12112f8": 1910,
    "\u2581getsystem": 1911,
    "\u2581waitforth": 1912,
    "\u25810xfeee007d": 1913,
    "\u25810xfeee007e": 1914,
    "\u25810xfeee007f": 1915,
    "\u25810xfeee0080": 1916,
    "\u25810xfeee0081": 1917,
    "\u25810xfeee0082": 1918,
    "\u25810xfeee0083": 1919,
    "processwrite": 1920,
    "whencallback": 1921,
    "\u2581createsymbo": 1922,
    "\u2581getfilesize": 1923,
    "\u2581kernel32glob": 1924,
    "processornumber": 1925,
    "\u2581comparestringex": 1926,
    "\u2581getlocaleinfoex": 1927,
    "\u2581flushprocesswrite": 1928,
    "\u2581setthreadpoolwait": 1929,
    "whencallbackreturns": 1930,
    "\u2581createsemaphoreexw": 1931,
    "\u2581setthreadpooltimer": 1932,
    "\u2581closethreadpoolwait": 1933,
    "\u2581createsymboliclinkw": 1934,
    "\u2581getcurrentpackageid": 1935,
    "\u2581closethreadpooltimer": 1936,
    "\u2581createthreadpoolwait": 1937,
    "readpooltimercallbacks": 1938,
    "\u2581createthreadpooltimer": 1939,
    "\u2581flushprocesswritebuffers": 1940,
    "\u2581getcurrentprocessornumber": 1941,
    "\u2581freelibrarywhencallbackreturns": 1942,
    "\u2581waitforthreadpooltimercallbacks": 1943,
    "ask": 1944,
    "d0a": 1945,
    "rect": 1946,
    "onexw": 1947,
    "\u25810x43b": 1948,
    "strfrom": 1949,
    "\u25810x4208": 1950,
    "\u25810x42c0": 1951,
    "\u25810x4e50": 1952,
    "\u25810x60000": 1953,
    "\u2581getdate": 1954,
    "\u25810x42c4d8": 1955,
    "\u25810x42d4d8": 1956,
    "\u25810xa429c8": 1957,
    "windowproc": 1958,
    "\u25810x1211528": 1959,
    "\u25810x1211cc0": 1960,
    "\u25810xfeee0084": 1961,
    "\u25810xfeee0085": 1962,
    "\u25810xfeee0086": 1963,
    "\u25810xfeee0087": 1964,
    "\u25810xfeee0088": 1965,
    "\u25810xfeee0089": 1966,
    "\u25810xfeee008a": 1967,
    "\u2581varbstrfrom": 1968,
    "\u2581getstartupinf": 1969,
    "process32firstw": 1970,
    "\u2581msvcrtinitterm": 1971,
    "\u2581regsetvalueexw": 1972,
    "\u2581getcommandlinew": 1973,
    "\u2581getfileattributesw": 1974,
    "\u2581getsystemtimeasfiletime": 1975,
    "cy": 1976,
    "110": 1977,
    "32c": 1978,
    "980": 1979,
    "a04": 1980,
    "d04": 1981,
    "d80": 1982,
    "lus": 1983,
    "put": 1984,
    "debu": 1985,
    "enum": 1986,
    "uery": 1987,
    "\u2581the": 1988,
    "\u25810x1d": 1989,
    "\u25810x49": 1990,
    "eeventw": 1991,
    "\u25810x43a4": 1992,
    "\u25810x7de1": 1993,
    "endoffile": 1994,
    "\u25810x4e5ea8": 1995,
    "\u25810x1211e14": 1996,
    "\u2581setwindow": 1997,
    "\u2581advapi32get": 1998,
    "\u2581user32loadicona": 1999,
    "\u2581getmodulehandlew": 2000,
    "\u2581user32loadcursorw": 2001,
    "\u2581getmodulefilenamew": 2002,
    "53": 2003,
    "92": 2004,
    "320": 2005,
    "a10": 2006,
    "ac6": 2007,
    "lon": 2008,
    "sup": 2009,
    "uni": 2010,
    "3696": 2011,
    "mask": 2012,
    "\u2581con": 2013,
    "\u2581end": 2014,
    "\u2581mon": 2015,
    "14000": 2016,
    "18000": 2017,
    "26000": 2018,
    "28000": 2019,
    "32000": 2020,
    "34000": 2021,
    "38000": 2022,
    "58000": 2023,
    "68000": 2024,
    "692e6": 2025,
    "78000": 2026,
    "94000": 2027,
    "98000": 2028,
    "a4000": 2029,
    "a5000": 2030,
    "a8000": 2031,
    "ab000": 2032,
    "ad000": 2033,
    "c4000": 2034,
    "ituni": 2035,
    "\u25810x2f": 2036,
    "\u25810x3c": 2037,
    "suppor": 2038,
    "3696e6b": 2039,
    "\u25810x2000": 2040,
    "\u25810x4169": 2041,
    "\u25810x418a": 2042,
    "\u25810x4255": 2043,
    "\u25810x7db0": 2044,
    "692e6669": 2045,
    "linituni": 2046,
    "\u25810x41678": 2047,
    "\u25810x5265d": 2048,
    "\u2581ntdllnt": 2049,
    "dresource": 2050,
    "mapviewof": 2051,
    "\u25810x41de50": 2052,
    "codestring": 2053,
    "\u25810x1211508": 2054,
    "\u25810x1211928": 2055,
    "\u25810x1211dfc": 2056,
    "\u25810x1211fd0": 2057,
    "messageboxa": 2058,
    "\u2581globalfree": 2059,
    "\u2581globallock": 2060,
    "securityinfo": 2061,
    "\u2581globalalloc": 2062,
    "\u2581kernel32ver": 2063,
    "\u2581genericwrite": 2064,
    "\u2581globalunlock": 2065,
    "3696e6b692e6669": 2066,
    "mapviewofsection": 2067,
    "linitunicodestring": 2068,
    "\u2581ntdllntopensection": 2069,
    "\u2581getcurrentdirectoryw": 2070,
    "\u2581kernel32getcurrentprocess": 2071,
    "1d": 2072,
    "cp": 2073,
    "eb": 2074,
    "\u2581ss": 2075,
    "\u25810x38": 2076,
    "\u25810x56": 2077,
    "\u2581devi": 2078,
    "\u2581post": 2079,
    "\u25810x188": 2080,
    "\u25810x8d00": 2081,
    "\u2581getproc": 2082,
    "\u25810x44d348": 2083,
    "\u25810x4c32c0": 2084,
    "\u25810x1211dd4": 2085,
    "\u2581kernel32fin": 2086,
    "\u2581getprocaddress": 2087,
    "\u2581getuserdefault": 2088,
    "\u2581user32wsprintfw": 2089,
    "\u2581setfileattributesw": 2090,
    "\u2581drivewindowstempgolfinfoini": 2091,
    "63": 2092,
    "c04": 2093,
    "oct": 2094,
    "ray": 2095,
    "angu": 2096,
    "sing": 2097,
    "f4000": 2098,
    "\u25810x25": 2099,
    "dclose": 2100,
    "f10000": 2101,
    "ilangu": 2102,
    "\u2581local": 2103,
    "threads": 2104,
    "singleob": 2105,
    "ilanguage": 2106,
    "\u2581findnext": 2107,
    "\u25810x1211c50": 2108,
    "\u25810x1211ddc": 2109,
    "\u2581findclose": 2110,
    "\u2581findfirst": 2111,
    "\u25810x77f10000": 2112,
    "\u25810xfeee008b": 2113,
    "\u25810xfeee008c": 2114,
    "lockresource": 2115,
    "defwindowproc": 2116,
    "processthreads": 2117,
    "\u2581registerclass": 2118,
    "\u2581waitforsingleob": 2119,
    "\u2581cwindowssystem32000": 2120,
    "\u2581apimswincoreprocessthreads": 2121,
    "72": 2122,
    "180": 2123,
    "280": 2124,
    "add": 2125,
    "cel": 2126,
    "com": 2127,
    "de0": 2128,
    "fec": 2129,
    "anag": 2130,
    "phlp": 2131,
    "fmode": 2132,
    "\u25810x94": 2133,
    "access": 2134,
    "bitmap": 2135,
    "\u25810x7f0": 2136,
    "apptype": 2137,
    "\u25810x78f0": 2138,
    "\u25810x7ee0": 2139,
    "\u25810x88a0": 2140,
    "\u25810x1211a": 2141,
    "\u25810x52663": 2142,
    "\u2581destroy": 2143,
    "filenamew": 2144,
    "\u25810x1211fc4": 2145,
    "\u25810xfeee008d": 2146,
    "\u25810xfeee008e": 2147,
    "\u25810xfeee008f": 2148,
    "\u25810xfeee0090": 2149,
    "\u25810xfeee0091": 2150,
    "\u25810xfeee0092": 2151,
    "\u25810xfeee0093": 2152,
    "\u25810xfeee0094": 2153,
    "\u25810xfeee0095": 2154,
    "\u25810xfeee0096": 2155,
    "\u25810xfeee0097": 2156,
    "\u25810xfeee0098": 2157,
    "\u25810xfeee0099": 2158,
    "processorinformation": 2159,
    "88": 2160,
    "ans": 2161,
    "ce0": 2162,
    "de4": 2163,
    "e68": 2164,
    "gear": 2165,
    "ow64": 2166,
    "infol": 2167,
    "\u2581shlw": 2168,
    "110get": 2169,
    "\u25810x132": 2170,
    "l110get": 2171,
    "ysinfol": 2172,
    "\u25810x169b": 2173,
    "\u25810x420c": 2174,
    "\u25810x42b9": 2175,
    "\u25810x4bd0": 2176,
    "\u25810x7e74": 2177,
    "\u25810x7e75": 2178,
    "\u25810x7e78": 2179,
    "\u25810x7e79": 2180,
    "codegear": 2181,
    "\u25810x52664": 2182,
    "\u25810x52666": 2183,
    "\u25810x42dac6": 2184,
    "\u25810x6781d8": 2185,
    "phlpapidll": 2186,
    "setapptype": 2187,
    "\u25810x1211780": 2188,
    "\u25810xfeee009a": 2189,
    "\u25810xfeee009b": 2190,
    "\u25810xfeee009c": 2191,
    "\u2581shell32dll": 2192,
    "ysinfol110get": 2193,
    "\u2581msvcrtpfmode": 2194,
    "codegearlocales": 2195,
    "\u2581apimswincoresysinfol110get": 2196,
    "\u2581getlogicalprocessorinformation": 2197,
    "ma": 2198,
    "7a8": 2199,
    "af4": 2200,
    "exc": 2201,
    "ina": 2202,
    "ive": 2203,
    "pos": 2204,
    "sum": 2205,
    "olfp": 2206,
    "trol": 2207,
    "\u2581com": 2208,
    "32css": 2209,
    "maina": 2210,
    "manag": 2211,
    "\u25810x23": 2212,
    "\u25810x33": 2213,
    "exclus": 2214,
    "\u2581resum": 2215,
    "commode": 2216,
    "\u25810x7d94": 2217,
    "\u25810x7d95": 2218,
    "\u25810x7e7c": 2219,
    "\u25810x7e7d": 2220,
    "32cssnap": 2221,
    "mainargs": 2222,
    "exclusive": 2223,
    "\u25810x1327ec": 2224,
    "\u2581loadicon": 2225,
    "\u2581setevent": 2226,
    "\u25810x12119ac": 2227,
    "\u25810x1211bc0": 2228,
    "\u25810x1211ee0": 2229,
    "\u2581setthread": 2230,
    "\u2581th32cssnap": 2231,
    "\u2581resumethread": 2232,
    "rwlockexclusive": 2233,
    "volumeinformation": 2234,
    "\u2581createdirectoryw": 2235,
    "\u2581kernel32lstrlenw": 2236,
    "\u2581msvcrtsetapptype": 2237,
    "\u2581th32cssnapprocess": 2238,
    "\u2581advapi32regopenkeyexa": 2239,
    "\u2581kernel32createtoolhelp32snapshot": 2240,
    "gb": 2241,
    "od": 2242,
    "ary": 2243,
    "der": 2244,
    "edu": 2245,
    "nal": 2246,
    "ums": 2247,
    "ust": 2248,
    "\u2581ac": 2249,
    "ansl": 2250,
    "delp": 2251,
    "vile": 2252,
    "array": 2253,
    "wow64": 2254,
    "\u25810x3e": 2255,
    "\u25810xcc": 2256,
    "delphi": 2257,
    "\u25810x404": 2258,
    "\u2581enums": 2259,
    "anslate": 2260,
    "privile": 2261,
    "procedu": 2262,
    "variant": 2263,
    "\u25810x4371": 2264,
    "\u25810x7b80": 2265,
    "\u25810x7e80": 2266,
    "\u25810x7e81": 2267,
    "\u25810x7e84": 2268,
    "\u25810x7e85": 2269,
    "stringsa": 2270,
    "\u25810x30000": 2271,
    "\u2581isvalid": 2272,
    "controlfp": 2273,
    "itializes": 2274,
    "\u25810x1211f8": 2275,
    "\u25810x48f898": 2276,
    "\u2581dispatch": 2277,
    "\u2581getversi": 2278,
    "dresourcew": 2279,
    "\u25810x1211f34": 2280,
    "\u2581translate": 2281,
    "getmainargs": 2282,
    "\u2581enumsystem": 2283,
    "\u2581loadcursor": 2284,
    "borlanddelphi": 2285,
    "servicehandle": 2286,
    "\u2581user32create": 2287,
    "l110getcurrent": 2288,
    "\u2581defwindowproc": 2289,
    "\u2581kernel32lstrcpy": 2290,
    "\u2581user32loadiconw": 2291,
    "\u2581cwindowssystem320": 2292,
    "borlanddelphilocales": 2293,
    "\u2581kernel32initializes": 2294,
    "\u2581kernel32process32firstw": 2295,
    "\u2581getuserdefaultlocalename": 2296,
    "\u2581kernel32createdirectoryw": 2297,
    "\u2581apimswincoreprocessthreadsl110getcurrent": 2298,
    "25": 2299,
    "3a": 2300,
    "7f": 2301,
    "een": 2302,
    "f04": 2303,
    "ted": 2304,
    "uit": 2305,
    "uld": 2306,
    "dint": 2307,
    "disk": 2308,
    "guar": 2309,
    "texw": 2310,
    "\u2581ole": 2311,
    "\u2581ws2": 2312,
    "antee": 2313,
    "could": 2314,
    "ethod": 2315,
    "notbe": 2316,
    "stack": 2317,
    "utdow": 2318,
    "\u25810x92": 2319,
    "\u25810x99": 2320,
    "\u2581exit": 2321,
    "dinthe": 2322,
    "\u25810x3bc": 2323,
    "scmanag": 2324,
    "stringw": 2325,
    "\u25810x42e8": 2326,
    "\u25810x4400": 2327,
    "\u25810x8230": 2328,
    "\u25810x8260": 2329,
    "\u25810x8920": 2330,
    "\u25810x8cf0": 2331,
    "diskfree": 2332,
    "owwindow": 2333,
    "\u25810x52665": 2334,
    "atethread": 2335,
    "errormode": 2336,
    "guarantee": 2337,
    "localesex": 2338,
    "\u25810x1210ec": 2339,
    "\u2581endpaint": 2340,
    "couldnotbe": 2341,
    "uitmessage": 2342,
    "\u25810x1211a04": 2343,
    "\u2581beginpaint": 2344,
    "\u2581theprocedu": 2345,
    "locatedinthe": 2346,
    "\u2581deletefilea": 2347,
    "stackguarantee": 2348,
    "\u2581msvcrtpcommode": 2349,
    "\u2581getdateformatex": 2350,
    "\u2581gettimeformatex": 2351,
    "\u2581msvcrtcontrolfp": 2352,
    "\u2581terminatethread": 2353,
    "\u2581isvalidlocalename": 2354,
    "\u2581enumsystemlocalesex": 2355,
    "couldnotbelocatedinthe": 2356,
    "\u2581setthreadstackguarantee": 2357,
    "\u2581initializecriticalsection": 2358,
    "\u2581kernel32getsystemdirectoryw": 2359,
    "65": 2360,
    "77": 2361,
    "ay": 2362,
    "ug": 2363,
    "268": 2364,
    "e44": 2365,
    "ful": 2366,
    "sti": 2367,
    "tof": 2368,
    "typ": 2369,
    "\u2581no": 2370,
    "full": 2371,
    "stit": 2372,
    "uary": 2373,
    "utes": 2374,
    "utof": 2375,
    "with": 2376,
    "\u2581apr": 2377,
    "\u2581aug": 2378,
    "\u2581dec": 2379,
    "\u2581fri": 2380,
    "\u2581may": 2381,
    "\u2581sat": 2382,
    "\u2581sep": 2383,
    "\u2581sun": 2384,
    "\u2581tue": 2385,
    "\u2581wed": 2386,
    "foreg": 2387,
    "round": 2388,
    "value": 2389,
    "\u25810x83": 2390,
    "\u25810x86": 2391,
    "byzero": 2392,
    "f00d0a": 2393,
    "sizeof": 2394,
    "ysical": 2395,
    "\u25810x3e8": 2396,
    "fontsub": 2397,
    "\u25810x4189": 2398,
    "\u25810x42e0": 2399,
    "\u25810x4353": 2400,
    "\u25810x4373": 2401,
    "division": 2402,
    "stitutes": 2403,
    "\u25810x5265e": 2404,
    "\u2581variant": 2405,
    "supported": 2406,
    "\u25810x1210e8": 2407,
    "\u25810x1210f8": 2408,
    "\u2581heapfree": 2409,
    "\u2581ws232dll": 2410,
    "\u2581wsprintf": 2411,
    "foreground": 2412,
    "scmanagerw": 2413,
    "\u25810x120e6d4": 2414,
    "\u25810x1211c04": 2415,
    "\u25810x1211d04": 2416,
    "\u2581heapalloc": 2417,
    "\u2581localalloc": 2418,
    "\u2581getdiskfree": 2419,
    "\u2581kingkarton10": 2420,
    "divisionbyzero": 2421,
    "sizeofresource": 2422,
    "\u2581floatingpoint": 2423,
    "fileattributesa": 2424,
    "fontsubstitutes": 2425,
    "\u2581createprocessa": 2426,
    "\u2581getprocessheap": 2427,
    "\u2581invalidvariant": 2428,
    "\u2581openscmanagerw": 2429,
    "foregroundwindow": 2430,
    "\u2581getcommandlinea": 2431,
    "\u2581closeservicehandle": 2432,
    "\u2581kernel32createfilea": 2433,
    "\u2581createtoolhelp32snapshot": 2434,
    "currentversionfontsubstitutes": 2435,
    "588": 2436,
    "7c3": 2437,
    "c08": 2438,
    "ffc": 2439,
    "fol": 2440,
    "oem": 2441,
    "ryp": 2442,
    "\u2581un": 2443,
    "chan": 2444,
    "comp": 2445,
    "work": 2446,
    "\u25810x37": 2447,
    "\u25810x6d": 2448,
    "folder": 2449,
    "\u25810x410": 2450,
    "\u25810x41f3": 2451,
    "\u25810x4317": 2452,
    "\u25810x437a": 2453,
    "\u25810x8d80": 2454,
    "ateprocess": 2455,
    "datewindow": 2456,
    "\u2581apimswinc": 2457,
    "\u2581exitthread": 2458,
    "\u2581findnextfilew": 2459,
    "\u2581findfirstfilew": 2460,
    "\u2581translatemessage": 2461,
    "environmentvariablew": 2462,
    "\u2581kernel32getsysteminfo": 2463,
    "3b": 2464,
    "pe": 2465,
    "\u2581e": 2466,
    "1e7": 2467,
    "208": 2468,
    "ink": 2469,
    "sid": 2470,
    "\u2581wa": 2471,
    "exec": 2472,
    "teen": 2473,
    "writ": 2474,
    "iseex": 2475,
    "\u25810x1b": 2476,
    "\u25810x5a": 2477,
    "\u25810x68": 2478,
    "\u25810xe0": 2479,
    "\u2581temp": 2480,
    "\u2581writ": 2481,
    "\u25810x43d": 2482,
    "destroy": 2483,
    "systemp": 2484,
    "textout": 2485,
    "\u25810x4010": 2486,
    "\u25810x42a7": 2487,
    "\u25810x45a0": 2488,
    "\u25810x78c0": 2489,
    "\u25810x7db4": 2490,
    "\u25810x7db5": 2491,
    "\u25810x8f70": 2492,
    "aletteen": 2493,
    "\u25810x437ad": 2494,
    "\u25810x437c4": 2495,
    "\u2581lstrcmp": 2496,
    "\u25810x1210e0": 2497,
    "\u25810x1210f4": 2498,
    "\u25810x41de08": 2499,
    "\u25810x4371e6": 2500,
    "\u25810x4371e7": 2501,
    "\u25810x5607a8": 2502,
    "\u2581writecon": 2503,
    "\u25810x1211f28": 2504,
    "\u2581copyfilew": 2505,
    "\u2581getconsole": 2506,
    "\u2581openalways": 2507,
    "\u2581openthread": 2508,
    "iseexception": 2509,
    "readpoolwork": 2510,
    "setcondition": 2511,
    "wow64process": 2512,
    "\u2581openprocess": 2513,
    "aletteentries": 2514,
    "\u2581getusernamew": 2515,
    "\u2581createprocessw": 2516,
    "\u2581gettickcount64": 2517,
    "\u2581sleepcondition": 2518,
    "setconditionmask": 2519,
    "\u2581gdi32getsystemp": 2520,
    "\u2581user32loadcursora": 2521,
    "letecriticalsection": 2522,
    "\u2581getenvironmentvariablew": 2523,
    "\u2581softwaremicrosoftwindows": 2524,
    "\u2581setsecuritydescriptordacl": 2525,
    "\u2581kernel32versetconditionmask": 2526,
    "\u2581gdi32getsystempaletteentries": 2527,
    "\u2581initializesecuritydescriptor": 2528,
    "ok": 2529,
    "7d8": 2530,
    "eev": 2531,
    "ifi": 2532,
    "eeven": 2533,
    "sourc": 2534,
    "\u25810x24": 2535,
    "muldiv": 2536,
    "\u2581ole32": 2537,
    "0000000": 2538,
    "\u25810x4790": 2539,
    "\u25810x4feb": 2540,
    "\u25810x7090": 2541,
    "\u25810x7b90": 2542,
    "\u25810x7be0": 2543,
    "\u25810x7bf0": 2544,
    "computer": 2545,
    "\u2581setfile": 2546,
    "eeventexw": 2547,
    "\u25810x43b7b9": 2548,
    "\u2581register": 2549,
    "\u25810x1211f00": 2550,
    "\u25810x1211f3c": 2551,
    "\u2581getwindow": 2552,
    "\u2581createeventexw": 2553,
    "informationbyhandl": 2554,
    "\u2581kernel32loadlibraryw": 2555,
    "\u2581setfileinformationby": 2556,
    "\u2581user32createwindowexa": 2557,
    "\u2581getenvironmentvariablea": 2558,
    "\u2581getfileinformationbyhandl": 2559,
    "1b": 2560,
    "exe": 2561,
    "a9a0": 2562,
    "ater": 2563,
    "head": 2564,
    "safe": 2565,
    "antor": 2566,
    "\u25810x29": 2567,
    "\u25810x3d": 2568,
    "\u2581varr": 2569,
    "search": 2570,
    "setini": 2571,
    "\u25810x41b": 2572,
    "\u2581check": 2573,
    "\u25810x42ce": 2574,
    "\u25810x7540": 2575,
    "\u25810x78a0": 2576,
    "\u25810x7a80": 2577,
    "\u25810x7bd0": 2578,
    "\u25810x7d98": 2579,
    "\u25810x7d99": 2580,
    "\u25810x7d9c": 2581,
    "\u25810x7d9d": 2582,
    "\u25810x7da0": 2583,
    "\u25810x7da1": 2584,
    "\u25810x7da4": 2585,
    "\u25810x7da5": 2586,
    "\u25810x7da8": 2587,
    "\u25810x7da9": 2588,
    "\u25810x7dac": 2589,
    "\u25810x7dad": 2590,
    "\u25810x7db1": 2591,
    "4fromstr": 2592,
    "classlon": 2593,
    "listhead": 2594,
    "\u25810x1210d": 2595,
    "\u25810x43300": 2596,
    "\u25810x5265f": 2597,
    "\u25810x58000": 2598,
    "\u25810x7ee00": 2599,
    "\u2581release": 2600,
    "\u2581shlwapi": 2601,
    "antorsafe": 2602,
    "tryaccess": 2603,
    "\u25810x1210e4": 2604,
    "\u25810x1210e5": 2605,
    "\u25810x1210ee": 2606,
    "\u25810x1210f0": 2607,
    "\u25810x40933d": 2608,
    "\u25810x40933e": 2609,
    "\u25810x40933f": 2610,
    "\u25810x409340": 2611,
    "\u25810x409341": 2612,
    "\u25810x409342": 2613,
    "\u25810x409343": 2614,
    "\u25810x40a59e": 2615,
    "\u25810x40a5a0": 2616,
    "\u25810x40a5a2": 2617,
    "\u25810x40a5a4": 2618,
    "\u25810x40a5a6": 2619,
    "\u25810x40a5a8": 2620,
    "\u25810x40a5aa": 2621,
    "\u25810x40a5ce": 2622,
    "\u25810x40a5d0": 2623,
    "\u25810x40a5d2": 2624,
    "\u25810x40a5d4": 2625,
    "\u25810x40a5d6": 2626,
    "\u25810x40a5d8": 2627,
    "\u25810x40a5da": 2628,
    "\u25810x40b3df": 2629,
    "\u25810x40b3e0": 2630,
    "\u25810x40b3e1": 2631,
    "\u25810x40b3e2": 2632,
    "\u25810x40b3e3": 2633,
    "\u25810x40b3e4": 2634,
    "\u25810x40b3e5": 2635,
    "\u25810x42a9a0": 2636,
    "\u25810x42b9a0": 2637,
    "\u25810x42d8c6": 2638,
    "\u25810x43b7c3": 2639,
    "\u25810x44f928": 2640,
    "golfsetini": 2641,
    "searchpath": 2642,
    "\u25810x120e6d0": 2643,
    "\u2581flushfile": 2644,
    "\u2581filetimeto": 2645,
    "\u2581heapcreate": 2646,
    "\u2581getmessagea": 2647,
    "\u2581heaprealloc": 2648,
    "tempfilenamew": 2649,
    "antorsafearray": 2650,
    "\u2581registryaccess": 2651,
    "\u2581dispatchmessagea": 2652,
    "\u2581flushfilebuffers": 2653,
    "\u2581terminateprocess": 2654,
    "\u2581getcurrentprocess": 2655,
    "\u2581hkeylocalmachinesoftware": 2656,
    "\u2581unhandledexceptionfilter": 2657,
    "\u2581kernel32initializeslisthead": 2658,
    "\u2581setunhandledexceptionfilter": 2659,
    "57": 2660,
    "ty": 2661,
    "121": 2662,
    "a88": 2663,
    "eto": 2664,
    "ioc": 2665,
    "\u2581ra": 2666,
    "menu": 2667,
    "prec": 2668,
    "rypt": 2669,
    "wind": 2670,
    "debug": 2671,
    "oemcp": 2672,
    "texta": 2673,
    "\u25810xa0": 2674,
    "um1646": 2675,
    "unwind": 2676,
    "ut1646": 2677,
    "\u25810x364": 2678,
    "\u25810x438": 2679,
    "\u25810x622": 2680,
    "\u2581setst": 2681,
    "aterect": 2682,
    "\u25810x4548": 2683,
    "\u25810x4c46": 2684,
    "\u25810x4d70": 2685,
    "\u25810x7830": 2686,
    "\u25810x7cd0": 2687,
    "\u2581getacp": 2688,
    "\u2581google": 2689,
    "\u2581lstrlen": 2690,
    "\u2581winexec": 2691,
    "temppatha": 2692,
    "\u2581getoemcp": 2693,
    "\u25810x121193c": 2694,
    "\u25810x1211cdc": 2695,
    "\u25810x1211de4": 2696,
    "\u25810x1211f20": 2697,
    "\u25810x1211fc8": 2698,
    "\u2581getcpinfo": 2699,
    "\u2581rtlunwind": 2700,
    "\u2581getfiletype": 2701,
    "\u2581createeventa": 2702,
    "\u2581getstdhandle": 2703,
    "\u2581lcmapstringw": 2704,
    "\u2581setstdhandle": 2705,
    "\u2581theprocedure": 2706,
    "\u2581imagelistdrag": 2707,
    "\u2581regopenkeyexa": 2708,
    "\u2581getstringtypew": 2709,
    "\u2581sethandlecount": 2710,
    "\u2581getsystemmetrics": 2711,
    "\u2581setfileattributesa": 2712,
    "\u2581multibytetowidechar": 2713,
    "\u2581widechartomultibyte": 2714,
    "\u2581getenvironmentstringsw": 2715,
    "\u2581cwindowstempgolfinfoini": 2716,
    "\u2581freeenvironmentstringsw": 2717,
    "99": 2718,
    "gd": 2719,
    "770": 2720,
    "a58": 2721,
    "b1f": 2722,
    "lid": 2723,
    "90c8": 2724,
    "l121": 2725,
    "artup": 2726,
    "e4000": 2727,
    "f8000": 2728,
    "\u25810x51": 2729,
    "untime": 2730,
    "\u2581getdc": 2731,
    "hysical": 2732,
    "localiz": 2733,
    "\u25810x40b8": 2734,
    "\u25810x41d1": 2735,
    "\u25810x4519": 2736,
    "\u25810x4b80": 2737,
    "\u25810x7150": 2738,
    "\u25810x72a0": 2739,
    "\u25810x73f0": 2740,
    "\u25810x7690": 2741,
    "\u25810x77e0": 2742,
    "\u25810x7db8": 2743,
    "\u25810x7db9": 2744,
    "\u25810x7dbc": 2745,
    "\u25810x7dbd": 2746,
    "\u25810x7df0": 2747,
    "ationl121": 2748,
    "\u25810x1210f5": 2749,
    "\u25810x41bc20": 2750,
    "\u25810x4317e0": 2751,
    "\u25810x4330c8": 2752,
    "\u25810x4350c8": 2753,
    "\u25810x4390c8": 2754,
    "\u25810x43d390": 2755,
    "\u2581tlsalloc": 2756,
    "\u25810x1211bf4": 2757,
    "\u25810x1211f4c": 2758,
    "\u25810x67000000": 2759,
    "\u2581getkeystate": 2760,
    "\u2581tlsgetvalue": 2761,
    "\u2581tlssetvalue": 2762,
    "\u2581setlasterror": 2763,
    "\u2581setwindowpos": 2764,
    "\u2581kernel32global": 2765,
    "\u2581raiseexception": 2766,
    "localizationl121": 2767,
    "servicectrlhandl": 2768,
    "\u2581kernel32lstrcpyn": 2769,
    "\u2581getprivateprofile": 2770,
    "\u2581getforegroundwindow": 2771,
    "\u2581entercriticalsection": 2772,
    "\u2581interlockeddecrement": 2773,
    "\u2581interlockedincrement": 2774,
    "\u2581kernel32createeventa": 2775,
    "\u2581leavecriticalsection": 2776,
    "\u2581deletecriticalsection": 2777,
    "\u2581user32getsyscolorbrush": 2778,
    "\u2581softwaremicrosoftwindowsnt": 2779,
    "c2": 2780,
    "e7": 2781,
    "570": 2782,
    "ace": 2783,
    "b20": 2784,
    "de9": 2785,
    "e6c": 2786,
    "msg": 2787,
    "tob": 2788,
    "usp": 2789,
    "spac": 2790,
    "spec": 2791,
    "pinga": 2792,
    "\u25810x36": 2793,
    "\u25810x4f": 2794,
    "\u25810x58": 2795,
    "lectob": 2796,
    "utdown": 2797,
    "valuew": 2798,
    "\u25810x40e": 2799,
    "\u25810x4c3": 2800,
    "filemap": 2801,
    "\u25810x4245": 2802,
    "\u25810x7d50": 2803,
    "\u25810x7dc0": 2804,
    "\u25810x7dc1": 2805,
    "dispatch": 2806,
    "privileg": 2807,
    "\u2581ole32co": 2808,
    "\u2581settext": 2809,
    "\u25810x42c588": 2810,
    "\u2581gdi32dll": 2811,
    "\u2581shutdown": 2812,
    "folderpath": 2813,
    "\u25810x1211e20": 2814,
    "\u25810x1211e44": 2815,
    "\u25810x1211ef0": 2816,
    "\u25810x1211f2c": 2817,
    "\u25810x1211fc0": 2818,
    "filemappinga": 2819,
    "servicestatus": 2820,
    "\u2581setendoffile": 2821,
    "\u2581user32wsprintfa": 2822,
    "\u2581createdirectorya": 2823,
    "\u2581kernel32lstrlena": 2824,
    "servicectrldispatch": 2825,
    "\u2581kernel32globalalloc": 2826,
    "\u2581registerservicectrlhandl": 2827,
    "\u2581isprocessorfeaturepresent": 2828,
    "\u2581apimswincorelocalizationl121": 2829,
    "3d": 2830,
    "95": 2831,
    "9f": 2832,
    "bk": 2833,
    "378": 2834,
    "656": 2835,
    "726": 2836,
    "768": 2837,
    "776": 2838,
    "a48": 2839,
    "ac4": 2840,
    "afc": 2841,
    "cc8": 2842,
    "dlg": 2843,
    "e00": 2844,
    "e80": 2845,
    "f40": 2846,
    "ger": 2847,
    "ind": 2848,
    "cept": 2849,
    "clip": 2850,
    "alter": 2851,
    "d8000": 2852,
    "uires": 2853,
    "\u25810x55": 2854,
    "\u25810xd0": 2855,
    "uspend": 2856,
    "\u25810x508": 2857,
    "\u25810x51a": 2858,
    "\u2581setbk": 2859,
    "\u2581ssdll": 2860,
    "altered": 2861,
    "\u25810x10e9": 2862,
    "\u25810x3f31": 2863,
    "\u25810x41a5": 2864,
    "\u25810x430d": 2865,
    "\u25810x8f20": 2866,
    "\u25810xa41e": 2867,
    "\u25810xfde9": 2868,
    "astartup": 2869,
    "debugger": 2870,
    "\u25810x12113": 2871,
    "\u25810x1f000": 2872,
    "\u25810x43780": 2873,
    "\u25810x44280": 2874,
    "\u25810x68000": 2875,
    "\u2581tlsfree": 2876,
    "\u25810x1210e2": 2877,
    "\u25810xa42a10": 2878,
    "\u2581heapsize": 2879,
    "\u2581loadwith": 2880,
    "\u2581selectob": 2881,
    "\u25810x121157c": 2882,
    "\u25810x1211768": 2883,
    "\u25810x12117a4": 2884,
    "\u25810x121194c": 2885,
    "\u25810x1211f04": 2886,
    "\u25810x1211f48": 2887,
    "\u2581copyfilea": 2888,
    "\u2581loadicona": 2889,
    "\u2581setbkcolor": 2890,
    "\u2581showwindow": 2891,
    "uspendthread": 2892,
    "\u2581openservicew": 2893,
    "\u2581settextcolor": 2894,
    "\u2581startservicew": 2895,
    "debuggerpresent": 2896,
    "\u2581createservicew": 2897,
    "\u2581process32first": 2898,
    "\u2581getdiskfreespac": 2899,
    "\u2581loadwithaltered": 2900,
    "\u2581setservicestatus": 2901,
    "\u2581googletempgum1646": 2902,
    "\u2581googletempgut1646": 2903,
    "uiresrwlockexclusive": 2904,
    "\u2581user32registerclassa": 2905,
    "servicectrldispatcherw": 2906,
    "\u2581softwareborlandlocales": 2907,
    "\u2581loadwithalteredsearchpath": 2908,
    "\u2581startservicectrldispatcherw": 2909,
    "\u2581softwaremicrosoftwindowsntcurrentversionfontsubstitutes": 2910,
    "bl": 2911,
    "188": 2912,
    "blt": 2913,
    "d50": 2914,
    "fer": 2915,
    "ac45": 2916,
    "ba40": 2917,
    "mutex": 2918,
    "shget": 2919,
    "\u25810x2d": 2920,
    "\u25810x5b": 2921,
    "bitblt": 2922,
    "\u25810x41d": 2923,
    "\u25810x42d5": 2924,
    "\u25810x4c02": 2925,
    "\u25810x7c70": 2926,
    "\u25810x9010": 2927,
    "clipboar": 2928,
    "textouta": 2929,
    "validate": 2930,
    "\u25810x20000": 2931,
    "\u25810x4c46d0": 2932,
    "\u25810x51aa40": 2933,
    "\u25810x53ba40": 2934,
    "\u2581deletedc": 2935,
    "\u2581deleteob": 2936,
    "boardstate": 2937,
    "classlonga": 2938,
    "\u25810x1211fdc": 2939,
    "\u25810x5265c28": 2940,
    "\u2581findwindow": 2941,
    "\u2581destroyicon": 2942,
    "\u2581shlwapipath": 2943,
    "\u2581createmutexa": 2944,
    "\u2581getusernamea": 2945,
    "\u2581releasemutex": 2946,
    "\u2581sendmessagea": 2947,
    "\u2581shell32shget": 2948,
    "\u2581updatewindow": 2949,
    "\u2581mapviewoffile": 2950,
    "\u2581suspendthread": 2951,
    "\u2581defwindowproca": 2952,
    "\u2581invalidaterect": 2953,
    "\u2581createwindowexa": 2954,
    "\u2581getstartupinfoa": 2955,
    "\u2581unmapviewoffile": 2956,
    "\u2581getkeyboardstate": 2957,
    "\u2581registerclassexa": 2958,
    "\u2581user32messageboxa": 2959,
    "\u2581createfilemappinga": 2960,
    "\u2581kernel32heapvalidate": 2961,
    "\u2581kernel32iswow64process": 2962,
    "\u2581getlogicaldrivestringsw": 2963,
    "62": 2964,
    "6d": 2965,
    "002": 2966,
    "a70": 2967,
    "can": 2968,
    "dib": 2969,
    "ecv": 2970,
    "geo": 2971,
    "hgd": 2972,
    "hip": 2973,
    "rtr": 2974,
    "\u2581al": 2975,
    "ator": 2976,
    "bits": 2977,
    "ecta": 2978,
    "esid": 2979,
    "fill": 2980,
    "host": 2981,
    "lect": 2982,
    "mpty": 2983,
    "nect": 2984,
    "numw": 2985,
    "peer": 2986,
    "redu": 2987,
    "\u2581mpr": 2988,
    "ctl32": 2989,
    "d4000": 2990,
    "ddata": 2991,
    "geoid": 2992,
    "octls": 2993,
    "refer": 2994,
    "solid": 2995,
    "\u25810xca": 2996,
    "\u2581bind": 2997,
    "\u2581fill": 2998,
    "\u2581list": 2999,
    "\u2581recv": 3000,
    "byname": 3001,
    "cancel": 3002,
    "dibits": 3003,
    "erator": 3004,
    "fontin": 3005,
    "hgdraw": 3006,
    "malloc": 3007,
    "socket": 3008,
    "uteexw": 3009,
    "\u2581empty": 3010,
    "\u2581endup": 3011,
    "\u2581error": 3012,
    "\u2581getob": 3013,
    "\u2581htonl": 3014,
    "\u2581htons": 3015,
    "bership": 3016,
    "directa": 3017,
    "ueryval": 3018,
    "\u25810x40f6": 3019,
    "\u25810x42a0": 3020,
    "\u25810x43b6": 3021,
    "\u25810x7330": 3022,
    "\u25810x8c60": 3023,
    "\u2581accept": 3024,
    "\u2581bitblt": 3025,
    "\u2581closec": 3026,
    "\u2581crtdll": 3027,
    "\u2581ioctls": 3028,
    "\u2581listen": 3029,
    "\u2581mprdll": 3030,
    "\u2581select": 3031,
    "\u2581socket": 3032,
    "iconinfo": 3033,
    "peername": 3034,
    "ticonexw": 3035,
    "tokenmem": 3036,
    "\u25810x2ac45": 3037,
    "\u25810x5c000": 3038,
    "\u25810x7b000": 3039,
    "\u2581connect": 3040,
    "\u2581freesid": 3041,
    "\u2581gethost": 3042,
    "\u2581ntdllrt": 3043,
    "\u2581rtlzero": 3044,
    "\u2581wnetadd": 3045,
    "hgdrawdll": 3046,
    "locateand": 3047,
    "openenumw": 3048,
    "referredu": 3049,
    "resourcew": 3050,
    "rtruntime": 3051,
    "\u25810x1210e6": 3052,
    "\u25810x3f34e0": 3053,
    "\u25810x4237d8": 3054,
    "\u25810x496760": 3055,
    "\u2581comctl32": 3056,
    "\u2581drawicon": 3057,
    "\u2581fillrect": 3058,
    "\u2581settimer": 3059,
    "\u2581textouta": 3060,
    "\u2581wnetenum": 3061,
    "dibsection": 3062,
    "ilanguages": 3063,
    "solidbrush": 3064,
    "\u25810x1211568": 3065,
    "\u2581drawtexta": 3066,
    "\u2581getdibits": 3067,
    "folderpathw": 3068,
    "profilel110": 3069,
    "\u2581wnetcancel": 3070,
    "\u2581wsastartup": 3071,
    "\u2581allocateand": 3072,
    "\u2581closesocket": 3073,
    "\u2581findwindowa": 3074,
    "\u2581geticoninfo": 3075,
    "\u2581getpeername": 3076,
    "\u2581ioctlsocket": 3077,
    "\u2581loadcursora": 3078,
    "\u2581setclipboar": 3079,
    "dateresourcew": 3080,
    "fontindirecta": 3081,
    "initializesid": 3082,
    "\u2581getusergeoid": 3083,
    "\u2581loadresource": 3084,
    "\u2581lockresource": 3085,
    "\u2581shellexecute": 3086,
    "readpreferredu": 3087,
    "\u2581checktokenmem": 3088,
    "\u2581findwindowexa": 3089,
    "\u2581gethostbyname": 3090,
    "\u2581openclipboard": 3091,
    "\u2581rtlzeromemory": 3092,
    "\u2581setclasslonga": 3093,
    "\u2581wnetopenenumw": 3094,
    "\u2581closeclipboard": 3095,
    "\u2581emptyclipboard": 3096,
    "\u2581extracticonexw": 3097,
    "\u2581shellexecuteexw": 3098,
    "\u2581updateresourcea": 3099,
    "\u2581createdibsection": 3100,
    "\u2581createsolidbrush": 3101,
    "\u2581setclipboarddata": 3102,
    "\u2581crtdllgetmainargs": 3103,
    "\u2581wnetenumresourcew": 3104,
    "\u2581apimswincrtruntime": 3105,
    "\u2581createcompatibledc": 3106,
    "\u2581endupdateresourcea": 3107,
    "\u2581createfontindirecta": 3108,
    "\u2581getcurrentprocessid": 3109,
    "\u2581getsystemdirectoryw": 3110,
    "\u2581wnetaddconnection2w": 3111,
    "\u2581beginupdateresourcea": 3112,
    "\u2581beginupdateresourcew": 3113,
    "\u2581checktokenmembership": 3114,
    "\u2581kernel32createeventw": 3115,
    "\u2581createcompatiblebitmap": 3116,
    "\u2581extractassociatedicona": 3117,
    "\u2581extractassociatediconw": 3118,
    "\u2581wnetcancelconnection2w": 3119,
    "readpreferreduilanguages": 3120,
    "\u2581apimswincoreprofilel110": 3121,
    "\u2581getlogicaldrivestringsa": 3122,
    "\u2581allocateandinitializesid": 3123,
    "\u2581registerservicectrlhandlerw": 3124,
    "\u2581kernel32getvolumeinformation": 3125,
    "\u2581kernel32getenvironmentvariablew": 3126,
    "6b": 3127,
    "93": 3128,
    "do": 3129,
    "ab8": 3130,
    "all": 3131,
    "b48": 3132,
    "b98": 3133,
    "ols": 3134,
    "287e": 3135,
    "endw": 3136,
    "hels": 3137,
    "prog": 3138,
    "rand": 3139,
    "\u2581dup": 3140,
    "e8000": 3141,
    "\u25810x35": 3142,
    "\u25810x7f": 3143,
    "\u2581work": 3144,
    "e50000": 3145,
    "inkifi": 3146,
    "\u25810x432": 3147,
    "\u25810x655": 3148,
    "appendw": 3149,
    "\u25810x4112": 3150,
    "\u25810x4115": 3151,
    "\u25810x6223": 3152,
    "\u25810x7aa0": 3153,
    "\u25810x7cc0": 3154,
    "\u25810x7d10": 3155,
    "\u25810x8bd0": 3156,
    "\u25810x8be0": 3157,
    "\u25810x8c00": 3158,
    "\u25810x8c10": 3159,
    "\u25810x8c30": 3160,
    "\u25810x8c40": 3161,
    "\u25810x8d20": 3162,
    "\u25810x9020": 3163,
    "\u2581duplic": 3164,
    "controls": 3165,
    "dresourc": 3166,
    "\u25810x51000": 3167,
    "\u25810x52000": 3168,
    "\u25810x54000": 3169,
    "\u25810xb0000": 3170,
    "\u2581lstrcpy": 3171,
    "\u25810x107568": 3172,
    "\u25810x40287e": 3173,
    "\u25810x42e5f8": 3174,
    "\u25810x4305f8": 3175,
    "\u25810x4c3308": 3176,
    "\u25810xa42980": 3177,
    "\u25810xa429f8": 3178,
    "\u2581workhels": 3179,
    "\u25810x1211bd0": 3180,
    "\u25810x1211f6c": 3181,
    "\u25810x1e00000": 3182,
    "\u25810x1e50000": 3183,
    "\u2581wsprintfa": 3184,
    "\u25810x65500000": 3185,
    "dresourceexw": 3186,
    "computernamea": 3187,
    "\u2581regopenkeyexw": 3188,
    "\u2581virtualprotect": 3189,
    "\u2581workhelsinkifi": 3190,
    "\u2581advapi32initializ": 3191,
    "\u2581writeprivateprofile": 3192,
    "\u2581kernel32findresourceexw": 3193,
    "\u2581kernel32getcomputernamea": 3194,
    "\u2581advapi32setsecuritydescriptordacl": 3195,
    "\u2581advapi32initializesecuritydescriptor": 3196,
    "2e": 3197,
    "61": 3198,
    "ea": 3199,
    "101": 3200,
    "38c": 3201,
    "56f": 3202,
    "680": 3203,
    "94c": 3204,
    "9c1": 3205,
    "adm": 3206,
    "ang": 3207,
    "dri": 3208,
    "ec8": 3209,
    "fac": 3210,
    "izn": 3211,
    "nex": 3212,
    "26b2": 3213,
    "97a6": 3214,
    "acla": 3215,
    "driv": 3216,
    "lecs": 3217,
    "todo": 3218,
    "656c7": 3219,
    "74726": 3220,
    "776f7": 3221,
    "c8000": 3222,
    "ce000": 3223,
    "datom": 3224,
    "de000": 3225,
    "ec000": 3226,
    "ee000": 3227,
    "ff000": 3228,
    "keall": 3229,
    "menui": 3230,
    "uerys": 3231,
    "\u25810x27": 3232,
    "\u25810x39": 3233,
    "\u25810x57": 3234,
    "\u25810x62": 3235,
    "\u25810x81": 3236,
    "\u25810x97": 3237,
    "\u25810xaa": 3238,
    "\u2581init": 3239,
    "\u2581ntun": 3240,
    "1646d7": 3241,
    "97a6e6": 3242,
    "inacla": 3243,
    "iznadm": 3244,
    "serror": 3245,
    "\u2581rtlnt": 3246,
    "26b2e68": 3247,
    "entries": 3248,
    "\u25810x409a": 3249,
    "\u25810x414f": 3250,
    "\u25810x4168": 3251,
    "\u25810x4170": 3252,
    "\u25810x4259": 3253,
    "\u25810x42b3": 3254,
    "\u25810x4420": 3255,
    "\u25810x45fc": 3256,
    "\u25810x4615": 3257,
    "\u25810x7f03": 3258,
    "\u25810x8310": 3259,
    "\u25810x84b0": 3260,
    "\u25810x8814": 3261,
    "\u25810x8aa0": 3262,
    "\u25810x8ab0": 3263,
    "\u25810x8ba0": 3264,
    "\u25810x8bb0": 3265,
    "\u25810x8c70": 3266,
    "\u25810x8c90": 3267,
    "\u25810x8ca0": 3268,
    "\u25810x8cd0": 3269,
    "\u25810x9030": 3270,
    "\u25810xa000": 3271,
    "\u2581system": 3272,
    "menuitem": 3273,
    "\u25810x1210c": 3274,
    "\u25810x40af4": 3275,
    "\u25810x40ef1": 3276,
    "\u25810x416ed": 3277,
    "\u25810x52667": 3278,
    "\u2581devicep": 3279,
    "\u2581globalf": 3280,
    "\u2581wakeall": 3281,
    "pathnamew": 3282,
    "usernamea": 3283,
    "\u25810x1f0001": 3284,
    "\u25810x41678c": 3285,
    "\u25810x41678d": 3286,
    "\u25810x4169c0": 3287,
    "\u25810x4169c1": 3288,
    "\u25810x423b1f": 3289,
    "\u25810x423b20": 3290,
    "\u25810x4255ef": 3291,
    "\u25810x4255f0": 3292,
    "\u25810x42956f": 3293,
    "\u25810x429570": 3294,
    "\u25810x42d498": 3295,
    "\u25810xca0000": 3296,
    "\u2581triznadm": 3297,
    "econdition": 3298,
    "initialize": 3299,
    "openmutexa": 3300,
    "statustodo": 3301,
    "uerysystem": 3302,
    "variablecs": 3303,
    "\u25810x12119f0": 3304,
    "\u25810x1211e08": 3305,
    "\u25810x1211efc": 3306,
    "7472697a6e6": 3307,
    "\u25810x77001000": 3308,
    "\u25810x77002000": 3309,
    "\u25810x77003000": 3310,
    "\u25810x77004000": 3311,
    "\u25810x77005000": 3312,
    "\u25810x77006000": 3313,
    "\u25810x77007000": 3314,
    "\u25810x77008000": 3315,
    "\u25810x77009000": 3316,
    "\u25810x7700a000": 3317,
    "\u25810x7700b000": 3318,
    "\u25810x7700c000": 3319,
    "\u25810x7700d000": 3320,
    "\u25810x7700e000": 3321,
    "\u25810x7700f000": 3322,
    "\u25810x77010000": 3323,
    "\u25810x77011000": 3324,
    "\u25810x77012000": 3325,
    "\u25810x77013000": 3326,
    "\u25810x77014000": 3327,
    "\u25810x77015000": 3328,
    "\u25810x77016000": 3329,
    "\u25810x77017000": 3330,
    "\u25810x77018000": 3331,
    "\u25810x77019000": 3332,
    "\u25810x7701a000": 3333,
    "\u25810x7701b000": 3334,
    "\u25810x7701c000": 3335,
    "\u25810x7701d000": 3336,
    "\u25810x7701e000": 3337,
    "\u25810x7701f000": 3338,
    "\u25810x77020000": 3339,
    "\u25810x77021000": 3340,
    "\u25810x77022000": 3341,
    "\u25810x77023000": 3342,
    "\u25810x77024000": 3343,
    "\u25810x77025000": 3344,
    "\u25810x77026000": 3345,
    "\u25810x77027000": 3346,
    "\u25810x77028000": 3347,
    "\u25810x77029000": 3348,
    "\u25810x7702a000": 3349,
    "\u25810x7702b000": 3350,
    "\u25810x7702c000": 3351,
    "\u25810x7702d000": 3352,
    "\u25810x7702e000": 3353,
    "\u25810x7702f000": 3354,
    "\u25810x77030000": 3355,
    "\u25810x77031000": 3356,
    "\u25810x77032000": 3357,
    "\u25810x77033000": 3358,
    "\u25810x77034000": 3359,
    "\u25810x77035000": 3360,
    "\u25810x77036000": 3361,
    "\u25810x77037000": 3362,
    "\u25810x77038000": 3363,
    "\u25810x77039000": 3364,
    "\u25810x7703a000": 3365,
    "\u25810x7703b000": 3366,
    "\u25810x7703c000": 3367,
    "\u25810x7703d000": 3368,
    "\u25810x7703e000": 3369,
    "\u25810x7703f000": 3370,
    "\u25810x77040000": 3371,
    "\u25810x77041000": 3372,
    "\u25810x77042000": 3373,
    "\u25810x77043000": 3374,
    "\u25810x77044000": 3375,
    "\u25810x77045000": 3376,
    "\u25810x77046000": 3377,
    "\u25810x77047000": 3378,
    "\u25810x77048000": 3379,
    "\u25810x77049000": 3380,
    "\u25810x7704a000": 3381,
    "\u25810x7704b000": 3382,
    "\u25810x7704c000": 3383,
    "\u25810x7704d000": 3384,
    "\u25810x7704e000": 3385,
    "\u25810x7704f000": 3386,
    "\u25810x77050000": 3387,
    "\u25810x77051000": 3388,
    "\u25810x77052000": 3389,
    "\u25810x77053000": 3390,
    "\u25810x77054000": 3391,
    "\u25810x77055000": 3392,
    "\u25810x77056000": 3393,
    "\u25810x77057000": 3394,
    "\u25810x77058000": 3395,
    "\u25810x77059000": 3396,
    "\u25810x7705a000": 3397,
    "\u25810x7705b000": 3398,
    "\u25810x7705c000": 3399,
    "\u25810x7705d000": 3400,
    "\u25810x7705e000": 3401,
    "\u25810x7705f000": 3402,
    "\u25810x77060000": 3403,
    "\u25810x77061000": 3404,
    "\u25810x77062000": 3405,
    "\u25810x77063000": 3406,
    "\u25810x77064000": 3407,
    "\u25810x77065000": 3408,
    "\u25810x77066000": 3409,
    "\u25810x77067000": 3410,
    "\u25810x77068000": 3411,
    "\u25810x77069000": 3412,
    "\u25810x7706a000": 3413,
    "\u25810x7706b000": 3414,
    "\u25810x7706c000": 3415,
    "\u25810x7706d000": 3416,
    "\u25810x7706e000": 3417,
    "\u25810x7706f000": 3418,
    "\u25810x77070000": 3419,
    "\u25810x77071000": 3420,
    "\u25810x77072000": 3421,
    "\u25810x77073000": 3422,
    "\u25810x77074000": 3423,
    "\u25810x77075000": 3424,
    "\u25810x77076000": 3425,
    "\u25810x77077000": 3426,
    "\u25810x77078000": 3427,
    "\u25810x77079000": 3428,
    "\u25810x7707a000": 3429,
    "\u25810x7707b000": 3430,
    "\u25810x7707c000": 3431,
    "\u25810x7707d000": 3432,
    "\u25810x7707e000": 3433,
    "\u25810x7707f000": 3434,
    "\u25810x77080000": 3435,
    "\u25810x77081000": 3436,
    "\u25810x77082000": 3437,
    "\u25810x77083000": 3438,
    "\u25810x77084000": 3439,
    "\u25810x77085000": 3440,
    "\u25810x77086000": 3441,
    "\u25810x77087000": 3442,
    "\u25810x77088000": 3443,
    "\u25810x77089000": 3444,
    "\u25810x7708a000": 3445,
    "\u25810x7708b000": 3446,
    "\u25810x7708c000": 3447,
    "\u25810x7708d000": 3448,
    "\u25810x7708e000": 3449,
    "\u25810x7708f000": 3450,
    "\u25810x77090000": 3451,
    "\u25810x77091000": 3452,
    "\u25810x77092000": 3453,
    "\u25810x77093000": 3454,
    "\u25810x77094000": 3455,
    "\u25810x77095000": 3456,
    "\u25810x77096000": 3457,
    "\u25810x77097000": 3458,
    "\u25810x77098000": 3459,
    "\u25810x77099000": 3460,
    "\u25810x7709a000": 3461,
    "\u25810x7709b000": 3462,
    "\u25810x7709c000": 3463,
    "\u25810x7709d000": 3464,
    "\u25810x7709e000": 3465,
    "\u25810x7709f000": 3466,
    "\u25810x770a0000": 3467,
    "\u25810x770a1000": 3468,
    "\u25810x770a2000": 3469,
    "\u25810x770a3000": 3470,
    "\u25810x770a4000": 3471,
    "\u25810x770a5000": 3472,
    "\u25810x770a6000": 3473,
    "\u25810x770a7000": 3474,
    "\u25810x770a8000": 3475,
    "\u25810x770a9000": 3476,
    "\u25810x770aa000": 3477,
    "\u25810x770ab000": 3478,
    "\u25810x770ac000": 3479,
    "\u25810x770ad000": 3480,
    "\u25810x770ae000": 3481,
    "\u25810x770af000": 3482,
    "\u25810x770b0000": 3483,
    "\u25810x770b1000": 3484,
    "\u25810x770b2000": 3485,
    "\u25810x770b3000": 3486,
    "\u25810x770b4000": 3487,
    "\u25810x770b5000": 3488,
    "\u25810x770b6000": 3489,
    "\u25810x770b7000": 3490,
    "\u25810x770b8000": 3491,
    "\u25810x770b9000": 3492,
    "\u25810x770ba000": 3493,
    "\u25810x770bb000": 3494,
    "\u25810x770bc000": 3495,
    "\u25810x770bd000": 3496,
    "\u25810x770be000": 3497,
    "\u25810x770bf000": 3498,
    "\u25810x770c0000": 3499,
    "\u25810x770c1000": 3500,
    "\u25810x770c2000": 3501,
    "\u25810x770c3000": 3502,
    "\u25810x770c4000": 3503,
    "\u25810x770c5000": 3504,
    "\u25810x770c6000": 3505,
    "\u25810x770c7000": 3506,
    "\u25810x770c8000": 3507,
    "\u25810x770c9000": 3508,
    "\u25810x770ca000": 3509,
    "\u25810x770cb000": 3510,
    "\u25810x770cc000": 3511,
    "\u25810x770cd000": 3512,
    "\u25810x770ce000": 3513,
    "\u25810x770cf000": 3514,
    "\u25810x770d0000": 3515,
    "\u25810x770d1000": 3516,
    "\u25810x770d2000": 3517,
    "\u25810x770d3000": 3518,
    "\u25810x770d4000": 3519,
    "\u25810x770d5000": 3520,
    "\u25810x770d6000": 3521,
    "\u25810x770d7000": 3522,
    "\u25810x770d8000": 3523,
    "\u25810x770d9000": 3524,
    "\u25810x770da000": 3525,
    "\u25810x770db000": 3526,
    "\u25810x770dc000": 3527,
    "\u25810x770dd000": 3528,
    "\u25810x770de000": 3529,
    "\u25810x770df000": 3530,
    "\u25810x770e0000": 3531,
    "\u25810x770e1000": 3532,
    "\u25810x770e2000": 3533,
    "\u25810x770e3000": 3534,
    "\u25810x770e4000": 3535,
    "\u25810x770e5000": 3536,
    "\u25810x770e6000": 3537,
    "\u25810x770e7000": 3538,
    "\u25810x770e8000": 3539,
    "\u25810x770e9000": 3540,
    "\u25810x770ea000": 3541,
    "\u25810x770eb000": 3542,
    "\u25810x770ec000": 3543,
    "\u25810x770ed000": 3544,
    "\u25810x770ee000": 3545,
    "\u25810x770ef000": 3546,
    "\u25810x770f0000": 3547,
    "\u25810x770f1000": 3548,
    "\u25810x770f2000": 3549,
    "\u25810x770f3000": 3550,
    "\u25810x770f4000": 3551,
    "\u25810x770f5000": 3552,
    "\u25810x770f6000": 3553,
    "\u25810x770f7000": 3554,
    "\u25810x770f8000": 3555,
    "\u25810x770f9000": 3556,
    "\u25810x770fa000": 3557,
    "\u25810x770fb000": 3558,
    "\u25810x770fc000": 3559,
    "\u25810x770fd000": 3560,
    "\u25810x770fe000": 3561,
    "\u25810x770ff000": 3562,
    "\u25810x77100000": 3563,
    "\u25810x77101000": 3564,
    "\u25810x77102000": 3565,
    "\u25810x77103000": 3566,
    "\u25810x77104000": 3567,
    "\u25810x77105000": 3568,
    "\u25810x77106000": 3569,
    "\u25810x77107000": 3570,
    "\u25810x77108000": 3571,
    "\u25810x77109000": 3572,
    "\u25810x7710a000": 3573,
    "\u25810x7710b000": 3574,
    "\u25810x7710c000": 3575,
    "\u25810x7710d000": 3576,
    "\u25810x7710e000": 3577,
    "\u25810x7710f000": 3578,
    "\u25810x77110000": 3579,
    "\u25810x77111000": 3580,
    "\u25810x77112000": 3581,
    "\u25810x77113000": 3582,
    "\u25810x77114000": 3583,
    "\u25810x77115000": 3584,
    "\u25810x77116000": 3585,
    "\u25810x77117000": 3586,
    "\u25810x77118000": 3587,
    "\u25810x77119000": 3588,
    "\u25810x7711a000": 3589,
    "\u25810x7711b000": 3590,
    "\u25810x7711c000": 3591,
    "\u25810x7711d000": 3592,
    "\u25810x7711e000": 3593,
    "\u25810x7711f000": 3594,
    "\u25810x77120000": 3595,
    "\u25810x77121000": 3596,
    "\u25810x77122000": 3597,
    "\u25810x77123000": 3598,
    "\u25810x77124000": 3599,
    "\u25810x77125000": 3600,
    "\u25810x77126000": 3601,
    "\u25810x77127000": 3602,
    "\u25810x77128000": 3603,
    "\u25810x77129000": 3604,
    "\u25810x7712a000": 3605,
    "\u25810x7712b000": 3606,
    "\u25810x7712c000": 3607,
    "\u25810x7712d000": 3608,
    "\u25810x7712e000": 3609,
    "\u25810x7712f000": 3610,
    "\u25810x77130000": 3611,
    "\u25810x77131000": 3612,
    "\u25810x77132000": 3613,
    "\u25810x77133000": 3614,
    "\u25810x77134000": 3615,
    "\u25810x77135000": 3616,
    "\u25810x77136000": 3617,
    "\u25810x77137000": 3618,
    "\u25810x77138000": 3619,
    "\u25810x77139000": 3620,
    "\u25810x7713a000": 3621,
    "\u25810x7713b000": 3622,
    "\u25810x7713c000": 3623,
    "\u25810x7713d000": 3624,
    "\u25810x7713e000": 3625,
    "\u25810x7713f000": 3626,
    "\u25810x77140000": 3627,
    "\u25810x77141000": 3628,
    "\u25810x77142000": 3629,
    "\u25810x77143000": 3630,
    "\u25810x77144000": 3631,
    "\u25810x77145000": 3632,
    "\u25810x77146000": 3633,
    "\u25810x77147000": 3634,
    "\u25810x77148000": 3635,
    "\u25810x77149000": 3636,
    "\u25810x7714a000": 3637,
    "\u25810x7714b000": 3638,
    "\u25810x7714c000": 3639,
    "\u25810x7714d000": 3640,
    "\u25810x7714e000": 3641,
    "\u25810x7714f000": 3642,
    "\u25810x77150000": 3643,
    "\u25810x77151000": 3644,
    "\u25810x77152000": 3645,
    "\u25810x77153000": 3646,
    "\u25810x77154000": 3647,
    "\u25810x77155000": 3648,
    "\u25810x77156000": 3649,
    "\u25810x77157000": 3650,
    "\u25810x77158000": 3651,
    "\u25810x77159000": 3652,
    "\u25810x7715a000": 3653,
    "\u25810x7715b000": 3654,
    "\u25810x7715c000": 3655,
    "\u25810x7715d000": 3656,
    "\u25810x7715e000": 3657,
    "\u25810x7715f000": 3658,
    "\u25810x77160000": 3659,
    "\u25810x77161000": 3660,
    "\u25810x77162000": 3661,
    "\u25810x77163000": 3662,
    "\u25810x77164000": 3663,
    "\u25810x77165000": 3664,
    "\u25810x77166000": 3665,
    "\u25810x77167000": 3666,
    "\u25810x77168000": 3667,
    "\u25810x77169000": 3668,
    "\u25810x7716a000": 3669,
    "\u25810x7716b000": 3670,
    "\u25810x7716c000": 3671,
    "\u25810x7716d000": 3672,
    "\u25810x7716e000": 3673,
    "\u25810x7716f000": 3674,
    "\u25810x77170000": 3675,
    "\u25810x77171000": 3676,
    "\u25810x77172000": 3677,
    "\u25810x77173000": 3678,
    "\u25810x77174000": 3679,
    "\u25810x77175000": 3680,
    "\u25810x77176000": 3681,
    "\u25810x77177000": 3682,
    "\u25810x77178000": 3683,
    "\u25810x77179000": 3684,
    "\u25810x7717a000": 3685,
    "\u25810x7717b000": 3686,
    "\u25810x7717c000": 3687,
    "\u25810x7717d000": 3688,
    "\u25810x7717e000": 3689,
    "\u25810x7717f000": 3690,
    "\u25810x77180000": 3691,
    "\u25810x77181000": 3692,
    "\u25810x77182000": 3693,
    "\u25810x77183000": 3694,
    "\u25810x77184000": 3695,
    "\u25810x77185000": 3696,
    "\u25810x77186000": 3697,
    "\u25810x77187000": 3698,
    "\u25810x77188000": 3699,
    "\u25810x77189000": 3700,
    "\u25810x7718a000": 3701,
    "\u25810x7718b000": 3702,
    "\u25810x7718c000": 3703,
    "\u25810x7718d000": 3704,
    "\u25810x7718e000": 3705,
    "\u25810x7718f000": 3706,
    "\u25810x77190000": 3707,
    "\u25810x77191000": 3708,
    "\u25810x77192000": 3709,
    "\u25810x77193000": 3710,
    "\u25810x77194000": 3711,
    "\u25810x77195000": 3712,
    "\u25810x77196000": 3713,
    "\u25810x77197000": 3714,
    "\u25810x77198000": 3715,
    "\u25810x77199000": 3716,
    "\u25810x7719a000": 3717,
    "\u25810x7719b000": 3718,
    "\u25810x7719c000": 3719,
    "\u25810x7719d000": 3720,
    "\u25810x7719e000": 3721,
    "\u25810x7719f000": 3722,
    "\u25810x771a0000": 3723,
    "\u25810x771a1000": 3724,
    "\u25810x771a2000": 3725,
    "\u25810x771a3000": 3726,
    "\u25810x771a4000": 3727,
    "\u25810x771a5000": 3728,
    "\u25810x771a6000": 3729,
    "\u25810x771a7000": 3730,
    "\u25810x771a8000": 3731,
    "\u25810x771a9000": 3732,
    "\u25810x771aa000": 3733,
    "\u25810x771ab000": 3734,
    "\u25810x771ac000": 3735,
    "\u25810x771ad000": 3736,
    "\u25810x771ae000": 3737,
    "\u25810x771af000": 3738,
    "\u25810x771b0000": 3739,
    "\u25810x771b1000": 3740,
    "\u25810x771b2000": 3741,
    "\u25810x771b3000": 3742,
    "\u25810x771b4000": 3743,
    "\u25810x771b5000": 3744,
    "\u25810x771b6000": 3745,
    "\u25810x771b7000": 3746,
    "\u25810x771b8000": 3747,
    "\u25810x771b9000": 3748,
    "\u25810x771ba000": 3749,
    "\u25810x771bb000": 3750,
    "\u25810x771bc000": 3751,
    "\u25810x771bd000": 3752,
    "\u25810x771be000": 3753,
    "\u25810x771bf000": 3754,
    "\u25810x771c0000": 3755,
    "\u25810x771c1000": 3756,
    "\u25810x771c2000": 3757,
    "\u25810x771c3000": 3758,
    "\u25810x771c4000": 3759,
    "\u25810x771c5000": 3760,
    "\u25810x771c6000": 3761,
    "26b2e68656c7": 3762,
    "ueryvalueexw": 3763,
    "\u2581crtdllsrand": 3764,
    "entriesinacla": 3765,
    "hysicalmemory": 3766,
    "\u2581createalways": 3767,
    "\u2581msvcrtmalloc": 3768,
    "\u2581getversionexw": 3769,
    "\u2581ntopensection": 3770,
    "\u25810x1210f35776f7": 3771,
    "statustodoserror": 3772,
    "7472697a6e61646d7": 3773,
    "conditionvariable": 3774,
    "econditionvariable": 3775,
    "\u2581isdebuggerpresent": 3776,
    "\u2581kernel32openmutexa": 3777,
    "\u2581ntmapviewofsection": 3778,
    "uerysysteminformation": 3779,
    "\u2581advapi32getusernamea": 3780,
    "\u2581devicephysicalmemory": 3781,
    "\u2581kernel32createmutexa": 3782,
    "\u2581kernel32seterrormode": 3783,
    "\u2581ntunmapviewofsection": 3784,
    "\u2581rtlinitunicodestring": 3785,
    "\u2581rtlntstatustodoserror": 3786,
    "\u2581apimswincrtruntimel110": 3787,
    "\u2581advapi32getsecurityinfo": 3788,
    "\u2581advapi32setsecurityinfo": 3789,
    "\u2581advapi32setentriesinacla": 3790,
    "\u2581kernel32gettempfilenamew": 3791,
    "\u2581sleepconditionvariablecs": 3792,
    "\u2581wakeallconditionvariable": 3793,
    "\u2581ntdllrtlinitunicodestring": 3794,
    "26b2e68656c73696e6b692e6669": 3795,
    "\u25810x1210f357472697a6e61646d7": 3796,
    "\u2581kernel32getsystemdirectorya": 3797,
    "\u25810x1210f357472697a6e61646d73696e6b692e6669": 3798,
    "\u25810x1210f35776f726b2e68656c73696e6b692e6669": 3799,
    "\u2581apimswincoresysinfol110getsystemtimeasfiletime": 3800,
    "2a": 3801,
    "2b": 3802,
    "84": 3803,
    "ia": 3804,
    "33c": 3805,
    "408": 3806,
    "480": 3807,
    "arg": 3808,
    "atw": 3809,
    "cef": 3810,
    "d1c": 3811,
    "err": 3812,
    "ram": 3813,
    "lecp": 3814,
    "ceioc": 3815,
    "conso": 3816,
    "infow": 3817,
    "solew": 3818,
    "\u25810x31": 3819,
    "\u25810x3b": 3820,
    "ontrol": 3821,
    "\u25810x41c": 3822,
    "\u25810x42f": 3823,
    "\u25810x7dc": 3824,
    "\u25810xc00": 3825,
    "\u2581msvcr": 3826,
    "program": 3827,
    "\u25810x422e": 3828,
    "\u25810x431f": 3829,
    "\u25810x4620": 3830,
    "\u25810x7300": 3831,
    "\u25810x7870": 3832,
    "\u25810x7900": 3833,
    "\u25810x7990": 3834,
    "\u25810x8815": 3835,
    "\u25810x437b7": 3836,
    "\u25810x64000": 3837,
    "\u25810x70000": 3838,
    "\u25810x74000": 3839,
    "consolecp": 3840,
    "\u25810x410770": 3841,
    "\u25810x420fe8": 3842,
    "\u2581deviceioc": 3843,
    "\u2581regdelete": 3844,
    "stringtypea": 3845,
    "\u2581iphlpapidll": 3846,
    "processmemory": 3847,
    "\u2581createeventw": 3848,
    "\u2581getconsolecp": 3849,
    "\u2581gettemppathw": 3850,
    "\u2581lcmapstringa": 3851,
    "windowmessagew": 3852,
    "\u2581writeconsolew": 3853,
    "\u2581getconsolemode": 3854,
    "\u2581getstringtypea": 3855,
    "\u2581deviceiocontrol": 3856,
    "\u2581getstartupinfow": 3857,
    "\u2581shlwapipathappendw": 3858,
    "\u2581setfileinformationbyhandlew": 3859,
    "\u2581getfileinformationbyhandleexw": 3860,
    "\u2581initializecriticalsectionandspincount": 3861,
    "2d": 3862,
    "46": 3863,
    "9a": 3864,
    "ae3": 3865,
    "b5c": 3866,
    "bas": 3867,
    "ce8": 3868,
    "d4c": 3869,
    "de8": 3870,
    "e2b": 3871,
    "ec0": 3872,
    "once": 3873,
    "\u2581pff": 3874,
    "creat": 3875,
    "ormat": 3876,
    "\u25810x2b": 3877,
    "\u25810x3a": 3878,
    "\u25810x6c": 3879,
    "\u25810xb0": 3880,
    "\u2581olea": 3881,
    "keyexw": 3882,
    "timeto": 3883,
    "\u25810x413": 3884,
    "\u25810x41e": 3885,
    "\u25810xff8": 3886,
    "formatw": 3887,
    "\u25810x4194": 3888,
    "\u25810x419c": 3889,
    "\u25810x4227": 3890,
    "\u25810x423e": 3891,
    "\u25810x4244": 3892,
    "\u25810x42ca": 3893,
    "\u25810x42da": 3894,
    "\u25810x42e2": 3895,
    "\u25810x42f1": 3896,
    "\u25810x56b8": 3897,
    "\u25810x5937": 3898,
    "\u25810x79d0": 3899,
    "\u25810x7a10": 3900,
    "\u25810x7af0": 3901,
    "\u25810x7b40": 3902,
    "\u25810x8d30": 3903,
    "\u25810x8d50": 3904,
    "\u25810x8d60": 3905,
    "\u25810x94c0": 3906,
    "\u25810xa163": 3907,
    "\u2581format": 3908,
    "internal": 3909,
    "numberis": 3910,
    "\u25810x42dab": 3911,
    "\u2581program": 3912,
    "\u25810x3f4000": 3913,
    "\u25810x418970": 3914,
    "\u25810x423818": 3915,
    "\u25810x1211938": 3916,
    "\u25810x80000000": 3917,
    "errornumberis": 3918,
    "\u25810x42e2f00d0a": 3919,
    "\u2581systemtimeto": 3920,
    "\u2581isvalidcodepage": 3921,
    "\u2581programinternal": 3922,
    "\u2581systemtimetofiletime": 3923,
    "\u2581softwarecodegearlocales": 3924,
    "\u2581programinternalerrornumberis": 3925,
    "\u2581kernel32setdefaultdlldirectories": 3926,
    "6a": 3927,
    "7a": 3928,
    "gw": 3929,
    "008": 3930,
    "648": 3931,
    "den": 3932,
    "f0c": 3933,
    "fai": 3934,
    "led": 3935,
    "mod": 3936,
    "\u2581fe": 3937,
    "inal": 3938,
    "sser": 3939,
    "files": 3940,
    "image": 3941,
    "\u25810x9a": 3942,
    "errata": 3943,
    "\u25810x4090": 3944,
    "\u25810x41e1": 3945,
    "\u25810x42eb": 3946,
    "\u25810x43d3": 3947,
    "\u25810x44d3": 3948,
    "\u25810x7390": 3949,
    "\u25810x7b10": 3950,
    "\u25810x7dc8": 3951,
    "\u25810x7de4": 3952,
    "\u25810x7de5": 3953,
    "\u25810x7e88": 3954,
    "\u25810x7e89": 3955,
    "\u25810x7f02": 3956,
    "\u25810x8a60": 3957,
    "\u2581access": 3958,
    "\u2581remove": 3959,
    "ethodcal": 3960,
    "\u25810x120ff": 3961,
    "\u25810x20019": 3962,
    "precision": 3963,
    "\u25810x3f3000": 3964,
    "\u25810x48f894": 3965,
    "\u2581lstrlenw": 3966,
    "\u25810x1211c14": 3967,
    "\u25810x1211e1c": 3968,
    "\u25810x1211f88": 3969,
    "\u2581regcreate": 3970,
    "iphlpapidll": 3971,
    "\u2581messageboxa": 3972,
    "\u2581gettemppatha": 3973,
    "\u2581findresourcew": 3974,
    "precisionerrata": 3975,
    "\u2581sizeofresource": 3976,
    "\u2581localfiletimeto": 3977,
    "\u2581pffloatingpoint": 3978,
    "\u2581kernel32globallock": 3979,
    "\u2581kernel32findresourcew": 3980,
    "\u2581localfiletimetofiletime": 3981,
    "\u2581softwareborlanddelphilocales": 3982,
    "\u2581pffloatingpointprecisionerrata": 3983,
    "\u2581hkeycurrentusersoftwareborlandlocales": 3984,
    "\u2581hkeycurrentusersoftwareborlanddelphilocales": 3985,
    "\u2581apimswincoreprocessthreadsl110getcurrentthreadid": 3986,
    "\u2581apimswincoreprocessthreadsl110getcurrentprocessid": 3987,
    "9b": 3988,
    "148": 3989,
    "207": 3990,
    "352": 3991,
    "380": 3992,
    "68c": 3993,
    "708": 3994,
    "948": 3995,
    "a08": 3996,
    "a81": 3997,
    "any": 3998,
    "b44": 3999,
    "b74": 4000,
    "bcf": 4001,
    "bey": 4002,
    "c44": 4003,
    "c4c": 4004,
    "d54": 4005,
    "ied": 4006,
    "ond": 4007,
    "ord": 4008,
    "teg": 4009,
    "uly": 4010,
    "une": 4011,
    "vem": 4012,
    "\u2581kk": 4013,
    "\u2581oc": 4014,
    "\u2581to": 4015,
    "acko": 4016,
    "allm": 4017,
    "b190": 4018,
    "chit": 4019,
    "dexo": 4020,
    "enot": 4021,
    "f937": 4022,
    "insa": 4023,
    "into": 4024,
    "unds": 4025,
    "viol": 4026,
    "\u2581feb": 4027,
    "\u2581mar": 4028,
    "\u2581nov": 4029,
    "\u2581oct": 4030,
    "\u2581thu": 4031,
    "abase": 4032,
    "angec": 4033,
    "ecast": 4034,
    "ember": 4035,
    "found": 4036,
    "input": 4037,
    "kfull": 4038,
    "logon": 4039,
    "lsnot": 4040,
    "nalex": 4041,
    "omany": 4042,
    "tober": 4043,
    "under": 4044,
    "urday": 4045,
    "userw": 4046,
    "\u25810x66": 4047,
    "\u25810x85": 4048,
    "\u2581febr": 4049,
    "\u2581thur": 4050,
    "anuary": 4051,
    "beyond": 4052,
    "bounds": 4053,
    "change": 4054,
    "denied": 4055,
    "failed": 4056,
    "indexo": 4057,
    "nesday": 4058,
    "pointo": 4059,
    "tegero": 4060,
    "tember": 4061,
    "vember": 4062,
    "\u25810x439": 4063,
    "\u2581april": 4064,
    "\u2581asser": 4065,
    "\u2581exter": 4066,
    "\u2581march": 4067,
    "\u2581outof": 4068,
    "facenot": 4069,
    "fecallm": 4070,
    "numeric": 4071,
    "ordinal": 4072,
    "typecon": 4073,
    "ut32dll": 4074,
    "\u25810x1005": 4075,
    "\u25810x1009": 4076,
    "\u25810x4228": 4077,
    "\u25810x4229": 4078,
    "\u25810x4240": 4079,
    "\u25810x4270": 4080,
    "\u25810x4800": 4081,
    "\u25810x4e39": 4082,
    "\u25810x7030": 4083,
    "\u25810x7060": 4084,
    "\u25810x7ae0": 4085,
    "\u25810x7ec4": 4086,
    "\u25810x7ec5": 4087,
    "\u25810x7ec8": 4088,
    "\u25810x7ec9": 4089,
    "\u25810x7ecc": 4090,
    "\u25810x7ecd": 4091,
    "\u25810x7ed0": 4092,
    "\u25810x7ed1": 4093,
    "\u25810x7ed4": 4094,
    "\u25810x7ed5": 4095,
    "\u25810x7ed8": 4096,
    "\u25810x7ed9": 4097,
    "\u25810x7edc": 4098,
    "\u25810x7edd": 4099,
    "\u25810x7ee1": 4100,
    "\u25810xffa0": 4101,
    "\u25810xffa1": 4102,
    "\u25810xffa2": 4103,
    "\u25810xffb0": 4104,
    "\u25810xffb1": 4105,
    "\u25810xffb2": 4106,
    "\u25810xffb3": 4107,
    "\u25810xffb4": 4108,
    "\u25810xffb5": 4109,
    "\u25810xffb6": 4110,
    "\u25810xffb7": 4111,
    "\u25810xffb8": 4112,
    "\u25810xffb9": 4113,
    "\u25810xffba": 4114,
    "\u25810xffbb": 4115,
    "\u25810xffbc": 4116,
    "\u25810xffbd": 4117,
    "\u25810xffbe": 4118,
    "\u25810xffbf": 4119,
    "\u25810xffce": 4120,
    "\u25810xffcf": 4121,
    "\u25810xffe0": 4122,
    "\u25810xffe1": 4123,
    "\u25810xffe4": 4124,
    "\u25810xffe6": 4125,
    "\u25810xfff9": 4126,
    "\u25810xfffb": 4127,
    "\u25810xfffc": 4128,
    "\u25810xfffd": 4129,
    "\u25810xfffe": 4130,
    "\u2581august": 4131,
    "\u2581friday": 4132,
    "\u2581monday": 4133,
    "\u2581rangec": 4134,
    "\u2581stacko": 4135,
    "\u2581sunday": 4136,
    "ceptionx": 4137,
    "classtyp": 4138,
    "creating": 4139,
    "database": 4140,
    "notfound": 4141,
    "sectionw": 4142,
    "trolchit": 4143,
    "\u25810x120fb": 4144,
    "\u25810x42332": 4145,
    "\u25810x42990": 4146,
    "\u2581october": 4147,
    "\u2581regenum": 4148,
    "\u2581toomany": 4149,
    "\u2581tuesday": 4150,
    "heckerror": 4151,
    "localtime": 4152,
    "methodcal": 4153,
    "openfiles": 4154,
    "underflow": 4155,
    "violation": 4156,
    "windowexw": 4157,
    "\u25810x10753c": 4158,
    "\u25810x10e97c": 4159,
    "\u25810x409020": 4160,
    "\u25810x40f937": 4161,
    "\u25810x419d50": 4162,
    "\u25810x419e00": 4163,
    "\u25810x419f40": 4164,
    "\u25810x42a070": 4165,
    "\u25810x42b020": 4166,
    "\u25810x42b024": 4167,
    "\u25810x42b028": 4168,
    "\u25810x42b190": 4169,
    "\u25810x42eace": 4170,
    "\u2581december": 4171,
    "\u2581diskfull": 4172,
    "\u2581february": 4173,
    "\u2581floating": 4174,
    "\u2581integero": 4175,
    "\u2581invalidf": 4176,
    "\u2581november": 4177,
    "\u2581privileg": 4178,
    "\u2581saturday": 4179,
    "\u2581thursday": 4180,
    "indexoutof": 4181,
    "tionfailed": 4182,
    "uilanguage": 4183,
    "\u25810x1211bfc": 4184,
    "\u2581exception": 4185,
    "\u2581september": 4186,
    "\u2581wednesday": 4187,
    "deletefilew": 4188,
    "insafecallm": 4189,
    "\u2581externalex": 4190,
    "\u2581getwindows": 4191,
    "\u2581privileged": 4192,
    "\u2581readbeyond": 4193,
    "loadresource": 4194,
    "numericinput": 4195,
    "\u2581controlchit": 4196,
    "\u2581imagelistre": 4197,
    "\u2581oleaut32dll": 4198,
    "\u2581outofmemory": 4199,
    "classtypecast": 4200,
    "pointoverflow": 4201,
    "\u2581interfacenot": 4202,
    "lsnotsupported": 4203,
    "setinformation": 4204,
    "typeconversion": 4205,
    "\u2581errorcreating": 4206,
    "\u2581stackoverflow": 4207,
    "servicedatabase": 4208,
    "\u2581divisionbyzero": 4209,
    "\u2581invalidpointer": 4210,
    "indexoutofbounds": 4211,
    "insafecallmethod": 4212,
    "\u2581accessviolation": 4213,
    "\u2581assertionfailed": 4214,
    "\u2581integeroverflow": 4215,
    "\u2581invalidfilename": 4216,
    "\u2581rangecheckerror": 4217,
    "\u2581fileaccessdenied": 4218,
    "\u2581toomanyopenfiles": 4219,
    "\u2581variantmethodcal": 4220,
    "\u2581externalexceptionx": 4221,
    "\u2581getdiskfreespaceexw": 4222,
    "\u2581invalidnumericinput": 4223,
    "\u2581kernel32deletefilew": 4224,
    "\u2581readbeyondendoffile": 4225,
    "loatingpointoperation": 4226,
    "\u2581invalidclasstypecast": 4227,
    "\u2581kernel32loadresource": 4228,
    "\u2581kernel32lockresource": 4229,
    "\u2581floatingpointoverflow": 4230,
    "\u2581interfacenotsupported": 4231,
    "\u2581privilegedinstruction": 4232,
    "\u2581floatingpointunderflow": 4233,
    "\u2581invalidpointeroperation": 4234,
    "\u2581invalidvariantoperation": 4235,
    "\u2581exceptioninsafecallmethod": 4236,
    "\u2581kernel32heapsetinformation": 4237,
    "\u2581floatingpointdivisionbyzero": 4238,
    "\u2581invalidvarianttypeconversion": 4239,
    "\u2581invalidfloatingpointoperation": 4240,
    "\u2581variantmethodcallsnotsupported": 4241,
    "\u2581apimswincoresysinfol110gettickcount": 4242,
    "7b": 4243,
    "8a": 4244,
    "fy": 4245,
    "391": 4246,
    "5c8": 4247,
    "b63": 4248,
    "be8": 4249,
    "dyn": 4250,
    "e04": 4251,
    "5158": 4252,
    "alog": 4253,
    "amic": 4254,
    "atom": 4255,
    "eexa": 4256,
    "f828": 4257,
    "ffc7": 4258,
    "accel": 4259,
    "entry": 4260,
    "palet": 4261,
    "textw": 4262,
    "\u25810x5c": 4263,
    "\u25810x6b": 4264,
    "\u2581move": 4265,
    "dialog": 4266,
    "output": 4267,
    "\u25810x204": 4268,
    "\u25810x22e": 4269,
    "\u25810x405": 4270,
    "\u25810x41f": 4271,
    "\u25810x521": 4272,
    "\u25810xa41": 4273,
    "\u2581crypt": 4274,
    "dynamic": 4275,
    "palette": 4276,
    "\u25810x4013": 4277,
    "\u25810x420f": 4278,
    "\u25810x42ee": 4279,
    "\u25810x438c": 4280,
    "\u25810x5219": 4281,
    "\u25810x70c0": 4282,
    "\u25810x70f0": 4283,
    "\u25810x7120": 4284,
    "\u25810x7180": 4285,
    "\u25810x71b0": 4286,
    "\u25810x71e0": 4287,
    "\u25810x7210": 4288,
    "\u25810x7240": 4289,
    "\u25810x7270": 4290,
    "\u25810x72d0": 4291,
    "\u25810x7360": 4292,
    "\u25810x73c0": 4293,
    "\u25810x7420": 4294,
    "\u25810x7450": 4295,
    "\u25810x7480": 4296,
    "\u25810x74b0": 4297,
    "\u25810x74e0": 4298,
    "\u25810x7510": 4299,
    "\u25810x7570": 4300,
    "\u25810x75a0": 4301,
    "\u25810x75d0": 4302,
    "\u25810x7600": 4303,
    "\u25810x7630": 4304,
    "\u25810x7660": 4305,
    "\u25810x76c0": 4306,
    "\u25810x76f0": 4307,
    "\u25810x7720": 4308,
    "\u25810x7750": 4309,
    "\u25810x7780": 4310,
    "\u25810x77b0": 4311,
    "\u25810x7840": 4312,
    "\u25810x78d0": 4313,
    "\u25810x7960": 4314,
    "\u25810x79c0": 4315,
    "\u25810x7a20": 4316,
    "\u25810x7a50": 4317,
    "\u25810x7b70": 4318,
    "\u25810x7ba0": 4319,
    "\u25810x7cf0": 4320,
    "\u25810x7de8": 4321,
    "\u25810x7de9": 4322,
    "\u25810x7dec": 4323,
    "\u25810x7ee4": 4324,
    "\u25810x7ee5": 4325,
    "\u25810x8090": 4326,
    "\u25810x8250": 4327,
    "\u25810x8b50": 4328,
    "\u25810x8f50": 4329,
    "\u25810xffa3": 4330,
    "\u25810xffa4": 4331,
    "\u25810xffa5": 4332,
    "\u25810xffa6": 4333,
    "\u25810xffa7": 4334,
    "\u25810xffa8": 4335,
    "\u25810xffa9": 4336,
    "\u25810xffaa": 4337,
    "\u25810xffc5": 4338,
    "\u25810xffc6": 4339,
    "\u25810xffe5": 4340,
    "\u25810xfff8": 4341,
    "\u25810xfffa": 4342,
    "\u25810x44000": 4343,
    "\u25810x100300": 4344,
    "\u25810x429a81": 4345,
    "\u25810x429e2b": 4346,
    "\u25810x429e2c": 4347,
    "\u25810x42a730": 4348,
    "\u25810x42a731": 4349,
    "\u25810x42c520": 4350,
    "\u25810x434d1c": 4351,
    "\u25810x437207": 4352,
    "\u25810x437208": 4353,
    "\u25810x437ad2": 4354,
    "\u25810x437ad3": 4355,
    "\u25810x437ae3": 4356,
    "\u25810x437ae4": 4357,
    "\u25810x437b63": 4358,
    "\u25810x437b64": 4359,
    "\u25810x437b7b": 4360,
    "\u25810x437b7c": 4361,
    "\u25810x437bbd": 4362,
    "\u25810x437bbe": 4363,
    "\u25810x437bce": 4364,
    "\u25810x437bcf": 4365,
    "\u25810x437c42": 4366,
    "\u25810x437c43": 4367,
    "\u25810x43b7a9": 4368,
    "\u25810x43b7aa": 4369,
    "\u25810x43b7b8": 4370,
    "\u25810x4c4230": 4371,
    "\u25810x4c4248": 4372,
    "\u25810x4c4260": 4373,
    "\u25810x4c4278": 4374,
    "\u25810x4c4290": 4375,
    "\u25810x4c42a8": 4376,
    "\u25810x4c4320": 4377,
    "\u25810x4c4338": 4378,
    "\u25810x4c4350": 4379,
    "\u25810x4c4368": 4380,
    "\u25810x4c5158": 4381,
    "\u25810x4feba8": 4382,
    "\u25810x56b868": 4383,
    "\u25810xa42a40": 4384,
    "entrypoint": 4385,
    "\u25810x1210cf0": 4386,
    "\u25810x1211bf0": 4387,
    "\u25810x1211e34": 4388,
    "accelerator": 4389,
    "dynamiclink": 4390,
    "windowstemp": 4391,
    "\u2581gdi32create": 4392,
    "\u2581getsystemtime": 4393,
    "\u2581kernel32muldiv": 4394,
    "\u2581user32register": 4395,
    "\u2581gdi32createpalette": 4396,
    "\u2581kernel32sizeofresource": 4397,
    "\u2581theprocedureentrypoint": 4398,
    "\u2581user32registerwindowmessagew": 4399,
    "couldnotbelocatedinthedynamiclink": 4400,
    "23": 4401,
    "6e": 4402,
    "iv": 4403,
    "004": 4404,
    "0d8": 4405,
    "120": 4406,
    "2db": 4407,
    "344": 4408,
    "354": 4409,
    "518": 4410,
    "6a8": 4411,
    "719": 4412,
    "904": 4413,
    "a69": 4414,
    "aff": 4415,
    "d10": 4416,
    "db5": 4417,
    "f84": 4418,
    "fa8": 4419,
    "ial": 4420,
    "neg": 4421,
    "uen": 4422,
    "xor": 4423,
    "1030": 4424,
    "argu": 4425,
    "bool": 4426,
    "ffce": 4427,
    "gstr": 4428,
    "idiv": 4429,
    "prop": 4430,
    "zone": 4431,
    "getyp": 4432,
    "onexa": 4433,
    "\u25810x87": 4434,
    "\u25810x98": 4435,
    "\u25810x164": 4436,
    "\u25810x4de": 4437,
    "\u25810x4e2": 4438,
    "\u25810x534": 4439,
    "\u25810x7dd": 4440,
    "\u2581varcy": 4441,
    "\u2581varor": 4442,
    "\u2581varr8": 4443,
    "gstring": 4444,
    "special": 4445,
    "\u25810x1076": 4446,
    "\u25810x2d4d": 4447,
    "\u25810x415c": 4448,
    "\u25810x42f3": 4449,
    "\u25810x4a78": 4450,
    "\u25810x4e5f": 4451,
    "\u25810x7ded": 4452,
    "\u25810x7df1": 4453,
    "\u25810x7f10": 4454,
    "\u25810x8d90": 4455,
    "\u25810xffcd": 4456,
    "\u25810xffdd": 4457,
    "\u25810xfff5": 4458,
    "\u25810xfff6": 4459,
    "\u25810xfff7": 4460,
    "\u2581muldiv": 4461,
    "\u2581varadd": 4462,
    "\u2581varand": 4463,
    "\u2581varcmp": 4464,
    "\u2581vardiv": 4465,
    "\u2581varmod": 4466,
    "\u2581varmul": 4467,
    "\u2581varneg": 4468,
    "\u2581varnot": 4469,
    "\u2581varsub": 4470,
    "\u2581varxor": 4471,
    "argument": 4472,
    "getypeex": 4473,
    "\u25810x120f8": 4474,
    "\u2581getfull": 4475,
    "\u2581varbool": 4476,
    "\u2581vardate": 4477,
    "\u2581varidiv": 4478,
    "\u25810x120e68": 4479,
    "\u25810x40933c": 4480,
    "\u25810x409344": 4481,
    "\u25810x40a59c": 4482,
    "\u25810x40a5ac": 4483,
    "\u25810x40a5cc": 4484,
    "\u25810x40a5dc": 4485,
    "\u25810x40b3de": 4486,
    "\u25810x40b3e6": 4487,
    "\u25810x418a00": 4488,
    "\u25810x418a30": 4489,
    "\u25810x41bcb0": 4490,
    "\u25810x41bce0": 4491,
    "\u25810x422ebe": 4492,
    "\u25810x423868": 4493,
    "\u25810x423898": 4494,
    "\u25810x4238a8": 4495,
    "\u25810x4238d8": 4496,
    "\u25810x423df8": 4497,
    "\u25810x42d520": 4498,
    "\u25810x4353d8": 4499,
    "\u25810x4373d8": 4500,
    "\u25810x4378c8": 4501,
    "\u25810x43b3d8": 4502,
    "\u25810x43b7b3": 4503,
    "\u25810x43b7b4": 4504,
    "\u25810x43b7ba": 4505,
    "\u25810x43b7c4": 4506,
    "\u25810x4967a8": 4507,
    "\u25810x566a88": 4508,
    "rstuvwxyzb": 4509,
    "rstuvwxyzp": 4510,
    "\u25810x12110d8": 4511,
    "\u25810x1211308": 4512,
    "\u25810x1211338": 4513,
    "\u25810x1211578": 4514,
    "\u25810x1211e38": 4515,
    "\u25810x1211f10": 4516,
    "debugstring": 4517,
    "\u25810xfeee009d": 4518,
    "\u25810xfeee009e": 4519,
    "\u25810xfeee009f": 4520,
    "\u25810xfeee00a0": 4521,
    "\u25810xfeee00a1": 4522,
    "\u25810xfeee00a2": 4523,
    "\u25810xfeee00a3": 4524,
    "\u25810xfeee00a4": 4525,
    "\u25810xfeee00a5": 4526,
    "\u2581setcurrent": 4527,
    "changetypeex": 4528,
    "initializeex": 4529,
    "localfiletime": 4530,
    "\u25810x42e0f00d0a": 4531,
    "\u2581varcyfromstr": 4532,
    "\u2581vari4fromstr": 4533,
    "\u2581varr4fromstr": 4534,
    "\u2581varr8fromstr": 4535,
    "\u2581getversionexa": 4536,
    "\u2581varbstrfromcy": 4537,
    "zoneinformation": 4538,
    "\u2581comparestringw": 4539,
    "\u2581formatmessagew": 4540,
    "\u2581varboolfromstr": 4541,
    "\u2581vardatefromstr": 4542,
    "\u2581invalidargument": 4543,
    "\u2581varbstrfrombool": 4544,
    "\u2581varbstrfromdate": 4545,
    "variantorsafearray": 4546,
    "\u2581variantorsafearray": 4547,
    "environmentvariablea": 4548,
    "\u2581variantchangetypeex": 4549,
    "\u2581filetimetosystemtime": 4550,
    "\u2581cwindowstempgolfsetini": 4551,
    "\u2581user32registerclassexa": 4552,
    "\u2581filetimetolocalfiletime": 4553,
    "\u2581drivewindowstempgolfsetini": 4554,
    "\u2581errorcreatingvariantorsafearray": 4555,
    "\u2581variantorsafearrayindexoutofbounds": 4556,
    "2f": 4557,
    "41": 4558,
    "5f": 4559,
    "am": 4560,
    "18c": 4561,
    "244": 4562,
    "332": 4563,
    "580": 4564,
    "98c": 4565,
    "a28": 4566,
    "a44": 4567,
    "aab": 4568,
    "bff": 4569,
    "c8c": 4570,
    "e4c": 4571,
    "f08": 4572,
    "pla": 4573,
    "5088": 4574,
    "b0c8": 4575,
    "b5d7": 4576,
    "ctrl": 4577,
    "fe34": 4578,
    "yarg": 4579,
    "\u2581net": 4580,
    "cefre": 4581,
    "ec2db": 4582,
    "uency": 4583,
    "\u25810x26": 4584,
    "\u25810xb8": 4585,
    "\u2581comm": 4586,
    "\u2581lock": 4587,
    "common": 4588,
    "eexist": 4589,
    "\u25810x509": 4590,
    "listmsg": 4591,
    "\u25810x2012": 4592,
    "\u25810x3e6c": 4593,
    "\u25810x41d6": 4594,
    "\u25810x428e": 4595,
    "\u25810x42cd": 4596,
    "\u25810x42ec": 4597,
    "\u25810x4318": 4598,
    "\u25810x7c40": 4599,
    "\u25810x8ce0": 4600,
    "\u25810x8d10": 4601,
    "\u25810x8fc0": 4602,
    "\u25810x9230": 4603,
    "\u25810xffd3": 4604,
    "\u25810xffec": 4605,
    "\u2581comdlg": 4606,
    "\u2581unlock": 4607,
    "ctrldrag": 4608,
    "lockedex": 4609,
    "\u25810x1210a": 4610,
    "\u25810x169bf": 4611,
    "\u25810x52668": 4612,
    "atehandle": 4613,
    "fileexist": 4614,
    "\u25810x3f2000": 4615,
    "\u25810x42efe8": 4616,
    "\u25810x435088": 4617,
    "\u25810x4355c8": 4618,
    "\u25810x43b0c8": 4619,
    "\u25810x12117e8": 4620,
    "\u25810x12117fc": 4621,
    "\u25810x1211cfc": 4622,
    "\u25810x5265c3c": 4623,
    "\u25810xfeee00a6": 4624,
    "\u25810xfeee00a7": 4625,
    "\u25810xfeee00a8": 4626,
    "\u25810xfeee00a9": 4627,
    "\u2581comctl32dll": 4628,
    "\u2581comdlg32dll": 4629,
    "\u2581commctrldrag": 4630,
    "\u2581getlocaltime": 4631,
    "\u2581loadlibraryw": 4632,
    "\u2581seterrormode": 4633,
    "commoncontrols": 4634,
    "lockedexchange": 4635,
    "\u2581duplicatehandle": 4636,
    "\u2581kernel32lstrcmp": 4637,
    "\u2581getcurrentthread": 4638,
    "\u2581imagelistdestroy": 4639,
    "ueryperformancefre": 4640,
    "\u2581commctrldraglistmsg": 4641,
    "\u2581ole32coinitializeex": 4642,
    "\u2581getvolumeinformation": 4643,
    "\u2581gettimezoneinformation": 4644,
    "\u2581user32registerclassexw": 4645,
    "\u2581setenvironmentvariablea": 4646,
    "4a": 4647,
    "rb": 4648,
    "108": 4649,
    "10e": 4650,
    "353": 4651,
    "640": 4652,
    "64c": 4653,
    "788": 4654,
    "880": 4655,
    "a6c": 4656,
    "ark": 4657,
    "ash": 4658,
    "c58": 4659,
    "da0": 4660,
    "ee8": 4661,
    "f74": 4662,
    "ook": 4663,
    "san": 4664,
    "wer": 4665,
    "\u2581ch": 4666,
    "4444": 4667,
    "acb2": 4668,
    "aff0": 4669,
    "ases": 4670,
    "fdrb": 4671,
    "ffd1": 4672,
    "gmsg": 4673,
    "shel": 4674,
    "29tmp": 4675,
    "base4": 4676,
    "mmdll": 4677,
    "place": 4678,
    "propw": 4679,
    "\u25810x6f": 4680,
    "\u25810x95": 4681,
    "\u25810xcf": 4682,
    "b2acb2": 4683,
    "drive0": 4684,
    "fdrbat": 4685,
    "leases": 4686,
    "\u25810x401": 4687,
    "\u25810x402": 4688,
    "\u25810x40c": 4689,
    "\u25810x412": 4690,
    "\u25810x421": 4691,
    "\u25810x426": 4692,
    "\u25810x620": 4693,
    "\u2581isbad": 4694,
    "\u2581ssexe": 4695,
    "stringa": 4696,
    "\u25810x41a6": 4697,
    "\u25810x41db": 4698,
    "\u25810x4220": 4699,
    "\u25810x42e6": 4700,
    "\u25810x4300": 4701,
    "\u25810x4332": 4702,
    "\u25810x438b": 4703,
    "\u25810x4590": 4704,
    "\u25810x4614": 4705,
    "\u25810x47c0": 4706,
    "\u25810x4c41": 4707,
    "\u25810x4d64": 4708,
    "\u25810x4e80": 4709,
    "\u25810x5218": 4710,
    "\u25810x7d00": 4711,
    "\u25810x7d20": 4712,
    "\u25810x7ef0": 4713,
    "\u25810xa420": 4714,
    "\u25810xa427": 4715,
    "\u25810xd000": 4716,
    "\u25810xffcc": 4717,
    "\u25810xffd0": 4718,
    "\u2581pec2db": 4719,
    "\u25810x12118": 4720,
    "\u25810x169b7": 4721,
    "\u25810x6c000": 4722,
    "sanfdrbat": 4723,
    "\u25810x100000": 4724,
    "\u25810x3f3030": 4725,
    "\u25810x3f30b0": 4726,
    "\u25810x3f30e0": 4727,
    "\u25810x3f3110": 4728,
    "\u25810x3f3140": 4729,
    "\u25810x430880": 4730,
    "\u25810x44f910": 4731,
    "\u25810x801000": 4732,
    "\u25810xa429b0": 4733,
    "\u2581getclass": 4734,
    "base400000": 4735,
    "\u25810x120e694": 4736,
    "\u25810x120e69c": 4737,
    "\u25810x120e6d8": 4738,
    "\u25810x1211a00": 4739,
    "\u25810x1211a14": 4740,
    "\u25810x1211d14": 4741,
    "\u25810x1211f74": 4742,
    "\u25810xfeee00aa": 4743,
    "\u25810xfeee00ab": 4744,
    "\u25810xfeee00ac": 4745,
    "\u25810xfeee00ad": 4746,
    "\u25810xfeee00ae": 4747,
    "\u25810xfeee00af": 4748,
    "\u25810xfeee00b0": 4749,
    "\u25810xfeee00b1": 4750,
    "\u25810xfeee00b2": 4751,
    "\u25810xfeee00b3": 4752,
    "\u25810xfeee00b4": 4753,
    "\u25810xfeee00b5": 4754,
    "\u25810xfeee00b6": 4755,
    "\u25810xfeee00b7": 4756,
    "\u25810xfeee00b8": 4757,
    "\u25810xfeee00b9": 4758,
    "\u25810xfeee00ba": 4759,
    "\u25810xfeee00bb": 4760,
    "\u25810xfeee00bc": 4761,
    "\u25810xfeee00bd": 4762,
    "\u25810xfeee00be": 4763,
    "\u25810xfeee00bf": 4764,
    "\u25810xfeee00c0": 4765,
    "\u25810xfeee00c1": 4766,
    "\u25810xfeee00c2": 4767,
    "\u25810xfeee00c3": 4768,
    "\u25810xfeee00c4": 4769,
    "\u25810xfeee00c5": 4770,
    "\u25810xfeee00c6": 4771,
    "\u25810xfeee00c7": 4772,
    "\u25810xfeee00c8": 4773,
    "\u25810xfeee00c9": 4774,
    "\u25810xfeee00ca": 4775,
    "\u25810xfeee00cb": 4776,
    "\u2581pec2dbgmsg": 4777,
    "\u2581loadcursorw": 4778,
    "acceleratorsw": 4779,
    "dlliphlpapidll": 4780,
    "\u2581shellexecutew": 4781,
    "\u2581getlocaleinfoa": 4782,
    "commoncontrolsex": 4783,
    "specialfolderpathw": 4784,
    "environmentstringsa": 4785,
    "threadpreferreduilanguages": 4786,
    "\u2581theprocedurecouldnotbelocatedinthe": 4787,
    "\u2581theprocedurecouldnotbelocatedinthedlliphlpapidll": 4788,
    "73": 4789,
    "210": 4790,
    "290": 4791,
    "29b": 4792,
    "325": 4793,
    "35c": 4794,
    "3be": 4795,
    "550": 4796,
    "7b6": 4797,
    "960": 4798,
    "978": 4799,
    "988": 4800,
    "994": 4801,
    "a18": 4802,
    "abe": 4803,
    "ae4": 4804,
    "ba7": 4805,
    "bb1": 4806,
    "bd7": 4807,
    "f70": 4808,
    "fab": 4809,
    "ise": 4810,
    "1158": 4811,
    "2820": 4812,
    "2850": 4813,
    "a671": 4814,
    "core": 4815,
    "itor": 4816,
    "save": 4817,
    "lient": 4818,
    "solea": 4819,
    "terme": 4820,
    "ventw": 4821,
    "\u25810xad": 4822,
    "\u25810x425": 4823,
    "\u25810x788": 4824,
    "\u25810x790": 4825,
    "\u25810xe00": 4826,
    "\u25810x40a2": 4827,
    "\u25810x420e": 4828,
    "\u25810x42ae": 4829,
    "\u25810x4324": 4830,
    "\u25810x4580": 4831,
    "\u25810x4fec": 4832,
    "\u25810x6224": 4833,
    "\u25810x7038": 4834,
    "\u25810x7070": 4835,
    "\u25810x70a8": 4836,
    "\u25810x70e0": 4837,
    "\u25810x7118": 4838,
    "\u25810x7188": 4839,
    "\u25810x71c0": 4840,
    "\u25810x71f8": 4841,
    "\u25810x7230": 4842,
    "\u25810x7268": 4843,
    "\u25810x72d8": 4844,
    "\u25810x7310": 4845,
    "\u25810x7348": 4846,
    "\u25810x7380": 4847,
    "\u25810x73b8": 4848,
    "\u25810x7428": 4849,
    "\u25810x7460": 4850,
    "\u25810x7498": 4851,
    "\u25810x74d0": 4852,
    "\u25810x7508": 4853,
    "\u25810x7578": 4854,
    "\u25810x75b0": 4855,
    "\u25810x75e8": 4856,
    "\u25810x7620": 4857,
    "\u25810x7658": 4858,
    "\u25810x76c8": 4859,
    "\u25810x7738": 4860,
    "\u25810x7770": 4861,
    "\u25810x77a8": 4862,
    "\u25810x7818": 4863,
    "\u25810x7888": 4864,
    "\u25810x78f8": 4865,
    "\u25810x7968": 4866,
    "\u25810x79a0": 4867,
    "\u25810x79d8": 4868,
    "\u25810x7a48": 4869,
    "\u25810x7ab8": 4870,
    "\u25810x7b28": 4871,
    "\u25810x7b60": 4872,
    "\u25810x7b98": 4873,
    "\u25810x7c08": 4874,
    "\u25810x7c78": 4875,
    "\u25810x7cb0": 4876,
    "\u25810x7ce8": 4877,
    "\u25810x7d58": 4878,
    "\u25810x7ee8": 4879,
    "\u25810x7ee9": 4880,
    "\u25810x8330": 4881,
    "\u25810x8340": 4882,
    "\u25810x8410": 4883,
    "\u25810x88e0": 4884,
    "\u25810x90f0": 4885,
    "\u25810xb0dc": 4886,
    "\u25810xffd2": 4887,
    "\u25810xffe2": 4888,
    "\u25810xfff4": 4889,
    "dowstemp": 4890,
    "outputcp": 4891,
    "\u25810x120ee": 4892,
    "\u25810x120fd": 4893,
    "\u2581getsave": 4894,
    "initterme": 4895,
    "\u25810x41de80": 4896,
    "\u25810x424470": 4897,
    "\u25810x43a4c0": 4898,
    "\u25810x454840": 4899,
    "\u25810x4c0218": 4900,
    "\u25810x4de648": 4901,
    "\u25810x4e2de0": 4902,
    "\u25810xcf0000": 4903,
    "\u2581releases": 4904,
    "rstuvwxyz8": 4905,
    "\u25810x120e68c": 4906,
    "\u25810x1211cac": 4907,
    "\u25810x1211e30": 4908,
    "\u25810x1211f54": 4909,
    "\u2581getthread": 4910,
    "\u2581loadiconw": 4911,
    "\u2581localfree": 4912,
    "\u2581wsprintfw": 4913,
    "fileexistsa": 4914,
    "\u2581openeventw": 4915,
    "versioninfow": 4916,
    "\u2581loadstringw": 4917,
    "\u2581setfiletime": 4918,
    "\u2581isbadreadptr": 4919,
    "\u2581virtualfreeex": 4920,
    "\u2581writeconsolea": 4921,
    "\u2581defwindowprocw": 4922,
    "\u2581virtualallocex": 4923,
    "\u2581createwindowexw": 4924,
    "dowstemphgdrawdll": 4925,
    "\u2581kernel32lstrcpyna": 4926,
    "\u2581kernel32lstrcpynw": 4927,
    "\u2581msvcrtgetmainargs": 4928,
    "\u2581getconsoleoutputcp": 4929,
    "\u2581writeprocessmemory": 4930,
    "\u2581cwindowssystem32016": 4931,
    "\u2581getwindowsdirectoryw": 4932,
    "\u2581cwindowstemphgdrawdll": 4933,
    "\u2581releasesrwlockexclusive": 4934,
    "52": 4935,
    "9d": 4936,
    "100": 4937,
    "104": 4938,
    "185": 4939,
    "363": 4940,
    "509": 4941,
    "57c": 4942,
    "615": 4943,
    "6e0": 4944,
    "732": 4945,
    "a0f": 4946,
    "a17": 4947,
    "ad4": 4948,
    "b08": 4949,
    "b1c": 4950,
    "b38": 4951,
    "b54": 4952,
    "b84": 4953,
    "da7": 4954,
    "dd5": 4955,
    "eb1": 4956,
    "ee5": 4957,
    "ify": 4958,
    "mit": 4959,
    "onc": 4960,
    "ori": 4961,
    "ort": 4962,
    "srw": 4963,
    "yac": 4964,
    "e": 4965,
    "\u2581": 4966,
    "0": 4967,
    "a": 4968,
    "r": 4969,
    "l": 4970,
    "n": 4971,
    "t": 4972,
    "x": 4973,
    "i": 4974,
    "s": 4975,
    "p": 4976,
    "g": 4977,
    "c": 4978,
    "2": 4979,
    "d": 4980,
    "1": 4981,
    "m": 4982,
    "v": 4983,
    "3": 4984,
    "o": 4985,
    "k": 4986,
    "7": 4987,
    "f": 4988,
    "4": 4989,
    "b": 4990,
    "8": 4991,
    "u": 4992,
    "6": 4993,
    "5": 4994,
    "w": 4995,
    "9": 4996,
    "h": 4997,
    "y": 4998,
    "z": 4999,
    "": 5000
}