{
    "<unk>": 0,
    "<pad>": 1,
    "<mask>": 2,
    "\u25810": 3,
    "\u25811": 4,
    "te": 5,
    "nt": 6,
    "re": 7,
    "in": 8,
    "00": 9,
    "le": 10,
    "\u2581c": 11,
    "fi": 12,
    "\u2581nt": 13,
    "er": 14,
    "ad": 15,
    "file": 16,
    ":\\": 17,
    "ex": 18,
    "do": 19,
    "\u258112": 20,
    "ro": 21,
    "\u25812": 22,
    "de": 23,
    "al": 24,
    "\u25814": 25,
    "ke": 26,
    "ra": 27,
    "tem": 28,
    "ws": 29,
    "\u25817": 30,
    "win": 31,
    "me": 32,
    "ff": 33,
    "exe": 34,
    "et": 35,
    "windo": 36,
    "lo": 37,
    "32": 38,
    "ri": 39,
    "fa": 40,
    "windows": 41,
    "pro": 42,
    "at": 43,
    "cu": 44,
    "read": 45,
    "ys": 46,
    "sys": 47,
    "ry": 48,
    "ct": 49,
    "system": 50,
    "bu": 51,
    "\u2581s": 52,
    "\u2581fa": 53,
    "\u25813": 54,
    "\u2581fake": 55,
    "ic": 56,
    "on": 57,
    "000": 58,
    "80": 59,
    "-1": 60,
    "ll": 61,
    "so": 62,
    "prog": 63,
    "32\\": 64,
    "ft": 65,
    "\u258112f": 66,
    "progra": 67,
    "program": 68,
    "soft": 69,
    "system32\\": 70,
    "an": 71,
    "ate": 72,
    "\u2581ntread": 73,
    "dll": 74,
    "cume": 75,
    "docume": 76,
    "min": 77,
    "60": 78,
    "17": 79,
    "key": 80,
    "10": 81,
    "es": 82,
    "ger": 83,
    "us": 84,
    "ec": 85,
    "rite": 86,
    "li": 87,
    "pe": 88,
    "write": 89,
    "loc": 90,
    "ac": 91,
    "local": 92,
    "qu": 93,
    "0000": 94,
    "co": 95,
    "tect": 96,
    "1\\": 97,
    "fe": 98,
    "exw": 99,
    "-5": 100,
    "f6": 101,
    "ery": 102,
    "query": 103,
    "\u2581ntreadfile": 104,
    "\u2581ntquery": 105,
    "bug": 106,
    "debug": 107,
    "debugger": 108,
    "\u2581d": 109,
    "detect": 110,
    "~1\\": 111,
    "lib": 112,
    "ing": 113,
    "detectdebugger": 114,
    "38": 115,
    "cre": 116,
    "ion": 117,
    "\u2581h": 118,
    "ter": 119,
    "ings": 120,
    "rary": 121,
    "load": 122,
    "\u2581set": 123,
    "tings": 124,
    "admin": 125,
    "\u2581settings": 126,
    "val": 127,
    "be": 128,
    "\u2581ntcre": 129,
    "78": 130,
    "are": 131,
    "library": 132,
    "\u2581load": 133,
    "libraryexw": 134,
    "\u2581loadlibraryexw": 135,
    "\u258112e": 136,
    "valu": 137,
    "nts": 138,
    "tes": 139,
    "files": 140,
    "ers": 141,
    "50": 142,
    "mp": 143,
    "documents": 144,
    "7c": 145,
    "mic": 146,
    "52": 147,
    "\u2581ntwrite": 148,
    "vi": 149,
    "micro": 150,
    "microsoft": 151,
    "\u2581an": 152,
    "\u2581ntwritefile": 153,
    "96": 154,
    "set": 155,
    "\u2581and": 156,
    "\u2581files": 157,
    "tri": 158,
    "to": 159,
    "\u258180": 160,
    "attri": 161,
    "f0": 162,
    "b0": 163,
    "99": 164,
    "attribu": 165,
    "attributes": 166,
    "attributesfile": 167,
    "\u2581ntqueryattributesfile": 168,
    "f8": 169,
    "64": 170,
    "14": 171,
    "ware": 172,
    "\u25818": 173,
    "ta": 174,
    "software": 175,
    "pi": 176,
    "na": 177,
    "reg": 178,
    "\u258110": 179,
    "ory": 180,
    "20": 181,
    "\u258113": 182,
    "1.": 183,
    "15": 184,
    "cur": 185,
    "07": 186,
    "6c": 187,
    "name": 188,
    "97": 189,
    "\u2581b": 190,
    "68": 191,
    "rt": 192,
    "rent": 193,
    "current": 194,
    "temp": 195,
    "\u258114": 196,
    "e8": 197,
    "\u2581hkey": 198,
    "ed": 199,
    ".0": 200,
    "28": 201,
    "\u25811f": 202,
    "ess": 203,
    "21": 204,
    "-8": 205,
    "proc": 206,
    "process": 207,
    "value": 208,
    "valuekey": 209,
    "\u2581g": 210,
    "003": 211,
    "70": 212,
    "\u25815": 213,
    "9c": 214,
    "\u2581a": 215,
    "\u2581/": 216,
    "\u258115": 217,
    "90": 218,
    "un": 219,
    "e4": 220,
    "e0": 221,
    "\u25817ff": 222,
    "\u2581f": 223,
    "locals": 224,
    "0001": 225,
    "tant": 226,
    "atem": 227,
    "atemu": 228,
    "atemutant": 229,
    "\u2581ntcreatemutant": 230,
    "\u25811f0001": 231,
    "\u2581get": 232,
    "im": 233,
    "st": 234,
    "or": 235,
    "ach": 236,
    "d8": 237,
    "\u2581ntset": 238,
    "18": 239,
    "\u2581ntsetvaluekey": 240,
    "-1-5": 241,
    "32.": 242,
    "-21": 243,
    "fc": 244,
    "-1-5-21": 245,
    "-1-5-21-1": 246,
    "dc": 247,
    "-838": 248,
    "1760": 249,
    "-515": 250,
    "9710": 251,
    "9678": 252,
    "1707": 253,
    "99-1": 254,
    "170752": 255,
    "99-1003": 256,
    "-5159678": 257,
    "17609710": 258,
    "-838170752": 259,
    "-515967899-1003": 260,
    "-1-5-21-117609710": 261,
    "-838170752-515967899-1003": 262,
    "-1-5-21-117609710-838170752-515967899-1003": 263,
    "ns": 264,
    "ep": 265,
    "ap": 266,
    "tmp": 267,
    "vic": 268,
    "id": 269,
    "inter": 270,
    "48": 271,
    "intern": 272,
    "sh": 273,
    "ateprocess": 274,
    "bc": 275,
    "mem": 276,
    "leep": 277,
    "\u2581sleep": 278,
    "memory": 279,
    "per": 280,
    "ata": 281,
    "vice": 282,
    "rtu": 283,
    "ation": 284,
    "ire": 285,
    "d0": 286,
    "\u25814e": 287,
    "irect": 288,
    "\u25819": 289,
    "\u2581e": 290,
    "vers": 291,
    "virtu": 292,
    "virtual": 293,
    "b8": 294,
    "virtualmemory": 295,
    "\\1.": 296,
    "com": 297,
    "version": 298,
    "\u2581ntcreate": 299,
    "app": 300,
    "58": 301,
    "en": 302,
    "all": 303,
    "user": 304,
    "reader": 305,
    "5c": 306,
    "pipe": 307,
    "a4": 308,
    "\u2581ntreadvirtualmemory": 309,
    "sa": 310,
    "f4": 311,
    "30": 312,
    "dpipe": 313,
    "namedpipe": 314,
    "mu": 315,
    "ine": 316,
    "98": 317,
    "\u25811000": 318,
    "\u2581ntcreatefile": 319,
    "ado": 320,
    "a0": 321,
    "currentversion": 322,
    "adobe": 323,
    "\u25817e": 324,
    "mach": 325,
    "machine": 326,
    "94": 327,
    "34": 328,
    "\u25817ffd": 329,
    "pefile": 330,
    "writepefile": 331,
    "c8": 332,
    "ch": 333,
    "users": 334,
    "ss": 335,
    "16": 336,
    "\u2581o": 337,
    "fo": 338,
    "\u2581users": 339,
    "\u258128": 340,
    "\u25816": 341,
    "ts": 342,
    "ffff": 343,
    "tex": 344,
    "d4": 345,
    "ul": 346,
    "\u25817f6": 347,
    "mutex": 348,
    "b4": 349,
    "faul": 350,
    "\u2581\\": 351,
    "defaul": 352,
    "3c": 353,
    "oo": 354,
    "lete": 355,
    "delete": 356,
    "\u2581per": 357,
    "valuate": 358,
    "\u2581perfe": 359,
    "\u2581perfevaluate": 360,
    "1c": 361,
    "ea": 362,
    "00c": 363,
    "und": 364,
    "round": 365,
    "window": 366,
    "lic": 367,
    "reground": 368,
    "foreground": 369,
    "\u2581getforeground": 370,
    "\u2581getforegroundwindow": 371,
    "am": 372,
    "inf": 373,
    "pens": 374,
    "\u2581opens": 375,
    "man": 376,
    "\u258120": 377,
    "la": 378,
    "\u2581reg": 379,
    "ms": 380,
    "74": 381,
    "54": 382,
    "eb": 383,
    "24": 384,
    "plo": 385,
    ".0\\": 386,
    "sc": 387,
    "termin": 388,
    "tm": 389,
    "\u258118": 390,
    "12": 391,
    "pt": 392,
    "plore": 393,
    "explore": 394,
    "\u258112f4": 395,
    "ervice": 396,
    "a8": 397,
    "pc": 398,
    "ui": 399,
    "\u2581268": 400,
    "ww": 401,
    "\u2581t": 402,
    "direct": 403,
    "internet": 404,
    "rc": 405,
    "\u2581nttermin": 406,
    "\u258112ff": 407,
    "lp": 408,
    "filew": 409,
    "wor": 410,
    "ag": 411,
    "\u2581ntterminateprocess": 412,
    "defaults": 413,
    "\u258110000": 414,
    "sk": 415,
    "si": 416,
    "directory": 417,
    "directoryfile": 418,
    "\u2581ntquerydirectoryfile": 419,
    "tp": 420,
    "mon": 421,
    "explorer": 422,
    "44": 423,
    "01": 424,
    "2c": 425,
    "tf": 426,
    "\u258129": 427,
    "\u258116": 428,
    "ze": 429,
    "applic": 430,
    "\u2581data": 431,
    "application": 432,
    "\u25811c": 433,
    "aly": 434,
    "rpc": 435,
    "\u2581ctf": 436,
    "-1-5-21-117609710-838170752-515967899-1003\\": 437,
    "he": 438,
    "uy": 439,
    "scri": 440,
    "\u2581namedpipe": 441,
    "script": 442,
    "ryto": 443,
    ".1": 444,
    "analy": 445,
    "analyze": 446,
    "\u2581tryto": 447,
    "\u2581trytoanalyze": 448,
    "qam": 449,
    "ho": 450,
    "htm": 451,
    "uuy": 452,
    "uuyui": 453,
    "uuyuiqam": 454,
    "f7": 455,
    "ky": 456,
    "qg": 457,
    ".2": 458,
    "\u2581delete": 459,
    "\u2581deletefilew": 460,
    "bec": 461,
    "\u25817f0": 462,
    "ew": 463,
    "fd": 464,
    "4c": 465,
    "sig": 466,
    "dex": 467,
    "se": 468,
    "ba": 469,
    "internal": 470,
    "\u2581cre": 471,
    "\u2581createprocess": 472,
    "internalw": 473,
    "\u2581createprocessinternalw": 474,
    "e7": 475,
    "cok": 476,
    "rcx": 477,
    "\u258112d": 478,
    "wwcok": 479,
    "sigwwcok": 480,
    "data": 481,
    "lsa": 482,
    "40": 483,
    "7c4": 484,
    "504": 485,
    "comp": 486,
    "ime": 487,
    "\u2581\"": 488,
    "\u258122": 489,
    "36": 490,
    "f1": 491,
    "toke": 492,
    "\u258160": 493,
    "up": 494,
    "\u2581114": 495,
    "ot": 496,
    "\u258132": 497,
    "lsarpc": 498,
    "view": 499,
    "common": 500,
    "\\{": 501,
    "\u258117": 502,
    "mutexdefaults": 503,
    "ce": 504,
    "html": 505,
    "iy": 506,
    "reate": 507,
    "viewer": 508,
    "becreate": 509,
    "\u25811.": 510,
    "becreatedex": 511,
    "db": 512,
    "ls": 513,
    "oou": 514,
    "-4": 515,
    "\u2581direct": 516,
    "qgky": 517,
    "qgkyoou": 518,
    "\u2581400": 519,
    "pag": 520,
    "shim": 521,
    "\u258148": 522,
    "device": 523,
    "setfile": 524,
    "di": 525,
    "\u25811201": 526,
    "1e": 527,
    "\u2581120116": 528,
    "shimviewer": 529,
    "net": 530,
    "md": 531,
    "ff6c": 532,
    "pat": 533,
    "iws": 534,
    "iwsiy": 535,
    "pagiwsiy": 536,
    "00080": 537,
    "\u2581ffff": 538,
    "den": 539,
    "idden": 540,
    "2.": 541,
    "res": 542,
    "\u258142": 543,
    "\u258100": 544,
    "fb": 545,
    "\u2581164": 546,
    "\u25811d": 547,
    "bat": 548,
    "\u2581801": 549,
    "\u2581sh": 550,
    "\u258180100080": 551,
    "cscript": 552,
    "\u2581280": 553,
    "con": 554,
    "00s": 555,
    "f9": 556,
    "uter": 557,
    "vc": 558,
    "\u258113ed": 559,
    "ager": 560,
    "mo": 561,
    "manager": 562,
    "help": 563,
    "47c": 564,
    "ervicew": 565,
    "computer": 566,
    "computername": 567,
    "\u2581getcomputername": 568,
    "\u25814c": 569,
    "\u2581ffffffff": 570,
    "\u2581internet": 571,
    "\u2581openservicew": 572,
    "lass": 573,
    "leg": 574,
    "\u2581opensc": 575,
    "managerw": 576,
    "\u2581openscmanagerw": 577,
    "\u258140": 578,
    "log": 579,
    "fileexw": 580,
    "jus": 581,
    "\u25818.0\\": 582,
    "ly": 583,
    "token": 584,
    "ef": 585,
    "cv": 586,
    "rivi": 587,
    "rivileg": 588,
    "adjus": 589,
    "rivileges": 590,
    "run": 591,
    "adjustp": 592,
    "\u2581ntadjustp": 593,
    "rivilegestoken": 594,
    "\u2581ntadjustprivilegestoken": 595,
    "adv": 596,
    "b3": 597,
    "\u258170": 598,
    "\u258129d": 599,
    "26": 600,
    "\u2581ws": 601,
    "\u25814e8": 602,
    "86": 603,
    "95": 604,
    "class": 605,
    "\u2581fbe": 606,
    "eqgkyoou": 607,
    "f2": 608,
    "root": 609,
    "api": 610,
    "work": 611,
    "ne": 612,
    "e5": 613,
    "\u2581efe": 614,
    "\u258112ed": 615,
    "\u258112f8": 616,
    "it": 617,
    "\u25814e7": 618,
    "\u2581104": 619,
    "\u2581w": 620,
    "d3": 621,
    "\u258111": 622,
    "\u2581152": 623,
    "\u2581ad": 624,
    "04": 625,
    "is": 626,
    "d6": 627,
    "ver": 628,
    "92": 629,
    "classes": 630,
    "3.": 631,
    "how": 632,
    "rst": 633,
    "howto": 634,
    "8c": 635,
    "\u258176": 636,
    "she": 637,
    "f5": 638,
    "systemroot": 639,
    "shell": 640,
    "aa": 641,
    "word": 642,
    "c0": 643,
    "\u25814e6": 644,
    "orm": 645,
    "\u2581cmd": 646,
    "ctu": 647,
    "ffb0": 648,
    "pictu": 649,
    "\u258150": 650,
    "pictures": 651,
    "\u2581pictures": 652,
    "\u2581200": 653,
    "ache": 654,
    "ng": 655,
    "35": 656,
    "\u258180000": 657,
    "oper": 658,
    "\u2581getcomputernamew": 659,
    "\u25812ad": 660,
    "e2": 661,
    "f99": 662,
    "operation": 663,
    "\u2581reader": 664,
    "po": 665,
    "c00": 666,
    "\u2581ntdelete": 667,
    "e9": 668,
    "first": 669,
    "lsid": 670,
    "hidden": 671,
    "cc": 672,
    "ntro": 673,
    "ced": 674,
    "only": 675,
    "readonly": 676,
    "hiddenor": 677,
    "setfilehiddenor": 678,
    "setfilehiddenorreadonly": 679,
    "e3": 680,
    "contro": 681,
    "\\8": 682,
    "\u2581000000": 683,
    "f628": 684,
    "\u258119": 685,
    "76": 686,
    "pl": 687,
    "ble": 688,
    "service": 689,
    "\u258144": 690,
    "e1": 691,
    "008": 692,
    "\u258129c": 693,
    "clsid": 694,
    "\u25814000": 695,
    "patch": 696,
    "\u258130": 697,
    "39": 698,
    "bf": 699,
    "ty": 700,
    "f8b0": 701,
    "advan": 702,
    "advanced": 703,
    "\u25814e9": 704,
    "end": 705,
    "arecv": 706,
    "\u2581wsarecv": 707,
    "\u258112fe": 708,
    "e6": 709,
    "ost": 710,
    "\\8.0\\": 711,
    "if": 712,
    "56": 713,
    "apppatch": 714,
    "\u25819be": 715,
    "\u258177": 716,
    "\u25817c8": 717,
    "pu": 718,
    ".0.0": 719,
    "22": 720,
    "df": 721,
    "\u258112f3": 722,
    "d7": 723,
    "3a": 724,
    "unt": 725,
    "\u2581add": 726,
    "\u2581hk": 727,
    "dword": 728,
    "nect": 729,
    "\u2581di": 730,
    "88": 731,
    "\u25812adff": 732,
    "180": 733,
    "ttp": 734,
    "\u2581con": 735,
    "da": 736,
    "\u2581send": 737,
    "test": 738,
    "\u2581b8": 739,
    "\u258190": 740,
    "au": 741,
    "my": 742,
    "\u2581ra": 743,
    "984": 744,
    "ou": 745,
    "\u258113f6": 746,
    "cache": 747,
    "4.": 748,
    "\u258112f7": 749,
    "f878": 750,
    "\u25817ffde": 751,
    "\u2581http": 752,
    "0008": 753,
    "ad0": 754,
    "\u258174": 755,
    "-0": 756,
    "\u2581disk": 757,
    "b9": 758,
    "\u2581diskoperation": 759,
    "ind": 760,
    "\u2581114f99": 761,
    "f3": 762,
    "\u258112c": 763,
    "\u2581in": 764,
    "ee": 765,
    "\u2581ac": 766,
    "\u2581uuyuiqam": 767,
    "\u2581shim": 768,
    "f620": 769,
    "\u258113f0": 770,
    "f7c4": 771,
    "sdb": 772,
    "systest": 773,
    "\u258112e7": 774,
    "\u258177ed": 775,
    "\u258112f1": 776,
    "d5": 777,
    "ki": 778,
    "f700": 779,
    "\u2581208": 780,
    "as": 781,
    "\u25811a": 782,
    "d1": 783,
    "\u25817fa": 784,
    "\u2581k": 785,
    "\u2581127": 786,
    "\u2581find": 787,
    "\u25812ac": 788,
    "\u2581findfirst": 789,
    "\u2581findfirstfileexw": 790,
    "io": 791,
    "\u2581shimlib": 792,
    "\u258127": 793,
    "53": 794,
    "\u25812c": 795,
    "\u25811e7": 796,
    "(180": 797,
    "(180s": 798,
    "\u2581100": 799,
    "\u2581co": 800,
    "dat": 801,
    "\u25811e0": 802,
    "ck": 803,
    "\u2581f0": 804,
    "1a": 805,
    "1ff": 806,
    "count": 807,
    "}\\": 808,
    "rar": 809,
    "av": 810,
    "control": 811,
    "\u2581cc": 812,
    "\u258112fb": 813,
    "\\1": 814,
    "rcx1.": 815,
    "\u2581a0": 816,
    "bd": 817,
    "\u25813c": 818,
    "ffi": 819,
    "ack": 820,
    "dr": 821,
    "e90": 822,
    "\u258180000000": 823,
    "xt": 824,
    "network": 825,
    "37": 826,
    "200": 827,
    "\u2581connect": 828,
    "\u2581396": 829,
    "ffice": 830,
    "10.": 831,
    "ur": 832,
    "\u2581explorer": 833,
    "\u258112e6": 834,
    "19": 835,
    "chs": 836,
    "\u258113ed70": 837,
    "\u258113ed50": 838,
    "f680": 839,
    "604": 840,
    "sman": 841,
    "\u2581170": 842,
    "ea38": 843,
    "ea28": 844,
    "cf": 845,
    "task": 846,
    "b5": 847,
    "ies": 848,
    "33": 849,
    "\u2581b5": 850,
    "rity": 851,
    "\u2581x": 852,
    "curity": 853,
    "f6b8": 854,
    "\u2581b1": 855,
    "55": 856,
    "erver": 857,
    "security": 858,
    "valid": 859,
    "\u25811b0": 860,
    "f6e0": 861,
    "bmp": 862,
    "\u2581invalid": 863,
    "\u25812acff": 864,
    "\u258112ee": 865,
    "ws2": 866,
    "default": 867,
    "ca": 868,
    "2664": 869,
    "\u258124": 870,
    "84": 871,
    "\u258176eb": 872,
    "\u2581rasman": 873,
    "lu": 874,
    "\u258176eb2664": 875,
    "enter": 876,
    "\u258100000086": 877,
    "ve": 878,
    "\u2581e0": 879,
    "\u25817e9": 880,
    "\u2581share": 881,
    "upd": 882,
    "mm": 883,
    "\u2581host": 884,
    "ext": 885,
    "em": 886,
    "lpk": 887,
    "ec4": 888,
    "py": 889,
    "\u25812080000": 890,
    "\u2581a0008": 891,
    "14e90": 892,
    "\u25817c814e90": 893,
    "\u25817f0e4": 894,
    "\u25817f0ec": 895,
    "\u25817f0b4": 896,
    "usp": 897,
    "usp10.": 898,
    "iont": 899,
    "kill": 900,
    "taskkill": 901,
    "27": 902,
    "ationt": 903,
    "\u2581center": 904,
    "(36": 905,
    "ff34": 906,
    "\u258170ff": 907,
    "\u25817c": 908,
    "ationtime": 909,
    "setfilecre": 910,
    "setfilecreationtime": 911,
    "(3600s": 912,
    "\u25817f648": 913,
    "\u25817f67c": 914,
    "\u25817f66c": 915,
    "\u25817f6f8": 916,
    "\u25817f700": 917,
    "\u25817f6d8": 918,
    "\u25817e984": 919,
    "\u25817e9a4": 920,
    "b7": 921,
    "\u258129dff6c": 922,
    "\u258129dffb0": 923,
    "exem": 924,
    "lay": 925,
    "\u2581hkcu": 926,
    "ini": 927,
    ".1:": 928,
    "65": 929,
    "inform": 930,
    "qq": 931,
    "information": 932,
    "2c0": 933,
    "th": 934,
    "\u258184": 935,
    "\u2581copy": 936,
    "\u258112ff10": 937,
    "9f": 938,
    "b64": 939,
    "\u258125": 940,
    "host": 941,
    "\u2581bc": 942,
    "path": 943,
    "\u2581copyfileexw": 944,
    "ide": 945,
    ".0.0.1:": 946,
    "17c": 947,
    "\u25811dc": 948,
    "\u2581fbe47c": 949,
    "dd": 950,
    "ec04": 951,
    "tent": 952,
    "\u2581127.0.0.1:": 953,
    "\u2581154": 954,
    "content": 955,
    "\u2581cscript": 956,
    "\u2581efe47c": 957,
    "gm": 958,
    "5.": 959,
    "protect": 960,
    "d04": 961,
    "14c": 962,
    "ole": 963,
    "wn": 964,
    "\u2581258": 965,
    "\u2581423": 966,
    "ee0": 967,
    "ead0": 968,
    "\u2581c0": 969,
    "\u258112fec4": 970,
    "ie5": 971,
    "\u258114c": 972,
    "tempo": 973,
    "temporary": 974,
    "inst": 975,
    "update": 976,
    "b2": 977,
    "zh": 978,
    "pen": 979,
    "enu": 980,
    "\u2581407": 981,
    "ie5\\": 982,
    "polic": 983,
    "svc": 984,
    "b1": 985,
    "-00": 986,
    "7a": 987,
    "\u258112f2": 988,
    "d2": 989,
    "208": 990,
    "\u2581ntdeletevaluekey": 991,
    "\u258188": 992,
    "ff44": 993,
    "\u2581u": 994,
    "\u258121": 995,
    "\u25816c": 996,
    "\u2581fbe504": 997,
    "by": 998,
    "rack": 999,
    "ith": 1000,
    "ld": 1001,
    "\u258112f410": 1002,
    "l32.": 1003,
    "\u258112f3f8": 1004,
    "down": 1005,
    "\u258112f17c": 1006,
    "\u258112f428": 1007,
    "\u258112f14c": 1008,
    "ithprog": 1009,
    "\u258112f164": 1010,
    "7ec": 1011,
    "\u258112fe80": 1012,
    "\u2581efe504": 1013,
    "\u2581c4": 1014,
    "xj": 1015,
    "\u25811c5": 1016,
    "jav": 1017,
    "js": 1018,
    "policies": 1019,
    "\u258112ff9c": 1020,
    "\u2581hidden": 1021,
    "ass": 1022,
    "\u258150200": 1023,
    "nable": 1024,
    "a1": 1025,
    "setup": 1026,
    "m32.": 1027,
    "\u258112ec": 1028,
    "\u2581ntdeletekey": 1029,
    "\u25811e4": 1030,
    "open": 1031,
    "\u2581mo": 1032,
    "\u25817ffde00c": 1033,
    "appdata": 1034,
    "fce4": 1035,
    "ray": 1036,
    "\u25814e5": 1037,
    "08": 1038,
    "\u2581c8": 1039,
    "600": 1040,
    "msvc": 1041,
    "bs": 1042,
    "list": 1043,
    "\u25815c": 1044,
    "xjl": 1045,
    "\u2581280ec": 1046,
    "f69": 1047,
    "a04": 1048,
    "\u25811d0": 1049,
    "networkservice": 1050,
    "b6": 1051,
    "\u2581n": 1052,
    "a7": 1053,
    "ress": 1054,
    "ali": 1055,
    "profiles": 1056,
    "form": 1057,
    "\u25817e7ec": 1058,
    "\u25817e7c4": 1059,
    "(7": 1060,
    "644": 1061,
    "\u25819bc": 1062,
    "\u2581124": 1063,
    "\u2581taskkill": 1064,
    "sms": 1065,
    "p0": 1066,
    "\u2581423f69": 1067,
    "erver32": 1068,
    "003f": 1069,
    "\u2581f003f": 1070,
    "\u25812000": 1071,
    "\u2581e8": 1072,
    "lb": 1073,
    "ebb0": 1074,
    "informationprocess": 1075,
    "\u2581ntqueryinformationprocess": 1076,
    "\u2581account": 1077,
    "\u2581f01ff": 1078,
    "\u2581bsms": 1079,
    "gmbf": 1080,
    "\u2581bsmsgmbf": 1081,
    "ao": 1082,
    "esta": 1083,
    "download": 1084,
    "ff8": 1085,
    "(7)": 1086,
    "\u2581cpu": 1087,
    "\u258112ff18": 1088,
    "\u258112ff38": 1089,
    "java": 1090,
    "\u258112fa": 1091,
    "plat": 1092,
    "d9": 1093,
    "pg": 1094,
    "safe": 1095,
    "ming": 1096,
    "eu": 1097,
    "platform": 1098,
    "ecf4": 1099,
    "\u25814ad": 1100,
    "aming": 1101,
    "fileext": 1102,
    "idefileext": 1103,
    "\u2581hidefileext": 1104,
    "13": 1105,
    "\u2581d0": 1106,
    "cmd": 1107,
    "protection": 1108,
    "sable": 1109,
    "\u25811648": 1110,
    "protectionplatform": 1111,
    "softwareprotectionplatform": 1112,
    "\u258129cff6c": 1113,
    "\u258129cffb0": 1114,
    "crack": 1115,
    "9.": 1116,
    "crackur": 1117,
    "\u2581internetcrackur": 1118,
    "roaming": 1119,
    "\u2581e2": 1120,
    "byname": 1121,
    "\u2581gethost": 1122,
    "\u2581gethostbyname": 1123,
    "serviceprofiles": 1124,
    "\u2581b0": 1125,
    "\u2581enable": 1126,
    "xs": 1127,
    "shell32.": 1128,
    "-7": 1129,
    "344": 1130,
    "\u25811f0": 1131,
    "//": 1132,
    "lua": 1133,
    "not": 1134,
    "f68": 1135,
    "\u258134": 1136,
    "\u2581enablelua": 1137,
    "ify": 1138,
    "\u2581b4": 1139,
    "api32.": 1140,
    "\u258136": 1141,
    "\u2581ff": 1142,
    "://": 1143,
    "\u2581move": 1144,
    "ressw": 1145,
    "\u2581movefilew": 1146,
    "ithprogressw": 1147,
    "\u2581movefilewithprogressw": 1148,
    "85": 1149,
    "comct": 1150,
    "\u258113e": 1151,
    "\u2581274": 1152,
    "tokens": 1153,
    "\u258194": 1154,
    "\u258132ff": 1155,
    "comctl32.": 1156,
    "wins": 1157,
    "png": 1158,
    "x86": 1159,
    "\u258112f0": 1160,
    "\u258112ef": 1161,
    "\u2581104d3": 1162,
    "fd04": 1163,
    "art": 1164,
    "rame": 1165,
    "1m": 1166,
    "cn": 1167,
    "31": 1168,
    "20s": 1169,
    "\u258112f6": 1170,
    "winrar": 1171,
    "b3ec": 1172,
    "notify": 1173,
    "bb": 1174,
    "disable": 1175,
    "gdi": 1176,
    "msct": 1177,
    "disablenotify": 1178,
    "eck": 1179,
    "ec0": 1180,
    "\u25817ffd6": 1181,
    "\u25819be0": 1182,
    "(9": 1183,
    "\u25812adff60": 1184,
    "12\\": 1185,
    "\u25812adffa4": 1186,
    "(900s": 1187,
    "f1e8": 1188,
    "office": 1189,
    "\u258126": 1190,
    "fe50": 1191,
    "\u258178": 1192,
    "\u25811d8": 1193,
    "b070": 1194,
    "\u258177edb070": 1195,
    "\u258177edb3ec": 1196,
    "fe28": 1197,
    "-9": 1198,
    "fc00": 1199,
    "\u2581qq": 1200,
    "6.": 1201,
    "\u258142f1e8": 1202,
    "\u2581148": 1203,
    "boo": 1204,
    "requ": 1205,
    "\"*": 1206,
    "++": 1207,
    "c4": 1208,
    "wbe": 1209,
    ".0.": 1210,
    "\u2581160": 1211,
    "sq": 1212,
    "ackup": 1213,
    "\u25811cc": 1214,
    "dcc": 1215,
    "\u2581re": 1216,
    "mi": 1217,
    "top": 1218,
    "est": 1219,
    "dc00": 1220,
    "\u25817ffdfc00": 1221,
    "openrequ": 1222,
    "openrequesta": 1223,
    "\u2581httpopenrequesta": 1224,
    "a5": 1225,
    "7cc": 1226,
    "23": 1227,
    "\u258112fc": 1228,
    "check": 1229,
    "sp": 1230,
    "\u25817fa10": 1231,
    "\u25811d1e": 1232,
    "readfile": 1233,
    "\u2581internetreadfile": 1234,
    "pe1m": 1235,
    "\u2581uxjl": 1236,
    "\u2581uxjlpe1m": 1237,
    "\u25817fa70": 1238,
    "wbem": 1239,
    "25": 1240,
    "0c": 1241,
    "(20s": 1242,
    "ju": 1243,
    "-0000": 1244,
    "\u2581a8": 1245,
    "ml": 1246,
    "0089": 1247,
    "\u2581120089": 1248,
    "001\\": 1249,
    "\u2581internetcrackurla": 1250,
    "\u25817ffd600c": 1251,
    "af": 1252,
    "rpcrt": 1253,
    "2b": 1254,
    "\u2581eqgkyoou": 1255,
    "\u258168": 1256,
    "controlset": 1257,
    "\u2581:": 1258,
    "\u258164": 1259,
    "7.": 1260,
    "controlset001\\": 1261,
    "\u258112f5": 1262,
    "\u2581c1": 1263,
    "3ff": 1264,
    "\u2581e2ff44": 1265,
    "ae": 1266,
    "usr": 1267,
    "11": 1268,
    "66": 1269,
    "auto": 1270,
    "vbs": 1271,
    "\u2581270": 1272,
    "20c": 1273,
    "msvcrt": 1274,
    "\u25817ffda": 1275,
    "bo": 1276,
    "lw": 1277,
    "3\\": 1278,
    "\\.": 1279,
    "imm32.": 1280,
    "go": 1281,
    "\u2581127c": 1282,
    "manif": 1283,
    "jpg": 1284,
    "boot": 1285,
    "user32.": 1286,
    "baid": 1287,
    "icbc": 1288,
    "3e": 1289,
    "layou": 1290,
    "rpcrt4.": 1291,
    "lm": 1292,
    "fire": 1293,
    "advapi32.": 1294,
    "itra": 1295,
    "\u2581ec": 1296,
    ".0.2": 1297,
    "p0d": 1298,
    "\u2581kitra": 1299,
    "\u2581kitrap0d": 1300,
    "\u2581bd0": 1301,
    "\u25817fe": 1302,
    "\u2581180": 1303,
    "3f": 1304,
    "\u2581bd0f68": 1305,
    "34400": 1306,
    "\u25814ad34400": 1307,
    "gdi32.": 1308,
    "manifest": 1309,
    "\u2581427": 1310,
    "layouts": 1311,
    "pre": 1312,
    "_0": 1313,
    "\u258110c": 1314,
    "asm": 1315,
    "jueu": 1316,
    "programs": 1317,
    "\u258112f9": 1318,
    "amjueu": 1319,
    "put": 1320,
    "\u25817ffda00c": 1321,
    "46": 1322,
    "\u2581cpucheck": 1323,
    "winsxs": 1324,
    "lbes": 1325,
    "compart": 1326,
    "a6": 1327,
    "tim": 1328,
    "tmd": 1329,
    "\u2581e4": 1330,
    "\u2581f8": 1331,
    "imag": 1332,
    "\u25817ffd3": 1333,
    "\u2581150": 1334,
    "fmp": 1335,
    "x86_": 1336,
    "timlist": 1337,
    "timlistcache": 1338,
    "-1-5-21-117609710-838170752-515967899-1003mutex": 1339,
    "\u258158": 1340,
    "\u25818000000": 1341,
    "\u2581128": 1342,
    "install": 1343,
    "d0000": 1344,
    "xdcc": 1345,
    "xdccprograms": 1346,
    "\u258110be": 1347,
    "\u2581p": 1348,
    "f2c8": 1349,
    "\u2581getcomputernameexw": 1350,
    "\u25817ffdec00": 1351,
    "\u25817ffd8": 1352,
    "fmpdefaults": 1353,
    "\u2581recv": 1354,
    "\u258112ed48": 1355,
    "2e": 1356,
    "frame": 1357,
    "\u258112e5": 1358,
    "\u2581a4": 1359,
    "146": 1360,
    "93": 1361,
    "\u25813e": 1362,
    "thread": 1363,
    "000c": 1364,
    "\u25812006": 1365,
    "\u25811d4": 1366,
    "940": 1367,
    "zon": 1368,
    "ef60": 1369,
    "-14": 1370,
    "cur32.": 1371,
    "secur32.": 1372,
    "sent": 1373,
    "windowsshell": 1374,
    "\\3": 1375,
    "\u25818000": 1376,
    "\u25817ffd300c": 1377,
    "present": 1378,
    "9e": 1379,
    "12_": 1380,
    "\u2581e0ff": 1381,
    "\u25817eee0": 1382,
    "\u25817eec0": 1383,
    "aa3": 1384,
    "\u2581m": 1385,
    "\u2581ali": 1386,
    "vch": 1387,
    "\u2581168": 1388,
    "ert": 1389,
    "\u258112d4": 1390,
    "\u258170ff5c": 1391,
    "\u258170ff7c": 1392,
    "desk": 1393,
    "72": 1394,
    "\u258113f0ec": 1395,
    "rs": 1396,
    "_32.": 1397,
    "ervic": 1398,
    "\u25817f5": 1399,
    "3a9": 1400,
    "70c": 1401,
    "cf1": 1402,
    "\u2581office": 1403,
    "ws2_32.": 1404,
    "gle": 1405,
    "\u2581592": 1406,
    "vchost": 1407,
    "\u2581is": 1408,
    "localserver32": 1409,
    "\u2581hklm": 1410,
    "\\1\"": 1411,
    "\u2581\"\"": 1412,
    "heme": 1413,
    "\u2581210": 1414,
    "\u2581174": 1415,
    "\u258115c": 1416,
    "\"\"": 1417,
    "20000": 1418,
    "ame": 1419,
    "\u25812acff60": 1420,
    "\u2581isdebugger": 1421,
    "\u2581isdebuggerpresent": 1422,
    "%\\": 1423,
    "oogle": 1424,
    "\u25812acffa4": 1425,
    "\u25811c8": 1426,
    "-2": 1427,
    "\u2581fo": 1428,
    "safeboot": 1429,
    "\u2581592aa3": 1430,
    "backup": 1431,
    "a9": 1432,
    "bro": 1433,
    "desktop": 1434,
    "488": 1435,
    "ma": 1436,
    "\u2581149": 1437,
    "\u2581dc": 1438,
    "\u25811d1": 1439,
    "_65": 1440,
    "conime": 1441,
    ".0.0.0": 1442,
    "ws2help": 1443,
    "\u25811a0": 1444,
    "\u258152": 1445,
    "office12\\": 1446,
    "txt": 1447,
    "144c": 1448,
    "95b64": 1449,
    "cf1df": 1450,
    "_6595b64": 1451,
    "144ccf1df": 1452,
    "_6595b64144ccf1df": 1453,
    "ug": 1454,
    "\u25817c885": 1455,
    "\u25817c885604": 1456,
    "\u2581fold": 1457,
    "too": 1458,
    "=&": 1459,
    "_6": 1460,
    "ce8": 1461,
    "ip": 1462,
    "\u2581-": 1463,
    "\u2581d4": 1464,
    "uc": 1465,
    "b8c": 1466,
    ",-5": 1467,
    "75": 1468,
    "rd": 1469,
    "\u2581443": 1470,
    "\u2581svchost": 1471,
    "1d": 1472,
    "\u2581cc000c": 1473,
    "\u2581\\?": 1474,
    "\u258133": 1475,
    "00000": 1476,
    "rcx2.": 1477,
    "yn": 1478,
    "\u2581114f990": 1479,
    "\u2581114f998": 1480,
    "\u2581114f99c": 1481,
    "\\~": 1482,
    "tion": 1483,
    "\u2581cc00": 1484,
    "f90": 1485,
    "cfg": 1486,
    "\u25817c80": 1487,
    "9-": 1488,
    "\u258124c": 1489,
    "__": 1490,
    "\u258138": 1491,
    "7e": 1492,
    "10000": 1493,
    "\u2581ntwritevirtualmemory": 1494,
    "6-": 1495,
    "\u258123": 1496,
    "t32.": 1497,
    "\u2581documents": 1498,
    "lwapi": 1499,
    "shlwapi": 1500,
    "\u2581\\??": 1501,
    "\u2581217": 1502,
    "9c00": 1503,
    "\u2581128c": 1504,
    "controls": 1505,
    "fee": 1506,
    "\u258112e4": 1507,
    "fd6c": 1508,
    "ig": 1509,
    "767": 1510,
    "\u2581\\??\\": 1511,
    "e238": 1512,
    "964": 1513,
    "ad4": 1514,
    "600.": 1515,
    "fe6c": 1516,
    "\\\\": 1517,
    "fig": 1518,
    "ole32.": 1519,
    "f65c": 1520,
    "788": 1521,
    "70cb64": 1522,
    "\u25817670cb64": 1523,
    "wk": 1524,
    "600.55": 1525,
    "ac9f": 1526,
    "\u25817c80ac9f": 1527,
    "\u258199": 1528,
    "64c": 1529,
    "\u2581-14": 1530,
    "76753": 1531,
    "\u2581-14146": 1532,
    "\u2581-1414676753": 1533,
    "\u258112e8": 1534,
    "ist": 1535,
    "\u2581folders": 1536,
    "600.5512_": 1537,
    "autorun": 1538,
    "\u2581178": 1539,
    "\u258154": 1540,
    "nti": 1541,
    "box": 1542,
    "edc": 1543,
    "\u2581000000a1": 1544,
    "\u258112ea": 1545,
    "ats": 1546,
    "(6": 1547,
    "000ff": 1548,
    "\u25817ffd9c00": 1549,
    "\u2581240": 1550,
    "fac": 1551,
    "\u2581process": 1552,
    "\u25811e8": 1553,
    "ow": 1554,
    "ertd": 1555,
    "input": 1556,
    "b08": 1557,
    "\u25819be0bc": 1558,
    "3b9": 1559,
    "\u2581a1": 1560,
    "\u2581ntcreatethread": 1561,
    "e47c": 1562,
    "5e": 1563,
    "xp": 1564,
    "rcx3.": 1565,
    "2\\": 1566,
    "b84": 1567,
    "\u2581shared": 1568,
    "69": 1569,
    "paths": 1570,
    "\u25811f03ff": 1571,
    "b0000": 1572,
    "(2": 1573,
    "emb": 1574,
    "cl": 1575,
    "3d": 1576,
    "60s": 1577,
    "(600s": 1578,
    "nf": 1579,
    "_35": 1580,
    "\u2581120": 1581,
    "*.": 1582,
    "cry": 1583,
    "\u2581280e4": 1584,
    "\u25811b": 1585,
    "\u258112f458": 1586,
    "mode": 1587,
    "1f": 1588,
    "aut32.": 1589,
    "e50": 1590,
    "7ff": 1591,
    "\u258112f830": 1592,
    "oleaut32.": 1593,
    "ent": 1594,
    "\u25814e8f628": 1595,
    "a3": 1596,
    "ab": 1597,
    "a2": 1598,
    "e0000": 1599,
    "\u25811a8": 1600,
    "6c18": 1601,
    "tu": 1602,
    "\u25819c": 1603,
    "5.2": 1604,
    "\u2581d8": 1605,
    "acro": 1606,
    "57": 1607,
    "\u258116c": 1608,
    "assemb": 1609,
    "\u2581admin": 1610,
    "2c8": 1611,
    "\u2581146c18": 1612,
    "32first": 1613,
    "config": 1614,
    ".0.2600.5512_": 1615,
    "(60s": 1616,
    "firew": 1617,
    "\u25813d5": 1618,
    "-11": 1619,
    "195": 1620,
    "yw": 1621,
    "_6.0.2600.5512_": 1622,
    "assembly": 1623,
    "\u25817ffd8c00": 1624,
    "d4ce8": 1625,
    "_35d4ce8": 1626,
    "\u2581744": 1627,
    "45": 1628,
    "\u2581mu": 1629,
    "\u25814e7f628": 1630,
    "nv": 1631,
    "\u25814073a9": 1632,
    "\u25814073b9": 1633,
    "\u2581fe": 1634,
    "54d8": 1635,
    "dec": 1636,
    "_35d4ce83\\": 1637,
    "ism": 1638,
    "59": 1639,
    "9c0": 1640,
    "abc": 1641,
    "dd8": 1642,
    "ride": 1643,
    "verride": 1644,
    "sou": 1645,
    "\u258128d0000": 1646,
    "baidu": 1647,
    "\u2581188": 1648,
    "\u258112eb": 1649,
    "gosq": 1650,
    "\u25817ffdf": 1651,
    "gosqky": 1652,
    "\u2581mugosqky": 1653,
    "bin": 1654,
    "\u2581nuc": 1655,
    "ismqg": 1656,
    "\u2581nucismqg": 1657,
    "\u25811ea": 1658,
    "\u258137a": 1659,
    "pa": 1660,
    "dri": 1661,
    "dmp": 1662,
    "\u25817ed": 1663,
    "v2": 1664,
    "dc0": 1665,
    "base": 1666,
    "ment": 1667,
    "\u25811454d8": 1668,
    "sourc": 1669,
    "username": 1670,
    "vir": 1671,
    "\u2581eq": 1672,
    "img": 1673,
    "\u2581aa": 1674,
    "\u258175c": 1675,
    "\u25811244": 1676,
    "\u25818c": 1677,
    "\u25818f4": 1678,
    "saf": 1679,
    "b40": 1680,
    "\u258127c": 1681,
    "\u2581114d7": 1682,
    "-6": 1683,
    "\u2581254": 1684,
    "info": 1685,
    "e8c": 1686,
    "\u2581de": 1687,
    "630": 1688,
    "\u2581fa0": 1689,
    "\u25811523": 1690,
    "\u25816f0": 1691,
    "fc30": 1692,
    "\u2581248": 1693,
    "mote": 1694,
    "32firstw": 1695,
    "\u25811f4": 1696,
    "\u2581147": 1697,
    "-12": 1698,
    "wts": 1699,
    "7.1": 1700,
    "6\\": 1701,
    "\u2581update": 1702,
    "\u258137": 1703,
    "ntivir": 1704,
    "prox": 1705,
    "wtsn": 1706,
    "time": 1707,
    "vmon": 1708,
    "\u2581dd3": 1709,
    "\u2581244": 1710,
    "atson": 1711,
    "use": 1712,
    "\u25814e6f628": 1713,
    "_16": 1714,
    "\u2581290": 1715,
    "ff9c": 1716,
    "images": 1717,
    "rn": 1718,
    "\u25812b3": 1719,
    "91": 1720,
    "\u2581antivir": 1721,
    "\u258112e2": 1722,
    "0020": 1723,
    "\u25817ffdf00c": 1724,
    "ku": 1725,
    "erne": 1726,
    "\u2581win": 1727,
    "fad4": 1728,
    "51": 1729,
    "ico": 1730,
    "drwtsn": 1731,
    "\u2581firew": 1732,
    "exec": 1733,
    "\u2581108": 1734,
    "\u2581f4": 1735,
    "\u2581250": 1736,
    "skin": 1737,
    "bcc": 1738,
    "\u2581watson": 1739,
    "msctf": 1740,
    "f2c0": 1741,
    "rsa": 1742,
    "\u2581144": 1743,
    "ia": 1744,
    "xtheme": 1745,
    "uxtheme": 1746,
    "22e3": 1747,
    "1510": 1748,
    "e208": 1749,
    "\u2581certd": 1750,
    "9794": 1751,
    "\u258120c": 1752,
    "1b": 1753,
    "\u258125c": 1754,
    "rm": 1755,
    "ad8": 1756,
    "_4": 1757,
    "\u258132fe": 1758,
    "\u2581754": 1759,
    "\u25814e8f620": 1760,
    "fime": 1761,
    "msctfime": 1762,
    "il": 1763,
    "deff": 1764,
    "drwtsn32.": 1765,
    "102b": 1766,
    "195ff": 1767,
    "a04a8": 1768,
    "ws58": 1769,
    "102bd6": 1770,
    "22e3e50": 1771,
    "15109794": 1772,
    "ws58a04a8": 1773,
    "15109794195ff": 1774,
    "22e3e50102bd6": 1775,
    "ws58a04a822e3e50102bd6": 1776,
    "ws58a04a822e3e50102bd615109794195ff": 1777,
    "sr": 1778,
    "\u258113e9": 1779,
    "enh": 1780,
    "\u25817ffddc00": 1781,
    "rac": 1782,
    "cafee": 1783,
    "\u2581ksaf": 1784,
    "\\*.": 1785,
    "974": 1786,
    "5f4": 1787,
    "\u258113d4": 1788,
    "abcdeff": 1789,
    "cafeefac": 1790,
    "abcdeffedc": 1791,
    "77": 1792,
    "3.1": 1793,
    "1.0": 1794,
    "\u2581117": 1795,
    "20.": 1796,
    "\u2581118": 1797,
    "f7cc": 1798,
    "sapi": 1799,
    "\u258112a": 1800,
    "6b": 1801,
    "jre": 1802,
    "rom": 1803,
    "3-": 1804,
    "\u2581user": 1805,
    "8.": 1806,
    "\u2581ravmon": 1807,
    "\u2581158": 1808,
    "\u258189": 1809,
    "\u25813e1": 1810,
    "resourc": 1811,
    "\u2581.": 1812,
    "\u258141": 1813,
    "a0000": 1814,
    "acc": 1815,
    "doc": 1816,
    "poo": 1817,
    "iexplore": 1818,
    "yu": 1819,
    "_1": 1820,
    "framework": 1821,
    "\u2581218": 1822,
    "\u25814e7f620": 1823,
    "\u2581339": 1824,
    "msco": 1825,
    "\u25817ffdc": 1826,
    "50000": 1827,
    "nu": 1828,
    "31.": 1829,
    "gac": 1830,
    "\u258132ff2c0": 1831,
    "conf": 1832,
    "\u25817ffd5": 1833,
    "\u25812920000": 1834,
    "\u258112e774": 1835,
    "fla": 1836,
    "\u258112f470": 1837,
    "\u258132ff2c8": 1838,
    "ff48": 1839,
    "dw": 1840,
    "winmm": 1841,
    "\u25814e9f628": 1842,
    "ler": 1843,
    "\u258112d8": 1844,
    "zl": 1845,
    "7-": 1846,
    "f910": 1847,
    "crypt": 1848,
    "\u2581sendto": 1849,
    "\u258112fb84": 1850,
    "docf": 1851,
    "remote": 1852,
    "sho": 1853,
    "0018": 1854,
    "\u2581194": 1855,
    "rsaenh": 1856,
    "500": 1857,
    "\u258112f488": 1858,
    "\u25812b3ff34": 1859,
    "plug": 1860,
    "1ce": 1861,
    "lient": 1862,
    "game": 1863,
    "bh": 1864,
    "nk": 1865,
    "29": 1866,
    "\u25811bc": 1867,
    "\u258198": 1868,
    "fe90": 1869,
    "\u2581google": 1870,
    "\u2581system": 1871,
    "\u2581190": 1872,
    "\u258167c": 1873,
    "\u2581000": 1874,
    "brows": 1875,
    "\u2581214": 1876,
    "ac0": 1877,
    "\u25811fe": 1878,
    "fc8": 1879,
    "\u25819be6": 1880,
    "tw": 1881,
    "\u258112db": 1882,
    "\u258139": 1883,
    "bi": 1884,
    "pion": 1885,
    "pionao": 1886,
    "fe68": 1887,
    "\u258114e": 1888,
    "\u2581150018": 1889,
    "\u2581110": 1890,
    "usere": 1891,
    "\u258119c": 1892,
    "\u2581d6": 1893,
    "\u258117c": 1894,
    "\u2581cache": 1895,
    "\u258112eea4": 1896,
    "\u25811c0": 1897,
    "94c": 1898,
    "dl": 1899,
    "\u2581280ed": 1900,
    "dml": 1901,
    "userenv": 1902,
    "-07": 1903,
    "dmlconf": 1904,
    "\u258112d5": 1905,
    "\u2581184": 1906,
    "238": 1907,
    "ted": 1908,
    "cke": 1909,
    "\u2581b5dc": 1910,
    "d6964": 1911,
    "\u258175cd6964": 1912,
    "1-": 1913,
    "\u2581794": 1914,
    "\u25811d5": 1915,
    "\u25817fb": 1916,
    ".20": 1917,
    "\u2581260": 1918,
    "\u2581memory": 1919,
    "\u25818f4ee0": 1920,
    "\u2581memoryoperation": 1921,
    "\u258118c": 1922,
    "\u25811e": 1923,
    "7j": 1924,
    "\u25811480": 1925,
    "\u258112e76c": 1926,
    "ef98": 1927,
    "\u25814e6f620": 1928,
    "xml": 1929,
    "\u25817ffdd": 1930,
    "pp": 1931,
    "yo": 1932,
    "hlp": 1933,
    "46zl": 1934,
    "7jxt": 1935,
    "7jxt46zl": 1936,
    "f0000": 1937,
    "63": 1938,
    "ie5\\7jxt46zl": 1939,
    "hell": 1940,
    "\u2581b5dc00": 1941,
    "\u2581b5dc08": 1942,
    "nd": 1943,
    "\u2581264": 1944,
    "\u258112ee8c": 1945,
    "=0000": 1946,
    "\u25811ec": 1947,
    "\u25817ffd500c": 1948,
    "\u25811ba": 1949,
    "\u25817ffd9": 1950,
    "ff5c": 1951,
    "_00": 1952,
    "\u258112ee74": 1953,
    "\u258112de": 1954,
    "inj": 1955,
    "\u25810.0.0.0": 1956,
    "f98": 1957,
    "cb": 1958,
    "qw": 1959,
    "ebd8": 1960,
    "\u258112fb3c": 1961,
    "\u258114ea": 1962,
    "\u2581134": 1963,
    "\u25812910000": 1964,
    "ha": 1965,
    "67": 1966,
    "e614": 1967,
    "\u2581no": 1968,
    "rcx4.": 1969,
    "\u258113f0e4": 1970,
    "\u25811033": 1971,
    "\u258113f0b4": 1972,
    "f928": 1973,
    "fe94": 1974,
    "\u258114ec": 1975,
    "f000ff": 1976,
    "ooo": 1977,
    "\u2581cc0008": 1978,
    "\u258112dc": 1979,
    "\u258127be": 1980,
    "ected": 1981,
    "sta": 1982,
    "e630": 1983,
    "\u258114d": 1984,
    "beinj": 1985,
    "beinjected": 1986,
    "\u2581process32firstw": 1987,
    "39.1": 1988,
    "\u258113f67c": 1989,
    "lan": 1990,
    "\u258112f878": 1991,
    "\u258113f700": 1992,
    "sl": 1993,
    "\u258113e984": 1994,
    "\u258113e9a4": 1995,
    "\u25819e": 1996,
    "\u258113f648": 1997,
    "\u258113f66c": 1998,
    "qh": 1999,
    "resources": 2000,
    "\u258111c": 2001,
    "\u258113f6d8": 2002,
    "\u258113f6f8": 2003,
    "sv": 2004,
    "2_": 2005,
    "440": 2006,
    "\u25817f2": 2007,
    "url": 2008,
    "imooo": 2009,
    "imoooyw": 2010,
    "\u2581251e": 2011,
    "flash": 2012,
    "sun": 2013,
    "ql": 2014,
    "ifi": 2015,
    "hoto": 2016,
    "ysec": 2017,
    "\u25812006-0": 2018,
    "\u25812ba": 2019,
    "e7ec": 2020,
    "procs": 2021,
    "\u258114cdd8": 2022,
    "\u2581cap": 2023,
    "\u25817ffdb": 2024,
    "procserver32": 2025,
    "\u25811ff": 2026,
    "\u2581115": 2027,
    "ps": 2028,
    "6a": 2029,
    "\u258114cff8": 2030,
    "\u258178c": 2031,
    "\u2581280e3": 2032,
    "inprocserver32": 2033,
    "968": 2034,
    "instal": 2035,
    "modetime": 2036,
    "7c0": 2037,
    "rch": 2038,
    "\u2581caption": 2039,
    "3b": 2040,
    "\u2581155": 2041,
    "terminate": 2042,
    "fc18": 2043,
    "remoteprocess": 2044,
    "terminateremoteprocess": 2045,
    "\u2581aimoooyw": 2046,
    "socke": 2047,
    "100": 2048,
    "6f": 2049,
    "\u25814e8f6b8": 2050,
    "\u25814e8f6e0": 2051,
    "\u25817ffdd00c": 2052,
    "uninstall": 2053,
    "-80": 2054,
    "e20c": 2055,
    "\\6": 2056,
    "5cc": 2057,
    "setupapi": 2058,
    "hread": 2059,
    "layer": 2060,
    "hx": 2061,
    "a710": 2062,
    "\u258112e644": 2063,
    "tray": 2064,
    "\u25812c8": 2065,
    "\u2581360": 2066,
    "\u2581384": 2067,
    "share": 2068,
    "1cf": 2069,
    "\u25814e9f620": 2070,
    "fc2c": 2071,
    "\u25819be0d0": 2072,
    "\u2581e0ff3c": 2073,
    "\u2581e0ff98": 2074,
    "\u2581185": 2075,
    "browser": 2076,
    "\u258156": 2077,
    "\u258112e0": 2078,
    "\u258112d9": 2079,
    "\u25812e8": 2080,
    "fc5c": 2081,
    "\u2581114d": 2082,
    "\u258136.2": 2083,
    "\u258110be47c": 2084,
    "\u2581183.1": 2085,
    "\u258112eda8": 2086,
    "station": 2087,
    "388": 2088,
    "\u258112ef54": 2089,
    "\u2581wsa": 2090,
    "socketw": 2091,
    "\u2581wsasocketw": 2092,
    "\u25817ffd900c": 2093,
    "b4d": 2094,
    "\u2581408": 2095,
    "ploy": 2096,
    "deploy": 2097,
    "\u2581thread": 2098,
    "du": 2099,
    "\u25817e6": 2100,
    "photo": 2101,
    "2.2": 2102,
    "\u2581405": 2103,
    "\\{0": 2104,
    "nsapi": 2105,
    "\u258112edb0": 2106,
    "\u258110be504": 2107,
    "9d": 2108,
    "\u25817ffdb00c": 2109,
    "\u25814e7f6b8": 2110,
    "\u25814e7f6e0": 2111,
    "mmcount": 2112,
    "earch": 2113,
    "\u25819be2": 2114,
    ".3": 2115,
    "\u258110066": 2116,
    "server": 2117,
    "\u2581too": 2118,
    "ssvc": 2119,
    "\u25819bc5f4": 2120,
    "\u25819bc630": 2121,
    "\u2581130": 2122,
    "www": 2123,
    "\u258110fe": 2124,
    "\u2581e7": 2125,
    "\u25812d0": 2126,
    "ac8": 2127,
    "lnk": 2128,
    "\u2581fc": 2129,
    ".10": 2130,
    "244": 2131,
    "hdi": 2132,
    "shohdi": 2133,
    "\u258112fb08": 2134,
    "wkssvc": 2135,
    "\u25817f5b0": 2136,
    "\u2581aa0": 2137,
    "170": 2138,
    "rsu": 2139,
    "\u2581(": 2140,
    "2:": 2141,
    "\u25817f5d8": 2142,
    "\u25813d4": 2143,
    "cy": 2144,
    "e08": 2145,
    "zones": 2146,
    "rk": 2147,
    "fa20": 2148,
    "5f": 2149,
    "528": 2150,
    "\u258126c": 2151,
    "rili": 2152,
    "f190": 2153,
    "dyn": 2154,
    "unter": 2155,
    "\u25811c4": 2156,
    "drivers": 2157,
    "\u25819b": 2158,
    "b5d": 2159,
    "34:": 2160,
    "\u258112b": 2161,
    "53f000ff": 2162,
    "no": 2163,
    "-10": 2164,
    "3000": 2165,
    "\u2581ffe47c": 2166,
    "d28": 2167,
    "484": 2168,
    "gou": 2169,
    "\u258112f464": 2170,
    "73": 2171,
    "e504": 2172,
    "2f": 2173,
    "m2": 2174,
    "\u2581aa03c": 2175,
    "140": 2176,
    "nch": 2177,
    "t01": 2178,
    "16.": 2179,
    "\u2581123c": 2180,
    "jig": 2181,
    "\u25811b8": 2182,
    "\u258112f49c": 2183,
    "}.": 2184,
    "v4": 2185,
    "eb58": 2186,
    "\u258121c": 2187,
    "zhu": 2188,
    "\u258175": 2189,
    "507": 2190,
    "\u25811646": 2191,
    "7\\": 2192,
    "\u25814e6f6b8": 2193,
    "\u25814e6f6e0": 2194,
    "9a": 2195,
    "198": 2196,
    "\u25813dc": 2197,
    "\u25811a4": 2198,
    "\u258112e3": 2199,
    "\u2581198": 2200,
    "\u25811b4": 2201,
    "mini": 2202,
    "untermutex": 2203,
    "\u258119a": 2204,
    "ull": 2205,
    "3_": 2206,
    "\u258112f494": 2207,
    "int": 2208,
    "\u2581427b4d": 2209,
    "\u2581427b5d": 2210,
    "5b": 2211,
    "gen": 2212,
    "\u258113e7ec": 2213,
    "\u258113e7c4": 2214,
    "\u2581zones": 2215,
    "\u25819999": 2216,
    "jigpl": 2217,
    "m2jigpl": 2218,
    "bench": 2219,
    "30000": 2220,
    "pack": 2221,
    "d5a": 2222,
    "60.": 2223,
    "\u2581file": 2224,
    ",-50": 2225,
    "\u2581104d3ec": 2226,
    "\u2581104d3f4": 2227,
    "\u2581332": 2228,
    "\u2581x1": 2229,
    "\u2581av": 2230,
    "gu": 2231,
    "\u258112fb68": 2232,
    "\u2581104d3f8": 2233,
    "\u258136.25.2": 2234,
    "1d4": 2235,
    "\u2581153": 2236,
    "\u2581x4": 2237,
    "wu": 2238,
    "\u258113f0cc": 2239,
    "d1b8": 2240,
    "9b": 2241,
    "\u25810.0.0.0:": 2242,
    "m2jigpl2\\": 2243,
    "\u258136.25.250": 2244,
    "804": 2245,
    "fe88": 2246,
    "\u25813b": 2247,
    "\u2581ffff4c": 2248,
    "hy": 2249,
    "pool": 2250,
    "\u25811036": 2251,
    "asp": 2252,
    "\u25813e3": 2253,
    "ary": 2254,
    "sogou": 2255,
    "\u2581ffe504": 2256,
    "303": 2257,
    "ac00": 2258,
    ".27.1": 2259,
    "-1-5-21-117609710-838170752-515967899-1003_": 2260,
    "-0000-00": 2261,
    "\u25811f8": 2262,
    "\u258112fb40": 2263,
    "ral": 2264,
    "qhimg": 2265,
    "ht": 2266,
    "\u2581aaf": 2267,
    "\u258114e008": 2268,
    "\u25810001": 2269,
    "de0": 2270,
    "\u2581518": 2271,
    "index": 2272,
    "ff0": 2273,
    "dda": 2274,
    "\u2581b1e": 2275,
    "ysecsvc": 2276,
    "ok": 2277,
    "mss": 2278,
    "workbench": 2279,
    "paysecsvc": 2280,
    "\u2581220": 2281,
    "\u25817ffd7": 2282,
    "\u25813000": 2283,
    "fe40": 2284,
    "ngyu": 2285,
    "emap": 2286,
    "exte": 2287,
    "614": 2288,
    "zonemap": 2289,
    "50727": 2290,
    ".0.50727": 2291,
    "deployment": 2292,
    "\u2581251ea4": 2293,
    "msac": 2294,
    "\u2581140": 2295,
    "18c": 2296,
    "pow": 2297,
    "fy": 2298,
    "\u258112e1": 2299,
    "\u25812d": 2300,
    "740": 2301,
    "ernel": 2302,
    "jj": 2303,
    "imeng": 2304,
    "shimeng": 2305,
    "\u25812cc": 2306,
    "6d": 2307,
    "39.134:": 2308,
    "\u2581117.27.1": 2309,
    "\u2581117.27.139.134:": 2310,
    "\u25811528": 2311,
    "7ff4c": 2312,
    "msacm32.": 2313,
    "\u2581d2": 2314,
    "dong": 2315,
    "\u2581prox": 2316,
    "220": 2317,
    "\u25813be": 2318,
    "bhdc": 2319,
    "61": 2320,
    "fangyu": 2321,
    "act": 2322,
    "zhudong": 2323,
    "zhudongfangyu": 2324,
    "\u2581107ff4c": 2325,
    "6e": 2326,
    "ai": 2327,
    "a710b8": 2328,
    "\u258159": 2329,
    "2-": 2330,
    "ph": 2331,
    "\u258112edc0": 2332,
    "nps": 2333,
    "\\6.0\\": 2334,
    "medi": 2335,
    "\u25813d9": 2336,
    "640": 2337,
    "\u25812c4": 2338,
    "ouce": 2339,
    "\u25811ac": 2340,
    "ec8": 2341,
    "\u25817ffdac00": 2342,
    "3000_": 2343,
    "runouce": 2344,
    "ession": 2345,
    "nps3000_": 2346,
    "ito": 2347,
    "search": 2348,
    "1.1": 2349,
    "lob": 2350,
    "\u25813e8": 2351,
    "servic": 2352,
    "\u2581212": 2353,
    "\u25817e604": 2354,
    "\u25817e61a": 2355,
    "\u2581204": 2356,
    "30s": 2357,
    "ched": 2358,
    "\u258112e9": 2359,
    "\u258131": 2360,
    "gif": 2361,
    "50c": 2362,
    "204": 2363,
    "\u2581c5": 2364,
    "\u25817d": 2365,
    "\u25813a4": 2366,
    "\u25814e9f6b8": 2367,
    "\u25814e9f6e0": 2368,
    "f60": 2369,
    "ank": 2370,
    "\u25817ffd700c": 2371,
    "\u2581170e9": 2372,
    "\u2581228": 2373,
    "\\39": 2374,
    "79": 2375,
    "\u2581296": 2376,
    "32_": 2377,
    "ions": 2378,
    "installer": 2379,
    "38b0": 2380,
    "zip": 2381,
    "fco": 2382,
    "su": 2383,
    "(30s": 2384,
    "\u2581207": 2385,
    "\u258130fb": 2386,
    "\\360": 2387,
    "framedyn": 2388,
    "f04": 2389,
    "fe70": 2390,
    "ecc": 2391,
    "tyk": 2392,
    "acgen": 2393,
    "acgenral": 2394,
    "\u2581356": 2395,
    "\u25812a": 2396,
    "64.": 2397,
    "520": 2398,
    "\u2581c9": 2399,
    "mq": 2400,
    "\u2581278": 2401,
    "\u2581analy": 2402,
    "\u2581analyz": 2403,
    "iaam": 2404,
    "\u258112e974": 2405,
    "mui": 2406,
    "\u25813e0": 2407,
    "rmku": 2408,
    "iesn": 2409,
    "drfco": 2410,
    "tykdda": 2411,
    "iesnrmku": 2412,
    "drfcoiaam": 2413,
    "drfcoiaamtykdda": 2414,
    "iesnrmkudrfcoiaamtykdda": 2415,
    "onnect": 2416,
    "mg": 2417,
    "face": 2418,
    "\u25811527": 2419,
    "extens": 2420,
    "60000": 2421,
    "\u2581152348": 2422,
    "\u25811c5e": 2423,
    "cnt": 2424,
    "188": 2425,
    "\u2581wmi": 2426,
    "21c": 2427,
    "ie": 2428,
    "b88": 2429,
    "4\\": 2430,
    "\u25819be2e0": 2431,
    "d88": 2432,
    "fc0": 2433,
    "vv": 2434,
    "\u258112ed98": 2435,
    "\u25810000": 2436,
    "image": 2437,
    "71": 2438,
    "ross": 2439,
    "mscor": 2440,
    "cim": 2441,
    "\u258112f76c": 2442,
    "rnl": 2443,
    "\u2581280ecfc": 2444,
    "assist": 2445,
    "\u2581280ec1c": 2446,
    "t0": 2447,
    "908": 2448,
    "\u2581232": 2449,
    "\u258112f5f4": 2450,
    "\u258112e650": 2451,
    "\u2581294": 2452,
    "\u258120000": 2453,
    "\u258112f794": 2454,
    "vw": 2455,
    "\u2581cpudetect": 2456,
    "dnsapi": 2457,
    ".12": 2458,
    "\u25811e7ead0": 2459,
    "\u258114d788": 2460,
    "\u25811b9": 2461,
    "\u258130e": 2462,
    "cntfy": 2463,
    "\u258122f680": 2464,
    "\u2581wmic": 2465,
    "f8e8": 2466,
    "-06": 2467,
    "dc4": 2468,
    "bb0": 2469,
    "pass": 2470,
    "\u2581conime": 2471,
    "5c4": 2472,
    "508": 2473,
    "get": 2474,
    "\u258122fa20": 2475,
    "osk": 2476,
    "\u2581153a": 2477,
    "\u25811e7ea28": 2478,
    "\u25811e7ea38": 2479,
    "(28": 2480,
    "\u258112e94c": 2481,
    "shared": 2482,
    "de8": 2483,
    "logon": 2484,
    "\u258112e61c": 2485,
    "\u258112e678": 2486,
    "\u258112f43c": 2487,
    "df0": 2488,
    "downloader": 2489,
    "qs": 2490,
    "\u2581un": 2491,
    "bk": 2492,
    "\u258113f": 2493,
    "out": 2494,
    "usic": 2495,
    "\u2581wmiconnect": 2496,
    "\u2581wmiconnectserver": 2497,
    "\u25812b": 2498,
    "\u2581195": 2499,
    ".18": 2500,
    "6d6": 2501,
    "umm": 2502,
    "google": 2503,
    "070": 2504,
    "readme": 2505,
    "vr": 2506,
    "5a": 2507,
    "\u2581se": 2508,
    "000000": 2509,
    "ntosk": 2510,
    "ntoskrnl": 2511,
    "minim": 2512,
    "f88": 2513,
    "monito": 2514,
    "\u258112f5cc": 2515,
    "fun": 2516,
    "\u2581d5": 2517,
    "ified": 2518,
    "classified": 2519,
    "\u2581138": 2520,
    "\u25812960000": 2521,
    "tao": 2522,
    "ummary": 2523,
    "ummaryinformation": 2524,
    "rtp": 2525,
    "-435": 2526,
    "wic": 2527,
    "abcdeffedcba": 2528,
    "bc8": 2529,
    "96f": 2530,
    "ar": 2531,
    "\u25816e": 2532,
    "rossfire": 2533,
    "\u258173c": 2534,
    "lobal": 2535,
    "\u258112ff60": 2536,
    "ath": 2537,
    "ras": 2538,
    "\u258196": 2539,
    "ebank": 2540,
    "ccb": 2541,
    "2a": 2542,
    "scs": 2543,
    "mso": 2544,
    "vior": 2545,
    "\u25812dc": 2546,
    "beha": 2547,
    "behavior": 2548,
    "\u258112eae8": 2549,
    "icbcebank": 2550,
    "icbcebankassist": 2551,
    "\u258112eac0": 2552,
    "1cc": 2553,
    "\u2581105": 2554,
    "allo": 2555,
    "d68": 2556,
    "\u258128c": 2557,
    "fc4": 2558,
    "\u2581288": 2559,
    "epack": 2560,
    "\u258112e790": 2561,
    "\u258113c": 2562,
    "\u25819ff": 2563,
    "bcu": 2564,
    "6:": 2565,
    "esvc": 2566,
    "etray": 2567,
    "\u2581400000": 2568,
    "340": 2569,
    "10:": 2570,
    "lect": 2571,
    "\u2581he": 2572,
    "4d": 2573,
    "\u25811a1": 2574,
    "\u2581127c9c": 2575,
    "\u258112e7b8": 2576,
    "308": 2577,
    "ed0c": 2578,
    "ks": 2579,
    "\u25813ec": 2580,
    "keyui": 2581,
    "wicbcu": 2582,
    "wicbcukeyui": 2583,
    "gnt": 2584,
    "pct": 2585,
    "iz": 2586,
    "pcrtp": 2587,
    "\u2581wscntfy": 2588,
    "\u2581183.131.": 2589,
    "7f": 2590,
    "_18": 2591,
    "\u25812016": 2592,
    "pctray": 2593,
    "338": 2594,
    "xpsp": 2595,
    "rstray": 2596,
    "\u2581antivirus": 2597,
    "taobrowser": 2598,
    "\u25817f3": 2599,
    ".8": 2600,
    "many": 2601,
    "\u25815000": 2602,
    "\u2581toomany": 2603,
    "-48": 2604,
    "minimal": 2605,
    "ertm": 2606,
    "\u25811d1ead0": 2607,
    "\u2581firewall": 2608,
    "dkey": 2609,
    "monitorc": 2610,
    "\u2581bas": 2611,
    "dcertm": 2612,
    "monitorccb": 2613,
    "dkeymonitorccb": 2614,
    "dea": 2615,
    "\u2581124c": 2616,
    "\u258122f910": 2617,
    "\u258122f8b0": 2618,
    "\u258122f8e8": 2619,
    "30c": 2620,
    "\u2581q": 2621,
    "\u2581148198": 2622,
    ",-2": 2623,
    "\u25811480c0": 2624,
    "atq": 2625,
    "34b8": 2626,
    "hao": 2627,
    "\u25811d1ea38": 2628,
    "\u25811d1ea28": 2629,
    "fe58": 2630,
    "\u258112dd": 2631,
    "uso": 2632,
    "clbc": 2633,
    "\u2581help": 2634,
    "clbcatq": 2635,
    "core": 2636,
    "9000": 2637,
    "ints": 2638,
    "\u25811504": 2639,
    "fe8": 2640,
    "age": 2641,
    "\u2581wmiexec": 2642,
    "\u2581wmiexecquery": 2643,
    "media": 2644,
    "\u25813e38b0": 2645,
    "\u2581a2": 2646,
    "cd": 2647,
    "\u2581wql": 2648,
    "f40": 2649,
    "\u2581be": 2650,
    "\u2581updates": 2651,
    "\u258115d": 2652,
    "\u2581147ac8": 2653,
    "\u2581284": 2654,
    "f1a4": 2655,
    "interface": 2656,
    "\u258135": 2657,
    "hy04": 2658,
    "vvnf": 2659,
    "vvnfhy04": 2660,
    "\u2581aliim": 2661,
    "\u2581360tray": 2662,
    "bj": 2663,
    "\u2581alipaysecsvc": 2664,
    "usoverride": 2665,
    "\u2581antivirusoverride": 2666,
    "\u2581aliworkbench": 2667,
    "bfc": 2668,
    "points": 2669,
    "ebc": 2670,
    "ko": 2671,
    "\u25812006-09": 2672,
    "\u2581antivirusdisablenotify": 2673,
    "b000": 2674,
    "\u2581firewalldisablenotify": 2675,
    "code": 2676,
    "\u2581firewallo": 2677,
    "\u2581firewalloverride": 2678,
    "\u25812950000": 2679,
    "\u2581101": 2680,
    "f00": 2681,
    "\u25813e4": 2682,
    "\u2581updatesdisablenotify": 2683,
    "\u258112da": 2684,
    "\u258160ff": 2685,
    "\u2581uac": 2686,
    "\u2581crossfire": 2687,
    "\u2581c0000": 2688,
    "\u2581uacdisablenotify": 2689,
    "\u2581app": 2690,
    "\u258127a": 2691,
    "\u2581aafbcc": 2692,
    "\u2581toomanybehavior": 2693,
    "\u2581dnf": 2694,
    "eco": 2695,
    "mount": 2696,
    "\u2581ctfmon": 2697,
    "\u25817ffd4": 2698,
    "eclass": 2699,
    "\\{8": 2700,
    "b0c": 2701,
    "mountpoints": 2702,
    "\u2581icbcebankassist": 2703,
    "\u2581ksafe": 2704,
    "f58": 2705,
    "\u25813d1": 2706,
    "a84": 2707,
    "290": 2708,
    "\u25817d5a": 2709,
    "\u25817d5a34b8": 2710,
    "\u2581baseclass": 2711,
    "opt": 2712,
    "babc": 2713,
    "\u25811538": 2714,
    "tool": 2715,
    "ive": 2716,
    "sn": 2717,
    "f44": 2718,
    "\u2581backup": 2719,
    "\\2": 2720,
    "jre7\\": 2721,
    "wm": 2722,
    "\u25811c9": 2723,
    "be0": 2724,
    "sopool": 2725,
    "\u2581ksafesvc": 2726,
    "lsass": 2727,
    "v2.0.50727": 2728,
    "\u2581ksafetray": 2729,
    "exts": 2730,
    "30319": 2731,
    ".0.30319": 2732,
    "\u2581800": 2733,
    "\u25812e80000": 2734,
    "\u2581151": 2735,
    "\u2581mwicbcukeyui": 2736,
    "1060": 2737,
    "\u2581109": 2738,
    "cimv2": 2739,
    "320": 2740,
    "\u25814130": 2741,
    "\u2581qqpcrtp": 2742,
    "\u258130eff34": 2743,
    "\u2581j": 2744,
    "\u2581111ff": 2745,
    "\u25814e7ff6c": 2746,
    "f19c": 2747,
    "\u25814081cf": 2748,
    "\u2581qqpctray": 2749,
    "108": 2750,
    "\u2581qqprotect": 2751,
    "\u258128a": 2752,
    "\u2581344": 2753,
    "\u2581124f99": 2754,
    "ins": 2755,
    "\u25814e8ff6c": 2756,
    "\u2581wow": 2757,
    "pad": 2758,
    "stre": 2759,
    "v4.0.30319": 2760,
    "\u258115e": 2761,
    "\u2581ravmond": 2762,
    "\u2581rstray": 2763,
    "\u2581taobrowser": 2764,
    "vo": 2765,
    "ti": 2766,
    "\u2581select": 2767,
    "1e0": 2768,
    "msi": 2769,
    "vvnfhy04\\": 2770,
    "e44": 2771,
    "\u25812006-09-12": 2772,
    "\u2581a81060": 2773,
    "\u2581wdcertm": 2774,
    "\u2581wdkeymonitorccb": 2775,
    "\u25811fc": 2776,
    "\u25812dd": 2777,
    "\u2581zhudongfangyu": 2778,
    "b20": 2779,
    "5-": 2780,
    "\u25819ffaa": 2781,
    "\u258113d4a0": 2782,
    "\u258113d43c": 2783,
    "\u258114d7": 2784,
    "\u2581323": 2785,
    "154": 2786,
    "\u2581from": 2787,
    "9\\": 2788,
    "\u258112d6": 2789,
    "\u258112fd": 2790,
    "fa8": 2791,
    "5cfc": 2792,
    "\u258132c": 2793,
    "acrord": 2794,
    "eg": 2795,
    "f918": 2796,
    "web": 2797,
    "riched": 2798,
    "\u2581work": 2799,
    "2052": 2800,
    "\u25813a": 2801,
    "70000": 2802,
    "ates": 2803,
    "\u25813e3ad8": 2804,
    "5i": 2805,
    "\u25811b0ead0": 2806,
    "\u258112d7": 2807,
    "ree": 2808,
    "\u258112aa": 2809,
    "\u25814e5f628": 2810,
    "kg": 2811,
    "wo": 2812,
    "%22": 2813,
    "24c": 2814,
    "\u2581root": 2815,
    "cts": 2816,
    "hx5": 2817,
    "\u2581summaryinformation": 2818,
    "\u25811b0ea38": 2819,
    "_17": 2820,
    "\u25811b0ea28": 2821,
    "808": 2822,
    "\u25817ffd400c": 2823,
    "tu5i": 2824,
    "hx5tu5i": 2825,
    "f08": 2826,
    "\u25812016-07": 2827,
    "tn": 2828,
    "f78": 2829,
    "1726": 2830,
    "rand": 2831,
    "\u2581win32_": 2832,
    "-11e": 2833,
    "\u2581199": 2834,
    "lanman": 2835,
    "-435a": 2836,
    "-11e6-": 2837,
    "-806d6": 2838,
    "172696f": 2839,
    "-806d6172696f": 2840,
    "\u2581114d3": 2841,
    "184": 2842,
    "full": 2843,
    "\\{05cfc": 2844,
    "\u25813f8": 2845,
    "\u25811e7e208": 2846,
    "\u25811e7e238": 2847,
    "from": 2848,
    "mountpoints2": 2849,
    "mountpoints2\\{05cfc": 2850,
    "1.0\\": 2851,
    "mess": 2852,
    "\u258128f0000": 2853,
    "acheco": 2854,
    "achecountermutex": 2855,
    "\u258112f83c": 2856,
    "lg": 2857,
    "\u2581__": 2858,
    "broth": 2859,
    "ru": 2860,
    "\u2581202": 2861,
    "\u2581music": 2862,
    "\u2581global": 2863,
    "messen": 2864,
    "\u258123c": 2865,
    "messenger": 2866,
    "-10-": 2867,
    "\u2581115.2": 2868,
    "lr": 2869,
    "384": 2870,
    "ef18": 2871,
    "mscorlib": 2872,
    "\u2581b1d8": 2873,
    "64\\": 2874,
    "\u2581230": 2875,
    "mit": 2876,
    "\u2581cach": 2877,
    "nsu": 2878,
    "\u2581cachep": 2879,
    "\u2581bd": 2880,
    "aspx": 2881,
    "\u2581ca": 2882,
    "_32\\": 2883,
    "new": 2884,
    "1c0": 2885,
    "\u2581720": 2886,
    "f908": 2887,
    "94c8": 2888,
    "\u2581314": 2889,
    "\u25811640": 2890,
    "l1": 2891,
    "\u25817ffdcc00": 2892,
    "\u258114ea68": 2893,
    "\u2581cachepath": 2894,
    "e48": 2895,
    "62": 2896,
    "lf": 2897,
    "240": 2898,
    "104": 2899,
    "\u25817ffdc00c": 2900,
    "\u2581312": 2901,
    "\u2581d9": 2902,
    "autoexec": 2903,
    "944": 2904,
    "d08": 2905,
    "limit": 2906,
    "\u25811526": 2907,
    "\\12": 2908,
    "5:": 2909,
    "-0016": 2910,
    "isto": 2911,
    "sql": 2912,
    "\u2581112": 2913,
    "netcfg": 2914,
    "\u25812bd": 2915,
    "\u2581cs": 2916,
    "hx5tu5i4\\": 2917,
    "\u25817ffd800c": 2918,
    "\u25811ff8": 2919,
    "\u2581shell": 2920,
    "rilimini": 2921,
    "17c0": 2922,
    "\u2581cachelimit": 2923,
    "amebox": 2924,
    "-08": 2925,
    "fe0": 2926,
    "one": 2927,
    ".100": 2928,
    "hnetcfg": 2929,
    "d40": 2930,
    "\u258128e0000": 2931,
    "\u258114ec88": 2932,
    "\\_": 2933,
    "\u258112f81c": 2934,
    "\u25811645": 2935,
    "wso": 2936,
    "tat": 2937,
    "\u25814e6ff6c": 2938,
    "xi": 2939,
    "\u25813e5": 2940,
    "\u2581298": 2941,
    "\u25811e2": 2942,
    "25b000": 2943,
    "\u25817ffe0000": 2944,
    "\u25811ff89000": 2945,
    "\u25814e25b000": 2946,
    "\u2581fe00": 2947,
    "\u2581tsopool": 2948,
    "jre6\\": 2949,
    "eml": 2950,
    "\u25811588": 2951,
    "cs": 2952,
    "6c0": 2953,
    "vrbroth": 2954,
    "vrbrothers": 2955,
    "\u25811604": 2956,
    "\u2581b9": 2957,
    "1&": 2958,
    "\u25812b7": 2959,
    "\u25812006-10-": 2960,
    "fa0": 2961,
    "\u25811576": 2962,
    "\u25813f0": 2963,
    "bar": 2964,
    "5d": 2965,
    "ranet": 2966,
    "istory": 2967,
    "\u258132fe4": 2968,
    "gamebox": 2969,
    "e1d4": 2970,
    "-0017": 2971,
    "\u25812d4": 2972,
    "\u25811564": 2973,
    "og": 2974,
    "randcode": 2975,
    "17:": 2976,
    "stream": 2977,
    "\u25817f36c": 2978,
    "\u258112f7d0": 2979,
    "icon": 2980,
    "290a0": 2981,
    "ed8": 2982,
    "\u258122c": 2983,
    "\u25814ad290a0": 2984,
    "inet": 2985,
    "imsc": 2986,
    "pub": 2987,
    "\u258100019": 2988,
    "24d2": 2989,
    "here": 2990,
    "\u2581smss": 2991,
    "\u25817e5": 2992,
    "\u258113_16": 2993,
    "\u25811668": 2994,
    "\u258113_16_00": 2995,
    "\u2581ntqueryfull": 2996,
    "\u2581ntqueryfullattributesfile": 2997,
    "17.": 2998,
    "28c": 2999,
    "\u25817fe20": 3000,
    "regist": 3001,
    "\u25811e9": 3002,
    "wsock": 3003,
    "\u25813d8": 3004,
    "programdata": 3005,
    "\u258112f860": 3006,
    "\u2581where": 3007,
    "powers": 3008,
    "\u25811708": 3009,
    "baa": 3010,
    "\u25811652": 3011,
    "00000000": 3012,
    "2d": 3013,
    "\u25817edc4": 3014,
    "\u25811d1e208": 3015,
    "\u25811d1e238": 3016,
    "port": 3017,
    "ut": 3018,
    "de6": 3019,
    "f354": 3020,
    "\u2581=": 3021,
    "87": 3022,
    "\u25813e1f878": 3023,
    "\u25813e1f8b0": 3024,
    "macro": 3025,
    "access": 3026,
    "\u25815fd": 3027,
    "fe9c": 3028,
    "2c4": 3029,
    "theme": 3030,
    "7a5c": 3031,
    "f864": 3032,
    "970": 3033,
    "essionid": 3034,
    "dm": 3035,
    "\\39c": 3036,
    "\u2581404": 3037,
    "\u2581lanman": 3038,
    "\u25817fb6c": 3039,
    "\u25815924d2": 3040,
    "\u25813f4": 3041,
    "\u258112ad": 3042,
    "nke": 3043,
    "\u2581120c": 3044,
    "be8": 3045,
    "deo": 3046,
    "ffc": 3047,
    "dio": 3048,
    "workstation": 3049,
    "\u25811888": 3050,
    "\u2581238": 3051,
    "\u2581appdata": 3052,
    "\u2581104e2": 3053,
    "size": 3054,
    "sysq": 3055,
    "\u258130c": 3056,
    "e200": 3057,
    "\u2581{": 3058,
    ".217:": 3059,
    "\u2581778": 3060,
    "\u25811684": 3061,
    "\u2581com": 3062,
    "\u2581414": 3063,
    "e1d0": 3064,
    "ebiesnrmkudrfcoiaamtykdda": 3065,
    "video": 3066,
    "00a710b8": 3067,
    "\u25817fb78": 3068,
    "\u258175ee": 3069,
    "\u2581860": 3070,
    "sw": 3071,
    "\u2581webc": 3072,
    "yx": 3073,
    "\u2581webclient": 3074,
    "_.": 3075,
    "\u2581f6": 3076,
    "\u258175ee17c0": 3077,
    "hrk": 3078,
    "powershell": 3079,
    "hrkjj": 3080,
    "hrkjjnke": 3081,
    "msil": 3082,
    "qk": 3083,
    "\u2581proxy": 3084,
    "270": 3085,
    "e88": 3086,
    "ction": 3087,
    "\u25811752": 3088,
    "b44": 3089,
    "eng": 3090,
    "004": 3091,
    "\u25817fe90": 3092,
    "\u258110a0": 3093,
    "arent": 3094,
    "life": 3095,
    "extension": 3096,
    "\u2581205": 3097,
    "\u25811728": 3098,
    "\u2581111ffd8": 3099,
    "fileexts": 3100,
    "\u258136.25.250.217:": 3101,
    "ingset": 3102,
    "\u25811696": 3103,
    "\u25811764": 3104,
    "\u25812a8": 3105,
    "\u2581lanmanworkstation": 3106,
    "db614": 3107,
    "\u25813cc": 3108,
    "\u25815fddb614": 3109,
    "ids": 3110,
    "\u25817fe94": 3111,
    "fonts": 3112,
    "\u25811740": 3113,
    "\u2581kernel": 3114,
    "\u2581processid": 3115,
    "\u258140b0": 3116,
    "processid": 3117,
    "\u2581sessionid": 3118,
    "-47": 3119,
    "\u2581csname": 3120,
    "ingsetsize": 3121,
    "\u2581threadcount": 3122,
    "\u2581usermodetime": 3123,
    "\u2581kernelmodetime": 3124,
    "\u2581workingsetsize": 3125,
    "\u25811880": 3126,
    "\u258110a01d4": 3127,
    "\u2581parent": 3128,
    "\u2581parentprocessid": 3129,
    "\u258113f4": 3130,
    "524": 3131,
    "0\\": 3132,
    "gy": 3133,
    "fd68": 3134,
    ".14": 3135,
    "tepad": 3136,
    "\u2581a7": 3137,
    "2res": 3138,
    "-46": 3139,
    "xpsp2res": 3140,
    "v4.0.30319\\": 3141,
    "\")": 3142,
    "\u25811784": 3143,
    "\u25811510": 3144,
    "\u25811647": 3145,
    "templ": 3146,
    "openw": 3147,
    "look": 3148,
    "\u25819be6ac": 3149,
    "\u25819be6d4": 3150,
    "\u25811836": 3151,
    "7:": 3152,
    "\u258140000": 3153,
    "ithprogids": 3154,
    "openwithprogids": 3155,
    "9c8": 3156,
    "a40": 3157,
    "\u2581fd": 3158,
    "\u25814e5f620": 3159,
    "120000": 3160,
    "250": 3161,
    "\u2581ed": 3162,
    "\u25811796": 3163,
    "qc": 3164,
    "\u25811804": 3165,
    "\u25811900": 3166,
    "\u25811868": 3167,
    "648": 3168,
    "\\12.0\\": 3169,
    "\u2581107": 3170,
    "\u2581234": 3171,
    "\u25819a": 3172,
    "rth": 3173,
    "d0c": 3174,
    "\u25812fc": 3175,
    "\u25812d8": 3176,
    "\u25811824": 3177,
    "\u25811848": 3178,
    "\u25813c0": 3179,
    "\u25812b0": 3180,
    "\u258112e7c4": 3181,
    "914": 3182,
    "fbf0": 3183,
    "wa": 3184,
    "fec": 3185,
    "micros": 3186,
    "5c8": 3187,
    "\u25812bc": 3188,
    "2b1": 3189,
    "adhlp": 3190,
    "rasadhlp": 3191,
    "\u25814e9ff6c": 3192,
    "ni": 3193,
    "\u25812e0": 3194,
    "0100080": 3195,
    "be4": 3196,
    "ernel32.": 3197,
    "5\\": 3198,
    "sapi32.": 3199,
    "dext": 3200,
    "998": 3201,
    "\u25811816": 3202,
    "79-": 3203,
    "988": 3204,
    "5c0": 3205,
    "(3": 3206,
    "day": 3207,
    "_8": 3208,
    "-0000-0000": 3209,
    "\u25813f1": 3210,
    "9s": 3211,
    "\u25812e": 3212,
    "wdext": 3213,
    "80.": 3214,
    "msa": 3215,
    "002": 3216,
    "e644": 3217,
    "klr": 3218,
    "\u258172c": 3219,
    "708": 3220,
    "\u25812f8": 3221,
    "\u2581274ef60": 3222,
    "b50": 3223,
    "\u258110.0.2": 3224,
    "23:": 3225,
    "\u2581367": 3226,
    "\u2581224": 3227,
    "type": 3228,
    "\u258112f23c": 3229,
    "790": 3230,
    "\u25812be": 3231,
    "1934": 3232,
    "baidus": 3233,
    "ea04": 3234,
    "comres": 3235,
    "e64c": 3236,
    "fbf4": 3237,
    "\u25813c8": 3238,
    "\u2581cc0010": 3239,
    "ge": 3240,
    "561934": 3241,
    "b77a5c": 3242,
    "561934e08": 3243,
    "b77a5c561934e08": 3244,
    "\u258112e7ec": 3245,
    "324": 3246,
    "qwh": 3247,
    "zng": 3248,
    "wudr": 3249,
    "sy": 3250,
    "pd": 3251,
    "wc": 3252,
    "\u2581f20": 3253,
    "yoj": 3254,
    "\u25813dd": 3255,
    "\u258112d0": 3256,
    "\u25812adff5c": 3257,
    "\u25813b0": 3258,
    "pbk": 3259,
    "\u2581129": 3260,
    "\u25812adfe40": 3261,
    "d1qwh": 3262,
    "klrto": 3263,
    "p0baa": 3264,
    "\u2581ozng": 3265,
    "p0baayoj": 3266,
    "klrtowudr": 3267,
    "p0baayojd1qwh": 3268,
    "\u2581ozngklrtowudr": 3269,
    "\u2581ozngklrtowudrp0baayojd1qwh": 3270,
    "218": 3271,
    "rome": 3272,
    "\u2581151a": 3273,
    "\u25815000220": 3274,
    "streams": 3275,
    "\u2581126b": 3276,
    "7d": 3277,
    "\u2581333": 3278,
    "\u2581www": 3279,
    "540": 3280,
    "\u2581aa388": 3281,
    "d624": 3282,
    "155.2": 3283,
    "\u258145": 3284,
    "\\{90": 3285,
    "ff7c": 3286,
    "\u2581300": 3287,
    "\u2581a6": 3288,
    "2b8c": 3289,
    "lder": 3290,
    "2e30": 3291,
    "148": 3292,
    "vb": 3293,
    "\u2581114d1b8": 3294,
    "\u2581183.131.155.2": 3295,
    "\u2581a1c": 3296,
    "\u258112fce8": 3297,
    "\u25813d0": 3298,
    "\u258153": 3299,
    "\u2581125": 3300,
    "\u258114eab0": 3301,
    "-3": 3302,
    "drivers32\\": 3303,
    "410": 3304,
    "000ff1ce": 3305,
    "990": 3306,
    "7c8": 3307,
    "\u258192": 3308,
    "plus": 3309,
    "\u2581517": 3310,
    "7c00": 3311,
    "\u2581464": 3312,
    "36e": 3313,
    "\u258112a5": 3314,
    "\u2581322": 3315,
    "\u2581183.131.155.223:": 3316,
    "\\{90120000": 3317,
    "\u2581f2": 3318,
    "\u25814239c0": 3319,
    "\u25812ec": 3320,
    "\u2581126b24": 3321,
    "\u2581c2": 3322,
    "upd1.": 3323,
    "wininet": 3324,
    "\u258112df": 3325,
    "\u2581x2": 3326,
    "103": 3327,
    "\u2581x3": 3328,
    "\u258110fe47c": 3329,
    "ard": 3330,
    "qy": 3331,
    "tore": 3332,
    "-11ce": 3333,
    "wg": 3334,
    "hi": 3335,
    "\u25819b0000": 3336,
    "1f8": 3337,
    "riched20.": 3338,
    "-41": 3339,
    "3cc": 3340,
    "\u2581c6": 3341,
    "\\{90120000-00": 3342,
    "\u258114ecd0": 3343,
    "fx": 3344,
    "kc": 3345,
    "map": 3346,
    "\u2581c1e": 3347,
    "\u25812a0": 3348,
    "we": 3349,
    ".0.0.0__": 3350,
    "\u25812c0": 3351,
    "bf7c4": 3352,
    "\u25813ad": 3353,
    "\u258110fe504": 3354,
    "\u2581280f354": 3355,
    "ervices": 3356,
    "325": 3357,
    "line": 3358,
    "e40": 3359,
    "(24": 3360,
    "f1f4": 3361,
    "psapi": 3362,
    "flash9.": 3363,
    "\u2581a8a84": 3364,
    "-13": 3365,
    "688": 3366,
    "-4c": 3367,
    "\u2581114d714": 3368,
    "386\\": 3369,
    "kernel32.": 3370,
    "stationery": 3371,
    "(300s": 3372,
    "608": 3373,
    "f2c": 3374,
    "99c": 3375,
    "rcx5.": 3376,
    "fff": 3377,
    "\u25813d": 3378,
    "adc": 3379,
    "rthday": 3380,
    "birthday": 3381,
    "\u25815b2": 3382,
    "df7c4": 3383,
    "-49": 3384,
    "\u2581171": 3385,
    "\u2581dd3d68": 3386,
    "connect": 3387,
    "\u2581104de": 3388,
    "\u2581dd3d28": 3389,
    "\u2581dd3f90": 3390,
    "gvw": 3391,
    "mybirthday": 3392,
    "\u25811636": 3393,
    "2b19c": 3394,
    "\u25811002b19c": 3395,
    "fbdc": 3396,
    "\u2581f94c8": 3397,
    "\u2581avp": 3398,
    "i386\\": 3399,
    "usa": 3400,
    "178": 3401,
    ",-220": 3402,
    "kies": 3403,
    "\u2581127c8c": 3404,
    "3f2c0": 3405,
    "\u2581418": 3406,
    "\u2581680": 3407,
    "120": 3408,
    "920": 3409,
    "\u2581215": 3410,
    "-40": 3411,
    "baidusd": 3412,
    "dule": 3413,
    "outlook": 3414,
    "srv": 3415,
    "oc": 3416,
    "d69c": 3417,
    "\u2581e6": 3418,
    "\u2581127c50": 3419,
    "\u25811e7e20c": 3420,
    "\u2581127cb4": 3421,
    "cab": 3422,
    "\u2581f1": 3423,
    "ffe": 3424,
    "servicepack": 3425,
    "\u2581106": 3426,
    "tmp2.": 3427,
    "3c0": 3428,
    "(27": 3429,
    "228": 3430,
    "\u258127c2b8c": 3431,
    "uninstallc": 3432,
    "crypt32.": 3433,
    "\u25812aa": 3434,
    "3f8": 3435,
    "\u258113f2": 3436,
    "2052\\": 3437,
    "\u2581winlogon": 3438,
    "lt": 3439,
    "ration": 3440,
    "e00": 3441,
    "\u2581pro": 3442,
    "\u2581310": 3443,
    "bdm": 3444,
    "\u2581shell32.": 3445,
    "d44": 3446,
    "ae8": 3447,
    "\u25815b": 3448,
    "45-": 3449,
    "\u258112a514": 3450,
    "pdb": 3451,
    "css": 3452,
    "folder": 3453,
    "main": 3454,
    "\u2581avgnt": 3455,
    "ii": 3456,
    "-0000-0045-": 3457,
    "-0016-0000-0045-": 3458,
    "\u25812f4": 3459,
    "\u258146": 3460,
    "\u2581458": 3461,
    "\u2581common": 3462,
    "\u2581320": 3463,
    "\u25813fc": 3464,
    "\u2581qebiesnrmkudrfcoiaamtykdda": 3465,
    "netapi32.": 3466,
    "\u258114d720": 3467,
    "ea8": 3468,
    "\u2581enu": 3469,
    "6a0": 3470,
    "bc0": 3471,
    "\u2581329": 3472,
    "\u258179": 3473,
    "servicepackfiles": 3474,
    "f0c": 3475,
    "ervicess": 3476,
    "\u2581enums": 3477,
    "ervicesstat": 3478,
    "\u2581enumservicesstat": 3479,
    "\u25813c4": 3480,
    "13a": 3481,
    "\u258186": 3482,
    "b77a5c561934e089\\": 3483,
    "ync": 3484,
    "nw": 3485,
    "fcc0": 3486,
    "\u2581services": 3487,
    "a38": 3488,
    "\u25817ffd7c00": 3489,
    "\u25812b7ff34": 3490,
    "c7": 3491,
    "chrome": 3492,
    "\u2581e5": 3493,
    "ula": 3494,
    "sam": 3495,
    "client": 3496,
    "\u258112aa20": 3497,
    "\u258112a940": 3498,
    "\u2581159": 3499,
    "gid": 3500,
    "gs": 3501,
    "\u2581d1": 3502,
    "\u2581172": 3503,
    "948": 3504,
    "\u258112_": 3505,
    "page": 3506,
    "\u2581msctf": 3507,
    "\u258112ec28": 3508,
    "fb8c": 3509,
    "-4e": 3510,
    "\u2581notepad": 3511,
    "\u258112ef04": 3512,
    "qm": 3513,
    "\u25815b4": 3514,
    "588": 3515,
    "\u25813b4": 3516,
    "-4a": 3517,
    "\u2581enumservicesstatusa": 3518,
    "v2.0.50727\\": 3519,
    "stat": 3520,
    "\u25813ac": 3521,
    "12:": 3522,
    "-0000-0079-": 3523,
    "-0017-0000-0079-": 3524,
    "self": 3525,
    "d12": 3526,
    "history": 3527,
    "ink": 3528,
    "\u25812b8": 3529,
    "\u258134de6": 3530,
    "menu": 3531,
    "=0": 3532,
    "\u2581280e3d4": 3533,
    "\u2581x2_": 3534,
    "moment": 3535,
    "7b": 3536,
    "b4c": 3537,
    "mylife": 3538,
    "mylifemoment": 3539,
    "\u2581x3_": 3540,
    "dc8": 3541,
    "\u2581540": 3542,
    "704": 3543,
    "yi": 3544,
    "dlg": 3545,
    "\u2581734": 3546,
    "\u2581crack": 3547,
    "\u2581dd": 3548,
    "9c4": 3549,
    "=52": 3550,
    "\u25815b23a9": 3551,
    "estart": 3552,
    "\u2581113": 3553,
    "\u2581internetcrackurlw": 3554,
    "bg": 3555,
    "\u2581308": 3556,
    "\u2581analyzestart": 3557,
    "288": 3558,
    "e4c8": 3559,
    "\u258112ec58": 3560,
    "158": 3561,
    "\u2581123c18": 3562,
    "\u2581123c70": 3563,
    "\u25814015": 3564,
    "\u2581519": 3565,
    "\u2581c0100080": 3566,
    "e4a0": 3567,
    "start": 3568,
    "eula": 3569,
    "\u2581304": 3570,
    "\u25811ad": 3571,
    "\u2581280e4b4": 3572,
    "\u25812006-11": 3573,
    "\\0": 3574,
    "\u258117d": 3575,
    "\u25812860000": 3576,
    "74c": 3577,
    "\u2581145": 3578,
    ".69": 3579,
    "\u2581378": 3580,
    "e2.": 3581,
    "sn1.": 3582,
    "9:": 3583,
    "msasn1.": 3584,
    "\u2581res": 3585,
    "\u258111e": 3586,
    "deb": 3587,
    "\u2581c000013a": 3588,
    "10-": 3589,
    "\u258112f788": 3590,
    "b68": 3591,
    "model": 3592,
    "328": 3593,
    "\u258112ec40": 3594,
    "\u2581unpack": 3595,
    "58c": 3596,
    "\u258111f": 3597,
    "\u2581unpackself": 3598,
    "ial": 3599,
    "54c": 3600,
    "\u25814000410": 3601,
    "1a8": 3602,
    "de7c": 3603,
    "\u2581255": 3604,
    "vs": 3605,
    "\u258112ff80": 3606,
    "\u2581b1d4": 3607,
    "_15": 3608,
    "7s": 3609,
    "fd6": 3610,
    "ff6": 3611,
    "\u25814a4": 3612,
    "12.": 3613,
    "msvcp": 3614,
    "\u2581d0ff5c": 3615,
    "\u25811480b0": 3616,
    "\u258112d3": 3617,
    "\u2581e1ff": 3618,
    "\u2581stu": 3619,
    "\u2581222": 3620,
    "lish": 3621,
    "3.2": 3622,
    "\u25817f23c": 3623,
    "\u258140f0": 3624,
    "\u25811c5fce4": 3625,
    "\u25811c5fd04": 3626,
    "0048": 3627,
    "qo": 3628,
    "684": 3629,
    "\u25811d1e20c": 3630,
    "\u25811e3": 3631,
    "\u258116a0000": 3632,
    "\u2581440": 3633,
    "spoo": 3634,
    "ries": 3635,
    "ka": 3636,
    "\u25812a4": 3637,
    "\u258112f760": 3638,
    "win7": 3639,
    "\u25817f25c": 3640,
    "\u25813e7": 3641,
    "\u2581162": 3642,
    "\u258112f430": 3643,
    "544": 3644,
    "\u258125a": 3645,
    "\u25814f4": 3646,
    "3:": 3647,
    "bb8": 3648,
    "\u258112faf8": 3649,
    "\u25817ed3c": 3650,
    "ah": 3651,
    "bl": 3652,
    "password": 3653,
    "\u2581170e95c": 3654,
    "-08002": 3655,
    "\u258130fb8c": 3656,
    "\u258130fb48": 3657,
    "\u258130fba0": 3658,
    "der": 3659,
    "mpr": 3660,
    "a28": 3661,
    "ff7c4": 3662,
    "\u258114a": 3663,
    "\u25812f0": 3664,
    "\u25811be": 3665,
    "srss": 3666,
    "\u258187": 3667,
    "\u25814e5f6b8": 3668,
    "\u25814e5f6e0": 3669,
    "\u25817ed1c": 3670,
    "\u2581b2c": 3671,
    "\u25813f7": 3672,
    "\u2581e9": 3673,
    "wy": 3674,
    "msocache": 3675,
    "templates": 3676,
    "hel": 3677,
    "\u25811496": 3678,
    "windowspowershell": 3679,
    "\u258113ef": 3680,
    "ght": 3681,
    "9cc": 3682,
    "\u2581124f908": 3683,
    "\u2581124f918": 3684,
    "\u2581124f910": 3685,
    "\u2581280ed38": 3686,
    "\u2581280ed14": 3687,
    "\u2581280ec34": 3688,
    "\u2581280ec58": 3689,
    "qi": 3690,
    "\u2581181": 3691,
    "shen": 3692,
    "\u2581ac0000": 3693,
    "ff50": 3694,
    "\u2581165": 3695,
    "\u2581f7": 3696,
    "233": 3697,
    "15c": 3698,
    "-08002be": 3699,
    "fd54": 3700,
    "chan": 3701,
    "\u2581al": 3702,
    "mypassword": 3703,
    ".69.1": 3704,
    "\u258112fe20": 3705,
    "\u2581324": 3706,
    "\u2581166": 3707,
    "96c": 3708,
    "\u2581217.69.1": 3709,
    "\u25811524": 3710,
    "64_": 3711,
    "-44": 3712,
    "\u2581738": 3713,
    "edf": 3714,
    "\u2581740": 3715,
    "\u2581496": 3716,
    "shenli": 3717,
    "\u2581x1_": 3718,
    ".110:": 3719,
    "784": 3720,
    "edf0": 3721,
    "attrib": 3722,
    "dbg": 3723,
    "\u2581172.2": 3724,
    "\u25812016-07-07": 3725,
    "\u2581d2ff34": 3726,
    "\u2581x4_": 3727,
    "\u2581318": 3728,
    "\u2581152440": 3729,
    "\u25811de": 3730,
    "nsl": 3731,
    ".21": 3732,
    "\u258115f": 3733,
    "\u2581aaff": 3734,
    "c8c": 3735,
    "cli": 3736,
    "a0c": 3737,
    "nsw": 3738,
    "wow": 3739,
    "\u25814271e0": 3740,
    "\u258114fc30": 3741,
    "\u258112c4": 3742,
    "\u25812ffff": 3743,
    "\u2581280ec04": 3744,
    "\u25817e94": 3745,
    "\u258121b": 3746,
    "lla": 3747,
    "fa04": 3748,
    "sysqem": 3749,
    ".16": 3750,
    "\u258131c": 3751,
    "v1.0\\": 3752,
    "\u2581122.2": 3753,
    "gi": 3754,
    "\u2581b7": 3755,
    "pgamebox": 3756,
    "updater": 3757,
    "\u25812006-11-13": 3758,
    "wmi": 3759,
    "69:": 3760,
    "for": 3761,
    "\u258121a": 3762,
    "\u258112e560": 3763,
    "53f000ff53f000ff": 3764,
    "3c4": 3765,
    "\u258111f0": 3766,
    "mig": 3767,
    "\u25813b0000": 3768,
    "\u2581280ece4": 3769,
    "\u2581280ed20": 3770,
    "\u25813bc": 3771,
    "\u2581280ec40": 3772,
    "\u2581f5": 3773,
    "a1e": 3774,
    "\u2581170e9e4": 3775,
    "gdiplus": 3776,
    "lsv": 3777,
    "f914": 3778,
    "nh": 3779,
    "-16": 3780,
    ".22": 3781,
    "\u258112d504": 3782,
    "mscoree": 3783,
    "\u2581restore": 3784,
    "\u2581b1d": 3785,
    "d84": 3786,
    "\u25812cd": 3787,
    "resi": 3788,
    "95d8": 3789,
    "\u258112d4e4": 3790,
    "\u258112cf": 3791,
    "scr": 3792,
    "\u2581setup": 3793,
    "\u2581dff": 3794,
    "um": 3795,
    "\u2581192": 3796,
    "lh": 3797,
    "af8": 3798,
    "f940": 3799,
    "\u2581e1ff44": 3800,
    "b1d0": 3801,
    "kk": 3802,
    "themes": 3803,
    "\u2581f9": 3804,
    "nel": 3805,
    "\u2581560": 3806,
    "\u2581330": 3807,
    "\u2581200.8": 3808,
    "\u2581340": 3809,
    "\u258112edc4": 3810,
    "\u258137af2c8": 3811,
    "78c": 3812,
    "\u2581b2c250": 3813,
    "tils": 3814,
    "\u2581ba": 3815,
    "\u2581177": 3816,
    "bdc": 3817,
    "2018": 3818,
    "(26": 3819,
    "\u25812be0000": 3820,
    "cryp": 3821,
    "\u25812b4": 3822,
    "\u25811628": 3823,
    "\u2581207ef60": 3824,
    "ency": 3825,
    "\u25812d5": 3826,
    "\u258137af2c0": 3827,
    "pip": 3828,
    "xpuser": 3829,
    "\u2581200.87.1": 3830,
    "\u258112e558": 3831,
    "\u2581x1_0": 3832,
    "qe": 3833,
    "\u2581x2_0": 3834,
    "liency": 3835,
    "resiliency": 3836,
    "\u2581aeb": 3837,
    "\u2581x3_0": 3838,
    "\u2581x4_0": 3839,
    "\u2581413040": 3840,
    "\u2581input": 3841,
    "pri": 3842,
    "\u2581inputdetect": 3843,
    "\\{4d": 3844,
    "5f0": 3845,
    "\u258168c": 3846,
    "xiao": 3847,
    "61.": 3848,
    "070fb": 3849,
    "\u2581329070fb": 3850,
    "estop": 3851,
    "\u2581analyzestop": 3852,
    "\u258141c": 3853,
    "\u25812c40000": 3854,
    "tar": 3855,
    "registration": 3856,
    "\u2581798": 3857,
    "1:": 3858,
    "f8c": 3859,
    "\u2581200.87.164.": 3860,
    "fe4": 3861,
    "\u2581e1": 3862,
    "10318": 3863,
    "plugin": 3864,
    "d58": 3865,
    "bfc1": 3866,
    "e325": 3867,
    "e325-11ce": 3868,
    "bfc1-08002be": 3869,
    "bfc1-08002be10318": 3870,
    "\u2581player": 3871,
    "\u2581374": 3872,
    "9d8": 3873,
    "\u258117e": 3874,
    "\u2581111": 3875,
    "a00": 3876,
    "\u25811537": 3877,
    "xpuser914": 3878,
    "\u2581c3": 3879,
    "\u2581200.87.164.69:": 3880,
    "jy": 3881,
    "\u25813a8": 3882,
    "ed0": 3883,
    "\\4": 3884,
    "\u2581hi": 3885,
    "1d0": 3886,
    "e7a8": 3887,
    "\u258176d12": 3888,
    "bfc1-08002be10318}": 3889,
    "ane": 3890,
    "\u25811aa": 3891,
    "ative": 3892,
    "-1.": 3893,
    "\u25811492": 3894,
    "\u258157ff": 3895,
    "\u2581lsass": 3896,
    "\u2581deff44": 3897,
    "wi": 3898,
    "led": 3899,
    "\u2581748": 3900,
    "bdmnet": 3901,
    "b38": 3902,
    "a70": 3903,
    "untime": 3904,
    "\u25812b6": 3905,
    "160": 3906,
    "\u25811616": 3907,
    "sdf": 3908,
    "\u2581b6": 3909,
    "d0d": 3910,
    "visu": 3911,
    "\u25811456": 3912,
    "fa98": 3913,
    "\u258142c": 3914,
    "e60": 3915,
    "\u25813b8": 3916,
    "\u25813f3": 3917,
    "\u25816a": 3918,
    "\u2581151020": 3919,
    "nss": 3920,
    "\u2581i": 3921,
    "enable": 3922,
    "\u25815a4": 3923,
    "58f": 3924,
    "text": 3925,
    "\u2581216.": 3926,
    "ff58": 3927,
    "\u2581508": 3928,
    "\u258100000087": 3929,
    "xy": 3930,
    "rl": 3931,
    "2e8": 3932,
    "ds": 3933,
    "3s": 3934,
    "ator": 3935,
    "ga": 3936,
    "e100": 3937,
    "\u2581spoo": 3938,
    "\u2581wsas": 3939,
    "\u2581wsasend": 3940,
    "\u258112d1": 3941,
    "\u2581ee": 3942,
    "\u2581127b50": 3943,
    "\u2581104e": 3944,
    "\u25813c2": 3945,
    "15.": 3946,
    "\u25813c6": 3947,
    "\u2581128cb8": 3948,
    "\u2581128ce0": 3949,
    "00000000000": 3950,
    "942": 3951,
    "svn": 3952,
    "localservice": 3953,
    "\u2581388": 3954,
    "acrord32.": 3955,
    "\u2581ce": 3956,
    "\u2581spoolsv": 3957,
    "clb": 3958,
    "dk": 3959,
    "getinfo": 3960,
    "bdmnetgetinfo": 3961,
    "\u2581197": 3962,
    "verter": 3963,
    "f88c": 3964,
    "\u25814cc": 3965,
    "\u258112f298": 3966,
    "b04": 3967,
    "937": 3968,
    "services": 3969,
    "\u258112ed9c": 3970,
    "raw": 3971,
    "\u2581216.58": 3972,
    "\u25816f6": 3973,
    "\u25812acff5c": 3974,
    "\u2581128c7c": 3975,
    "174": 3976,
    "\u25812acfe40": 3977,
    "visual": 3978,
    "\u2581128cc8": 3979,
    "df4": 3980,
    "dbc": 3981,
    "\u2581132": 3982,
    "}-": 3983,
    "\u258129a": 3984,
    "\u258118cfc8": 3985,
    "cm": 3986,
    "\u2581f3": 3987,
    "ec24": 3988,
    "mple": 3989,
    "\u25811fa": 3990,
    "jdownloader": 3991,
    "e780": 3992,
    "60c": 3993,
    "980": 3994,
    "\u2581145694": 3995,
    "\u2581354": 3996,
    "6c8": 3997,
    "\u25811b1": 3998,
    "\u2581a9": 3999,
    "msvcp60.": 4000,
    "\u2581146": 4001,
    "686": 4002,
    "c84": 4003,
    "\u25813c0000": 4004,
    "bf0": 4005,
    "f534": 4006,
    "funsh": 4007,
    "\u2581csrss": 4008,
    "\u2581410": 4009,
    "\u2581f95d8": 4010,
    "74-": 4011,
    "\u2581152350": 4012,
    "b90": 4013,
    "\u25813d5ebb0": 4014,
    "\u25813d5ec04": 4015,
    "php": 4016,
    "\u25812b2": 4017,
    "\u258112c8": 4018,
    "ff4c": 4019,
    "channel": 4020,
    "\\{4": 4021,
    "startu": 4022,
    "38c": 4023,
    "nsi": 4024,
    "runtime": 4025,
    "die2.": 4026,
    "(18": 4027,
    "lock": 4028,
    "\u2581149f7": 4029,
    "a08": 4030,
    "kernel": 4031,
    "\u2581139": 4032,
    "cryptnet": 4033,
    "\u2581efe500": 4034,
    "\u2581552": 4035,
    "met": 4036,
    "e3b": 4037,
    "98c": 4038,
    "\\{4d36e": 4039,
    "f9a0": 4040,
    "pr": 4041,
    "\u2581213": 4042,
    "1f0": 4043,
    "publish": 4044,
    "\u2581124c44": 4045,
    "\u2581124c9c": 4046,
    "\u258138c": 4047,
    "coo": 4048,
    "\u25812900000": 4049,
    "\u2581196": 4050,
    "\u258139c": 4051,
    "584": 4052,
    "\u2581390": 4053,
    "\u258114d1b8": 4054,
    "nsg": 4055,
    "364": 4056,
    "\u2581to": 4057,
    "%22%": 4058,
    "add": 4059,
    "d1-": 4060,
    "\u25819eeb58": 4061,
    "\u25819eebd8": 4062,
    "ingmodel": 4063,
    "\u2581threadingmodel": 4064,
    "\u2581820": 4065,
    "f18": 4066,
    "\u258137c": 4067,
    "1234": 4068,
    "\u25813f9": 4069,
    "\u2581176": 4070,
    "\u2581module": 4071,
    "d1f4": 4072,
    "f210": 4073,
    "locke": 4074,
    "34.": 4075,
    "-12-06": 4076,
    "feng": 4077,
    "\u258114e1": 4078,
    "eea0": 4079,
    "ang": 4080,
    "\u258155": 4081,
    "\u2581module32firstw": 4082,
    "304": 4083,
    "6cc": 4084,
    "\u2581au": 4085,
    "ype": 4086,
    "ak": 4087,
    "online": 4088,
    "\u2581indirect": 4089,
    "\u2581380": 4090,
    "fcf0": 4091,
    "ac4": 4092,
    "imsc12\\": 4093,
    "\u2581e3": 4094,
    "\u25813eb": 4095,
    "\u2581339f2c0": 4096,
    ".119": 4097,
    "\u2581fbe500": 4098,
    "sogousoftware": 4099,
    "\u25812e4": 4100,
    "b58": 4101,
    "\u258160ff80": 4102,
    "\u258160ff60": 4103,
    "\u25814e7fad4": 4104,
    "\u25814e7fd6c": 4105,
    "funshion": 4106,
    "\u25814e7ff9c": 4107,
    "\u258197": 4108,
    "kin": 4109,
    "\u2581f1d": 4110,
    "\u258156f8": 4111,
    "\u25814e8fad4": 4112,
    "r00000000000": 4113,
    "vm": 4114,
    "\u25814e8fd6c": 4115,
    "\u25814e8ff9c": 4116,
    "ret": 4117,
    "baidur": 4118,
    "baidurjdownloader": 4119,
    "bsync": 4120,
    "10c": 4121,
    "\u258112df90": 4122,
    "\\2.": 4123,
    "\u2581339f2c8": 4124,
    "934": 4125,
    "function": 4126,
    "\\1.0\\": 4127,
    "\u2581700": 4128,
    "r000000000007.": 4129,
    "\u2581172.217.": 4130,
    "\u2581424": 4131,
    "package": 4132,
    "d00": 4133,
    "34c": 4134,
    "\u258112cc": 4135,
    "\u2581774": 4136,
    "-18": 4137,
    "73c": 4138,
    "96_": 4139,
    "\u2581735": 4140,
    "\u2581cd": 4141,
    "\u258133c": 4142,
    "\u2581348": 4143,
    "\u25813b2": 4144,
    "olla": 4145,
    "ollabsync": 4146,
    "adobec": 4147,
    "\u2581ea": 4148,
    "=1&": 4149,
    "22b8c": 4150,
    "\u2581comp": 4151,
    "idth": 4152,
    "ap32.": 4153,
    "certd": 4154,
    "\u25812822b8c": 4155,
    "\u2581398": 4156,
    "1e8": 4157,
    "b3b9": 4158,
    "lum": 4159,
    "\u258112f0f4": 4160,
    "a1e18": 4161,
    "b3b9a1e18": 4162,
    "native": 4163,
    "but": 4164,
    "adobecollabsync": 4165,
    "player": 4166,
    "\u2581b2": 4167,
    "-43": 4168,
    "\u258103_": 4169,
    "\u2581420": 4170,
    ".15": 4171,
    "\u258115a": 4172,
    "6.4": 4173,
    "\u25813c5": 4174,
    "\u2581da": 4175,
    "(4": 4176,
    "\u25811000000": 4177,
    "\u2581cc0018": 4178,
    "\u2581758": 4179,
    "\u258112d2": 4180,
    "\u2581jqs": 4181,
    "\u2581v": 4182,
    "bd8": 4183,
    "\u25812ddfe88": 4184,
    "\u25811b0fce4": 4185,
    "\u25811b0fd04": 4186,
    "\u2581156": 4187,
    "\u2581864": 4188,
    "light": 4189,
    "\u25811f5": 4190,
    "\u258112edec": 4191,
    "connections": 4192,
    "942-435a": 4193,
    ".180": 4194,
    "\u2581219": 4195,
    "msh": 4196,
    "wld": 4197,
    "\\360tray": 4198,
    "\u25811a0c": 4199,
    "wldap32.": 4200,
    "mountpoints2\\{05cfc942-435a": 4201,
    "mac": 4202,
    "cachecountermutex": 4203,
    "dist": 4204,
    "sg": 4205,
    "\u2581143": 4206,
    "b03": 4207,
    "\u25811bb": 4208,
    "\u2581viewer": 4209,
    "\u2581107e": 4210,
    "\u258112_28": 4211,
    "a18": 4212,
    "940-435a": 4213,
    "\u2581f1d9c": 4214,
    "\u25812018": 4215,
    "918": 4216,
    "9a8": 4217,
    "wt": 4218,
    "f6c": 4219,
    "d4c": 4220,
    "\u2581337": 4221,
    ".200": 4222,
    "mountpoints2\\{05cfc940-435a": 4223,
    "ahv": 4224,
    "\u2581394": 4225,
    "748": 4226,
    "\u2581107e47c": 4227,
    "f244": 4228,
    "\u258112fb7c": 4229,
    "ust": 4230,
    "-0.": 4231,
    "\u2581548": 4232,
    "countermutex": 4233,
    "userdata": 4234,
    "\u258193e": 4235,
    "\u258169c": 4236,
    "lockedc": 4237,
    "lockedcachecountermutex": 4238,
    "yg": 4239,
    "\u258143c": 4240,
    "\u25812c9": 4241,
    "\u2581local": 4242,
    "\u2581f000": 4243,
    "=0&": 4244,
    "80c": 4245,
    "\u2581658": 4246,
    "\u2581iexplore": 4247,
    "\u25811dcef60": 4248,
    "9.2": 4249,
    "\u258150c": 4250,
    "\u2581zonescountermutex": 4251,
    "f8e4": 4252,
    "\u258119b": 4253,
    "\u2581zonescachecountermutex": 4254,
    "\u2581zoneslockedcachecountermutex": 4255,
    ").": 4256,
    "\u2581int": 4257,
    "\u2581a2e5": 4258,
    "\u258112e66c": 4259,
    ".6": 4260,
    "\u2581b1d870": 4261,
    "\u2581468": 4262,
    "\u25819bb8": 4263,
    "15s": 4264,
    "\u2581221": 4265,
    "\u258111d": 4266,
    "284": 4267,
    "\u2581444": 4268,
    "filelist": 4269,
    "wsock32.": 4270,
    "\u2581274fb": 4271,
    "mc": 4272,
    ".204.": 4273,
    "\u25813a0": 4274,
    "jz": 4275,
    "len": 4276,
    "urlcache": 4277,
    "cryptneturlcache": 4278,
    "utf": 4279,
    "cpip": 4280,
    "144": 4281,
    "rundll": 4282,
    "\\1.3": 4283,
    "\u2581b1d89c": 4284,
    "ae0": 4285,
    "f880": 4286,
    "\u2581183.": 4287,
    "\u2581alg": 4288,
    "\u258112d978": 4289,
    "\u2581164850": 4290,
    "\u258145c": 4291,
    "\u2581a5": 4292,
    "\u258112b4": 4293,
    "\u25811476": 4294,
    "1c4": 4295,
    "=2": 4296,
    "-09": 4297,
    "cent": 4298,
    "lv": 4299,
    "colum": 4300,
    "\u2581163": 4301,
    "dab": 4302,
    "-8&": 4303,
    "wer": 4304,
    "\u25811d9": 4305,
    "\u25811ae": 4306,
    "378": 4307,
    "3e8": 4308,
    "518": 4309,
    "e790": 4310,
    "\u25811e5": 4311,
    "\\2052\\": 4312,
    "sec": 4313,
    "\u25813c9": 4314,
    "52.": 4315,
    "mail": 4316,
    ".197": 4317,
    "f5f0": 4318,
    "17-": 4319,
    "pint": 4320,
    "\u2581334": 4321,
    "sint": 4322,
    "pend": 4323,
    "\u2581338": 4324,
    "\u2581200.119": 4325,
    "nsm": 4326,
    "sxs": 4327,
    "nativeimages": 4328,
    "idths": 4329,
    "dar": 4330,
    "c38": 4331,
    "ea0": 4332,
    "onents": 4333,
    "\u2581100000": 4334,
    "950": 4335,
    "f854": 4336,
    "cert": 4337,
    "shdo": 4338,
    "-42": 4339,
    "\u258112f71c": 4340,
    "\u25811c9e": 4341,
    "ed4": 4342,
    "fd18": 4343,
    "lendar": 4344,
    "skins": 4345,
    "\u258113f3": 4346,
    "\u258112fe14": 4347,
    "\u258112bd": 4348,
    "3}\\": 4349,
    "31:": 4350,
    "bile": 4351,
    "\u2581200.119.204.": 4352,
    "\u2581200.119.204.12:": 4353,
    "\u258112d9d0": 4354,
    "inbox": 4355,
    "\u25812018-12-06": 4356,
    "path1": 4357,
    "\u2581dfff44": 4358,
    "path2": 4359,
    "\u258113dc": 4360,
    "path3": 4361,
    "l1-1": 4362,
    "path4": 4363,
    "mobile": 4364,
    "\u25814e6fad4": 4365,
    "\u25814e6fd6c": 4366,
    "\u2581107e504": 4367,
    "\u2581154600": 4368,
    "\u25814e6ff9c": 4369,
    "e410": 4370,
    "-98": 4371,
    "\u258119bc": 4372,
    "\u258112f644": 4373,
    "\u2581714": 4374,
    "c88": 4375,
    "\u2581187": 4376,
    "\u258112ac": 4377,
    "de4": 4378,
    "state": 4379,
    "\u25813f5": 4380,
    "-45": 4381,
    "-11cf": 4382,
    "columnw": 4383,
    "columnwidths": 4384,
    "\u2581coo": 4385,
    "90.": 4386,
    "\u25811e6": 4387,
    "ws7": 4388,
    "\u2581211": 4389,
    "ade": 4390,
    "filecolumnwidths": 4391,
    "\u25811b9e2": 4392,
    "abcdeffedcbb": 4393,
    "rundll32.": 4394,
    "mgr": 4395,
    "52_": 4396,
    "\u2581189": 4397,
    "6c4": 4398,
    "_1fc8": 4399,
    "b3b9a1e18e3b": 4400,
    "_1fc8b3b9a1e18e3b": 4401,
    "ani": 4402,
    "abcdeffedcbc": 4403,
    "\u2581149c": 4404,
    "\u258112fa44": 4405,
    "\u2581aebecc": 4406,
    "f91c": 4407,
    "\u2581328": 4408,
    "\u258108": 4409,
    "d264": 4410,
    "da8": 4411,
    "\u25811b38": 4412,
    "bypass": 4413,
    "170:": 4414,
    "-0000-": 4415,
    "\u258135c": 4416,
    "32c": 4417,
    "\u2581proxybypass": 4418,
    "oe": 4419,
    "\u2581dcf": 4420,
    "acrord32": 4421,
    "ranetname": 4422,
    "\u2581intranetname": 4423,
    "\u258119b3": 4424,
    "e7b8": 4425,
    "\u25813ee": 4426,
    "mof": 4427,
    "744": 4428,
    "\u2581126": 4429,
    "\u2581c7": 4430,
    "\u258184000000": 4431,
    "f834": 4432,
    "\u258112df98": 4433,
    "360": 4434,
    "qa": 4435,
    "\u25816b0": 4436,
    "\u258140c": 4437,
    "\u25812fb": 4438,
    "fd1c": 4439,
    "l1-2": 4440,
    "ff4": 4441,
    "_13": 4442,
    "\u258127b": 4443,
    "\u258117a": 4444,
    "\u2581unca": 4445,
    "sintranet": 4446,
    "\u2581uncasintranet": 4447,
    "\u258134c": 4448,
    "calendar": 4449,
    "\u258193ef8": 4450,
    ".0.0.0_": 4451,
    "\u25814ac": 4452,
    "\u25811c6": 4453,
    "dfb": 4454,
    "-04": 4455,
    "cel": 4456,
    "af0": 4457,
    "d1d": 4458,
    "1ee": 4459,
    "90c": 4460,
    "bc00": 4461,
    "acrord32info": 4462,
    "gin": 4463,
    "(15s": 4464,
    "xk": 4465,
    "b80": 4466,
    "\u258100019b3": 4467,
    "e84": 4468,
    "dicts": 4469,
    "b78": 4470,
    "\u2581102": 4471,
    "\u258100019bc": 4472,
    "\u2581sta": 4473,
    "lity": 4474,
    "408": 4475,
    "\u2581368": 4476,
    "fe54": 4477,
    "\u2581756": 4478,
    "\u2581fb": 4479,
    "\u2581ae": 4480,
    "tj": 4481,
    "\u258112fe44": 4482,
    "\u2581573": 4483,
    "gg": 4484,
    "sqlce": 4485,
    "off": 4486,
    "5_": 4487,
    "\u2581364": 4488,
    "\u258171c": 4489,
    "\u258112fabc": 4490,
    "rust": 4491,
    "268": 4492,
    "idata": 4493,
    "\u258132fd": 4494,
    "\u258137fc": 4495,
    ".30": 4496,
    "vcre": 4497,
    "x86\\": 4498,
    "\u2581916": 4499,
    "\u25817f4": 4500,
    "\u258194b20": 4501,
    "938": 4502,
    "iq": 4503,
    "\u258194.100": 4504,
    "\u25811d5e": 4505,
    ".180.110:": 4506,
    "\u258194.100.180.110:": 4507,
    "sm": 4508,
    "\u2581b5d": 4509,
    "\u2581924": 4510,
    "\u25813e9": 4511,
    "ey": 4512,
    "sample": 4513,
    "\u2581shimgvw": 4514,
    "kernelbase": 4515,
    "vd": 4516,
    "0003": 4517,
    "\u258166": 4518,
    "\u25811ca": 4519,
    "\u2581358": 4520,
    "ific": 4521,
    "\u258112ce": 4522,
    "fd2c": 4523,
    "\u258121be": 4524,
    "qing": 4525,
    "\u258140f020": 4526,
    "\u258136c": 4527,
    "vcredist": 4528,
    "5d4": 4529,
    "\u258191": 4530,
    "\u25811a1fe6c": 4531,
    "\u2581full": 4532,
    "\u25811a1fe94": 4533,
    "han": 4534,
    "f4c": 4535,
    "f990": 4536,
    "\u2581401": 4537,
    "tapi": 4538,
    "\u2581272": 4539,
    "348": 4540,
    "358": 4541,
    "\u2581405d0d": 4542,
    "\u2581405d1d": 4543,
    "\u25811da": 4544,
    "\u25811497": 4545,
    "e0c": 4546,
    "fd10": 4547,
    "systemcache": 4548,
    "9a0": 4549,
    "\u258112fe38": 4550,
    "pic": 4551,
    "fengrili": 4552,
    "\u2581430": 4553,
    "qingfengrili": 4554,
    "f090": 4555,
    "35:": 4556,
    "\u2581104e24c": 4557,
    "\u2581104e292": 4558,
    "9e8": 4559,
    "_2": 4560,
    "excel": 4561,
    "e70": 4562,
    "\u258144c": 4563,
    "edd8": 4564,
    "\u258147": 4565,
    "\u2581370": 4566,
    "f900": 4567,
    "\u258113e6": 4568,
    "erro": 4569,
    "ym": 4570,
    "bdms": 4571,
    "\u2581play": 4572,
    "_7": 4573,
    "\u25812baf878": 4574,
    "\u25812baf8b0": 4575,
    "os": 4576,
    "fa4": 4577,
    "baiduan": 4578,
    "\u25811cfe": 4579,
    "ba8": 4580,
    "\u258177c": 4581,
    "\u25811f9": 4582,
    "aed": 4583,
    "16f2c": 4584,
    "5004c": 4585,
    "srvsvc": 4586,
    "\u258120016f2c": 4587,
    "\u258110d": 4588,
    "bc4": 4589,
    "\u2581f5004c": 4590,
    "\u25819a0000": 4591,
    "e0d8": 4592,
    "\u25811e1": 4593,
    ":\\*": 4594,
    "\u2581cc0014": 4595,
    "\u2581152640": 4596,
    "fa3c": 4597,
    "bdmskin": 4598,
    "\u2581b1e7": 4599,
    "\u2581299": 4600,
    "\u258112fc0": 4601,
    "\u2581454": 4602,
    "7.2": 4603,
    "(2400s": 4604,
    "\u25813ca": 4605,
    "\u2581281": 4606,
    "\u258112e83c": 4607,
    "xls": 4608,
    "dec04": 4609,
    "\u258132fe4a0": 4610,
    "\u258132fe4c8": 4611,
    "fd98": 4612,
    "\u2581b5c": 4613,
    "sechost": 4614,
    "\u258151": 4615,
    "db8": 4616,
    "back": 4617,
    "engine": 4618,
    "\u2581114d1f4": 4619,
    "\u2581114d21c": 4620,
    "\u2581114d204": 4621,
    "1s": 4622,
    "\u2581pe": 4623,
    "arc": 4624,
    "\u2581115.231.": 4625,
    "\u25813fd": 4626,
    "msvcr": 4627,
    "\u2581b1d4e4": 4628,
    "d0-": 4629,
    "\u2581wu": 4630,
    "idatabase": 4631,
    "ters": 4632,
    "\u25812c10000": 4633,
    "-0000000ff1ce": 4634,
    "~1.": 4635,
    "fba0": 4636,
    "\u2581600": 4637,
    "\u2581video": 4638,
    "1_": 4639,
    "\u2581712": 4640,
    "ten": 4641,
    "\u2581728": 4642,
    "\u2581adf6": 4643,
    "fe34": 4644,
    "225": 4645,
    "\u25818ce": 4646,
    "11-0000-0000": 4647,
    "\u2581109ff4c": 4648,
    "\u258112e604": 4649,
    "\u25812f7": 4650,
    "\u258195": 4651,
    "11-0000-0000-0000000ff1ce": 4652,
    "\\{90120000-0011-0000-0000-0000000ff1ce": 4653,
    "wtsapi32.": 4654,
    "\u2581323f2c0": 4655,
    "\u25811484": 4656,
    "drv": 4657,
    "\u258112f3d0": 4658,
    "\u2581350": 4659,
    "d78": 4660,
    "\u258113f8": 4661,
    "f470": 4662,
    "alog": 4663,
    "cat": 4664,
    "num": 4665,
    "a5c": 4666,
    "\u25811ce": 4667,
    "\u2581116.": 4668,
    "policy": 4669,
    "\u25814e5ff6c": 4670,
    "\u2581323f2c8": 4671,
    "fe2c": 4672,
    "-470": 4673,
    "\u2581164878": 4674,
    "ws0": 4675,
    "\u258112f8cc": 4676,
    "xw": 4677,
    "\u2581460": 4678,
    "\u25814e0": 4679,
    "syswow": 4680,
    "\u25817e338": 4681,
    "b18": 4682,
    "ervicepack": 4683,
    "ntservicepack": 4684,
    "nsh": 4685,
    "cookies": 4686,
    "ntservicepackuninstall": 4687,
    "ntd": 4688,
    "\u2581438": 4689,
    ".4": 4690,
    "clt": 4691,
    "lists": 4692,
    "acrobat": 4693,
    "ases": 4694,
    "mswsock": 4695,
    "wq": 4696,
    "nsq": 4697,
    "\u25812f9": 4698,
    "\u2581116.21": 4699,
    "780": 4700,
    "\u25817df40": 4701,
    "\u258143": 4702,
    "fcc": 4703,
    "45b": 4704,
    "\u2581761": 4705,
    "7a8": 4706,
    "\u2581playlists": 4707,
    "\u25813b5": 4708,
    "\u2581a1f0": 4709,
    "ntdsapi": 4710,
    "00a710b8a710b8": 4711,
    "spp": 4712,
    "\u2581190.18": 4713,
    "\u2581127c4c": 4714,
    "fce0": 4715,
    "aliases": 4716,
    "\u258185": 4717,
    "38.": 4718,
    "e6d0": 4719,
    "egaliases": 4720,
    "\u2581135": 4721,
    "racwm": 4722,
    "adap": 4723,
    "macromedia": 4724,
    "5.170:": 4725,
    "debb0": 4726,
    "v4.0": 4727,
    "\u25812b6ff34": 4728,
    "\u25811200": 4729,
    "\u2581157": 4730,
    "\u25815a8": 4731,
    "zone": 4732,
    "_20": 4733,
    "\u25814e9fad4": 4734,
    "\u25814e9fd6c": 4735,
    "cliegaliases": 4736,
    "\u25814e9ff9c": 4737,
    "\u2581128c84": 4738,
    "\u258140b020": 4739,
    "\u2581115.239": 4740,
    "error": 4741,
    "\u258156c": 4742,
    "\u2581120c9c": 4743,
    "\u2581120c4c": 4744,
    "\u258111f7": 4745,
    "\u2581170ff": 4746,
    "\u2581b3": 4747,
    "e35": 4748,
    "de74": 4749,
    "-56": 4750,
    "syswow64\\": 4751,
    "\u2581780": 4752,
    "\u2581190.186.4": 4753,
    "f48": 4754,
    "930": 4755,
    "roam": 4756,
    "\u2581190.186.45.170:": 4757,
    "\u2581a1d4": 4758,
    "\u2581123.": 4759,
    "1400": 4760,
    "\u2581223": 4761,
    "\u258112cd": 4762,
    "\u258114a0": 4763,
    "apphelp": 4764,
    "noroam": 4765,
    "shellnoroam": 4766,
    "dui": 4767,
    "mk": 4768,
    "wint": 4769,
    "yy": 4770,
    "714": 4771,
    "\u258122d": 4772,
    "def": 4773,
    "rasman": 4774,
    "active": 4775,
    "1d8": 4776,
    "\u2581434": 4777,
    "izard": 4778,
    "tx": 4779,
    "iv": 4780,
    "\u2581137": 4781,
    "b00": 4782,
    "12c": 4783,
    "\u258116e": 4784,
    "\u2581desktop": 4785,
    "\u25811b5": 4786,
    "nsr": 4787,
    "\u25813d5ecf4": 4788,
    "clo": 4789,
    "\u25817ec": 4790,
    "-00aa": 4791,
    "\u2581129c": 4792,
    "\u25811f7": 4793,
    "\u25811254": 4794,
    "mobiletool": 4795,
    "sogoumobiletool": 4796,
    "\u2581xp": 4797,
    "imagehlp": 4798,
    "nsa": 4799,
    "\u258161": 4800,
    "\u258112ec50": 4801,
    "\u25811312": 4802,
    "ast": 4803,
    "r32.": 4804,
    "zz": 4805,
    "hs": 4806,
    "link": 4807,
    "auclt": 4808,
    "1b96": 4809,
    "2cc": 4810,
    "ws4": 4811,
    "\u25817feff": 4812,
    "45b188": 4813,
    "\u25817feff45b188": 4814,
    "arp": 4815,
    "\u2581428": 4816,
    "\u2581493": 4817,
    "1c8": 4818,
    "\u2581tool": 4819,
    "\u2581191": 4820,
    "\u2581peb": 4821,
    "\u2581pebiesnrmkudrfcoiaamtykdda": 4822,
    "\u2581adf7": 4823,
    "\u25815c0": 4824,
    "_54": 4825,
    "glh": 4826,
    "f1cc": 4827,
    "eddata": 4828,
    "d50": 4829,
    "ater": 4830,
    "2s": 4831,
    "\u258169": 4832,
    "ball": 4833,
    "rasapi32.": 4834,
    "\u258112e638": 4835,
    "audio": 4836,
    "\u2581for": 4837,
    "cryptbase": 4838,
    "f934": 4839,
    "wsht": 4840,
    "wshtcpip": 4841,
    "\u2581efd": 4842,
    "\u25814b8": 4843,
    "\u25817ffdbc00": 4844,
    "vc80.": 4845,
    "e768": 4846,
    "eq": 4847,
    "imd": 4848,
    "wz": 4849,
    "iu": 4850,
    "ics": 4851,
    "\u25811d6": 4852,
    "docx": 4853,
    "\u25811c5e614": 4854,
    "\u25811c5e630": 4855,
    "\u25811c5e644": 4856,
    "\u25811c5e64c": 4857,
    "\u25811c5ea04": 4858,
    "\u258119d": 4859,
    "\u2581164600": 4860,
    "750": 4861,
    "tlb": 4862,
    "\u2581103": 4863,
    "tapi32.": 4864,
    "ener": 4865,
    "928": 4866,
    "\u2581119": 4867,
    "e3bc": 4868,
    "\u25814ec": 4869,
    "\u258112e940": 4870,
    "v4.0_4": 4871,
    "air": 4872,
    "\u258112e61a": 4873,
    "\u25811a2": 4874,
    "stats": 4875,
    "bje": 4876,
    "\u2581proxyenable": 4877,
    "f9e8": 4878,
    "5400": 4879,
    "\u2581448": 4880,
    "\u25816fc": 4881,
    "cid": 4882,
    "\u258112ff7c": 4883,
    "\u2581wuauclt": 4884,
    "ish": 4885,
    "\u2581544": 4886,
    "\u2581gener": 4887,
    "ebb4": 4888,
    "38-": 4889,
    "\u258113d": 4890,
    "\u25813e2": 4891,
    "compat": 4892,
    "x86.": 4893,
    "_14": 4894,
    "e194": 4895,
    "\u25813ea": 4896,
    "9-4": 4897,
    ".19": 4898,
    "publisheddata": 4899,
    "racwmidatabase": 4900,
    "5.0\\": 4901,
    "gc": 4902,
    "\u2581114d75c": 4903,
    "\u25816e4": 4904,
    "ffb": 4905,
    "\u2581?": 4906,
    "sensapi": 4907,
    "\u2581b1e0": 4908,
    "urlmon": 4909,
    "verlight": 4910,
    "\u25814e7f190": 4911,
    ".7": 4912,
    "1be": 4913,
    "f24": 4914,
    "9d0": 4915,
    "hea": 4916,
    "hu": 4917,
    "\u25811f2": 4918,
    "\u258112fb14": 4919,
    "\u2581470": 4920,
    "\u2581a3": 4921,
    "-84": 4922,
    "winsta": 4923,
    "\u25812cdf0": 4924,
    "-28": 4925,
    "124": 4926,
    "\u258165": 4927,
    "dab146": 4928,
    "\u2581c000c": 4929,
    "\u258177dab146": 4930,
    "\u2581c0000225": 4931,
    "\u2581c000c28c": 4932,
    "ay": 4933,
    "\u258113e604": 4934,
    "\u25812dcfe88": 4935,
    "000a": 4936,
    "\u258113e61a": 4937,
    "\u25811ee": 4938,
    "-88": 4939,
    "pintlg": 4940,
    "document": 4941,
    "\u2581114d750": 4942,
    "\u2581114d778": 4943,
    "\u258112e968": 4944,
    "a58": 4945,
    "\u2581494": 4946,
    "\u258112c424": 4947,
    "\u25812001": 4948,
    "\u258115_": 4949,
    "\u258112ec78": 4950,
    "b2.": 4951,
    "plane": 4952,
    "report": 4953,
    "\u25817e5a0": 4954,
    "\u2581273": 4955,
    "123456": 4956,
    "\u2581converter": 4957,
    "510": 4958,
    "\u2581252": 4959,
    "forms": 4960,
    "airplane": 4961,
    "hide": 4962,
    "\u2581614": 4963,
    "\u258112efbc": 4964,
    "-9f": 4965,
    "904": 4966,
    "\u2581so": 4967,
    "\u2581fde": 4968,
    "-0804": 4969,
    "sfc": 4970,
    "\u2581generator": 4971,
    "\u258112efc0": 4972,
    "a88": 4973,
    ".360.": 4974,
    "\u2581251": 4975,
    "fa5c": 4976,
    "\u2581f1e": 4977,
    "\u258112e610": 4978,
    "\u2581297": 4979,
    "fcb8": 4980,
    "typelib": 4981,
    "\u25812d1400": 4982,
    "\u2581114d7c0": 4983,
    "df6": 4984,
    "ee8": 4985,
    "e7.": 4986,
    "(16": 4987,
    "\u2581114d760": 4988,
    "\u2581678": 4989,
    "c2": 4990,
    "(17": 4991,
    "\u258112b3": 4992,
    "jp": 4993,
    "5400123456": 4994,
    "\u2581152528": 4995,
    "\u2581504": 4996,
    "\u258114c1a8": 4997,
    "imesc": 4998,
    "2018120": 4999,
    "\u2581ab": 5000,
    "\u25814d": 5001,
    "aj": 5002,
    "\u258110b": 5003,
    "110": 5004,
    "\u258167": 5005,
    "\u25813c3": 5006,
    "e3e4": 5007,
    "atl": 5008,
    "review": 5009,
    "\u2581bing": 5010,
    "f448": 5011,
    "nsn": 5012,
    "\u2581450": 5013,
    "\u25817fc": 5014,
    "ek": 5015,
    "nsc": 5016,
    "\u2581581b96": 5017,
    "ddc": 5018,
    "82": 5019,
    "\u258112f480": 5020,
    "ef8": 5021,
    "\u258174c": 5022,
    "35c": 5023,
    "avp": 5024,
    "\u25811539": 5025,
    "50a": 5026,
    "hidese": 5027,
    "ji": 5028,
    "\u258118d": 5029,
    "a30": 5030,
    "d8c": 5031,
    "beat": 5032,
    "profile": 5033,
    "tab": 5034,
    "36.": 5035,
    "eb30": 5036,
    "7d2": 5037,
    "\u258165c": 5038,
    "\u25812d50000": 5039,
    "322": 5040,
    "96.": 5041,
    "appcompat": 5042,
    "power": 5043,
    "\u25814fc": 5044,
    "0.": 5045,
    "\u25817e940000": 5046,
    "produ": 5047,
    "a68": 5048,
    "crt": 5049,
    "\u258112f3d8": 5050,
    "\u25812ca": 5051,
    "lck": 5052,
    "\u25811434": 5053,
    "ime12\\": 5054,
    "adata": 5055,
    "comdlg": 5056,
    "ident": 5057,
    "(21": 5058,
    "\u258157": 5059,
    "\u258132fdf78": 5060,
    "\u2581net": 5061,
    "\u25814f0": 5062,
    "\u25816e8": 5063,
    "\u25813d4270": 5064,
    "/?": 5065,
    "248": 5066,
    "\u2581disable": 5067,
    "\u2581db": 5068,
    "\u25813d9fe28": 5069,
    "\u25813d9fe50": 5070,
    "metadata": 5071,
    "driver": 5072,
    "\u25812c80000": 5073,
    "\u25811f6": 5074,
    "2020": 5075,
    "\u25812fbff34": 5076,
    "tems": 5077,
    "\u25815b8": 5078,
    "wma": 5079,
    "\u25811cce": 5080,
    "39.": 5081,
    "9e0": 5082,
    "comdlg32.": 5083,
    "ick": 5084,
    "\u25812bd0000": 5085,
    "\u2581790": 5086,
    "\u258114d8": 5087,
    "16_": 5088,
    "rtutils": 5089,
    "9-9": 5090,
    "jo": 5091,
    "bag": 5092,
    "\u2581114d200": 5093,
    "identit": 5094,
    "fil": 5095,
    "e1c8": 5096,
    "96-": 5097,
    "\u2581z": 5098,
    "\u25812930000": 5099,
    "init": 5100,
    "\u2581121": 5101,
    "\u2581307": 5102,
    "che": 5103,
    "\u25817e578": 5104,
    "e34": 5105,
    "95:": 5106,
    "\u2581cc0": 5107,
    "http": 5108,
    "nsb2.": 5109,
    "39.110:": 5110,
    "\u25811008": 5111,
    "\u2581217.69.139.110:": 5112,
    "\u2581114d264": 5113,
    "d760": 5114,
    "sign": 5115,
    "\\2.0.0.0__": 5116,
    "eb0": 5117,
    "rona": 5118,
    "-11d1-": 5119,
    "\u2581d3": 5120,
    "clr": 5121,
    "\u2581toolbar": 5122,
    "yk": 5123,
    "sound": 5124,
    "\u2581554": 5125,
    "f54": 5126,
    "tom": 5127,
    "ronaut": 5128,
    "astronaut": 5129,
    "avgnt": 5130,
    "\u258112efc4": 5131,
    "e9e0": 5132,
    "9d1": 5133,
    "\u258112f908": 5134,
    "\u25812006-10-27": 5135,
    "edw": 5136,
    "cyc": 5137,
    "f0b8": 5138,
    "identities": 5139,
    "mx": 5140,
    "sus": 5141,
    "-96": 5142,
    "\u25817d9": 5143,
    "login": 5144,
    "\u25811e7fce4": 5145,
    "\u25811e7fd04": 5146,
    ".2052.": 5147,
    "bf38": 5148,
    "lst": 5149,
    "\u25814a": 5150,
    "nl": 5151,
    "wintrust": 5152,
    "3a0": 5153,
    "-4b": 5154,
    "\u25811494": 5155,
    "static": 5156,
    "ci": 5157,
    "src": 5158,
    "936": 5159,
    "bec5c": 5160,
    "24.": 5161,
    "rav": 5162,
    "btn": 5163,
    "\u25814c8": 5164,
    "f438": 5165,
    "\u25814d4": 5166,
    "\u25812c30000": 5167,
    "fe14": 5168,
    "-0000-0000000ff1ce": 5169,
    "\u25813ade8": 5170,
    "\u25813f2": 5171,
    "\u25813c6ef60": 5172,
    "300": 5173,
    "-0804-0000-0000000ff1ce": 5174,
    "\u2581auto": 5175,
    "epic": 5176,
    "(22": 5177,
    "ttf": 5178,
    "52c": 5179,
    "fcc8": 5180,
    "_29": 5181,
    "0a": 5182,
    "sfx": 5183,
    "-64": 5184,
    "\u258139dc0": 5185,
    "\u258115ff": 5186,
    "718": 5187,
    "flashplayer": 5188,
    "certific": 5189,
    "\u258112f6f4": 5190,
    "\u25814f8": 5191,
    "adobeupdater": 5192,
    "rap": 5193,
    "\u25811db": 5194,
    "\u25812870000": 5195,
    "dd0": 5196,
    "_3": 5197,
    "\u2581201": 5198,
    "9b0": 5199,
    "\u25811292": 5200,
    "\u25818cea": 5201,
    "1c6": 5202,
    "zk": 5203,
    "\u25814dc": 5204,
    "978": 5205,
    "\u25812006-10-26": 5206,
    "loader": 5207,
    "gk": 5208,
    "}:": 5209,
    "e824": 5210,
    "\u258125af928": 5211,
    "samr": 5212,
    "tr": 5213,
    "\u25813fe": 5214,
    "\u2581ro": 5215,
    "scan": 5216,
    "\u2581161": 5217,
    "f758": 5218,
    "44e": 5219,
    "\u25813c7": 5220,
    "190": 5221,
    "f97c": 5222,
    "luo": 5223,
    "\u258146c": 5224,
    "hp": 5225,
    "\u258112efa0": 5226,
    "winspool": 5227,
    "ff878": 5228,
    "\u2581124f990": 5229,
    "\u2581124f998": 5230,
    "210": 5231,
    "\u2581124f99c": 5232,
    "\u2581216": 5233,
    "\u258112d414": 5234,
    "a48": 5235,
    "580": 5236,
    "certificates": 5237,
    "\u2581sendarp": 5238,
    "\u258112e16c": 5239,
    "\u2581322e": 5240,
    "3f7c4": 5241,
    "country": 5242,
    "\u25814d8": 5243,
    "f3e4": 5244,
    "\u2581151a10": 5245,
    "\u2581studio": 5246,
    "e480": 5247,
    "pop": 5248,
    "97.": 5249,
    "kb": 5250,
    "\u25814a8": 5251,
    "723": 5252,
    "\u25814e7fc5c": 5253,
    "11.0\\": 5254,
    "ff8b0": 5255,
    "0028": 5256,
    "\u2581406b": 5257,
    "-7a": 5258,
    "(25": 5259,
    "\u2581280e4f0": 5260,
    "\u2581235": 5261,
    "\u2581280e410": 5262,
    "\u2581280e4cc": 5263,
    "\u2581280e3ec": 5264,
    "\u258110.0.2.2": 5265,
    "ton": 5266,
    "38f": 5267,
    "b9b8": 5268,
    "2f0": 5269,
    "fd7c": 5270,
    "\u2581frame": 5271,
    "\u258133a": 5272,
    "\u2581413038": 5273,
    "\u258112f7dc": 5274,
    "aliim": 5275,
    "pft": 5276,
    "\u258112e490": 5277,
    "2870": 5278,
    "\u25811eaead0": 5279,
    "fa1c": 5280,
    "56ad": 5281,
    "\u2581688": 5282,
    "\u25814c4": 5283,
    "gw": 5284,
    "lugin": 5285,
    "a94": 5286,
    "nsw2.": 5287,
    "\u25811014": 5288,
    "\u25814e4": 5289,
    "31bf38": 5290,
    "364e35": 5291,
    "31bf3856ad": 5292,
    "31bf3856ad364e35": 5293,
    "40.": 5294,
    "blind": 5295,
    "a80": 5296,
    "ff680": 5297,
    "decf4": 5298,
    "125.": 5299,
    "suspend": 5300,
    "\u2581169": 5301,
    "\u2581ntsuspend": 5302,
    "\u2581ntsuspendthread": 5303,
    "ws6": 5304,
    "uu": 5305,
    "\u258112fb0c": 5306,
    "fcd4": 5307,
    "074": 5308,
    "\u2581visual": 5309,
    "ea4": 5310,
    "bf8": 5311,
    "\\\\\\": 5312,
    "zi": 5313,
    "a98": 5314,
    "heart": 5315,
    "\u258112bc": 5316,
    "(29s": 5317,
    "\u258158c": 5318,
    "framework64\\": 5319,
    "\u258142e1c8": 5320,
    "fd14": 5321,
    "b30": 5322,
    "part": 5323,
    "\u2581150c38": 5324,
    "352": 5325,
    "f20": 5326,
    "-8b": 5327,
    "rc4.": 5328,
    "(16s": 5329,
    "\u25811eaea28": 5330,
    "\u25811eaea38": 5331,
    "eee0": 5332,
    "\u2581332f2c0": 5333,
    "\u2581402": 5334,
    "\u258151c": 5335,
    "sirc4.": 5336,
    "=525400123456": 5337,
    "\u258119e": 5338,
    "\u25811044": 5339,
    "a78": 5340,
    "900": 5341,
    "heartbeat": 5342,
    "\u2581765": 5343,
    "15440": 5344,
    "e46c": 5345,
    "\u25811b3": 5346,
    "\u2581674": 5347,
    "bf0000": 5348,
    "58&": 5349,
    "\u258114f": 5350,
    "\u258112be": 5351,
    "wav": 5352,
    "\u2581a2e530": 5353,
    "spool": 5354,
    "1a3": 5355,
    "\u2581668": 5356,
    "\u2581114d3ec": 5357,
    "\u2581114d3f4": 5358,
    "35s": 5359,
    "\u25813d46a0": 5360,
    "\u2581610": 5361,
    "\u2581183.61.": 5362,
    "vx": 5363,
    "\u2581498": 5364,
    "\u25811cbe": 5365,
    "\u258123a": 5366,
    "ib": 5367,
    "\u258113e18c": 5368,
    "fd30": 5369,
    "ef7c4": 5370,
    "\u2581100080": 5371,
    "\u25815d0": 5372,
    "\u2581516": 5373,
    "\u25811dfe": 5374,
    "proxys": 5375,
    "nsv": 5376,
    "disk": 5377,
    "07-": 5378,
    "unch": 5379,
    "51.": 5380,
    ".255": 5381,
    "\u25811d3": 5382,
    "e20": 5383,
    "nc": 5384,
    "c040": 5385,
    "\u258113e194": 5386,
    "\u2581400010": 5387,
    "dad": 5388,
    "installed": 5389,
    "proxystu": 5390,
    "\u2581c1f": 5391,
    "izer": 5392,
    "\u2581332f2c8": 5393,
    "=525400123456&": 5394,
    "\u258147c": 5395,
    "b9d": 5396,
    "syn": 5397,
    "fe74": 5398,
    "luoshenli": 5399,
    "javap": 5400,
    "\u2581b1d6": 5401,
    "ws1": 5402,
    "\u258112e81c": 5403,
    "380": 5404,
    "\u2581164628": 5405,
    "\u25816d": 5406,
    "nsx": 5407,
    "\u2581237": 5408,
    "\u258136.25.250.20": 5409,
    "\u2581154c": 5410,
    "\u25811a5": 5411,
    "\u258146d": 5412,
    "=2.0.0": 5413,
    "\u2581202000a": 5414,
    "bni": 5415,
    "\u2581480": 5416,
    "2e3031": 5417,
    "win7pc": 5418,
    "\u2581322e32": 5419,
    "-86": 5420,
    "\u2581280e49c": 5421,
    "\u2581280e4d8": 5422,
    "2e302e3031": 5423,
    "\u2581322e322e302e3031": 5424,
    "\u258112e4a6": 5425,
    "\u2581280e3bc": 5426,
    "\u2581280e3f8": 5427,
    "\u258115ef": 5428,
    "f2b3": 5429,
    "\u25818440": 5430,
    "\u25811b6": 5431,
    "\u258112e2bc": 5432,
    "bniedw": 5433,
    "\u2581558": 5434,
    "\u2581b1e8": 5435,
    "\u258189d": 5436,
    "88e": 5437,
    "ad6a": 5438,
    "f988": 5439,
    "48c": 5440,
    "\u2581175": 5441,
    "bclsid": 5442,
    "bdsearch": 5443,
    "proxystubclsid": 5444,
    "launch": 5445,
    "\u2581634": 5446,
    "\u25818440c040": 5447,
    "5s": 5448,
    "ccid": 5449,
    "de1&": 5450,
    "tgid": 5451,
    "27233": 5452,
    "686a04": 5453,
    "7d29d1": 5454,
    "937723": 5455,
    "bootid": 5456,
    "pcname": 5457,
    "aedde1&": 5458,
    "plugver": 5459,
    "2723358&": 5460,
    "937723f2b3": 5461,
    "ad6a686a04": 5462,
    "=522723358&": 5463,
    "7d29d1937723f2b3": 5464,
    "7d29d1937723f2b3aedde1&": 5465,
    "ad6a686a047d29d1937723f2b3aedde1&": 5466,
    "p0.": 5467,
    "\u2581start": 5468,
    "\u258122fc": 5469,
    "\u2581708": 5470,
    "\u258112f21c": 5471,
    "\u2581352": 5472,
    "cfgver": 5473,
    "cfgfrom": 5474,
    "cfgupdate": 5475,
    "aa8": 5476,
    "5f0a0": 5477,
    "1ec": 5478,
    "_47": 5479,
    "\u25814a45f0a0": 5480,
    "-94": 5481,
    "\u258112eed8": 5482,
    "2ac": 5483,
    "nsf": 5484,
    "c00000": 5485,
    "e4c": 5486,
    "0003140": 5487,
    "fw": 5488,
    "168": 5489,
    "-1c": 5490,
    "\u2581115.239.2": 5491,
    "\u2581f8fc": 5492,
    "fdf0": 5493,
    "\u25812de": 5494,
    "28.": 5495,
    "fb50": 5496,
    "\u25814051": 5497,
    "\u258149c": 5498,
    "\u258145.": 5499,
    "00c04": 5500,
    "f448c8c": 5501,
    "\u25814bc": 5502,
    "\u258112fb60": 5503,
    "\u258112f8c0": 5504,
    "\u258112e168": 5505,
    "f394": 5506,
    "\u2581media": 5507,
    "\u258162": 5508,
    ".3:": 5509,
    "\u2581components": 5510,
    "\u25814051e4": 5511,
    "\u258112f344": 5512,
    "\u25817a": 5513,
    "\u2581b1d50c": 5514,
    "\u2581206": 5515,
    "125": 5516,
    "\u258141b9b8": 5517,
    "\u2581490": 5518,
    "f30": 5519,
    "nsl2.": 5520,
    "b10": 5521,
    "f998": 5522,
    "\u2581131": 5523,
    "\u2581510": 5524,
    "options": 5525,
    "3f0": 5526,
    "\u258112f468": 5527,
    "oi": 5528,
    "\u25811293": 5529,
    "car": 5530,
    "-85": 5531,
    "\u2581538": 5532,
    "(35s": 5533,
    "\\7": 5534,
    "\u258154c": 5535,
    "\u258112eef8": 5536,
    "\u2581cookies": 5537,
    "med": 5538,
    "\u25817ac": 5539,
    "aw": 5540,
    "cj": 5541,
    "\u2581123.125.": 5542,
    "aliworkbench": 5543,
    "\u258112c0": 5544,
    "\u2581458a18": 5545,
    "yle": 5546,
    "shfolder": 5547,
    "\u258103_25": 5548,
    "hxn": 5549,
    "muko": 5550,
    "euwo": 5551,
    "gui": 5552,
    "/20": 5553,
    "sil": 5554,
    "\u2581488": 5555,
    "\u258114a058": 5556,
    "alipaysecsvc": 5557,
    "parame": 5558,
    "\u258112f8ac": 5559,
    "\u258112e6a4": 5560,
    "mukoeuwo": 5561,
    "w32": 5562,
    "fb8": 5563,
    "-470b": 5564,
    "pitems": 5565,
    "startupitems": 5566,
    "\u258112e154": 5567,
    "\u25819d": 5568,
    "2-4": 5569,
    "\u258114b0": 5570,
    "pif": 5571,
    "\u258112ed5c": 5572,
    "\u25815c4": 5573,
    "\u2581164840": 5574,
    "-9f74-": 5575,
    "a51be": 5576,
    "f21088e": 5577,
    "a51bef21088e": 5578,
    "ei": 5579,
    "\u2581f100": 5580,
    "bols": 5581,
    "fr": 5582,
    "922": 5583,
    "\u258112fef0": 5584,
    "\u2581478": 5585,
    "fd8": 5586,
    "f448c8c9": 5587,
    "parameters": 5588,
    "\u25811c7": 5589,
    "\u2581141": 5590,
    "\u258159c": 5591,
    "\u258112b5": 5592,
    "kug": 5593,
    "f74": 5594,
    "mine": 5595,
    "\u2581104d7": 5596,
    "\u258121e": 5597,
    "v4.0_4.0.0.0__": 5598,
    "\u25814c0": 5599,
    "ff08": 5600,
    "helper": 5601,
    "dis": 5602,
    "\u258114b": 5603,
    "\u25811520": 5604,
    "\u258112f1d8": 5605,
    "\u25812006-08": 5606,
    "w32x86\\": 5607,
    "\u258112fe24": 5608,
    "ale": 5609,
    "\u25812d6": 5610,
    "jh": 5611,
    "\u2581cde": 5612,
    "\u25814e8fc5c": 5613,
    "\u25812c70000": 5614,
    "14.": 5615,
    "cus": 5616,
    "\u25818d": 5617,
    "mira": 5618,
    "\u2581149c80": 5619,
    "e714": 5620,
    "\u25812940000": 5621,
    "resource": 5622,
    "25c": 5623,
    "\u25815a0": 5624,
    "\u25814e8f190": 5625,
    "\u258113f1": 5626,
    "\u25814e6fc5c": 5627,
    "\u25811544": 5628,
    "\u2581stub": 5629,
    "\u2581e2c": 5630,
    "\u2581122": 5631,
    "\u2581183.61.9.2": 5632,
    "aac": 5633,
    "filter": 5634,
    "silverlight": 5635,
    "\u258188b8": 5636,
    "\u258112db34": 5637,
    "\u2581f1004c": 5638,
    "\u2581li": 5639,
    "3e504": 5640,
    "\u2581stubpath": 5641,
    "d48": 5642,
    "\u25811d1fce4": 5643,
    "\u25811d1fd04": 5644,
    "\u2581182": 5645,
    "9f7c4": 5646,
    "ocx": 5647,
    "identi": 5648,
    "l1-1-1.": 5649,
    "3e0": 5650,
    "e484": 5651,
    "lng": 5652,
    "7e38": 5653,
    "sch": 5654,
    "identifi": 5655,
    "-03": 5656,
    "erson": 5657,
    "w32x86\\3\\": 5658,
    "=1": 5659,
    "_29_": 5660,
    "proxy": 5661,
    "f728": 5662,
    "\u2581684": 5663,
    "l1-2-0.": 5664,
    "etf": 5665,
    "identifier": 5666,
    "\u2581104e254": 5667,
    "uext": 5668,
    "\u2581104f4": 5669,
    "\u25815a": 5670,
    "\u25811535": 5671,
    "samlib": 5672,
    "tmp3.": 5673,
    "e68": 5674,
    "\u25811eb": 5675,
    "\u25817ffff": 5676,
    "iphlp": 5677,
    "\u2581218f878": 5678,
    "\u2581218f8b0": 5679,
    "iphlpapi": 5680,
    "\u2581c1ed": 5681,
    "\u2581474": 5682,
    "f95c": 5683,
    "\u2581578": 5684,
    "\u2581920": 5685,
    "javaplugin": 5686,
    "\u25814b4": 5687,
    "(28s": 5688,
    "\u258112fc03": 5689,
    "\u258110.0.2.3:": 5690,
    "f640": 5691,
    "\u25812006-09-": 5692,
    "ysecret": 5693,
    "28_": 5694,
    ".12.2052.": 5695,
    "5b0": 5696,
    "ses": 5697,
    "\u2581123.125.65": 5698,
    "\u25812016-07-12": 5699,
    "\u2581333f2c0": 5700,
    "mysecret": 5701,
    "\u25811496b0": 5702,
    "\u25811f0f928": 5703,
    "\u2581116": 5704,
    "\u2581149d58": 5705,
    "fae0": 5706,
    "b6-": 5707,
    "db0": 5708,
    "\u2581164828": 5709,
    "\u25817a3": 5710,
    "b6c": 5711,
    "f9-": 5712,
    "\u2581484": 5713,
    "\u25817c948": 5714,
    "\u25814a0": 5715,
    "f19": 5716,
    "\u2581type": 5717,
    "nli": 5718,
    "\u25813d1ebb0": 5719,
    "\u25813d1ec04": 5720,
    "\u258112f88": 5721,
    "_8.0.50727": 5722,
    ".360": 5723,
    "\u25811233": 5724,
    "\u25817c9481a3": 5725,
    "dks": 5726,
    "\u258112f888": 5727,
    "7b8": 5728,
    "f0048": 5729,
    "bd0": 5730,
    "book": 5731,
    "minidownload": 5732,
    "538": 5733,
    "\u258122e": 5734,
    "\u2581recvfrom": 5735,
    "kq": 5736,
    "fly": 5737,
    "\u2581c1f8": 5738,
    "dy": 5739,
    "fc60": 5740,
    "meire": 5741,
    "\u258148c": 5742,
    "\u2581of": 5743,
    "km": 5744,
    "f5f7": 5745,
    "\u258112f42c": 5746,
    "ba4": 5747,
    "f750": 5748,
    "\\{5": 5749,
    "-11d0-": 5750,
    "da0": 5751,
    "\u2581cc0020": 5752,
    "crypts": 5753,
    "meirenli": 5754,
    "\u258112_28_16": 5755,
    "\u2581564": 5756,
    "\\\\.": 5757,
    "fda0": 5758,
    "\u2581333f2c8": 5759,
    "xm": 5760,
    "\u2581abe": 5761,
    "4c0": 5762,
    "fc90": 5763,
    "888": 5764,
    "f9fc": 5765,
    "\u2581317": 5766,
    "\u25816d8": 5767,
    "3e4": 5768,
    "\u25814e6f190": 5769,
    "\u25811498": 5770,
    "shimgvw": 5771,
    "\u25812850000": 5772,
    "\u2581d7": 5773,
    "vdm": 5774,
    "\u2581sdks": 5775,
    "6f7": 5776,
    "(12": 5777,
    "fd78": 5778,
    "activ": 5779,
    "\u25811540": 5780,
    "\u25811b2": 5781,
    "setupfiles": 5782,
    "mxdw": 5783,
    "\u25813e6": 5784,
    "\u2581ffffffffffff": 5785,
    "\u258107": 5786,
    "\u2581cbe": 5787,
    "plugins": 5788,
    "ajetf": 5789,
    "570": 5790,
    "jau": 5791,
    "\u2581del": 5792,
    "hans": 5793,
    "758": 5794,
    "b57": 5795,
    "\u25815dc": 5796,
    "\u25816f4": 5797,
    "f5e8": 5798,
    "\\*.*": 5799,
    "fec5c": 5800,
    "\u258112ed54": 5801,
    "\u258112b8": 5802,
    "\u2581152340": 5803,
    "7f7c4": 5804,
    "\u25814d0": 5805,
    "wsc": 5806,
    "\u2581remote": 5807,
    "e870": 5808,
    "fe18": 5809,
    ".\\": 5810,
    "\u2581147e38": 5811,
    "faa0": 5812,
    "\u258114e1e8": 5813,
    "\u2581d0ff": 5814,
    "edt32.": 5815,
    "nvshenli": 5816,
    "\u258111f5": 5817,
    "\\20": 5818,
    "df8": 5819,
    "\u2581500": 5820,
    "\u258103_25_": 5821,
    "\u2581179": 5822,
    "nsg2.": 5823,
    "-00aa00": 5824,
    "button": 5825,
    "\u258110de": 5826,
    "\u2581remoteaccess": 5827,
    "\u258122a": 5828,
    "spec": 5829,
    "mxdwdui": 5830,
    "-74": 5831,
    "\u258122b": 5832,
    "\u2581winrar": 5833,
    "334": 5834,
    "crypto": 5835,
    "33.": 5836,
    "1f4": 5837,
    "fe98": 5838,
    "_9": 5839,
    "\u25811a9": 5840,
    "\u258112f1ee": 5841,
    "\u2581574": 5842,
    "\u2581router": 5843,
    "3a8": 5844,
    "provi": 5845,
    "ud": 5846,
    "\u2581bde": 5847,
    "\u2581nul": 5848,
    "\u2581204.": 5849,
    "kx": 5850,
    "e4e1": 5851,
    "\u258176d125d4": 5852,
    "extensions": 5853,
    "\u258120d": 5854,
    "\u258119afc18": 5855,
    "\u258119afc2c": 5856,
    "\u258119afc30": 5857,
    "(1": 5858,
    "\u25818f4d88": 5859,
    "-97": 5860,
    "23.": 5861,
    "mar": 5862,
    "-06d7": 5863,
    "\\{8e70": 5864,
    "\u258176d125c4": 5865,
    "rcx6.": 5866,
    "e4e1-06d7": 5867,
    "e4e1-06d7-470b": 5868,
    "\\{8e70e4e1-06d7-470b": 5869,
    "\u25812006-09-01": 5870,
    "f56": 5871,
    "xx": 5872,
    "977": 5873,
    "\u25811035": 5874,
    "(11": 5875,
    "lower": 5876,
    "368": 5877,
    "\u2581520": 5878,
    "118": 5879,
    "\u25813f": 5880,
    "a0\\": 5881,
    "rites": 5882,
    "\u2581524": 5883,
    "\u258111a": 5884,
    "1f7c4": 5885,
    "ebcc": 5886,
    "fd74": 5887,
    "2e4": 5888,
    "lc": 5889,
    "win7user": 5890,
    "376": 5891,
    "\u25817d5": 5892,
    "bui": 5893,
    "fb48": 5894,
    "\u2581bf0048": 5895,
    "v2.0.50727_32\\": 5896,
    "\u258112fce0": 5897,
    "\u2581c8f": 5898,
    "ba6": 5899,
    "d20": 5900,
    "fa48": 5901,
    "310": 5902,
    "\u2581604": 5903,
    "\u2581282": 5904,
    "v5.0\\": 5905,
    "lk": 5906,
    "da64": 5907,
    "f11d": 5908,
    "\u25811dde": 5909,
    "0e": 5910,
    "\u2581598": 5911,
    "\u2581624": 5912,
    "\u258140e": 5913,
    "50a3a": 5914,
    "b03f5f7": 5915,
    "f11d50a3a": 5916,
    "b03f5f7f11d50a3a": 5917,
    "\u25815f0": 5918,
    "tor": 5919,
    "\u2581550": 5920,
    "\\10": 5921,
    "\u2581164870": 5922,
    "p1": 5923,
    "(19": 5924,
    "\u2581163d": 5925,
    "910": 5926,
    "\u2581514": 5927,
    "fd9c": 5928,
    "ad7": 5929,
    "statedata": 5930,
    "\u258127e": 5931,
    "\u2581flower": 5932,
    "\u258112f5d8": 5933,
    "\u25815bc": 5934,
    "\u25812ffff6c": 5935,
    "\u25812ffffb0": 5936,
    "vh": 5937,
    "fc48": 5938,
    "\u2581251e9c": 5939,
    "\u258112ba": 5940,
    "bff": 5941,
    "\u258157ff5c": 5942,
    "\u258157ff7c": 5943,
    "alth": 5944,
    "\u2581154fe6c": 5945,
    "\u25816a0": 5946,
    "cvw": 5947,
    "f888": 5948,
    "\u258112ed50": 5949,
    "\u258112f2c4": 5950,
    "yc": 5951,
    "\u25814b0": 5952,
    "n2": 5953,
    "e28": 5954,
    "shdocvw": 5955,
    "goo": 5956,
    "kw": 5957,
    "zo": 5958,
    "36_": 5959,
    "e10": 5960,
    "\u25816e0": 5961,
    "-0080": 5962,
    "-11d2": 5963,
    "ff80": 5964,
    "\u2581c1d0": 5965,
    "bim": 5966,
    "224": 5967,
    "\u258112f9f4": 5968,
    "\u2581150008": 5969,
    "\u2581233": 5970,
    "fc3c": 5971,
    "\u2581149f": 5972,
    "a90": 5973,
    "diag": 5974,
    "win32": 5975,
    "\u25815b0": 5976,
    "\u25815d8": 5977,
    "d690": 5978,
    "tra": 5979,
    "edd0": 5980,
    "a7c": 5981,
    "\u258112f29c": 5982,
    "7296": 5983,
    "\u2581580": 5984,
    "700": 5985,
    "9ea": 5986,
    "\u25813db": 5987,
    "65c": 5988,
    "eo": 5989,
    "\u2581183.61.9.25:": 5990,
    "9.20": 5991,
    "\\1.3.0.": 5992,
    "71.": 5993,
    "\u2581folder": 5994,
    "special": 5995,
    "json": 5996,
    "recyc": 5997,
    "erial": 5998,
    "tk": 5999,
    "fc74": 6000,
    "\\520": 6001,
    "zs": 6002,
    "\u25812a5": 6003,
    "zg": 6004,
    "f8f0": 6005,
    "927296": 6006,
    "\\520927296": 6007,
    "vorites": 6008,
    "feed": 6009,
    "winlogon": 6010,
    "hao12": 6011,
    "_1.0": 6012,
    "\u2581670": 6013,
    "3-9": 6014,
    "f80": 6015,
    "\u25813e5f878": 6016,
    "\u25813e5f8b0": 6017,
    "\u25811944": 6018,
    "3.18": 6019,
    "260": 6020,
    "pes": 6021,
    "\u2581winmine": 6022,
    "dwwin": 6023,
    "firewall": 6024,
    "\u25811519": 6025,
    "6s": 6026,
    "synch": 6027,
    "fm": 6028,
    "\u258112e224": 6029,
    "ersonal": 6030,
    "(25s": 6031,
    "_08": 6032,
    "nst": 6033,
    "1-22": 6034,
    "\u2581710": 6035,
    "rate": 6036,
    "spoold": 6037,
    "tools": 6038,
    "\u258121ff": 6039,
    "pche": 6040,
    "\u2581590": 6041,
    "\u258189e0": 6042,
    "logo": 6043,
    "aq": 6044,
    "\u2581c00000": 6045,
    "f57": 6046,
    "ips": 6047,
    "fcd8": 6048,
    "pchealth": 6049,
    "(27s": 6050,
    "fc98": 6051,
    "kspoold": 6052,
    "\u258116a": 6053,
    "\u258112f90c": 6054,
    "\u25813c1": 6055,
    ".100:": 6056,
    "\u25813ff": 6057,
    "\u25817f8": 6058,
    "1-4": 6059,
    "wsd": 6060,
    "\u2581654": 6061,
    ":1": 6062,
    "tjd": 6063,
    "2.18": 6064,
    "\u258160c": 6065,
    "\u2581730": 6066,
    "\u25812da": 6067,
    "\u2581a0f8": 6068,
    "iospecial": 6069,
    "a20": 6070,
    "br": 6071,
    "216": 6072,
    "aug": 6073,
    "\u2581soft": 6074,
    "\u25812f": 6075,
    "\u25813beead0": 6076,
    "0elg": 6077,
    "p8.": 6078,
    "\u258132ef": 6079,
    "pt2": 6080,
    "pdate": 6081,
    "\u25819bbd": 6082,
    "278": 6083,
    "a4c": 6084,
    "%22%3a": 6085,
    "\u2581694": 6086,
    "\u25817c92": 6087,
    "\u258132fee": 6088,
    "je": 6089,
    "ond": 6090,
    "anda": 6091,
    "\u258118e": 6092,
    "-92": 6093,
    "f624": 6094,
    "gq": 6095,
    "\u25811eae208": 6096,
    "\u25811eae238": 6097,
    "ucalendar": 6098,
    "\u25818a": 6099,
    "728": 6100,
    "nsm2.": 6101,
    "\u258112b7": 6102,
    "\u25814e9fc5c": 6103,
    "fs": 6104,
    "\u2581143f": 6105,
    "yq": 6106,
    "\u25815cc": 6107,
    "jygamebox": 6108,
    "1m1": 6109,
    "7f8": 6110,
    "\u25812d1": 6111,
    "yxc": 6112,
    "\u2581570": 6113,
    "\u2581183.134.": 6114,
    "nhql": 6115,
    "tjdze": 6116,
    "1m1pt2": 6117,
    "kugbim": 6118,
    "\u2581bnhql": 6119,
    "0elg1m1pt2": 6120,
    "\u2581bnhqlkugbim": 6121,
    "0elg1m1pt2tjdze": 6122,
    "\u2581bnhqlkugbim0elg1m1pt2tjdze": 6123,
    "\u2581493e0": 6124,
    "\u25814e9f190": 6125,
    "68_": 6126,
    "\u2581a1d3": 6127,
    "\u2581fbd": 6128,
    "zewc": 6129,
    "\u258114ff": 6130,
    "\u2581186": 6131,
    "ub": 6132,
    "-7f": 6133,
    "\u25813beea28": 6134,
    "\u25813beea38": 6135,
    "\u25811b7": 6136,
    "\u2581120080": 6137,
    "bebb0": 6138,
    "373": 6139,
    "llib": 6140,
    "\u2581704": 6141,
    "fish": 6142,
    "ad6": 6143,
    "\u2581164818": 6144,
    "csc": 6145,
    "very": 6146,
    "lext": 6147,
    "\u2581588": 6148,
    "345": 6149,
    "bb5": 6150,
    "e18": 6151,
    "\u25812bf0000": 6152,
    "dw20.": 6153,
    "\u2581900": 6154,
    "\u2581376": 6155,
    "\u258112fa74": 6156,
    "dccc": 6157,
    ",-217": 6158,
    "\u25819bc4": 6159,
    "994": 6160,
    "dt": 6161,
    "\u25815ec": 6162,
    "\u2581163b": 6163,
    "95a": 6164,
    "\\3.0.": 6165,
    "n2q": 6166,
    "f3b0": 6167,
    "00284d": 6168,
    "\u25812c00000": 6169,
    "\u25817ffd6000": 6170,
    "dir": 6171,
    "\u25815ac": 6172,
    "\u258112e410": 6173,
    "\u2581xptest": 6174,
    "jxw": 6175,
    "\u25812ccf0": 6176,
    "\u258112f868": 6177,
    "\\00284d": 6178,
    "\u2581136": 6179,
    "pca1": 6180,
    "dh": 6181,
    "\u2581b00000": 6182,
    "\u2581cpd": 6183,
    "bhn2q": 6184,
    "lvyxc": 6185,
    "mqpca1": 6186,
    "\u2581cpdjxw": 6187,
    "bhn2qzewc": 6188,
    "mqpca1lvyxc": 6189,
    "\u2581cpdjxwbhn2qzewc": 6190,
    "\u2581cpdjxwbhn2qzewcmqpca1lvyxc": 6191,
    "(26s": 6192,
    "uo": 6193,
    "91c": 6194,
    "960": 6195,
    "\u2581804": 6196,
    "\u25811536": 6197,
    "optim": 6198,
    "\u25812ae": 6199,
    "review0": 6200,
    "\u258112e408": 6201,
    "\u25815c8": 6202,
    "hl": 6203,
    "ef14": 6204,
    "\u2581148c": 6205,
    "\u2581153d": 6206,
    "a17": 6207,
    "1-5": 6208,
    "\u2581b0f8": 6209,
    "live": 6210,
    "31bf3856ad364e35\\": 6211,
    "\u2581172.217.16": 6212,
    "-7d": 6213,
    "f99c": 6214,
    "\u258112c6": 6215,
    "e84c": 6216,
    "zj": 6217,
    "\u258112f9e4": 6218,
    "\u25812800": 6219,
    "\u258111ea": 6220,
    "\u258170c": 6221,
    "\u258114af": 6222,
    "ffe88": 6223,
    "\u2581r": 6224,
    "ef9": 6225,
    ".190": 6226,
    "86\\": 6227,
    "\u258115ea": 6228,
    "fa60": 6229,
    "let": 6230,
    "prop": 6231,
    "\u25817ffde000": 6232,
    "404": 6233,
    "\u258152dea": 6234,
    "15-": 6235,
    "\\000": 6236,
    "\u25811519c0": 6237,
    "bility": 6238,
    "\u25813b9": 6239,
    "\u2581version": 6240,
    "rarreg": 6241,
    "-9c": 6242,
    "\u2581downloader": 6243,
    "\u2581285": 6244,
    "\u2581serial": 6245,
    "68c": 6246,
    "\u2581530": 6247,
    "\u2581433": 6248,
    "ibility": 6249,
    "configurl": 6250,
    "138": 6251,
    "df78": 6252,
    "folderoptions": 6253,
    "\u2581autoconfigurl": 6254,
    "2a0": 6255,
    "you": 6256,
    "\u25816ec": 6257,
    "\\00284da0\\": 6258,
    "\u2581software": 6259,
    "\u2581b1dc": 6260,
    "314": 6261,
    "b47": 6262,
    "srch": 6263,
    "sharedaccess": 6264,
    "\u2581698": 6265,
    "fc38": 6266,
    "\u2581nofolderoptions": 6267,
    "e30": 6268,
    "3.0\\": 6269,
    "f70": 6270,
    "\u258153c": 6271,
    "f550": 6272,
    "\u258136.25.250.1": 6273,
    "\u2581528": 6274,
    "-1-5-18": 6275,
    "directx": 6276,
    "32:": 6277,
    "\u2581100d3": 6278,
    "fe9": 6279,
    "\u25816f": 6280,
    "\u25816b4": 6281,
    "293": 6282,
    "1b0": 6283,
    "reco": 6284,
    "\u258152c": 6285,
    "fa14": 6286,
    "3b0": 6287,
    "\\360\\360": 6288,
    "\u25811c5e1d0": 6289,
    "\u25811c5e1d4": 6290,
    "\u25811c5e200": 6291,
    "feac": 6292,
    "lies": 6293,
    "(24s": 6294,
    "b5b": 6295,
    "8_": 6296,
    "browse": 6297,
    "vent": 6298,
    "230": 6299,
    "\u258155c": 6300,
    "~3\\": 6301,
    "74.": 6302,
    "rarsfx": 6303,
    "_2.": 6304,
    "lang": 6305,
    "vj": 6306,
    "f64": 6307,
    "\u258140738f": 6308,
    "\u25811532": 6309,
    "\u258137ae410": 6310,
    "hk": 6311,
    "7-4": 6312,
    "mutx": 6313,
    "\u258114d7e8": 6314,
    "\u258112f9f0": 6315,
    "_1.0.2": 6316,
    "\u2581b1df": 6317,
    "\u25817b0": 6318,
    "\u2581844": 6319,
    "-00a0c": 6320,
    "-05": 6321,
    "afe": 6322,
    "\u258112e500": 6323,
    "systemcertificates": 6324,
    "riched32.": 6325,
    "p1mutx": 6326,
    "5dc": 6327,
    "macromed": 6328,
    "34-": 6329,
    "yag": 6330,
    "\u258112db90": 6331,
    "b98": 6332,
    "\\003": 6333,
    "\u25812a9": 6334,
    "rarsfx0\\": 6335,
    "\u2581568": 6336,
    "ec00": 6337,
    "\u2581270ecf4": 6338,
    "23s": 6339,
    "\u258182": 6340,
    "\\91": 6341,
    "play": 6342,
    "session": 6343,
    "yserver": 6344,
    "\u2581name": 6345,
    "\u2581125c": 6346,
    "\u25811452": 6347,
    "\u258115eb": 6348,
    "36-": 6349,
    "\u25811d2": 6350,
    "nn": 6351,
    "\u258112f4a4": 6352,
    "\u2581167": 6353,
    "fcac": 6354,
    "\u25818e4": 6355,
    "\u2581164990": 6356,
    "f4ac": 6357,
    "770": 6358,
    "ae4": 6359,
    "netservice": 6360,
    "bers": 6361,
    "_06": 6362,
    "\u2581164c": 6363,
    "icons": 6364,
    "\u25811dd": 6365,
    "\u2581276": 6366,
    "\u2581365": 6367,
    "b94": 6368,
    "\u2581104e4": 6369,
    "\u258112f3a0": 6370,
    "ec5c": 6371,
    "drip": 6372,
    "(19s": 6373,
    "\u25811470": 6374,
    "\u258112e254": 6375,
    "4e8": 6376,
    "\u258112b6": 6377,
    "\u2581proxyserver": 6378,
    "\u2581180.": 6379,
    "\u258112f58f": 6380,
    "\\{7": 6381,
    "(23s": 6382,
    "f47": 6383,
    "\\__": 6384,
    "exp": 6385,
    "\u258183": 6386,
    "bf7cc": 6387,
    "\u258100000082": 6388,
    "60a": 6389,
    "winext": 6390,
    "-83": 6391,
    "optimizer": 6392,
    "ef0": 6393,
    "\u2581po": 6394,
    "33-1": 6395,
    "bjects": 6396,
    "\u258112ed38": 6397,
    "\u25813f6": 6398,
    "cryptsp": 6399,
    "\u2581wizard": 6400,
    "m5": 6401,
    "ee30": 6402,
    "\u2581proxyo": 6403,
    "\u2581proxyoverride": 6404,
    "99934": 6405,
    "(22s": 6406,
    "aff": 6407,
    "(21s": 6408,
    "\u258121d": 6409,
    "384950": 6410,
    "287032": 6411,
    "936-14": 6412,
    "44287032": 6413,
    "1-2299934": 6414,
    "38495033-1": 6415,
    "1-2299934936-14": 6416,
    "-1-5-21-144287032": 6417,
    "1-2299934936-1438495033-1": 6418,
    "-1-5-21-1442870321-2299934936-1438495033-1": 6419,
    "prv": 6420,
    "f30c": 6421,
    "\u25811bd": 6422,
    "\u25811648a0": 6423,
    "\u2581193": 6424,
    "\u2581154fe94": 6425,
    "\u258133ff": 6426,
    "\u258116d": 6427,
    "tencent": 6428,
    "nsk": 6429,
    "0120": 6430,
    "f930": 6431,
    "mw": 6432,
    "jk": 6433,
    "ppt": 6434,
    "\u25813470": 6435,
    "ader": 6436,
    "bac": 6437,
    "_47_00": 6438,
    "database": 6439,
    "130": 6440,
    "\u2581af0000": 6441,
    "(18s": 6442,
    "53f000ff53f000ff53f000ff": 6443,
    "\u258152352": 6444,
    "\u2581104dea4": 6445,
    "\u2581104deac": 6446,
    "\u2581155fe6c": 6447,
    "\u2581155fe94": 6448,
    "3bc": 6449,
    "eed": 6450,
    "p1mutx9": 6451,
    "\u2581op1mutx9": 6452,
    "\u2581170ead0": 6453,
    "spb": 6454,
    "migrate": 6455,
    "\u25813a3": 6456,
    "9fd04": 6457,
    "\u258112f020": 6458,
    "zy": 6459,
    "\u258163": 6460,
    "favorites": 6461,
    "\\{4d36e96": 6462,
    "\u2581cfe": 6463,
    "\u258112fe68": 6464,
    "beach": 6465,
    "\u2581104deb0": 6466,
    "400": 6467,
    "\u25813b3": 6468,
    "96d": 6469,
    "context": 6470,
    "\u2581255fe68": 6471,
    "\u2581255fe90": 6472,
    "f50": 6473,
    "hg": 6474,
    "\u258112e23c": 6475,
    "dea28": 6476,
    "\u2581170ea38": 6477,
    "show": 6478,
    "\u2581928": 6479,
    "\u2581170ea28": 6480,
    "ee08": 6481,
    "\u2581framedyn": 6482,
    "-24": 6483,
    "3}": 6484,
    "\u258112f224": 6485,
    "\u2581raspb": 6486,
    "\u2581raspbfile": 6487,
    "=15440": 6488,
    "spe": 6489,
    "fd58": 6490,
    "\u258112fb00": 6491,
    "dfb54": 6492,
    "\u25812a2": 6493,
    "\u258112fcfc": 6494,
    "_1.": 6495,
    "fibers": 6496,
    "\u2581152c": 6497,
    "_1.0.2600.5512_": 6498,
    "\u2581292": 6499,
    "\u25811ed": 6500,
    "dfb54e0c": 6501,
    "ee1": 6502,
    "f488": 6503,
    "\u258112fc14": 6504,
    "p1.": 6505,
    "dbghelp": 6506,
    "\u25811486": 6507,
    "df7cc": 6508,
    "\u25817de": 6509,
    "\u2581690": 6510,
    "cec": 6511,
    "\u258112e05c": 6512,
    "37.": 6513,
    "35.12": 6514,
    "\u2581770": 6515,
    "ec08": 6516,
    "f75": 6517,
    "\u258111f8": 6518,
    "\u2581paths": 6519,
    "vk": 6520,
    "14s": 6521,
    "2b7": 6522,
    "ny": 6523,
    "dea38": 6524,
    "955": 6525,
    "f28": 6526,
    "\u2581c1de": 6527,
    "\u2581manager": 6528,
    "nsq2.": 6529,
    "\u258115a3": 6530,
    "\u258110_47_00": 6531,
    "2a8": 6532,
    "\u258112ef94": 6533,
    "76_": 6534,
    "\u258112fae8": 6535,
    "\u25813d0000": 6536,
    "\u258112d8a8": 6537,
    "\u258122f": 6538,
    "fg": 6539,
    "e80": 6540,
    "\u258112d878": 6541,
    "\u25811000002": 6542,
    "fe30": 6543,
    "\u2581ms": 6544,
    "\u25811037": 6545,
    "\u258112fc44": 6546,
    "\u258115b": 6547,
    "kav": 6548,
    "\u2581203.": 6549,
    "36c": 6550,
    "ws8": 6551,
    "\u2581724": 6552,
    "\u258115f988": 6553,
    "\u2581128d00": 6554,
    "\u25812c50000": 6555,
    "\u25819ef": 6556,
    "680": 6557,
    "\u25815fc": 6558,
    "ba0": 6559,
    "\u2581247": 6560,
    "\u258112c5": 6561,
    "outllib": 6562,
    "\\91gamebox": 6563,
    "\u2581sav": 6564,
    "1b8": 6565,
    "\u2581407b9d": 6566,
    "\u2581sy": 6567,
    "b48": 6568,
    "fa40": 6569,
    "ish378": 6570,
    "\u258120cec04": 6571,
    "\u25819be30c": 6572,
    "om": 6573,
    "f8a0": 6574,
    "\u25811694": 6575,
    "\u258128a0000": 6576,
    "\u2581200064": 6577,
    "\u258120cebb0": 6578,
    "f000": 6579,
    ",-51": 6580,
    "\u258112f7c0": 6581,
    "\u258116fd6": 6582,
    "\u25811d5ead0": 6583,
    "ede0": 6584,
    "f62c": 6585,
    "\u25816d4": 6586,
    "\u258157c": 6587,
    "\u25811527a0": 6588,
    "zce": 6589,
    "\u258112f9d4": 6590,
    "?_": 6591,
    "nb": 6592,
    "ply": 6593,
    "f770": 6594,
    "\u2581472": 6595,
    "\u258112fbec": 6596,
    "fdd8": 6597,
    "prvse": 6598,
    "\\{6": 6599,
    "(17s": 6600,
    "\u2581160ff08": 6601,
    "\u258112fd04": 6602,
    "\u25817f": 6603,
    "\u258112ad70": 6604,
    "\u2581128cd0": 6605,
    "d318": 6606,
    "\u25819bd": 6607,
    "\u25813ed": 6608,
    "\u25816f8": 6609,
    "dialog": 6610,
    "\u2581209.20": 6611,
    "\u258113f2c4": 6612,
    "\u2581209.202.2": 6613,
    "fa28": 6614,
    "nse": 6615,
    "\u2581attrib": 6616,
    "rnr": 6617,
    "\u258112f7f8": 6618,
    "\u2581313": 6619,
    "fdb8": 6620,
    "d80": 6621,
    "mutexblind": 6622,
    "\u25812ed": 6623,
    "(11s": 6624,
    "\u25813a5": 6625,
    "3-6": 6626,
    "75d": 6627,
    "a44": 6628,
    "\u258128aebb0": 6629,
    "\u258128aec04": 6630,
    "inul": 6631,
    "\u2581directory": 6632,
    "\u25815f8": 6633,
    "b21": 6634,
    "\u258113f2f4": 6635,
    "\u25811d5ea28": 6636,
    "\u25811d5ea38": 6637,
    "f5f4": 6638,
    "fa8c": 6639,
    "home": 6640,
    "\u258127aec04": 6641,
    "gamechannel": 6642,
    "(12s": 6643,
    "730": 6644,
    "sin": 6645,
    "\u2581shel": 6646,
    "\u2581128ce8": 6647,
    "\u2581shellext": 6648,
    "fd4": 6649,
    "red": 6650,
    "f860": 6651,
    "eframe": 6652,
    "\u25815d4": 6653,
    "720": 6654,
    "idp": 6655,
    "\u258127aebb0": 6656,
    "locale": 6657,
    "\u2581173": 6658,
    "\u25815f4": 6659,
    "langu": 6660,
    "\u25813a4918": 6661,
    "rpcrtremote": 6662,
    "db2": 6663,
    "pobo": 6664,
    "bb4": 6665,
    "\u2581a26": 6666,
    "\u258128c0000": 6667,
    "yiaug": 6668,
    "\u258112fcdc": 6669,
    "\u258114f9a0": 6670,
    "\u258120a": 6671,
    "zceyiaug": 6672,
    "\u25811748": 6673,
    "goopdate": 6674,
    "-0016-0000-": 6675,
    "\u2581584": 6676,
    "\u2581406b27": 6677,
    "738": 6678,
    "\u2581151b": 6679,
    "\u2581236": 6680,
    "\u258112fd28": 6681,
    "sz": 6682,
    "166": 6683,
    "\u2581203.208": 6684,
    "\u2581908": 6685,
    "56.": 6686,
    "\u2581808": 6687,
    "mfc4": 6688,
    "-1-5-18\\": 6689,
    "54-": 6690,
    "a64": 6691,
    "winword": 6692,
    "%0a": 6693,
    "\u258112efa8": 6694,
    "%22_": 6695,
    "\\360\\360safe": 6696,
    "5f7c4": 6697,
    "b3e9": 6698,
    "e300": 6699,
    "\u258112fb20": 6700,
    "99d9": 6701,
    "40-0": 6702,
    "(32": 6703,
    "\u258163c": 6704,
    "d9c": 6705,
    "\u258108_0": 6706,
    "-22": 6707,
    "\u25817ff8": 6708,
    "\\{8ad": 6709,
    "\u258112f414": 6710,
    "eaf4": 6711,
    "\u2581runtime": 6712,
    "fd34": 6713,
    "yys": 6714,
    "\u25817ffda000": 6715,
    ".222.": 6716,
    "_45": 6717,
    "\u2581history": 6718,
    "\u2581142": 6719,
    "f538": 6720,
    "\u25815b1": 6721,
    "\u2581cff": 6722,
    "\u258112bb": 6723,
    "\u258112ef88": 6724,
    "\u258112f77c": 6725,
    "nss2.": 6726,
    "\u2581d6ff34": 6727,
    "40-044e": 6728,
    "5f499d9": 6729,
    "\\{8ad9c8": 6730,
    "b3e9-0080": 6731,
    "\\{8ad9c840-044e": 6732,
    "b3e9-00805f499d9": 6733,
    "\u25818e8": 6734,
    "307": 6735,
    "yqc": 6736,
    "\u25813ce": 6737,
    "\u25812628": 6738,
    "\u258189e": 6739,
    "\u258112f1a4": 6740,
    "fb38": 6741,
    "\u258112eda0": 6742,
    "\u25811556": 6743,
    "\u25812b0ff34": 6744,
    "\u2581594": 6745,
    "\u258112f69c": 6746,
    "\u25813d1ecf4": 6747,
    ".25.": 6748,
    "d60": 6749,
    "\u2581c0ff5c": 6750,
    "6}\\": 6751,
    "e98": 6752,
    "\u2581fb0000": 6753,
    "recycler": 6754,
    "andard": 6755,
    "winxp": 6756,
    "5-8": 6757,
    "fere": 6758,
    "95.": 6759,
    "390": 6760,
    "f1d8": 6761,
    "558": 6762,
    "2ed": 6763,
    "\u2581bb": 6764,
    "\u258113f2e0": 6765,
    "a99": 6766,
    "-0017-0000-": 6767,
    "\u25812b2ff34": 6768,
    "13s": 6769,
    "nder": 6770,
    "vm60.": 6771,
    "d000": 6772,
    "ef30": 6773,
    "lld": 6774,
    "ik": 6775,
    "connection": 6776,
    ".5": 6777,
    "fcfc": 6778,
    "\u258150d624": 6779,
    "\u258150d69c": 6780,
    "\u2581239": 6781,
    "1.2": 6782,
    "\u258113f358": 6783,
    "\u25811116": 6784,
    "dfd": 6785,
    "\u25812cdf": 6786,
    "source": 6787,
    "msvb": 6788,
    "types": 6789,
    "sing": 6790,
    "standard": 6791,
    "lldloader": 6792,
    "\u2581a0f": 6793,
    "\u2581640": 6794,
    "mes": 6795,
    "\u2581rundll32.": 6796,
    ":_": 6797,
    "\u2581432": 6798,
    "\u258166c": 6799,
    "msinfo": 6800,
    "care": 6801,
    "eb50": 6802,
    "games": 6803,
    "mshist": 6804,
    "\u25811611": 6805,
    "298": 6806,
    "\u25819ec": 6807,
    "\u25811557": 6808,
    "\u25815b24": 6809,
    "ya": 6810,
    "\u2581ea60": 6811,
    "msvbvm60.": 6812,
    "\u258112d43c": 6813,
    "\\\\\\.": 6814,
    "\u25815e": 6815,
    "\\3.0.6.": 6816,
    "\u25815b2411": 6817,
    "\u25812a1": 6818,
    "\u25811530": 6819,
    "-3c": 6820,
    "\u258112f2bc": 6821,
    "(13s": 6822,
    "jou": 6823,
    "svr32.": 6824,
    "\u2581fbec5c": 6825,
    "\u2581608": 6826,
    "cc4": 6827,
    "\\__?_": 6828,
    "\u25811488": 6829,
    "prof": 6830,
    "\u2581fce": 6831,
    "cq": 6832,
    "31e8": 6833,
    "\u2581a1d": 6834,
    "\u2581116.211.": 6835,
    "\u25812fe": 6836,
    "ws3": 6837,
    "\u25811548": 6838,
    "ages": 6839,
    "\u25817dc": 6840,
    "\u2581225": 6841,
    "-99": 6842,
    "df2": 6843,
    "ob": 6844,
    "hard": 6845,
    "\\2.1.0": 6846,
    "a60": 6847,
    "beb": 6848,
    "\u258112f738": 6849,
    "2.1\\": 6850,
    "530": 6851,
    "\u2581bae": 6852,
    "wpl": 6853,
    "pq": 6854,
    "xu": 6855,
    ".3086\\": 6856,
    "\u258194b18": 6857,
    "baidusd2.1\\": 6858,
    "\\2.1.0.3086\\": 6859,
    "173": 6860,
    "ols": 6861,
    "2.24": 6862,
    "f9ec": 6863,
    "e8bc": 6864,
    "\u2581fffd": 6865,
    "rytools": 6866,
    "registrytools": 6867,
    "\u2581disableregistrytools": 6868,
    "\u2581115.239.210.": 6869,
    "e04": 6870,
    "bf2c0": 6871,
    "\u258115cf": 6872,
    "\u25813ddf878": 6873,
    "\u25813ddf8b0": 6874,
    "101": 6875,
    "\u25816ac": 6876,
    "\u2581114e1": 6877,
    "\u258179c": 6878,
    "typespt": 6879,
    "\u25816c4": 6880,
    "\u2581848": 6881,
    "\u258112f774": 6882,
    "f484": 6883,
    "\\{3": 6884,
    "le2.": 6885,
    "\u25811042": 6886,
    "f10": 6887,
    "sym": 6888,
    "\u258112fd2c": 6889,
    "hips": 6890,
    "\u258153a": 6891,
    "way": 6892,
    "dg": 6893,
    "\u2581226": 6894,
    "\u25817c0": 6895,
    "e4f4": 6896,
    "racing": 6897,
    "\u258119fe": 6898,
    "\u2581b8c": 6899,
    "_49": 6900,
    "nm": 6901,
    "\u25811a6": 6902,
    "ping": 6903,
    "-95": 6904,
    "nsa2.": 6905,
    "\u258132cf": 6906,
    "51c": 6907,
    "inte": 6908,
    "\u2581122.224": 6909,
    "f650": 6910,
    "msg": 6911,
    "\u25812d3": 6912,
    "libra": 6913,
    "554": 6914,
    "libraries": 6915,
    "\u2581146a": 6916,
    "\u2581214f878": 6917,
    "\u2581214f8b0": 6918,
    "\u2581183": 6919,
    "\u25811565": 6920,
    "de2": 6921,
    "ir": 6922,
    "\u258112fbb4": 6923,
    "\u2581113e47c": 6924,
    "\u25811c1": 6925,
    "\u258176c": 6926,
    "rog": 6927,
    "\u25812010": 6928,
    "_*": 6929,
    "\u2581thread32first": 6930,
    "f58c": 6931,
    "\u258120ce": 6932,
    "\u25811495": 6933,
    "\u2581620": 6934,
    "firewallpolicy": 6935,
    "nsj": 6936,
    "_42_": 6937,
    "\u258141e": 6938,
    "yset": 6939,
    "sysqe": 6940,
    "ebe": 6941,
    "f958": 6942,
    "f6f0": 6943,
    "\u25812ce": 6944,
    "ose": 6945,
    "\u25817e8": 6946,
    "\u258112f3c0": 6947,
    "rsyag": 6948,
    "rsyagyqc": 6949,
    "\u258172": 6950,
    "\u258112f180": 6951,
    "\\1.0": 6952,
    "d74": 6953,
    "gmg": 6954,
    "b3c": 6955,
    "uk": 6956,
    "\u258122b2": 6957,
    "\u258132cf2c0": 6958,
    "(14s": 6959,
    "tle": 6960,
    "\u2581bi": 6961,
    "\u258112fe48": 6962,
    "snd": 6963,
    "\u2581301": 6964,
    "unins": 6965,
    "\u25816b8": 6966,
    "\u25815e4": 6967,
    "col": 6968,
    "np": 6969,
    "\u25811a3": 6970,
    "\u258129e": 6971,
    "\u258112f3ec": 6972,
    "fd70": 6973,
    "\u25812c20000": 6974,
    "ntdll": 6975,
    "\u2581164868": 6976,
    "f93c": 6977,
    "\u258162c": 6978,
    "recovery": 6979,
    "(8": 6980,
    "bda": 6981,
    "\u2581113e504": 6982,
    "f904": 6983,
    "mul": 6984,
    "journ": 6985,
    "_5": 6986,
    "build": 6987,
    "\\{4d36e97": 6988,
    "\u25813d7": 6989,
    ".0.26": 6990,
    "\u258112b2": 6991,
    "dde": 6992,
    "lice": 6993,
    "a10": 6994,
    "journal": 6995,
    "iao": 6996,
    "\u25811fde": 6997,
    "\u258112f39c": 6998,
    "468": 6999,
    "\u2581f8fe50": 7000,
    "event": 7001,
    "startup": 7002,
    "localiz": 7003,
    "\u2581319": 7004,
    "\u258113eb": 7005,
    "\u258113ef14": 7006,
    "a02": 7007,
    "avg": 7008,
    "\u258112f2b4": 7009,
    "\u258113ef34": 7010,
    "va": 7011,
    "\u2581152628": 7012,
    "bey": 7013,
    "00a710": 7014,
    "\u258112f484": 7015,
    "\u258132cf2c8": 7016,
    "\u25811e0fe68": 7017,
    "001": 7018,
    "\u25818888": 7019,
    "548": 7020,
    "\u2581152750": 7021,
    "\u2581204fb": 7022,
    "-497": 7023,
    "\u25813a44e8": 7024,
    "\u2581152780": 7025,
    "\u25817b8": 7026,
    "\u258132fedd8": 7027,
    "dfe": 7028,
    "258": 7029,
    "\u2581post": 7030,
    "7000": 7031,
    "e1.": 7032,
    "3-8": 7033,
    "ax": 7034,
    "rph": 7035,
    "drm": 7036,
    "nsw3.": 7037,
    "\u258122b2b8c": 7038,
    "\u25813d5ef98": 7039,
    "cw": 7040,
    "40c": 7041,
    "\u25816bc": 7042,
    "fc28": 7043,
    "\u2581618": 7044,
    "/1.1": 7045,
    "winrnr": 7046,
    "sup": 7047,
    "\u25812e6": 7048,
    "\u25811296": 7049,
    "none": 7050,
    "\u2581393": 7051,
    "\u258113e5": 7052,
    "\u2581service": 7053,
    "2188": 7054,
    "erv": 7055,
    "stdo": 7056,
    "\u2581search": 7057,
    "beyond": 7058,
    "\u2581*": 7059,
    "\u2581b1df3c": 7060,
    "1.4": 7061,
    "=2.0.0.6": 7062,
    "beyondreader": 7063,
    "50.": 7064,
    "bf680": 7065,
    "f5c": 7066,
    "\u258149": 7067,
    "\u2581534": 7068,
    "\u2581149fa04": 7069,
    "\u2581sc": 7070,
    "\u258112fb6c": 7071,
    "atethread": 7072,
    "\u2581ntterminatethread": 7073,
    "72:": 7074,
    "-5da": 7075,
    "\u25813d2": 7076,
    "nsp": 7077,
    "fb0": 7078,
    "wr": 7079,
    "1.15": 7080,
    "terfly": 7081,
    "bf4": 7082,
    "f828": 7083,
    "\u2581c0000017": 7084,
    "butterfly": 7085,
    "\u25813aa": 7086,
    "30.": 7087,
    "\u2581163e": 7088,
    "\u2581164810": 7089,
    "\u258114e190": 7090,
    "\u25813b1": 7091,
    "\u2581784": 7092,
    "\u25812f6": 7093,
    "\u258112d87c": 7094,
    "legac": 7095,
    "\u258115ae": 7096,
    "\u2581127604": 7097,
    "uw": 7098,
    "\u2581764": 7099,
    "standardprofile": 7100,
    "9f0": 7101,
    "svchost": 7102,
    "d18": 7103,
    "\u25812b1": 7104,
    "38:": 7105,
    "171": 7106,
    "\\{90120000-006e": 7107,
    "tpsp": 7108,
    "90000": 7109,
    "\u2581291": 7110,
    "\u25811279d8": 7111,
    "stdole2.": 7112,
    "-02": 7113,
    "yxdown": 7114,
    "b4e": 7115,
    "\u2581170ae8": 7116,
    "wsd8": 7117,
    "icode": 7118,
    "-50": 7119,
    "trs": 7120,
    "xe": 7121,
    "8cc": 7122,
    "d7c": 7123,
    "\u2581ffffffffffffffff": 7124,
    "\u25814e5fad4": 7125,
    "\u25814e5fd6c": 7126,
    "d2.": 7127,
    "scs5.": 7128,
    "\u25814e5ff9c": 7129,
    "6abb": 7130,
    "\u2581114de": 7131,
    "n6abb": 7132,
    "bb598c": 7133,
    "\u2581174850": 7134,
    "n6abbbb598c": 7135,
    "msimg": 7136,
    "\u2581a1fa5c": 7137,
    "128": 7138,
    "\u2581164890": 7139,
    "\u25811cee": 7140,
    "\u25813d3": 7141,
    "e86c": 7142,
    ".122:": 7143,
    "dog": 7144,
    "\u2581416": 7145,
    "fd20": 7146,
    "200:": 7147,
    "hnl": 7148,
    "\u25812015": 7149,
    "\u2581efec5c": 7150,
    "\u2581270ff": 7151,
    "\u258113f484": 7152,
    "\u258128d": 7153,
    "ye": 7154,
    "diction": 7155,
    "\u2581mru": 7156,
    "hnlzk": 7157,
    "hnlzktrs": 7158,
    "f010": 7159,
    "plylst": 7160,
    "uq": 7161,
    ".200:": 7162,
    "668": 7163,
    "mapi": 7164,
    "ling": 7165,
    "\u258112d7dc": 7166,
    "hardware": 7167,
    "\u2581342": 7168,
    "\u258113f46c": 7169,
    "tracing": 7170,
    "g20.": 7171,
    "\u258113f454": 7172,
    "48_": 7173,
    "ven": 7174,
    "7bc": 7175,
    "\u2581630": 7176,
    "chin": 7177,
    "sqlxml": 7178,
    "\u258112f3c8": 7179,
    "b28": 7180,
    "fde0": 7181,
    "cg": 7182,
    "\u258112f95c": 7183,
    "ctr": 7184,
    "pin": 7185,
    "\u25815b2188": 7186,
    "\u25816dc": 7187,
    "f008": 7188,
    "be7": 7189,
    "org": 7190,
    "ations": 7191,
    "\u258112fc78": 7192,
    "fd80": 7193,
    "rising": 7194,
    "f850": 7195,
    "\\3.0.0": 7196,
    "\u258112d7d4": 7197,
    "f84": 7198,
    "\u2581b0f": 7199,
    "\u25815e0": 7200,
    ".190.1": 7201,
    "\u2581412": 7202,
    "unicode": 7203,
    "\u2581123": 7204,
    "\u25816d9": 7205,
    "ff60": 7206,
    "\u2581129a": 7207,
    "\u25812aaf8b0": 7208,
    "\u25812aaf878": 7209,
    "\u2581ede": 7210,
    "\u25817e0": 7211,
    ".147:": 7212,
    "\u25819be26c": 7213,
    "5e8": 7214,
    "\u2581788": 7215,
    "\u258113200": 7216,
    "fd94": 7217,
    "nr": 7218,
    "\u2581204.79": 7219,
    "\u258194920": 7220,
    "\u2581204.79.197": 7221,
    "settings": 7222,
    "60-": 7223,
    "ex7.": 7224,
    "\u25812910": 7225,
    "\u258122d008": 7226,
    "\u2581b1db": 7227,
    "jusched": 7228,
    "wnd": 7229,
    "p9.": 7230,
    "\u258124024": 7231,
    "ieframe": 7232,
    "last": 7233,
    "rep": 7234,
    "\u25812a7": 7235,
    "msimg32.": 7236,
    "\u2581335": 7237,
    "\u25811e0fe90": 7238,
    "nj": 7239,
    "\u25812008": 7240,
    "\u258136.25.250.202:": 7241,
    "\u25816c8": 7242,
    "\u2581215fe90": 7243,
    "\u25812910ce8": 7244,
    "fef0": 7245,
    "\u2581215fe68": 7246,
    "dfd04": 7247,
    "-418": 7248,
    "7d0": 7249,
    "rcx2": 7250,
    "\u2581cce": 7251,
    "-\\": 7252,
    "\u258110b8": 7253,
    "contextthread": 7254,
    "\u2581ntsetcontextthread": 7255,
    "\u25813b7": 7256,
    "d4ef": 7257,
    "fb78": 7258,
    "000\\": 7259,
    "ff57": 7260,
    "%20": 7261,
    "bb2": 7262,
    "4c4": 7263,
    "e78": 7264,
    "\u2581256": 7265,
    "ffe50": 7266,
    "upda": 7267,
    "e58": 7268,
    "\u2581760": 7269,
    "f76c": 7270,
    "ffe28": 7271,
    "\u25812e1": 7272,
    "\u2581217.69.139": 7273,
    "goopdateres": 7274,
    "iw": 7275,
    "156": 7276,
    "\u2581rilimini": 7277,
    "\u2581b000": 7278,
    "cep": 7279,
    "of": 7280,
    "d30": 7281,
    "\u25819be9": 7282,
    "\u25817e624": 7283,
    "ws70": 7284,
    "\u258112_28_18": 7285,
    "bec8": 7286,
    "df680": 7287,
    "fe1c": 7288,
    "707": 7289,
    "%22%2c": 7290,
    "\u2581{7": 7291,
    "\u25816cc": 7292,
    "\u25817e64c": 7293,
    "-7c": 7294,
    "\\2b": 7295,
    "\u2581122.224.2": 7296,
    "\u258112fbac": 7297,
    "\u2581406": 7298,
    "\u25811eae20c": 7299,
    "\u258107_42_": 7300,
    "\u2581112ed": 7301,
    "wzaudio": 7302,
    "gum": 7303,
    "ldr": 7304,
    "rats": 7305,
    "retrats": 7306,
    "jquery": 7307,
    "\u258171": 7308,
    "\u2581386": 7309,
    "\u2581a7b1d0": 7310,
    "kie": 7311,
    "febb0": 7312,
    "\u258112f700": 7313,
    "\u2581aafecc": 7314,
    "\u2581aaff18": 7315,
    "\u2581aaff8c": 7316,
    "a4a": 7317,
    "\u2581217.69.139.122:": 7318,
    "e8-": 7319,
    "documentrecovery": 7320,
    "\u25816a8": 7321,
    "\u25812014": 7322,
    "-00c04": 7323,
    "\u25819d0000": 7324,
    "ical": 7325,
    "\u2581143f10": 7326,
    "oy": 7327,
    "95c": 7328,
    "lx": 7329,
    "\u258113a": 7330,
    "f6-4": 7331,
    "\u25816c0": 7332,
    "bf2c8": 7333,
    "\u258112e8f4": 7334,
    "products": 7335,
    "eb08": 7336,
    "deep": 7337,
    "hw": 7338,
    "proxystubclsid32": 7339,
    "3res": 7340,
    "\u2581164860": 7341,
    "\u2581y": 7342,
    "f748": 7343,
    "xpsp3res": 7344,
    "d90": 7345,
    "\u258189f": 7346,
    "mag": 7347,
    "custom": 7348,
    "\u25812f3": 7349,
    "hj": 7350,
    "da6": 7351,
    "\u2581126c": 7352,
    "a010": 7353,
    "\u258115d4": 7354,
    "\u258114_": 7355,
    "\u2581476": 7356,
    "b53": 7357,
    "9f8": 7358,
    "\u258115ed": 7359,
    "clc": 7360,
    "\u25815b1def": 7361,
    "\u25811c5ed0c": 7362,
    "dexts": 7363,
    "ntsdexts": 7364,
    "\u25813dcecf4": 7365,
    "df1": 7366,
    "f030": 7367,
    "330": 7368,
    "68-": 7369,
    "\u2581114e2": 7370,
    "\u2581153c": 7371,
    "\\0001\\": 7372,
    "\u258112eb9c": 7373,
    "cryptui": 7374,
    "binet": 7375,
    "cabinet": 7376,
    "000d": 7377,
    "f618": 7378,
    "als": 7379,
    "\u258112f018": 7380,
    "ysettings": 7381,
    "\u258111f4": 7382,
    "\u2581saved": 7383,
    "\\{65": 7384,
    "shdoclc": 7385,
    "\u2581164f08": 7386,
    "\u2581profiles": 7387,
    "deepscan": 7388,
    "wordicon": 7389,
    "\u2581savedlegac": 7390,
    "\u2581savedlegacysettings": 7391,
    "symbols": 7392,
    "-90": 7393,
    "ffa0": 7394,
    "e9a4": 7395,
    "\u258112ae": 7396,
    "\u25817fffffd": 7397,
    "-2f54": 7398,
    "-2f54-48": 7399,
    "\u2581331": 7400,
    "\u2581123.125.65.147:": 7401,
    "\u25819bb": 7402,
    "\u258120e": 7403,
    "disk1\\": 7404,
    "3b8": 7405,
    "\u25811720": 7406,
    "264": 7407,
    "draw": 7408,
    "sdk": 7409,
    "ws116": 7410,
    "\u258115d0": 7411,
    "scs6.": 7412,
    "792": 7413,
    "f8c8": 7414,
    "fa2c": 7415,
    "e38": 7416,
    "ee60": 7417,
    "\u2581104c": 7418,
    "vie": 7419,
    "-58": 7420,
    "v1": 7421,
    "ook": 7422,
    "\u25811600": 7423,
    "ice": 7424,
    "\u258140dd": 7425,
    "\u25818e": 7426,
    "\u258161c": 7427,
    "\u2581\\.\\": 7428,
    "2-7": 7429,
    "150": 7430,
    "a14": 7431,
    "\u2581e7f8": 7432,
    "\u25811a0b78": 7433,
    "\u258114d858": 7434,
    "\u25818\\": 7435,
    ".51": 7436,
    "oleacc": 7437,
    "56_": 7438,
    "\u25813fb": 7439,
    "\u25816a4": 7440,
    "\u2581904": 7441,
    "535": 7442,
    "\u258112f30c": 7443,
    "\u2581personal": 7444,
    "p4": 7445,
    "d5f": 7446,
    "\u258115f008": 7447,
    "\u25811d5e208": 7448,
    "\u25811d5e238": 7449,
    "\u2581257": 7450,
    "\u2581208ebb0": 7451,
    "\u2581208ec04": 7452,
    "560": 7453,
    "\u2581101e": 7454,
    "smart": 7455,
    "b3.": 7456,
    "578": 7457,
    "att": 7458,
    "xyrph": 7459,
    "xyrphw": 7460,
    "feec": 7461,
    "\\2345": 7462,
    "\u25817ffd3000": 7463,
    "marta": 7464,
    "module": 7465,
    "1f0000": 7466,
    "\u25811213": 7467,
    "\u258115d2": 7468,
    "ntmarta": 7469,
    "\u25811d7": 7470,
    "3080": 7471,
    "fb60": 7472,
    "f7dc": 7473,
    "bfd04": 7474,
    "\u2581650": 7475,
    "a6eb": 7476,
    "dwtri": 7477,
    "fa7": 7478,
    "\u2581660": 7479,
    "\u25813f8f878": 7480,
    "\u25813f8f8b0": 7481,
    "roup": 7482,
    "-2b": 7483,
    "\u2581d1000d": 7484,
    "tech": 7485,
    "\u2581596": 7486,
    "wmiprvse": 7487,
    "\u2581key": 7488,
    "\u2581205f": 7489,
    "\u258112e590": 7490,
    "tml": 7491,
    "\u258137ef": 7492,
    "a23": 7493,
    "pplive": 7494,
    "\u2581452": 7495,
    "\u2581migrate": 7496,
    "\u2581migrateproxy": 7497,
    "\u2581322f2c0": 7498,
    "cp": 7499,
    "fd90": 7500,
    "\\94": 7501,
    "\u25811440": 7502,
    "7b0": 7503,
    "\u25811624": 7504,
    "94:": 7505,
    "ea2": 7506,
    "nsh2.": 7507,
    "a66": 7508,
    "\u25812017": 7509,
    "tt": 7510,
    "ception": 7511,
    "f718": 7512,
    "\u2581153a10": 7513,
    "\u2581395": 7514,
    "2e0": 7515,
    "imscmig": 7516,
    "\u2581628": 7517,
    "760": 7518,
    "7f0": 7519,
    "ormal": 7520,
    "92-": 7521,
    "igh": 7522,
    "3de": 7523,
    "f9e0": 7524,
    "\u258134ffe88": 7525,
    "\u2581220.": 7526,
    "9e1": 7527,
    "nsg3.": 7528,
    "76.": 7529,
    "\u258112f674": 7530,
    "3d8": 7531,
    "\u25812a6": 7532,
    "3a63": 7533,
    "fe24": 7534,
    "chess": 7535,
    "jc": 7536,
    "\u2581116.211.1": 7537,
    "edit": 7538,
    "37-": 7539,
    "ba1-5": 7540,
    "activex": 7541,
    "\u25812f5": 7542,
    ",-504": 7543,
    "dirt": 7544,
    ".7z": 7545,
    "nsc2.": 7546,
    "-56f6-4": 7547,
    "ba1-5aa": 7548,
    "3a63-56f6-4": 7549,
    "3a63-56f6-4ba1-5aa": 7550,
    "7.21.": 7551,
    "\u2581151c": 7552,
    "000.": 7553,
    "hon": 7554,
    ".8:": 7555,
    "\u2581bike": 7556,
    "2118": 7557,
    "\u258112fb44": 7558,
    "f7c": 7559,
    "\u258115de": 7560,
    "language": 7561,
    "gff": 7562,
    "scs8.": 7563,
    "\u2581322f2c8": 7564,
    "ua": 7565,
    "nsr2.": 7566,
    "\u25812006-08-09": 7567,
    "\u2581768": 7568,
    "frog": 7569,
    "\u258112f710": 7570,
    "\u25813bd": 7571,
    "11.": 7572,
    "\u2581367f2c8": 7573,
    "\u258113.10": 7574,
    "7.21.200:": 7575,
    "\u258113.107.21.200:": 7576,
    "\u258112ff04": 7577,
    "duck": 7578,
    "\u2581b8ce8": 7579,
    "\u25811cde": 7580,
    "dia": 7581,
    "1736": 7582,
    "\u2581164838": 7583,
    "\u25811a7": 7584,
    "nsv2.": 7585,
    "568": 7586,
    "\u2581164848": 7587,
    "_19": 7588,
    "\u25816d0": 7589,
    "97dd": 7590,
    "56-": 7591,
    ".104": 7592,
    "-49aa": 7593,
    "runn": 7594,
    "\\18": 7595,
    "-27": 7596,
    "-87": 7597,
    "peg": 7598,
    "\u258112fbe4": 7599,
    "a95": 7600,
    "\u2581dde": 7601,
    "\u25811558": 7602,
    "955504": 7603,
    "gffg": 7604,
    "\u2581367f2c0": 7605,
    "140922": 7606,
    "97dd56": 7607,
    "\\2bf68": 7608,
    "\\2bf68f47": 7609,
    "140922955504": 7610,
    "\u2581204.79.197.200:": 7611,
    "14092295550497dd56": 7612,
    "\\2bf68f4714092295550497dd56": 7613,
    "\u2581227": 7614,
    "f57004": 7615,
    "\\2bf68f4714092295550497dd56f57004": 7616,
    "5e12": 7617,
    "ize": 7618,
    "e300a": 7619,
    "\u25811533": 7620,
    "d5affb": 7621,
    "-5da5e12": 7622,
    "\\{65d5affb": 7623,
    "-5da5e12e300a": 7624,
    "b110": 7625,
    "xa": 7626,
    "dd4": 7627,
    "e94": 7628,
    "efdc": 7629,
    "\u25811c2": 7630,
    "\u258112feb8": 7631,
    "mapp": 7632,
    "\u258127d": 7633,
    "sft": 7634,
    "\u2581418b88": 7635,
    "126": 7636,
    "(1800s": 7637,
    "\u258112f3d4": 7638,
    "\u2581134fc18": 7639,
    "\u2581134fc2c": 7640,
    "\u2581134fc30": 7641,
    "ab8": 7642,
    "71c": 7643,
    "ddraw": 7644,
    "\u25813ba": 7645,
    "\u258112fe60": 7646,
    "598": 7647,
    "comman": 7648,
    "\u258112ab": 7649,
    "\u2581718": 7650,
    "\u2581169428": 7651,
    "a22": 7652,
    "point": 7653,
    "\u2581the": 7654,
    "\u258112d8ec": 7655,
    "-8c": 7656,
    "88.": 7657,
    "tag": 7658,
    "fc24": 7659,
    "wks": 7660,
    "\u258138a": 7661,
    "\u2581399": 7662,
    "2cd": 7663,
    "fa0c": 7664,
    "bbe": 7665,
    "bbc": 7666,
    "picli": 7667,
    "sspicli": 7668,
    "\u258115fe": 7669,
    "v1.": 7670,
    "\u258112f3fc": 7671,
    "aliz": 7672,
    "f358": 7673,
    "\u2581220.18": 7674,
    "\u258112f8d8": 7675,
    "f38": 7676,
    "b70": 7677,
    "\u258193": 7678,
    "f738": 7679,
    "\u258112e5b8": 7680,
    "fp": 7681,
    "5k": 7682,
    "\u258112f6c0": 7683,
    "\\1.8": 7684,
    "=100": 7685,
    "\u258121bff48": 7686,
    "dwtrig20.": 7687,
    "style": 7688,
    "92b": 7689,
    "lue": 7690,
    "\u25812f1": 7691,
    "\u258189.": 7692,
    "\u2581164620": 7693,
    "9f7cc": 7694,
    "\u25812012": 7695,
    "d444": 7696,
    "14748": 7697,
    "\u25811549d0": 7698,
    "\u2581fff": 7699,
    "a3c": 7700,
    "3d0": 7701,
    "ae3": 7702,
    "48:": 7703,
    "b2e0": 7704,
    "36:": 7705,
    "\u2581750": 7706,
    ".0.1": 7707,
    "7.21": 7708,
    "\u258118a": 7709,
    "39-4": 7710,
    "3f680": 7711,
    "\u258111f504": 7712,
    "fa5e": 7713,
    "\u25811b0e9": 7714,
    "\u258112ff30": 7715,
    "\u258110a": 7716,
    "\u25811a0b68": 7717,
    "\u258111f1": 7718,
    "\u2581c038": 7719,
    "\u25817d00": 7720,
    "ravmon": 7721,
    "280": 7722,
    "nsi2.": 7723,
    "\u258112ee50": 7724,
    "6c6": 7725,
    "fb54": 7726,
    "768": 7727,
    "\u258114a7": 7728,
    "\u258112ed14": 7729,
    "\u258112fa3c": 7730,
    "abi": 7731,
    "sndtes": 7732,
    "\u258111f58c": 7733,
    "f72": 7734,
    "_10": 7735,
    "\u2581dfe": 7736,
    "b2c": 7737,
    "wsh": 7738,
    "scs7.": 7739,
    "\u25811534": 7740,
    "conhost": 7741,
    "\u258112f6f8": 7742,
    "ech": 7743,
    "\u2581413": 7744,
    "80-": 7745,
    "ee28": 7746,
    "\u258112a9": 7747,
    "\u258112f8b8": 7748,
    "fd60": 7749,
    "d7f": 7750,
    "534": 7751,
    "9f4": 7752,
    "peed": 7753,
    "\u258114a4": 7754,
    "d5ab8": 7755,
    "\u258112b0": 7756,
    "b60": 7757,
    "fc80": 7758,
    "\u258115ec": 7759,
    "\u2581a1d47c": 7760,
    "\u2581c1d": 7761,
    "76c": 7762,
    "\u25816d9d5ab8": 7763,
    "\u2581153b": 7764,
    "\u25811596": 7765,
    "ders": 7766,
    "722": 7767,
    "18.8:": 7768,
    "icu": 7769,
    "\u2581116.211.118.8:": 7770,
    "24_": 7771,
    "\u2581129d": 7772,
    "1e6": 7773,
    "nsf2.": 7774,
    "a7-": 7775,
    "\u2581400200": 7776,
    "\u2581114d3f8": 7777,
    "edc4": 7778,
    "\u258112eb68": 7779,
    "370": 7780,
    "\u25813f9f878": 7781,
    "\u25813f9f8b0": 7782,
    "\u25813b6": 7783,
    "\u258189d50c": 7784,
    "\u258112ee70": 7785,
    "tho": 7786,
    "46}": 7787,
    "\u25811240": 7788,
    "\u25812cdf0bc": 7789,
    "\u25812cdf0e4": 7790,
    "\u25813f7f878": 7791,
    "\u25813f7f8b0": 7792,
    "nss3.": 7793,
    "xia": 7794,
    "\u2581153e": 7795,
    "e558": 7796,
    "3-7": 7797,
    "localization": 7798,
    "\u2581437": 7799,
    "\u2581a1d444": 7800,
    "\u258112f2b8": 7801,
    "\u258112cfd0": 7802,
    "\u25813d5fe28": 7803,
    "\u25813d5fe50": 7804,
    "dec0": 7805,
    "\u25815e8": 7806,
    "jw": 7807,
    "eee4": 7808,
    "68bec8": 7809,
    "star": 7810,
    "\u258153f": 7811,
    "\u25811196": 7812,
    "ws01": 7813,
    "\u2581b1c": 7814,
    "f370": 7815,
    "onlinewnd": 7816,
    "racdatabase": 7817,
    "d24": 7818,
    "\u2581162e": 7819,
    "\u258108_05_": 7820,
    "\u258112e218": 7821,
    "fec0": 7822,
    "\u258112f714": 7823,
    "-19": 7824,
    "350": 7825,
    "bec04": 7826,
    "nsy": 7827,
    "\u258140b040": 7828,
    "\u25811468": 7829,
    "\u25817e270": 7830,
    "-8e4": 7831,
    "21:": 7832,
    "\u25811de00": 7833,
    "\u258112f62c": 7834,
    "mappings": 7835,
    "\u25813dcf878": 7836,
    "\u25813dcf8b0": 7837,
    "\u258112f6cc": 7838,
    "\u2581152458": 7839,
    "2b8": 7840,
    "00.": 7841,
    "7d8": 7842,
    "b25": 7843,
    "\u258112fe3c": 7844,
    "ber": 7845,
    "\u25811c9fce4": 7846,
    "\u25811c9fd04": 7847,
    "\u258112ff00": 7848,
    ".200.": 7849,
    "ebac": 7850,
    "\u258112f74c": 7851,
    "d98": 7852,
    "\\{30": 7853,
    "bw": 7854,
    "234": 7855,
    "\u25817e248": 7856,
    "dss": 7857,
    "nsd2.": 7858,
    "bit": 7859,
    "\u2581cdeb": 7860,
    "\u258112f2e4": 7861,
    "fc50": 7862,
    "\u258112d5c0": 7863,
    "\u25811436": 7864,
    "\u258181": 7865,
    "f754": 7866,
    "d38": 7867,
    "\u25816fe": 7868,
    "\u2581adf": 7869,
    "-17": 7870,
    "9d6": 7871,
    "710": 7872,
    "toolbar": 7873,
    "ws4c": 7874,
    "7e9": 7875,
    "ja": 7876,
    "226": 7877,
    "(864": 7878,
    "\u25811288": 7879,
    "\u25816667": 7880,
    "(86400s": 7881,
    "\u258112f6e4": 7882,
    "\u258112f168": 7883,
    ".135:": 7884,
    "53f000ff53f000ff53f000ff53f000ff": 7885,
    "ffd8": 7886,
    "9e4": 7887,
    "\u258112cfa8": 7888,
    "cloud": 7889,
    "\u258112e0020": 7890,
    ".160": 7891,
    "29c": 7892,
    "wmiadap": 7893,
    "1804": 7894,
    "7-5": 7895,
    "board": 7896,
    "support": 7897,
    "ecec": 7898,
    "\u258112ed84": 7899,
    "\u258112f720": 7900,
    "\u2581page": 7901,
    "\u258112f1d0": 7902,
    "battle": 7903,
    "93-": 7904,
    "\u2581f3ff": 7905,
    "\u258112fa58": 7906,
    "\\3.": 7907,
    "2fc": 7908,
    "\u25811606": 7909,
    "3a4": 7910,
    "ebec": 7911,
    "dra": 7912,
    "zc": 7913,
    "9b4": 7914,
    "3776": 7915,
    "\u258164c": 7916,
    "ace": 7917,
    "13.": 7918,
    "eff": 7919,
    "2-6": 7920,
    "1c00": 7921,
    "-15": 7922,
    "blue": 7923,
    "gum1.": 7924,
    "fe00": 7925,
    "ab3": 7926,
    "ksaf": 7927,
    "bas": 7928,
    "tb": 7929,
    "3-5": 7930,
    "51:": 7931,
    "fde": 7932,
    "\u2581638": 7933,
    "\u258112ef9c": 7934,
    "99.": 7935,
    "f7-": 7936,
    "d6ab": 7937,
    "dev": 7938,
    "str": 7939,
    "26.": 7940,
    "\u258112d5a8": 7941,
    "mfc": 7942,
    "\u258127be4": 7943,
    "agamebox": 7944,
    ".0__": 7945,
    "javaw": 7946,
    "\u25813befce4": 7947,
    "\u25813befd04": 7948,
    "f7f4": 7949,
    "99s": 7950,
    "\u25817e4": 7951,
    "\u25811274": 7952,
    "80b": 7953,
    "99_": 7954,
    ".206:": 7955,
    "\u258112f7d8": 7956,
    "\u258115d3": 7957,
    "\u258114be": 7958,
    "\u258110e": 7959,
    "\u258154b0000": 7960,
    "\u258112eee4": 7961,
    "template": 7962,
    "\u2581c93": 7963,
    "b24": 7964,
    "\u2581122.224.238.": 7965,
    "exception": 7966,
    "2}": 7967,
    "\u258112f970": 7968,
    "\u25817f1": 7969,
    "mfc42.": 7970,
    "\u2581336": 7971,
    "000303": 7972,
    "ff7cc": 7973,
    ".397": 7974,
    "wp": 7975,
    "6f4": 7976,
    "\u2581154b58": 7977,
    "\u2581160c": 7978,
    "f96c": 7979,
    "\u25817df": 7980,
    "\u25813008": 7981,
    "\\3.0.0.397": 7982,
    "baiduan3.0\\": 7983,
    "7600": 7984,
    "b314": 7985,
    "\u258191e": 7986,
    "office12\\2052\\": 7987,
    "e9c0": 7988,
    "\u25813e29e8": 7989,
    "6-9": 7990,
    "pal": 7991,
    "\u2581876": 7992,
    "ntldr": 7993,
    "table": 7994,
    "14\\": 7995,
    "\u25812cdff58": 7996,
    "\u2581111ff4c": 7997,
    "ab0": 7998,
    "b37": 7999,
    "nsn3.": 8000,
    "zq": 8001,
    "5d0": 8002,
    "vc90.": 8003,
    "\u25813f4f878": 8004,
    "\u25813f4f8b0": 8005,
    "153": 8006,
    "\u258112eda4": 8007,
    "\u2581b1e0d0": 8008,
    "w1": 8009,
    "=3": 8010,
    "rv": 8011,
    "f3e0": 8012,
    "water": 8013,
    "\u258112e4e4": 8014,
    "\u2581b1e058": 8015,
    "\u25812a3": 8016,
    "\u258115c8": 8017,
    "mailto": 8018,
    "\u25811afe": 8019,
    "kv": 8020,
    "\u258113dc40": 8021,
    "-32": 8022,
    "\u258112e210": 8023,
    "pptv": 8024,
    "cmru": 8025,
    "agent": 8026,
    "dllist": 8027,
    "xc": 8028,
    "a24": 8029,
    "cmrupi": 8030,
    "cmrupidllist": 8031,
    "infopop": 8032,
    "\u2581b1f": 8033,
    "9f680": 8034,
    "\u25811212": 8035,
    "e52": 8036,
    "\u258112f60c": 8037,
    "lj": 8038,
    "\u2581ddff44": 8039,
    "3c8": 8040,
    "efc": 8041,
    "\u2581d5ff34": 8042,
    "\u2581153a38": 8043,
    "\u258113dc9c": 8044,
    "\u258113f050": 8045,
    "94d": 8046,
    "aa0": 8047,
    "98s": 8048,
    "e9c": 8049,
    "running": 8050,
    "pkg": 8051,
    "\u25812cdf50c": 8052,
    "\u25812cdf534": 8053,
    "\u2581https": 8054,
    "3750": 8055,
    "53f000ff53f000ff53f000ff53f000ff53f000ff53f000ff53f000ff": 8056,
    "e5%": 8057,
    "\u258116b": 8058,
    "\u2581104.": 8059,
    "cscdll": 8060,
    "\u2581101.": 8061,
    "inews": 8062,
    "proto": 8063,
    "\u25812f2": 8064,
    "\u258112dad8": 8065,
    "block": 8066,
    "\u2581config": 8067,
    "mininews": 8068,
    "\u2581286": 8069,
    "imscprop": 8070,
    "oq": 8071,
    "fee0": 8072,
    "\u25811612": 8073,
    "20_": 8074,
    "progid": 8075,
    "\u2581210fe28": 8076,
    "\u2581210fe50": 8077,
    "3.10": 8078,
    "\u258112f7c4": 8079,
    "660": 8080,
    "28d": 8081,
    "reli": 8082,
    "becf4": 8083,
    "-6c": 8084,
    "product": 8085,
    "ue": 8086,
    "3f7cc": 8087,
    "\u25811513": 8088,
    "b96": 8089,
    "17-4": 8090,
    "\u25817530": 8091,
    "\u25814000000": 8092,
    "\\9": 8093,
    "\u258117b": 8094,
    "\u25812648": 8095,
    "\u2581cb": 8096,
    "\u2581tra": 8097,
    "\u258112ed24": 8098,
    "f8c0": 8099,
    "\u2581afe": 8100,
    "257": 8101,
    "5b8": 8102,
    "pdf": 8103,
    "swf": 8104,
    "\u2581741": 8105,
    "\u258132ff0": 8106,
    "regsvr32.": 8107,
    "\u258112f4ac": 8108,
    "\u25811896": 8109,
    "\u25811a0b90": 8110,
    "\u25812ddf090": 8111,
    "\u25812ddf0b8": 8112,
    "ae1.": 8113,
    "guest": 8114,
    "a1c": 8115,
    "2}\\": 8116,
    "rcx7.": 8117,
    "\u258112d430": 8118,
    "fapi": 8119,
    "e444": 8120,
    "\u2581{7d318": 8121,
    "\u258131a": 8122,
    "\u258129afe28": 8123,
    "\u258129afe50": 8124,
    "1a4": 8125,
    "%2f": 8126,
    "cfgmg": 8127,
    "mediap": 8128,
    "cfgmgr32.": 8129,
    ".168": 8130,
    "37c": 8131,
    "d628": 8132,
    "hor": 8133,
    "\u2581cc001c": 8134,
    "\u258112fb30": 8135,
    "\u2581164650": 8136,
    "e27c": 8137,
    "\u25817cc": 8138,
    "\u2581148628": 8139,
    "f14": 8140,
    "1f7cc": 8141,
    "profapi": 8142,
    "\u25816ff": 8143,
    "\u258112f72c": 8144,
    "\u258119ed": 8145,
    "55b38": 8146,
    "-30": 8147,
    "\u258112f63c": 8148,
    "e73c": 8149,
    "6-6": 8150,
    "a8c": 8151,
    "\u2581b1e6": 8152,
    "\u2581b1d620": 8153,
    "\u258114b1": 8154,
    "alys": 8155,
    "92015": 8156,
    "wan": 8157,
    "ability": 8158,
    "\u258112fa6c": 8159,
    "runningmutex": 8160,
    "59b57": 8161,
    "\\943080": 8162,
    "b3142e4": 8163,
    "55b38a6eb": 8164,
    "59b57b3142e4": 8165,
    "55b38a6eb92015": 8166,
    "\\94308059b57b3142e4": 8167,
    "\\94308059b57b3142e455b38a6eb92015": 8168,
    "\u2581180.97.": 8169,
    "reliability": 8170,
    "\u25811d5f19c": 8171,
    "\u25811647f0": 8172,
    "68bec8b5": 8173,
    "\u258112ef74": 8174,
    "lingui": 8175,
    "\u258113.": 8176,
    "bags": 8177,
    "guitar": 8178,
    "dj": 8179,
    "\u2581sto": 8180,
    "694": 8181,
    "fdc": 8182,
    "\u258112e920": 8183,
    "3b4": 8184,
    "01_": 8185,
    ".27:": 8186,
    "\u25817c4": 8187,
    "calendarmininews": 8188,
    "calendarmininewsrunningmutex": 8189,
    "f028": 8190,
    "\u2581ri": 8191,
    "\u2581ep": 8192,
    "9e9": 8193,
    "b8.": 8194,
    "-7d1": 8195,
    "\u258136.1": 8196,
    "\u258193c": 8197,
    "ffeac": 8198,
    "90-": 8199,
    "af4": 8200,
    "5690": 8201,
    "\u25812c9f": 8202,
    "px": 8203,
    "80_": 8204,
    "b65": 8205,
    "\u258112fef4": 8206,
    "\u25819bb88c": 8207,
    "\u25819bb8c4": 8208,
    "\u25819bb8ec": 8209,
    "bak": 8210,
    "hm": 8211,
    "93.": 8212,
    "\u258112db24": 8213,
    "\u25812006-10-23": 8214,
    "\u25817a8": 8215,
    "\\{2": 8216,
    "\u258130ffeac": 8217,
    "idl": 8218,
    "ef00": 8219,
    "high": 8220,
    "oa": 8221,
    "dot": 8222,
    "\u2581000000a7": 8223,
    "\u258112eb98": 8224,
    "f760": 8225,
    "snow": 8226,
    "\u258100032": 8227,
    "apps": 8228,
    "nsn2.": 8229,
    "\u25811276": 8230,
    "\u2581355": 8231,
    "(120s": 8232,
    "-70": 8233,
    "0003140e8": 8234,
    "5240003140": 8235,
    "14e": 8236,
    "\\{1": 8237,
    "\u25816ea": 8238,
    "d9a": 8239,
    "\u258119_13": 8240,
    "eb4": 8241,
    "f1.": 8242,
    "16-": 8243,
    "_40": 8244,
    "103.": 8245,
    "nsl3.": 8246,
    "\u2581bu": 8247,
    "\u2581180.16": 8248,
    "d0a4": 8249,
    "\u258112e6d0": 8250,
    "fb80": 8251,
    "185.": 8252,
    "\u258112f150": 8253,
    "t01c": 8254,
    "\u25811388": 8255,
    "\u25812013": 8256,
    "ish378~1\\": 8257,
    "pts": 8258,
    "326": 8259,
    "mediaplayer": 8260,
    "\u2581foldertype": 8261,
    "\u2581872": 8262,
    "\u258113f20c": 8263,
    "\u258119_13_54": 8264,
    "\u25811431e8": 8265,
    "35.": 8266,
    "_312_": 8267,
    "presentation": 8268,
    "\u2581180.163.2": 8269,
    "58-": 8270,
    "\u258112ef18": 8271,
    "linguist": 8272,
    "f708": 8273,
    ",-510": 8274,
    "\u2581ch": 8275,
    "\u258112fbc8": 8276,
    "\u25811a0bc8": 8277,
    "9701": 8278,
    "\u2581644": 8279,
    "\u258112b9": 8280,
    "normal": 8281,
    "\u258113f418": 8282,
    "\u258112b1": 8283,
    "site": 8284,
    "font": 8285,
    "c818": 8286,
    "11c": 8287,
    "628": 8288,
    "318": 8289,
    "\u2581648": 8290,
    "\u25818b": 8291,
    "_464_": 8292,
    "\u25819bec": 8293,
    "\u258112f548": 8294,
    "\u25811d5f1a4": 8295,
    "\u25811543f8": 8296,
    "f2d4": 8297,
    "e12": 8298,
    "\u25817da": 8299,
    "\u2581c00": 8300,
    "_496_": 8301,
    "a1f58": 8302,
    "\u258115e7": 8303,
    "d10": 8304,
    "\u2581aba": 8305,
    "5f8": 8306,
    "b07": 8307,
    "\u25811041": 8308,
    "protocol": 8309,
    "ff30": 8310,
    "\u258112f890": 8311,
    "540_": 8312,
    "essional": 8313,
    "\u2581documentsummaryinformation": 8314,
    "ramp": 8315,
    "_540_": 8316,
    "\u2581101458f": 8317,
    "\u25811014f0c": 8318,
    "\u2581162c": 8319,
    "23c": 8320,
    "\u25811584": 8321,
    "fe10": 8322,
    "ffce4": 8323,
    "providers": 8324,
    "ddc2": 8325,
    "4:": 8326,
    "onramp": 8327,
    "xin": 8328,
    "\u2581426": 8329,
    "-35": 8330,
    "_552_": 8331,
    "msvcr80.": 8332,
    "\u2581sebiesnrmkudrfcoiaamtykdda": 8333,
    "\u258112e6b0": 8334,
    "\u258140ddc2": 8335,
    "\u258140ddd2": 8336,
    "_712_": 8337,
    "\u258112f1bc": 8338,
    "\u258115ee": 8339,
    "\u25817d93c": 8340,
    "9e19701": 8341,
    "a1f589e19701": 8342,
    "\u258112ee30": 8343,
    "lor": 8344,
    "\u2581172.217.161.": 8345,
    "f688": 8346,
    "\u2581148c90": 8347,
    "fd0": 8348,
    "vu": 8349,
    "5e0": 8350,
    "fad": 8351,
    "2223": 8352,
    "f790": 8353,
    "downloads": 8354,
    "f2f0": 8355,
    "f9c": 8356,
    "\u2581303": 8357,
    "iyi": 8358,
    "\u258127bedf0": 8359,
    "690": 8360,
    "\u258112fe8c": 8361,
    "ff65c": 8362,
    "qua": 8363,
    "\u258112a4": 8364,
    "afa": 8365,
    "career": 8366,
    "\u25814cc1c0": 8367,
    "\u25813ae": 8368,
    "2f7c4": 8369,
    "\u25811297": 8370,
    "\u2581c1da": 8371,
    "dx": 8372,
    "\u258112f07c": 8373,
    "\\..": 8374,
    "\u25811644": 8375,
    "\\1.8.0.": 8376,
    "nsh3.": 8377,
    "\u258132e": 8378,
    "\u25819c0000": 8379,
    "\u2581270f1a4": 8380,
    "\u258129dff": 8381,
    "\u2581421": 8382,
    "uninsfiles": 8383,
    "\u2581152518": 8384,
    "\u258112fb98": 8385,
    "5a8": 8386,
    "lues": 8387,
    "\u25811298": 8388,
    "\u2581dw": 8389,
    "\u2581c1c": 8390,
    "\u258112ff0c": 8391,
    "d5.": 8392,
    "dba": 8393,
    "-4b7": 8394,
    "78:": 8395,
    "8c0": 8396,
    "3ad8": 8397,
    "infopath": 8398,
    "f50c": 8399,
    "b3-": 8400,
    "keyboard": 8401,
    "ndle": 8402,
    "7f680": 8403,
    "\u258112bf": 8404,
    "\u258112d5bc": 8405,
    "000001": 8406,
    "9b8": 8407,
    "f508": 8408,
    "\u25817b4": 8409,
    "components": 8410,
    "muic": 8411,
    "\u25817d91c": 8412,
    "cr": 8413,
    "\u25812970000": 8414,
    "rows": 8415,
    "gra": 8416,
    "-7fc": 8417,
    "fec04": 8418,
    "_820_": 8419,
    "fc88": 8420,
    "nso": 8421,
    "28.2": 8422,
    "\u258115f8": 8423,
    "\u2581blues": 8424,
    "highway": 8425,
    "\u2581stories": 8426,
    "sol": 8427,
    "ecb4": 8428,
    "\u25814044": 8429,
    "hony": 8430,
    "bt": 8431,
    "\u25817ffd5000": 8432,
    "msxml": 8433,
    "v4.0.30319_32\\": 8434,
    "mphony": 8435,
    "000ff53f000ff53f000ff53f000ff53f000ff53f000ff53f000ff53f000ff": 8436,
    "eb24": 8437,
    "bundle": 8438,
    "\u258177171": 8439,
    "\u25811645e8": 8440,
    "\u258122fcd0": 8441,
    "\u258111f6": 8442,
    "1000": 8443,
    "\u25811716": 8444,
    "amm": 8445,
    "hr": 8446,
    "9.14": 8447,
    "\u258177171e40": 8448,
    "\u258112f290": 8449,
    "\u258112f5ac": 8450,
    "\u2581153a40": 8451,
    "\u258112da2c": 8452,
    "\u258122fc84": 8453,
    "b14": 8454,
    "\u2581149f740": 8455,
    "\u2581149f758": 8456,
    "ure": 8457,
    "beet": 8458,
    "scher": 8459,
    "ox": 8460,
    "hoven": 8461,
    "speech": 8462,
    "scherzo": 8463,
    "\u2581symphony": 8464,
    "\u25814e7c": 8465,
    "c818b2": 8466,
    "beethoven": 8467,
    "\u258174c818b2": 8468,
    "526": 8469,
    "\u2581a2e538": 8470,
    "\u25811cae": 8471,
    "e9e8": 8472,
    "\u258112edd4": 8473,
    "\u2581385": 8474,
    "99:": 8475,
    "istant": 8476,
    "\u2581129b": 8477,
    "-1-5-21-1442870321-2299934936-1438495033-1000\\": 8478,
    "l1-1-0.": 8479,
    "d8f": 8480,
    "56c": 8481,
    "tribu": 8482,
    "3f4": 8483,
    "e5c4": 8484,
    "\u258131e": 8485,
    "fault": 8486,
    "\u25811040": 8487,
    "muicache": 8488,
    "hosts": 8489,
    "\u2581209": 8490,
    "\u258113f600": 8491,
    "_44": 8492,
    "\u258112c748": 8493,
    "\u258112ef08": 8494,
    "\u258112ff1c": 8495,
    "2f8": 8496,
    "e3ec": 8497,
    "39-": 8498,
    "smss": 8499,
    "\u258112f6f0": 8500,
    "\u2581152620": 8501,
    "feb0": 8502,
    "e750": 8503,
    "f994": 8504,
    "2.246.": 8505,
    "20181206": 8506,
    "fe20": 8507,
    "eb580": 8508,
    "(214748": 8509,
    "aries": 8510,
    "hq": 8511,
    "(2147483s": 8512,
    "dvd": 8513,
    "\u258112f254": 8514,
    "\u25811043": 8515,
    "\u25811704": 8516,
    "\u258112f8e8": 8517,
    "\u2581inst": 8518,
    "ee4": 8519,
    "f6d": 8520,
    "e0e0": 8521,
    "\u258112f6d0": 8522,
    "7e0": 8523,
    "\u258112fe5c": 8524,
    "\u25817c93": 8525,
    "\u2581114d3e4": 8526,
    "linkerror": 8527,
    "amii": 8528,
    "volu": 8529,
    "7600.16": 8530,
    "379": 8531,
    "ail": 8532,
    "61e4": 8533,
    "ground": 8534,
    "\u258115fa98": 8535,
    "sr77": 8536,
    "\u25813e0000": 8537,
    "global": 8538,
    "590": 8539,
    "winhttp": 8540,
    "_1312_": 8541,
    "\u2581ebe": 8542,
    "alysis": 8543,
    "d634": 8544,
    "\u258112d446": 8545,
    "\u25811554": 8546,
    "d96": 8547,
    ".211.1": 8548,
    "003d": 8549,
    "nsx2.": 8550,
    "saa": 8551,
    "l1-2-1.": 8552,
    "\u258113f2c8": 8553,
    "9_": 8554,
    "\u258112fc9c": 8555,
    "\u25811565a4": 8556,
    "92s": 8557,
    "567": 8558,
    "perf": 8559,
    "\u2581242": 8560,
    "\u258112f79c": 8561,
    "\u2581414b88": 8562,
    "-428": 8563,
    "nsm3.": 8564,
    "\u25811844": 8565,
    "f7.": 8566,
    "\u2581164618": 8567,
    ".10792": 8568,
    "\u258113e9d8": 8569,
    "30-": 8570,
    ".160_45": 8571,
    "\u258113e900": 8572,
    "mshtml": 8573,
    "kms": 8574,
    "\u258112f5b0": 8575,
    "bjs": 8576,
    "5-4": 8577,
    "\u258112ed70": 8578,
    "foamii": 8579,
    "\u25811f3": 8580,
    "mitool": 8581,
    "354": 8582,
    "hh": 8583,
    "etc": 8584,
    "e79c": 8585,
    "\u258112e4bc": 8586,
    "-31": 8587,
    "\u2581270f19c": 8588,
    "mru": 8589,
    "f780": 8590,
    "\u25812001a010": 8591,
    "\u2581analysis": 8592,
    "\u25817ffdf000": 8593,
    "2b3": 8594,
    "d7e": 8595,
    "\u2581fget": 8596,
    "f784": 8597,
    "33\\": 8598,
    "\u2581fi": 8599,
    "\u258112fb70": 8600,
    "dav": 8601,
    "schannel": 8602,
    "ixp": 8603,
    "\u258116cfce0": 8604,
    "\u2581834": 8605,
    "fac0": 8606,
    "szmitool": 8607,
    "\u25811268": 8608,
    "\u25811876": 8609,
    "5bc": 8610,
    "vq": 8611,
    "\u2581164858": 8612,
    "defe": 8613,
    "\u25811a0b88": 8614,
    "\u2581mp": 8615,
    "\u2581rpc": 8616,
    "\\3.0.0.3971\\": 8617,
    "avi": 8618,
    "nsz": 8619,
    "dclt": 8620,
    "\u2581112ed0c": 8621,
    "\u2581112ed34": 8622,
    "\u2581211fe90": 8623,
    "fbc": 8624,
    "\u258112ef6c": 8625,
    "ffd": 8626,
    "\u2581c1e510": 8627,
    "\u258116cfcd8": 8628,
    "6d18": 8629,
    "\u2581211fe68": 8630,
    "\u25813d1e": 8631,
    "sogoumobiletoolinst": 8632,
    "\u258114b3": 8633,
    "f01c": 8634,
    "\u25811940": 8635,
    "f110": 8636,
    "\u2581265": 8637,
    "\u258112fedc": 8638,
    "distribu": 8639,
    "\u258112f3f4": 8640,
    "80:": 8641,
    "\u258115cfd8": 8642,
    "1f680": 8643,
    "pb": 8644,
    "-46c": 8645,
    "jaureg": 8646,
    "cap": 8647,
    "volume": 8648,
    "\u25817c93003d": 8649,
    "\u2581c1e518": 8650,
    "fb00": 8651,
    "\u2581275": 8652,
    "af7c4": 8653,
    "114": 8654,
    "\u258112f688": 8655,
    "\u258112f718": 8656,
    "pobo3\\": 8657,
    "dictionary": 8658,
    "wizard": 8659,
    "eclient": 8660,
    "a6c": 8661,
    "\u25813fdf878": 8662,
    "\u25813fdf8b0": 8663,
    "\u258112e438": 8664,
    "sync": 8665,
    "updater5\\": 8666,
    "linguistics": 8667,
    "\u2581l": 8668,
    "f690": 8669,
    "7e8": 8670,
    "55\\": 8671,
    "cos": 8672,
    "\u2581information": 8673,
    "kick": 8674,
    "uid": 8675,
    "quick": 8676,
    "574": 8677,
    "38a": 8678,
    "mask": 8679,
    "\u2581b1f8": 8680,
    "241": 8681,
    "\u258114b6": 8682,
    "mlang": 8683,
    "\u25811216": 8684,
    "\u25813f3f878": 8685,
    "\u25813f3f8b0": 8686,
    "238:": 8687,
    "e7ac": 8688,
    "phys": 8689,
    "ffd04": 8690,
    "e0b": 8691,
    "\u2581656": 8692,
    "(299s": 8693,
    "fef60": 8694,
    "call": 8695,
    "nost": 8696,
    "mplayer": 8697,
    "ewq": 8698,
    "\u25810004": 8699,
    "20003140e8": 8700,
    "778": 8701,
    "\u258112efe8": 8702,
    "fu": 8703,
    "\u2581259": 8704,
    "52400031406f7": 8705,
    "notepad": 8706,
    "\u258112ebb4": 8707,
    "shop": 8708,
    "helpctr": 8709,
    "\u25819bc9a0": 8710,
    "\u25819bc9d8": 8711,
    "\u25819bca00": 8712,
    "b6d": 8713,
    "27c": 8714,
    "-94c": 8715,
    "anel": 8716,
    "\u2581203.208.": 8717,
    "\u258151a": 8718,
    "10b8": 8719,
    "\u258112fea4": 8720,
    "\u2581311": 8721,
    "\u25817bc": 8722,
    "\u258112ed18": 8723,
    "9ac": 8724,
    "\u2581884": 8725,
    "physical": 8726,
    "242.": 8727,
    "e830": 8728,
    "\u25817ff9": 8729,
    "\u258112f61c": 8730,
    "\u258112f97c": 8731,
    "jq": 8732,
    "1ff48": 8733,
    "\u2581164820": 8734,
    "620": 8735,
    "\\2.0.0.0_": 8736,
    "\u258112e5e4": 8737,
    "fc20": 8738,
    "horses": 8739,
    "f238": 8740,
    "\u258119afbdc": 8741,
    "\u258119afbf0": 8742,
    "\u258119afbf4": 8743,
    "\u2581183.136": 8744,
    "562": 8745,
    "nlp": 8746,
    "\u2581dcf984": 8747,
    "\u2581dcf968": 8748,
    "\u2581dcf998": 8749,
    "\u2581dcf9a0": 8750,
    "\u258101_": 8751,
    "e924": 8752,
    "t015": 8753,
    "\u258116e5": 8754,
    "e11": 8755,
    "\u2581932": 8756,
    "af6": 8757,
    "devo": 8758,
    "\u2581309": 8759,
    "devobj": 8760,
    "1}": 8761,
    "eb14": 8762,
    "ferenc": 8763,
    "9ec": 8764,
    "ea60": 8765,
    "\u2581cookie": 8766,
    "physicaldri": 8767,
    "f8-8": 8768,
    "frm": 8769,
    "eac": 8770,
    "\u258125e": 8771,
    "\u258112d5d4": 8772,
    "5}": 8773,
    "\u25812e3": 8774,
    "ese": 8775,
    "51.1": 8776,
    "disp": 8777,
    "f7a4": 8778,
    "\u2581100084": 8779,
    "b11": 8780,
    "\u258112e8f0": 8781,
    "\u25811441c8": 8782,
    "fd88": 8783,
    "glh00": 8784,
    "\u25817a4": 8785,
    "\u25812b5": 8786,
    "\u258132fee30": 8787,
    "dda4": 8788,
    "\u2581422": 8789,
    "14:": 8790,
    "dcd": 8791,
    "netfx": 8792,
    "etup": 8793,
    "\u2581a6fd": 8794,
    "-8f4": 8795,
    "\u25817d4": 8796,
    "tq": 8797,
    "\u25813e8ebb0": 8798,
    "\u25813e8ec04": 8799,
    "a8-": 8800,
    "798": 8801,
    "fk": 8802,
    "a7.": 8803,
    "uninst": 8804,
    "bagmru": 8805,
    "d73c": 8806,
    "e8e8": 8807,
    "\u2581time": 8808,
    "p4p": 8809,
    "\u25818be": 8810,
    "\u258140100080": 8811,
    "\u2581241": 8812,
    "f314": 8813,
    "(20": 8814,
    "converter": 8815,
    "intl": 8816,
    "f11c": 8817,
    "\u25813ebebb0": 8818,
    "\u25813ebec04": 8819,
    "\u2581tree": 8820,
    "\u2581205fdf0": 8821,
    "\u2581205fe18": 8822,
    "mst": 8823,
    "\u2581153810": 8824,
    "f2fc": 8825,
    "\\22": 8826,
    "\u258112f09c": 8827,
    "f8a4": 8828,
    "otype": 8829,
    "lift": 8830,
    "\u2581e2c38": 8831,
    "\u2581e2c90": 8832,
    "music": 8833,
    "\u2581164648": 8834,
    "e500": 8835,
    "000004": 8836,
    "\\{74": 8837,
    "movie": 8838,
    "\u2581793": 8839,
    ")\\": 8840,
    "cch": 8841,
    "\u2581dvd": 8842,
    "be90": 8843,
    "nce": 8844,
    "\u25812640": 8845,
    "\u2581c1ed24": 8846,
    "eaec": 8847,
    "ecku": 8848,
    "ferences": 8849,
    "\u258112d458": 8850,
    "\u25811522f0": 8851,
    "\u2581c1ed4c": 8852,
    "her": 8853,
    "398": 8854,
    "bul": 8855,
    "fb58": 8856,
    "\u2581457": 8857,
    "19.": 8858,
    "f250": 8859,
    "f4b4": 8860,
    "fe4c": 8861,
    "\u2581964": 8862,
    "16c": 8863,
    "fdf8": 8864,
    "\u258128e": 8865,
    "000s": 8866,
    "\u25811214": 8867,
    "acceclient": 8868,
    "5-9": 8869,
    "e184": 8870,
    "pm": 8871,
    "\u25811cd": 8872,
    "fe0120": 8873,
    "6a4": 8874,
    "\u258173": 8875,
    "3.14": 8876,
    "\u2581403": 8877,
    "aa6": 8878,
    "d778": 8879,
    "b1-": 8880,
    "\u258113eaf4": 8881,
    "ea58": 8882,
    "eqn": 8883,
    "sinotype": 8884,
    "be18": 8885,
    "palm": 8886,
    "\u25811fd": 8887,
    "\u258112ea14": 8888,
    "\u25811a0c88": 8889,
    "\u2581api": 8890,
    "rg": 8891,
    "\u25812ee": 8892,
    "\u25817ffdd000": 8893,
    "0vj": 8894,
    "fa30": 8895,
    "d4f4": 8896,
    "aspnet": 8897,
    "_22": 8898,
    "2nh": 8899,
    "176": 8900,
    "ance": 8901,
    "2.1": 8902,
    "\u25811dbe": 8903,
    "\u2581812": 8904,
    "24w1": 8905,
    "gykx": 8906,
    "vbvh": 8907,
    "5k2nh": 8908,
    "0vjecku": 8909,
    "\u2581epgykx": 8910,
    "24w1vbvh": 8911,
    "24w1vbvh5k2nh": 8912,
    "\u2581epgykx0vjecku": 8913,
    "\u2581epgykx0vjecku24w1vbvh5k2nh": 8914,
    "d9f4": 8915,
    "\u258112f304": 8916,
    "\u258194fc98": 8917,
    "\u258194fcc8": 8918,
    "\u25811453": 8919,
    "=4": 8920,
    "&_": 8921,
    "1ce8": 8922,
    "\u2581206ff0": 8923,
    "winob": 8924,
    "_21": 8925,
    "pink": 8926,
    "\u2581229": 8927,
    "4f8": 8928,
    "f35": 8929,
    "\u2581180db8": 8930,
    ".150": 8931,
    "\u258112ebd4": 8932,
    "-5e8": 8933,
    "wshext": 8934,
    "ebfc": 8935,
    "ef10": 8936,
    "f348": 8937,
    "fec8": 8938,
    "3a63-56f6-4ba1-5aaf8": 8939,
    "\u2581797": 8940,
    "-00aa00bdc": 8941,
    "c7-": 8942,
    "18-": 8943,
    "\u258112f454": 8944,
    "d900": 8945,
    "\u25811433": 8946,
    "\u25813c395": 8947,
    "ea84": 8948,
    "d70": 8949,
    "e99": 8950,
    "\u258133fff58": 8951,
    "\u2581280e6": 8952,
    "\u258115aeb0": 8953,
    "3ab": 8954,
    "f730": 8955,
    "40_": 8956,
    "9e60": 8957,
    "99-4e": 8958,
    "594": 8959,
    "\u25812b9": 8960,
    "1c0069": 8961,
    "\u258115a350": 8962,
    "\u258112ee58": 8963,
    "fa6": 8964,
    "f43c": 8965,
    "53_": 8966,
    "1e80b": 8967,
    "358b6-": 8968,
    "718-5e8": 8969,
    "c899-4e": 8970,
    "feed1e80b": 8971,
    "c899-4ef8-8": 8972,
    "718-5e8feed1e80b": 8973,
    "c899-4ef8-8718-5e8feed1e80b": 8974,
    "vga": 8975,
    ".0__31bf3856ad364e35\\": 8976,
    "sim": 8977,
    "444": 8978,
    "f870": 8979,
    "e22": 8980,
    "sppwinob": 8981,
    "ws116358b6-": 8982,
    "3aec": 8983,
    "itor": 8984,
    "\u2581143678": 8985,
    "\u25811692": 8986,
    "\u2581280e6d0": 8987,
    "2-5": 8988,
    "33c": 8989,
    "\u25811d5e20c": 8990,
    "618": 8991,
    "1010": 8992,
    "\u2581dll": 8993,
    "ws166": 8994,
    "f740": 8995,
    "\u2581104dc": 8996,
    "\u2581a438b0": 8997,
    "65c00": 8998,
    "sqm": 8999,
    "\u25815265c00": 9000,
    "\u258112ecb4": 9001,
    "\u258124a": 9002,
    "00_": 9003,
    "88_": 9004,
    "bad": 9005,
    "51.1:": 9006,
    "\u2581209.202.251.1:": 9007,
    "e414": 9008,
    "\u258108_00": 9009,
    "\u25817cea8": 9010,
    "ec74": 9011,
    "close": 9012,
    "\u25811485": 9013,
    "\u258114a770": 9014,
    "mid": 9015,
    "ef5c": 9016,
    "def98": 9017,
    "3420": 9018,
    "magic": 9019,
    "\u258112f408": 9020,
    "\u258113f18c": 9021,
    "\u2581144528": 9022,
    "gamesmanager": 9023,
    "\u258115ca": 9024,
    "\u258112ef58": 9025,
    "\u2581164898": 9026,
    "958": 9027,
    "99d0": 9028,
    "rash": 9029,
    "_232_": 9030,
    "\u258112e384": 9031,
    "\u2581222.18": 9032,
    "\u2581143528": 9033,
    "\\7zs": 9034,
    "mscorwks": 9035,
    "d7.": 9036,
    "\u25817b": 9037,
    "d92": 9038,
    "\u2581168eb0": 9039,
    "172:": 9040,
    "comn": 9041,
    "96:": 9042,
    "\u2581log": 9043,
    "ests": 9044,
    "fb94": 9045,
    "\u2581316": 9046,
    "\u2581118f": 9047,
    "\u25811724": 9048,
    "\u2581150e20": 9049,
    "c9": 9050,
    "\u2581153da0": 9051,
    "\u2581ip": 9052,
    "\\{3050": 9053,
    "skater": 9054,
    "d76": 9055,
    "26c": 9056,
    "\u258112e5e8": 9057,
    "\u258113f1f6": 9058,
    "\u25811108": 9059,
    "\u258112f65c": 9060,
    "e1-": 9061,
    "bb82": 9062,
    "\u25814e6c": 9063,
    "clock": 9064,
    "b5-11cf": 9065,
    "-00aa00bdce0b": 9066,
    "bb82-00aa00bdce0b": 9067,
    "dp": 9068,
    "515": 9069,
    "\u2581power": 9070,
    "bq": 9071,
    "ec84": 9072,
    "944_": 9073,
    "_1944_": 9074,
    "\u258112d6c0": 9075,
    "\u2581d0ff3c": 9076,
    "\u2581d0ff98": 9077,
    "\u2581302": 9078,
    "\u25814e5f190": 9079,
    "\u2581f78": 9080,
    "\u2581c1e8": 9081,
    "75a": 9082,
    "\u25811517": 9083,
    "\u25814e5fc5c": 9084,
    "sppo": 9085,
    "\u2581b5d2": 9086,
    "sppobjs": 9087,
    "\u258112eb84": 9088,
    "46:": 9089,
    "aca": 9090,
    "\u258125d": 9091,
    "\u258112f0d4": 9092,
    "\u2581151234": 9093,
    "jucheck": 9094,
    "\\39b": 9095,
    "\u258158.222.": 9096,
    "564": 9097,
    "\u2581816": 9098,
    "\u25818ceae4": 9099,
    "flake": 9100,
    "snowflake": 9101,
    "244_": 9102,
    "fc40": 9103,
    "\u2581150e34": 9104,
    "\u258127aecf4": 9105,
    "\u258112e090": 9106,
    "(298s": 9107,
    "80-8": 9108,
    "1.3": 9109,
    "-4fd": 9110,
    "_1244_": 9111,
    "504_": 9112,
    "\u2581415": 9113,
    "10\\": 9114,
    "\u258111f0a0": 9115,
    "_1504_": 9116,
    "assistant": 9117,
    "13-": 9118,
    "\u258112fae0": 9119,
    "\u25811484f8": 9120,
    "20.20": 9121,
    "111": 9122,
    "jg": 9123,
    "\u25812ec0000": 9124,
    ".14:": 9125,
    "\u25812c5": 9126,
    "vg": 9127,
    "\u25816ee": 9128,
    "\u258112febc": 9129,
    "d1c": 9130,
    "\u258116f": 9131,
    "nsp2.": 9132,
    "fb10": 9133,
    "\u2581000b9": 9134,
    "00a710a": 9135,
    "\u258112eacc": 9136,
    "\u2581b800a710b8": 9137,
    "f000ff00a710a": 9138,
    "bb7": 9139,
    "91.": 9140,
    "\u258112f5d4": 9141,
    "528_": 9142,
    "\u2581000d0": 9143,
    "\u2581a710b8": 9144,
    "\u2581a710b800a710b8a710b8": 9145,
    "00a710b8a710b800a710b8": 9146,
    "\u2581a710b800a710b8a710b800a710b8a710b8": 9147,
    "\u2581a710b800a710b8a710b800a710b8a710b800a710b8a710b800a710b8": 9148,
    "\u2581152660": 9149,
    "\\0000": 9150,
    "\u258122c008": 9151,
    "_1528_": 9152,
    "fbb0": 9153,
    "\u2581b5db": 9154,
    "\u258189.185.": 9155,
    "35.126:": 9156,
    "\u258145.60.": 9157,
    "\u258145.60.35.126:": 9158,
    "ef1c": 9159,
    "\u2581180.14": 9160,
    "ab4": 9161,
    "dern": 9162,
    "\u258112f0f8": 9163,
    "\u2581170fce4": 9164,
    "\u2581170fd04": 9165,
    "f71c": 9166,
    "\u25813ecebb0": 9167,
    "mmc": 9168,
    "\u25811980": 9169,
    "f000ff00a710aeea0": 9170,
    "modern": 9171,
    "734-": 9172,
    ".199": 9173,
    "f224": 9174,
    "progress": 9175,
    "\u25813ecec04": 9176,
    "_1564_": 9177,
    "19c": 9178,
    "\u2581d5e1": 9179,
    "rh": 9180,
    "44.100:": 9181,
    "\u258189.185.44.100:": 9182,
    "\u2581{7d318734-": 9183,
    "00e": 9184,
    "_1576_": 9185,
    "f150": 9186,
    "\u258116fc": 9187,
    "23.1": 9188,
    "sj": 9189,
    "\u2581419": 9190,
    "bullet": 9191,
    "\u258112ebbc": 9192,
    "3ac": 9193,
    "\u2581270ec04": 9194,
    "\u2581270ebb0": 9195,
    "\u258108_00_49": 9196,
    "\u258118b": 9197,
    "aal": 9198,
    "f0-": 9199,
    "\u2581397": 9200,
    "\u2581852": 9201,
    "license": 9202,
    "ws1a": 9203,
    "2b4": 9204,
    "netme": 9205,
    "\u258112faac": 9206,
    "\u258186eee0": 9207,
    "\u258112d674": 9208,
    "604_": 9209,
    "13-4": 9210,
    "dff": 9211,
    "a938": 9212,
    "12a": 9213,
    "a620": 9214,
    "314268": 9215,
    "daf8": 9216,
    "_1588_": 9217,
    "scripts": 9218,
    "e42c": 9219,
    "\u2581170ff0c": 9220,
    "\u2581122.246.": 9221,
    "pending": 9222,
    "27}": 9223,
    "75/": 9224,
    "137": 9225,
    "\u258112fe6c": 9226,
    ".0.2623.1": 9227,
    "dfc": 9228,
    "\u2581253": 9229,
    "mgm": 9230,
    "\u258137e": 9231,
    "\u2581e7fe74": 9232,
    "installmgr": 9233,
    "adobeupdaterinstallmgr": 9234,
    "fa80": 9235,
    "\u25812c2": 9236,
    "8cbc": 9237,
    "\u258112fed8": 9238,
    "\u25819bbdb8": 9239,
    "\u25819bbdf0": 9240,
    "\u25819bbe18": 9241,
    "\u2581compat": 9242,
    "dmfd": 9243,
    "e53c": 9244,
    "_1604_": 9245,
    "18.": 9246,
    "\u2581170ff14": 9247,
    "\u25810007": 9248,
    "\u2581170ff10": 9249,
    "\u25811908": 9250,
    "mdb": 9251,
    "\u2581c3ff": 9252,
    "\u2581compatibility": 9253,
    "addins": 9254,
    "\u258123e": 9255,
    "wh": 9256,
    "232": 9257,
    "\u258112f008": 9258,
    "640_": 9259,
    "\u258117d008": 9260,
    "6}": 9261,
    "92a7-": 9262,
    "rop": 9263,
    "\u258112dbb8": 9264,
    "\u258112dee8": 9265,
    "\u258112f238": 9266,
    "=\"": 9267,
    "\u258136.25.250.195:": 9268,
    "\u2581menu": 9269,
    "\u258189e9c4": 9270,
    "\u2581st": 9271,
    "\u2581104dccc": 9272,
    "b3e9-00805f499d93}\\": 9273,
    "mys": 9274,
    "baiduhips": 9275,
    "294": 9276,
    "\u25811cb": 9277,
    "\u258112f834": 9278,
    "\u258112f87c": 9279,
    "_1640_": 9280,
    "aalamm": 9281,
    "\u25811647f8": 9282,
    "saaaalamm": 9283,
    "\u258115e8": 9284,
    "08_": 9285,
    "29&": 9286,
    "220&": 9287,
    "_99_": 9288,
    ",-1": 9289,
    "ws770": 9290,
    "\u258112d478": 9291,
    "eqnedt32.": 9292,
    "\u2581_": 9293,
    "gon": 9294,
    "\u25818e0": 9295,
    "tc": 9296,
    "tatic": 9297,
    "\u25813.": 9298,
    "f380": 9299,
    "f8b4": 9300,
    "\u258161.1": 9301,
    "\u258112fe84": 9302,
    "jaucheck": 9303,
    "\u2581+": 9304,
    "\u2581312ff34": 9305,
    "_1652_": 9306,
    "bd3": 9307,
    "9260": 9308,
    "\u2581160124": 9309,
    "pqon": 9310,
    "ag58f": 9311,
    "ag58fpqon": 9312,
    "\u25811034": 9313,
    "\u2581a43ad8": 9314,
    "_1668_": 9315,
    "\u2581online": 9316,
    "alization": 9317,
    "\u25812c60000": 9318,
    "_30": 9319,
    "/228": 9320,
    "15e0": 9321,
    "/228_99_": 9322,
    "\u25811736": 9323,
    "-9ab": 9324,
    "codec": 9325,
    "1b6": 9326,
    "2270": 9327,
    "\u25813e0fe28": 9328,
    "\u25813e0fe50": 9329,
    "\u25811563": 9330,
    "f04c": 9331,
    "bba": 9332,
    "\u2581count": 9333,
    "/228_99_75/": 9334,
    "ef58": 9335,
    "\u258113b": 9336,
    "e65c": 9337,
    "d3.": 9338,
    "e2fa": 9339,
    "\u258189e9a4": 9340,
    "-9ea": 9341,
    "684_": 9342,
    "f63c": 9343,
    "1f022": 9344,
    "\u25812004": 9345,
    "1a0": 9346,
    "iqiyi": 9347,
    "-25": 9348,
    "\u2581271": 9349,
    "bulletin": 9350,
    "\u258112fbe8": 9351,
    "1f022740": 9352,
    "_1684_": 9353,
    "\u2581270ef98": 9354,
    "550": 9355,
    "\u2581bae74": 9356,
    "tasks": 9357,
    "\u2581164610": 9358,
    "\u258112b45c": 9359,
    "t016": 9360,
    "21-": 9361,
    "aker": 9362,
    "\u2581bfe": 9363,
    "\u258112ed68": 9364,
    "2&": 9365,
    "35b37": 9366,
    "\u25813c335b37": 9367,
    "\u25813c395f78": 9368,
    "\u258112d480": 9369,
    "-98b5-11cf": 9370,
    "_1696_": 9371,
    "160707": 9372,
    "baidurjdownloader1.3": 9373,
    "13c": 9374,
    "9da": 9375,
    "util": 9376,
    "sdclt": 9377,
    "f15": 9378,
    "84_": 9379,
    "_1708_": 9380,
    "ada": 9381,
    "v1.0": 9382,
    "164": 9383,
    "\u2581bb2": 9384,
    "\u25811645d0": 9385,
    "b74": 9386,
    "tmp4.": 9387,
    "lus": 9388,
    "c6": 9389,
    "proof": 9390,
    "f25c": 9391,
    "274": 9392,
    "fed8": 9393,
    "\u2581664": 9394,
    "ixp000.": 9395,
    "\u25811497a8": 9396,
    "\u2581size": 9397,
    "\\360ini": 9398,
    "\u258112f5a4": 9399,
    "\u258114e8": 9400,
    "_1728_": 9401,
    "\u25811a0c78": 9402,
    "-11d2-": 9403,
    "ws97": 9404,
    "\u25811864": 9405,
    ".1&": 9406,
    "\u25811286": 9407,
    "nsb3.": 9408,
    "f838": 9409,
    "6c2": 9410,
    "bde": 9411,
    "a46": 9412,
    "f1c": 9413,
    "\u2581471": 9414,
    "8bc": 9415,
    "\u25819fe": 9416,
    "00-": 9417,
    "\u25811722": 9418,
    "_1740_": 9419,
    "addin": 9420,
    "\u25811645f0": 9421,
    "8s": 9422,
    "efd8": 9423,
    "manifests": 9424,
    "0000000000": 9425,
    "\u258127bef60": 9426,
    "ff54": 9427,
    "\\1.8.0.12": 9428,
    "vy": 9429,
    "106\\": 9430,
    "\u25817d8": 9431,
    "\u25811bbf": 9432,
    "(292s": 9433,
    "tok": 9434,
    "\u2581270ead0": 9435,
    "\u25811511": 9436,
    "_1752_": 9437,
    "eae8": 9438,
    "\u25813dde": 9439,
    "\u25811996": 9440,
    "sogoudownload": 9441,
    "cabinetstate": 9442,
    "\u258112d854": 9443,
    "golf": 9444,
    "(327s": 9445,
    "\u2581202.": 9446,
    "20202020": 9447,
    "-29": 9448,
    "copy": 9449,
    "feb4": 9450,
    "item": 9451,
    "-01": 9452,
    "1bc": 9453,
    "\u2581d6e": 9454,
    "a9a": 9455,
    "_1764_": 9456,
    "59c": 9457,
    "lls": 9458,
    "\u258145cf48": 9459,
    "\u2581fbee60": 9460,
    "-7fe": 9461,
    "ef3c": 9462,
    "\u25818dc": 9463,
    "ff6f": 9464,
    "\u25812ccff58": 9465,
    "\\1.3.2": 9466,
    "\u2581270ea28": 9467,
    "\u2581270ea38": 9468,
    "\u2581151010": 9469,
    "92c": 9470,
    "netmeet": 9471,
    "_1784_": 9472,
    "ef70": 9473,
    "rcx4": 9474,
    "-11d3": 9475,
    "\u2581153fe6c": 9476,
    "-3d": 9477,
    "e7b0": 9478,
    "\u2581153fe94": 9479,
    "\u25813dbf928": 9480,
    "\u258112fcc4": 9481,
    "\u258114d8d0": 9482,
    "\u2581fullpath": 9483,
    "f360": 9484,
    "\u2581bbe": 9485,
    "a56": 9486,
[...]
