{
    "<pad>": 0,
    "<unk>": 1,
    "<mask>": 2,
    "0x": 3,
    "\u25810x": 4,
    "\u2581a": 5,
    "et": 6,
    "00": 7,
    "al": 8,
    "in": 9,
    "\u25810x4": 10,
    "er": 11,
    "ne": 12,
    "val": 13,
    "etval": 14,
    "me": 15,
    "32": 16,
    "\u2581r": 17,
    "gs": 18,
    "pin": 19,
    "\u2581p": 20,
    "ame": 21,
    "rgs": 22,
    "\u2581retval": 23,
    "\u2581pc": 24,
    "\u2581apin": 25,
    "\u2581apiname": 26,
    "\u2581args": 27,
    "l32": 28,
    "\u2581k": 29,
    "erne": 30,
    "ernel32": 31,
    "\u2581kernel32": 32,
    "\u25810x0": 33,
    "\u25810x1": 34,
    "\u25810x40": 35,
    "ad": 36,
    "000": 37,
    "ti": 38,
    "\u25810x7": 39,
    "re": 40,
    "ec": 41,
    "\u25810xf": 42,
    "get": 43,
    "oc": 44,
    "\u2581kernel32get": 45,
    "ee": 46,
    "\u25810x77": 47,
    "0000": 48,
    "\u25810xfee": 49,
    "iti": 50,
    "ss": 51,
    "\u25810xfeee": 52,
    "tr": 53,
    "ea": 54,
    "\u25810x41": 55,
    "pr": 56,
    "proc": 57,
    "add": 58,
    "tio": 59,
    "ress": 60,
    "\u2581kernel32getproc": 61,
    "address": 62,
    "\u2581kernel32getprocaddress": 63,
    "is": 64,
    "ter": 65,
    "cal": 66,
    "sec": 67,
    "read": 68,
    "sectio": 69,
    "en": 70,
    "riti": 71,
    "ritical": 72,
    "riticalsectio": 73,
    "\u25810x42": 74,
    "000000": 75,
    "\u25810x1000": 76,
    "\u2581kernel32is": 77,
    "or": 78,
    "readp": 79,
    "ue": 80,
    "bad": 81,
    "readptr": 82,
    "badreadptr": 83,
    "\u2581kernel32isbadreadptr": 84,
    "31": 85,
    "\u25810x77000000": 86,
    "le": 87,
    "\u25810xfeee00": 88,
    "\u2581s": 89,
    "\u2581n": 90,
    "ecriticalsectio": 91,
    "ls": 92,
    "\u2581no": 93,
    "94": 94,
    "te": 95,
    "co": 96,
    "de": 97,
    "loc": 98,
    "\u2581none": 99,
    "etvalue": 100,
    "12": 101,
    "us": 102,
    "\u25810xfeee000": 103,
    "a0": 104,
    "\u25810x4031": 105,
    "\u2581e": 106,
    "getvalue": 107,
    "lsgetvalue": 108,
    "iz": 109,
    "\u2581kernel32in": 110,
    "8c": 111,
    "aa": 112,
    "11": 113,
    "f0": 114,
    "aliz": 115,
    "itializ": 116,
    "\u25810x5": 117,
    "ac": 118,
    "la": 119,
    "\u25810x46": 120,
    "itializecriticalsectio": 121,
    "an": 122,
    "\u2581kernel32initializecriticalsectio": 123,
    "nex": 124,
    "\u25810x2": 125,
    "\u25810xfa0": 126,
    "10": 127,
    "nt": 128,
    "\u2581us": 129,
    "\u25810x8": 130,
    "\u25810x12": 131,
    "ar": 132,
    "\u25810x770": 133,
    "ror": 134,
    "7a": 135,
    "fi": 136,
    "eap": 137,
    "heap": 138,
    "\u2581kernel32t": 139,
    "\u25810xfeee0001": 140,
    "40": 141,
    "\u2581sp": 142,
    "\u2581sp0x": 143,
    "\u2581kernel32en": 144,
    "59": 145,
    "\u2581kernel32tlsgetvalue": 146,
    "88": 147,
    "43": 148,
    "and": 149,
    "alloc": 150,
    "00000": 151,
    "\u2581kernel32initializecriticalsectionex": 152,
    "mo": 153,
    "at": 154,
    "\u25810x40318c": 155,
    "las": 156,
    "\u2581kernel32heap": 157,
    "90": 158,
    "oin": 159,
    "d0": 160,
    "\u2581user": 161,
    "\u2581user32": 162,
    "ff": 163,
    "ce": 164,
    "lea": 165,
    "30": 166,
    "lo": 167,
    "36": 168,
    "poin": 169,
    "pointer": 170,
    "terror": 171,
    "lasterror": 172,
    "mu": 173,
    "depointer": 174,
    "py": 175,
    "\u25810x4294": 176,
    "\u2581kernel32f": 177,
    "20": 178,
    "mod": 179,
    "\u25810x1211": 180,
    "\u25810x42947a": 181,
    "d1": 182,
    "\u25810x0000": 183,
    "\u25810x4012": 184,
    "li": 185,
    "\u25810x40b": 186,
    "cd": 187,
    "modu": 188,
    "\u25810x771": 189,
    "on": 190,
    "80": 191,
    "sy": 192,
    "\u2581c": 193,
    "ow": 194,
    "local": 195,
    "win": 196,
    "\u2581kernel32flsgetvalue": 197,
    "\u2581in": 198,
    "str": 199,
    "61": 200,
    "\u25810x243": 201,
    "\u25810x24394": 202,
    "dec": 203,
    "b2": 204,
    "84": 205,
    "ite": 206,
    "ack": 207,
    "mp": 208,
    "\u2581kernel32heapalloc": 209,
    "70": 210,
    "\u25810x6": 211,
    "98": 212,
    "aaaa": 213,
    "load": 214,
    "set": 215,
    "file": 216,
    "pi": 217,
    "hand": 218,
    "terc": 219,
    "\u25810x45": 220,
    "un": 221,
    "th": 222,
    "ess": 223,
    "\u2581get": 224,
    "ecriticalsection": 225,
    "unt": 226,
    "26": 227,
    "st": 228,
    "ab": 229,
    "riticalsection": 230,
    "tercriticalsection": 231,
    "leav": 232,
    "pe": 233,
    "leavecriticalsection": 234,
    "\u2581kernel32entercriticalsection": 235,
    "78": 236,
    "\u2581kernel32leavecriticalsection": 237,
    "count": 238,
    "ag": 239,
    "ur": 240,
    "76": 241,
    "codepointer": 242,
    "50": 243,
    "eg": 244,
    "module": 245,
    "lib": 246,
    "ex": 247,
    "\u25810x43": 248,
    "ic": 249,
    "60": 250,
    "\u25810x40c": 251,
    "\u25810xff": 252,
    "\u2581kernel32set": 253,
    "it": 254,
    "\u25810x405": 255,
    "\u25810x00000000": 256,
    "ing": 257,
    "mem": 258,
    "\u25810x401": 259,
    "\u25810x40a": 260,
    "\u25810x3": 261,
    "tion": 262,
    "pea": 263,
    "rt": 264,
    "b0": 265,
    "wr": 266,
    "ed": 267,
    "kea": 268,
    "\u2581kernel32encodepointer": 269,
    "keasy": 270,
    "peakeasy": 271,
    "df": 272,
    "bc": 273,
    "b8": 274,
    "\u25810x46f0": 275,
    "\u2581kernel32getlasterror": 276,
    "7c": 277,
    "\u25810x46d0": 278,
    "38": 279,
    "ype": 280,
    "handle": 281,
    "ste": 282,
    "42": 283,
    "be": 284,
    "let": 285,
    "\u2581d": 286,
    "dow": 287,
    "\u25810x45f0": 288,
    "ch": 289,
    "\u2581kernel32initializecriticalsection": 290,
    "fe": 291,
    "\u2581kernel32setlasterror": 292,
    "window": 293,
    "ent": 294,
    "fo": 295,
    "9a": 296,
    "f8": 297,
    "95": 298,
    "fc": 299,
    "ate": 300,
    "\u25810x4032": 301,
    "art": 302,
    "\u25810x7d": 303,
    "ine": 304,
    "\u25810x403288": 305,
    "\u2581o": 306,
    "\u25810x00": 307,
    "\u2581l": 308,
    "\u25810x012": 309,
    "dl": 310,
    "\u25810xc": 311,
    "\u25810x4031cd": 312,
    "fd": 313,
    "3c": 314,
    "vi": 315,
    "\u2581f": 316,
    "18": 317,
    "34": 318,
    "14": 319,
    "ment": 320,
    "68": 321,
    "9c": 322,
    "28": 323,
    "string": 324,
    "a59": 325,
    "tor": 326,
    "\u25810x41e": 327,
    "dll": 328,
    "\u25810x40ba59": 329,
    "\u2581user32load": 330,
    "el": 331,
    "0c": 332,
    "\u25810x400000": 333,
    "64": 334,
    "d10000": 335,
    "\u25810x77d10000": 336,
    "dd": 337,
    "ms": 338,
    "74": 339,
    "24": 340,
    "2c": 341,
    "write": 342,
    "type": 343,
    "\u25810x78": 344,
    "fa": 345,
    "as": 346,
    "1c": 347,
    "f4": 348,
    "72": 349,
    "e0": 350,
    "id": 351,
    "\u25810x01211": 352,
    "spin": 353,
    "spincount": 354,
    "andspincount": 355,
    "5d": 356,
    "reate": 357,
    "deco": 358,
    "6c": 359,
    "decodepointer": 360,
    "5c": 361,
    "di": 362,
    "\u2581kernel32initializecriticalsectionandspincount": 363,
    "\u2581kernel32getc": 364,
    "\u2581emu": 365,
    "54": 366,
    "\u2581file": 367,
    "93": 368,
    "\u2581st": 369,
    "71": 370,
    "stem": 371,
    "e4": 372,
    "emu": 373,
    "pack": 374,
    "rlocal": 375,
    "packag": 376,
    "ma": 377,
    "7b": 378,
    "96": 379,
    "58": 380,
    "api": 381,
    "ree": 382,
    "\u2581kernel32getmodule": 383,
    "eb": 384,
    "\u25810x403161": 385,
    "dc": 386,
    "\u2581line": 387,
    "thon": 388,
    "python": 389,
    "site": 390,
    "sitepackag": 391,
    "python36": 392,
    "rlocallib": 393,
    "\u2581usrlocallib": 394,
    "python36sitepackag": 395,
    "\u2581usrlocallibpython36sitepackag": 396,
    "\u25810x10": 397,
    "\u25810x50": 398,
    "a8": 399,
    "exw": 400,
    "f6": 401,
    "locale": 402,
    "52": 403,
    "91": 404,
    "\u2581ep": 405,
    "aaaaaaaa": 406,
    "uc": 407,
    "d8": 408,
    "\u25810x100": 409,
    "process": 410,
    "\u2581user32loadstring": 411,
    "\u2581kernel32decodepointer": 412,
    "\u25810x44": 413,
    "\u25810x402": 414,
    "b4": 415,
    "0x4": 416,
    "53": 417,
    "e8": 418,
    "e1": 419,
    "by": 420,
    "msv": 421,
    "d4": 422,
    "f3": 423,
    "next": 424,
    "\u2581g": 425,
    "error": 426,
    "159": 427,
    "addr": 428,
    "ary": 429,
    "\u25810xfeee001": 430,
    "f2": 431,
    "\u25810xffff": 432,
    "leti": 433,
    "libr": 434,
    "library": 435,
    "77": 436,
    "msvc": 437,
    "63": 438,
    "rent": 439,
    "\u25810xc000": 440,
    "\u25810xffffff": 441,
    "lator": 442,
    "emulator": 443,
    "esspeakeasy": 444,
    "36eg": 445,
    "159py": 446,
    "36eggs": 447,
    "159py36eggs": 448,
    "159py36eggspeakeasy": 449,
    "esspeakeasyemulator": 450,
    "esspeakeasyemulator159py36eggspeakeasy": 451,
    "urrent": 452,
    "56": 453,
    "atus": 454,
    "\u2581eb": 455,
    "9b": 456,
    "pinfo": 457,
    "free": 458,
    "char": 459,
    "\u2581user32char": 460,
    "a4": 461,
    "localein": 462,
    "msvcrt": 463,
    "pen": 464,
    "e6": 465,
    "92": 466,
    "0x400000": 467,
    "\u2581user32charnext": 468,
    "\u2581es": 469,
    "f1": 470,
    "con": 471,
    "\u2581cwindow": 472,
    "time": 473,
    "ize": 474,
    "\u2581sel": 475,
    "f5": 476,
    "\u2581api": 477,
    "om": 478,
    "f7": 479,
    "loadlibrary": 480,
    "fb": 481,
    "thread": 482,
    "mus": 483,
    "\u2581set": 484,
    "\u2581kernel32getlocalein": 485,
    "3b": 486,
    "able": 487,
    "icor": 488,
    "unicor": 489,
    "status": 490,
    "\u25810x40d": 491,
    "ual": 492,
    "lock": 493,
    "virt": 494,
    "62": 495,
    "a1": 496,
    "virtual": 497,
    "code": 498,
    "57": 499,
    "67": 500,
    "\u25810x0040": 501,
    "a2": 502,
    "9000": 503,
    "has": 504,
    "\u2581msvcrt": 505,
    "\u25810x78000000": 506,
    "97": 507,
    "\u2581start": 508,
    "ke": 509,
    "comp": 510,
    "\u25810x47": 511,
    "fow": 512,
    "9e": 513,
    "\u25810x410": 514,
    "\u2581create": 515,
    "\u2581emus": 516,
    "lee": 517,
    "\u2581emumodule": 518,
    "ath": 519,
    "\u25810x1211f": 520,
    "so": 521,
    "b7": 522,
    "\u2581kernel32getcpinfo": 523,
    "\u25810x4c": 524,
    "51": 525,
    "9d": 526,
    "\u25810x412": 527,
    "\u25810x4010": 528,
    "\u2581re": 529,
    "af": 530,
    "\u2581kernel32dll": 531,
    "byte": 532,
    "3e": 533,
    "key": 534,
    "system": 535,
    "\u25810x80": 536,
    "ans": 537,
    "c0": 538,
    "3a": 539,
    "\u2581mem": 540,
    "ol": 541,
    "trans": 542,
    "vapi": 543,
    "5b": 544,
    "\u25810x90": 545,
    "8a": 546,
    "\u25810xf00": 547,
    "cep": 548,
    "\u25810x1211c": 549,
    "size": 550,
    "6b": 551,
    "6d": 552,
    "lient": 553,
    "\u25810x4b2": 554,
    "atom": 555,
    "map": 556,
    "3d": 557,
    "\u2581user32d": 558,
    "\u25810x401284": 559,
    "\u25810x243948c": 560,
    "\u2581kernel32getcpinfoexw": 561,
    "table": 562,
    "que": 563,
    "action": 564,
    "fce": 565,
    "queue": 566,
    "\u25810x401298": 567,
    "\u2581kernel32init": 568,
    "rec": 569,
    "letion": 570,
    "\u25810x4012b2": 571,
    "dcomp": 572,
    "queuedcomp": 573,
    "letionstatus": 574,
    "queuedcompletionstatus": 575,
    "transaction": 576,
    "\u2581user32ddec": 577,
    "\u25810x4012d1": 578,
    "lienttransaction": 579,
    "\u2581kernel32getqueuedcompletionstatus": 580,
    "atomtable": 581,
    "\u25810x2439480": 582,
    "\u25810x2439484": 583,
    "\u25810x2439488": 584,
    "\u2581kernel32initatomtable": 585,
    "\u2581user32ddeclienttransaction": 586,
    "wa": 587,
    "\u25810x4b8": 588,
    "8b": 589,
    "5f": 590,
    "\u2581user32loadstringw": 591,
    "39": 592,
    "41": 593,
    "\u25810xfeee002": 594,
    "\u2581error": 595,
    "5a": 596,
    "\u2581type": 597,
    "7d": 598,
    "\u2581kernel32getst": 599,
    "na": 600,
    "\u25810x4b8fce": 601,
    "handlew": 602,
    "81": 603,
    "mic": 604,
    "xcep": 605,
    "ut": 606,
    "xception": 607,
    "4c": 608,
    "\u25810xfeedf": 609,
    "fbe": 610,
    "unicorn": 611,
    "\u2581sp0x0": 612,
    "86": 613,
    "for": 614,
    "var": 615,
    "\u25810x1210": 616,
    "es": 617,
    "5e": 618,
    "\u25810x4690": 619,
    "unc": 620,
    "\u2581kernel32c": 621,
    "\u25810x41d": 622,
    "terlock": 623,
    "ect": 624,
    "\u25810x0000000": 625,
    "args": 626,
    "\u25810xa": 627,
    "\u25810x4b2fbe": 628,
    "b1": 629,
    "ck": 630,
    "ip": 631,
    "ers": 632,
    "terlocked": 633,
    "tick": 634,
    "tickcount": 635,
    "\u2581ap": 636,
    "fil": 637,
    "\u2581kernel32getmodulehandlew": 638,
    "\u25810x4030": 639,
    "rg": 640,
    "\u25810xffffffff": 641,
    "\u25810x7e": 642,
    "rement": 643,
    "qu": 644,
    "vent": 645,
    "\u2581kernel32heapsize": 646,
    "55": 647,
    "cmp": 648,
    "memwrite": 649,
    "\u2581kernel32loadlibrary": 650,
    "hash": 651,
    "\u2581selfe": 652,
    "\u2581emust": 653,
    "\u2581apis": 654,
    "yna": 655,
    "ynamic": 656,
    "\u2581dynamic": 657,
    "\u2581kernel32heapfree": 658,
    "\u2581open": 659,
    "\u2581kernel32virtual": 660,
    "ments": 661,
    "codes": 662,
    "codeseg": 663,
    "codesegments": 664,
    "\u2581dynamiccodesegments": 665,
    "\u2581eptype": 666,
    "\u2581startaddr": 667,
    "\u2581epargs": 668,
    "7e": 669,
    "\u2581apihash": 670,
    "99": 671,
    "\u25810x406": 672,
    "\u25810xfeee004": 673,
    "\u25810x88": 674,
    "\u25810x404": 675,
    "\u25810x408": 676,
    "1e": 677,
    "\u25810x414": 678,
    "\u25810x526": 679,
    "\u25810x422": 680,
    "se": 681,
    "\u2581dat": 682,
    "\u2581kernel32interlocked": 683,
    "\u25810x40e": 684,
    "6e": 685,
    "valid": 686,
    "5000": 687,
    "stemp": 688,
    "\u25810x70c": 689,
    "1d": 690,
    "\u25810x78c": 691,
    "\u2581ea": 692,
    "\u2581eax": 693,
    "try": 694,
    "\u2581kernel32gettickcount": 695,
    "lss": 696,
    "lssetvalue": 697,
    "trac": 698,
    "urn": 699,
    "eturn": 700,
    "\u2581kernel32getlocaleinfow": 701,
    "\u2581kernel32getcurrent": 702,
    "a7": 703,
    "9f": 704,
    "66": 705,
    "\u2581en": 706,
    "82": 707,
    "aaaaaaaaaaaaaaaa": 708,
    "ystem": 709,
    "writ": 710,
    "\u25810x411": 711,
    "mul": 712,
    "\u2581add": 713,
    "lsalloc": 714,
    "\u2581path": 715,
    "\u25810x70cc": 716,
    "\u25810x417": 717,
    "\u25810x78c00000": 718,
    "\u25810x00000001": 719,
    "\u25810xfeee0004": 720,
    "\u2581user32charnextw": 721,
    "\u25810x4078": 722,
    "\u2581selfemu": 723,
    "\u2581emustack": 724,
    "\u2581emustack0x": 725,
    "\u2581emumodu": 726,
    "37": 727,
    "3f": 728,
    "\u2581ebp": 729,
    "bf": 730,
    "3000": 731,
    "\u25810x407": 732,
    "\u25810x4194": 733,
    "\u2581ebx": 734,
    "ist": 735,
    "ystem32": 736,
    "\u2581edi": 737,
    "ssystem32": 738,
    "\u2581esp": 739,
    "\u25810x67": 740,
    "writen": 741,
    "\u2581memwriten": 742,
    "eex": 743,
    "\u2581cwindowssystem32": 744,
    "\u25810x407c": 745,
    "\u2581return": 746,
    "ename": 747,
    "dx": 748,
    "db": 749,
    "\u25810x4000": 750,
    "mm": 751,
    "35": 752,
    "ad0": 753,
    "\u2581emustack0x12": 754,
    "multi": 755,
    "\u2581emustack0x1200000": 756,
    "c2": 757,
    "idec": 758,
    "current": 759,
    "idech": 760,
    "60e": 761,
    "ecx": 762,
    "\u2581edx": 763,
    "\u25810x4020": 764,
    "ery": 765,
    "\u2581ecx": 766,
    "d2": 767,
    "query": 768,
    "\u2581instr": 769,
    "\u2581address": 770,
    "6a": 771,
    "e10000": 772,
    "\u25810x77e10000": 773,
    "\u25810x401a": 774,
    "\u2581esi": 775,
    "\u2581trac": 776,
    "\u25810xfeee0002": 777,
    "eback": 778,
    "\u2581traceback": 779,
    "\u2581user32loadstringa": 780,
    "da": 781,
    "\u2581user32charnexta": 782,
    "handlea": 783,
    "direc": 784,
    "lose": 785,
    "\u2581invalid": 786,
    "\u25810x20": 787,
    "\u2581eip": 788,
    "\u2581uc": 789,
    "\u25810x79": 790,
    "eric": 791,
    "\u25810x7d90": 792,
    "ool": 793,
    "\u25810x5f8": 794,
    "tx": 795,
    "\u2581msvcrtmem": 796,
    "\u2581cwindowstemp": 797,
    "\u25810x409": 798,
    "inc": 799,
    "\u25810x5f800000": 800,
    "dbc": 801,
    "ef0": 802,
    "ntry": 803,
    "leentry": 804,
    "increment": 805,
    "\u2581modu": 806,
    "\u2581moduleentry": 807,
    "\u2581msvcrtmemcmp": 808,
    "\u2581gen": 809,
    "artu": 810,
    "\u25810x70": 811,
    "\u25810x41f0": 812,
    "\u2581generic": 813,
    "user": 814,
    "\u25810xfeee0000": 815,
    "\u2581reg": 816,
    "director": 817,
    "762": 818,
    "d3": 819,
    "filea": 820,
    "\u25810x401afd": 821,
    "\u25810x41f040": 822,
    "ae": 823,
    "lead": 824,
    "\u2581var": 825,
    "\u2581event": 826,
    "a6": 827,
    "slead": 828,
    "dbcslead": 829,
    "c8": 830,
    "dbcsleadbyte": 831,
    "\u25810x67ce": 832,
    "\u2581kernel32isdbcsleadbyte": 833,
    "vers": 834,
    "filet": 835,
    "filetype": 836,
    "filew": 837,
    "\u25810x4093": 838,
    "reat": 839,
    "versi": 840,
    "ron": 841,
    "foa": 842,
    "\u2581kernel32interlockedincrement": 843,
    "viron": 844,
    "73": 845,
    "c4": 846,
    "\u25810xfeee0003": 847,
    "\u2581emumodulea": 848,
    "vironment": 849,
    "filename": 850,
    "\u2581kernel32getmodulehandlea": 851,
    "environment": 852,
    "\u25810x41b": 853,
    "f9": 854,
    "22": 855,
    "\u25810x7de": 856,
    "dhandle": 857,
    "ul": 858,
    "\u25810x40a60e": 859,
    "\u2581w": 860,
    "\u2581ad": 861,
    "\u2581cal": 862,
    "bu": 863,
    "tex": 864,
    "\u25810x67ce76": 865,
    "func": 866,
    "\u25810x54": 867,
    "eco": 868,
    "fla": 869,
    "windows": 870,
    "170": 871,
    "\u2581mo": 872,
    "\u25810x4059": 873,
    "winen": 874,
    "winenvapi": 875,
    "esspeakeasyemulator159py36eggspeakeasywinenvapi": 876,
    "ead": 877,
    "\u2581regs": 878,
    "\u2581sh": 879,
    "\u2581kernel32getfiletype": 880,
    "flags": 881,
    "\u2581kernel32getlocaleinfoa": 882,
    "\u25810x4b": 883,
    "cess": 884,
    "46": 885,
    "vapi32": 886,
    "\u2581advapi32": 887,
    "eng": 888,
    "\u25810x4e4": 889,
    "b6": 890,
    "\u25810x18": 891,
    "f000": 892,
    "\u2581datan": 893,
    "memwriteaddr": 894,
    "e2": 895,
    "19": 896,
    "sour": 897,
    "12000": 898,
    "1b": 899,
    "\u25810xfeedf170": 900,
    "\u2581len": 901,
    "threadid": 902,
    "\u25810x48": 903,
    "\u25810x8ad0": 904,
    "33": 905,
    "readpool": 906,
    "\u25810xfeee0005": 907,
    "\u2581kernel32getstartu": 908,
    "\u2581stack": 909,
    "form": 910,
    "27": 911,
    "\u25810x7ec": 912,
    "\u2581h": 913,
    "mess": 914,
    "\u25810x4610": 915,
    "48": 916,
    "\u25810x40cd": 917,
    "messag": 918,
    "ng": 919,
    "ings": 920,
    "\u2581emumodulearg": 921,
    "strings": 922,
    "\u2581kernel32loadlibrarya": 923,
    "\u2581pag": 924,
    "\u2581kernel32virtualalloc": 925,
    "\u25810x40c8": 926,
    "fileti": 927,
    "\u25810x41de": 928,
    "\u25810x7700": 929,
    "unicornunicorn": 930,
    "\u2581kernel32getstdhandle": 931,
    "bd": 932,
    "\u2581sp0x00": 933,
    "\u25810x416": 934,
    "\u2581sp0x04": 935,
    "losehandle": 936,
    "75": 937,
    "\u2581sp0x08": 938,
    "\u25810x7712": 939,
    "\u2581sp0x0c": 940,
    "b3": 941,
    "\u25810x41c": 942,
    "\u2581sp0x10": 943,
    "eadwrite": 944,
    "16": 945,
    "\u2581encodepointer": 946,
    "ft": 947,
    "um": 948,
    "79": 949,
    "df0": 950,
    "\u25810x7c": 951,
    "2e": 952,
    "8e": 953,
    "\u2581creat": 954,
    "b5": 955,
    "\u25810x800": 956,
    "directory": 957,
    "\u2581loadlibrary": 958,
    "\u2581t": 959,
    "last": 960,
    "\u25810x3f": 961,
    "ccess": 962,
    "lete": 963,
    "\u2581kernel32create": 964,
    "\u25810x120": 965,
    "65": 966,
    "\u25810x7710": 967,
    "\u25810x9": 968,
    "\u2581last": 969,
    "\u25810x7711": 970,
    "res": 971,
    "ord": 972,
    "47": 973,
    "per": 974,
    "\u25810x42a": 975,
    "\u25810x403": 976,
    "\u25810x8a": 977,
    "comm": 978,
    "17": 979,
    "\u25810x004": 980,
    "ory": 981,
    "ba": 982,
    "\u2581kernel32getcurrentthreadid": 983,
    "\u25810x01211f": 984,
    "\u2581of": 985,
    "urs": 986,
    "x0": 987,
    "\u25810x104": 988,
    "\u2581de": 989,
    "\u25810x01212000": 990,
    "\u25810x42d": 991,
    "filetime": 992,
    "83": 993,
    "ind": 994,
    "\u25810x419a": 995,
    "ult": 996,
    "mswin": 997,
    "reg": 998,
    "up": 999,
    "open": 1000,
    "4a": 1001,
    "defa": 1002,
    "\u2581sp0x14": 1003,
    "path": 1004,
    "command": 1005,
    "stringsw": 1006,
    "commandl": 1007,
    "\u25810x8c": 1008,
    "default": 1009,
    "87": 1010,
    "bb": 1011,
    "\u2581apimswin": 1012,
    "\u2581user32get": 1013,
    "4e": 1014,
    "ursor": 1015,
    "\u25810x40318a": 1016,
    "cursor": 1017,
    "e87": 1018,
    "leep": 1019,
    "\u25810x74": 1020,
    "\u25810xfeee0": 1021,
    "\u25810xfeedf0": 1022,
    "\u25810x419a63": 1023,
    "\u25810x42a0": 1024,
    "\u25810x75": 1025,
    "526": 1026,
    "\u25810x1211e": 1027,
    "1000": 1028,
    "\u25810x417a": 1029,
    "69": 1030,
    "lstr": 1031,
    "dexception": 1032,
    "b9": 1033,
    "handledexception": 1034,
    "og": 1035,
    "\u25810x400": 1036,
    "\u2581read": 1037,
    "processor": 1038,
    "lob": 1039,
    "\u25810x4600": 1040,
    "eth": 1041,
    "\u25810x407840": 1042,
    "ecu": 1043,
    "\u2581arg": 1044,
    "\u2581sp0x18": 1045,
    "core": 1046,
    "\u25810x420": 1047,
    "icon": 1048,
    "\u25810x50e87": 1049,
    "iv": 1050,
    "580": 1051,
    "\u2581count": 1052,
    "environmentstringsw": 1053,
    "\u25810x4259": 1054,
    "localalloc": 1055,
    "\u2581func": 1056,
    "\u25810x1c": 1057,
    "\u2581nt": 1058,
    "\u2581ctx": 1059,
    "fcc": 1060,
    "ped": 1061,
    "uction": 1062,
    "int": 1063,
    "\u2581kernel32closehandle": 1064,
    "8d": 1065,
    "\u25810x7b": 1066,
    "arto": 1067,
    "e5": 1068,
    "multibyte": 1069,
    "idecharto": 1070,
    "idechartomultibyte": 1071,
    "\u25810x73": 1072,
    "temp": 1073,
    "\u25810x72": 1074,
    "resour": 1075,
    "out": 1076,
    "esspeakeasyemulator159py36eggspeakeasywindows": 1077,
    "emupy": 1078,
    "winemupy": 1079,
    "esspeakeasyemulator159py36eggspeakeasywindowswinemupy": 1080,
    "\u2581sp0x1c": 1081,
    "\u25810x000040": 1082,
    "\u2581sp0x20": 1083,
    "\u25810x4011": 1084,
    "rch": 1085,
    "\u2581kernel32getsystem": 1086,
    "\u25810x9000": 1087,
    "\u25810x425995": 1088,
    "\u2581getcurrent": 1089,
    "unmap": 1090,
    "pinfow": 1091,
    "1a": 1092,
    "\u25810x40a5d": 1093,
    "0x40": 1094,
    "earch": 1095,
    "\u2581argv": 1096,
    "lapi": 1097,
    "funcn": 1098,
    "\u25810xfeee0006": 1099,
    "\u25810xcd": 1100,
    "tu": 1101,
    "search": 1102,
    "\u2581rec": 1103,
    "\u2581kernel32getprocess": 1104,
    "apipy": 1105,
    "cc": 1106,
    "\u2581sp0x24": 1107,
    "44": 1108,
    "\u2581genericread": 1109,
    "\u2581sp0x28": 1110,
    "\u2581sp0x2c": 1111,
    "\u2581ob": 1112,
    "queryper": 1113,
    "forman": 1114,
    "\u2581sp0x30": 1115,
    "\u25810x40aa": 1116,
    "queryperforman": 1117,
    "\u2581sp0x34": 1118,
    "beg": 1119,
    "\u25810x71": 1120,
    "\u25810x421": 1121,
    "\u25810x76": 1122,
    "filenamew": 1123,
    "8f": 1124,
    "\u2581sp0x38": 1125,
    "ab0": 1126,
    "eexecu": 1127,
    "unter": 1128,
    "\u2581kernel32getversi": 1129,
    "\u2581sp0x3c": 1130,
    "ca": 1131,
    "vari": 1132,
    "led": 1133,
    "\u2581kernel32getprocessheap": 1134,
    "struction": 1135,
    "instruction": 1136,
    "ftwa": 1137,
    "\u2581has": 1138,
    "\u2581call": 1139,
    "\u2581hkey": 1140,
    "sa": 1141,
    "\u25810x200": 1142,
    "\u2581apimswincore": 1143,
    "\u2581selfemumemwriteaddr": 1144,
    "begin": 1145,
    "iled": 1146,
    "mode": 1147,
    "\u25810x4af": 1148,
    "\u2581int": 1149,
    "\u25810x00408": 1150,
    "err": 1151,
    "\u25810x40a5": 1152,
    "\u25810x01211ef0": 1153,
    "timen": 1154,
    "ob": 1155,
    "ceco": 1156,
    "cecounter": 1157,
    "queryperformancecounter": 1158,
    "3de": 1159,
    "\u2581dis": 1160,
    "\u25810x0526": 1161,
    "\u25810xfeedf078": 1162,
    "7f": 1163,
    "\u2581kernel32localalloc": 1164,
    "a5": 1165,
    "system32": 1166,
    "\u2581loadlibrarysearch": 1167,
    "\u2581loadlibrarysearchsystem32": 1168,
    "\u2581gdi": 1169,
    "\u2581kernel32loadlibraryexw": 1170,
    "wait": 1171,
    "\u25810x4100": 1172,
    "eexecuter": 1173,
    "\u2581pageexecuter": 1174,
    "pres": 1175,
    "present": 1176,
    "\u2581pageexecutereadwrite": 1177,
    "a3": 1178,
    "\u25810x40ad": 1179,
    "\u2581kernel32getstartupinfow": 1180,
    "e9": 1181,
    "handl": 1182,
    "\u25810x442": 1183,
    "fea": 1184,
    "120": 1185,
    "sel": 1186,
    "\u25810xf001": 1187,
    "\u2581most": 1188,
    "\u2581kernel32w": 1189,
    "\u2581recent": 1190,
    "\u2581lastn": 1191,
    "\u2581kernel32widechartomultibyte": 1192,
    "bo": 1193,
    "\u25810x7000": 1194,
    "\u25810x41e6": 1195,
    "\u2581memory": 1196,
    "\u25810x41ac": 1197,
    "\u2581ope": 1198,
    "725": 1199,
    "engine": 1200,
    "neng": 1201,
    "nengpy": 1202,
    "engines": 1203,
    "unicornengpy": 1204,
    "enginesunicornengpy": 1205,
    "esspeakeasyemulator159py36eggspeakeasyenginesunicornengpy": 1206,
    "esunicornunicorn": 1207,
    "esunicornunicornpy": 1208,
    "\u2581usrlocallibpython36sitepackagesunicornunicornpy": 1209,
    "\u25810x7f": 1210,
    "\u25810x40d1": 1211,
    "85": 1212,
    "truc": 1213,
    "e3": 1214,
    "6f": 1215,
    "4b": 1216,
    "\u2581user32loadcursor": 1217,
    "\u2581regis": 1218,
    "create": 1219,
    "\u25810xf002": 1220,
    "text": 1221,
    "ila": 1222,
    "\u25810x429": 1223,
    "d5": 1224,
    "aaaaaaaaaaaaaaaaaaaaaaaaaaaaaaaa": 1225,
    "\u2581gdi32": 1226,
    "tim": 1227,
    "\u25810x405e": 1228,
    "\u25810xfeee0007": 1229,
    "\u25810x7d91": 1230,
    "\u2581access": 1231,
    "nexist": 1232,
    "forma": 1233,
    "\u2581ucerr": 1234,
    "timeas": 1235,
    "timeasfiletime": 1236,
    "formation": 1237,
    "ftware": 1238,
    "writefile": 1239,
    "e7": 1240,
    "nexisting": 1241,
    "\u2581openexisting": 1242,
    "information": 1243,
    "\u2581kernel32flssetvalue": 1244,
    "directoryw": 1245,
    "self": 1246,
    "c6": 1247,
    "unmapped": 1248,
    "byt": 1249,
    "\u2581emustruc": 1250,
    "\u2581kernel32queryperformancecounter": 1251,
    "ble": 1252,
    "\u2581size": 1253,
    "\u25810x40aa1e": 1254,
    "\u25810x1211c98": 1255,
    "lobal": 1256,
    "\u2581emustructe": 1257,
    "\u25810x4c42": 1258,
    "\u25810x000000": 1259,
    "\u25810x40f": 1260,
    "idechar": 1261,
    "\u25810xf003": 1262,
    "etow": 1263,
    "bytetow": 1264,
    "multibytetow": 1265,
    "multibytetowidechar": 1266,
    "dr": 1267,
    "d6": 1268,
    "\u2581emustructexception": 1269,
    "\u2581ex": 1270,
    "8c4": 1271,
    "45": 1272,
    "\u25810x4af762": 1273,
    "\u2581pr": 1274,
    "\u2581go": 1275,
    "\u2581kernel32lstr": 1276,
    "\u25810x8810": 1277,
    "\u2581goog": 1278,
    "ture": 1279,
    "aw": 1280,
    "ition": 1281,
    "dition": 1282,
    "ys": 1283,
    "ock": 1284,
    "08": 1285,
    "processid": 1286,
    "13": 1287,
    "failed": 1288,
    "\u2581is": 1289,
    "\u25810x4226": 1290,
    "\u25810x4195": 1291,
    "\u25810x5d": 1292,
    "\u2581flssetvalue": 1293,
    "\u25810x41ac6d": 1294,
    "\u25810x50b": 1295,
    "\u2581flsalloc": 1296,
    "\u2581data": 1297,
    "a9": 1298,
    "\u2581getmodule": 1299,
    "conso": 1300,
    "info": 1301,
    "ew": 1302,
    "\u25810x3000": 1303,
    "\u25810x42c": 1304,
    "timer": 1305,
    "\u25810x413": 1306,
    "resource": 1307,
    "feature": 1308,
    "featurepresent": 1309,
    "processorfeaturepresent": 1310,
    "tri": 1311,
    "\u2581kernel32getcommandl": 1312,
    "888": 1313,
    "\u25810x40c6": 1314,
    "d000": 1315,
    "\u2581kernel32flsalloc": 1316,
    "2b": 1317,
    "\u25810xb": 1318,
    "\u2581decodepointer": 1319,
    "ush": 1320,
    "d7": 1321,
    "\u25810x7a": 1322,
    "\u25810x4fe": 1323,
    "name": 1324,
    "\u25810x14": 1325,
    "\u25810x8d": 1326,
    "\u2581initializecriticalsectio": 1327,
    "\u25810x69": 1328,
    "\u25810x405e52": 1329,
    "onex": 1330,
    "\u25810x5265c": 1331,
    "\u2581startn": 1332,
    "timeout": 1333,
    "exa": 1334,
    "ity": 1335,
    "\u25810x5725": 1336,
    "\u25810x5725bc": 1337,
    "ot": 1338,
    "cmap": 1339,
    "cmapstring": 1340,
    "\u25810x5c": 1341,
    "\u25810x430": 1342,
    "\u2581openflags": 1343,
    "4000": 1344,
    "lass": 1345,
    "\u25810x41dd": 1346,
    "\u2581accessflags": 1347,
    "openkey": 1348,
    "sc": 1349,
    "ec8": 1350,
    "decrement": 1351,
    "\u25810x423": 1352,
    "959": 1353,
    "of": 1354,
    "\u25810x4e": 1355,
    "\u25810xfeedf000": 1356,
    "\u25814": 1357,
    "vice": 1358,
    "filter": 1359,
    "unhandledexception": 1360,
    "unhandledexceptionfilter": 1361,
    "rom": 1362,
    "\u2581kernel32s": 1363,
    "\u2581clo": 1364,
    "\u2581kernel32multibytetowidechar": 1365,
    "\u2581kernel32sleep": 1366,
    "\u2581ptr": 1367,
    "console": 1368,
    "fx": 1369,
    "fc8": 1370,
    "\u25810x431": 1371,
    "max": 1372,
    "dde": 1373,
    "89": 1374,
    "lor": 1375,
    "\u25811": 1376,
    "\u2581out": 1377,
    "\u2581genericwrite": 1378,
    "\u25810x40d0": 1379,
    "b2ee": 1380,
    "\u25810x7c000000": 1381,
    "ver": 1382,
    "readpooltimer": 1383,
    "\u25810x8068": 1384,
    "print": 1385,
    "\u25810x40f7": 1386,
    "203": 1387,
    "\u25810x7de0": 1388,
    "\u25810x42a086": 1389,
    "olf": 1390,
    "asm": 1391,
    "ro": 1392,
    "\u25810x52": 1393,
    "\u2581disasm": 1394,
    "\u2581disasmfailed": 1395,
    "ort": 1396,
    "\u25810x49": 1397,
    "\u2581kernel32getsystemtimeasfiletime": 1398,
    "color": 1399,
    "\u2581global": 1400,
    "726": 1401,
    "ser": 1402,
    "\u25810x56": 1403,
    "\u25810x47b0": 1404,
    "\u25810": 1405,
    "\u2581m": 1406,
    "\u2581kernel32getcurrentprocessid": 1407,
    "804": 1408,
    "500": 1409,
    "\u2581kernel32isprocessorfeaturepresent": 1410,
    "d9": 1411,
    "\u25810x40b6": 1412,
    "\u25810x8000": 1413,
    "\u25810x69000000": 1414,
    "8b5": 1415,
    "ap": 1416,
    "\u2581virtual": 1417,
    "buff": 1418,
    "\u25810x7ec0": 1419,
    "variable": 1420,
    "437": 1421,
    "\u25810x770c": 1422,
    "\u25810x7702": 1423,
    "\u2581shel": 1424,
    "306": 1425,
    "\u25810x428": 1426,
    "\u2581gdi32get": 1427,
    "\u25810x4a": 1428,
    "\u25810x42a1": 1429,
    "004": 1430,
    "condition": 1431,
    "\u25810x437": 1432,
    "fd4": 1433,
    "eaa": 1434,
    "312": 1435,
    "\u2581cwindowstempg": 1436,
    "508": 1437,
    "\u25810x407c1d": 1438,
    "l11": 1439,
    "\u2581cwindowstempgolf": 1440,
    "\u2581kernel32gettemp": 1441,
    "b74": 1442,
    "\u25810x30": 1443,
    "\u25810x436": 1444,
    "91f": 1445,
    "\u2581find": 1446,
    "\u25810x7f00": 1447,
    "\u2581kernel32createfilew": 1448,
    "\u25810x407b": 1449,
    "urity": 1450,
    "security": 1451,
    "c1": 1452,
    "29": 1453,
    "\u25810x4f": 1454,
    "met": 1455,
    "\u2581heap": 1456,
    "\u25810x01211e": 1457,
    "\u2581kernel32interlockeddecrement": 1458,
    "va": 1459,
    "threadex": 1460,
    "\u25810x419": 1461,
    "beginthreadex": 1462,
    "alwa": 1463,
    "\u2581msvcrtbeginthreadex": 1464,
    "always": 1465,
    "\u25810x409a": 1466,
    "dat": 1467,
    "\u2581kernel32writefile": 1468,
    "\u2581flsgetvalue": 1469,
    "\u25810x41d4": 1470,
    "\u25810x7e70": 1471,
    "section": 1472,
    "vaila": 1473,
    "vailable": 1474,
    "\u25810x4113de": 1475,
    "\u2581i": 1476,
    "tes": 1477,
    "\u2581free": 1478,
    "15": 1479,
    "12c": 1480,
    "pathw": 1481,
    "\u25810x41e91f": 1482,
    "\u25810x41e8c4": 1483,
    "\u2581exception": 1484,
    "\u2581initializecriticalsectionex": 1485,
    "\u25810x418": 1486,
    "\u25810x41e762": 1487,
    "\u2581createth": 1488,
    "\u25810x41a": 1489,
    "eexw": 1490,
    "\u25810x41e8b5": 1491,
    "\u25810x470": 1492,
    "\u2581kernel32virtualquery": 1493,
    "\u25810x1211ef0": 1494,
    "filepointer": 1495,
    "\u2581co": 1496,
    "\u25810xe": 1497,
    "mmi": 1498,
    "\u25810x1210e": 1499,
    "98b": 1500,
    "from": 1501,
    "savailable": 1502,
    "instructionsavailable": 1503,
    "\u2581pfx": 1504,
    "mmi64": 1505,
    "\u2581pfxmmi64": 1506,
    "\u2581pfxmmi64instructionsavailable": 1507,
    "etch": 1508,
    "boar": 1509,
    "mg": 1510,
    "ais": 1511,
    "\u2581user32loadcursorw": 1512,
    "messagea": 1513,
    "\u2581self": 1514,
    "cl": 1515,
    "letemp": 1516,
    "\u2581googletemp": 1517,
    "\u2581kernel32getmodulefilenamew": 1518,
    "\u2581user32loadicon": 1519,
    "inew": 1520,
    "9c0": 1521,
    "\u2581kernel32getversionex": 1522,
    "40a": 1523,
    "\u2581rv": 1524,
    "164": 1525,
    "\u2581advapi32reg": 1526,
    "aaa": 1527,
    "\u25810x7810": 1528,
    "filenamea": 1529,
    "tribu": 1530,
    "\u2581th": 1531,
    "handler": 1532,
    "\u2581register": 1533,
    "\u25810x41f2": 1534,
    "21": 1535,
    "mag": 1536,
    "\u2581ucerrread": 1537,
    "\u2581ucerrreadunmapped": 1538,
    "lb": 1539,
    "\u25810x4088": 1540,
    "244": 1541,
    "106": 1542,
    "\u25810x4ab0": 1543,
    "\u2581getsystem": 1544,
    "880": 1545,
    "\u2581kernel32l": 1546,
    "\u25810x414a": 1547,
    "\u25810x40d5": 1548,
    "ttribu": 1549,
    "pinfoa": 1550,
    "53a": 1551,
    "\u258111": 1552,
    "list": 1553,
    "\u2581so": 1554,
    "\u2581load": 1555,
    "\u25810x40c9": 1556,
    "ce6": 1557,
    "318": 1558,
    "b8d": 1559,
    "\u2581b": 1560,
    "\u25810x1211c18": 1561,
    "9c2": 1562,
    "\u2581rais": 1563,
    "76e": 1564,
    "\u2581proc": 1565,
    "\u25810x120e6": 1566,
    "ive": 1567,
    "2d": 1568,
    "len": 1569,
    "a000": 1570,
    "\u25810x4193": 1571,
    "ber": 1572,
    "\u2581ctxn": 1573,
    "\u2581handle": 1574,
    "1f": 1575,
    "f10000": 1576,
    "100": 1577,
    "fileattribu": 1578,
    "\u2581advapi32regopenkey": 1579,
    "inea": 1580,
    "\u25810x5f5": 1581,
    "\u25810xd": 1582,
    "\u25810x77f10000": 1583,
    "readpoolwait": 1584,
    "ctx": 1585,
    "locales": 1586,
    "62ee": 1587,
    "mgr": 1588,
    "ant": 1589,
    "to": 1590,
    "\u25810x5d62ee": 1591,
    "3c2": 1592,
    "mgrpy": 1593,
    "memmgrpy": 1594,
    "esspeakeasyemulator159py36eggspeakeasymemmgrpy": 1595,
    "\u25810x4670": 1596,
    "33b": 1597,
    "\u25810x435": 1598,
    "rst": 1599,
    "\u25810x40cb": 1600,
    "cb": 1601,
    "\u25810x424": 1602,
    "currentuser": 1603,
    "\u2581hkeycurrentuser": 1604,
    "\u25810x4195f3": 1605,
    "bers": 1606,
    "\u25810x1804": 1607,
    "\u2581crt": 1608,
    "\u25810x3f30": 1609,
    "tmp": 1610,
    "\u25810x42945d": 1611,
    "\u258177": 1612,
    "itprocess": 1613,
    "00c": 1614,
    "\u25810x43b": 1615,
    "\u25810x7ee": 1616,
    "men": 1617,
    "\u25810x42a2": 1618,
    "\u25810x401c": 1619,
    "imp": 1620,
    "b000": 1621,
    "fapi": 1622,
    "version": 1623,
    "import": 1624,
    "importfuncn": 1625,
    "\u2581handleimportfuncn": 1626,
    "syn": 1627,
    "\u25811168": 1628,
    "callapi": 1629,
    "funcmod": 1630,
    "\u2581selfapi": 1631,
    "callapifuncmod": 1632,
    "\u2581selfapicallapifuncmod": 1633,
    "ctxn": 1634,
    "defaultctxn": 1635,
    "\u2581ctxdefaultctxn": 1636,
    "winapipy": 1637,
    "esspeakeasyemulator159py36eggspeakeasywinenvapiwinapipy": 1638,
    "\u2581funcmod": 1639,
    "\u2581callapi": 1640,
    "\u2581callapifuncn": 1641,
    "usermode": 1642,
    "\u25810x40ad26": 1643,
    "esspeakeasyemulator159py36eggspeakeasywinenvapiusermode": 1644,
    "df00": 1645,
    "\u2581thread": 1646,
    "\u25810x01211fcc": 1647,
    "\u25810x4d": 1648,
    "inal": 1649,
    "25": 1650,
    "synch": 1651,
    "esspeakeasyemulator159py36eggspeakeasywinenvapiapipy": 1652,
    "l120": 1653,
    "printf": 1654,
    "synchl120": 1655,
    "\u25810xfeee0008": 1656,
    "sh": 1657,
    "\u2581googletempg": 1658,
    "\u2581167": 1659,
    "f35": 1660,
    "uch": 1661,
    "\u25810x40b726": 1662,
    "\u25810x5f500000": 1663,
    "8484": 1664,
    "\u2581244": 1665,
    "\u2581selfemueng": 1666,
    "\u2581selfemuengmemwriteaddr": 1667,
    "scr": 1668,
    "\u2581selfmemwrite": 1669,
    "9a54": 1670,
    "7000": 1671,
    "\u25810x44ed": 1672,
    "date": 1673,
    "\u2581apimswincoresynchl120": 1674,
    "360": 1675,
    "rw": 1676,
    "\u25810xfeee0014": 1677,
    "\u25810x7890": 1678,
    "\u25810x2a": 1679,
    "fc0": 1680,
    "\u2581software": 1681,
    "\u25810x004078": 1682,
    "callb": 1683,
    "callback": 1684,
    "\u25810x407c27": 1685,
    "\u2581kernel32getconsole": 1686,
    "ef": 1687,
    "msvcrtpy": 1688,
    "esspeakeasyemulator159py36eggspeakeasywinenvapiusermodemsvcrtpy": 1689,
    "\u2581imag": 1690,
    "\u25810xfeee01": 1691,
    "\u25810xfeee0010": 1692,
    "\u25810x40ce": 1693,
    "\u25810xfeee000c": 1694,
    "\u25810xfeee000e": 1695,
    "\u25810xfeee000d": 1696,
    "af9c": 1697,
    "lsfree": 1698,
    "\u25810x40d2": 1699,
    "\u25810xfeee000b": 1700,
    "\u25810x42153a": 1701,
    "\u25810xfeee000f": 1702,
    "\u25810xfeee0009": 1703,
    "\u25810xfeee0015": 1704,
    "\u25810xfeee0011": 1705,
    "\u25810xfeee0016": 1706,
    "\u25810xfeee0012": 1707,
    "\u25810xfeee000a": 1708,
    "\u25810xfeee0013": 1709,
    "inf": 1710,
    "\u25810x41f": 1711,
    "\u25810x8af0": 1712,
    "\u2581306": 1713,
    "vic": 1714,
    "\u25810x004081": 1715,
    "7471": 1716,
    "\u25810x4241": 1717,
    "c7": 1718,
    "b730": 1719,
    "\u25810x01211ef4": 1720,
    "dest": 1721,
    "\u25810x638": 1722,
    "\u2581timen": 1723,
    "b75d": 1724,
    "ce33b": 1725,
    "oini": 1726,
    "\u25810x01211ec8": 1727,
    "\u25810xa8": 1728,
    "infoini": 1729,
    "\u2581cwindowstempgolfinfoini": 1730,
    "\u25810x40785f": 1731,
    "5b959": 1732,
    "61b74": 1733,
    "\u2581580": 1734,
    "\u2581selfmemwritedest": 1735,
    "88840a": 1736,
    "9a54bf": 1737,
    "8484b8d": 1738,
    "af9cce6": 1739,
    "b73098b": 1740,
    "dde7471": 1741,
    "\u2581e5b959": 1742,
    "df00b75d": 1743,
    "88840a61b74": 1744,
    "8484b8dce33b": 1745,
    "b73098b9a54bf": 1746,
    "df00b75daf9cce6": 1747,
    "88840a61b74dde7471": 1748,
    "\u2581e5b9598484b8dce33b": 1749,
    "b73098b9a54bfdf00b75daf9cce6": 1750,
    "b73098b9a54bfdf00b75daf9cce688840a61b74dde7471": 1751,
    "312fc": 1752,
    "\u2581441": 1753,
    "\u2581status": 1754,
    "\u25810x00408000": 1755,
    "\u25810x0040786c": 1756,
    "\u25810x0040812c": 1757,
    "\u25810x004081b2": 1758,
    "\u25810x004312fc": 1759,
    "\u2581outtimen": 1760,
    "\u2581selfmemwritedesttime": 1761,
    "datan": 1762,
    "\u2581lenn": 1763,
    "\u2581ucuc": 1764,
    "selfuch": 1765,
    "datantype": 1766,
    "\u2581lendatantype": 1767,
    "\u2581ucucmemwrite": 1768,
    "\u2581lendatantypeerror": 1769,
    "\u2581ucucmemwriteselfuch": 1770,
    "\u25810x5265c14": 1771,
    "\u25810x4012ac": 1772,
    "ach": 1773,
    "\u25810x16": 1774,
    "\u25810x40b76e": 1775,
    "\u25810x4cf": 1776,
    "log": 1777,
    "80a": 1778,
    "\u25810x61": 1779,
    "6c0": 1780,
    "\u2581kernel32getstartupinfoa": 1781,
    "\u2581kernel32free": 1782,
    "23": 1783,
    "c5": 1784,
    "\u2581kernel32setunhandledexceptionfilter": 1785,
    "ical": 1786,
    "processlist": 1787,
    "\u2581kernel32getconsoleprocesslist": 1788,
    "\u25810x4015": 1789,
    "\u25810xfffffff6": 1790,
    "first": 1791,
    "\u25810x1211f38": 1792,
    "edc": 1793,
    "\u25810x13": 1794,
    "\u25810x32": 1795,
    "\u2581shell32": 1796,
    "\u25810xfeee0019": 1797,
    "\u2581ntdll": 1798,
    "lip": 1799,
    "\u2581getuser": 1800,
    "\u25810x41ddd8": 1801,
    "\u25810x4022": 1802,
    "\u25810x004012": 1803,
    "521": 1804,
    "\u25810xfeee0017": 1805,
    "\u25810xfeee0018": 1806,
    "\u25810x4378": 1807,
    "372": 1808,
    "218": 1809,
    "3c0": 1810,
    "a8a": 1811,
    "\u2581process": 1812,
    "ordinal": 1813,
    "129": 1814,
    "49": 1815,
    "\u2581exceptioncode": 1816,
    "\u2581registers": 1817,
    "\u2581handler": 1818,
    "\u2581handleraddress": 1819,
    "\u2581ws": 1820,
    "menu": 1821,
    "realloc": 1822,
    "\u25810x40b8": 1823,
    "\u25810x5cb2ee": 1824,
    "\u25810x6389c2": 1825,
    "\u25810x4198": 1826,
    "achine": 1827,
    "machine": 1828,
    "\u2581hkeylocal": 1829,
    "\u2581hkeylocalmachine": 1830,
    "lec": 1831,
    "vicec": 1832,
    "82f": 1833,
    "acp": 1834,
    "\u25810x36": 1835,
    "\u25810xfffffff5": 1836,
    "\u25810x4130": 1837,
    "sn": 1838,
    "regis": 1839,
    "lipboar": 1840,
    "scrip": 1841,
    "descrip": 1842,
    "net": 1843,
    "\u25810x4014": 1844,
    "\u25810xc000000": 1845,
    "\u25810x425": 1846,
    "\u2581vari": 1847,
    "\u25810xc0000005": 1848,
    "\u25810x220": 1849,
    "\u25810x3f2": 1850,
    "descriptor": 1851,
    "\u2581delete": 1852,
    "securitydescriptor": 1853,
    "\u25810x510": 1854,
    "context": 1855,
    "\u25810xfeee001c": 1856,
    "sys": 1857,
    "\u25810x40c6dc": 1858,
    "service": 1859,
    "\u25810x402a": 1860,
    "\u25810x4b94": 1861,
    "\u25810x8068d3": 1862,
    "\u2581raise": 1863,
    "\u2581openkey": 1864,
    "8000": 1865,
    "errorstatus": 1866,
    "ucerror": 1867,
    "errorstatusn": 1868,
    "\u2581ucerrorstatusn": 1869,
    "unicornunicornucerror": 1870,
    "\u2581ucerrorstatusnunicornunicornucerror": 1871,
    "fibers": 1872,
    "fibersl11": 1873,
    "view": 1874,
    "883": 1875,
    "\u25810xfeee001a": 1876,
    "\u25810x94": 1877,
    "\u2581kernel32getenvironmentstringsw": 1878,
    "\u2581mov": 1879,
    "\u25810x40c82f": 1880,
    "directorya": 1881,
    "rwlock": 1882,
    "8c0": 1883,
    "\u25810x7d0": 1884,
    "2f": 1885,
    "\u25810xfffffff4": 1886,
    "\u25810x4024": 1887,
    "53f": 1888,
    "\u25810x4026": 1889,
    "\u25810x44d4": 1890,
    "\u25810x4021": 1891,
    "9a0": 1892,
    "\u2581apimswincorefibersl11": 1893,
    "\u25810x40c372": 1894,
    "ho": 1895,
    "term": 1896,
    "\u25810x44edc2": 1897,
    "2a": 1898,
    "db10": 1899,
    "\u25810x4177": 1900,
    "\u2581sleep": 1901,
    "\u25810x53": 1902,
    "\u25810x402b": 1903,
    "9df": 1904,
    "\u25810x40c83e": 1905,
    "\u25810x11": 1906,
    "\u25810x40c899": 1907,
    "ies": 1908,
    "seth": 1909,
    "\u2581closeth": 1910,
    "\u25810xfeee001b": 1911,
    "\u25810x7708": 1912,
    "\u25810x7701": 1913,
    "\u2581kernel32freeenvironmentstringsw": 1914,
    "\u25810x4179": 1915,
    "syscolor": 1916,
    "\u25810x7718": 1917,
    "\u25810x7704": 1918,
    "dac": 1919,
    "\u25810x770e": 1920,
    "\u25810x01211fe": 1921,
    "\u25810x7714": 1922,
    "\u25810x51": 1923,
    "\u25810x7707": 1924,
    "\u25810x7717": 1925,
    "\u25810x60": 1926,
    "\u25810x409b": 1927,
    "\u25810x8a40": 1928,
    "\u25810x432": 1929,
    "\u2581setth": 1930,
    "eevent": 1931,
    "4f": 1932,
    "\u25810x1db10": 1933,
    "\u2581crtdl": 1934,
    "fileattributes": 1935,
    "\u25810x41e218": 1936,
    "\u25810x33": 1937,
    "\u2581kernel32getversion": 1938,
    "be0": 1939,
    "\u25810x1db10106": 1940,
    "\u25810x0042": 1941,
    "defaultdll": 1942,
    "directories": 1943,
    "defaultdlldirectories": 1944,
    "\u25810x4ac": 1945,
    "\u25810x405b": 1946,
    "\u2581crtdlls": 1947,
    "f50": 1948,
    "\u2581advapi32regopenkeyexw": 1949,
    "\u25810x50000": 1950,
    "\u25810x413a": 1951,
    "\u25810x40e3": 1952,
    "6000": 1953,
    "\u25810xfeedf004": 1954,
    "bc0": 1955,
    "\u25810x4054": 1956,
    "fd8": 1957,
    "\u25810x4120": 1958,
    "6c6": 1959,
    "\u25817": 1960,
    "cmapstringex": 1961,
    "fileattributesw": 1962,
    "\u25810x4224": 1963,
    "tl": 1964,
    "\u25810x742": 1965,
    "\u2581kernel32getcommandlinew": 1966,
    "record": 1967,
    "\u2581kernel32getcommandlinea": 1968,
    "c3": 1969,
    "802": 1970,
    "495": 1971,
    "\u2581emustructexceptionrecord": 1972,
    "b02": 1973,
    "\u2581emustructexceptioncontext": 1974,
    "\u25810x40f6": 1975,
    "\u2581apimswincorefibersl111": 1976,
    "\u2581kernel32gettemppathw": 1977,
    "\u25810x429e": 1978,
    "a20": 1979,
    "\u25810x1211c7c": 1980,
    "260": 1981,
    "\u2581byte": 1982,
    "end": 1983,
    "\u25810x51047": 1984,
    "must": 1985,
    "terclass": 1986,
    "\u2581pager": 1987,
    "\u2581pagereadwrite": 1988,
    "\u25810xfeee001d": 1989,
    "53b": 1990,
    "\u25810x41d5": 1991,
    "\u2581user32loadicona": 1992,
    "esour": 1993,
    "pa": 1994,
    "a256": 1995,
    "handledexceptions": 1996,
    "\u2581handledexceptions": 1997,
    "init": 1998,
    "e000": 1999,
    "613": 2000,
    "\u2581write": 2001,
    "\u2581rtl": 2002,
    "\u2581user32regis": 2003,
    "\u25810x1211dc": 2004,
    "b27": 2005,
    "artn": 2006,
    "\u2581flsfree": 2007,
    "nd": 2008,
    "day": 2009,
    "\u25810x4c42c0": 2010,
    "\u2581203": 2011,
    "elist": 2012,
    "\u2581imagelist": 2013,
    "\u2581kernel32tlssetvalue": 2014,
    "\u25810x40e0": 2015,
    "\u2581user32getsyscolor": 2016,
    "\u25810x96": 2017,
    "\u2581437": 2018,
    "selfmax": 2019,
    "instructionsn": 2020,
    "\u2581countselfmax": 2021,
    "\u2581countselfmaxinstructionsn": 2022,
    "mue": 2023,
    "artaddr": 2024,
    "muemust": 2025,
    "\u2581selfemuemust": 2026,
    "\u2581selfemuemustartaddr": 2027,
    "\u2581timeout": 2028,
    "countn": 2029,
    "\u2581countcountn": 2030,
    "\u2581timeouttimeout": 2031,
    "\u2581318": 2032,
    "initializ": 2033,
    "\u2581emustartn": 2034,
    "\u25810x414a67": 2035,
    "\u25810x4238": 2036,
    "leas": 2037,
    "\u2581variant": 2038,
    "exe": 2039,
    "software": 2040,
    "\u25810x1f": 2041,
    "\u2581filea": 2042,
    "\u2581fileaccess": 2043,
    "666": 2044,
    "\u2581initializ": 2045,
    "\u25810x80c": 2046,
    "\u25810x7910": 2047,
    "\u25810x7de1": 2048,
    "\u2581sha256": 2049,
    "viewof": 2050,
    "\u25810x34": 2051,
    "ink": 2052,
    "\u2581kernel32find": 2053,
    "\u25810x12117": 2054,
    "num": 2055,
    "\u25810x44c": 2056,
    "waitfor": 2057,
    "\u2581kernel32ver": 2058,
    "d70": 2059,
    "576": 2060,
    "\u2581not": 2061,
    "934": 2062,
    "\u25810x64": 2063,
    "\u2581freelibrary": 2064,
    "\u25810x405521": 2065,
    "\u25810x42d4": 2066,
    "\u25810x40a883": 2067,
    "c000": 2068,
    "\u25810x4028": 2069,
    "threadlocale": 2070,
    "\u25810xa0": 2071,
    "ric": 2072,
    "\u25810x44d4be": 2073,
    "\u25810x41f1": 2074,
    "\u25810x42e5": 2075,
    "\u25810x419817": 2076,
    "459": 2077,
    "ecount": 2078,
    "keyw": 2079,
    "\u25810x10c": 2080,
    "\u2581kernel32tlsalloc": 2081,
    "\u25810x4068": 2082,
    "3ba": 2083,
    "ork": 2084,
    "buffer": 2085,
    "\u2581kernel32getmodulefilenamea": 2086,
    "cf": 2087,
    "ac2": 2088,
    "age": 2089,
    "ace": 2090,
    "\u25810x12119": 2091,
    "\u25810x41de20": 2092,
    "metric": 2093,
    "handlecount": 2094,
    "\u2581kernel32heapcreate": 2095,
    "\u25810x8811": 2096,
    "\u2581wnet": 2097,
    "po": 2098,
    "\u2581buffer": 2099,
    "metrics": 2100,
    "atch": 2101,
    "dater": 2102,
    "updater": 2103,
    "\u25810x00004000": 2104,
    "\u25810x79f0": 2105,
    "\u25810x40b80a": 2106,
    "\u25810x429fc8": 2107,
    "68a": 2108,
    "aaaaaaaaaaaaaaaaaaaaaaaaaaaaaaaaaaaaaaaaaaaaaaaaaaaaaaaaaaaaaaaa": 2109,
    "\u2581kernel32setfilepointer": 2110,
    "\u25810x4350": 2111,
    "fc2": 2112,
    "\u25810xfeee001e": 2113,
    "\u25810x00004010": 2114,
    "\u2581process32": 2115,
    "orla": 2116,
    "d8a": 2117,
    "are": 2118,
    "\u25810x41e671": 2119,
    "\u25810x41e6c6": 2120,
    "patch": 2121,
    "\u25810x4f7": 2122,
    "updateresour": 2123,
    "15d": 2124,
    "f39": 2125,
    "8378": 2126,
    "tryac": 2127,
    "d72": 2128,
    "\u25810x7ec1": 2129,
    "word": 2130,
    "borla": 2131,
    "0x4000": 2132,
    "\u2581waitfor": 2133,
    "\u2581getfile": 2134,
    "\u25810x40d4": 2135,
    "clus": 2136,
    "\u25810x41e495": 2137,
    "ge": 2138,
    "\u25810x2c": 2139,
    "50000": 2140,
    "ask": 2141,
    "clusive": 2142,
    "rwlockex": 2143,
    "rwlockexclusive": 2144,
    "\u2581emumodulearg0": 2145,
    "\u25810x41bc": 2146,
    "\u25810xfeee0071": 2147,
    "\u2581emumodulearg00x4000": 2148,
    "9h": 2149,
    "\u2581dword": 2150,
    "ub": 2151,
    "qui": 2152,
    "\u25810x429e7c": 2153,
    "10x40": 2154,
    "\u25810x00004030": 2155,
    "\u2581emumodulearg10x40": 2156,
    "\u25810x4064": 2157,
    "30x40": 2158,
    "\u2581emumodulearg30x40": 2159,
    "\u2581emumodulearg10x4010": 2160,
    "02": 2161,
    "5b0": 2162,
    "\u2581emumodulearg30x4030": 2163,
    "\u25810x00004020": 2164,
    "0x4020": 2165,
    "\u2581emumodulearg2": 2166,
    "fba": 2167,
    "\u2581poin": 2168,
    "\u2581emumodulearg20x4020": 2169,
    "\u25810x438378": 2170,
    "ld": 2171,
    "iw": 2172,
    "588": 2173,
    "\u25810x40b0": 2174,
    "\u25810xfeee001f": 2175,
    "und": 2176,
    "econ": 2177,
    "\u25810x4012c2": 2178,
    "\u2581kernel32lstrcmp": 2179,
    "\u2581kernel32lstrlen": 2180,
    "yp": 2181,
    "\u25810x97": 2182,
    "prot": 2183,
    "\u25810xfeee0020": 2184,
    "nec": 2185,
    "\u25810x426": 2186,
    "\u25810x0043": 2187,
    "\u25810x438": 2188,
    "\u25810x422622": 2189,
    "\u25810x42267d": 2190,
    "\u25810x4224f3": 2191,
    "lp": 2192,
    "\u25810x40d6": 2193,
    "cea": 2194,
    "\u25810x422613": 2195,
    "\u25810x770d": 2196,
    "\u25810x7716": 2197,
    "protect": 2198,
    "\u25810x7706": 2199,
    "\u25810x770a": 2200,
    "\u25810x770b": 2201,
    "\u25810x7703": 2202,
    "\u25810x7713": 2203,
    "\u25810x771a": 2204,
    "310": 2205,
    "\u2581win": 2206,
    "\u25810x40b5": 2207,
    "pro": 2208,
    "\u25810x4142": 2209,
    "\u25810x771b": 2210,
    "\u2581the": 2211,
    "\u25810x41be": 2212,
    "330": 2213,
    "\u25810x40ee": 2214,
    "paint": 2215,
    "loat": 2216,
    "loating": 2217,
    "\u25810x1210f35": 2218,
    "\u25810x405c": 2219,
    "\u2581openalways": 2220,
    "compare": 2221,
    "\u2581kernel32getthreadlocale": 2222,
    "vm": 2223,
    "\u25810x40f0": 2224,
    "\u25810x771c": 2225,
    "\u25810x1210f": 2226,
    "\u2581ch": 2227,
    "b00": 2228,
    "\u2581invalidread": 2229,
    "2c3": 2230,
    "\u25810x92": 2231,
    "\u25810x82": 2232,
    "\u2581gettickcount": 2233,
    "\u2581kernel32getacp": 2234,
    "\u25810x58": 2235,
    "\u25810x7850": 2236,
    "\u2581crtdllsprintf": 2237,
    "\u2581begin": 2238,
    "\u25810x40ff": 2239,
    "\u25810x42a7": 2240,
    "ba8": 2241,
    "\u25810x4050": 2242,
    "80b": 2243,
    "781": 2244,
    "mask": 2245,
    "mapvirtual": 2246,
    "\u2581max": 2247,
    "abb": 2248,
    "micro": 2249,
    "aa4": 2250,
    "18b": 2251,
    "\u2581getcommandl": 2252,
    "\u2581500": 2253,
    "\u25810x4750": 2254,
    "\u25810x00000": 2255,
    "od": 2256,
    "7c0": 2257,
    "logical": 2258,
    "cd4": 2259,
    "760": 2260,
    "\u2581lastapi": 2261,
    "\u2581maxapi": 2262,
    "\u2581maxapicount": 2263,
    "\u25810x4b94d4": 2264,
    "\u2581getlogical": 2265,
    "\u25810xfeee007e": 2266,
    "mapvirtualkeyw": 2267,
    "ay": 2268,
    "\u2581getst": 2269,
    "\u25810x01211fd4": 2270,
    "1c0": 2271,
    "\u25810x4240": 2272,
    "\u25810x89": 2273,
    "lush": 2274,
    "windowexa": 2275,
    "\u2581al": 2276,
    "connec": 2277,
    "\u25810x4031d3": 2278,
    "\u2581kernel32creat": 2279,
    "98f": 2280,
    "\u2581user32mapvirtualkeyw": 2281,
    "f4c": 2282,
    "\u25810x7e71": 2283,
    "\u25810x8cc0": 2284,
    "\u25810x40d3": 2285,
    "\u25810x1e": 2286,
    "32dll": 2287,
    "c9": 2288,
    "variab": 2289,
    "\u25810x8b": 2290,
    "\u2581user32loadcursora": 2291,
    "\u25810x420c": 2292,
    "\u25810x466": 2293,
    "fromstr": 2294,
    "7628": 2295,
    "rl": 2296,
    "\u25810x4056": 2297,
    "ve": 2298,
    "\u25810x68": 2299,
    "xe": 2300,
    "6052": 2301,
    "\u2581createprocess": 2302,
    "3995": 2303,
    "\u25810x4061": 2304,
    "low": 2305,
    "\u25810x7ed": 2306,
    "\u25810x42c4": 2307,
    "bit": 2308,
    "\u25810x5a": 2309,
    "\u25810x4043": 2310,
    "\u25810x50c": 2311,
    "5a2c": 2312,
    "\u25810x415": 2313,
    "\u25810x4031e3": 2314,
    "\u25810x402f": 2315,
    "\u25810x406c": 2316,
    "bvm": 2317,
    "memory": 2318,
    "4d": 2319,
    "\u25810x423d": 2320,
    "ethread": 2321,
    "\u25810x4210": 2322,
    "\u25810xa42": 2323,
    "\u25810x50b6b": 2324,
    "\u2581msv": 2325,
    "\u25810x40ed": 2326,
    "\u2581msvbvm": 2327,
    "\u25810x41c2": 2328,
    "clipboar": 2329,
    "all": 2330,
    "\u2581copy": 2331,
    "e46": 2332,
    "namea": 2333,
    "\u25810xf0019": 2334,
    "comparestring": 2335,
    "\u2581flush": 2336,
    "9098": 2337,
    "message": 2338,
    "\u25810x4060": 2339,
    "\u25810x41c1": 2340,
    "\u25810x7f8": 2341,
    "\u2581msvbvm60": 2342,
    "\u25810x40ec": 2343,
    "b2b": 2344,
    "\u25810x408893": 2345,
    "\u25810x4140": 2346,
    "\u2581createalways": 2347,
    "ordinal100": 2348,
    "9e7": 2349,
    "73f1": 2350,
    "\u2581msvbvm60ordinal100": 2351,
    "\u25810x532": 2352,
    "\u2581end": 2353,
    "buffers": 2354,
    "35ad": 2355,
    "\u25810x44c53f": 2356,
    "\u25810x4039": 2357,
    "microso": 2358,
    "\u25810x50b27": 2359,
    "\u25810x41e70": 2360,
    "\u25810x40dd": 2361,
    "\u25810x28": 2362,
    "5ca20": 2363,
    "60529a": 2364,
    "268": 2365,
    "53b14": 2366,
    "\u2581d459": 2367,
    "5769df": 2368,
    "a8a802": 2369,
    "d70d8a": 2370,
    "73f1fc2": 2371,
    "d725ca20": 2372,
    "35ad53b14": 2373,
    "39955769df": 2374,
    "5a2c60529a": 2375,
    "909873f1fc2": 2376,
    "\u2581d459d725ca20": 2377,
    "35ad53b14d70d8a": 2378,
    "a8a80239955769df": 2379,
    "\u2581d459d725ca20909873f1fc2": 2380,
    "35ad53b14d70d8a5a2c60529a": 2381,
    "\u2581d459d725ca20909873f1fc2a8a80239955769df": 2382,
    "\u25810x409c": 2383,
    "cmapstringw": 2384,
    "\u25810x4c43": 2385,
    "\u25810x40ab": 2386,
    "9a4": 2387,
    "microsoft": 2388,
    "oy": 2389,
    "de4": 2390,
    "ockob": 2391,
    "741": 2392,
    "\u25810x19": 2393,
    "\u25810x7e8": 2394,
    "f5f": 2395,
    "\u25810x407c2e": 2396,
    "ta": 2397,
    "6660x": 2398,
    "\u25810x460": 2399,
    "\u25810x422c": 2400,
    "ken": 2401,
    "cpy": 2402,
    "\u25810x1211d": 2403,
    "\u25810x700c": 2404,
    "103": 2405,
    "\u25810xfeee0021": 2406,
    "pend": 2407,
    "debu": 2408,
    "token": 2409,
    "cy": 2410,
    "\u25810xfeee0027": 2411,
    "\u25810x4663c2": 2412,
    "\u25810xfeee0022": 2413,
    "quires": 2414,
    "lex": 2415,
    "sp": 2416,
    "\u2581ucerrreadunmappedn": 2417,
    "ac0": 2418,
    "quiresrwlockexclusive": 2419,
    "mutex": 2420,
    "\u2581msvc": 2421,
    "\u25810xfeee0026": 2422,
    "220": 2423,
    "\u25810xfeee0024": 2424,
    "\u25810xfeee0025": 2425,
    "\u2581virtualalloc": 2426,
    "\u25810xfeee0023": 2427,
    "stroy": 2428,
    "setcondition": 2429,
    "setconditionmask": 2430,
    "ee0": 2431,
    "\u25810x01211fe4": 2432,
    "atex": 2433,
    "ero": 2434,
    "\u25810x4018": 2435,
    "\u2581lstr": 2436,
    "\u2581point": 2437,
    "ocket": 2438,
    "messagew": 2439,
    "2000": 2440,
    "e66": 2441,
    "808": 2442,
    "e9f": 2443,
    "\u2581kernel32versetconditionmask": 2444,
    "520": 2445,
    "font": 2446,
    "\u25810x17": 2447,
    "\u25810x407a": 2448,
    "736": 2449,
    "\u2581msvcr": 2450,
    "aab": 2451,
    "\u2581kernel32lstrcmpiw": 2452,
    "\u25810x3e": 2453,
    "stockob": 2454,
    "\u2581gdi32getstockob": 2455,
    "ee8": 2456,
    "6660x15d": 2457,
    "localename": 2458,
    "\u2581to": 2459,
    "34bf": 2460,
    "\u25810x403c": 2461,
    "work": 2462,
    "\u25810x42a190": 2463,
    "\u25810x105": 2464,
    "\u25810x1211f64": 2465,
    "\u2581kernel32g": 2466,
    "am": 2467,
    "\u25810x704c": 2468,
    "servicew": 2469,
    "\u25810x4353": 2470,
    "\u25810x7930": 2471,
    "zg": 2472,
    "\u2581getenvironment": 2473,
    "\u2581exitprocess": 2474,
    "118": 2475,
    "\u25810x41b9": 2476,
    "\u25810x4363": 2477,
    "mutexa": 2478,
    "\u2581virtualfree": 2479,
    "hg": 2480,
    "\u2581dr": 2481,
    "9c4": 2482,
    "\u25810x4087": 2483,
    "\u25810x40ac": 2484,
    "ngu": 2485,
    "allock": 2486,
    "\u25810x4076": 2487,
    "\u25810x8034bf": 2488,
    "9a9": 2489,
    "\u25810x40cf50": 2490,
    "b86": 2491,
    "kart": 2492,
    "karton": 2493,
    "\u25810x4013": 2494,
    "\u2581closehandle": 2495,
    "\u2581extrac": 2496,
    "ecc": 2497,
    "\u2581setdefaultdlldirectories": 2498,
    "\u25810x42b": 2499,
    "\u25810x5266": 2500,
    "\u25810x405f39": 2501,
    "5c8": 2502,
    "\u2581king": 2503,
    "\u2581kingkarton": 2504,
    "\u25810x40ea": 2505,
    "\u25810x41de08": 2506,
    "updateresourcea": 2507,
    "\u25810x40cdfd": 2508,
    "\u2581kernel32createdirectoryw": 2509,
    "\u25810x99": 2510,
    "\u25810xfeee005f": 2511,
    "ac6": 2512,
    "7628f": 2513,
    "\u25810x57628f": 2514,
    "320": 2515,
    "\u25810x4122": 2516,
    "53d": 2517,
    "\u25810x806873": 2518,
    "\u25810x401129": 2519,
    "\u25810x4138": 2520,
    "ilangu": 2521,
    "nap": 2522,
    "3f8": 2523,
    "\u25810x41e688": 2524,
    "uilangu": 2525,
    "\u25810x41e68a": 2526,
    "formatex": 2527,
    "6660x15drl": 2528,
    "008": 2529,
    "10e": 2530,
    "termin": 2531,
    "microsoftwindows": 2532,
    "number": 2533,
    "put": 2534,
    "\u25810x401b": 2535,
    "\u2581advapi32set": 2536,
    "\u25810x40cf5f": 2537,
    "ion": 2538,
    "\u2581comparestring": 2539,
    "currentversion": 2540,
    "\u25810x40cfba": 2541,
    "\u2581getlocalein": 2542,
    "\u25810x19a": 2543,
    "fetch": 2544,
    "\u25810x708c": 2545,
    "resourcew": 2546,
    "\u2581ucerrfetch": 2547,
    "\u2581ucerrfetchunmapped": 2548,
    "\u2581fetch": 2549,
    "\u2581emustructexceptioncontext0x": 2550,
    "\u2581emustructexceptionrecord0x": 2551,
    "\u25810x1211cf8": 2552,
    "f20": 2553,
    "438": 2554,
    "93b": 2555,
    "3e2": 2556,
    "loballock": 2557,
    "1646": 2558,
    "\u2581kernel32sethandlecount": 2559,
    "569": 2560,
    "ec0": 2561,
    "f44": 2562,
    "f6d": 2563,
    "30c": 2564,
    "\u2581kernel32getversionexw": 2565,
    "ata": 2566,
    "\u25810x405f": 2567,
    "hore": 2568,
    "maphore": 2569,
    "908": 2570,
    "158": 2571,
    "\u25810x4090": 2572,
    "\u25810x427": 2573,
    "lw": 2574,
    "sub": 2575,
    "\u25810x23": 2576,
    "\u25810xfeee0028": 2577,
    "indc": 2578,
    "\u25810x1a": 2579,
    "\u25810x7df": 2580,
    "\u25810x5b": 2581,
    "\u25810x4042": 2582,
    "\u2581google": 2583,
    "indclose": 2584,
    "ueexw": 2585,
    "70d": 2586,
    "hi": 2587,
    "62e": 2588,
    "\u2581floating": 2589,
    "\u2581googletempgum": 2590,
    "variablew": 2591,
    "draw": 2592,
    "\u2581kernel32heaprealloc": 2593,
    "de9": 2594,
    "\u2581kernel32lstrlenw": 2595,
    "cp": 2596,
    "\u25810x364": 2597,
    "\u25810x42b0": 2598,
    "\u25810x45b2ee": 2599,
    "opensection": 2600,
    "state": 2601,
    "\u2581googletempgut": 2602,
    "flow": 2603,
    "devicec": 2604,
    "ce0": 2605,
    "9cd": 2606,
    "8ba0": 2607,
    "dq": 2608,
    "\u2581termin": 2609,
    "\u2581user32getsystem": 2610,
    "profile": 2611,
    "\u2581varb": 2612,
    "\u25810x40dc": 2613,
    "\u25810x198": 2614,
    "\u2581user32getsystemmetrics": 2615,
    "\u2581writefile": 2616,
    "fdc": 2617,
    "\u25810x4062": 2618,
    "ad7": 2619,
    "namew": 2620,
    "123": 2621,
    "\u2581setfilepointer": 2622,
    "8cc": 2623,
    "ation": 2624,
    "\u25810x2e": 2625,
    "90000": 2626,
    "\u25810x1211fd8": 2627,
    "\u2581hkeycurrentusersoftware": 2628,
    "e6a": 2629,
    "\u2581or": 2630,
    "b1d": 2631,
    "512": 2632,
    "event": 2633,
    "3fb": 2634,
    "semaphore": 2635,
    "conditionvariable": 2636,
    "\u25810xfeee0029": 2637,
    "aps": 2638,
    "\u2581draw": 2639,
    "devicecaps": 2640,
    "\u25810x6781": 2641,
    "eck": 2642,
    "\u25810x41de50": 2643,
    "\u2581interlocked": 2644,
    "\u2581kernel32virtualprotect": 2645,
    "\u25810x4077": 2646,
    "\u25810xfeee002a": 2647,
    "d0c": 2648,
    "fb0": 2649,
    "\u25810xfeee0040": 2650,
    "110": 2651,
    "\u25810x4107": 2652,
    "\u25810x40f6a1": 2653,
    "\u25810x44c6": 2654,
    "\u25810x40152c": 2655,
    "class": 2656,
    "\u25810x38": 2657,
    "\u25810x40e1": 2658,
    "\u25810xfeee008b": 2659,
    "\u25810x57": 2660,
    "\u25810x9d": 2661,
    "2c0": 2662,
    "\u2581push": 2663,
    "informationby": 2664,
    "\u25810x42e5b0": 2665,
    "\u25810x971": 2666,
    "fc4": 2667,
    "8fd0": 2668,
    "\u25810xfeee0072": 2669,
    "drawdll": 2670,
    "de0": 2671,
    "\u25810x40b677": 2672,
    "\u25810x1211f7c": 2673,
    "hgdrawdll": 2674,
    "\u2581delet": 2675,
    "\u2581createsemaphore": 2676,
    "\u25810x016": 2677,
    "\u25810x40586": 2678,
    "\u25810xfeee005d": 2679,
    "ws": 2680,
    "402": 2681,
    "5eb": 2682,
    "\u25810x42a720": 2683,
    "\u2581kernel32de": 2684,
    "430": 2685,
    "\u2581kernel32getversionexa": 2686,
    "dacl": 2687,
    "\u25810x28fd0": 2688,
    "securitydescriptordacl": 2689,
    "\u25810x84": 2690,
    "9c8": 2691,
    "\u25810x2000": 2692,
    "ab3": 2693,
    "c89": 2694,
    "\u25810x4aa": 2695,
    "\u25810x1b": 2696,
    "\u25810x50b57": 2697,
    "\u25810x7540": 2698,
    "408": 2699,
    "readfile": 2700,
    "\u2581readfile": 2701,
    "\u25810x40f796": 2702,
    "\u25810xa4": 2703,
    "d0a": 2704,
    "\u25810x40c203": 2705,
    "\u2581loadlibrarya": 2706,
    "\u25810x401468": 2707,
    "\u25810x7ad0": 2708,
    "61e": 2709,
    "\u25810x4063": 2710,
    "\u25810x6b": 2711,
    "\u2581ntcurrentversion": 2712,
    "\u25810x1211b": 2713,
    "\u25810x4126": 2714,
    "\u25810x1211c90": 2715,
    "ses": 2716,
    "\u25810xfeee002c": 2717,
    "\u2581gdi32getdevicecaps": 2718,
    "\u25810x4019": 2719,
    "940": 2720,
    "9bf": 2721,
    "hel": 2722,
    "\u25810x4210e6": 2723,
    "\u2581kernel32readfile": 2724,
    "958": 2725,
    "\u25810x40de": 2726,
    "\u25810x9c": 2727,
    "\u25810x40f73d": 2728,
    "ed8": 2729,
    "zero": 2730,
    "\u25810x40b531": 2731,
    "\u25810xfeee002b": 2732,
    "\u25810xfeee0046": 2733,
    "codep": 2734,
    "\u25810xfeee002d": 2735,
    "3b0": 2736,
    "\u2581user32registerclass": 2737,
    "94c": 2738,
    "\u25810xfeee002f": 2739,
    "rush": 2740,
    "\u25810x40eb": 2741,
    "5d0": 2742,
    "rect": 2743,
    "\u2581isvalid": 2744,
    "edd": 2745,
    "\u25810x4058": 2746,
    "\u25810xfeee002e": 2747,
    "\u25810x1211fd0": 2748,
    "\u25810x408580": 2749,
    "\u25810x414c": 2750,
    "\u2581getlasterror": 2751,
    "\u2581msvcrtstr": 2752,
    "95a": 2753,
    "\u25810xfeee0052": 2754,
    "\u25810x214": 2755,
    "\u25810x67b": 2756,
    "\u25810x8d00": 2757,
    "\u25810x6781d8": 2758,
    "eek": 2759,
    "\u2581kernel32createevent": 2760,
    "\u25810x40af2": 2761,
    "e68": 2762,
    "\u2581kernel32ex": 2763,
    "\u25810x3394": 2764,
    "\u25810xfeee0045": 2765,
    "\u25810xcc": 2766,
    "\u25810x40c60": 2767,
    "dd4": 2768,
    "inkw": 2769,
    "f61": 2770,
    "\u25810x571": 2771,
    "006": 2772,
    "lwapi": 2773,
    "969": 2774,
    "\u25810x4630": 2775,
    "ab4": 2776,
    "7aa": 2777,
    "\u25810x4101": 2778,
    "\u2581shlwapi": 2779,
    "\u25810x22": 2780,
    "\u25810x4112": 2781,
    "\u25810xfeee0030": 2782,
    "\u25810x80c0": 2783,
    "\u25810xfeee0074": 2784,
    "64000": 2785,
    "erw": 2786,
    "f48": 2787,
    "\u25810x416c": 2788,
    "\u25810xfeee005e": 2789,
    "d27": 2790,
    "\u25810xfeee0044": 2791,
    "e41": 2792,
    "548": 2793,
    "321": 2794,
    "a0d": 2795,
    "\u25810x4121": 2796,
    "\u2581ole": 2797,
    "help": 2798,
    "\u2581getmodulehandlea": 2799,
    "\u25810xfeee0031": 2800,
    "\u25810x4686": 2801,
    "\u25810x9010": 2802,
    "807": 2803,
    "\u25810xfeee006b": 2804,
    "\u25810x40df": 2805,
    "544": 2806,
    "\u25810xfeee0034": 2807,
    "\u2581process32next": 2808,
    "\u25810x40a1": 2809,
    "\u2581user32set": 2810,
    "\u2581advapi32dll": 2811,
    "\u25810xfeee007c": 2812,
    "\u25810xfeee0032": 2813,
    "\u25810x78a0": 2814,
    "\u25810xfeee0033": 2815,
    "\u25810xfeee006d": 2816,
    "\u2581send": 2817,
    "\u25810x4097": 2818,
    "\u25810x55": 2819,
    "\u25810x4b2b2b": 2820,
    "\u25810xfeee0043": 2821,
    "wc": 2822,
    "\u25810x41f8": 2823,
    "\u25810x56b": 2824,
    "\u25810xfeee0035": 2825,
    "tries": 2826,
    "\u25810x9a": 2827,
    "oct": 2828,
    "\u25810xfeee0047": 2829,
    "\u25810xfeee0038": 2830,
    "\u25810x4184": 2831,
    "\u25810x40d1ca": 2832,
    "\u25810xfeee0036": 2833,
    "\u25810x4196": 2834,
    "\u25810xfeee0048": 2835,
    "resourc": 2836,
    "\u25810xfeee0037": 2837,
    "\u25810x40d084": 2838,
    "zw": 2839,
    "ed4": 2840,
    "344": 2841,
    "\u25810xfeee0049": 2842,
    "\u25810xfeee0041": 2843,
    "\u2581inter": 2844,
    "menuinfo": 2845,
    "\u25810xfeee003f": 2846,
    "\u25810xfeee0042": 2847,
    "\u2581getcurrentthreadid": 2848,
    "\u25810xfeee003b": 2849,
    "qaa": 2850,
    "\u25810x42c508": 2851,
    "\u25810xfeee003a": 2852,
    "b78": 2853,
    "\u25810xfeee0039": 2854,
    "\u25810xfeee003d": 2855,
    "\u25810xfeee003e": 2856,
    "\u2581user32dll": 2857,
    "\u25810x4060e": 2858,
    "\u25810xfeee003c": 2859,
    "582": 2860,
    "gea": 2861,
    "\u25810x42e": 2862,
    "\u2581gettime": 2863,
    "\u25810x53ba": 2864,
    "a13": 2865,
    "\u25810xfeee0062": 2866,
    "\u25810x4336": 2867,
    "\u2581user32ws": 2868,
    "32s": 2869,
    "\u25810x7150": 2870,
    "\u25810x424172": 2871,
    "\u25810x35": 2872,
    "\u25810x1211fcc": 2873,
    "ug": 2874,
    "\u25810x0041": 2875,
    "\u25810xfeee0053": 2876,
    "\u25810xfeee004a": 2877,
    "\u25810xfeee0060": 2878,
    "\u25810x4060e3": 2879,
    "\u25810x72a0": 2880,
    "\u2581gettemp": 2881,
    "\u25810xfeee005c": 2882,
    "contr": 2883,
    "\u25810xfeee004b": 2884,
    "\u25810xfeee004d": 2885,
    "ff6": 2886,
    "\u25810xfeee004c": 2887,
    "\u2581getkey": 2888,
    "\u25810xfeee005a": 2889,
    "\u25810x73f0": 2890,
    "\u25810xfeee0050": 2891,
    "\u25810xfeee004e": 2892,
    "\u25810xa7": 2893,
    "\u25810x41bf": 2894,
    "\u25810xfeee005b": 2895,
    "\u25810xfeee0055": 2896,
    "\u2581kernel32exitprocess": 2897,
    "\u25810xfeee0051": 2898,
    "\u25810xfeee0054": 2899,
    "\u25810xfeee004f": 2900,
    "\u25810xfeee0061": 2901,
    "8ce": 2902,
    "\u25810xfeee0057": 2903,
    "\u25810xfeee0056": 2904,
    "\u25810xfeee0063": 2905,
    "38b": 2906,
    "88e": 2907,
    "\u2581emumodulec": 2908,
    "\u25810x4017": 2909,
    "\u25810xfeee0058": 2910,
    "\u25810xfeee0065": 2911,
    "\u25810xfeee0059": 2912,
    "\u25810x7690": 2913,
    "\u2581user32setmenuinfo": 2914,
    "362": 2915,
    "286": 2916,
    "\u25810xfeee0066": 2917,
    "\u25810xfeee0067": 2918,
    "\u25810x44c661": 2919,
    "\u25810x1211fc0": 2920,
    "cdc": 2921,
    "ger": 2922,
    "b48": 2923,
    "\u25810x40a3": 2924,
    "\u25810xfeee0068": 2925,
    "\u25810xfeee0064": 2926,
    "sing": 2927,
    "\u25810x4096": 2928,
    "codepage": 2929,
    "ange": 2930,
    "f2ee": 2931,
    "\u25810x7da8": 2932,
    "ok": 2933,
    "viewoffile": 2934,
    "\u2581closes": 2935,
    "\u2581advapi32get": 2936,
    "esecuritydescriptor": 2937,
    "\u25810x4b02": 2938,
    "ase": 2939,
    "close": 2940,
    "\u25810x44f8": 2941,
    "\u25810xfeee0073": 2942,
    "\u25810x42c4d8": 2943,
    "2020": 2944,
    "\u25810x40e2": 2945,
    "721": 2946,
    "\u25810xfeee0070": 2947,
    "firstfilew": 2948,
    "\u25810x4b02ee": 2949,
    "\u25810x00000002": 2950,
    "\u2581regopenkey": 2951,
    "\u2581select": 2952,
    "dex": 2953,
    "\u25810xa000": 2954,
    "\u25810xfeee006e": 2955,
    "\u25810x402c": 2956,
    "ision": 2957,
    "alet": 2958,
    "ton": 2959,
    "\u25810xfeee006a": 2960,
    "94e": 2961,
    "\u25810xfeee006f": 2962,
    "\u25810xfeee006c": 2963,
    "\u25810xfeee0075": 2964,
    "\u25810x417b": 2965,
    "748": 2966,
    "ati": 2967,
    "cr": 2968,
    "9c1": 2969,
    "\u2581lcmapstringex": 2970,
    "\u25810x40b1": 2971,
    "\u25810xfeee0069": 2972,
    "\u25810x1211fc8": 2973,
    "401": 2974,
    "\u25810xe0": 2975,
    "aw5": 2976,
    "\u25810x405d": 2977,
    "\u25810xc3f8": 2978,
    "tryacquiresrwlockexclusive": 2979,
    "wh": 2980,
    "\u2581wa": 2981,
    "\u25810x47f2ee": 2982,
    "\u2581be": 2983,
    "pri": 2984,
    "\u25810x1f4": 2985,
    "\u25810x4110": 2986,
    "3ae": 2987,
    "900": 2988,
    "codegea": 2989,
    "rlocales": 2990,
    "codegearlocales": 2991,
    "pos": 2992,
    "\u25810x4790": 2993,
    "\u25812": 2994,
    "\u25810x40f753": 2995,
    "740": 2996,
    "\u2581getmodulefilenamea": 2997,
    "shot": 2998,
    "napshot": 2999,
    "etool": 3000,
    "help32s": 3001,
    "etoolhelp32s": 3002,
    "etoolhelp32snapshot": 3003,
    "\u2581createfilea": 3004,
    "borland": 3005,
    "borlandlocales": 3006,
    "ethod": 3007,
    "closekey": 3008,
    "5cc": 3009,
    "\u25810x1075": 3010,
    "\u2581kernel32lcmapstringex": 3011,
    "unlock": 3012,
    "\u2581method": 3013,
    "atible": 3014,
    "leasedc": 3015,
    "\u25810x413b": 3016,
    "clipboard": 3017,
    "be3": 3018,
    "\u25810x402178": 3019,
    "ea0": 3020,
    "\u25810x406103": 3021,
    "fe0": 3022,
    "ecomp": 3023,
    "em": 3024,
    "ecompatible": 3025,
    "\u25810x42d508": 3026,
    "l110": 3027,
    "\u25810x40fd": 3028,
    "3c1": 3029,
    "\u2581shellex": 3030,
    "\u25810x40cd4b": 3031,
    "\u25810x40cbf8": 3032,
    "\u25810x4acfcc": 3033,
    "317": 3034,
    "f6b": 3035,
    "\u25810x40cd5a": 3036,
    "eid": 3037,
    "ume": 3038,
    "leob": 3039,
    "\u25810x4354": 3040,
    "\u25810x40cdb5": 3041,
    "\u25810x40b2": 3042,
    "\u2581user32loadiconw": 3043,
    "a44": 3044,
    "\u25810x4143": 3045,
    "servicec": 3046,
    "\u25810x436390": 3047,
    "aaaaaa": 3048,
    "32c": 3049,
    "\u25810x53ba40": 3050,
    "ea7": 3051,
    "packageid": 3052,
    "vol": 3053,
    "\u2581createfilew": 3054,
    "main": 3055,
    "542": 3056,
    "7b1": 3057,
    "00a": 3058,
    "\u2581getlogicaldr": 3059,
    "\u25810x4176": 3060,
    "\u2581dispatch": 3061,
    "\u25810x77e0": 3062,
    "volume": 3063,
    "bc8": 3064,
    "\u25810x3f31": 3065,
    "f3000": 3066,
    "\u2581createcompatible": 3067,
    "\u25810x414067": 3068,
    "servicectr": 3069,
    "b44": 3070,
    "\u25810x15": 3071,
    "update": 3072,
    "\u25810x3f7": 3073,
    "5d4": 3074,
    "\u25810xfeee0077": 3075,
    "\u25810x4127": 3076,
    "\u2581kernel32virtualfree": 3077,
    "\u25810x4305b0": 3078,
    "\u25810xfeee0076": 3079,
    "printfa": 3080,
    "\u2581createthread": 3081,
    "\u25810xfeee0078": 3082,
    "\u25810xfeee0079": 3083,
    "\u25810x881": 3084,
    "\u25810x24": 3085,
    "alloc0x": 3086,
    "690": 3087,
    "\u2581emumodulee": 3088,
    "ty": 3089,
    "\u2581getlocaleinfo": 3090,
    "\u2581comparestringex": 3091,
    "f2d": 3092,
    "\u2581getlocaleinfoex": 3093,
    "dc0": 3094,
    "598": 3095,
    "\u25810x405ac2": 3096,
    "\u25810x4258": 3097,
    "sw": 3098,
    "\u25810x419b": 3099,
    "\u25810x40e6": 3100,
    "\u2581getlogicaldrive": 3101,
    "\u2581enum": 3102,
    "\u25810x42518b": 3103,
    "\u2581over": 3104,
    "\u25810x40553d": 3105,
    "\u25810xfeee0081": 3106,
    "leex": 3107,
    "\u25810x40a5da": 3108,
    "\u25810x98": 3109,
    "\u25810x120f": 3110,
    "\u25810x40a5d6": 3111,
    "\u25810x40a5d8": 3112,
    "407": 3113,
    "\u25810x42d4d8": 3114,
    "\u2581wsock": 3115,
    "typew": 3116,
    "\u2581getmodulehandlew": 3117,
    "\u25810x405960": 3118,
    "\u2581deletefilew": 3119,
    "fold": 3120,
    "stringtypew": 3121,
    "16463": 3122,
    "\u2581shell32sh": 3123,
    "555": 3124,
    "\u25810x40a5d4": 3125,
    "sym": 3126,
    "\u25810x40a5d2": 3127,
    "\u2581getfilesize": 3128,
    "309": 3129,
    "\u25810xfde9": 3130,
    "31e": 3131,
    "peration": 3132,
    "\u25810x40a5ce": 3133,
    "symbo": 3134,
    "cel": 3135,
    "licl": 3136,
    "symbolicl": 3137,
    "\u25810x405b1d": 3138,
    "e06": 3139,
    "\u2581regclosekey": 3140,
    "symboliclinkw": 3141,
    "\u2581createsymboliclinkw": 3142,
    "\u25810x434": 3143,
    "\u25810x408d": 3144,
    "\u25810x4094": 3145,
    "\u25810x40a9": 3146,
    "\u25810x40a5d0": 3147,
    "\u2581operation": 3148,
    "\u2581createevent": 3149,
    "d18": 3150,
    "\u2581overflow": 3151,
    "3cf": 3152,
    "f02": 3153,
    "\u25810x405ab3": 3154,
    "\u2581check": 3155,
    "\u2581ole32": 3156,
    "31000": 3157,
    "\u25810x53000": 3158,
    "590": 3159,
    "\u25810xa1": 3160,
    "\u2581shlwapipath": 3161,
    "\u2581getmodulefilenamew": 3162,
    "strfrom": 3163,
    "process32": 3164,
    "\u2581kernel32process32": 3165,
    "\u25810xfeee007a": 3166,
    "\u2581varbstrfrom": 3167,
    "341": 3168,
    "fc6": 3169,
    "\u25810x21000": 3170,
    "0000000": 3171,
    "\u25810x4116": 3172,
    "\u2581kernel32lread": 3173,
    "\u2581regsetval": 3174,
    "\u25810x40fb": 3175,
    "ae000": 3176,
    "\u25810x4051e": 3177,
    "80c": 3178,
    "e44": 3179,
    "append": 3180,
    "\u25810x422cbc": 3181,
    "when": 3182,
    "98000": 3183,
    "\u25810x405d27": 3184,
    "\u25810x40d5fc": 3185,
    "oci": 3186,
    "\u2581temp": 3187,
    "\u25810x4131": 3188,
    "348": 3189,
    "ssoci": 3190,
    "\u25810xb7": 3191,
    "folder": 3192,
    "587": 3193,
    "\u25810xfeee009a": 3194,
    "\u25810x4874": 3195,
    "\u25810x21": 3196,
    "\u25810x1f400": 3197,
    "57d": 3198,
    "edow": 3199,
    "connection": 3200,
    "95000": 3201,
    "resourceexw": 3202,
    "\u25810xfeee00f1": 3203,
    "enum": 3204,
    "keall": 3205,
    "keallconditionvariable": 3206,
    "d04": 3207,
    "maq": 3208,
    "\u25810x3f34": 3209,
    "\u25810x40d5ed": 3210,
    "aaaaa": 3211,
    "drag": 3212,
    "\u25810xfeee007b": 3213,
    "\u2581emumodule0": 3214,
    "\u25810x417992": 3215,
    "\u25810x40d49a": 3216,
    "return": 3217,
    "\u2581getcommandlinew": 3218,
    "appendw": 3219,
    "\u25810x3c": 3220,
    "\u25810x40d657": 3221,
    "sid": 3222,
    "\u2581getcurrentpackageid": 3223,
    "\u2581getsystemtimeasfiletime": 3224,
    "\u25810x42a70d": 3225,
    "2w": 3226,
    "\u25810x4179e7": 3227,
    "be8": 3228,
    "processornumber": 3229,
    "\u2581getcurrentprocessornumber": 3230,
    "ssociate": 3231,
    "files": 3232,
    "returns": 3233,
    "processwrite": 3234,
    "whencallback": 3235,
    "\u2581flushprocesswrite": 3236,
    "whencallbackreturns": 3237,
    "\u2581flushprocesswritebuffers": 3238,
    "\u2581freelibrarywhencallbackreturns": 3239,
    "\u2581setthreadpoolwait": 3240,
    "\u2581closethreadpoolwait": 3241,
    "5500000": 3242,
    "\u25810x41d3e2": 3243,
    "3f9": 3244,
    "\u2581user32getdc": 3245,
    "\u25810x402f7a": 3246,
    "\u25810x41d437": 3247,
    "releasedc": 3248,
    "7a8": 3249,
    "\u2581user32releasedc": 3250,
    "\u25810x66": 3251,
    "\u25810x41c0": 3252,
    "lockresource": 3253,
    "singleob": 3254,
    "connection2w": 3255,
    "\u25810x40b878": 3256,
    "\u2581createthreadpoolwait": 3257,
    "\u25810x2f": 3258,
    "upp": 3259,
    "a4c": 3260,
    "715": 3261,
    "\u25810x40e8": 3262,
    "windowproc": 3263,
    "\u2581releas": 3264,
    "966": 3265,
    "\u25810x4010d1": 3266,
    "readpoolwork": 3267,
    "\u2581closethreadpooltimer": 3268,
    "b8000": 3269,
    "11c": 3270,
    "edowstemp": 3271,
    "edowstemphgdrawdll": 3272,
    "red": 3273,
    "90a": 3274,
    "722": 3275,
    "\u25810x405e6a": 3276,
    "404": 3277,
    "\u25810x40d154": 3278,
    "\u25810x40b0c": 3279,
    "\u25810xfeee007f": 3280,
    "\u25810x42b1": 3281,
    "\u25810x4c46": 3282,
    "61c": 3283,
    "\u2581ac": 3284,
    "dfd": 3285,
    "\u25810x8260": 3286,
    "dicon": 3287,
    "\u2581extracta": 3288,
    "\u2581ntdlldll": 3289,
    "ssociatedicon": 3290,
    "\u2581extractassociatedicon": 3291,
    "708": 3292,
    "\u25810x40e7": 3293,
    "\u25810x410c": 3294,
    "e28": 3295,
    "\u25810x41a4": 3296,
    "\u2581getfileattributesw": 3297,
    "51000": 3298,
    "\u25810x404c": 3299,
    "rr": 3300,
    "\u2581getstartu": 3301,
    "\u25810xfeee008a": 3302,
    "ac000": 3303,
    "\u2581hton": 3304,
    "\u25810xfeee0089": 3305,
    "ofresource": 3306,
    "\u25810x40c5eb": 3307,
    "callbacks": 3308,
    "\u2581waitforth": 3309,
    "\u2581kernel32lcmapstringw": 3310,
    "readpooltimercallbacks": 3311,
    "\u2581waitforthreadpooltimercallbacks": 3312,
    "916": 3313,
    "\u25810x4040": 3314,
    "\u2581msvcrtstrn": 3315,
    "\u25810x004c": 3316,
    "\u2581softwaremicrosoftwindows": 3317,
    "3c000": 3318,
    "priv": 3319,
    "private": 3320,
    "\u25810x1211dcc": 3321,
    "\u25810x40ca": 3322,
    "36f": 3323,
    "patha": 3324,
    "\u25810x422f6d": 3325,
    "variablea": 3326,
    "uni": 3327,
    "\u25810x40599": 3328,
    "\u25810x405999": 3329,
    "680": 3330,
    "\u25810x4185": 3331,
    "527": 3332,
    "\u25810x40c640": 3333,
    "8d000": 3334,
    "7c3": 3335,
    "\u2581mon": 3336,
    "\u2581setthreadpooltimer": 3337,
    "rop": 3338,
    "\u25810x4874db": 3339,
    "\u2581findclose": 3340,
    "ervice": 3341,
    "\u25810x43b7b": 3342,
    "9e000": 3343,
    "55000": 3344,
    "\u25810x43548b": 3345,
    "\u25810x437b": 3346,
    "515": 3347,
    "93000": 3348,
    "\u25810x4034": 3349,
    "privateprofile": 3350,
    "\u2581msvcrtstrncmp": 3351,
    "\u2581kernel32findresourceexw": 3352,
    "econdition": 3353,
    "\u25810x4091": 3354,
    "54000": 3355,
    "ll": 3356,
    "econditionvariable": 3357,
    "sti": 3358,
    "\u25810x4420": 3359,
    "7e000": 3360,
    "ec4": 3361,
    "\u25810xfeee0080": 3362,
    "b1000": 3363,
    "\u2581createthreadpooltimer": 3364,
    "\u25810x406c1b": 3365,
    "7a000": 3366,
    "ypt": 3367,
    "7e0": 3368,
    "\u25810x422f61": 3369,
    "\u25810x429c": 3370,
    "bca": 3371,
    "8c8": 3372,
    "\u2581po": 3373,
    "71000": 3374,
    "\u2581shlwapipathappendw": 3375,
    "\u25810x428ba0": 3376,
    "ad000": 3377,
    "\u25810x50158": 3378,
    "9f000": 3379,
    "mainargs": 3380,
    "5e0": 3381,
    "abc": 3382,
    "10c": 3383,
    "if": 3384,
    "\u2581destroy": 3385,
    "stitu": 3386,
    "fontsub": 3387,
    "stitutes": 3388,
    "fontsubstitutes": 3389,
    "\u2581ntcurrentversionfontsubstitutes": 3390,
    "\u2581createsemaphoreexw": 3391,
    "ad3": 3392,
    "91000": 3393,
    "\u25810x4424": 3394,
    "007": 3395,
    "61000": 3396,
    "84000": 3397,
    "\u2581ms": 3398,
    "4a000": 3399,
    "b04": 3400,
    "f11": 3401,
    "\u25810x569b": 3402,
    "\u25810xfeee007d": 3403,
    "44000": 3404,
    "\u25810x5e": 3405,
    "5d000": 3406,
    "92000": 3407,
    "\u2581emumodule2": 3408,
    "46000": 3409,
    "9416": 3410,
    "\u2581getdate": 3411,
    "ini": 3412,
    "9d000": 3413,
    "div": 3414,
    "9c000": 3415,
    "\u2581findnext": 3416,
    "6c000": 3417,
    "\u25810x004012ac": 3418,
    "59c": 3419,
    "43000": 3420,
    "6d000": 3421,
    "\u25810x435390": 3422,
    "7d000": 3423,
    "\u25810x31": 3424,
    "\u2581drop": 3425,
    "pedfiles": 3426,
    "\u2581droppedfiles": 3427,
    "\u25810x428a13": 3428,
    "81000": 3429,
    "8c6": 3430,
    "9a000": 3431,
    "6b000": 3432,
    "aac": 3433,
    "42000": 3434,
    "59000": 3435,
    "8c000": 3436,
    "3e000": 3437,
    "5e000": 3438,
    "\u25810x4013e": 3439,
    "41000": 3440,
    "b4000": 3441,
    "a2000": 3442,
    "76000": 3443,
    "5e98": 3444,
    "6e000": 3445,
    "a1000": 3446,
    "3d000": 3447,
    "5b000": 3448,
    "f08": 3449,
    "53000": 3450,
    "de6": 3451,
    "\u25810x40598a": 3452,
    "4b000": 3453,
    "52000": 3454,
    "9b8": 3455,
    "63000": 3456,
    "\u25810x4059f4": 3457,
    "\u25810x4e9416": 3458,
    "bc000": 3459,
    "\u2581supp": 3460,
    "\u25810x41cc": 3461,
    "a6000": 3462,
    "37000": 3463,
    "36000": 3464,
    "5f000": 3465,
    "\u25810x40586a": 3466,
    "57000": 3467,
    "eekmessagea": 3468,
    "5c000": 3469,
    "\u2581ntdllnt": 3470,
    "\u25810x65": 3471,
    "\u25810x4024ae": 3472,
    "\u25810x413a3f": 3473,
    "58000": 3474,
    "af000": 3475,
    "32000": 3476,
    "114": 3477,
    "9hz": 3478,
    "aa000": 3479,
    "\u2581regsetvalueexw": 3480,
    "99000": 3481,
    "\u25810x413a6b": 3482,
    "88000": 3483,
    "\u25810x40d29a": 3484,
    "be000": 3485,
    "67000": 3486,
    "\u25810x4036": 3487,
    "72000": 3488,
    "9b000": 3489,
    "\u25810x42d8": 3490,
    "34000": 3491,
    "66000": 3492,
    "94000": 3493,
    "\u2581kernel32createfilea": 3494,
    "\u2581wsock32": 3495,
    "97000": 3496,
    "6a000": 3497,
    "3b000": 3498,
    "\u25810x58c": 3499,
    "\u25810x402450": 3500,
    "\u2581setwindow": 3501,
    "4e000": 3502,
    "\u25810xfeee0082": 3503,
    "\u2581kernel32gettempfilenamew": 3504,
    "unicode": 3505,
    "\u258136": 3506,
    "\u25810x46b": 3507,
    "78000": 3508,
    "b2000": 3509,
    "filetimet": 3510,
    "\u25810x1211fd4": 3511,
    "7c000": 3512,
    "38000": 3513,
    "5b6": 3514,
    "3a000": 3515,
    "\u2581initializecriticalsection": 3516,
    "74000": 3517,
    "7b000": 3518,
    "8a000": 3519,
    "\u25810x4feba8": 3520,
    "\u25810x43b3": 3521,
    "viewofsection": 3522,
    "56000": 3523,
    "62000": 3524,
    "securityinfo": 3525,
    "\u2581post": 3526,
    "8e000": 3527,
    "\u25810x4c4308": 3528,
    "ox": 3529,
    "feb": 3530,
    "bb000": 3531,
    "bd000": 3532,
    "77000": 3533,
    "96000": 3534,
    "5a000": 3535,
    "a4000": 3536,
    "3f000": 3537,
    "8b000": 3538,
    "ab000": 3539,
    "ad9": 3540,
    "spac": 3541,
    "ba000": 3542,
    "68000": 3543,
    "87000": 3544,
    "82000": 3545,
    "een": 3546,
    "48000": 3547,
    "86000": 3548,
    "ab7": 3549,
    "procaddress": 3550,
    "bat": 3551,
    "\u25810x4137": 3552,
    "316": 3553,
    "unicodestring": 3554,
    "b6000": 3555,
    "\u25810x401000": 3556,
    "a8000": 3557,
    "\u25810x422ee8": 3558,
    "\u2581getprocaddress": 3559,
    "cdf": 3560,
    "005": 3561,
    "4c000": 3562,
    "c2000": 3563,
    "47000": 3564,
    "b7000": 3565,
    "\u25810x770f": 3566,
    "a7000": 3567,
    "\u2581ntdllntopensection": 3568,
    "c6000": 3569,
    "530": 3570,
    "initunicodestring": 3571,
    "\u25810x4055": 3572,
    "8bb": 3573,
    "ad4": 3574,
    "\u25810x7ab0": 3575,
    "96e6": 3576,
    "\u25810x7090": 3577,
    "\u2581getprocess": 3578,
    "\u2581getuserdefault": 3579,
    "\u2581cwindowstemps": 3580,
    "7a1": 3581,
    "bf000": 3582,
    "c4000": 3583,
    "\u25810x1211a": 3584,
    "117": 3585,
    "\u25810x1211e2c": 3586,
    "166": 3587,
    "getmainargs": 3588,
    "\u25810xfeee0084": 3589,
    "afe": 3590,
    "\u25810x422edd": 3591,
    "\u2581cwindowstempsan": 3592,
    "b692": 3593,
    "\u25810x7da": 3594,
    "fae": 3595,
    "\u25810x40662e": 3596,
    "\u25810x7570": 3597,
    "\u25810x44b": 3598,
    "34c": 3599,
    "\u25810d0a": 3600,
    "\u25810x4051": 3601,
    "\u25810x40a4": 3602,
    "fa8": 3603,
    "abd": 3604,
    "\u2581getcurrentdirectoryw": 3605,
    "e6669": 3606,
    "73696e6": 3607,
    "b692e6669": 3608,
    "73696e6b692e6669": 3609,
    "761": 3610,
    "64f6": 3611,
    "tring": 3612,
    "\u2581kernel32global": 3613,
    "\u2581shell32dll": 3614,
    "\u2581user32create": 3615,
    "f6d1": 3616,
    "168": 3617,
    "436e": 3618,
    "\u25810x413d": 3619,
    "\u25810x40d276": 3620,
    "ras": 3621,
    "\u25810xfeee0087": 3622,
    "fer": 3623,
    "\u25810xfeee008e": 3624,
    "ecut": 3625,
    "\u25810xfeee0088": 3626,
    "706a": 3627,
    "fdr": 3628,
    "setini": 3629,
    "\u25810xfeee0083": 3630,
    "\u2581cwindowstempgolfsetini": 3631,
    "fdrbat": 3632,
    "\u2581cwindowstempsanfdrbat": 3633,
    "fwindowproc": 3634,
    "6a3": 3635,
    "ec7": 3636,
    "\u25810xfeee008c": 3637,
    "5maq": 3638,
    "zaw5": 3639,
    "ras5maq": 3640,
    "zaw5ras5maq": 3641,
    "\u25810x000046": 3642,
    "zaw5ras5maqdq": 3643,
    "ec2": 3644,
    "\u25810x8e": 3645,
    "\u25810x7300": 3646,
    "20220": 3647,
    "10e34": 3648,
    "\u25810xfeee0085": 3649,
    "\u25810x7390": 3650,
    "88d": 3651,
    "\u25810xfeee0086": 3652,
    "2022030": 3653,
    "\u2581waitforsingleob": 3654,
    "b73c": 3655,
    "b17aa": 3656,
    "63d": 3657,
    "\u25817cd4": 3658,
    "\u25810x4c32": 3659,
    "93bde4": 3660,
    "e9f94e": 3661,
    "436e98f": 3662,
    "5e9861e": 3663,
    "64f69cd": 3664,
    "706a588": 3665,
    "f6d130c": 3666,
    "ad710e34": 3667,
    "b17aae9f94e": 3668,
    "\u25817cd4436e98f": 3669,
    "5e9861ef6d130c": 3670,
    "64f69cd706a588": 3671,
    "93bde4ad710e34": 3672,
    "5e9861ef6d130cb17aae9f94e": 3673,
    "\u25817cd4436e98f93bde4ad710e34": 3674,
    "5e9861ef6d130cb17aae9f94e64f69cd706a588": 3675,
    "\u25810x59": 3676,
    "\u25810xfeee0095": 3677,
    "cept": 3678,
    "filetimeto": 3679,
    "\u2581registerclass": 3680,
    "946": 3681,
    "10b": 3682,
    "\u25810x40f4": 3683,
    "\u25810x01211fec": 3684,
    "\u25810x403187": 3685,
    "bitmap": 3686,
    "9ee": 3687,
    "vh": 3688,
    "f17": 3689,
    "\u25810x503": 3690,
    "\u25810x4023": 3691,
    "589": 3692,
    "3514": 3693,
    "fb9": 3694,
    "\u25810x25": 3695,
    "systemp": 3696,
    "\u25810x423add": 3697,
    "\u25810x412807": 3698,
    "ispatch": 3699,
    "\u25810x7a80": 3700,
    "\u25810xfeee008d": 3701,
    "36a": 3702,
    "\u25810xa3": 3703,
    "\u2581globalalloc": 3704,
    "112": 3705,
    "f76": 3706,
    "\u25810x12115": 3707,
    "54a": 3708,
    "\u25810x8920": 3709,
    "\u25810xb8": 3710,
    "\u25810x416e": 3711,
    "dis": 3712,
    "266": 3713,
    "x02": 3714,
    "\u2581globalfree": 3715,
    "f4000": 3716,
    "\u25810x50be3": 3717,
    "720": 3718,
    "95b": 3719,
    "volumeinformation": 3720,
    "\u25810xc00": 3721,
    "ece": 3722,
    "998": 3723,
    "debug": 3724,
    "initterm": 3725,
    "328": 3726,
    "1c7": 3727,
    "57e": 3728,
    "\u2581kernel32initializ": 3729,
    "long": 3730,
    "f43": 3731,
    "a2a": 3732,
    "\u25810x00401295": 3733,
    "\u2581adc": 3734,
    "937": 3735,
    "6e8": 3736,
    "\u25810x4102c3": 3737,
    "\u25810x41295a": 3738,
    "\u2581setfileattributesw": 3739,
    "\u25810x40a7": 3740,
    "\u25810x75d0": 3741,
    "\u2581fa": 3742,
    "283": 3743,
    "df4": 3744,
    "ddelp": 3745,
    "\u25810x5f": 3746,
    "\u25810x803514": 3747,
    "7c4": 3748,
    "\u25810x41cb": 3749,
    "\u25810x47a": 3750,
    "59f": 3751,
    "\u25810x4128": 3752,
    "messageb": 3753,
    "\u25810x419402": 3754,
    "\u25810x7060": 3755,
    "aa8": 3756,
    "\u25810x40ae": 3757,
    "os": 3758,
    "980": 3759,
    "\u25810x40127e": 3760,
    "\u25810x419457": 3761,
    "\u25810x40a6": 3762,
    "\u25810x7990": 3763,
    "\u25810x40158c": 3764,
    "e1b": 3765,
    "\u25810x4136": 3766,
    "9fd": 3767,
    "\u25810x4c46d0": 3768,
    "d19": 3769,
    "eb4": 3770,
    "\u25810x401274": 3771,
    "\u25810x401295": 3772,
    "\u2581user32p": 3773,
    "\u2581user32peekmessagea": 3774,
    "ust": 3775,
    "\u25810x40b0cf": 3776,
    "bl": 3777,
    "\u25810x40fc": 3778,
    "\u25810x42aa": 3779,
    "\u25810x442082": 3780,
    "ee4": 3781,
    "b28": 3782,
    "3c4": 3783,
    "\u25810xfeee008f": 3784,
    "\u25810x49a": 3785,
    "bc3": 3786,
    "ca4": 3787,
    "\u25810x7da9": 3788,
    "ysical": 3789,
    "43d": 3790,
    "\u25810x50b9f": 3791,
    "\u25810x40d53c": 3792,
    "hysical": 3793,
    "f1a": 3794,
    "\u25810x412969": 3795,
    "orm": 3796,
    "\u25810x7030": 3797,
    "\u25810x4129c4": 3798,
    "\u25810x46b0": 3799,
    "\u25810x40b9a4": 3800,
    "\u25810x0120": 3801,
    "borlan": 3802,
    "\u25810x71b0": 3803,
    "\u2581getc": 3804,
    "ddelphi": 3805,
    "borlanddelphi": 3806,
    "9hy": 3807,
    "f0c": 3808,
    "607": 3809,
    "\u25810xfeee0090": 3810,
    "borlanddelphilocales": 3811,
    "\u2581createprocessw": 3812,
    "6c2": 3813,
    "\u25810x6c": 3814,
    "owwindow": 3815,
    "dc6": 3816,
    "546": 3817,
    "\u25810x7830": 3818,
    "ff8": 3819,
    "\u25810x442166": 3820,
    "\u25810x442159": 3821,
    "\u25810x44246d": 3822,
    "x03": 3823,
    "\u25810x1211fc4": 3824,
    "\u25810x4181": 3825,
    "6bd": 3826,
    "\u25810x76c0": 3827,
    "\u25810x95": 3828,
    "\u25810x41e6ec": 3829,
    "tryaccess": 3830,
    "\u2581registryaccess": 3831,
    "x1": 3832,
    "\u25810x407e": 3833,
    "\u25810x41e741": 3834,
    "\u25810x3b": 3835,
    "aa6": 3836,
    "\u25810x7270": 3837,
    "quit": 3838,
    "yo": 3839,
    "\u25810x838": 3840,
    "f07": 3841,
    "\u25810x437880": 3842,
    "messagebox": 3843,
    "\u25810x419c": 3844,
    "308": 3845,
    "728": 3846,
    "\u25810x7600": 3847,
    "716": 3848,
    "\u25810x4179a9": 3849,
    "\u25810x6154": 3850,
    "nal": 3851,
    "\u25810xfeee0092": 3852,
    "\u25810x71e0": 3853,
    "\u25810x4179ab": 3854,
    "\u25810x1211dd4": 3855,
    "e1d": 3856,
    "\u25810x43e1": 3857,
    "128": 3858,
    "eexception": 3859,
    "\u2581globallock": 3860,
    "125": 3861,
    "\u2581ws2": 3862,
    "\u25810x40a3ae": 3863,
    "\u2581globalunlock": 3864,
    "b98": 3865,
    "\u25810x41d3f9": 3866,
    "\u25810x42d3": 3867,
    "\u25810x569b00": 3868,
    "new": 3869,
    "\u25810x41d3fb": 3870,
    "ab8": 3871,
    "\u25810x7210": 3872,
    "\u25810xfeee0094": 3873,
    "\u25810x74e0": 3874,
    "\u25810x78c0": 3875,
    "1c14": 3876,
    "\u25810x72d0": 3877,
    "\u25810x70c0": 3878,
    "\u25810x7180": 3879,
    "\u25810x42dac6": 3880,
    "570": 3881,
    "\u25810x7240": 3882,
    "\u25810xfeee0091": 3883,
    "\u25810x7120": 3884,
    "\u25810x7450": 3885,
    "df8": 3886,
    "147": 3887,
    "\u25810x58c0": 3888,
    "\u2581num": 3889,
    "\u25810x70f0": 3890,
    "ssexe": 3891,
    "be6": 3892,
    "108": 3893,
    "\u25810x4041": 3894,
    "107": 3895,
    "\u25810x7330": 3896,
    "board": 3897,
    "\u25810x7480": 3898,
    "\u25810x75a0": 3899,
    "\u25810x7660": 3900,
    "\u25810x000": 3901,
    "\u25810x7360": 3902,
    "\u25810x40c4": 3903,
    "refer": 3904,
    "\u25810xfeee0093": 3905,
    "\u25810x73c0": 3906,
    "\u25810x7510": 3907,
    "untime": 3908,
    "\u25810x40bd": 3909,
    "\u25810x496": 3910,
    "\u25810x406a": 3911,
    "\u25810x74b0": 3912,
    "\u25810x7420": 3913,
    "\u25810x44b73c": 3914,
    "36c": 3915,
    "\u2581failed": 3916,
    "readn": 3917,
    "\u25810xfeee0098": 3918,
    "\u25810x41f3": 3919,
    "\u25810x29": 3920,
    "vile": 3921,
    "\u2581local": 3922,
    "\u25810x7630": 3923,
    "\u25810xfeee0097": 3924,
    "1cc": 3925,
    "\u2581trans": 3926,
    "\u25810xfeee0096": 3927,
    "\u2581loadicon": 3928,
    "122": 3929,
    "\u25810xfeee0099": 3930,
    "\u25810x40a151": 3931,
    "dcb": 3932,
    "\u25810x1211fac": 3933,
    "ig": 3934,
    "\u2581loadcursor": 3935,
    "c442": 3936,
    "\u2581x": 3937,
    "\u25810x40db": 3938,
    "stringsa": 3939,
    "84c": 3940,
    "\u2581transla": 3941,
    "uter": 3942,
    "computer": 3943,
    "\u25810x440": 3944,
    "\u2581defwindowproc": 3945,
    "eca": 3946,
    "\u2581kernel32setdefaultdlldirectories": 3947,
    "\u25810x1211f00": 3948,
    "\u25810x2b": 3949,
    "\u25810x42fa": 3950,
    "\u25810x76f0": 3951,
    "move": 3952,
    "\u25810x1211fdc": 3953,
    "5c0": 3954,
    "\u25810x5265": 3955,
    "infow": 3956,
    "\u25810x439": 3957,
    "fa7": 3958,
    "\u25810x406b": 3959,
    "updatewindow": 3960,
    "00e": 3961,
    "\u25810x3f2000": 3962,
    "\u25810x83": 3963,
    "f05": 3964,
    "ted": 3965,
    "\u25810x9030": 3966,
    "ga": 3967,
    "\u25810xfffffffe": 3968,
    "\u25810x41ee": 3969,
    "903": 3970,
    "264": 3971,
    "\u25810xfeee009b": 3972,
    "ator": 3973,
    "\u25810xfeee009c": 3974,
    "mdl": 3975,
    "localtime": 3976,
    "\u25810x4239": 3977,
    "kfree": 3978,
    "\u25810x40fe": 3979,
    "\u25810x48f8": 3980,
    "1c4": 3981,
    "f3e": 3982,
    "prec": 3983,
    "52b8": 3984,
    "bits": 3985,
    "ea8": 3986,
    "diskfree": 3987,
    "diskfreespac": 3988,
    "ages": 3989,
    "\u25810x1d": 3990,
    "\u2581kernel32tryacquiresrwlockexclusive": 3991,
    "quitmessage": 3992,
    "\u2581postquitmessage": 3993,
    "\u25810x40b653": 3994,
    "f6c": 3995,
    "\u25810x418b": 3996,
    "\u25810x7720": 3997,
    "referred": 3998,
    "uilanguages": 3999,
    "referreduilanguages": 4000,
    "104": 4001,
    "readpreferreduilanguages": 4002,
    "\u25810x4258d5": 4003,
    "\u2581endpaint": 4004,
    "\u2581beginpaint": 4005,
    "\u25810x47e": 4006,
    "\u2581ole32co": 4007,
    "948": 4008,
    "\u25810x502": 4009,
    "\u2581createdirectoryw": 4010,
    "\u25810x4256": 4011,
    "sum": 4012,
    "\u25810x10004": 4013,
    "3b1": 4014,
    "\u25810x94c0": 4015,
    "\u2581base": 4016,
    "fa0": 4017,
    "\u25810x6154d6": 4018,
    "\u25810x402e": 4019,
    "\u2581shellexecut": 4020,
    "a48": 4021,
    "40c8": 4022,
    "errormode": 4023,
    "\u25810x41e705": 4024,
    "lic": 4025,
    "\u25810x4228": 4026,
    "versionex": 4027,
    "fe8": 4028,
    "302": 4029,
    "\u2581kernel32getcurrentprocess": 4030,
    "\u2581fr": 4031,
    "\u25810x40b4": 4032,
    "a8b": 4033,
    "\u25810x7750": 4034,
    "\u2581setthread": 4035,
    "\u25810x742b": 4036,
    "744": 4037,
    "644": 4038,
    "m5": 4039,
    "\u25810x401721": 4040,
    "bcc": 4041,
    "\u2581exit": 4042,
    "97a": 4043,
    "\u25810x4067": 4044,
    "\u25810x43e": 4045,
    "5a6": 4046,
    "txt": 4047,
    "\u25810x410090": 4048,
    "382": 4049,
    "setup": 4050,
    "9afb": 4051,
    "\u2581getversionex": 4052,
    "handleex": 4053,
    "ep": 4054,
    "618": 4055,
    "649b": 4056,
    "\u25810x6d": 4057,
    "717": 4058,
    "844": 4059,
    "979": 4060,
    "\u25810x4028b4": 4061,
    "value": 4062,
    "\u25810x4f5": 4063,
    "\u25810x40f8": 4064,
    "vw": 4065,
    "98fc": 4066,
    "erator": 4067,
    "\u2581getcommandlinea": 4068,
    "\u2581enumsystem": 4069,
    "\u25810x41e703": 4070,
    "6c8": 4071,
    "fb92": 4072,
    "\u2581emustructexceptionrecord0x4": 4073,
    "e9bc": 4074,
    "ial": 4075,
    "\u25810x44f8e0": 4076,
    "debugger": 4077,
    "\u25810x40b0f7": 4078,
    "76b": 4079,
    "ifi": 4080,
    "ee2": 4081,
    "\u2581wakeallconditionvariable": 4082,
    "a82": 4083,
    "7a4": 4084,
    "\u25810x00008e": 4085,
    "debuggerpresent": 4086,
    "printfw": 4087,
    "econso": 4088,
    "\u2581emustructexceptioncontext0x4": 4089,
    "427a": 4090,
    "d1000": 4091,
    "\u25810x1211cdc": 4092,
    "\u2581deletefilea": 4093,
    "3a7": 4094,
    "baa": 4095,
    "startu": 4096,
    "208": 4097,
    "61f": 4098,
    "\u25810x49e": 4099,
    "\u2581createtoolhelp32snapshot": 4100,
    "\u2581enumsystemlocales": 4101,
    "\u25810xd000": 4102,
    "\u2581by": 4103,
    "textout": 4104,
    "\u25810x42a9a0": 4105,
    "hlp": 4106,
    "qaaaa": 4107,
    "\u25810x4039fd": 4108,
    "x01": 4109,
    "\u25810x1211f30": 4110,
    "5e8": 4111,
    "74d": 4112,
    "cef": 4113,
    "\u25810x42fa8a": 4114,
    "80e": 4115,
    "iphlp": 4116,
    "iphlpapi": 4117,
    "\u2581kernel32lstrcpy": 4118,
    "\u25810x42ea": 4119,
    "\u2581iphlpapi": 4120,
    "e41e4": 4121,
    "dd3": 4122,
    "\u2581process32first": 4123,
    "\u2581getconsole": 4124,
    "f03": 4125,
    "ateprocess": 4126,
    "\u25810x40d8": 4127,
    "gu": 4128,
    "\u25810x4134": 4129,
    "91b78": 4130,
    "c8996": 4131,
    "\u2581e3b0": 4132,
    "52b855": 4133,
    "934ca4": 4134,
    "9afbf4": 4135,
    "\u25810x7780": 4136,
    "95991b78": 4137,
    "98fc1c14": 4138,
    "fb92427a": 4139,
    "e41e4649b": 4140,
    "\u2581e3b0c442": 4141,
    "9afbf4c8996": 4142,
    "934ca495991b78": 4143,
    "fb92427ae41e4649b": 4144,
    "\u2581e3b0c44298fc1c14": 4145,
    "934ca495991b7852b855": 4146,
    "9afbf4c8996fb92427ae41e4649b": 4147,
    "\u2581e3b0c44298fc1c149afbf4c8996fb92427ae41e4649b": 4148,
    "ab6": 4149,
    "\u2581dec": 4150,
    "lecs": 4151,
    "variablecs": 4152,
    "\u2581sleepcondition": 4153,
    "\u2581sleepconditionvariablecs": 4154,
    "\u2581hkeylocalmachinesoftware": 4155,
    "may": 4156,
    "\u2581ws232dll": 4157,
    "\u25810x40a2": 4158,
    "\u25810x40480b": 4159,
    "round": 4160,
    "malloc": 4161,
    "\u25810x100048bb": 4162,
    "\u25810x4284": 4163,
    "\u2581cwindowstempsetup": 4164,
    "434": 4165,
    "40c": 4166,
    "bcf": 4167,
    "ad2": 4168,
    "\u2581kernel32delete": 4169,
    "\u25810x7be0": 4170,
    "\u25810x40ff86": 4171,
    "failedtxt": 4172,
    "\u2581cwindowstempsetup2022030": 4173,
    "\u2581tls": 4174,
    "\u25810x1211918": 4175,
    "\u2581tlscallback": 4176,
    "\u2581msvcrtwc": 4177,
    "stringw": 4178,
    "\u2581setevent": 4179,
    "\u25810x40e3f5": 4180,
    "\u2581kernel32isvalid": 4181,
    "\u2581resum": 4182,
    "\u2581resumethread": 4183,
    "\u2581kernel32globalalloc": 4184,
    "\u25810x52660": 4185,
    "aa2": 4186,
    "\u25810x4143ee": 4187,
    "186": 4188,
    "\u25810x86": 4189,
    "writeconso": 4190,
    "\u25810x77b0": 4191,
    "\u25810x79d0": 4192,
    "man": 4193,
    "tesa": 4194,
    "\u2581may": 4195,
    "\u25810x4100cc": 4196,
    "fileattributesa": 4197,
    "environmentvariablew": 4198,
    "\u25810x409d": 4199,
    "\u2581kingkarton10": 4200,
    "\u25810x861": 4201,
    "\u2581writeconso": 4202,
    "\u25810x7870": 4203,
    "\u2581512": 4204,
    "\u2581getuserdefaultlocalename": 4205,
    "\u25810x40e300": 4206,
    "10d": 4207,
    "\u2581heapalloc": 4208,
    "\u2581getdateformatex": 4209,
    "\u2581gettimeformatex": 4210,
    "\u2581isvalidlocalename": 4211,
    "\u2581enumsystemlocalesex": 4212,
    "eto": 4213,
    "300": 4214,
    "ervicehandle": 4215,
    "\u25810xbe": 4216,
    "40b": 4217,
    "\u2581openprocess": 4218,
    "\u2581getdiskfreespac": 4219,
    "orted": 4220,
    "11000": 4221,
    "rray": 4222,
    "\u25810x417c": 4223,
    "7z": 4224,
    "\u2581user32createwindowexa": 4225,
    "\u25810x4053": 4226,
    "exedowstemphgdrawdll": 4227,
    "\u25810x40e756": 4228,
    "\u2581findfirstfilew": 4229,
    "\u25810x40d1a6": 4230,
    "\u25810x12117f8": 4231,
    "\u25810x65500000": 4232,
    "f04": 4233,
    "brush": 4234,
    "\u2581cr": 4235,
    "5e7": 4236,
    "7bb": 4237,
    "nextw": 4238,
    "\u25810x4346": 4239,
    "368": 4240,
    "fe2": 4241,
    "\u2581multibytetowidechar": 4242,
    "76c": 4243,
    "42c": 4244,
    "f86": 4245,
    "ull": 4246,
    "\u25810x7900": 4247,
    "\u25810xa6": 4248,
    "\u25810x42b9": 4249,
    "\u25810x01211f60": 4250,
    "\u2581mar": 4251,
    "\u2581sep": 4252,
    "70b": 4253,
    "\u25810x4116f6": 4254,
    "1ca": 4255,
    "\u2581ucerrfetchunmappedn": 4256,
    "\u2581cwindowstemp7z": 4257,
    "\u25810x40a8": 4258,
    "\u25810x416b": 4259,
    "\u25810x40b2df": 4260,
    "ater": 4261,
    "\u2581sat": 4262,
    "ab5": 4263,
    "mber": 4264,
    "6b6": 4265,
    "\u2581exitthread": 4266,
    "\u25810x41bc20": 4267,
    "\u2581translate": 4268,
    "\u25810x7840": 4269,
    "\u2581kernel32initializes": 4270,
    "687": 4271,
    "\u2581aug": 4272,
    "82a": 4273,
    "item": 4274,
    "change": 4275,
    "\u2581heapfree": 4276,
    "\u2581widechartomultibyte": 4277,
    "\u2581sun": 4278,
    "210": 4279,
    "eentries": 4280,
    "connect": 4281,
    "alett": 4282,
    "aletteentries": 4283,
    "\u2581oct": 4284,
    "502": 4285,
    "e08": 4286,
    "f8000": 4287,
    "\u2581googletempgum1646": 4288,
    "07": 4289,
    "f00": 4290,
    "\u2581feb": 4291,
    "\u25810x41d6": 4292,
    "646": 4293,
    "\u25810x407d": 4294,
    "930": 4295,
    "\u25810x413de": 4296,
    "\u2581tue": 4297,
    "\u25810x4359": 4298,
    "sday": 4299,
    "\u25810x3bc": 4300,
    "\u2581wed": 4301,
    "\u2581apivirtual": 4302,
    "\u25810x422e": 4303,
    "8a00": 4304,
    "\u25810x419419": 4305,
    "32a": 4306,
    "\u25810x7b90": 4307,
    "\u25810x41941b": 4308,
    "msg": 4309,
    "111": 4310,
    "uary": 4311,
    "9b6": 4312,
    "30x400000": 4313,
    "atethread": 4314,
    "\u2581googletempgut1646": 4315,
    "\u25810x78d0": 4316,
    "\u2581getwindow": 4317,
    "\u25810x429d": 4318,
    "\u2581emumoduleb": 4319,
    "\u2581findnextfilew": 4320,
    "\u2581array": 4321,
    "oem": 4322,
    "\u25810x7db0": 4323,
    "\u25810x10000": 4324,
    "\u25810x7bf0": 4325,
    "\u2581getprocessheap": 4326,
    "\u25810x4203": 4327,
    "2cc": 4328,
    "\u25810x67c": 4329,
    "foreg": 4330,
    "foreground": 4331,
    "foregroundwindow": 4332,
    "406": 4333,
    "\u2581terminatethread": 4334,
    "\u25810x05265": 4335,
    "unwin": 4336,
    "182": 4337,
    "\u25810x4089": 4338,
    "\u2581copyfilew": 4339,
    "down": 4340,
    "\u25810x41f1e4": 4341,
    "\u25810x40933f": 4342,
    "\u25810xa9": 4343,
    "unwind": 4344,
    "922": 4345,
    "debugs": 4346,
    "putdebugs": 4347,
    "\u25810x861dfd": 4348,
    "putdebugstring": 4349,
    "\u25810x41f239": 4350,
    "4e3": 4351,
    "\u25810x91": 4352,
    "\u25810x404b": 4353,
    "\u2581shell32shget": 4354,
    "884": 4355,
    "31c": 4356,
    "seh": 4357,
    "\u25810x7ee0": 4358,
    "adc": 4359,
    "6660x15drl6660x15drl": 4360,
    "7212": 4361,
    "\u2581supported": 4362,
    "systempaletteentries": 4363,
    "\u25810x00422": 4364,
    "\u2581localalloc": 4365,
    "\u2581div": 4366,
    "\u25810x1211f4c": 4367,
    "\u2581entercriticalsection": 4368,
    "\u25810x40c6a3": 4369,
    "lation": 4370,
    "\u2581getstdhandle": 4371,
    "\u2581leavecriticalsection": 4372,
    "bad8": 4373,
    "\u25810x409343": 4374,
    "\u2581division": 4375,
    "\u25810x42b9a0": 4376,
    "399": 4377,
    "\u2581zero": 4378,
    "\u2581apivirtualalloc0x": 4379,
    "\u25810x4044": 4380,
    "550": 4381,
    "\u25810x7db5": 4382,
    "b08": 4383,
    "manag": 4384,
    "\u2581kernel32process32nextw": 4385,
    "processorinformation": 4386,
    "\u2581deletecriticalsection": 4387,
    "\u2581getcurrentprocess": 4388,
    "1d9": 4389,
    "fb000": 4390,
    "\u25810x88a0": 4391,
    "\u25810x4b4": 4392,
    "\u25810x40933d": 4393,
    "\u25810x413de5": 4394,
    "\u2581getlogicalprocessorinformation": 4395,
    "\u2581translatemessage": 4396,
    "f2b": 4397,
    "3a6": 4398,
    "719": 4399,
    "stack": 4400,
    "\u25810x7dad": 4401,
    "eac": 4402,
    "\u25810x505d": 4403,
    "guar": 4404,
    "antee": 4405,
    "guarantee": 4406,
    "stackguarantee": 4407,
    "\u2581createdirectorya": 4408,
    "\u2581varr": 4409,
    "mappin": 4410,
    "filemappin": 4411,
    "4fromstr": 4412,
    "scmanag": 4413,
    "\u2581user32wsprintfa": 4414,
    "\u25810x44f9": 4415,
    "\u25810x4233": 4416,
    "\u2581setthreadstackguarantee": 4417,
    "app": 4418,
    "f8f": 4419,
    "\u2581gdi32getsystempaletteentries": 4420,
    "point": 4421,
    "\u25810x409342": 4422,
    "\u25810x409340": 4423,
    "\u25810x409341": 4424,
    "\u25810x40933e": 4425,
    "\u2581isdebuggerpresent": 4426,
    "\u2581getcurrentprocessid": 4427,
    "00d": 4428,
    "driv": 4429,
    "\u25810x49f0": 4430,
    "7dc": 4431,
    "7c8": 4432,
    "727": 4433,
    "\u25810x42da": 4434,
    "\u2581apivirtualalloc0x50000": 4435,
    "314": 4436,
    "eee": 4437,
    "fe4": 4438,
    "24d": 4439,
    "\u25810x3d": 4440,
    "7c2": 4441,
    "\u25810x434624": 4442,
    "bk": 4443,
    "90c": 4444,
    "d13": 4445,
    "\u2581createprocessa": 4446,
    "eea": 4447,
    "\u25810x41d4b2": 4448,
    "\u2581isprocessorfeaturepresent": 4449,
    "\u2581cb": 4450,
    "f5000": 4451,
    "\u25810x42c0": 4452,
    "b9c": 4453,
    "\u2581getcpinfo": 4454,
    "7b5": 4455,
    "x0c": 4456,
    "\u25810x169bf": 4457,
    "66a": 4458,
    "\u25810x5265c28": 4459,
    "\u25810x43c": 4460,
    "\u25810x4167": 4461,
    "\u2581getacp": 4462,
    "\u25810x26": 4463,
    "messageboxa": 4464,
    "aq": 4465,
    "91a": 4466,
    "uilanguage": 4467,
    "\u25810x3f34c0": 4468,
    "\u25810x419aa4": 4469,
    "\u2581emumodule8": 4470,
    "768": 4471,
    "7cb": 4472,
    "909": 4473,
    "\u25810x52661": 4474,
    "\u25810x4104": 4475,
    "\u2581tlsgetvalue": 4476,
    "109": 4477,
    "6bb": 4478,
    "\u2581tlssetvalue": 4479,
    "403": 4480,
    "\u25810x9b": 4481,
    "x02x03": 4482,
    "\u2581terminateprocess": 4483,
    "\u2581unhandledexceptionfilter": 4484,
    "\u25810x5b86": 4485,
    "009": 4486,
    "846": 4487,
    "5a0": 4488,
    "806": 4489,
    "\u25810x417a0d": 4490,
    "204": 4491,
    "944": 4492,
    "faf": 4493,
    "\u25810x417a62": 4494,
    "364": 4495,
    "fa000": 4496,
    "\u2581getfileinformationby": 4497,
    "acb": 4498,
    "\u25810x470a": 4499,
    "\u2581safe": 4500,
    "\u2581openthread": 4501,
    "\u2581setlasterror": 4502,
    "\u2581kernel32getsysteminfo": 4503,
    "f16": 4504,
    "\u25810x53b": 4505,
    "\u2581rtlunwind": 4506,
    "\u25810x423b": 4507,
    "\u25810x41d45d": 4508,
    "\u2581kernel32createeventw": 4509,
    "\u25810x4f9": 4510,
    "ebd": 4511,
    "53e": 4512,
    "\u25810x4100a8": 4513,
    "9d2": 4514,
    "\u25810x4c42d8": 4515,
    "\u2581getenvironmentvariablew": 4516,
    "vl": 4517,
    "10a": 4518,
    "\u25810x4c42f0": 4519,
    "\u25810x40bda7": 4520,
    "\u25810x4095": 4521,
    "\u25810x4102": 4522,
    "memread": 4523,
    "50e": 4524,
    "\u25810x49eff6": 4525,
    "\u2581memreadn": 4526,
    "\u25810x40cd0c": 4527,
    "\u25810xc4": 4528,
    "\u25810x3f75f": 4529,
    "\u2581getenvironmentvariablea": 4530,
    "746": 4531,
    "\u25810x40ce2f": 4532,
    "\u25810x408b": 4533,
    "\u25810x7db4": 4534,
    "929": 4535,
    "\u25810x403a": 4536,
    "\u2581iphlpapidll": 4537,
    "\u25810x40e527": 4538,
    "\u25810x423e": 4539,
    "\u25810x40e661": 4540,
    "\u25810x41aa": 4541,
    "\u25810x8f": 4542,
    "\u25810x5322": 4543,
    "\u2581getusernamew": 4544,
    "\u25810x7da0": 4545,
    "exec": 4546,
    "f0x400000": 4547,
    "\u2581kernel32isvalidcodepage": 4548,
    "folderpathw": 4549,
    "\u25810x417a26": 4550,
    "com": 4551,
    "f0a": 4552,
    "\u25810x12118": 4553,
    "89d": 4554,
    "\u2581openscmanag": 4555,
    "f51": 4556,
    "\u2581getfiletype": 4557,
    "00b": 4558,
    "\u2581yo": 4559,
    "\u25810x40cd61": 4560,
    "\u2581closeservicehandle": 4561,
    "\u25810x428a": 4562,
    "002": 4563,
    "3c8": 4564,
    "12f": 4565,
    "\u25810x8f20": 4566,
    "\u2581map": 4567,
    "\u2581initializesecuritydescriptor": 4568,
    "e4000": 4569,
    "\u25810x0050": 4570,
    "\u25810x527": 4571,
    "\u25810x4256d7": 4572,
    "262": 4573,
    "\u25810x42e0": 4574,
    "\u2581msvcrtp": 4575,
    "\u2581setsecuritydescriptordacl": 4576,
    "370": 4577,
    "\u25810x412e": 4578,
    "lis": 4579,
    "\u2581heaprealloc": 4580,
    "bc4": 4581,
    "f6000": 4582,
    "\u25810x405bd0": 4583,
    "b24": 4584,
    "\u25810x417a24": 4585,
    "arg": 4586,
    "texw": 4587,
    "70a": 4588,
    "filemappinga": 4589,
    "\u25810x4261": 4590,
    "d1b": 4591,
    "ify": 4592,
    "\u25810x052660": 4593,
    "953": 4594,
    "\u25810x4330": 4595,
    "nexw": 4596,
    "\u2581interlockedincrement": 4597,
    "\u25810xe1": 4598,
    "\u25810x4e50": 4599,
    "fileinformationby": 4600,
    "oemcp": 4601,
    "\u25810x4e9": 4602,
    "72f": 4603,
    "\u2581interlockeddecrement": 4604,
    "\u25810xad": 4605,
    "\u25810x414761": 4606,
    "95e": 4607,
    "\u25810x4fd": 4608,
    "a17": 4609,
    "\u25810x42d8c6": 4610,
    "\u2581openscmanagerw": 4611,
    "\u25810x37": 4612,
    "101": 4613,
    "ee3": 4614,
    "dfc": 4615,
    "mz": 4616,
    "55d": 4617,
    "ecf": 4618,
    "\u25810x107568": 4619,
    "3a9": 4620,
    "36d": 4621,
    "\u25810x60000": 4622,
    "14c": 4623,
    "ffc": 4624,
    "\u2581setunhandledexceptionfilter": 4625,
    "\u25810x41d476": 4626,
    "\u2581getfileinformationbyhandleex": 4627,
    "\u25810x49f046": 4628,
    "\u25810x41d474": 4629,
    "\u2581tlsalloc": 4630,
    "\u2581kernel32deletefilew": 4631,
    "848": 4632,
    "\u2581raiseexception": 4633,
    "\u25810x40b3": 4634,
    "3a3": 4635,
    "904": 4636,
    "24c": 4637,
    "\u25810x4270": 4638,
    "\u25810x40c9d0": 4639,
    "\u25810x7d94": 4640,
    "\u2581olea": 4641,
    "8cb": 4642,
    "\u25810x41360": 4643,
    "\u25810xc3f89a": 4644,
    "windowstemp": 4645,
    "\u25810xa2": 4646,
    "\u2581gettickcount64": 4647,
    "\u25810x407317": 4648,
    "8t": 4649,
    "eba": 4650,
    "\u25810x419e": 4651,
    "\u25810x4fec": 4652,
    "556": 4653,
    "\u2581setfileinformationby": 4654,
    "\u25810x409a7d": 4655,
    "a10": 4656,
    "\u25810x2d": 4657,
    "504": 4658,
    "\u2581getoemcp": 4659,
    "\u2581user32register": 4660,
    "\u2581user32registerwindow": 4661,
    "\u25810x403abb": 4662,
    "\u25810x7dc0": 4663,
    "\u25810x9020": 4664,
    "ure": 4665,
    "\u25810x1211f20": 4666,
    "\u2581advapi32regopenkeyexa": 4667,
    "\u25810x40c8b0": 4668,
    "\u2581getstringtypew": 4669,
    "139": 4670,
    "637": 4671,
    "\u25810x433648": 4672,
    "filebuffers": 4673,
    "\u2581regquery": 4674,
    "\u25810x409b02": 4675,
    "\u25810x409af6": 4676,
    "b07": 4677,
    "ex0": 4678,
    "\u25810x7bd0": 4679,
    "\u25810x7d95": 4680,
    "\u2581crtdll": 4681,
    "\u25810x43b390": 4682,
    "\u2581flushfilebuffers": 4683,
    "\u2581lcmapstringw": 4684,
    "\u2581crypt": 4685,
    "\u2581ole32coinitializ": 4686,
    "301": 4687,
    "207": 4688,
    "\u25810x000047": 4689,
    "\u25810x41f85c": 4690,
    "\u25810x120e6d4": 4691,
    "\u25810x42da39": 4692,
    "513": 4693,
    "he": 4694,
    "a9b": 4695,
    "428": 4696,
    "d17": 4697,
    "\u25810x40c0": 4698,
    "op": 4699,
    "ab9": 4700,
    "\u25810x1211748": 4701,
    "blt": 4702,
    "\u2581system": 4703,
    "70e": 4704,
    "bc6": 4705,
    "thead": 4706,
    "\u25810x411265": 4707,
    "\u2581gdi32dll": 4708,
    "listhead": 4709,
    "\u25810x93": 4710,
    "\u25810x557": 4711,
    "\u25810x403f": 4712,
    "\u2581freeenvironmentstringsw": 4713,
    "\u2581getenvironmentstringsw": 4714,
    "\u25810x800c": 4715,
    "\u25810x409a72": 4716,
    "\u25810x41f8cc": 4717,
    "\u25810x1211dc8": 4718,
    "686": 4719,
    "\u25810x413606": 4720,
    "\u25810x7da5": 4721,
    "dc8": 4722,
    "77d": 4723,
    "\u25810x7de4": 4724,
    "\u25810x8230": 4725,
    "5c4": 4726,
    "7a9": 4727,
    "2e7": 4728,
    "\u25810x1211f3c": 4729,
    "\u2581fil": 4730,
    "886": 4731,
    "4ca": 4732,
    "\u25810x1211f34": 4733,
    "\u25816": 4734,
    "ith": 4735,
    "\u25810x120e6d0": 4736,
    "5f0": 4737,
    "\u25810x408c": 4738,
    "\u25810x42da4c": 4739,
    "aa1": 4740,
    "ee9": 4741,
    "\u25810x43d3": 4742,
    "\u25810x409e": 4743,
    "\u25810x7de5": 4744,
    "960": 4745,
    "\u2581kernel32getsystemdirectorya": 4746,
    "\u2581getsystemmetrics": 4747,
    "muldiv": 4748,
    "\u25810x468658": 4749,
    "bkcolor": 4750,
    "zx": 4751,
    "\u25810x41d8": 4752,
    "\u25810x7da4": 4753,
    "\u25810x80000000": 4754,
    "aterect": 4755,
    "fa4": 4756,
    "\u25810x4e931e": 4757,
    "\u2581setfileattributesa": 4758,
    "ven": 4759,
    "\u25810x4080": 4760,
    "classlong": 4761,
    "\u25810x4038": 4762,
    "124": 4763,
    "\u25810x7960": 4764,
    "\u25810x40d18f": 4765,
    "bf0": 4766,
    "\u2581tr": 4767,
    "\u25810x52662": 4768,
    "249": 4769,
    "\u25810x407587": 4770,
    "\u258138": 4771,
    "\u25810x7da1": 4772,
    "ioc": 4773,
    "11a": 4774,
    "\u25810x42e4": 4775,
    "\u25810x4126ce": 4776,
    "stdhandle": 4777,
    "\u25810x408946": 4778,
    "528": 4779,
    "\u25810x44bbe6": 4780,
    "\u2581heapcreate": 4781,
    "f47": 4782,
    "\u25810xd0": 4783,
    "\u25810x40182a": 4784,
    "\u25810x412730": 4785,
    "8c2": 4786,
    "\u2581initializecriticalsectionandspincount": 4787,
    "8c3": 4788,
    "\u2581setstdhandle": 4789,
    "\u25810x8a60": 4790,
    "\u2581dispatchmessagea": 4791,
    "vio": 4792,
    "\u25810x7db1": 4793,
    "\u25810x4092": 4794,
    "42f": 4795,
    "\u25810x40c602": 4796,
    "148": 4797,
    "6398": 4798,
    "\u2581kernel32globallock": 4799,
    "\u25810x41ee4e": 4800,
    "\u2581v": 4801,
    "e4c": 4802,
    "edure": 4803,
    "\u25810x05265c": 4804,
    "\u25810x7d7": 4805,
    "ff0": 4806,
    "ogr": 4807,
    "\u25810x40c604": 4808,
    "764": 4809,
    "\u25810x45fc": 4810,
    "\u2581getmessagea": 4811,
    "cd6": 4812,
    "40d": 4813,
    "ed2": 4814,
    "9ae": 4815,
    "\u25810x39": 4816,
    "901": 4817,
    "f63": 4818,
    "\u25810x4108": 4819,
    "\u25810x41ab": 4820,
    "\u25810x7d98": 4821,
    "\u25810x468642": 4822,
    "\u25810x4208": 4823,
    "\u2581getdc": 4824,
    "\u2581kernel32initializeslisthead": 4825,
    "538": 4826,
    "\u25810x4132": 4827,
    "7b4": 4828,
    "texta": 4829,
    "\u2581sq": 4830,
    "343": 4831,
    "destroy": 4832,
    "\u2581copyfilea": 4833,
    "709": 4834,
    "e16": 4835,
    "zwx": 4836,
    "violation": 4837,
    "\u25810x01211fe8": 4838,
    "\u25810x412321": 4839,
    "\u25810x052661": 4840,
    "\u25810x42d309": 4841,
    "\u25810x40cc": 4842,
    "656c": 4843,
    "ec9": 4844,
    "\u25810x42f": 4845,
    "\u25810x7d10": 4846,
    "\u25810x7d99": 4847,
    "\u25810x79c0": 4848,
    "edb": 4849,
    "413": 4850,
    "f62": 4851,
    "\u25810x350": 4852,
    "df2": 4853,
    "\u25810x1211f48": 4854,
    "987": 4855,
    "\u25810x7d9c": 4856,
    "5c3": 4857,
    "\u2581regopenkeyexa": 4858,
    "\u25810x527ed8": 4859,
    "\u25810x410136": 4860,
    "indirec": 4861,
    "\u25810x4371": 4862,
    "\u25810x40c9df": 4863,
    "\u25810x7d9d": 4864,
    "\u25810x3f3000": 4865,
    "\u25810x40ca3a": 4866,
    "\u2581settext": 4867,
    "\u25810x3a": 4868,
    "\u25810x7cd0": 4869,
    "\u25810x4151": 4870,
    "d08": 4871,
    "\u2581regqueryval": 4872,
    "323": 4873,
    "697": 4874,
    "b4c": 4875,
    "\u25810x6f": 4876,
    "324": 4877,
    "\u25810x416e93": 4878,
    "\u25810x4acf76": 4879,
    "\u25810x4257": 4880,
    "\u25810x41238b": 4881,
    "\u25810x40a0": 4882,
    "\u25810x4188": 4883,
    "setinformation": 4884,
    "\u2581setwindowpos": 4885,
    "352": 4886,
    "eef": 4887,
    "ffe": 4888,
    "rand": 4889,
    "\u25810x81": 4890,
    "662": 4891,
    "\u25810x484": 4892,
    "\u2581deleteob": 4893,
    "\u25810x4161": 4894,
    "\u25810x00422ece": 4895,
    "\u25810x40c1": 4896,
    "\u2581winexec": 4897,
    "\u2581kernel32getvolumeinformation": 4898,
    "74c": 4899,
    "a22": 4900,
    "\u25810x004c6398": 4901,
    "\u2581getforegroundwindow": 4902,
    "x1b": 4903,
    "\u25810x412330": 4904,
    "\u2581createe": 4905,
    "\u25810x7b40": 4906,
    "\u25810x8cf0": 4907,
    "\u25810x40c7": 4908,
    "424": 4909,
    "\u2581selectob": 4910,
    "8da0": 4911,
    "\u25810x0010": 4912,
    "5e2": 4913,
    "x14": 4914,
    "\u25810x62": 4915,
    "\u25810x4029": 4916,
    "50x400000": 4917,
    "a0000": 4918,
    "vileg": 4919,
    "\u25810x4121ce": 4920,
    "560": 4921,
    "\u25810x412c": 4922,
    "\u25810x4382c3": 4923,
    "\u25810x4c4": 4924,
    "\u25810x7dac": 4925,
    "9f8": 4926,
    "\u2581deletedc": 4927,
    "\u2581getkeystate": 4928,
    "6ae": 4929,
    "ventexw": 4930,
    "\u2581createeventexw": 4931,
    "\u2581oleaut": 4932,
    "\u25810x41f1fb": 4933,
    "\u25810x4016": 4934,
    "7cc": 4935,
    "\u25810x41f1fd": 4936,
    "endof": 4937,
    "endoffile": 4938,
    "11x": 4939,
    "x0b": 4940,
    "\u2581sethandlecount": 4941,
    "\u2581setendoffile": 4942,
    "59e": 4943,
    "d1c": 4944,
    "\u25810x419362": 4945,
    "x1c": 4946,
    "x07": 4947,
    "x17": 4948,
    "11d": 4949,
    "\u25810x41024d": 4950,
    "4g": 4951,
    "qaaa": 4952,
    "\u25810x41ff": 4953,
    "\u25810x4193b7": 4954,
    "\u2581user32getsyscolorbrush": 4955,
    "\u2581kernel32createeventa": 4956,
    "435": 4957,
    "e04": 4958,
    "11b": 4959,
    "\u25810x4052": 4960,
    "32b": 4961,
    "x17x": 4962,
    "83z": 4963,
    "\u25810x8d80": 4964,
    "ea1": 4965,
    "x15": 4966,
    "x1d": 4967,
    "\u2581queryperformancecounter": 4968,
    "\u25810x4182": 4969,
    "\u2581settextcolor": 4970,
    "\u25810x40e085": 4971,
    "\u25810x41947d": 4972,
    "x06": 4973,
    "92a": 4974,
    "\u25810x419d": 4975,
    "df6": 4976,
    "10x": 4977,
    "f30": 4978,
    "580d": 4979,
    "\u25810x1211908": 4980,
    "lhandler": 4981,
    "x04": 4982,
    "\u25810xb7ea": 4983,
    "x16": 4984,
    "\u25810x00139": 4985,
    "5e3": 4986,
    "\u2581tlsfree": 4987,
    "x19": 4988,
    "750": 4989,
    "\u25810x1211e40": 4990,
    "ed6": 4991,
    "\u25810x403e": 4992,
    "\u25810x40f722": 4993,
    "\u2581setbkcolor": 4994,
    "\u2581files": 4995,
    "\u25810x414290": 4996,
    "x1a": 4997,
    "\u25810x0010e9bc": 4998,
    "\u25810x00139ac0": 4999,
    "x13": 5000,
    "\u25810x4093f3": 5001,
    "\u25810x4194d2": 5002,
    "592": 5003,
    "\u25810x4620": 5004,
    "def": 5005,
    "\u25810x3511": 5006,
    "\u25810x80c4": 5007,
    "x05": 5008,
    "\u25810x4710": 5009,
    "973": 5010,
    "\u25810x4340c8": 5011,
    "ex1f": 5012,
    "\u25810x7e84": 5013,
    "\u2581textout": 5014,
    "\u2581getkeyboard": 5015,
    "\u2581image": 5016,
    "\u25810x410770": 5017,
    "ifyversion": 5018,
    "947": 5019,
    "\u2581softwarecodegearlocales": 5020,
    "\u25810x41073b": 5021,
    "\u25810x41422e": 5022,
    "x1dx1": 5023,
    "38f0": 5024,
    "18x19": 5025,
    "x1ax1b": 5026,
    "x1cx1dx1": 5027,
    "18x19x1ax1b": 5028,
    "x1cx1dx1ex1f": 5029,
    "18x19x1ax1bx1cx1dx1ex1f": 5030,
    "rx0": 5031,
    "\u25810x404d": 5032,
    "\u25810x40df90": 5033,
    "ex0fx": 5034,
    "8tn": 5035,
    "11x12": 5036,
    "x07x0": 5037,
    "8tnx0b": 5038,
    "x04x05": 5039,
    "x0crx0": 5040,
    "x13x14": 5041,
    "x15x16": 5042,
    "10x11x12": 5043,
    "x06x07x0": 5044,
    "x15x16x17x": 5045,
    "x0crx0ex0fx": 5046,
    "x02x03x04x05": 5047,
    "10x11x12x13x14": 5048,
    "x06x07x08tnx0b": 5049,
    "10x11x12x13x14x15x16x17x": 5050,
    "x06x07x08tnx0bx0crx0ex0fx": 5051,
    "x02x03x04x05x06x07x08tnx0bx0crx0ex0fx": 5052,
    "10x11x12x13x14x15x16x17x18x19x1ax1bx1cx1dx1ex1f": 5053,
    "\u25810x0000000a": 5054,
    "\u2581emumodule4": 5055,
    "366": 5056,
    "eb1": 5057,
    "\u25810x78f0": 5058,
    "valuew": 5059,
    "6a5": 5060,
    "9bd": 5061,
    "5d6": 5062,
    "\u25810x441": 5063,
    "9dc": 5064,
    "ea2": 5065,
    "\u25810x401100": 5066,
    "\u2581accept": 5067,
    "\u25810x500": 5068,
    "\u25810x40ecdf": 5069,
    "\u25810xa7b1": 5070,
    "\u25810x4359b8": 5071,
    "b1b": 5072,
    "58b": 5073,
    "90f": 5074,
    "\u25810x435a2a": 5075,
    "97d": 5076,
    "\u25810x7aa0": 5077,
    "83zvh": 5078,
    "9hyvl": 5079,
    "83zvh9hyvl": 5080,
    "\u2581createeventa": 5081,
    "\u2581crtdllgetmainargs": 5082,
    "\u2581x01": 5083,
    "\u25810x7e85": 5084,
    "rtl": 5085,
    "981d": 5086,
    "\u25810x20000": 5087,
    "88a": 5088,
    "\u25810x000001": 5089,
    "\u2581showwindow": 5090,
    "servicestatus": 5091,
    "\u25810x4397": 5092,
    "\u2581kernel32delet": 5093,
    "d2b": 5094,
    "fa9": 5095,
    "acd": 5096,
    "ifyversioninfow": 5097,
    "yw": 5098,
    "\u25810x5265d": 5099,
    "\u25810x419494": 5100,
    "uld": 5101,
    "\u25810x0169b8": 5102,
    "\u25810x452": 5103,
    "startup": 5104,
    "\u2581kernel32deletecriticalsection": 5105,
    "\u2581x01x02x03x04x05x06x07x08tnx0bx0crx0ex0fx": 5106,
    "50c": 5107,
    "704": 5108,
    "ecute": 5109,
    "\u25810x499": 5110,
    "\u2581createdi": 5111,
    "\u25810x169": 5112,
    "\u2581user32registerclassa": 5113,
    "\u25810x5265e": 5114,
    "\u25810x50c7b": 5115,
    "\u25810x41d569": 5116,
    "01": 5117,
    "\u2581softwareborlandlocales": 5118,
    "7c7": 5119,
    "\u25810x7e80": 5120,
    "\u25810x41580d": 5121,
    "5dc": 5122,
    "atw": 5123,
    "58a": 5124,
    "\u25810x40bfa7": 5125,
    "\u25810xb4": 5126,
    "\u25810x651": 5127,
    "f82": 5128,
    "\u25810x401267": 5129,
    "586": 5130,
    "\u25810x4212": 5131,
    "\u25810x4039f6": 5132,
    "\u25810x50b37": 5133,
    "sastartup": 5134,
    "ce8": 5135,
    "\u25810x4033": 5136,
    "\u25810x410266": 5137,
    "\u25810x41d5be": 5138,
    "954": 5139,
    "\u25810x410268": 5140,
    "\u25810x1e5": 5141,
    "\u25810x7dbc": 5142,
    "\u25810x7e81": 5143,
    "\u25810x412228": 5144,
    "789": 5145,
    "memreadaddr": 5146,
    "\u25810x7af0": 5147,
    "\u25810x412219": 5148,
    "ac5": 5149,
    "\u25810x7db8": 5150,
    "\u25810x4120f9": 5151,
    "\u2581updatewindow": 5152,
    "639": 5153,
    "irec": 5154,
    "\u25810x42c588": 5155,
    "\u2581getlogicaldrivestringsa": 5156,
    "6cc": 5157,
    "f66": 5158,
    "\u25810x412283": 5159,
    "\u25810x4065": 5160,
    "\u25810x7db9": 5161,
    "\u2581user32registerwindowmessagew": 5162,
    "\u25810x410147": 5163,
    "\u25810x419f": 5164,
    "recv": 5165,
    "\u25810x7a20": 5166,
    "b09": 5167,
    "fbf": 5168,
    "322": 5169,
    "\u25810x4093ff": 5170,
    "702": 5171,
    "\u25810x410d": 5172,
    "\u25810x40f5": 5173,
    "\u25810x41ef43": 5174,
    "f15": 5175,
    "\u25810x7dbd": 5176,
    "tig": 5177,
    "emutex": 5178,
    "\u25810x7ae0": 5179,
    "fb6": 5180,
    "izen": 5181,
    "\u2581bit": 5182,
    "\u25810x7df0": 5183,
    "\u25810x556": 5184,
    "\u2581sizen": 5185,
    "unmapviewoffile": 5186,
    "\u25810x419496": 5187,
    "\u25810x411548": 5188,
    "d16": 5189,
    "loadresource": 5190,
    "tm": 5191,
    "\u2581kernel32loadresource": 5192,
    "4cfe": 5193,
    "ecutew": 5194,
    "\u25810x40937a": 5195,
    "delete": 5196,
    "\u25810x423c": 5197,
    "\u25810x406d": 5198,
    "\u2581kernel32seterrormode": 5199,
    "servicectrlhandler": 5200,
    "ope": 5201,
    "opene": 5202,
    "erver": 5203,
    "\u2581loc": 5204,
    "\u2581emumodule1": 5205,
    "a41": 5206,
    "edex": 5207,
    "\u25810x6a6": 5208,
    "terlockedex": 5209,
    "f22": 5210,
    "\u2581mapviewoffile": 5211,
    "\u25810x40936f": 5212,
    "\u2581locate": 5213,
    "\u25810x052662": 5214,
    "terlockedexchange": 5215,
    "\u2581createcompatibledc": 5216,
    "dibits": 5217,
    "cd8": 5218,
    "\u2581bitblt": 5219,
    "\u25810x7dc1": 5220,
    "82d": 5221,
    "9fc": 5222,
    "fa2": 5223,
    "140": 5224,
    "\u25810x52000": 5225,
    "90d": 5226,
    "\u2581lstrcmp": 5227,
    "40e": 5228,
    "irector": 5229,
    "\u2581heapsize": 5230,
    "\u2581loadicona": 5231,
    "f7d": 5232,
    "\u25810x405913": 5233,
    "\u2581kernel32getenvironmentvariablew": 5234,
    "\u2581fill": 5235,
    "cd2": 5236,
    "\u25810x465": 5237,
    "\u2581getob": 5238,
    "\u258110": 5239,
    "\u2581kernel32getlocaltime": 5240,
    "crt": 5241,
    "\u2581imagelistdrag": 5242,
    "b0c": 5243,
    "\u2581sendmessagea": 5244,
    "\u25810x481": 5245,
    "a07": 5246,
    "\u25810xaf": 5247,
    "atea": 5248,
    "\u2581releasemutex": 5249,
    "be5": 5250,
    "\u2581createmutexa": 5251,
    "\u2581unmapviewoffile": 5252,
    "esid": 5253,
    "\u2581kernel32verifyversioninfow": 5254,
    "313": 5255,
    "\u25810x1211cc": 5256,
    "\u25810x1211ccc": 5257,
    "prdll": 5258,
    "76d": 5259,
    "168a000": 5260,
    "\u2581emustack0x168a000": 5261,
    "\u2581apimswincrt": 5262,
    "initializesid": 5263,
    "\u2581kernel32findresourcew": 5264,
    "9a8": 5265,
    "\u2581destroyicon": 5266,
    "\u2581mprdll": 5267,
    "6c7": 5268,
    "614": 5269,
    "640": 5270,
    "747": 5271,
    "fa3": 5272,
    "ateand": 5273,
    "ateandinitializesid": 5274,
    "18c": 5275,
    "a0c": 5276,
    "\u25810x40a5dc": 5277,
    "\u2581createcompatiblebitmap": 5278,
    "abe": 5279,
    "d1d": 5280,
    "1c3": 5281,
    "\u25810x42cd": 5282,
    "\u25810x4b94b4": 5283,
    "\u25810x3f3030": 5284,
    "436": 5285,
    "\u2581server": 5286,
    "\u2581createwindowexa": 5287,
    "\u2581invalidaterect": 5288,
    "\u2581defwindowproca": 5289,
    "b81": 5290,
    "\u25810x404f17": 5291,
    "a4f": 5292,
    "ancel": 5293,
    "\u25810x8d10": 5294,
    "ldispatch": 5295,
    "servicectrldispatch": 5296,
    "\u25810x429fc6": 5297,
    "\u2581kernel32size": 5298,
    "\u2581kernel32sizeofresource": 5299,
    "fd3": 5300,
    "fontindirec": 5301,
    "962": 5302,
    "ad8": 5303,
    "nh": 5304,
    "9c7": 5305,
    "\u2581alloc": 5306,
    "\u2581createfilemappinga": 5307,
    "303": 5308,
    "\u25810x3f30e0": 5309,
    "\u25810x51000": 5310,
    "9c6": 5311,
    "\u2581list": 5312,
    "soli": 5313,
    "\u2581getprivateprofile": 5314,
    "d0e": 5315,
    "cd4e": 5316,
    "de8": 5317,
    "\u25810xaa": 5318,
    "\u2581could": 5319,
    "96d": 5320,
    "\u25810x403b": 5321,
    "c08": 5322,
    "\u2581msvcrtinitterm": 5323,
    "\u2581findwindow": 5324,
    "361": 5325,
    "6164": 5326,
    "\u25810x3f30b0": 5327,
    "\u25810x40bfb9": 5328,
    "\u25810x401e": 5329,
    "7eb": 5330,
    "\u2581getdibits": 5331,
    "\u25810x4133": 5332,
    "\u2581settimer": 5333,
    "f2f": 5334,
    "\u2581fillrect": 5335,
    "b06": 5336,
    "\u2581msvcrtmalloc": 5337,
    "\u2581createfontindirec": 5338,
    "26c": 5339,
    "72b": 5340,
    "766": 5341,
    "\u25810x7a50": 5342,
    "\u25810x4274": 5343,
    "\u25810x3f3110": 5344,
    "acc": 5345,
    "\u2581sus": 5346,
    "ddata": 5347,
    "\u25810x63": 5348,
    "clipboarddata": 5349,
    "326": 5350,
    "\u25810x4bd0": 5351,
    "\u2581kernel32loadlibraryw": 5352,
    "558": 5353,
    "dbrush": 5354,
    "solidbrush": 5355,
    "\u2581loadcursora": 5356,
    "842": 5357,
    "pendthread": 5358,
    "\u25810x42fc": 5359,
    "rag": 5360,
    "ai": 5361,
    "\u2581suspendthread": 5362,
    "72d": 5363,
    "host": 5364,
    "\u2581allocateandinitializesid": 5365,
    "\u25810x40a5cc": 5366,
    "5f68": 5367,
    "\u25810x41de80": 5368,
    "\u2581googletempgum16463": 5369,
    "\u2581con": 5370,
    "\u25810x2ac": 5371,
    "\u2581getsystemdirectoryw": 5372,
    "\u2581getkeyboardstate": 5373,
    "iconinfo": 5374,
    "\u2581geticoninfo": 5375,
    "b46": 5376,
    "363": 5377,
    "idf": 5378,
    "4a9": 5379,
    "\u2581kernel32lockresource": 5380,
    "\u25810x571b00": 5381,
    "\u2581setclasslong": 5382,
    "lipboard": 5383,
    "\u2581com": 5384,
    "\u25810x169b": 5385,
    "bg": 5386,
    "\u2581located": 5387,
    "d2000": 5388,
    "\u25810x413f": 5389,
    "\u2581createsolidbrush": 5390,
    "d00": 5391,
    "\u25810x417a22": 5392,
    "\u25810x464cfe": 5393,
    "f13": 5394,
    "\u2581registerclassexa": 5395,
    "\u2581emp": 5396,
    "bcb": 5397,
    "\u25810x3f3140": 5398,
    "\u2581googletempgut16463": 5399,
    "b1f": 5400,
    "consolec": 5401,
    "\u25810x417a77": 5402,
    "\u25810x413019": 5403,
    "\u25810x4170": 5404,
    "565": 5405,
    "\u25810x41736a": 5406,
    "541": 5407,
    "\u2581form": 5408,
    "\u2581init": 5409,
    "vg": 5410,
    "ada": 5411,
    "\u25810x4189": 5412,
    "\u25810xb0": 5413,
    "\u25810x8814": 5414,
    "\u2581drawicon": 5415,
    "\u25810x418a": 5416,
    "\u2581getusernamea": 5417,
    "f98": 5418,
    "ff4": 5419,
    "ogram": 5420,
    "seclipboard": 5421,
    "648": 5422,
    "\u2581openclipboard": 5423,
    "\u25810x40c632": 5424,
    "\u2581closeclipboard": 5425,
    "777": 5426,
    "\u2581setclipboarddata": 5427,
    "\u2581empty": 5428,
    "\u2581work": 5429,
    "\u25810x408934": 5430,
    "\u2581emptyclipboard": 5431,
    "eed": 5432,
    "\u25810x3e6c": 5433,
    "\u25810x48f898": 5434,
    "206": 5435,
    "ecta": 5436,
    "3de0": 5437,
    "3d5": 5438,
    "utdown": 5439,
    "\u25810x9240": 5440,
    "\u25810x4a7": 5441,
    "\u2581registerservicectrlhandler": 5442,
    "\u25810x4174": 5443,
    "\u2581freesid": 5444,
    "\u25810x567a": 5445,
    "\u25810x401c5a": 5446,
    "\u25810x7e7d": 5447,
    "\u2581createdib": 5448,
    "4a5": 5449,
    "ecb": 5450,
    "dec8": 5451,
    "\u25810x4051e2": 5452,
    "994": 5453,
    "pu": 5454,
    "902": 5455,
    "\u2581ntdllrtl": 5456,
    "\u2581cmdl": 5457,
    "\u25810x4051ef": 5458,
    "cancel": 5459,
    "\u2581virtualprotect": 5460,
    "ddb": 5461,
    "31d": 5462,
    "fc7": 5463,
    "\u25810x40af": 5464,
    "\u25810x4051d9": 5465,
    "\u25810xab": 5466,
    "members": 5467,
    "\u25810x406850": 5468,
    "ordinal680": 5469,
    "\u2581shell32ordinal680": 5470,
    "\u25810x4051ca": 5471,
    "951": 5472,
    "d8000": 5473,
    "\u25810x408e": 5474,
    "568": 5475,
    "hip": 5476,
    "add0": 5477,
    "tokenmembers": 5478,
    "\u25810x405589": 5479,
    "34d": 5480,
    "tokenmembership": 5481,
    "b0b": 5482,
    "\u25810x40aeaa": 5483,
    "\u2581getstartupinfow": 5484,
    "yx": 5485,
    "\u25810x8815": 5486,
    "\u2581pff": 5487,
    "\u25810x401ab7": 5488,
    "\u2581createdibsection": 5489,
    "67f": 5490,
    "\u25810x401d": 5491,
    "615": 5492,
    "\u2581getlogicaldrivestringsw": 5493,
    "\u25810x4178": 5494,
    "\u25810x40c6c2": 5495,
    "\u2581createfontindirecta": 5496,
    "e1000": 5497,
    "\u25810x406006": 5498,
    "\u25810x41e6bd": 5499,
    "\u25810x41e6a2": 5500,
    "\u25810x40c6b6": 5501,
    "\u25810x4b457d": 5502,
    "f21": 5503,
    "\u25810x4350dd": 5504,
    "computernamea": 5505,
    "x86": 5506,
    "\u2581connect": 5507,
    "\u25810x6e": 5508,
    "2c6": 5509,
    "38e": 5510,
    "\u25810x467212": 5511,
    "\u25810x7b000": 5512,
    "\u2581textouta": 5513,
    "\u2581wnetopene": 5514,
    "numw": 5515,
    "ff000": 5516,
    "\u2581wnetopenenumw": 5517,
    "\u25810x4168": 5518,
    "\u2581checktokenmembership": 5519,
    "\u2581drawtexta": 5520,
    "f89": 5521,
    "7ab": 5522,
    "tod": 5523,
    "\u25810x40c980": 5524,
    "76f": 5525,
    "\u2581bind": 5526,
    "\u25810x1f000": 5527,
    "3cc": 5528,
    "\u25810x40c63d": 5529,
    "\u2581openservicew": 5530,
    "\u2581kernel32createmutexa": 5531,
    "eaaaa": 5532,
    "ff5": 5533,
    "\u25810x40c860": 5534,
    "\u25810x40685f": 5535,
    "3da": 5536,
    "\u2581kernel32heapsetinformation": 5537,
    "byname": 5538,
    "servicectrldispatcherw": 5539,
    "\u25810x40c98f": 5540,
    "\u25810x40c9ea": 5541,
    "\u25810x42ce": 5542,
    "hostbyname": 5543,
    "\u25810x4c41": 5544,
    "\u2581wnetadd": 5545,
    "vents": 5546,
    "\u2581startservicew": 5547,
    "\u2581wnetaddconnection2w": 5548,
    "\u25810x181": 5549,
    "\u2581wnetenum": 5550,
    "\u2581wnetenumresourcew": 5551,
    "\u2581createservicew": 5552,
    "d4000": 5553,
    "\u25810x40af2f": 5554,
    "\u25810x4102e7": 5555,
    "3020": 5556,
    "\u25810x470607": 5557,
    "\u25810x413c": 5558,
    "b23": 5559,
    "\u25810x9460": 5560,
    "\u2581findwindowa": 5561,
    "248": 5562,
    "\u25810x406864": 5563,
    "fb1": 5564,
    "\u258174": 5565,
    "\u25810x4130a8": 5566,
    "\u25810x4330c8": 5567,
    "327": 5568,
    "\u2581pid": 5569,
    "b2a": 5570,
    "\u2581gethostbyname": 5571,
    "\u2581setservicestatus": 5572,
    "f27": 5573,
    "fff": 5574,
    "\u25810x45df": 5575,
    "\u2581wnetcancel": 5576,
    "\u2581wnetcancelconnection2w": 5577,
    "50d": 5578,
    "\u25810x40af23": 5579,
    "\u2581startservicectrldispatcherw": 5580,
    "54c": 5581,
    "\u25810x401c89": 5582,
    "685": 5583,
    "\u25810x1211dc0": 5584,
    "\u25810x401cbe": 5585,
    "lm": 5586,
    "menuitem": 5587,
    "ecd": 5588,
    "f1000": 5589,
    "\u2581gettemppathw": 5590,
    "f4a": 5591,
    "\u2581lstrlen": 5592,
    "\u2581procedure": 5593,
    "dc2": 5594,
    "nad": 5595,
    "dd000": 5596,
    "\u25810x41eb": 5597,
    "1c8": 5598,
    "cew": 5599,
    "84f": 5600,
    "dd8": 5601,
    "\u2581user32wsprintfw": 5602,
    "\u2581app": 5603,
    "1b9": 5604,
    "\u2581filetimeto": 5605,
    "\u2581setclasslonga": 5606,
    "\u25810x4d70": 5607,
    "\u2581ntquery": 5608,
    "d14": 5609,
    "\u25810x418c": 5610,
    "lew": 5611,
    "\u2581regopenkeyexw": 5612,
    "\u2581htons": 5613,
    "\u25810x4295": 5614,
    "\u2581socket": 5615,
    "\u2581advapi32initializ": 5616,
    "\u25810x41de68": 5617,
    "\u2581extracti": 5618,
    "\u2581advapi32initializesecuritydescriptor": 5619,
    "93e": 5620,
    "\u25810x41deb0": 5621,
    "\u25810x40ae9f": 5622,
    "\u25810x41de98": 5623,
    "\u25810x41dec8": 5624,
    "\u25810x40a4e3": 5625,
    "\u25810x4397d0": 5626,
    "\u2581extractassociatediconw": 5627,
    "1e000": 5628,
    "\u2581recv": 5629,
    "\u2581closesocket": 5630,
    "\u2581extractassociatedicona": 5631,
    "297a": 5632,
    "aaab": 5633,
    "\u25810x41dda8": 5634,
    "\u25810x41ddc0": 5635,
    "\u25810x41de38": 5636,
    "\u2581shellexecuteexw": 5637,
    "\u2581ole32coinitializeex": 5638,
    "421": 5639,
    "\u25810x41ddf0": 5640,
    "\u2581cmdline": 5641,
    "\u25810x7e7c": 5642,
    "zeromemory": 5643,
    "da000": 5644,
    "1cb3": 5645,
    "geo": 5646,
    "fd000": 5647,
    "\u25810x40da": 5648,
    "\u2581findwindowexa": 5649,
    "updateresourcew": 5650,
    "26d": 5651,
    "\u25810x405d54": 5652,
    "\u2581updateresourcea": 5653,
    "\u2581endupdateresourcea": 5654,
    "\u2581beginupdateresourcea": 5655,
    "geoid": 5656,
    "\u2581shutdown": 5657,
    "\u25810xb0000": 5658,
    "\u2581getusergeoid": 5659,
    "\u25810x40ca8b": 5660,
    "\u25810x4169c0": 5661,
    "\u2581rtlzeromemory": 5662,
    "\u2581beginupdateresourcew": 5663,
    "5b3": 5664,
    "6d6": 5665,
    "\u25810x40b8f8": 5666,
    "\u2581registerservicectrlhandlerw": 5667,
    "a0a": 5668,
    "344ca": 5669,
    "fc3": 5670,
    "\u25810x40a2d5": 5671,
    "\u2581wsastartup": 5672,
    "\u2581extractico": 5673,
    "\u2581extracticonexw": 5674,
    "a0f": 5675,
    "\u25810x6a": 5676,
    "\u2581kernel32lstrlena": 5677,
    "e62": 5678,
    "529ee": 5679,
    "7c6": 5680,
    "\u25810x40b9fd": 5681,
    "\u25810x40ea42": 5682,
    "1d000": 5683,
    "\u25810x4169c1": 5684,
    "\u2581my": 5685,
    "24000": 5686,
    "c8000": 5687,
    "lsocket": 5688,
    "\u25810x405f8c": 5689,
    "\u25810x41db74": 5690,
    "ffce": 5691,
    "octlsocket": 5692,
    "\u25810x41a7": 5693,
    "systeminformation": 5694,
    "\u2581advapi32setsecuritydescriptordacl": 5695,
    "ad9a0": 5696,
    "e8000": 5697,
    "\u2581ioctlsocket": 5698,
    "\u2581kernel32open": 5699,
    "\u25810x9230": 5700,
    "\u25810x40a555": 5701,
    "001": 5702,
    "\u25810x437a": 5703,
    "4a3c2": 5704,
    "\u258103cf": 5705,
    "3a3dc6": 5706,
    "45cd4e": 5707,
    "f6b3c1": 5708,
    "1cb3407": 5709,
    "297a728": 5710,
    "38f04a3c2": 5711,
    "\u258103cf981d": 5712,
    "3a3dc6ad9a0": 5713,
    "45cd4e529ee": 5714,
    "f6b3c1344ca": 5715,
    "297a72838f04a3c2": 5716,
    "1cb34073a3dc6ad9a0": 5717,
    "45cd4e529eef6b3c1344ca": 5718,
    "\u258103cf981d297a72838f04a3c2": 5719,
    "1cb34073a3dc6ad9a045cd4e529eef6b3c1344ca": 5720,
    "aaaaaaaaaaaaaaaaaaaaaaaaaaaaaaaaaaaaaaaa": 5721,
    "e07": 5722,
    "\u2581htonl": 5723,
    "\u25810x41db9c": 5724,
    "1257": 5725,
    "\u25810x67ce58": 5726,
    "\u2581writeconsolew": 5727,
    "a2f": 5728,
    "f1b": 5729,
    "\u25810x46bad8": 5730,
    "\u2581listen": 5731,
    "a0b": 5732,
    "\u25810x1e00000": 5733,
    "\u25810x1e50000": 5734,
    "14000": 5735,
    "\u2581getpe": 5736,
    "\u25810x40510b": 5737,
    "\u25810x406047": 5738,
    "923": 5739,
    "f2000": 5740,
    "cd000": 5741,
    "iznad": 5742,
    "ername": 5743,
    "\u25810x05266": 5744,
    "\u25810x05265d": 5745,
    "\u25810x05265e": 5746,
    "\u2581getpeername": 5747,
    "\u25810x422a": 5748,
    "\u25810x01211f14": 5749,
    "1e46": 5750,
    "\u2581getconsolemode": 5751,
    "hels": 5752,
    "inkifi": 5753,
    "helsinkifi": 5754,
    "422": 5755,
    "\u25810x401413": 5756,
    "\u25810x107": 5757,
    "\u25810x402681": 5758,
    "\u25810x41c1a0": 5759,
    "\u25810x42413e": 5760,
    "\u25810x402655": 5761,
    "\u2581workhelsinkifi": 5762,
    "control": 5763,
    "\u25810x801000": 5764,
    "\u25810x2ac45": 5765,
    "ct": 5766,
    "\u25810x443": 5767,
    "\u25810x41c1f5": 5768,
    "\u25810x4f4": 5769,
    "707": 5770,
    "df000": 5771,
    "\u25810x41bd": 5772,
    "\u25810x152": 5773,
    "\u25810x42b1de": 5774,
    "\u25810x4240ce": 5775,
    "\u25810x4240e1": 5776,
    "\u25810x4240f3": 5777,
    "\u25810x40287e": 5778,
    "\u25810x424125": 5779,
    "\u25810x424157": 5780,
    "\u25810x42418b": 5781,
    "\u25810x424170": 5782,
    "662a9b": 5783,
    "consolecp": 5784,
    "\u25810xff662a9b": 5785,
    "\u2581getversionexw": 5786,
    "144": 5787,
    "\u25810x406e": 5788,
    "\u25810x4158": 5789,
    "de000": 5790,
    "\u25810x40e8fc": 5791,
    "\u25810xc3f81d": 5792,
    "\u2581getconsolecp": 5793,
    "9ca": 5794,
    "1a000": 5795,
    "\u25810x413079": 5796,
    "986": 5797,
    "ec000": 5798,
    "\u25810x414abb": 5799,
    "38f": 5800,
    "ed000": 5801,
    "fc000": 5802,
    "ee5b": 5803,
    "apptype": 5804,
    "\u2581oleaut32dll": 5805,
    "\u25810x4298": 5806,
    "6026": 5807,
    "\u25810x41a2": 5808,
    "\u25810x46bac2": 5809,
    "\u2581createeventw": 5810,
    "5e9": 5811,
    "qq": 5812,
    "\u2581ls": 5813,
    "510": 5814,
    "2c000": 5815,
    "\u25810x4162": 5816,
    "\u25810x438b": 5817,
    "18000": 5818,
    "ctl32": 5819,
    "\u2581loadresource": 5820,
    "682": 5821,
    "22000": 5822,
    "d6000": 5823,
    "\u25810x800000": 5824,
    "604": 5825,
    "\u2581initializeconditionvariable": 5826,
    "2b000": 5827,
    "\u25810x4197": 5828,
    "1c000": 5829,
    "celerator": 5830,
    "\u2581comctl32": 5831,
    "\u25810x00000010": 5832,
    "72a": 5833,
    "\u25810x45dfbe": 5834,
    "\u2581lockresource": 5835,
    "\u25810x414697": 5836,
    "\u25810x404e": 5837,
    "5c2": 5838,
    "eb000": 5839,
    "\u25810x9e": 5840,
    "e2000": 5841,
    "d09": 5842,
    "\u25810x4c27": 5843,
    "not": 5844,
    "7af": 5845,
    "\u25810x423818": 5846,
    "\u25810x8d2": 5847,
    "ce000": 5848,
    "\u2581cwindowssystem320": 5849,
    "e2f0": 5850,
    "ee000": 5851,
    "\u25810x42f4": 5852,
    "dfe": 5853,
    "\u2581kernel32getcomputernamea": 5854,
    "uplic": 5855,
    "5f8": 5856,
    "\u2581getstartupinfoa": 5857,
    "ea000": 5858,
    "\u2581shell32shgetfolderpathw": 5859,
    "28000": 5860,
    "\u25810x4013eb": 5861,
    "\u2581fo": 5862,
    "\u25810x41937b": 5863,
    "\u25810x4264": 5864,
    "\u25810x97a0": 5865,
    "\u25810x419379": 5866,
    "f726": 5867,
    "\u25810x401b11": 5868,
    "2e000": 5869,
    "\u2581msvcrti": 5870,
    "\u25810x4012fd": 5871,
    "ca000": 5872,
    "f7000": 5873,
    "1a3": 5874,
    "\u2581ntquerysysteminformation": 5875,
    "fe000": 5876,
    "e732": 5877,
    "\u25810x8026": 5878,
    "\u25810x4011f7": 5879,
    "58d": 5880,
    "cc000": 5881,
    "\u2581number": 5882,
    "\u25810x401a6c": 5883,
    "181": 5884,
    "1b000": 5885,
    "\u25810x4013e7": 5886,
    "\u25810x401add": 5887,
    "809": 5888,
    "e7000": 5889,
    "\u25810x42e8": 5890,
    "\u25810x4180": 5891,
    "\u25810x01211f28": 5892,
    "\u25810x401b56": 5893,
    "\u2581isvalidcodepage": 5894,
    "26000": 5895,
    "\u25810x7fd": 5896,
    "\u25810x419557": 5897,
    "9f0": 5898,
    "e6000": 5899,
    "\u25810x416a": 5900,
    "\u2581emustructexceptioncontext0x8e": 5901,
    "\u25810x401b86": 5902,
    "\u25810x1211fb8": 5903,
    "entries": 5904,
    "inac": 5905,
    "entriesinac": 5906,
    "27000": 5907,
    "dc000": 5908,
    "2c4": 5909,
    "bc2": 5910,
    "16000": 5911,
    "\u25810x77010000": 5912,
    "\u25810x67000000": 5913,
    "\u25810x7f03": 5914,
    "putdebugstringa": 5915,
    "\u25810x41316e": 5916,
    "f7e": 5917,
    "\u25810x4059f1": 5918,
    "ac4": 5919,
    "unmapviewofsection": 5920,
    "845": 5921,
    "\u25810x6890": 5922,
    "b1e": 5923,
    "\u25810x401ad3": 5924,
    "db000": 5925,
    "\u2581ntunmapviewofsection": 5926,
    "17000": 5927,
    "iznadm": 5928,
    "161": 5929,
    "e47": 5930,
    "entriesinacla": 5931,
    "\u2581ntmap": 5932,
    "\u2581ntmapviewofsection": 5933,
    "50b": 5934,
    "\u25810x4141": 5935,
    "\u25810x401cee": 5936,
    "nm": 5937,
    "b8b": 5938,
    "141": 5939,
    "\u25810x4253": 5940,
    "\u25810x1211af0": 5941,
    "d7000": 5942,
    "\u2581program": 5943,
    "eb67": 5944,
    "adf": 5945,
    "ed5": 5946,
    "\u25810x401c9d": 5947,
    "\u25810x401cdf": 5948,
    "\u2581triznadm": 5949,
    "\u25810x58de": 5950,
    "\u25810x77001000": 5951,
    "\u25810x77002000": 5952,
    "\u25810x77003000": 5953,
    "\u25810x77004000": 5954,
    "\u25810x77005000": 5955,
    "\u25810x77006000": 5956,
    "\u25810x77007000": 5957,
    "\u25810x77008000": 5958,
    "\u25810x77009000": 5959,
    "\u25810x7700a000": 5960,
    "\u25810x7700b000": 5961,
    "\u25810x7700c000": 5962,
    "\u25810x7700d000": 5963,
    "\u25810x7700e000": 5964,
    "\u25810x7700f000": 5965,
    "\u25810x77011000": 5966,
    "\u25810x77012000": 5967,
    "\u25810x77013000": 5968,
    "\u25810x77014000": 5969,
    "\u25810x77015000": 5970,
    "\u25810x77016000": 5971,
    "\u25810x77017000": 5972,
    "\u25810x77018000": 5973,
    "\u25810x77019000": 5974,
    "\u25810x7701a000": 5975,
    "\u25810x7701b000": 5976,
    "\u25810x7701c000": 5977,
    "\u25810x7701d000": 5978,
    "\u25810x7701e000": 5979,
    "\u25810x7701f000": 5980,
    "\u25810x77020000": 5981,
    "\u25810x77021000": 5982,
    "\u25810x77022000": 5983,
    "\u25810x77023000": 5984,
    "\u25810x77024000": 5985,
    "\u25810x77025000": 5986,
    "\u25810x77026000": 5987,
    "\u25810x77027000": 5988,
    "\u25810x77028000": 5989,
    "\u25810x77029000": 5990,
    "\u25810x7702a000": 5991,
    "\u25810x7702b000": 5992,
    "\u25810x7702c000": 5993,
    "\u25810x7702d000": 5994,
    "\u25810x7702e000": 5995,
    "\u25810x7702f000": 5996,
    "\u25810x77030000": 5997,
    "\u25810x77031000": 5998,
    "\u25810x77032000": 5999,
    "\u25810x77033000": 6000,
    "\u25810x77034000": 6001,
    "\u25810x77035000": 6002,
    "\u25810x77036000": 6003,
    "\u25810x77037000": 6004,
    "\u25810x77038000": 6005,
    "\u25810x77039000": 6006,
    "\u25810x7703a000": 6007,
    "\u25810x7703b000": 6008,
    "\u25810x7703c000": 6009,
    "\u25810x7703d000": 6010,
    "\u25810x7703e000": 6011,
    "\u25810x7703f000": 6012,
    "\u25810x77040000": 6013,
    "\u25810x77041000": 6014,
    "\u25810x77042000": 6015,
    "\u25810x77043000": 6016,
    "\u25810x77044000": 6017,
    "\u25810x77045000": 6018,
    "\u25810x77046000": 6019,
    "\u25810x77047000": 6020,
    "\u25810x77048000": 6021,
    "\u25810x77049000": 6022,
    "\u25810x7704a000": 6023,
    "\u25810x7704b000": 6024,
    "\u25810x7704c000": 6025,
    "\u25810x7704d000": 6026,
    "\u25810x7704e000": 6027,
    "\u25810x7704f000": 6028,
    "\u25810x77050000": 6029,
    "\u25810x77051000": 6030,
    "\u25810x77052000": 6031,
    "\u25810x77053000": 6032,
    "\u25810x77054000": 6033,
    "\u25810x77055000": 6034,
    "\u25810x77056000": 6035,
    "\u25810x77057000": 6036,
    "\u25810x77058000": 6037,
    "\u25810x77059000": 6038,
    "\u25810x7705a000": 6039,
    "\u25810x7705b000": 6040,
    "\u25810x7705c000": 6041,
    "\u25810x7705d000": 6042,
    "\u25810x7705e000": 6043,
    "\u25810x7705f000": 6044,
    "\u25810x77060000": 6045,
    "\u25810x77061000": 6046,
    "\u25810x77062000": 6047,
    "\u25810x77063000": 6048,
    "\u25810x77064000": 6049,
    "\u25810x77065000": 6050,
    "\u25810x77066000": 6051,
    "\u25810x77067000": 6052,
    "\u25810x77068000": 6053,
    "\u25810x77069000": 6054,
    "\u25810x7706a000": 6055,
    "\u25810x7706b000": 6056,
    "\u25810x7706c000": 6057,
    "\u25810x7706d000": 6058,
    "\u25810x7706e000": 6059,
    "\u25810x7706f000": 6060,
    "\u25810x77070000": 6061,
    "\u25810x77071000": 6062,
    "\u25810x77072000": 6063,
    "\u25810x77073000": 6064,
    "\u25810x77074000": 6065,
    "\u25810x77075000": 6066,
    "\u25810x77076000": 6067,
    "\u25810x77077000": 6068,
    "\u25810x77078000": 6069,
    "\u25810x77079000": 6070,
    "\u25810x7707a000": 6071,
    "\u25810x7707b000": 6072,
    "\u25810x7707c000": 6073,
    "\u25810x7707d000": 6074,
    "\u25810x7707e000": 6075,
    "\u25810x7707f000": 6076,
    "\u25810x77080000": 6077,
    "\u25810x77081000": 6078,
    "\u25810x77082000": 6079,
    "\u25810x77083000": 6080,
    "\u25810x77084000": 6081,
    "\u25810x77085000": 6082,
    "\u25810x77086000": 6083,
    "\u25810x77087000": 6084,
    "\u25810x77088000": 6085,
    "\u25810x77089000": 6086,
    "\u25810x7708a000": 6087,
    "\u25810x7708b000": 6088,
    "\u25810x7708c000": 6089,
    "\u25810x7708d000": 6090,
    "\u25810x7708e000": 6091,
    "\u25810x7708f000": 6092,
    "\u25810x77090000": 6093,
    "\u25810x77091000": 6094,
    "\u25810x77092000": 6095,
    "\u25810x77093000": 6096,
    "\u25810x77094000": 6097,
    "\u25810x77095000": 6098,
    "\u25810x77096000": 6099,
    "\u25810x77097000": 6100,
    "\u25810x77098000": 6101,
    "\u25810x77099000": 6102,
    "\u25810x7709a000": 6103,
    "\u25810x7709b000": 6104,
    "\u25810x7709c000": 6105,
    "\u25810x7709d000": 6106,
    "\u25810x7709e000": 6107,
    "\u25810x7709f000": 6108,
    "\u25810x770a0000": 6109,
    "\u25810x770a1000": 6110,
    "\u25810x770a2000": 6111,
    "\u25810x770a3000": 6112,
    "\u25810x770a4000": 6113,
    "\u25810x770a5000": 6114,
    "\u25810x770a6000": 6115,
    "\u25810x770a7000": 6116,
    "\u25810x770a8000": 6117,
    "\u25810x770a9000": 6118,
    "\u25810x770aa000": 6119,
    "\u25810x770ab000": 6120,
    "\u25810x770ac000": 6121,
    "\u25810x770ad000": 6122,
    "\u25810x770ae000": 6123,
    "\u25810x770af000": 6124,
    "\u25810x770b0000": 6125,
    "\u25810x770b1000": 6126,
    "\u25810x770b2000": 6127,
    "\u25810x770b3000": 6128,
    "\u25810x770b4000": 6129,
    "\u25810x770b5000": 6130,
    "\u25810x770b6000": 6131,
    "\u25810x770b7000": 6132,
    "\u25810x770b8000": 6133,
    "\u25810x770b9000": 6134,
    "\u25810x770ba000": 6135,
    "\u25810x770bb000": 6136,
    "\u25810x770bc000": 6137,
    "\u25810x770bd000": 6138,
    "\u25810x770be000": 6139,
    "\u25810x770bf000": 6140,
    "\u25810x770c0000": 6141,
    "\u25810x770c1000": 6142,
    "\u25810x770c2000": 6143,
    "\u25810x770c3000": 6144,
    "\u25810x770c4000": 6145,
    "\u25810x770c5000": 6146,
    "\u25810x770c6000": 6147,
    "\u25810x770c7000": 6148,
    "\u25810x770c8000": 6149,
    "\u25810x770c9000": 6150,
    "\u25810x770ca000": 6151,
    "\u25810x770cb000": 6152,
    "\u25810x770cc000": 6153,
    "\u25810x770cd000": 6154,
    "\u25810x770ce000": 6155,
    "\u25810x770cf000": 6156,
    "\u25810x770d0000": 6157,
    "\u25810x770d1000": 6158,
    "\u25810x770d2000": 6159,
    "\u25810x770d3000": 6160,
    "\u25810x770d4000": 6161,
    "\u25810x770d5000": 6162,
    "\u25810x770d6000": 6163,
    "\u25810x770d7000": 6164,
    "\u25810x770d8000": 6165,
    "\u25810x770d9000": 6166,
    "\u25810x770da000": 6167,
    "\u25810x770db000": 6168,
    "\u25810x770dc000": 6169,
    "\u25810x770dd000": 6170,
    "\u25810x770de000": 6171,
    "\u25810x770df000": 6172,
    "\u25810x770e0000": 6173,
    "\u25810x770e1000": 6174,
    "\u25810x770e2000": 6175,
    "\u25810x770e3000": 6176,
    "\u25810x770e4000": 6177,
    "\u25810x770e5000": 6178,
    "\u25810x770e6000": 6179,
    "\u25810x770e7000": 6180,
    "\u25810x770e8000": 6181,
    "\u25810x770e9000": 6182,
    "\u25810x770ea000": 6183,
    "\u25810x770eb000": 6184,
    "\u25810x770ec000": 6185,
    "\u25810x770ed000": 6186,
    "\u25810x770ee000": 6187,
    "\u25810x770ef000": 6188,
    "\u25810x770f0000": 6189,
    "\u25810x770f1000": 6190,
    "\u25810x770f2000": 6191,
    "\u25810x770f3000": 6192,
    "\u25810x770f4000": 6193,
    "\u25810x770f5000": 6194,
    "\u25810x770f6000": 6195,
    "\u25810x770f7000": 6196,
    "\u25810x770f8000": 6197,
    "\u25810x770f9000": 6198,
    "\u25810x770fa000": 6199,
    "\u25810x770fb000": 6200,
    "\u25810x770fc000": 6201,
    "\u25810x770fd000": 6202,
    "\u25810x770fe000": 6203,
    "\u25810x770ff000": 6204,
    "\u25810x77100000": 6205,
    "\u25810x77101000": 6206,
    "\u25810x77102000": 6207,
    "\u25810x77103000": 6208,
    "\u25810x77104000": 6209,
    "\u25810x77105000": 6210,
    "\u25810x77106000": 6211,
    "\u25810x77107000": 6212,
    "\u25810x77108000": 6213,
    "\u25810x77109000": 6214,
    "\u25810x7710a000": 6215,
    "\u25810x7710b000": 6216,
    "\u25810x7710c000": 6217,
    "\u25810x7710d000": 6218,
    "\u25810x7710e000": 6219,
    "\u25810x7710f000": 6220,
    "\u25810x77110000": 6221,
    "\u25810x77111000": 6222,
    "\u25810x77112000": 6223,
    "\u25810x77113000": 6224,
    "\u25810x77114000": 6225,
    "\u25810x77115000": 6226,
    "\u25810x77116000": 6227,
    "\u25810x77117000": 6228,
    "\u25810x77118000": 6229,
    "\u25810x77119000": 6230,
    "\u25810x7711a000": 6231,
    "\u25810x7711b000": 6232,
    "\u25810x7711c000": 6233,
    "\u25810x7711d000": 6234,
    "\u25810x7711e000": 6235,
    "\u25810x7711f000": 6236,
    "\u25810x77120000": 6237,
    "\u25810x77121000": 6238,
    "\u25810x77122000": 6239,
    "\u25810x77123000": 6240,
    "\u25810x77124000": 6241,
    "\u25810x77125000": 6242,
    "\u25810x77126000": 6243,
    "\u25810x77127000": 6244,
    "\u25810x77128000": 6245,
    "\u25810x77129000": 6246,
    "\u25810x7712a000": 6247,
    "\u25810x7712b000": 6248,
    "\u25810x7712c000": 6249,
    "\u25810x7712d000": 6250,
    "\u25810x7712e000": 6251,
    "\u25810x7712f000": 6252,
    "\u25810x77130000": 6253,
    "\u25810x77131000": 6254,
    "\u25810x77132000": 6255,
    "\u25810x77133000": 6256,
    "\u25810x77134000": 6257,
    "\u25810x77135000": 6258,
    "\u25810x77136000": 6259,
    "\u25810x77137000": 6260,
    "\u25810x77138000": 6261,
    "\u25810x77139000": 6262,
    "\u25810x7713a000": 6263,
    "\u25810x7713b000": 6264,
    "\u25810x7713c000": 6265,
    "\u25810x7713d000": 6266,
    "\u25810x7713e000": 6267,
    "\u25810x7713f000": 6268,
    "\u25810x77140000": 6269,
    "\u25810x77141000": 6270,
    "\u25810x77142000": 6271,
    "\u25810x77143000": 6272,
    "\u25810x77144000": 6273,
    "\u25810x77145000": 6274,
    "\u25810x77146000": 6275,
    "\u25810x77147000": 6276,
    "\u25810x77148000": 6277,
    "\u25810x77149000": 6278,
    "\u25810x7714a000": 6279,
    "\u25810x7714b000": 6280,
    "\u25810x7714c000": 6281,
    "\u25810x7714d000": 6282,
    "\u25810x7714e000": 6283,
    "\u25810x7714f000": 6284,
    "\u25810x77150000": 6285,
    "\u25810x77151000": 6286,
    "\u25810x77152000": 6287,
    "\u25810x77153000": 6288,
    "\u25810x77154000": 6289,
    "\u25810x77155000": 6290,
    "\u25810x77156000": 6291,
    "\u25810x77157000": 6292,
    "\u25810x77158000": 6293,
    "\u25810x77159000": 6294,
    "\u25810x7715a000": 6295,
    "\u25810x7715b000": 6296,
    "\u25810x7715c000": 6297,
    "\u25810x7715d000": 6298,
    "\u25810x7715e000": 6299,
    "\u25810x7715f000": 6300,
    "\u25810x77160000": 6301,
    "\u25810x77161000": 6302,
    "\u25810x77162000": 6303,
    "\u25810x77163000": 6304,
    "\u25810x77164000": 6305,
    "\u25810x77165000": 6306,
    "\u25810x77166000": 6307,
    "\u25810x77167000": 6308,
    "\u25810x77168000": 6309,
    "\u25810x77169000": 6310,
    "\u25810x7716a000": 6311,
    "\u25810x7716b000": 6312,
    "\u25810x7716c000": 6313,
    "\u25810x7716d000": 6314,
    "\u25810x7716e000": 6315,
    "\u25810x7716f000": 6316,
    "\u25810x77170000": 6317,
    "\u25810x77171000": 6318,
    "\u25810x77172000": 6319,
    "\u25810x77173000": 6320,
    "\u25810x77174000": 6321,
    "\u25810x77175000": 6322,
    "\u25810x77176000": 6323,
    "\u25810x77177000": 6324,
    "\u25810x77178000": 6325,
    "\u25810x77179000": 6326,
    "\u25810x7717a000": 6327,
    "\u25810x7717b000": 6328,
    "\u25810x7717c000": 6329,
    "\u25810x7717d000": 6330,
    "\u25810x7717e000": 6331,
    "\u25810x7717f000": 6332,
    "\u25810x77180000": 6333,
    "\u25810x77181000": 6334,
    "\u25810x77182000": 6335,
    "\u25810x77183000": 6336,
    "\u25810x77184000": 6337,
    "\u25810x77185000": 6338,
    "\u25810x77186000": 6339,
    "\u25810x77187000": 6340,
    "\u25810x77188000": 6341,
    "\u25810x77189000": 6342,
    "\u25810x7718a000": 6343,
    "\u25810x7718b000": 6344,
    "\u25810x7718c000": 6345,
    "\u25810x7718d000": 6346,
    "\u25810x7718e000": 6347,
    "\u25810x7718f000": 6348,
    "\u25810x77190000": 6349,
    "\u25810x77191000": 6350,
    "\u25810x77192000": 6351,
    "\u25810x77193000": 6352,
    "\u25810x77194000": 6353,
    "\u25810x77195000": 6354,
    "\u25810x77196000": 6355,
    "\u25810x77197000": 6356,
    "\u25810x77198000": 6357,
    "\u25810x77199000": 6358,
    "\u25810x7719a000": 6359,
    "\u25810x7719b000": 6360,
    "\u25810x7719c000": 6361,
    "f3d": 6362,
    "ntstatus": 6363,
    "\u2581advapi32setsecurityinfo": 6364,
    "\u2581regdelete": 6365,
    "\u2581advapi32setentriesinacla": 6366,
    "todos": 6367,
    "todoserror": 6368,
    "\u25810x7719d000": 6369,
    "\u25810x7719e000": 6370,
    "\u2581rtlntstatus": 6371,
    "\u2581rtlntstatustodoserror": 6372,
    "ceb": 6373,
    "\u2581devi": 6374,
    "\u25810x4300": 6375,
    "\u25810x41f2b4": 6376,
    "\u25810x7719f000": 6377,
    "\u25810x771a0000": 6378,
    "\u25810x771a1000": 6379,
    "\u25810x771a2000": 6380,
    "\u25810x771a3000": 6381,
    "\u25810x771a4000": 6382,
    "\u25810x771a5000": 6383,
    "\u2581ntdllrtlinitunicodestring": 6384,
    "\u25810x41ea": 6385,
    "\u25810x401cf9": 6386,
    "\u25810x771a6000": 6387,
    "\u25810x771a7000": 6388,
    "\u25810x771a8000": 6389,
    "\u25810x771a9000": 6390,
    "\u2581advapi32getuser": 6391,
    "\u2581advapi32getsecurityinfo": 6392,
    "a4d": 6393,
    "b41": 6394,
    "fa1": 6395,
    "\u25810x40d3a9": 6396,
    "\u25810x771aa000": 6397,
    "threadpreferreduilanguages": 6398,
    "\u2581devicep": 6399,
    "\u25810x41b910": 6400,
    "\u25810x771ab000": 6401,
    "\u25810x771ac000": 6402,
    "hysicalmemory": 6403,
    "\u2581advapi32getusernamea": 6404,
    "\u2581devicephysicalmemory": 6405,
    "928": 6406,
    "\u25810x771ad000": 6407,
    "\u25810x7b10": 6408,
    "\u25810x401d19": 6409,
    "\u25810x771ae000": 6410,
    "\u25810x771af000": 6411,
    "\u25810x771b0000": 6412,
    "\u25810x40300c": 6413,
    "\u25810x41f828": 6414,
    "\u25810x771b1000": 6415,
    "765": 6416,
    "\u25810x771b2000": 6417,
    "\u25810x401d2b": 6418,
    "\u25810x771b3000": 6419,
    "\u25810x771b4000": 6420,
    "\u2581prot": 6421,
    "982": 6422,
    "ffff": 6423,
    "\u25810x771b5000": 6424,
    "304": 6425,
    "\u25810x41f25f": 6426,
    "\u25810x771b6000": 6427,
    "\u25810x771b7000": 6428,
    "\u25810x771b8000": 6429,
    "\u2581ntopensection": 6430,
    "\u2581regqueryvalueexw": 6431,
    "\u2581rtlinitunicodestring": 6432,
    "5cb": 6433,
    "a4a": 6434,
    "\u25810x771b9000": 6435,
    "bar": 6436,
    "8c478": 6437,
    "\u25810x771ba000": 6438,
    "7bd": 6439,
    "\u25810x422fae": 6440,
    "\u25810x771bb000": 6441,
    "54b": 6442,
    "786": 6443,
    "\u25810x414f": 6444,
    "\u25810x771bc000": 6445,
    "\u2581apiheap": 6446,
    "\u25810x771bd000": 6447,
    "5o": 6448,
    "\u25810xca0000": 6449,
    "\u25810x771be000": 6450,
    "\u25810x7de9": 6451,
    "\u25810x7de8": 6452,
    "78d": 6453,
    "95c": 6454,
    "2077": 6455,
    "\u25810x405b44": 6456,
    "\u2581776": 6457,
    "\u25810x410e": 6458,
    "\u25810x4071": 6459,
    "\u25810x771bf000": 6460,
    "003": 6461,
    "\u25810x40d3fe": 6462,
    "608": 6463,
    "dd542": 6464,
    "12d": 6465,
    "\u258138b4": 6466,
    "3020f9": 6467,
    "3b153f": 6468,
    "56980b": 6469,
    "56e732": 6470,
    "54aeb67": 6471,
    "1e468c478": 6472,
    "8a00dd542": 6473,
    "e2856980b": 6474,
    "12573020f9": 6475,
    "602656e732": 6476,
    "\u258138b48a00dd542": 6477,
    "e2856980b3b153f": 6478,
    "602656e73254aeb67": 6479,
    "1e468c47812573020f9": 6480,
    "602656e73254aeb67e2856980b3b153f": 6481,
    "\u258138b48a00dd5421e468c47812573020f9": 6482,
    "149": 6483,
    "\u25810x771c0000": 6484,
    "\u25810x43add0": 6485,
    "\u25810x771c1000": 6486,
    "eccc": 6487,
    "\u25810x771c2000": 6488,
    "5ae": 6489,
    "cho": 6490,
    "ea4": 6491,
    "access": 6492,
    "cd3": 6493,
    "\u25810x41d580": 6494,
    "7b3": 6495,
    "\u25810x771c3000": 6496,
    "yy": 6497,
    "\u25810x188": 6498,
    "\u25810x405bae": 6499,
    "\u25810x41d582": 6500,
    "43c": 6501,
    "88b": 6502,
    "97a6e": 6503,
    "61646d": 6504,
    "\u258174726": 6505,
    "97a6e61646d": 6506,
    "\u25817472697a6e61646d": 6507,
    "\u25817472697a6e61646d73696e6b692e6669": 6508,
    "\u2581cbexedowstemphgdrawdll": 6509,
    "\u25810x771c4000": 6510,
    "odh": 6511,
    "\u25810x41762": 6512,
    "\u25810x405b53": 6513,
    "b86f": 6514,
    "\u2581kernel32openmutexa": 6515,
    "b2e68": 6516,
    "\u25810x40ef6c": 6517,
    "\u25810x771c5000": 6518,
    "701": 6519,
    "71a": 6520,
    "\u25810x4084": 6521,
    "vv": 6522,
    "\u25810x505d9a": 6523,
    "\u2581776f726": 6524,
    "b2e68656c": 6525,
    "\u2581776f726b2e68656c": 6526,
    "\u2581776f726b2e68656c73696e6b692e6669": 6527,
    "22e": 6528,
    "\u25810x1f0001": 6529,
    "356": 6530,
    "\u25810x771c6000": 6531,
    "\u25810x0120fa": 6532,
    "a04": 6533,
    "hzg": 6534,
    "\u25810x42f6": 6535,
    "749": 6536,
    "\u25810x11cc": 6537,
    "\u25810x519": 6538,
    "71e": 6539,
    "\u25810x1076": 6540,
    "\u25810x8a80": 6541,
    "d5a": 6542,
    "952a": 6543,
    "b4a5": 6544,
    "51f": 6545,
    "b4e8": 6546,
    "9bb": 6547,
    "\u25810x1211f2c": 6548,
    "\u2581crtdllsrand": 6549,
    "\u2581apiheapheap": 6550,
    "70c": 6551,
    "\u258196": 6552,
    "105": 6553,
    "\u2581sizeofresource": 6554,
    "\u25810x4021e": 6555,
    "mon": 6556,
    "\u2581gettemppatha": 6557,
    "33a": 6558,
    "yay": 6559,
    "\u25810x51a": 6560,
    "ec1": 6561,
    "\u25810xc0": 6562,
    "ea6": 6563,
    "pem5": 6564,
    "\u2581d29": 6565,
    "5ozwx": 6566,
    "pem5hzg": 6567,
    "yay5ozwx": 6568,
    "314a": 6569,
    "pem5hzg1": 6570,
    "\u2581d29yay5ozwx": 6571,
    "zaw5ras5maqdqo": 6572,
    "zaw5ras5maqdqodh": 6573,
    "pem5hzg1zaw5ras5maqdqo": 6574,
    "\u2581d29yay5ozwxzaw5ras5maqdqodh": 6575,
    "93a": 6576,
    "545": 6577,
    "84e": 6578,
    "pl": 6579,
    "51a": 6580,
    "9be": 6581,
    "crtr": 6582,
    "crtruntime": 6583,
    "\u2581apimswincrtruntime": 6584,
    "b03": 6585,
    "f3b": 6586,
    "5e8e": 6587,
    "\u25810x409f": 6588,
    "a08": 6589,
    "679": 6590,
    "\u25810x417700": 6591,
    "trol": 6592,
    "5db": 6593,
    "8c7": 6594,
    "d21": 6595,
    "\u2581apimswincrtruntimel110": 6596,
    "b8e": 6597,
    "iocon": 6598,
    "viceiocon": 6599,
    "fdf": 6600,
    "\u25810x11cc4c": 6601,
    "viceiocontrol": 6602,
    "f0b": 6603,
    "\u25810x1211efc": 6604,
    "\u25810x40f0b2": 6605,
    "\u25810x505e8e": 6606,
    "\u25810x1525000": 6607,
    "\u25810x41f278": 6608,
    "\u2581instruction": 6609,
    "\u2581deviceiocontrol": 6610,
    "77e": 6611,
    "windowexw": 6612,
    "2c5": 6613,
    "\u25810x41f276": 6614,
    "\u2581str": 6615,
    "72fb0": 6616,
    "\u25810x41f7": 6617,
    "12a": 6618,
    "ec5": 6619,
    "d4e68": 6620,
    "\u25810x70b86f": 6621,
    "\u25810x417755": 6622,
    "a8a40": 6623,
    "\u25810x52663": 6624,
    "b4a": 6625,
    "5738": 6626,
    "5836d": 6627,
    "\u25810x41e5": 6628,
    "9c088": 6629,
    "\u25810x4013e3": 6630,
    "eaaa": 6631,
    "\u2581962b": 6632,
    "34c544": 6633,
    "5f68b98": 6634,
    "2077eccc": 6635,
    "28672fb0": 6636,
    "9a09c088": 6637,
    "b4a5a8a40": 6638,
    "314a34c544": 6639,
    "5836d5f68b98": 6640,
    "d4e689a09c088": 6641,
    "\u2581962bb4a5a8a40": 6642,
    "2077eccc314a34c544": 6643,
    "28672fb05836d5f68b98": 6644,
    "2077eccc314a34c544d4e689a09c088": 6645,
    "\u2581962bb4a5a8a4028672fb05836d5f68b98": 6646,
    "18e": 6647,
    "\u25810x7b00": 6648,
    "\u25810x4274f9": 6649,
    "30e": 6650,
    "801": 6651,
    "\u25810xb9": 6652,
    "\u25810x49952a": 6653,
    "782": 6654,
    "\u2581format": 6655,
    "\u2581port": 6656,
    "\u25810x01211f98": 6657,
    "loatingpoint": 6658,
    "df9": 6659,
    "f01": 6660,
    "errata": 6661,
    "precision": 6662,
    "precisionerrata": 6663,
    "\u2581pffloatingpoint": 6664,
    "\u2581pffloatingpointprecisionerrata": 6665,
    "d15": 6666,
    "nw": 6667,
    "346": 6668,
    "cation": 6669,
    "\u25810x6500": 6670,
    "\u25810x416618": 6671,
    "\u25810x401008": 6672,
    "\u2581lock": 6673,
    "976": 6674,
    "\u2581releases": 6675,
    "d02": 6676,
    "\u25810x401013": 6677,
    "9a5": 6678,
    "a19": 6679,
    "f6e": 6680,
    "\u2581aa": 6681,
    "\u25810x40bb": 6682,
    "a0e": 6683,
    "\u25810x40ac3c": 6684,
    "aca": 6685,
    "fmode": 6686,
    "519": 6687,
    "initialize": 6688,
    "\u2581lstrcpy": 6689,
    "\u25810x422e32": 6690,
    "e0e": 6691,
    "\u2581proto": 6692,
    "\u25810x4101a1": 6693,
    "e17": 6694,
    "\u25810x417d": 6695,
    "\u25810x421d": 6696,
    "dd9": 6697,
    "\u25810x43d390": 6698,
    "f4e": 6699,
    "\u25810x40c94c": 6700,
    "3cb": 6701,
    "ad5": 6702,
    "\u25810x40c2": 6703,
    "6e3": 6704,
    "d44": 6705,
    "look": 6706,
    "adwork": 6707,
    "\u25810x488": 6708,
    "\u25810x4035": 6709,
    "\u25810x40c858": 6710,
    "522": 6711,
    "eda": 6712,
    "38d": 6713,
    "dc9": 6714,
    "7d6": 6715,
    "searchpath": 6716,
    "\u25810x4cd": 6717,
    "b0a": 6718,
    "f37": 6719,
    "\u25810x4022b4": 6720,
    "\u25810x410117": 6721,
    "\u25810x43b7c3": 6722,
    "\u25810x4351": 6723,
    "12e": 6724,
    "fbd": 6725,
    "\u2581kernel32findclose": 6726,
    "\u2581getwindows": 6727,
    "14d": 6728,
    "\u25810x1211f28": 6729,
    "\u25810x4ed": 6730,
    "\u25810x432d13": 6731,
    "\u25810x40ad8f": 6732,
    "e2d": 6733,
    "keyexw": 6734,
    "8a5": 6735,
    "setapptype": 6736,
    "1c2": 6737,
    "\u25810x9f": 6738,
    "\u25810x4100cd": 6739,
    "2c8": 6740,
    "\u25810x420c37": 6741,
    "64c": 6742,
    "tra": 6743,
    "\u25810x99e0": 6744,
    "51b": 6745,
    "aaaaaaaaaaaaaaaaaaaaaaaa": 6746,
    "\u25810x5265f": 6747,
    "\u25810x414725": 6748,
    "102": 6749,
    "9db": 6750,
    "\u25810x4681": 6751,
    "\u25810x47eb": 6752,
    "vq": 6753,
    "\u25810x4229": 6754,
    "\u25810x414a42": 6755,
    "841": 6756,
    "\u25810x40cb07": 6757,
    "\u2581createnew": 6758,
    "7d5": 6759,
    "\u25810x4912": 6760,
    "\u25810x5b8696": 6761,
    "b22": 6762,
    "\u2581kernel32gettemppatha": 6763,
    "b2f": 6764,
    "9c5": 6765,
    "\u25810x01211f4c": 6766,
    "\u25810x40adf9": 6767,
    "e83": 6768,
    "fbb": 6769,
    "\u25810xa81": 6770,
    "60c": 6771,
    "\u25810x4154": 6772,
    "\u25810x426687": 6773,
    "\u25810x54d0": 6774,
    "43b": 6775,
    "\u25810x806": 6776,
    "\u25810x417a39": 6777,
    "78a": 6778,
    "\u25810x40646c": 6779,
    "chan": 6780,
    "52b": 6781,
    "\u25810x4027": 6782,
    "\u25810x417a3b": 6783,
    "\u25810xx": 6784,
    "\u25810x422eba": 6785,
    "71b": 6786,
    "537": 6787,
    "\u25810x40cb5c": 6788,
    "\u2581bo": 6789,
    "ialog": 6790,
    "5d8": 6791,
    "fe9": 6792,
    "\u25810x120ff": 6793,
    "a16": 6794,
    "\u25810x450": 6795,
    "116": 6796,
    "97f": 6797,
    "\u25810x44f": 6798,
    "\u25810x438c": 6799,
    "9ba": 6800,
    "a2e": 6801,
    "\u25810x40f1": 6802,
    "\u25810x678": 6803,
    "\u2581softwareborlanddelphilocales": 6804,
    "681": 6805,
    "\u25810x4022a7": 6806,
    "\u25810x401123": 6807,
    "mov": 6808,
    "26a": 6809,
    "\u25810x41817f": 6810,
    "\u2581tcp": 6811,
    "\u25810x1211f88": 6812,
    "7fe": 6813,
    "\u25810x4030dc": 6814,
    "\u25810x7d76": 6815,
    "76a": 6816,
    "\u25810x7dec": 6817,
    "\u25810x53b4e8": 6818,
    "e48": 6819,
    "267": 6820,
    "ea3": 6821,
    "\u25810x40fa": 6822,
    "\u2581regenum": 6823,
    "\u25810x40ebdc": 6824,
    "alette": 6825,
    "\u25810x40ad9e": 6826,
    "\u25810x40569a": 6827,
    "cms": 6828,
    "e6f": 6829,
    "aa3": 6830,
    "\u2581mscms": 6831,
    "952": 6832,
    "processmemory": 6833,
    "\u2581hkeycurrentusersoftwareborlanddelphilocales": 6834,
    "dw": 6835,
    "\u25810xf0": 6836,
    "42e": 6837,
    "978": 6838,
    "\u25810xac": 6839,
    "\u25810x480": 6840,
    "\u25810x00000004": 6841,
    "fk": 6842,
    "269": 6843,
    "3d7": 6844,
    "\u2581hdd": 6845,
    "\u25810x12112": 6846,
    "pathnamew": 6847,
    "59a": 6848,
    "\u2581getsystemtime": 6849,
    "\u2581hkeycurrentusersoftwareborlandlocales": 6850,
    "\u2581your": 6851,
    "\u25810x7d00": 6852,
    "\u25810x40229c": 6853,
    "\u25810x402295": 6854,
    "fd2": 6855,
    "3c3": 6856,
    "533": 6857,
    "\u25810x7b70": 6858,
    "numberof": 6859,
    "numberofconsole": 6860,
    "6b1": 6861,
    "96c": 6862,
    "9b5": 6863,
    "e8a": 6864,
    "\u25810x1211b04": 6865,
    "56b": 6866,
    "slen": 6867,
    "\u2581kernel32getstringtypew": 6868,
    "7a3": 6869,
    "e09": 6870,
    "516": 6871,
    "\u25810x40e4": 6872,
    "\u2581un": 6873,
    "\u25810x7ded": 6874,
    "91b": 6875,
    "\u2581systemtim": 6876,
    "\u2581kernel32getnumberofconsole": 6877,
    "ffceff": 6878,
    "ec6": 6879,
    "83zvh9hyvl9hz": 6880,
    "91d": 6881,
    "\u25810x6b9c": 6882,
    "\u25810x4253fb": 6883,
    "42b": 6884,
    "b82": 6885,
    "30a": 6886,
    "fca": 6887,
    "942": 6888,
    "d87": 6889,
    "7c5": 6890,
    "\u25810x42e2f0": 6891,
    "\u25810x468179": 6892,
    "dbg": 6893,
    "sock": 6894,
    "849": 6895,
    "f6a": 6896,
    "\u25810x4079": 6897,
    "\u25810x429a": 6898,
    "\u2581kernel32findfirstfilew": 6899,
    "inpu": 6900,
    "\u2581400000": 6901,
    "ow64": 6902,
    "\u25810x40cd25": 6903,
    "\u25810x40ed22": 6904,
    "52e": 6905,
    "\u25810x431998": 6906,
    "\u25810x651402": 6907,
    "\u25810x4011b4": 6908,
    "\u25810x417e": 6909,
    "\u25810x01211a": 6910,
    "\u25810x4031f3": 6911,
    "\u2581pec2": 6912,
    "dbgmsg": 6913,
    "\u2581pec2dbgmsg": 6914,
    "7d8": 6915,
    "5bd": 6916,
    "adb": 6917,
    "769": 6918,
    "ffb": 6919,
    "vcho": 6920,
    "\u2581findresourcew": 6921,
    "\u25810x4104a5": 6922,
    "\u2581winsock": 6923,
    "\u25810x4030a8": 6924,
    "\u25810x4175d0": 6925,
    "\u25810x1211ec8": 6926,
    "\u2581internal": 6927,
    "f25": 6928,
    "\u25810x4cee5b": 6929,
    "20e": 6930,
    "stexe": 6931,
    "\u25810x7ba0": 6932,
    "\u25810x4f7f35": 6933,
    "xy": 6934,
    "94a": 6935,
    "\u25810x4f7f2d": 6936,
    "\u25810x1211f10": 6937,
    "\u25810x004012ad": 6938,
    "vchostexe": 6939,
    "\u25810x4012ad": 6940,
    "\u2581getstring": 6941,
    "805": 6942,
    "\u25810x423a": 6943,
    "\u25810x4f9e1b": 6944,
    "f57": 6945,
    "\u25810x188e": 6946,
    "7ba": 6947,
    "b1a": 6948,
    "915": 6949,
    "\u25810x468": 6950,
    "\u25810x90f0": 6951,
    "\u25810x411c": 6952,
    "\u25810x47ebce": 6953,
    "\u25810x405a": 6954,
    "\u25810x4f7eb4": 6955,
    "38a": 6956,
    "\u25810x486": 6957,
    "ad6": 6958,
    "8ce4": 6959,
    "90c8": 6960,
    "eb9": 6961,
    "inpute": 6962,
    "inputevents": 6963,
    "\u25810x42f41e": 6964,
    "\u25810x4200": 6965,
    "\u2581svchostexe": 6966,
    "329": 6967,
    "ac3": 6968,
    "f7c": 6969,
    "315": 6970,
    "\u25810x4053fc": 6971,
    "ded": 6972,
    "d48": 6973,
    "\u25810x4021f9": 6974,
    "\u25810x3f4000": 6975,
    "\u25810x12114": 6976,
    "\u25810x4f7ea7": 6977,
    "\u2581kernel32getnumberofconsoleinputevents": 6978,
    "202": 6979,
    "\u25810x40cd23": 6980,
    "etofiletime": 6981,
    "9cc": 6982,
    "b2c": 6983,
    "d01": 6984,
    "\u25810x567a40": 6985,
    "58f": 6986,
    "\u2581systemtimetofiletime": 6987,
    "imag": 6988,
    "96e": 6989,
    "\u25810x421ad9": 6990,
    "ddc": 6991,
    "\u25810x403d": 6992,
    "\u25810x3f3060": 6993,
    "\u25810x41beb0": 6994,
    "threaduilanguage": 6995,
    "f0000": 6996,
    "\u25810x412716": 6997,
    "\u25810x417625": 6998,
    "d0d": 6999,
    "378": 7000,
    "9b9": 7001,
    "fff0": 7002,
    "\u25810x41bf05": 7003,
    "5da": 7004,
    "\u25810x407f": 7005,
    "\u25810x41c1b7": 7006,
    "\u25810x1211e28": 7007,
    "7c9": 7008,
    "e4d": 7009,
    "eab": 7010,
    "\u25810x41c1b9": 7011,
    "517": 7012,
    "566": 7013,
    "81a": 7014,
    "b4d": 7015,
    "d4c": 7016,
    "\u25810x7da7": 7017,
    "\u25810x4257f4": 7018,
    "a81": 7019,
    "\u2581move": 7020,
    "285": 7021,
    "inter": 7022,
    "\u25810x7fc": 7023,
    "\u25810x4393": 7024,
    "98d": 7025,
    "98e": 7026,
    "\u2581violation": 7027,
    "df1": 7028,
    "\u25810x41659f": 7029,
    "fdd": 7030,
    "\u25810x40b7": 7031,
    "formatw": 7032,
    "\u258110123": 7033,
    "\u2581myarg": 7034,
    "\u25810x1211e34": 7035,
    "cd9": 7036,
    "f67": 7037,
    "\u25810x52c": 7038,
    "9b1": 7039,
    "540": 7040,
    "palette": 7041,
    "be1": 7042,
    "\u25810x8410": 7043,
    "\u25810x8830": 7044,
    "\u25810x4c32c0": 7045,
    "\u25810x42e496": 7046,
    "573": 7047,
    "\u25810x4428": 7048,
    "edirector": 7049,
    "\u2581b2": 7050,
    "\u2581remov": 7051,
    "7ab3": 7052,
    "\u25810x160": 7053,
    "\u2581user32messageboxa": 7054,
    "\u25810x40b95e": 7055,
    "wow64": 7056,
    "\u25810x3f3010": 7057,
    "\u25810x40119a": 7058,
    "\u25810x96d": 7059,
    "9ac": 7060,
    "\u25810x419ab6": 7061,
    "121": 7062,
    "\u2581duplic": 7063,
    "71d": 7064,
    "\u25810x4011a3": 7065,
    "\u25810x7df1": 7066,
    "bc5": 7067,
    "68d": 7068,
    "40f": 7069,
    "\u25810x4072": 7070,
    "\u25810x4730": 7071,
    "\u25810x40c61c": 7072,
    "x8": 7073,
    "7ae": 7074,
    "\u25810x8c60": 7075,
    "\u25810x00004": 7076,
    "\u25810x40b903": 7077,
    "9e2": 7078,
    "events": 7079,
    "\u25810x40b65f": 7080,
    "61b": 7081,
    "\u25810x4081": 7082,
    "a2d": 7083,
    "\u25810x00402": 7084,
    "\u25810x42000": 7085,
    "\u25810x40b7a1": 7086,
    "\u2581kernel32out": 7087,
    "ols": 7088,
    "557": 7089,
    "\u25810x40b8f4": 7090,
    "f4b": 7091,
    "d1ff": 7092,
    "\u2581man": 7093,
    "\u25810x7d50": 7094,
    "\u25810x40a714": 7095,
    "\u25810x405515": 7096,
    "fdb": 7097,
    "\u2581processevents": 7098,
    "aa7": 7099,
    "\u25810x42a4": 7100,
    "lication": 7101,
    "409": 7102,
    "eexa": 7103,
    "\u2581dll": 7104,
    "par": 7105,
    "mf": 7106,
    "2c2": 7107,
    "\u25810x1009": 7108,
    "memstring": 7109,
    "de3": 7110,
    "\u25810x46b3": 7111,
    "\u25810x1211f74": 7112,
    "\u2581full": 7113,
    "957": 7114,
    "under": 7115,
    "\u25810x467c": 7116,
    "lc": 7117,
    "\u2581msvcrtsetapptype": 7118,
    "\u25810x433de0": 7119,
    "cmapstringa": 7120,
    "\u2581lcmapstringa": 7121,
    "filetimetofiletime": 7122,
    "349": 7123,
    "7c1": 7124,
    "\u2581localfiletimetofiletime": 7125,
    "dfb": 7126,
    "\u25810x70a8": 7127,
    "\u25810x7070": 7128,
    "43a": 7129,
    "f87": 7130,
    "sk": 7131,
    "\u2581index": 7132,
    "\u25810xba": 7133,
    "f55": 7134,
    "\u25810x41c8": 7135,
    "aae": 7136,
    "\u25810x87": 7137,
    "\u25810x42d8ab": 7138,
    "e6b": 7139,
    "a06": 7140,
    "ec3": 7141,
    "\u25810x45b4": 7142,
    "\u25810x000078": 7143,
    "f0f": 7144,
    "\u25810x40a61f": 7145,
    "\u2581physical": 7146,
    "9da": 7147,
    "\u25810x429f": 7148,
    "\u25810x164": 7149,
    "yyr": 7150,
    "5a5": 7151,
    "ctr": 7152,
    "\u25810x4010c1": 7153,
    "\u25810x417b96": 7154,
    "acb2": 7155,
    "\u2581physicaldriv": 7156,
    "\u25817z": 7157,
    "a02": 7158,
    "\u25810x4193dd": 7159,
    "ument": 7160,
    "\u25810x42bd": 7161,
    "14a": 7162,
    "635": 7163,
    "nhb": 7164,
    "93d": 7165,
    "\u25810x4066": 7166,
    "ade": 7167,
    "maaaa": 7168,
    "\u25810x4237": 7169,
    "641": 7170,
    "f38": 7171,
    "spec": 7172,
    "\u2581user32registerclassexw": 7173,
    "\u25810x41c4": 7174,
    "\u25810x40d1e4": 7175,
    "\u25810x414c34": 7176,
    "typea": 7177,
    "\u25810x40f2": 7178,
    "9820": 7179,
    "\u25810x41ca": 7180,
    "\u25810x4418": 7181,
    "select": 7182,
    "\u25810x05265f": 7183,
    "\u25818": 7184,
    "fd1": 7185,
    "622": 7186,
    "\u25810x210": 7187,
    "\u25810x41a5b6": 7188,
    "54d": 7189,
    "fa6": 7190,
    "\u25810x100020": 7191,
    "\u2581getstringtypea": 7192,
    "\u25810x41a0": 7193,
    "a09": 7194,
    "\u25810x419432": 7195,
    "\u25810x1211cec": 7196,
    "9d7": 7197,
    "e0d": 7198,
    "\u25810x4010a2": 7199,
    "\u25810x40c637": 7200,
    "\u25810x40dd3b": 7201,
    "\u25810x01211d": 7202,
    "\u25810x401ecc": 7203,
    "aa5": 7204,
    "\u25810x40d32a": 7205,
    "scpy": 7206,
    "\u25810x460cd4": 7207,
    "\u25810x45e8": 7208,
    "\u25810x420006": 7209,
    "\u25810x00428ba0": 7210,
    "\u25810x411d": 7211,
    "\u2581getdiskfreespaceexw": 7212,
    "988": 7213,
    "\u25810x75b0": 7214,
    "\u2581physicaldrive0": 7215,
    "fcb": 7216,
    "\u25810x40570b": 7217,
    "\u25810x41d2": 7218,
    "\u25810x40ff4f": 7219,
    "\u25810x409020": 7220,
    "7ca": 7221,
    "\u25810x476": 7222,
    "pc": 7223,
    "\u25810x4046": 7224,
    "caff": 7225,
    "f5a": 7226,
    "74a": 7227,
    "\u25810x40d07b": 7228,
    "\u2581wsprintfa": 7229,
    "\u25810x413d96": 7230,
    "\u25810x4193f4": 7231,
    "fe7": 7232,
    "941": 7233,
    "\u25810x401a44": 7234,
    "\u25810x01211fd8": 7235,
    "ac8": 7236,
    "525": 7237,
    "7d3": 7238,
    "\u2581writeprivateprofile": 7239,
    "386": 7240,
    "\u2581apimswincoresynchl120dll": 7241,
    "eae": 7242,
    "\u25810x58c7": 7243,
    "60d": 7244,
    "fe1": 7245,
    "nc": 7246,
    "\u25810x405461": 7247,
    "\u25810x4238a8": 7248,
    "a1f": 7249,
    "\u25810x448": 7250,
    "\u25810x50bcf": 7251,
    "\u2581removedirector": 7252,
    "\u2581found": 7253,
    "\u25810x71c0": 7254,
    "906": 7255,
    "dc1": 7256,
    "\u25810x40557e": 7257,
    "\u25810x403c6d": 7258,
    "\u2581getf": 7259,
    "\u25810xa3a7": 7260,
    "e8d": 7261,
    "\u25810x1211e44": 7262,
    "\u25810x405695": 7263,
    "30b": 7264,
    "b21": 7265,
    "\u25810x457ab3": 7266,
    "\u25810x54d036": 7267,
    "\u2581msvcrtwcslen": 7268,
    "\u25810x4226a7": 7269,
    "\u25810x41d639": 7270,
    "\u2581kernel32outputdebugstringa": 7271,
    "405": 7272,
    "\u25810x41a4c1": 7273,
    "596": 7274,
    "\u25810x40187d": 7275,
    "50a": 7276,
    "64d": 7277,
    "369": 7278,
    "\u25810x50b1f": 7279,
    "\u2581apiheapheapalloc0x": 7280,
    "3c7": 7281,
    "f46": 7282,
    "\u2581saf": 7283,
    "\u25810x7d2": 7284,
    "controls": 7285,
    "\u25810x650067": 7286,
    "ority": 7287,
    "385": 7288,
    "\u25810x5d8ce4": 7289,
    "\u25810x008": 7290,
    "\u25810x419e00": 7291,
    "\u25810x410061": 7292,
    "\u25810x41d5e4": 7293,
    "\u25810x5df": 7294,
    "\u25810x1211f78": 7295,
    "367": 7296,
    "\u25810x401130": 7297,
    "\u25810x7230": 7298,
    "\u25810x41ff11": 7299,
    "\u25810x8250": 7300,
    "\u25810x0043b": 7301,
    "9880": 7302,
    "6db": 7303,
    "\u25810x40dd63": 7304,
    "\u25810x42a070": 7305,
    "\u2581msvcrtwcscpy": 7306,
    "\u2581kernel32getfileattributesw": 7307,
    "6c4": 7308,
    "9c3": 7309,
    "\u25810x40199c": 7310,
    "f8e": 7311,
    "\u2581range": 7312,
    "\u25810x419f40": 7313,
    "beb": 7314,
    "\u2581acquiresrwlockexclusive": 7315,
    "a87": 7316,
    "\u25810x7770": 7317,
    "ghi": 7318,
    "\u25810x4100ab": 7319,
    "acb2af": 7320,
    "\u2581ssexe": 7321,
    "\u2581b2acb2af": 7322,
    "36b": 7323,
    "\u25810x4056ae": 7324,
    "f5e": 7325,
    "\u2581cwindows": 7326,
    "wow64process": 7327,
    "3e5": 7328,
    "77vv": 7329,
    "\u2581sqyyr": 7330,
    "\u25810x4056b0": 7331,
    "filesize": 7332,
    "\u2581sub": 7333,
    "\u25810x47aa": 7334,
    "\u2581loadlibraryw": 7335,
    "eb3": 7336,
    "\u25810x8090": 7337,
    "top": 7338,
    "\u25810x27": 7339,
    "\u2581gdi32create": 7340,
    "\u2581kernel32getfilesize": 7341,
    "\u25810x41a5": 7342,
    "\u25810x46a0": 7343,
    "\u2581new": 7344,
    "accelerator": 7345,
    "\u25810x419d50": 7346,
    "\u25810x419462": 7347,
    "\u25810x7460": 7348,
    "\u2581imagelistre": 7349,
    "dexe": 7350,
    "\u25810xe00": 7351,
    "\u25810x466d": 7352,
    "\u2581releasesrwlockexclusive": 7353,
    "\u25810x430000": 7354,
    "v77vv": 7355,
    "\u25810x4048": 7356,
    "\u25810x7d2846": 7357,
    "ce4": 7358,
    "d4e": 7359,
    "\u25810x74d0": 7360,
    "\u25810x4193f6": 7361,
    "validf": 7362,
    "validfetch": 7363,
    "\u25810x42b020": 7364,
    "\u2581nov": 7365,
    "\u25810x8386": 7366,
    "\u25810x42b024": 7367,
    "\u2581nove": 7368,
    "\u25810x42b028": 7369,
    "\u25810x70e0": 7370,
    "\u25810x1005": 7371,
    "\u25810x405460": 7372,
    "d06": 7373,
    "\u2581pointer": 7374,
    "\u25810x40b6c7": 7375,
    "f33": 7376,
    "\u25810xeb": 7377,
    "\u2581class": 7378,
    "\u25810x4194b7": 7379,
    "une": 7380,
    "\u25810x7038": 7381,
    "345": 7382,
    "\u25810x12116": 7383,
    "\u25810x403c74": 7384,
    "\u2581septe": 7385,
    "ember": 7386,
    "\u25810x7620": 7387,
    "\u2581november": 7388,
    "\u25810xa42a": 7389,
    "\u25810x7428": 7390,
    "ober": 7391,
    "\u2581creating": 7392,
    "\u2581initializes": 7393,
    "\u2581conversion": 7394,
    "df3": 7395,
    "\u25810x41af": 7396,
    "ff1d": 7397,
    "\u25810x46e0": 7398,
    "\u2581control": 7399,
    "2ca": 7400,
    "51e": 7401,
    "\u25810x40586f": 7402,
    "\u25810x1211c80": 7403,
    "\u2581september": 7404,
    "\u2581august": 7405,
    "\u25810x40198c": 7406,
    "9a6": 7407,
    "\u25810x72d8": 7408,
    "\u25810x1212000": 7409,
    "8c1": 7410,
    "f1d": 7411,
    "\u25810x00401": 7412,
    "\u25810x4393f8": 7413,
    "281": 7414,
    "713": 7415,
    "\u25810x41bcb0": 7416,
    "\u25810x435088": 7417,
    "\u25810x5265c3c": 7418,
    "\u25810x7498": 7419,
    "\u25810x1210900": 7420,
    "\u25810x71f8": 7421,
    "b4f": 7422,
    "f81": 7423,
    "\u25810x43b7b9": 7424,
    "\u25810x4190": 7425,
    "\u25810x7310": 7426,
    "\u25810x42f63e": 7427,
    "5ef": 7428,
    "\u25810x7188": 7429,
    "1c6": 7430,
    "b2d": 7431,
    "pril": 7432,
    "\u2581apr": 7433,
    "\u2581april": 7434,
    "\u2581december": 7435,
    "\u25810x7380": 7436,
    "b83": 7437,
    "\u25810x43e0": 7438,
    "\u25810x8b50": 7439,
    "\u2581monday": 7440,
    "\u2581sunday": 7441,
    "\u25810x3410c": 7442,
    "\u2581tuesday": 7443,
    "\u25810x4058c4": 7444,
    "71f": 7445,
    "yon": 7446,
    "nesday": 7447,
    "\u2581wednesday": 7448,
    "\u2581thu": 7449,
    "\u2581febr": 7450,
    "bd7": 7451,
    "ursday": 7452,
    "\u25810xffe1": 7453,
    "\u25810xfffe": 7454,
    "\u2581october": 7455,
    "\u2581thursday": 7456,
    "uly": 7457,
    "iday": 7458,
    "\u2581fri": 7459,
    "\u25810x4fe8": 7460,
    "907": 7461,
    "urday": 7462,
    "\u2581friday": 7463,
    "\u2581saturday": 7464,
    "\u2581kernel32local": 7465,
    "\u2581disk": 7466,
    "anuary": 7467,
    "\u25810x7118": 7468,
    "bc1": 7469,
    "\u2581march": 7470,
    "\u25810xffe0": 7471,
    "\u25810x41d5fd": 7472,
    "be7": 7473,
    "\u25810xb964": 7474,
    "\u25810x466d71": 7475,
    "\u2581february": 7476,
    "591": 7477,
    "face": 7478,
    "\u25810x7e78": 7479,
    "\u25810xffbd": 7480,
    "\u25810x408b9e": 7481,
    "f65": 7482,
    "\u25810xffbb": 7483,
    "vk": 7484,
    "\u25810x4069": 7485,
    "\u25810x8820": 7486,
    "\u25810xffbe": 7487,
    "\u25810x41d5fb": 7488,
    "\u25810xffbc": 7489,
    "\u25810x7e6": 7490,
    "\u25810xffe4": 7491,
    "aaf": 7492,
    "f85": 7493,
    "\u25810x7268": 7494,
    "\u25810xffba": 7495,
    "\u2581cadwork": 7496,
    "\u25810x75e8": 7497,
    "\u25810xffbf": 7498,
    "\u25810x7348": 7499,
    "\u25810x7508": 7500,
    "\u25810x00008": 7501,
    "b47": 7502,
    "\u25810x7658": 7503,
    "\u25810x1211738": 7504,
    "\u25810x7e79": 7505,
    "a49": 7506,
    "282": 7507,
    "\u25810x8340": 7508,
    "\u25810xffb8": 7509,
    "\u25810xffb9": 7510,
    "eas": 7511,
    "43e": 7512,
    "8ca": 7513,
    "32css": 7514,
    "\u25810x181c": 7515,
    "\u25810x42ca": 7516,
    "\u25810x73b8": 7517,
    "\u25810xffb7": 7518,
    "32cssnap": 7519,
    "f24": 7520,
    "iseas": 7521,
    "\u25810x8330": 7522,
    "preciseas": 7523,
    "preciseasfiletime": 7524,
    "\u2581getsystemtimepreciseasfiletime": 7525,
    "\u25810x41208b": 7526,
    "ee7": 7527,
    "\u25810x1211f18": 7528,
    "x9": 7529,
    "eextra": 7530,
    "\u25810x40582d": 7531,
    "eextrainfo": 7532,
    "\u2581tlscallback0": 7533,
    "messageextrainfo": 7534,
    "uu": 7535,
    "\u25810x7578": 7536,
    "94b": 7537,
    "\u2581selfd": 7538,
    "\u25810x76c8": 7539,
    "\u2581emumodule7": 7540,
    "\u2581ass": 7541,
    "changet": 7542,
    "\u25810x77a8": 7543,
    "\u25810xffa2": 7544,
    "\u2581th32cssnap": 7545,
    "\u2581variantchanget": 7546,
    "\u2581user32getmessageextrainfo": 7547,
    "\u2581kernel32createtoolhelp32snapshot": 7548,
    "mit": 7549,
    "\u25810x7738": 7550,
    "\u25810xffa0": 7551,
    "\u25810xffa1": 7552,
    "\u25810x40eefc": 7553,
    "30f": 7554,
    "81e": 7555,
    "\u2581too": 7556,
    "127": 7557,
    "ternal": 7558,
    "\u25810xffa3": 7559,
    "\u25810x508": 7560,
    "\u25810x50399": 7561,
    "\u25810x41276b": 7562,
    "eni": 7563,
    "\u25810x41e1": 7564,
    "\u2581external": 7565,
    "\u25810xffa4": 7566,
    "\u25810xffa7": 7567,
    "infoa": 7568,
    "\u25810x438acb": 7569,
    "\u2581kernel32getsystemdirectoryw": 7570,
    "\u2581shell32shel": 7571,
    "319": 7572,
    "56a": 7573,
    "dc4": 7574,
    "vileged": 7575,
    "ispatchseh": 7576,
    "\u2581selfdispatchseh": 7577,
    "b4b": 7578,
    "idth": 7579,
    "723": 7580,
    "989": 7581,
    "\u25810xffa6": 7582,
    "\u25810x4025": 7583,
    "\u25810xffb6": 7584,
    "\u25810xffa5": 7585,
    "00f": 7586,
    "enied": 7587,
    "\u2581dispatchseh": 7588,
    "3e7": 7589,
    "\u25810x414b": 7590,
    "20202020": 7591,
    "\u25810x58c01c": 7592,
    "bool": 7593,
    "\u2581emumoduled": 7594,
    "\u2581shell32shellex": 7595,
    "f1e": 7596,
    "\u2581inte": 7597,
    "unds": 7598,
    "\u2581asser": 7599,
    "\u2581input": 7600,
    "20b": 7601,
    "\u2581under": 7602,
    "\u25810xffa9": 7603,
    "\u25810xfffd": 7604,
    "\u2581typ": 7605,
    "\u2581many": 7606,
    "\u25810x4047": 7607,
    "\u25810xffa8": 7608,
    "yond": 7609,
    "\u2581beyond": 7610,
    "\u2581integer": 7611,
    "387": 7612,
    "\u2581pri": 7613,
    "ecast": 7614,
    "\u2581denied": 7615,
    "\u2581typecast": 7616,
    "\u2581underflow": 7617,
    "42a": 7618,
    "981": 7619,
    "\u25810xfffc": 7620,
    "\u2581numeric": 7621,
    "\u25810x417af2": 7622,
    "dd2": 7623,
    "9c9": 7624,
    "\u2581hit": 7625,
    "\u25810x4023a6": 7626,
    "\u25810x402401": 7627,
    "\u2581interface": 7628,
    "633": 7629,
    "9b7": 7630,
    "\u25810x424435": 7631,
    "\u25810x43b880": 7632,
    "\u2581controlc": 7633,
    "\u2581privileged": 7634,
    "\u25810x40933c": 7635,
    "8cd": 7636,
    "\u25810x7f7": 7637,
    "\u25810x402277": 7638,
    "\u25810x40f045": 7639,
    "d1a": 7640,
    "\u25810x457": 7641,
    "5c7": 7642,
    "d8d": 7643,
    "\u2581calls": 7644,
    "\u25810x4213ba": 7645,
    "\u25810x4227": 7646,
    "abaaaa": 7647,
    "\u2581bounds": 7648,
    "307": 7649,
    "8c9": 7650,
    "\u2581assertion": 7651,
    "31b": 7652,
    "\u25810x409b12": 7653,
    "\u25810x41e42c": 7654,
    "\u25810xb964af": 7655,
    "ce9": 7656,
    "idiv": 7657,
    "ecall": 7658,
    "\u25810xffaa": 7659,
    "\u2581safecall": 7660,
    "943": 7661,
    "\u25810x402397": 7662,
    "20c": 7663,
    "ypeex": 7664,
    "\u2581variantchangetypeex": 7665,
    "\u25810x406a82": 7666,
    "\u25810x40d01e": 7667,
    "\u25810x4105": 7668,
    "\u2581kernel32muldiv": 7669,
    "\u25810x4150": 7670,
    "\u25810x406f": 7671,
    "\u25810xffb5": 7672,
    "\u25810x417a9d": 7673,
    "\u2581varbool": 7674,
    "\u25810x41d740": 7675,
    "\u2581varbstrfromcy": 7676,
    "\u2581varboolfromstr": 7677,
    "\u2581varbstrfrombool": 7678,
    "\u2581varbstrfromdate": 7679,
    "\u2581varcy": 7680,
    "\u2581vardate": 7681,
    "\u2581varcyfromstr": 7682,
    "\u2581vardatefromstr": 7683,
    "7bf": 7684,
    "54e": 7685,
    "8from": 7686,
    "8fromstr": 7687,
    "\u2581varr8fromstr": 7688,
    "60a": 7689,
    "xor": 7690,
    "\u25810x7818": 7691,
    "\u2581varcmp": 7692,
    "\u2581varxor": 7693,
    "aaaaaaaaaq": 7694,
    "\u2581vari4fromstr": 7695,
    "\u2581varr4fromstr": 7696,
    "\u2581varor": 7697,
    "\u2581varand": 7698,
    "\u2581varmod": 7699,
    "zo": 7700,
    "dlg": 7701,
    "\u25810xffcd": 7702,
    "119": 7703,
    "neg": 7704,
    "\u25810x7ed0": 7705,
    "\u2581varidiv": 7706,
    "433": 7707,
    "srw": 7708,
    "\u25810x3e8": 7709,
    "\u2581varadd": 7710,
    "\u2581vardiv": 7711,
    "\u2581varmul": 7712,
    "\u2581varneg": 7713,
    "\u2581varnot": 7714,
    "\u2581varsub": 7715,
    "\u25810xfffb": 7716,
    "\u2581msvcrtpfmode": 7717,
    "d86": 7718,
    "61a": 7719,
    "\u25810x45e8fd": 7720,
    "1cb": 7721,
    "\u25810x100300": 7722,
    "\u2581application": 7723,
    "\u2581gdi32createpalette": 7724,
    "conditionvariablesrw": 7725,
    "\u2581sleepconditionvariablesrw": 7726,
    "\u25810x409344": 7727,
    "\u25810x41b0": 7728,
    "9a1": 7729,
    "\u25810x4aa4": 7730,
    "\u25810x40f3": 7731,
    "\u25810x4c4178": 7732,
    "581": 7733,
    "\u2581invalidfetch": 7734,
    "256": 7735,
    "firstw": 7736,
    "f8b": 7737,
    "e1a": 7738,
    "\u2581kk": 7739,
    "\u25810x4654": 7740,
    "\u25810xffb4": 7741,
    "68e": 7742,
    "\u25810x417719": 7743,
    "\u25810x40d005": 7744,
    "\u25810x4124": 7745,
    "\u25810x8c30": 7746,
    "\u25810x8d20": 7747,
    "427": 7748,
    "\u25810x417717": 7749,
    "po9hz": 7750,
    "83zvh9hyvl9hzpo9hz": 7751,
    "fr": 7752,
    "503": 7753,
    "\u25810xae": 7754,
    "\u25810x40ceee": 7755,
    "\u25810x503c": 7756,
    "817": 7757,
    "92e": 7758,
    "\u25810xffce": 7759,
    "\u25810x42b190": 7760,
    "\u25810x42eace": 7761,
    "ab65": 7762,
    "\u25810xffcf": 7763,
    "\u25810xfffa": 7764,
    "\u25810x41cbd2": 7765,
    "\u2581argument": 7766,
    "a25": 7767,
    "\u25810x40d020": 7768,
    "a1a": 7769,
    "779": 7770,
    "\u25810x4feb": 7771,
    "\u25810xffe6": 7772,
    "603": 7773,
    "\u25810x4d0": 7774,
    "\u25810x404508": 7775,
    "562": 7776,
    "5d7": 7777,
    "b25": 7778,
    "5d2": 7779,
    "72e": 7780,
    "3d2": 7781,
    "5c1": 7782,
    "945": 7783,
    "lmn": 7784,
    "\u25810x8c10": 7785,
    "fc5": 7786,
    "\u25810x7ec8": 7787,
    "\u25810x41c232": 7788,
    "d8f": 7789,
    "\u25810x30000": 7790,
    "\u25810x8bd0": 7791,
    "7ef": 7792,
    "\u2581wak": 7793,
    "\u25810x41d708": 7794,
    "f3f": 7795,
    "126": 7796,
    "c2d": 7797,
    "opq": 7798,
    "\u25810x1211ed4": 7799,
    "\u25810xfeee009d": 7800,
    "\u25810x6b9c08": 7801,
    "\u2581wakeconditionvariable": 7802,
    "uvw": 7803,
    "uvwxy": 7804,
    "opqrst": 7805,
    "350": 7806,
    "e86": 7807,
    "\u25810x40190f": 7808,
    "klmn": 7809,
    "\u25810xffb0": 7810,
    "klmnopqrst": 7811,
    "defghi": 7812,
    "klmnopqrstuvwxy": 7813,
    "abcdefghi": 7814,
    "\u25810x417ab6": 7815,
    "\u2581initializesrwlock": 7816,
    "\u25810x4082": 7817,
    "\u25810x4642": 7818,
    "\u25810x00428": 7819,
    "\u25810x417ab4": 7820,
    "617": 7821,
    "\u25810x4cb": 7822,
    "dg": 7823,
    "847": 7824,
    "\u25810x41bec9": 7825,
    "\u25810xffe5": 7826,
    "\u25810x4088fd": 7827,
    "\u25810xffb3": 7828,
    "\u25810x4021e5": 7829,
    "\u2581tryacquiresrwlockexclusive": 7830,
    "8880": 7831,
    "\u25810x7ec4": 7832,
    "\u25810x416d04": 7833,
    "\u25810x557de6": 7834,
    "\u2581th32cssnapprocess": 7835,
    "mitth": 7836,
    "\u2581submitth": 7837,
    "\u25810x1211690": 7838,
    "\u2581closethreadpoolwork": 7839,
    "\u2581createthreadpoolwork": 7840,
    "\u2581submitthreadpoolwork": 7841,
    "18d": 7842,
    "\u25810x40d9": 7843,
    "\u25810xffb2": 7844,
    "\u25810x418bf2": 7845,
    "a03": 7846,
    "\u25810xa818": 7847,
    "tokeninformation": 7848,
    "fa3a": 7849,
    "\u25810xfff9": 7850,
    "\u25810x41bec7": 7851,
    "\u2581setfileinformationbyhandle": 7852,
    "\u25810x4400": 7853,
    "967": 7854,
    "\u25810x169bc": 7855,
    "hook": 7856,
    "place": 7857,
    "\u25810xffb1": 7858,
    "\u2581kernel32process32firstw": 7859,
    "\u25810x7edc": 7860,
    "\u2581softwa": 7861,
    "\u25810x8be0": 7862,
    "fc9": 7863,
    "fcd": 7864,
    "ffd": 7865,
    "uzg": 7866,
    "\u25810x40c1a3": 7867,
    "\u25810x417182": 7868,
    "\u25810x406fc3": 7869,
    "ts": 7870,
    "365": 7871,
    "ee6": 7872,
    "\u25810x7ecc": 7873,
    "6660x15drl6660x15drl6660x15drl6660x15drl": 7874,
    "91e": 7875,
    "\u25810x7888": 7876,
    "\u25810x7ecd": 7877,
    "\u25810x44f928": 7878,
    "\u25810x416a17": 7879,
    "itor": 7880,
    "\u25810x41e7": 7881,
    "\u2581kernel32createdirectorya": 7882,
    "\u25810x7a10": 7883,
    "\u25810x8c40": 7884,
    "\u25810x41a966": 7885,
    "9ef": 7886,
    "\u25810x42e0f0": 7887,
    "\u25810x4390c8": 7888,
    "14e": 7889,
    "547": 7890,
    "58e": 7891,
    "\u2581getthreadpreferreduilanguages": 7892,
    "5ad": 7893,
    "\u25810xa7b": 7894,
    "\u25810x42a6": 7895,
    "8010": 7896,
    "\u25810x7ec9": 7897,
    "\u25810x13fff0": 7898,
    "\u25810xa7b0": 7899,
    "\u25810x40a6ce": 7900,
    "\u25810x4373": 7901,
    "\u25810x414cae": 7902,
    "\u25810x416a18": 7903,
    "84d": 7904,
    "f90": 7905,
    "\u2581getthreaduilanguage": 7906,
    "4c8": 7907,
    "5d3": 7908,
    "\u25810x8c00": 7909,
    "\u25810x4440": 7910,
    "\u25810x52664": 7911,
    "\u25810x8c70": 7912,
    "\u25810x8f50": 7913,
    "61d": 7914,
    "\u25810x7e88": 7915,
    "\u25810x40a5a0": 7916,
    "88f": 7917,
    "\u25810x41a9b6": 7918,
    "9bc": 7919,
    "ab1": 7920,
    "\u25810x555": 7921,
    "31a": 7922,
    "24a": 7923,
    "param": 7924,
    "\u25810xbe2": 7925,
    "\u25810x40a5aa": 7926,
    "5cd": 7927,
    "e4b": 7928,
    "\u25810x20019": 7929,
    "\u2581setthreadpreferreduilanguages": 7930,
    "7a6": 7931,
    "f41": 7932,
    "\u25810x3f34e0": 7933,
    "567": 7934,
    "bd6": 7935,
    "ni": 7936,
    "42d": 7937,
    "\u25810x41d6d0": 7938,
    "crypt": 7939,
    "\u25810x408a": 7940,
    "64b": 7941,
    "94d": 7942,
    "\u25810x41c026": 7943,
    "\u25810x418861": 7944,
    "\u25810x1211bc0": 7945,
    "\u25810x7ec5": 7946,
    "\u25810x7ed1": 7947,
    "\u25810x7ed4": 7948,
    "\u25810x52666": 7949,
    "\u25810x40a5a8": 7950,
    "\u25810x4237d8": 7951,
    "28b": 7952,
    "4c7": 7953,
    "c04": 7954,
    "hp": 7955,
    "63e": 7956,
    "dcf": 7957,
    "\u25810x4f94": 7958,
    "\u25810x40a5a2": 7959,
    "\u25810xfff8": 7960,
    "a73": 7961,
    "\u25810x487": 7962,
    "\u25810x41c21b": 7963,
    "\u25810x40a5a6": 7964,
    "\u25810x000045": 7965,
    "\u25810x40a5a4": 7966,
    "\u25810x4ba5": 7967,
    "\u25810x7da6": 7968,
    "983": 7969,
    "\u25810x7f64": 7970,
    "b26": 7971,
    "\u25810x7ed8": 7972,
    "\u25810x41ba": 7973,
    "2cb": 7974,
    "\u25810x01211c": 7975,
    "f8a": 7976,
    "ff2": 7977,
    "60b": 7978,
    "\u25810x40d306": 7979,
    "705": 7980,
    "be4": 7981,
    "\u25810x7edd": 7982,
    "96b": 7983,
    "\u2581lstrlenw": 7984,
    "9cb": 7985,
    "\u25810xfc": 7986,
    "785": 7987,
    "\u25810xa3a": 7988,
    "\u25810x2100": 7989,
    "\u25810x4317e0": 7990,
    "\u25810x43d": 7991,
    "\u25810x47ad": 7992,
    "\u25810x8c90": 7993,
    "3b3": 7994,
    "\u25810x422faf": 7995,
    "5fe": 7996,
    "da0": 7997,
    "963": 7998,
    "be9": 7999,
    "ce7": 8000,
    "\u25810x402ed1": 8001,
    "\u25810x5322bb": 8002,
    "\u25810x532316": 8003,
    "\u25810x7ee1": 8004,
    "\u25810x40a59e": 8005,
    "userw": 8006,
    "\u25810x8280": 8007,
    "\u25810x00430": 8008,
    "\u25810x1211c50": 8009,
    "d46": 8010,
    "\u25810x01211f44": 8011,
    "\u25810x429d88": 8012,
    "\u25810x4bc": 8013,
    "\u2581getprivateprofilesection": 8014,
    "96f": 8015,
    "de2": 8016,
    "logon": 8017,
    "\u25810x53218c": 8018,
    "\u25810x8d60": 8019,
    "\u25810x5322ac": 8020,
    "84b": 8021,
    "cbff": 8022,
    "\u25810x4380": 8023,
    "\u25810x1211958": 8024,
    "ae9": 8025,
    "\u25810x40d357": 8026,
    "956": 8027,
    "ff7": 8028,
    "\u25810x406a50": 8029,
    "\u2581cwindowstemphgdrawdll": 8030,
    "\u25810x4087e6": 8031,
    "aba": 8032,
    "\u25810x41c270": 8033,
    "\u25810x40bab9": 8034,
    "\u25810x2d4": 8035,
    "d81": 8036,
    "\u25810x41d0": 8037,
    "\u25810x40caa6": 8038,
    "\u25810x41bf31": 8039,
    "595": 8040,
    "80d": 8041,
    "environmentvariablea": 8042,
    "df5": 8043,
    "\u25810xa028": 8044,
    "d1ffcaff": 8045,
    "ffa": 8046,
    "\u25810x7f02": 8047,
    "\u25810x4352": 8048,
    "\u25810x7ed5": 8049,
    "b7e": 8050,
    "dform": 8051,
    "aaaaaaa": 8052,
    "\u2581b2acb2afcd": 8053,
    "fc1": 8054,
    "\u25810x4099": 8055,
    "90x400000": 8056,
    "inst": 8057,
    "\u25810x4261dc": 8058,
    "\u25810x556e46": 8059,
    "d4a": 8060,
    "meta": 8061,
    "eeb": 8062,
    "dfa": 8063,
    "\u25810x7ee4": 8064,
    "\u25810x47a0": 8065,
    "\u25810x415191": 8066,
    "\u2581kernel32getcurrentthread": 8067,
    "\u25810x7ed9": 8068,
    "\u25810x1211cc0": 8069,
    "\u2581user32registerclassexa": 8070,
    "\u25810x4f93": 8071,
    "\u25810x79a0": 8072,
    "c05": 8073,
    "ssp": 8074,
    "287": 8075,
    "eaf": 8076,
    "\u25810x20a": 8077,
    "68b": 8078,
    "fe5": 8079,
    "\u25810xfff7": 8080,
    "ea9": 8081,
    "pointers": 8082,
    "\u2581emustructexceptionpointers": 8083,
    "78b": 8084,
    "olfp": 8085,
    "controlfp": 8086,
    "\u25810x78f8": 8087,
    "\u25810x423d18": 8088,
    "\u25810x412d": 8089,
    "e4e": 8090,
    "311": 8091,
    "4c2": 8092,
    "e82": 8093,
    "\u25810x4063de": 8094,
    "925": 8095,
    "\u25810x406bea": 8096,
    "\u25810x413711": 8097,
    "882": 8098,
    "d8b": 8099,
    "\u25810x8d90": 8100,
    "uaa": 8101,
    "sspace": 8102,
    "\u25810x4139": 8103,
    "\u25810x4ed302": 8104,
    "\u25810x40a8b5": 8105,
    "\u25810x41fd": 8106,
    "\u25810x4011a6": 8107,
    "74e": 8108,
    "92f": 8109,
    "7db": 8110,
    "9b3": 8111,
    "fcf": 8112,
    "\u25810x7e89": 8113,
    "e1e": 8114,
    "\u25810x4187": 8115,
    "\u25810x43f7": 8116,
    "\u25810x71a0": 8117,
    "\u25810x120e6d8": 8118,
    "b0e": 8119,
    "c7ff": 8120,
    "\u25810x428487": 8121,
    "ffceffc7ff": 8122,
    "\u25810x00004720": 8123,
    "ffceffc7ffd1ffcaff": 8124,
    "\u2581shellexecutew": 8125,
    "\u25810x503a": 8126,
    "\u25810xfff6": 8127,
    "\u25810x4654d9": 8128,
    "ffceffc7ffd1ffcaffcbff": 8129,
    "\u2581b2acb2afcdffceffc7ffd1ffcaffcbff": 8130,
    "773": 8131,
    "\u25810x41e8": 8132,
    "\u25810x41ec": 8133,
    "\u25810x84b0": 8134,
    "f2a": 8135,
    "desk": 8136,
    "146": 8137,
    "706": 8138,
    "8c5": 8139,
    "\u25810x4ad4": 8140,
    "\u25810xfeee009e": 8141,
    "\u25810x42e6": 8142,
    "\u2581getlocaleinfoa": 8143,
    "dcc": 8144,
    "16462": 8145,
    "\u25810x4255": 8146,
    "\u2581msvcr71": 8147,
    "381": 8148,
    "\u25810x424e": 8149,
    "\u25810x4164": 8150,
    "\u25810x01211f40": 8151,
    "\u25810x7db": 8152,
    "\u25810x413d09": 8153,
    "28a": 8154,
    "7451": 8155,
    "once": 8156,
    "\u25810x4d00": 8157,
    "5c6": 8158,
    "\u25810x7ee5": 8159,
    "\u25810x8d50": 8160,
    "\u2581getfileinformationbyhandleexw": 8161,
    "9e5": 8162,
    "\u2581setfileinformationbyhandlew": 8163,
    "\u25810x67c0": 8164,
    "606": 8165,
    "\u25810x501": 8166,
    "xx": 8167,
    "\u25810x7f6476": 8168,
    "truct": 8169,
    "\u2581emumodule9": 8170,
    "52a": 8171,
    "a1b": 8172,
    "34e": 8173,
    "itexe": 8174,
    "\u25810x41c234": 8175,
    "\u25810xfeee00a0": 8176,
    "5a8": 8177,
    "\u2581comm": 8178,
    "\u25810x50cbb": 8179,
    "5cf": 8180,
    "common": 8181,
    "\u25810x8d30": 8182,
    "\u25810x4114": 8183,
    "\u25810x41f6": 8184,
    "501": 8185,
    "506": 8186,
    "\u25810x415286": 8187,
    "35b": 8188,
    "\u25810x4086": 8189,
    "quen": 8190,
    "\u25810x4030a6": 8191,
    "\u25810x4160": 8192,
    "\u25810x442256": 8193,
    "\u25810x42d390": 8194,
    "9e9": 8195,
    "f54": 8196,
    "7d2": 8197,
    "\u2581ntcurrentversionwindows": 8198,
    "\u25810x005090": 8199,
    "\u2581findfirst": 8200,
    "\u25810xfeee009f": 8201,
    "881": 8202,
    "\u25810x10002": 8203,
    "529": 8204,
    "\u25810x40f4ce": 8205,
    "\u25810x416791": 8206,
    "dba": 8207,
    "\u25810x504": 8208,
    "\u25810x4232": 8209,
    "\u25810x41010d": 8210,
    "\u25810x41680b": 8211,
    "rn": 8212,
    "box": 8213,
    "\u25810x44255d": 8214,
    "7b60": 8215,
    "\u25810x442249": 8216,
    "\u2581regcreate": 8217,
    "14f": 8218,
    "atehandle": 8219,
    "\u25810x4100fd": 8220,
    "\u25810x1211f6c": 8221,
    "e01": 8222,
    "\u25810x004010": 8223,
    "325": 8224,
    "\u2581emumodule6": 8225,
    "\u25810x429c0c": 8226,
    "\u25810x421c": 8227,
    "14b": 8228,
    "5b1": 8229,
    "\u25810x8ca0": 8230,
    "e1f": 8231,
    "\u25810x7c70": 8232,
    "\u25810x423da8": 8233,
    "\u2581hkeylocalmachinesoftwaremicrosoftwindows": 8234,
    "e67": 8235,
    "\u25810x4286": 8236,
    "00cc": 8237,
    "\u25810x8fc0": 8238,
    "\u2581orig": 8239,
    "\u25810x8cd0": 8240,
    "\u2581original": 8241,
    "lasses": 8242,
    "\u2581opene": 8243,
    "32d": 8244,
    "\u25810x41fe": 8245,
    "e0b": 8246,
    "ctrl": 8247,
    "\u25810x1211518": 8248,
    "\u25810x052663": 8249,
    "0k": 8250,
    "\u25810x4175e9": 8251,
    "\u25810x4642de": 8252,
    "7e9": 8253,
    "\u25810x60c": 8254,
    "\u25810x419479": 8255,
    "\u25810x4a8": 8256,
    "\u25810x4057": 8257,
    "\u25810xffab": 8258,
    "\u25810x419412": 8259,
    "\u25810x41947b": 8260,
    "\u25810x7968": 8261,
    "e8e": 8262,
    "cad": 8263,
    "\u25810x1211ee0": 8264,
    "\u25810x4175e7": 8265,
    "\u25810x419467": 8266,
    "\u25810x408916": 8267,
    "abase": 8268,
    "\u25810x42b4": 8269,
    "\u25810x410b": 8270,
    "\u25810x4b8fb0": 8271,
    "ff9": 8272,
    "\u25810x41a715": 8273,
    "0h": 8274,
    "\u25810x41490a": 8275,
    "aaaaaaaaaaaaaaaaaaa": 8276,
    "f3a": 8277,
    "listmsg": 8278,
    "ctrldrag": 8279,
    "\u2581commctrldrag": 8280,
    "\u2581commctrldraglistmsg": 8281,
    "7e2": 8282,
    "9a2": 8283,
    "f7f": 8284,
    "\u2581getvolumeinformation": 8285,
    "\u25810xfeee00a1": 8286,
    "9456": 8287,
    "\u25810xffac": 8288,
    "\u25810xfeee00a2": 8289,
    "e2e": 8290,
    "priority": 8291,
    "\u25810x408973": 8292,
    "0f": 8293,
    "\u25810x2012": 8294,
    "\u25810x408918": 8295,
    "ed7": 8296,
    "\u25810x4244": 8297,
    "\u2581comparestringw": 8298,
[...]
